{
  "version": "1.0",
  "truncation": null,
  "padding": null,
  "added_tokens": [
    {
      "id": 0,
      "content": "[UNK]",
      "single_word": false,
      "lstrip": false,
      "rstrip": false,
      "normalized": false,
      "special": true
    },
    {
      "id": 1,
      "content": "[EOS]",
      "single_word": false,
      "lstrip": false,
      "rstrip": false,
      "normalized": false,
      "special": true
    }
  ],
  "normalizer": null,
  "pre_tokenizer": {
    "type": "ByteLevel",
    "add_prefix_space": true,
    "trim_offsets": true,
    "use_regex": true
  },
  "post_processor": {
    "type": "ByteLevel",
    "add_prefix_space": true,
    "trim_offsets": true,
    "use_regex": true
  },
  "decoder": {
    "type": "ByteLevel",
    "add_prefix_space": true,
    "trim_offsets": true,
    "use_regex": true
  },
  "model": {
    "type": "BPE",
    "dropout": null,
    "unk_token": "[UNK]",
    "continuing_subword_prefix": null,
    "end_of_word_suffix": null,
    "fuse_unk": false,
    "byte_fallback": false,
    "ignore_merges": false,
    "vocab": {
      "[UNK]": 0,
      "[EOS]": 1,
      "!": 2,
      "\"": 3,
      "#": 4,
      "$": 5,
      "%": 6,
      "&": 7,
      "'": 8,
      "(": 9,
      ")": 10,
      "*": 11,
      "+": 12,
      ",": 13,
      "-": 14,
      ".": 15,
      "/": 16,
      "0": 17,
      "1": 18,
      "2": 19,
      "3": 20,
      "4": 21,
      "5": 22,
      "6": 23,
      "7": 24,
      "8": 25,
      "9": 26,
      ":": 27,
      ";": 28,
      "<": 29,
      "=": 30,
      ">": 31,
      "?": 32,
      "@": 33,
      "A": 34,
      "B": 35,
      "C": 36,
      "D": 37,
      "E": 38,
      "F": 39,
      "G": 40,
      "H": 41,
      "I": 42,
      "J": 43,
      "K": 44,
      "L": 45,
      "M": 46,
      "N": 47,
      "O": 48,
      "P": 49,
      "Q": 50,
      "R": 51,
      "S": 52,
      "T": 53,
      "U": 54,
      "V": 55,
      "W": 56,
      "X": 57,
      "Y": 58,
      "Z": 59,
      "[": 60,
      "\\": 61,
      "]": 62,
      "^": 63,
      "_": 64,
      "`": 65,
      "a": 66,
      "b": 67,
      "c": 68,
      "d": 69,
      "e": 70,
      "f": 71,
      "g": 72,
      "h": 73,
      "i": 74,
      "j": 75,
      "k": 76,
      "l": 77,
      "m": 78,
      "n": 79,
      "o": 80,
      "p": 81,
      "q": 82,
      "r": 83,
      "s": 84,
      "t": 85,
      "u": 86,
      "v": 87,
      "w": 88,
      "x": 89,
      "y": 90,
      "z": 91,
      "{": 92,
      "|": 93,
      "}": 94,
      "~": 95,
      "¡": 96,
      "¢": 97,
      "£": 98,
      "¤": 99,
      "¥": 100,
      "¦": 101,
      "§": 102,
      "¨": 103,
      "©": 104,
      "ª": 105,
      "«": 106,
      "¬": 107,
      "®": 108,
      "¯": 109,
      "°": 110,
      "±": 111,
      "²": 112,
      "³": 113,
      "´": 114,
      "µ": 115,
      "¶": 116,
      "·": 117,
      "¸": 118,
      "¹": 119,
      "º": 120,
      "»": 121,
      "¼": 122,
      "½": 123,
      "¾": 124,
      "¿": 125,
      "Â": 126,
      "Ã": 127,
      "Ä": 128,
      "Å": 129,
      "Æ": 130,
      "Ç": 131,
      "È": 132,
      "É": 133,
      "Ê": 134,
      "Ë": 135,
      "Ì": 136,
      "Í": 137,
      "Î": 138,
      "Ï": 139,
      "Ð": 140,
      "Ñ": 141,
      "Ò": 142,
      "Ó": 143,
      "Ô": 144,
      "Õ": 145,
      "Ö": 146,
      "×": 147,
      "Ø": 148,
      "Ù": 149,
      "Ú": 150,
      "Û": 151,
      "Ü": 152,
      "Ý": 153,
      "ß": 154,
      "à": 155,
      "á": 156,
      "â": 157,
      "ã": 158,
      "ä": 159,
      "å": 160,
      "æ": 161,
      "ç": 162,
      "è": 163,
      "é": 164,
      "ê": 165,
      "ë": 166,
      "ì": 167,
      "í": 168,
      "ï": 169,
      "ð": 170,
      "ĉ": 171,
      "Ċ": 172,
      "Ġ": 173,
      "Ģ": 174,
      "ģ": 175,
      "Ĥ": 176,
      "ĥ": 177,
      "Ħ": 178,
      "ħ": 179,
      "Ĩ": 180,
      "ĩ": 181,
      "Ī": 182,
      "ī": 183,
      "Ĭ": 184,
      "ĭ": 185,
      "Į": 186,
      "į": 187,
      "İ": 188,
      "ı": 189,
      "Ĳ": 190,
      "ĳ": 191,
      "Ĵ": 192,
      "ĵ": 193,
      "Ķ": 194,
      "ķ": 195,
      "ĸ": 196,
      "Ĺ": 197,
      "ĺ": 198,
      "Ļ": 199,
      "ļ": 200,
      "Ľ": 201,
      "ľ": 202,
      "Ŀ": 203,
      "ŀ": 204,
      "Ł": 205,
      "ł": 206,
      "Ń": 207,
      "ĠÐ": 208,
      "Ð¾": 209,
      "Ðµ": 210,
      "Ð°": 211,
      "Ð¸": 212,
      "Ð½": 213,
      "ÑĢ": 214,
      "Ñģ": 215,
      "ÑĤ": 216,
      "Ð¾Ð": 217,
      "Ð»": 218,
      "Ðº": 219,
      "Ġt": 220,
      "Ġa": 221,
      "Ñĥ": 222,
      "he": 223,
      "Ñı": 224,
      "Ð²": 225,
      "Ð¼": 226,
      "in": 227,
      "Ñĭ": 228,
      "ÑģÑĤ": 229,
      "Ð´": 230,
      "er": 231,
      "ĠÐ¿": 232,
      "Ġthe": 233,
      "on": 234,
      "ÑĮ": 235,
      "ĠÐ²": 236,
      "ÐµÐ½": 237,
      "ÑĢÐ°": 238,
      "re": 239,
      "Ġo": 240,
      "Ð¹": 241,
      "Ñĩ": 242,
      "Ð¾Ð²": 243,
      "an": 244,
      "Ð·": 245,
      "ĠÐ¸": 246,
      "ĠÑģ": 247,
      "at": 248,
      "en": 249,
      "ÑģÐº": 250,
      "Ġs": 251,
      "Ñħ": 252,
      "ed": 253,
      "is": 254,
      "Ð¿": 255,
      "es": 256,
      "or": 257,
      "it": 258,
      "Ð°Ð½": 259,
      "Ġw": 260,
      "al": 261,
      "Ġof": 262,
      "ÐµÑĢ": 263,
      "Ġc": 264,
      "Ð³": 265,
      "Ġan": 266,
      "ĠÐ¾": 267,
      "ĠÐ½": 268,
      "ar": 269,
      "Ð±": 270,
      "Ġ1": 271,
      "Ð¾ÑĢ": 272,
      "Ġb": 273,
      "Âł": 274,
      "Ð¾Ð´": 275,
      "Ġin": 276,
      "Ð¾Ð»": 277,
      "ic": 278,
      "Ġf": 279,
      "Ġp": 280,
      "âĢ": 281,
      "ĠÐº": 282,
      "Ġ(": 283,
      "ÑĨ": 284,
      "Ð½Ñĭ": 285,
      "ÑĢÐµ": 286,
      "Ġand": 287,
      "Ð»Ð¸": 288,
      "Ñİ": 289,
      "ing": 290,
      "Ð¾Ð¼": 291,
      "ion": 292,
      "as": 293,
      "Ð¾Ð³": 294,
      "ro": 295,
      "Ð»ÑĮ": 296,
      "ÑĢÐ¸": 297,
      "ĠA": 298,
      "âĢĶ": 299,
      "Ġm": 300,
      "Ð¾Ð¹": 301,
      "ĠÐ´": 302,
      "ÐµÑĤ": 303,
      "Ð¾Ð½": 304,
      "Ð¶": 305,
      "Ġto": 306,
      "Ġd": 307,
      "le": 308,
      "ÑĪ": 309,
      "ĠÐ½Ð°": 310,
      "Ð¸Ð¹": 311,
      "Ð°ÑĤ": 312,
      "ĠÐ¼": 313,
      "Ð¸Ñı": 314,
      "ĠÑĤ": 315,
      "Ð¸Ðµ": 316,
      "ÑĦ": 317,
      "Ð¸ÑĤ": 318,
      "Ġh": 319,
      "Ð½Ð¾": 320,
      "Ð»Ð°": 321,
      "us": 322,
      "ĠÐ³": 323,
      "ent": 324,
      "Ð¾Ñģ": 325,
      "Ð¸Ð½": 326,
      "Ġ19": 327,
      "ÑģÑĤÐ²": 328,
      "ĠÐ±": 329,
      "Ð¸Ð¸": 330,
      "om": 331,
      "ĠÐ°": 332,
      "Ð¾ÑĤ": 333,
      "Ð°ÑĢ": 334,
      "Ð¸Ðº": 335,
      "il": 336,
      "ou": 337,
      "Ġre": 338,
      "el": 339,
      "ĠT": 340,
      "ct": 341,
      "Ð¾Ð³Ð¾": 342,
      "ĠS": 343,
      "Ġ2": 344,
      "Ñī": 345,
      "Ð»Ðµ": 346,
      "ol": 347,
      "Ġl": 348,
      "ĠB": 349,
      "ÑĩÐµ": 350,
      "Ġe": 351,
      "Ð°Ñı": 352,
      "Ñĳ": 353,
      "Ġth": 354,
      "Ð°Ðº": 355,
      "st": 356,
      "Ġn": 357,
      "ĠC": 358,
      "ĠÐ¡": 359,
      "ÑģÑı": 360,
      "ĠÐ·": 361,
      "am": 362,
      "Ð»Ñı": 363,
      "ĠÐĴ": 364,
      "Ð¼Ð¸": 365,
      "ur": 366,
      "ch": 367,
      "et": 368,
      "ly": 369,
      "ad": 370,
      "ĠÑĥ": 371,
      "ÑĢÑĥ": 372,
      "Ñį": 373,
      "ation": 374,
      "ĠI": 375,
      "id": 376,
      "im": 377,
      "ÐµÐ»ÑĮ": 378,
      "iv": 379,
      "ce": 380,
      "ÑģÐºÐ¸Ð¹": 381,
      "ÐµÐ¼": 382,
      "ĠM": 383,
      "un": 384,
      "ot": 385,
      "ĠÐŁ": 386,
      "Ð¾ÑģÑĤ": 387,
      "Ġis": 388,
      "ĠÐ¿ÑĢ": 389,
      "ut": 390,
      "ig": 391,
      "Ð¾Ð±": 392,
      "ĠÑĢÐ°": 393,
      "Ð°Ð»": 394,
      "ĠÐļ": 395,
      "),": 396,
      "Â»": 397,
      "Â«": 398,
      "ir": 399,
      "Ġas": 400,
      "ÐµÐ¹": 401,
      "Ð¸Ð¼": 402,
      "Ð°Ð²": 403,
      "Ġbe": 404,
      "ÐºÐ°": 405,
      "Ð¸Ñħ": 406,
      "Ġfor": 407,
      "ĠÂ«": 408,
      "Ġg": 409,
      "00": 410,
      "ra": 411,
      "ter": 412,
      "Ð¸Ñģ": 413,
      "ÐµÐ´": 414,
      "ĠP": 415,
      "ÐµÐ²": 416,
      "Ġon": 417,
      "ĠÐ¾Ð±": 418,
      "ul": 419,
      "ĠÐĲ": 420,
      "Ġwas": 421,
      "ist": 422,
      "ĠÑĩ": 423,
      "ĠÑģÑĤ": 424,
      "ith": 425,
      "ĠThe": 426,
      "Ð»ÐµÐ½": 427,
      "ĠÐ¾ÑĤ": 428,
      "ers": 429,
      "ow": 430,
      "ĠÐľ": 431,
      "Ð¡": 432,
      "Ð¾Ð·": 433,
      "ĠÑĦ": 434,
      "Ð¾Ðº": 435,
      "her": 436,
      "ÐºÑĤ": 437,
      "Ð¸Ð²": 438,
      "Ð¾Ð»ÑĮ": 439,
      "ĠÐ¿ÑĢÐ¸": 440,
      "Ð½ÑĭÑħ": 441,
      "ĠH": 442,
      "em": 443,
      "ĠÐ½Ðµ": 444,
      "ĠÑį": 445,
      "Ð½Ð°": 446,
      "Ġst": 447,
      "Ġal": 448,
      "Ð½Ð¾Ð¹": 449,
      "Ġwith": 450,
      "os": 451,
      "ay": 452,
      "Ð¾Ð¶": 453,
      "th": 454,
      "ĠÐ»": 455,
      "Ð½ÑĭÐ¹": 456,
      "Ð¸Ð»": 457,
      "Ð¸ÑĩÐµ": 458,
      "Ð°Ð¼": 459,
      "Ġcon": 460,
      "ĠÐ¸Ð·": 461,
      "Ġby": 462,
      ").": 463,
      "ĠĊ": 464,
      "ĠR": 465,
      "ÑĢÐ°Ð½": 466,
      "ver": 467,
      "and": 468,
      "Ð¾Ð¿": 469,
      "um": 470,
      "Ġthat": 471,
      "ĠE": 472,
      "ĠG": 473,
      "Ð°Ð»ÑĮ": 474,
      "ĠÐ¿Ð¾": 475,
      "ĠÐł": 476,
      "Ġwh": 477,
      "ÑģÐ¿": 478,
      "Ð¸Ð·": 479,
      "ĠD": 480,
      "ĠÐ¿ÑĢÐµ": 481,
      "ian": 482,
      "ĠF": 483,
      "ÑĢÐ¾Ð²": 484,
      "ÐµÐ½ÑĤ": 485,
      "Ð½ÑĭÐµ": 486,
      "op": 487,
      "Ð¾Ð´Ð°": 488,
      "ĠL": 489,
      "ĠÐĿ": 490,
      "Ð¸ÑģÑĤ": 491,
      "od": 492,
      "ĠÐĵ": 493,
      "Ġpro": 494,
      "ĠÑĢÐµ": 495,
      "ĠÐ±Ñĭ": 496,
      "'s": 497,
      "ag": 498,
      "ÑĨÐ¸": 499,
      "âĢĵ": 500,
      "Ð½Ð¾Ð³Ð¾": 501,
      "ĠÐĳ": 502,
      "ÐµÐ½Ð¸Ñı": 503,
      "ÑģÐºÐ¾Ð¹": 504,
      "Ð½Ð¾ÑģÑĤ": 505,
      "av": 506,
      "ri": 507,
      "est": 508,
      "ĠÐ¿ÐµÑĢ": 509,
      "ac": 510,
      "ĠW": 511,
      "ÑıÑĤ": 512,
      "Ġde": 513,
      "Ġv": 514,
      "Ð´Ðµ": 515,
      "Ð°Ð»Ð¸": 516,
      "ĠÐµ": 517,
      "Ġor": 518,
      "Ġ20": 519,
      "rom": 520,
      "19": 521,
      "Ġ18": 522,
      "ĠN": 523,
      "ĠÐĶ": 524,
      "Ġcom": 525,
      "ÑĥÑİ": 526,
      "Ð³Ð¾": 527,
      "Ġ\"": 528,
      "ab": 529,
      "if": 530,
      "ain": 531,
      "res": 532,
      "ÑĤÐ¾": 533,
      "Ġit": 534,
      "ÐµÐ½Ð¸Ðµ": 535,
      "ÑĥÐ´": 536,
      "Ġat": 537,
      "ĠÐ²Ñĭ": 538,
      "ÑģÐºÐ¾Ð³Ð¾": 539,
      "ity": 540,
      "Ġsu": 541,
      "Ġare": 542,
      "ies": 543,
      "ĠJ": 544,
      "Ġfrom": 545,
      "Ð¸Ð´": 546,
      "pe": 547,
      "ĠÐĺ": 548,
      "ÐµÑĢÐ°": 549,
      "ÑĢÐ°Ð²": 550,
      "ÑģÑģ": 551,
      "ate": 552,
      "ĠÐŀ": 553,
      "ĠÐ·Ð°": 554,
      "Ð½Ð¸Ðº": 555,
      "ĠÑı": 556,
      "Ġex": 557,
      "ĠÐ¢": 558,
      "ud": 559,
      "oun": 560,
      "Ġhe": 561,
      "ĠÐ¿Ð¾Ð»": 562,
      "ĠÑģÐ²": 563,
      "ÑĥÑĢ": 564,
      "ÑģÐºÐ°Ñı": 565,
      "ÐĴ": 566,
      "ÐŁ": 567,
      "ĠÐĽ": 568,
      "ÑĥÐ¼": 569,
      "ort": 570,
      "ich": 571,
      "ÑİÑĤ": 572,
      "ant": 573,
      "oc": 574,
      "qu": 575,
      "ÑĨÐ¸Ð¸": 576,
      "Ð´Ð°": 577,
      "ÐµÑģÑĤ": 578,
      "ÐµÐº": 579,
      "ÑĥÑĤ": 580,
      "ia": 581,
      "all": 582,
      "ĠIn": 583,
      "ess": 584,
      "ld": 585,
      "Ġse": 586,
      "Ð¼ÐµÐ½": 587,
      "Ð¶Ðµ": 588,
      "ĠÐ¶": 589,
      "Ð²Ð°": 590,
      "Ð½Ð°Ñı": 591,
      "Ġr": 592,
      "Ð°ÑģÑĤ": 593,
      "ill": 594,
      "ĠÑĢÐ°Ð·": 595,
      "ore": 596,
      "ÐºÐ¸": 597,
      "ĠâĢĵ": 598,
      "Ð¾Ð´Ñĥ": 599,
      "ical": 600,
      "ĠO": 601,
      "ÐµÑĤÑģÑı": 602,
      "Ð¾ÑĤÐ¾ÑĢ": 603,
      "Ġhis": 604,
      "Ð¾Ðµ": 605,
      "art": 606,
      "ÑģÑĮ": 607,
      "pp": 608,
      "Ð½Ð¸": 609,
      "ÑģÑĤÐ²ÐµÐ½": 610,
      "pt": 611,
      "ĠÑħ": 612,
      "ÑīÐµ": 613,
      "ive": 614,
      "ĠÑĢ": 615,
      "og": 616,
      "igh": 617,
      "ial": 618,
      "ÑģÐµ": 619,
      "ard": 620,
      "ÑĤÐ°": 621,
      "Ð»Ð¾Ð²": 622,
      "ish": 623,
      "ber": 624,
      "Ð¼ÐµÑĢ": 625,
      "ment": 626,
      "Ð¸ÑĤÐµÐ»ÑĮ": 627,
      "ated": 628,
      "Ðł": 629,
      "Ð½Ð¾Ð²": 630,
      "Ð°Ð½Ð¸Ñı": 631,
      "Ð½Ðµ": 632,
      "ĠÑĤÐ°Ðº": 633,
      "Ġun": 634,
      "ĠÐ¿Ð¾Ð´": 635,
      "Ġ200": 636,
      "ew": 637,
      "Ð·Ñĭ": 638,
      "ĠÐ¤": 639,
      "ÑĤÐ¾ÑĢ": 640,
      "ĠU": 641,
      "Ð»Ð¾": 642,
      "mer": 643,
      "Ð¶Ð´": 644,
      "Ð°Ð´": 645,
      "ak": 646,
      "se": 647,
      "Ð¸ÑĩÐµÑģÐº": 648,
      "Ġus": 649,
      "Ġwhich": 650,
      "gh": 651,
      "ere": 652,
      "Ð¾Ñĩ": 653,
      "ĠĠ": 654,
      "ÑĢÑı": 655,
      "ction": 656,
      "ÑĥÑĩ": 657,
      "ĠÐ¾Ñģ": 658,
      "ure": 659,
      "ther": 660,
      "ÑģÑĤÐ²Ð°": 661,
      "ĠÑĤÐµ": 662,
      "ine": 663,
      "Ġ201": 664,
      "ous": 665,
      "Ġ3": 666,
      "Ġpl": 667,
      "ost": 668,
      "Ð°Ð½Ð¸Ðµ": 669,
      "ĠÐºÐ¾ÑĤÐ¾ÑĢ": 670,
      "ĠÐ´Ðµ": 671,
      "Ð°ÑĤÑĮ": 672,
      "Ð½ÑĭÐ¼": 673,
      "ĠK": 674,
      "ell": 675,
      "Ð¾ÑģÑģ": 676,
      "Ġch": 677,
      "ip": 678,
      "ÐĲ": 679,
      "ge": 680,
      "ary": 681,
      "Ð¸Ð»Ð¸": 682,
      "end": 683,
      "Ġwere": 684,
      "Ð½Ð¾Ðµ": 685,
      "ĠÐ¿ÑĢÐ¾": 686,
      "ÑĭÑħ": 687,
      "ÑħÐ¾Ð´": 688,
      "Ðļ": 689,
      "Ð¸ÑĨ": 690,
      "ÑģÑĤÐ²Ð¾": 691,
      "ÑĢÐ¾": 692,
      "ov": 693,
      "rit": 694,
      "ast": 695,
      "ÑĳÐ½": 696,
      "ÑĭÐµ": 697,
      "our": 698,
      "ave": 699,
      "The": 700,
      "Ð°Ð¹": 701,
      "so": 702,
      "ĠÑģÐ¾": 703,
      "ĠÐ¿ÑĢÐµÐ´": 704,
      "cl": 705,
      "ĠÑĩÐµ": 706,
      "Ð°ÑĤÐµÐ»ÑĮ": 707,
      "ÐµÐ»Ð¸": 708,
      "ĠÑģÐ¾Ð²": 709,
      "Ġnot": 710,
      "ÑĥÐ±": 711,
      "ust": 712,
      "ÑĢÐ°Ð·": 713,
      "Ð½Ð¾Ð¼": 714,
      "Ġle": 715,
      "Ð½Ñı": 716,
      "per": 717,
      "Ġar": 718,
      "ong": 719,
      "ÐºÐ¾Ð²": 720,
      "ran": 721,
      "Ð°Ð½Ð´": 722,
      "Ġcomp": 723,
      "ÐµÐ·": 724,
      "ord": 725,
      "Ð°Ñħ": 726,
      "Ð°Ð·": 727,
      "ĠÑĨ": 728,
      "ame": 729,
      "Ð¸Ñĩ": 730,
      "ĠÐ¸Ð¼": 731,
      "ÐµÐ»": 732,
      "ĠÐºÐ°Ðº": 733,
      "cc": 734,
      "Ġk": 735,
      "ĠÐºÐ¾Ð½": 736,
      "ect": 737,
      "ÑĭÐ¹": 738,
      "Ð¸Ñİ": 739,
      "ican": 740,
      "ÑĥÑģ": 741,
      "Ġ199": 742,
      "ĠÑĩÑĤÐ¾": 743,
      "ĊĠ": 744,
      "up": 745,
      "ear": 746,
      "Ð½Ð¾ÑģÑĤÐ¸": 747,
      "ight": 748,
      "du": 749,
      "ĠV": 750,
      "ire": 751,
      "ap": 752,
      "Ð»ÐµÐ´": 753,
      "ÑĢÐ°ÑĤ": 754,
      "ĠÐ²Ð¾": 755,
      "Ð°Ð¼Ð¸": 756,
      "ĠÑįÑĤ": 757,
      "ĠÐ³Ð¾ÑĢ": 758,
      "ome": 759,
      "ition": 760,
      "ĠSt": 761,
      "ĠÐ¿Ð¾Ñģ": 762,
      "ÐĿ": 763,
      "ĠÐŃ": 764,
      "Ð½Ð¾ÑģÑĤÑĮ": 765,
      "ff": 766,
      "ub": 767,
      "Ġsh": 768,
      "iz": 769,
      "Ð±ÑĢÑı": 770,
      "Ð¾Ñı": 771,
      "Ð»Ð°Ð²": 772,
      "ĠÐ³Ð¾Ð´Ð°": 773,
      "ult": 774,
      "Ġalso": 775,
      "ÑģÐºÐ¸Ñħ": 776,
      "ĠÐ´Ð»Ñı": 777,
      "ib": 778,
      "Â».": 779,
      "ĠÐºÐ¾Ð¼": 780,
      "ĠCh": 781,
      "ÑĥÐ½": 782,
      "der": 783,
      "Ġhave": 784,
      "Ġ4": 785,
      "ĠAl": 786,
      "ĠÐ¾Ð´": 787,
      "ry": 788,
      "ĠÑĪ": 789,
      "ĠAn": 790,
      "Ġcont": 791,
      "ass": 792,
      "ÑĨÐ¸Ð¾Ð½": 793,
      "ign": 794,
      "ÐµÐ»Ðµ": 795,
      "Ġ17": 796,
      "Ð¸Ð±": 797,
      "ĠÐ¾Ð¿": 798,
      "ations": 799,
      "Ð°Ð»Ð°": 800,
      "ĠÑĢÑĥ": 801,
      "ks": 802,
      "Ðŀ": 803,
      "Ð¸ÑĢ": 804,
      "ĠÐ°Ð²": 805,
      "Ġad": 806,
      "Ġhad": 807,
      "ÐºÐ¾": 808,
      "Ġint": 809,
      "ph": 810,
      "ĠÐ¸Ð½": 811,
      "ence": 812,
      "ÑĢÐµÐ´": 813,
      "Ð°Ñģ": 814,
      "ÐµÑģ": 815,
      "ide": 816,
      "ĠÑģÐ¾ÑģÑĤ": 817,
      "ie": 818,
      "ÑĢÑĥÐ³": 819,
      "Ð°ÑĢÐ¸": 820,
      "ĠÐķ": 821,
      "ue": 822,
      "age": 823,
      "Ġhas": 824,
      "Ġab": 825,
      "ÑĢÑĭ": 826,
      "ÑĥÐ¿": 827,
      "20": 828,
      "hen": 829,
      "Ġ5": 830,
      "fer": 831,
      "Ġy": 832,
      "pl": 833,
      "Ð¼Ð°": 834,
      "Ġits": 835,
      "Ð»ÐµÐ½Ð¸Ñı": 836,
      "erm": 837,
      "ĠÐ£": 838,
      "ÐµÑĩ": 839,
      "ory": 840,
      "Ð¸Ð»ÑĮ": 841,
      "Ð¸ÑĢÐ¾Ð²": 842,
      "ĠÑĤÐ°ÐºÐ¶Ðµ": 843,
      "ĠAmer": 844,
      "are": 845,
      "Ġ198": 846,
      "ally": 847,
      "ĠÐĹ": 848,
      "Ġtheir": 849,
      "ÐµÐµ": 850,
      "ÐµÐ³": 851,
      "ĠÐ¿ÑĢÐ°Ð²": 852,
      "irst": 853,
      "ÑĳÑĢ": 854,
      "ÑĨÐ¸Ñı": 855,
      "Ð¾ÑģÑĥÐ´": 856,
      "Ð°Ð³": 857,
      "tern": 858,
      "Ġbut": 859,
      "Â»,": 860,
      "ĠÐ¥": 861,
      "ater": 862,
      "ru": 863,
      "Ġcl": 864,
      "ack": 865,
      "18": 866,
      "Ġres": 867,
      "ĠÐ°ÑĢ": 868,
      "Ð»Ñİ": 869,
      "ÑĬ": 870,
      "ĠÐ³Ð¾Ð´Ñĥ": 871,
      "Ð¾Ð»ÑĮÑĪ": 872,
      "ould": 873,
      "ree": 874,
      "Ġwor": 875,
      "Ð¾ÑģÑĥÐ´Ð°ÑĢ": 876,
      "Ð¾ÑĢÐ°": 877,
      "ÑĥÐ»ÑĮ": 878,
      "Ð°Ð½Ð°": 879,
      "Ð°ÑĢÑĤ": 880,
      "ĠÐ¿ÐµÑĢÐ²": 881,
      "Ð¸Ð¼Ð¸": 882,
      "Ġ197": 883,
      "ĠAr": 884,
      "ÑİÑī": 885,
      "Ġother": 886,
      "Ðľ": 887,
      "Ġall": 888,
      "ang": 889,
      "act": 890,
      "Ð¾Ð»Ð¾Ð³": 891,
      "Ġpart": 892,
      "ĠÐ´Ð¾": 893,
      "ÐµÑĨ": 894,
      "ates": 895,
      "ĠÑĩÐ°ÑģÑĤ": 896,
      "ĠÑģÐ¿": 897,
      "Ð°Ð½Ð¾Ð²": 898,
      "Ð·Ð°": 899,
      "ces": 900,
      "ĠTh": 901,
      "ĠUn": 902,
      "Ġim": 903,
      "Ġ196": 904,
      "ely": 905,
      "Ð¸Ð½Ð°": 906,
      "ĠÐ²Ð¾Ð¹": 907,
      "ÑĢÐ¾Ð´": 908,
      "Ġdis": 909,
      "Ġfirst": 910,
      "ÑģÐ°": 911,
      "ts": 912,
      "clud": 913,
      "con": 914,
      "ÐºÐµ": 915,
      "ĠÑģÐ¾Ð²ÐµÑĤ": 916,
      "ens": 917,
      "ĠÐµÐ³Ð¾": 918,
      "Ġman": 919,
      "Ðĺ": 920,
      "ÑıÐ½": 921,
      "ĠÐ²ÑĢÐµ": 922,
      "Ġthis": 923,
      "ĠÐ²Ð¾Ð·": 924,
      "ach": 925,
      "oll": 926,
      "ÑģÑĤÐ°Ð²": 927,
      "ĠÐ¾ÑģÐ½Ð¾Ð²": 928,
      "ĠÐ°ÐºÑĤ": 929,
      "ok": 930,
      "ÑģÐºÐ¸Ðµ": 931,
      "ĠAmerican": 932,
      "ĠÐ½Ð°Ñĩ": 933,
      "Ġ194": 934,
      "out": 935,
      "ace": 936,
      "ions": 937,
      "ÑĳÑĤ": 938,
      "ime": 939,
      "Ð²Ð»Ñı": 940,
      "ĠÐ¼Ðµ": 941,
      "Ð½Ð°Ñĩ": 942,
      "ĠÐ¸ÑģÐ¿": 943,
      "ĠÑĥÑĩ": 944,
      "ÐĶ": 945,
      "Ð»ÐµÐ½Ð¸Ðµ": 946,
      "ren": 947,
      "ĠÐ´Ð²": 948,
      "Ð¾ÑģÑģÐ¸Ð¹": 949,
      "ress": 950,
      "ÑĥÐ¶": 951,
      "Ð¸ÑĤÑĮ": 952,
      "Ð¸Ð¿": 953,
      "own": 954,
      "Ð¡Ðł": 955,
      "orm": 956,
      "Ġbeen": 957,
      "Ġ6": 958,
      "fter": 959,
      "ĠÐ±ÑĭÐ»": 960,
      "In": 961,
      "und": 962,
      "Ð°Ð½Ð¸Ð¸": 963,
      "Ġone": 964,
      "Ð°Ð½ÑĤ": 965,
      "port": 966,
      "Ð»Ð°ÑģÑĤ": 967,
      "hed": 968,
      "II": 969,
      "Ð¸ÐºÐ°Ð½": 970,
      "over": 971,
      "Ġcan": 972,
      "ound": 973,
      "Ġbec": 974,
      "ÐµÐ½ÑĮ": 975,
      "te": 976,
      "wo": 977,
      "Ð¸Ð»Ð°": 978,
      "able": 979,
      "Ð³Ð¾Ð´Ð°": 980,
      "ount": 981,
      "Ġen": 982,
      "Ġte": 983,
      "ile": 984,
      "ĠX": 985,
      "ric": 986,
      "ik": 987,
      "ĠÐĿÐ°": 988,
      "Ð¸Ð¾Ð½": 989,
      "erv": 990,
      "ron": 991,
      "Ġinclud": 992,
      "Ð±Ð¾ÑĤ": 993,
      "ugh": 994,
      "gl": 995,
      "Ð°ÑĢÐ°": 996,
      "Ġ15": 997,
      "Ð¾Ð³ÑĢÐ°": 998,
      "ÑĥÐ·": 999,
      "ÐºÐ¾Ð½": 1000,
      "Ġper": 1001,
      "ced": 1002,
      "Ð½ÑĥÑİ": 1003,
      "Ġ7": 1004,
      "ÑĤÑĥ": 1005,
      "Ð½ÑĭÐ¼Ð¸": 1006,
      "Ðĵ": 1007,
      "Ġwho": 1008,
      "ÑĢÑĥÐ¿": 1009,
      "ĠÐ³Ð¾ÑģÑĥÐ´Ð°ÑĢ": 1010,
      "ÑİÑĤÑģÑı": 1011,
      "Ð¸Ð³": 1012,
      "olog": 1013,
      "ase": 1014,
      "Ġro": 1015,
      "ice": 1016,
      "Ġcomm": 1017,
      "ĠÐ²ÑģÐµ": 1018,
      "Ġpre": 1019,
      "Ġdes": 1020,
      "ÑģÐºÐ¾Ð¼": 1021,
      "ĠÑģÐ°Ð¼": 1022,
      "ÑĥÑģÑĤ": 1023,
      "vel": 1024,
      "Ð°ÐµÑĤ": 1025,
      "ÐµÐºÐ°": 1026,
      "ational": 1027,
      "ÐµÐ½Ð°": 1028,
      "Ġag": 1029,
      "ĠÐ¨": 1030,
      "ÐºÑģ": 1031,
      "Ġ16": 1032,
      "ĠÑıÐ²Ð»Ñı": 1033,
      "ĠÐ¸ÑģÑĤ": 1034,
      "ance": 1035,
      "ÐµÐºÑĤ": 1036,
      "ÑĥÑīÐµ": 1037,
      "Ġsp": 1038,
      "Ġ193": 1039,
      "ÑĢÐ¾Ð¿": 1040,
      "ÑĢÐ¸ÑĤ": 1041,
      "ents": 1042,
      "ĠÐ´ÑĢÑĥÐ³": 1043,
      "ough": 1044,
      "ĠIt": 1045,
      "ĠEn": 1046,
      "ĠÐ¸Ð»Ð¸": 1047,
      "Ġsy": 1048,
      "ism": 1049,
      "uring": 1050,
      "ĠHe": 1051,
      "Ġne": 1052,
      "we": 1053,
      "ĠÐ§": 1054,
      "ath": 1055,
      "Ð¼ÐµÑĢÐ¸ÐºÐ°Ð½": 1056,
      "ors": 1057,
      "Ġsc": 1058,
      "les": 1059,
      "Ġused": 1060,
      "ite": 1061,
      "Ð¾Ð½Ð°": 1062,
      "ep": 1063,
      "Ð¸ÐºÐ°": 1064,
      "ÑĭÐ¼": 1065,
      "Ġj": 1066,
      "Ġspe": 1067,
      "ĠÐ°Ð½": 1068,
      "ÑĢÐ¾Ð¼": 1069,
      "Ġplay": 1070,
      "Ġsuch": 1071,
      "ĠÐĲÐ½": 1072,
      "Ð¢": 1073,
      "ited": 1074,
      "ĠÐ¸Ñİ": 1075,
      "Ġ8": 1076,
      "ĠÐ°Ð¼ÐµÑĢÐ¸ÐºÐ°Ð½": 1077,
      "ose": 1078,
      "Ġcent": 1079,
      "ĠÑĢÑĥÑģ": 1080,
      "ĠÑģÐ²Ð¾": 1081,
      "Ġyear": 1082,
      "ÐµÐ¶": 1083,
      "Ð¼Ð¿": 1084,
      "ĠÑģÐ¾ÑģÑĤÐ°Ð²": 1085,
      "ade": 1086,
      "ÐµÑĢÐ¶": 1087,
      "Ð¾Ð»ÑĮÐ·": 1088,
      "Ġtwo": 1089,
      "ied": 1090,
      "Ð½ÐµÐ¹": 1091,
      "Ġ195": 1092,
      "ob": 1093,
      "ĠÑģÐ¾Ð±": 1094,
      "ÐµÐ¿": 1095,
      "ans": 1096,
      "Ð¾ÑĦ": 1097,
      "Ġmore": 1098,
      "Ġform": 1099,
      "ĠÐºÐ¾ÑĢ": 1100,
      "Ġmost": 1101,
      "Ð¾ÑģÑĮ": 1102,
      "Ð¾Ð·Ð´": 1103,
      "ĠÐ¼Ð¸": 1104,
      "ÐµÑĢÐ²": 1105,
      "ubl": 1106,
      "ĠÐ¿Ð¾ÑģÑĤ": 1107,
      "aw": 1108,
      "Ġrec": 1109,
      "Ġev": 1110,
      "Ġthey": 1111,
      "Ġcons": 1112,
      "ne": 1113,
      "Ð°Ð¿": 1114,
      "ÑĥÐ±Ð»Ð¸": 1115,
      "ĠÑĩÐµÐ»Ð¾Ð²": 1116,
      "Ð³Ð¾Ð´Ñĥ": 1117,
      "Ð»Ð°Ð´": 1118,
      "ury": 1119,
      "ular": 1120,
      "ÑĪÐµ": 1121,
      "ĠĊĠĊ": 1122,
      "Ð¡Ð¡Ðł": 1123,
      "Ġinto": 1124,
      "ft": 1125,
      "amp": 1126,
      "ĠÐ¾ÑĢ": 1127,
      "ĠÑĤÐµÑĢ": 1128,
      "ÐµÐ½Ð¸Ð¸": 1129,
      "ics": 1130,
      "Ġ9": 1131,
      "Ġrel": 1132,
      "aus": 1133,
      "Ð¸ÐºÐ¸": 1134,
      "ÐºÑĥ": 1135,
      "Ð¾Ð»ÐµÐµ": 1136,
      "ĠÐ¿ÑĢÐ¾ÑĤ": 1137,
      "ĠÑıÐ·Ñĭ": 1138,
      "reat": 1139,
      "Ġ192": 1140,
      "ÑĥÑħ": 1141,
      "Ðĳ": 1142,
      "ÐµÐ½Ð¸Ð¹": 1143,
      "Ð¿ÑĢÐ¸": 1144,
      "Ġprodu": 1145,
      "ĠÐ·Ð°Ðº": 1146,
      "Ġme": 1147,
      "Ð¤": 1148,
      "Ð¼Ñı": 1149,
      "rib": 1150,
      "Ġam": 1151,
      "Ġac": 1152,
      "ĠÐ¿Ð¸Ñģ": 1153,
      "ĠÐ¾Ð±ÑĬ": 1154,
      "one": 1155,
      "Ð³Ð°Ð½": 1156,
      "ĠâĢĶ": 1157,
      "ĠÑģÐ»": 1158,
      "ĠÐ¾Ðº": 1159,
      "ĠÐ³Ð¾ÑĢÐ¾Ð´": 1160,
      "land": 1161,
      "ĠÐºÐ¾Ð¼Ð¿": 1162,
      "iss": 1163,
      "Ġover": 1164,
      "Ġact": 1165,
      "Ġafter": 1166,
      "ĠÐłÐ¾ÑģÑģ": 1167,
      "Ġgro": 1168,
      "Ġ10": 1169,
      "Ð¿ÑĢÐµ": 1170,
      "ings": 1171,
      "ĠÐ¡Ð¡Ð¡Ðł": 1172,
      "ark": 1173,
      "ÐµÑĤÐ°": 1174,
      "ĠÐ³Ð¾Ð´": 1175,
      "als": 1176,
      "Ġthan": 1177,
      "ÑıÐ±ÑĢÑı": 1178,
      "ah": 1179,
      "oin": 1180,
      "Ð²ÐµÐ´": 1181,
      "Ġbet": 1182,
      "ÑĥÐ»ÑĮÑĤ": 1183,
      "Ð¾ÑĢÐ¼": 1184,
      "Ð²Ð¾Ð´": 1185,
      "ĠÐ¾Ð±ÑĢÐ°Ð·": 1186,
      "ys": 1187,
      "lect": 1188,
      "ĠÑĢÐ¾ÑģÑģÐ¸Ð¹": 1189,
      "Ġatt": 1190,
      "wn": 1191,
      "Ð¾ÑĢÑĤ": 1192,
      "ĠÐ¼ÐµÐ¶Ð´": 1193,
      "ood": 1194,
      "old": 1195,
      "ÑĨÐ°": 1196,
      "Ġind": 1197,
      "Ġreg": 1198,
      "ener": 1199,
      "ious": 1200,
      "ĠÑĢÐ°ÑģÐ¿": 1201,
      "rans": 1202,
      "ĠÐ¼ÐµÑģÑĤ": 1203,
      "ĠÑģÑĤÑĢÐ°": 1204,
      "Ð¸ÐµÐ¹": 1205,
      "Ð·Ð¸Ð´": 1206,
      "ÑĤÑĮ": 1207,
      "here": 1208,
      "ĠÐ±Ð¾Ð»ÑĮÑĪ": 1209,
      "Ð¾Ð»ÑĮÐºÐ¾": 1210,
      "ted": 1211,
      "ÑıÐ·": 1212,
      "oth": 1213,
      "Ð»ÑİÑĩ": 1214,
      "ÑĳÐ¼": 1215,
      "17": 1216,
      "ased": 1217,
      "ĠAs": 1218,
      "ons": 1219,
      "Ð°ÑĢÑı": 1220,
      "Ġout": 1221,
      "Ġph": 1222,
      "ĠÐ¿ÑĢÐ¾Ð¸Ð·": 1223,
      "rough": 1224,
      "000": 1225,
      "ĠÐ¾ÑģÑĤ": 1226,
      "Ġpol": 1227,
      "ind": 1228,
      "ĠY": 1229,
      "ĠÐ±ÑĭÐ»Ð¸": 1230,
      "Ð·Ð²": 1231,
      "ars": 1232,
      "Ð¸Ð½Ð¸ÑģÑĤ": 1233,
      "Ð²ÐµÑĢ": 1234,
      "ĠSe": 1235,
      "ail": 1236,
      "ÐĽ": 1237,
      "ÑĢÐ¸ÑģÑĤ": 1238,
      "ÑĤÐ¸": 1239,
      "Ð³Ð°": 1240,
      "Ð°Ð»Ð¾": 1241,
      "ÐºÐ°Ð·": 1242,
      "Ġkn": 1243,
      "red": 1244,
      "ug": 1245,
      "Ġsome": 1246,
      "Ð¸ÑģÑĤÐµÐ¼": 1247,
      "Ð¿ÑĢÐ°Ð²": 1248,
      "Ġapp": 1249,
      "Ð»Ð¸Ñĩ": 1250,
      "ween": 1251,
      "ÑĢÐ¾Ð½": 1252,
      "ĠÐ¼Ð½": 1253,
      "Ð¨": 1254,
      "Ġwould": 1255,
      "Ð°Ð±": 1256,
      "Ð¼ÐµÐ½ÑĤ": 1257,
      "arg": 1258,
      "Ġpr": 1259,
      "ĠEngl": 1260,
      "Ġacc": 1261,
      "Ġtime": 1262,
      "ĠÐ²ÑĢÐµÐ¼Ñı": 1263,
      "ĠÐºÐ¾Ð»": 1264,
      "Ġsub": 1265,
      "Ġnum": 1266,
      "ĠÐ®": 1267,
      "form": 1268,
      "ÐµÐ½Ñĭ": 1269,
      "ual": 1270,
      "Ġra": 1271,
      "Ġonly": 1272,
      "Ġear": 1273,
      "ĠÐ±ÑĭÐ»Ð¾": 1274,
      "Ġ14": 1275,
      "Ð¾Ð¶Ð´": 1276,
      "ĠÐ¿ÑĢÐ¾Ð²": 1277,
      "ivers": 1278,
      "Ġmod": 1279,
      "ral": 1280,
      "ative": 1281,
      "stem": 1282,
      "ĠÐ¸ÑģÑĤÐ¾ÑĢ": 1283,
      "ÑĭÑĤ": 1284,
      "ĠÐ¯": 1285,
      "ÐµÐ»Ñı": 1286,
      "ific": 1287,
      "Ð¸Ð½Ð¾": 1288,
      "Ð·Ð¸Ð´ÐµÐ½ÑĤ": 1289,
      "ÑĥÑīÐµÑģÑĤÐ²": 1290,
      "Ġ12": 1291,
      "ÑģÐºÐ¾Ðµ": 1292,
      "ÐµÐ¹ÑģÑĤÐ²": 1293,
      "Ð¸Ð½Ñĭ": 1294,
      "ond": 1295,
      "Ð¾Ð¼Ñĥ": 1296,
      "ĠÐ´Ð¾Ð»": 1297,
      "Ġpe": 1298,
      "ĠÐ¸ÑģÐ¿Ð¾Ð»ÑĮÐ·": 1299,
      "Ġbetween": 1300,
      "Ġ,": 1301,
      "hes": 1302,
      "gan": 1303,
      "ĠÐ¦": 1304,
      "Ġunder": 1305,
      "ÑĭÑģ": 1306,
      "ten": 1307,
      "urn": 1308,
      "ĠÐ¡ÑĤ": 1309,
      "Ð²Ð¾Ð»": 1310,
      "ram": 1311,
      "oh": 1312,
      "ĠÐ²ÐµÑĢ": 1313,
      "Ġso": 1314,
      "ild": 1315,
      "ÑĢÐ°Ð½ÑĨ": 1316,
      "ĠÑģÐ¾Ð²ÐµÑĤÑģÐºÐ¸Ð¹": 1317,
      "ict": 1318,
      "ĠÑĩÐ¸Ñģ": 1319,
      "ĠThis": 1320,
      "Ð²ÐµÑĤ": 1321,
      "Ġup": 1322,
      "ĠÐĶÐ¶": 1323,
      "ÑĪÐ¸Ð¹": 1324,
      "Ð»ÐµÐºÑģ": 1325,
      "ĠÐ¾Ð½": 1326,
      "ĠÑģÐ¸ÑģÑĤÐµÐ¼": 1327,
      "att": 1328,
      "Ġnew": 1329,
      "ĠÐ±ÑĭÐ»Ð°": 1330,
      "Ġwhen": 1331,
      "Ġinter": 1332,
      "ÑĨÐ¸Ð°Ð»ÑĮ": 1333,
      "Ð°ÐµÑĤÑģÑı": 1334,
      "Ð°ÑģÑģ": 1335,
      "Ð´Ð¸": 1336,
      "ÐµÐ²ÐµÑĢ": 1337,
      "ÑıÑĤÐµÐ»ÑĮ": 1338,
      "ÑĮÑİ": 1339,
      "ÑĢÐ°Ð¶": 1340,
      "Ġhim": 1341,
      "io": 1342,
      "Ð¸Ð¶": 1343,
      "Ġbo": 1344,
      "ÑģÑĤÑĥÐ¿": 1345,
      "ern": 1346,
      "ĠÐ¿ÑĢÐµÐ´ÑģÑĤÐ°Ð²": 1347,
      "ists": 1348,
      "ÑĢÐ¸ÑĤÐ¾ÑĢ": 1349,
      "ĠÐ¼Ð°ÑĢ": 1350,
      "Ġfl": 1351,
      "ÑĭÑĪ": 1352,
      "ÑĢÐ¾Ñģ": 1353,
      "ĠÐ½Ð¾": 1354,
      "ÐµÐ±": 1355,
      "ium": 1356,
      "iet": 1357,
      "Ġtr": 1358,
      "\".": 1359,
      "15": 1360,
      "ince": 1361,
      "Ġass": 1362,
      "ÐµÑģÑģ": 1363,
      "16": 1364,
      "Ġ.": 1365,
      "ĠÐ¾ÑĤÐ½Ð¾": 1366,
      "Ð¾ÑģÐº": 1367,
      "ĠÐ½Ð¾Ð²": 1368,
      "Ð¿Ð¾Ð»": 1369,
      "Ġoff": 1370,
      "ĠRe": 1371,
      "ĠÐ½ÐµÐ¼": 1372,
      "Ð¿Ð¸Ñģ": 1373,
      "Ġ190": 1374,
      "Ð»ÐµÐºÑĤ": 1375,
      "cre": 1376,
      "ĠÑĢÐ°Ð±Ð¾ÑĤ": 1377,
      "ÑģÑĤÑĮ": 1378,
      "ities": 1379,
      "Ġher": 1380,
      "ĠÑģÐ¾Ð·Ð´": 1381,
      "Ġthere": 1382,
      "ĠÐ¿Ð¾Ð»ÑĥÑĩ": 1383,
      "ward": 1384,
      "ĠÑģÑĢÐµÐ´": 1385,
      "Ð¸ÑĩÐµÑģÐºÐ¾Ð¹": 1386,
      "Ð½Ð°Ðº": 1387,
      "Ġmay": 1388,
      "ĠÑıÐ²Ð»ÑıÐµÑĤÑģÑı": 1389,
      "10": 1390,
      "ĠÐłÐ¾ÑģÑģÐ¸Ð¸": 1391,
      "orn": 1392,
      "ÑĥÐº": 1393,
      "ÐµÐ´Ð¸Ð½": 1394,
      "ÐºÐ¸Ð¹": 1395,
      ");": 1396,
      "ĠÐ¸Ð¼Ð¿": 1397,
      "ĊĊ": 1398,
      "\",": 1399,
      "Ġthem": 1400,
      "Ð¸ÑģÑģ": 1401,
      "ĠÐ¿Ð¾Ð»Ð¸ÑĤ": 1402,
      "Ġdef": 1403,
      "Ġtrans": 1404,
      "ÐµÐ»ÐµÐ¹": 1405,
      "ÐµÑģÐ¿": 1406,
      "ĠAt": 1407,
      "ĠDe": 1408,
      "Ð´Ð¸Ð½": 1409,
      "ĠÐ¿ÑĢÐ¸Ð½": 1410,
      "ject": 1411,
      "Ð²Ðµ": 1412,
      "ople": 1413,
      "ever": 1414,
      "ÑĥÑĪ": 1415,
      "Ð¼Ð°ÑĤ": 1416,
      "Ġ13": 1417,
      "uc": 1418,
      "Ġcol": 1419,
      "Ġpop": 1420,
      "ĠCom": 1421,
      "Ġqu": 1422,
      "Ġmany": 1423,
      "ÑıÑĤÑĮ": 1424,
      "ÑģÑĤÐ²Ðµ": 1425,
      "ÑĥÐ»": 1426,
      "ve": 1427,
      "ÑĥÑİÑī": 1428,
      "ÐµÑĢÐ¼": 1429,
      "erman": 1430,
      "Ð»Ð°ÑģÑĤÐ¸": 1431,
      "ĠÐ½Ð°ÑģÐµ": 1432,
      "ix": 1433,
      "ÐµÐ½Ð¸Ñİ": 1434,
      "velop": 1435,
      "oy": 1436,
      "Ġwe": 1437,
      "arch": 1438,
      "ĠÐ¼Ð¾Ð¶": 1439,
      "ÐºÑĢÑĭ": 1440,
      "Ð¸ÑĩÐµÑģÐºÐ¸Ñħ": 1441,
      "ÑįÑĤ": 1442,
      "Ġspec": 1443,
      "ÐºÑĢÐ°": 1444,
      "ÑĢÐ¸ÑģÐ°": 1445,
      "12": 1446,
      "ower": 1447,
      "ished": 1448,
      "ton": 1449,
      "Ð»ÐµÐ´Ð¾Ð²": 1450,
      "ines": 1451,
      "overn": 1452,
      "ĠÐ·Ð°Ð²": 1453,
      "Ġuse": 1454,
      "Ġsystem": 1455,
      "ÑĨÐ¸Ð¾Ð½Ð°Ð»ÑĮ": 1456,
      "ÑĢÐ°Ð½ÑĨÑĥÐ·": 1457,
      "ĠÐ¸Ñħ": 1458,
      "aj": 1459,
      "Ġdif": 1460,
      "Ð¨ÐĲ": 1461,
      "Ġpubl": 1462,
      "ĠÑĤÐ¾": 1463,
      "Ð°Ð»Ð¸ÑģÑĮ": 1464,
      "Ð¾Ð³ÑĢÐ°ÑĦ": 1465,
      "ating": 1466,
      "ĠÑĤÐµÑĢÑĢÐ¸ÑĤÐ¾ÑĢ": 1467,
      "Ġduring": 1468,
      "Ġrem": 1469,
      "ĠÐ¼ÐµÑĤ": 1470,
      "ĠII": 1471,
      "ident": 1472,
      "Ġcall": 1473,
      "Ġpres": 1474,
      "Ġabout": 1475,
      "uro": 1476,
      "Ð·ÑĭÐ²Ð°": 1477,
      "Ð¸ÑĩÐµÑģÐºÐ¸Ðµ": 1478,
      "Ġbl": 1479,
      "ins": 1480,
      "ĠÑįÐº": 1481,
      "ake": 1482,
      "ĠÐ¸Ð¼Ðµ": 1483,
      "Ġfound": 1484,
      "ÑıÐ²": 1485,
      "Ð½Ð¸ÐºÐ¾Ð²": 1486,
      "Ġwork": 1487,
      "Ġthrough": 1488,
      "Ð¼Ðµ": 1489,
      "Ġvar": 1490,
      "14": 1491,
      "ĠÐ¼ÐµÐ¶Ð´Ñĥ": 1492,
      "Ġem": 1493,
      "ollow": 1494,
      "ĠÐ¶Ðµ": 1495,
      "Ġpos": 1496,
      "ient": 1497,
      "lex": 1498,
      "ays": 1499,
      "ÑĢÐµÐ¼ÐµÐ½": 1500,
      "uth": 1501,
      "ĠÐ¿Ð¾ÑģÐ»Ðµ": 1502,
      "ĠÐ»ÐµÑĤ": 1503,
      "Ð³ÑĢÐ°": 1504,
      "ĠÐ³Ð¾ÑĢÐ¾Ð´Ð°": 1505,
      "Ð¸Ð»Ð¾Ñģ": 1506,
      "ĠÐ²ÑĭÑģ": 1507,
      "ĠAm": 1508,
      "ĠBrit": 1509,
      "ÑĪÐ¸Ñħ": 1510,
      "ĠÑģÐº": 1511,
      "ÑĤÐµÑĢ": 1512,
      "ll": 1513,
      "ĠÐ¿Ð»": 1514,
      "cent": 1515,
      "Ġyears": 1516,
      "Ð¾ÑģÑĤÐ¸": 1517,
      "ĠÐ±Ð¾Ð»ÐµÐµ": 1518,
      "ĠÐķÐ²": 1519,
      "ÑĥÑī": 1520,
      "ution": 1521,
      "Ġknown": 1522,
      "Ð¾Ð²Ð¾ÑĢ": 1523,
      "Ġsupp": 1524,
      "ĠÑİ": 1525,
      "ĠĠĠĠ": 1526,
      "ÑģÐºÐ°": 1527,
      "Ð¸Ð»Ð¾ÑģÐ¾ÑĦ": 1528,
      "Ð³Ð»Ð¸": 1529,
      "ÐµÑĢÐ±": 1530,
      "ĠÐĲÐ»ÐµÐºÑģ": 1531,
      "Ð¾Ð³Ð»Ð°": 1532,
      "Ð²ÐµÑģÑĤ": 1533,
      "hip": 1534,
      "Ġwhere": 1535,
      "outh": 1536,
      "Ð³ÑĥÑģÑĤ": 1537,
      "ock": 1538,
      "ĠÑĩÐµÐ»Ð¾Ð²ÐµÐº": 1539,
      "ĠÐ¡Ð¨ÐĲ": 1540,
      "ÐµÑĢÐ³": 1541,
      "ÑģÐºÐ¸Ð¼": 1542,
      "Ð¿Ð°": 1543,
      "uss": 1544,
      "Ġinv": 1545,
      "Ð¾Ð³Ð´Ð°": 1546,
      "hem": 1547,
      "ball": 1548,
      "Ġob": 1549,
      "Ġmet": 1550,
      "ĠÐ¾ÑĢÐ³Ð°Ð½": 1551,
      "Ġco": 1552,
      "ĠÑĢÐ°Ð·Ð²": 1553,
      "ĠÐ¿ÑĢÐµÐ·Ð¸Ð´ÐµÐ½ÑĤ": 1554,
      "ÑĪÐ¸Ðµ": 1555,
      "Ġwrit": 1556,
      "man": 1557,
      "ily": 1558,
      "ĠÐºÐ°": 1559,
      "Ð¾Ð²Ð°": 1560,
      "ÑıÑī": 1561,
      "Ġdo": 1562,
      "ĠÑıÐ½": 1563,
      "Ð°ÑĢÐ¾Ð´": 1564,
      "ĠLe": 1565,
      "ilm": 1566,
      "ier": 1567,
      "ures": 1568,
      "Ð¸ÑĤÐµÑĢÐ°": 1569,
      "ĠNew": 1570,
      "ĠÐ¿Ð¾Ð²": 1571,
      "ÑĢÐµÐ´Ðµ": 1572,
      "Ġgener": 1573,
      "ĠEnglish": 1574,
      "ĠÑĥÑģÑĤ": 1575,
      "Ð¸ÑĤÑģÑı": 1576,
      "ĠÐ¿Ð¾Ðº": 1577,
      "13": 1578,
      ".,": 1579,
      "ĠÐºÐ¸Ð½Ð¾": 1580,
      "ÑĢÐµÑĤ": 1581,
      "fore": 1582,
      "ÑĥÑĢÐ³": 1583,
      "Ġcount": 1584,
      "Ġ189": 1585,
      "ĠÐ¡Ð¾Ð²": 1586,
      "angu": 1587,
      "Ġprov": 1588,
      "very": 1589,
      "Ð¸ÑĪ": 1590,
      "ĠÐ²Ð¾Ñģ": 1591,
      "Ġset": 1592,
      "ĠÐ¼Ð¾ÑĢ": 1593,
      "ĠÐ³ÑĢÐ°": 1594,
      "ÑĳÐ»": 1595,
      "Ġtra": 1596,
      "ÐµÑĢÑģ": 1597,
      "Ġap": 1598,
      "cept": 1599,
      "ause": 1600,
      "Ġdevelop": 1601,
      "inal": 1602,
      "ĠÐ½Ð°ÑĢÐ¾Ð´": 1603,
      "ÐµÐ»Ð¸Ðº": 1604,
      "Ð¸ÑĩÐµÑģÐºÐ¸Ð¹": 1605,
      "ife": 1606,
      "ĠÑĢÐµÐ·": 1607,
      "Ġhist": 1608,
      "ĠÐ´ÐµÑıÑĤÐµÐ»ÑĮ": 1609,
      "ĠÐ²Ð¾ÐµÐ½": 1610,
      "ĠÐ°ÐºÑĤÑĢÐ¸ÑģÐ°": 1611,
      "Ð³Ð¸": 1612,
      "ĠÐ³Ð¾ÑģÑĥÐ´Ð°ÑĢÑģÑĤÐ²ÐµÐ½": 1613,
      "Ð¾Ð²Ð°Ð½": 1614,
      "Ð£": 1615,
      "ĠÐ¾Ð±ÑīÐµ": 1616,
      "ike": 1617,
      "Ð±Ð¾ÑĢ": 1618,
      "ÑĩÐ¸ÑĤ": 1619,
      "ĠÑĦÑĢÐ°Ð½ÑĨÑĥÐ·": 1620,
      "ise": 1621,
      "ĠÐ¿Ð°ÑĢÑĤ": 1622,
      "Ġinf": 1623,
      "Ġinst": 1624,
      "owever": 1625,
      "ians": 1626,
      "Ð°ÑİÑĤ": 1627,
      "Ð¾ÑĢÐ¸Ñı": 1628,
      "Ð°Ð»ÑģÑı": 1629,
      "cess": 1630,
      "ember": 1631,
      "round": 1632,
      "ÑĨÑĭ": 1633,
      "ĠÐ¿ÑĢÐ¾ÑĤÐ¸Ð²": 1634,
      "cond": 1635,
      "Ġagain": 1636,
      "Ġcentury": 1637,
      "ology": 1638,
      "ÑĢÐµÐ²": 1639,
      "Ð³Ð¾Ð´": 1640,
      "ually": 1641,
      "iel": 1642,
      "ÐĹ": 1643,
      "ĠÑģÐ²ÑıÐ·": 1644,
      "ĠÐ¼Ð°ÑĤ": 1645,
      "ÑĨÐµÐ½": 1646,
      "Ð¾Ñħ": 1647,
      "Ġthese": 1648,
      "ized": 1649,
      "ÑĨÐ¸Ñİ": 1650,
      "ÑĥÐµÑĤ": 1651,
      "ĠAp": 1652,
      "Ġno": 1653,
      "ĠIs": 1654,
      "az": 1655,
      "Ġsur": 1656,
      "ert": 1657,
      "ĠÐ·Ð½Ð°Ñĩ": 1658,
      "ĠÐ´Ð¾ÑģÑĤ": 1659,
      "200": 1660,
      "ÐŃ": 1661,
      "orth": 1662,
      "ĠÐ¾ÑĤÐºÑĢÑĭ": 1663,
      "ÑĨÐµÐ²": 1664,
      "ible": 1665,
      "Ġadd": 1666,
      "Ð³Ð¾ÑĢ": 1667,
      "Ġserv": 1668,
      "ically": 1669,
      "ÑĢÐ°Ð»ÑĮ": 1670,
      "ke": 1671,
      "ered": 1672,
      "Ġlater": 1673,
      "Ð°ÑĪ": 1674,
      "Ġfollow": 1675,
      "ax": 1676,
      "ÐµÐ½Ð¸ÐµÐ¼": 1677,
      "Ð¾Ð²Ð¾Ð¹": 1678,
      "ature": 1679,
      "uch": 1680,
      "Ġart": 1681,
      "Ð¾Ð²Ð°Ð½Ð¸Ðµ": 1682,
      "Ð¸Ð·Ð°": 1683,
      "Ġbu": 1684,
      "ĠAust": 1685,
      "its": 1686,
      "Ġmade": 1687,
      "ÑĦÐ¸": 1688,
      "ĠÐ¿Ð¸ÑģÐ°ÑĤÐµÐ»ÑĮ": 1689,
      "ĠUnited": 1690,
      "ÑĢÐµÐ±": 1691,
      "ĠÑĢÐ¾ÑģÑģÐ¸Ð¹ÑģÐºÐ¸Ð¹": 1692,
      "ĠÐĲÑĢ": 1693,
      "ck": 1694,
      "ĠÐĸ": 1695,
      "the": 1696,
      "Ġexp": 1697,
      "ĠGerman": 1698,
      "ĠÑįÑĤÐ¾": 1699,
      "ĠSp": 1700,
      "ĠÑģÑĤÑĢÐ°Ð½Ñĭ": 1701,
      "ĠÐ¿ÑĢÐµÐ¼": 1702,
      "ork": 1703,
      "ters": 1704,
      "Ġdist": 1705,
      "Ġbeing": 1706,
      "Ġnumber": 1707,
      "ĠÐ°Ð¼ÐµÑĢÐ¸ÐºÐ°Ð½ÑģÐºÐ¸Ð¹": 1708,
      "rist": 1709,
      "Ð¾ÑģÑĤÑĢÐ°Ð½": 1710,
      "ctions": 1711,
      "ĠÐ³Ð»Ð°Ð²": 1712,
      "ĠCon": 1713,
      "Ð½Ð¸Ð¼": 1714,
      "ÐµÐ½Ð¾": 1715,
      "oman": 1716,
      "ĠÐ½ÐµÐ¼ÐµÑĨ": 1717,
      "Ð¸ÑĩÐµÑģÐºÐ¾Ð³Ð¾": 1718,
      "ural": 1719,
      "ĠÐµÑĳ": 1720,
      "Ġest": 1721,
      "ĠÐ¸ÑģÐº": 1722,
      "Ġsign": 1723,
      "ĠZ": 1724,
      "Ġwell": 1725,
      "eg": 1726,
      "Ġ/": 1727,
      "ĠÐļÐ¾Ð½": 1728,
      "ĠÐ¿ÑĢÐ°Ð²Ð¸ÑĤÐµÐ»ÑĮ": 1729,
      "ÑĮÑı": 1730,
      "ÑĦÐ¾ÑĢ": 1731,
      "Ġfe": 1732,
      "ĠÐ½Ð°Ð·Ð²": 1733,
      ".\"": 1734,
      "Ġpeople": 1735,
      "Ġ202": 1736,
      "Ð°ÑİÑī": 1737,
      "ĠÐ¿Ð°ÑĢ": 1738,
      "Ġret": 1739,
      "Ġant": 1740,
      "Ġeff": 1741,
      "ather": 1742,
      "raph": 1743,
      "199": 1744,
      "Ġext": 1745,
      "Ġincluding": 1746,
      "Ã©": 1747,
      "ÐµÑħ": 1748,
      "Ð¼Ñĭ": 1749,
      "ments": 1750,
      "ĠÐ¿ÑĢÐ¾Ð´": 1751,
      "ros": 1752,
      "Ð°Ð»Ðµ": 1753,
      "Ð¼Ñĥ": 1754,
      "ĠAf": 1755,
      "ĠÐ´ÐµÐºÐ°": 1756,
      "Ġthree": 1757,
      "Ġcalled": 1758,
      "ĠÑĤÐµÐ°ÑĤ": 1759,
      "Ð¾Ð»Ð¾": 1760,
      "ĠÐ²Ñģ": 1761,
      "ĠInd": 1762,
      "Ġend": 1763,
      "ÐºÐ¾Ð½Ð¾Ð¼": 1764,
      "ale": 1765,
      "ĠÐ»Ñİ": 1766,
      "ĠÐĲÐ»ÐµÐºÑģÐ°Ð½Ð´": 1767,
      "ĠÐ¿Ð°Ð¼": 1768,
      "Ġwhile": 1769,
      "ĠÑıÐ½Ð²": 1770,
      "emb": 1771,
      "ĠÐŁÑĢÐ¸": 1772,
      "oot": 1773,
      "Ġthen": 1774,
      "ement": 1775,
      "Ġboth": 1776,
      "Ġimp": 1777,
      "ick": 1778,
      "ĠÐ´Ð¸": 1779,
      "ract": 1780,
      "Ġpolit": 1781,
      "Ìģ": 1782,
      "Ġgovern": 1783,
      "Ð¾ÑĪ": 1784,
      "Ð¾Ð¶Ðµ": 1785,
      "ĠÐ²Ð¾Ð´": 1786,
      "Ġloc": 1787,
      "ames": 1788,
      "other": 1789,
      "els": 1790,
      "yp": 1791,
      "ĠÐ´ÐµÐ¹ÑģÑĤÐ²": 1792,
      "Ð°ÑĤÑĭ": 1793,
      "Ð½Ð´": 1794,
      "ex": 1795,
      "ĠÑĤÐ¾Ð»ÑĮÐºÐ¾": 1796,
      "ĠÐľÐ¾ÑģÐº": 1797,
      "ĠSc": 1798,
      "ĠÑĦÐ¸Ð»Ð¾ÑģÐ¾ÑĦ": 1799,
      "Ð¾Ð½Ñĭ": 1800,
      "ĠÐ¾ÐºÑĤ": 1801,
      "ĠAd": 1802,
      "Ġdiffer": 1803,
      "Ġcity": 1804,
      "ĠÑģÐµÐ½ÑĤ": 1805,
      "Ġcar": 1806,
      "Ġgroup": 1807,
      "Ġrep": 1808,
      "ÑĢÐ°Ñģ": 1809,
      "ĠÐ°Ð²Ð³ÑĥÑģÑĤ": 1810,
      "ĠÑģÑĤÑĢÐ°Ð½": 1811,
      "ĠÑĨÐµÐ½ÑĤ": 1812,
      "ĠÐ¿Ð¾ÑĤ": 1813,
      "cial": 1814,
      "ĠWar": 1815,
      "ues": 1816,
      "irect": 1817,
      "Ġ188": 1818,
      "Ġbecame": 1819,
      "ĠÐ¿Ð¾ÑįÑĤ": 1820,
      "Ġfilm": 1821,
      "ĠÐ°Ð¿ÑĢÐµ": 1822,
      "Ð¸Ð»ÑģÑı": 1823,
      "ĠÑıÐ½Ð²Ð°ÑĢÑı": 1824,
      "Ð½Ð¸ÐºÐ¸": 1825,
      "Ð¼Ð¿Ð¸Ð¾Ð½": 1826,
      "Ġent": 1827,
      "ĠÐ¼Ð¸ÑĢÐ°": 1828,
      "Ġmain": 1829,
      "Ġstud": 1830,
      "ĠÐ¼Ð°Ñı": 1831,
      "Ġhigh": 1832,
      "ĠÐ²ÐµÐºÐ°": 1833,
      "ences": 1834,
      "Ġsing": 1835,
      "ĠÑĤÐ¾Ð¼": 1836,
      "ĠÑĢÐ°Ñģ": 1837,
      "ÐºÐ¾Ð¼": 1838,
      "ĠÐ²ÐµÐº": 1839,
      "ived": 1840,
      "ĠÑĩÐµÐ¼Ð¿Ð¸Ð¾Ð½": 1841,
      "ĠÐ¿Ð¾Ð¼": 1842,
      "Ġmon": 1843,
      "Ð¸ÑĢÑĥ": 1844,
      "ĠÑģÐ¾ÑģÑĤÐ¾Ñı": 1845,
      "imes": 1846,
      "ĠBl": 1847,
      "Ġ25": 1848,
      "ÑĢÑĥÐ¿Ð¿": 1849,
      "ĠÐ·Ð°Ð½": 1850,
      "Ð¾ÑģÑĤÑĮ": 1851,
      "ision": 1852,
      "ility": 1853,
      "Ġlangu": 1854,
      "ĠÐ·Ð°Ð¿": 1855,
      "ÑĤÐ¾Ð¼": 1856,
      "ages": 1857,
      "Ð»Ð°Ð½Ð´": 1858,
      "Ġany": 1859,
      "ĠÐ¼Ð°ÑĢÑĤÐ°": 1860,
      "ĠÐ´Ð°Ð½": 1861,
      "Ð°Ð¶": 1862,
      "Ð¸ÑĤÑĥ": 1863,
      "ved": 1864,
      "rop": 1865,
      "Ð¾Ð»Ð½": 1866,
      "ÐµÐ½ÐµÑĢÐ°": 1867,
      "cy": 1868,
      "ĠAb": 1869,
      "ĠÑĤÐµÐ»Ðµ": 1870,
      "apt": 1871,
      "Ð°Ð»Ð¾ÑģÑĮ": 1872,
      "any": 1873,
      "ĠJoh": 1874,
      "ĠÐ¸ÑİÐ»Ñı": 1875,
      "ae": 1876,
      "ants": 1877,
      "Ġsim": 1878,
      "ÑĦÐµÑĢ": 1879,
      "Ð½Ñĥ": 1880,
      "ĠÐ¤ÑĢÐ°Ð½": 1881,
      "Ġearly": 1882,
      "Ġcre": 1883,
      "ÑģÑĤÐ²Ð¾Ð¼": 1884,
      "ĠÐ¿Ð¾Ð·": 1885,
      "ĠÑĤÐµÐ¼": 1886,
      "ÑıÐ´": 1887,
      "ÑĢÐ¸Ð¼": 1888,
      "ĠÐĿÐ¸Ðº": 1889,
      "ĠÐ¾ÑģÑĤÑĢÐ¾Ð²": 1890,
      "ĠÐºÐ¾ÑĤÐ¾ÑĢÑĭÐµ": 1891,
      "ĠÐ½Ð°ÑħÐ¾Ð´": 1892,
      "urope": 1893,
      "ann": 1894,
      "air": 1895,
      "ÑĥÑĢÑĭ": 1896,
      "Ġchar": 1897,
      "ĠÑĩÐµÑĢ": 1898,
      "ajor": 1899,
      "elf": 1900,
      "ĠÐ¿ÐµÑĢÐµ": 1901,
      "Ð¸Ð°Ð½": 1902,
      "Ð½Ð°ÐºÐ¾": 1903,
      "Ð¾Ñī": 1904,
      "Ð±Ñĭ": 1905,
      "Ġ11": 1906,
      "Ġmov": 1907,
      "Ġele": 1908,
      "Ġorig": 1909,
      "Ġair": 1910,
      "ĠÐ·ÐµÐ¼": 1911,
      "Ð¸Ð»Ð¸ÑģÑĮ": 1912,
      "ĠÑĤÑĢÐ°": 1913,
      "ĠÑĦÐµÐ²": 1914,
      "Ð¸ÑģÐ¸Ð¼": 1915,
      "ĠÐ¿Ð¾Ð¿": 1916,
      "Ð°ÑĢÐ´": 1917,
      "ool": 1918,
      "Ġmus": 1919,
      "Ð¡Ð¼": 1920,
      "Ġworld": 1921,
      "Ð¼Ð¸Ð½Ð¸ÑģÑĤ": 1922,
      "ĠÐ²ÑĢÐµÐ¼ÐµÐ½": 1923,
      "ĠÐ½Ð¾Ñı": 1924,
      "ĠÐ¿Ð¾ÑĢ": 1925,
      "Ġbel": 1926,
      "ĠBritish": 1927,
      "Ġsm": 1928,
      "ty": 1929,
      "Ð½ÑĥÑĤ": 1930,
      "ĠSh": 1931,
      "ÑĨÐ¸Ð¹": 1932,
      "ĠÐ°ÑĢÐ¼": 1933,
      "ĠÐ±ÐµÐ·": 1934,
      "Ġlead": 1935,
      "ĠÐ¿ÐµÑĢÐµÐ²": 1936,
      "ĠÑģÑĥÑīÐµÑģÑĤÐ²": 1937,
      "Ġed": 1938,
      "Ð½Ð¾Ð¼Ñĥ": 1939,
      "Ð°ÑĤÐ°": 1940,
      "ÑĥÑİÑĤ": 1941,
      "ĠÑĦÐµÐ²ÑĢÐ°": 1942,
      "Ð¾ÑĢÐ¾Ð½": 1943,
      "ĠÑĥÑģ": 1944,
      "Ð¾Ð²Ð°Ð½Ð¸Ñı": 1945,
      "ÐºÐ¾Ð¹": 1946,
      "ĠFor": 1947,
      "Ġdec": 1948,
      "ÐµÑĢÐ¸": 1949,
      "ÑĪÐµÐ½Ð¸Ñı": 1950,
      "Ġdep": 1951,
      "orld": 1952,
      "ÐµÑĤÑĭ": 1953,
      "Ð¸ÑĨÐ°": 1954,
      "ĠÐ¸ÑİÐ½Ñı": 1955,
      "ĠÑģÐµÐ½ÑĤÑıÐ±ÑĢÑı": 1956,
      "Ð°Ð½Ñĭ": 1957,
      "ĠÐ´ÐµÐºÐ°Ð±ÑĢÑı": 1958,
      "Ġ186": 1959,
      "ĠPro": 1960,
      "erson": 1961,
      "Ġ187": 1962,
      "ĠFran": 1963,
      "Ġsever": 1964,
      "ĠÐ½Ð°ÑģÐµÐ»ÐµÐ½Ð¸Ñı": 1965,
      "ÐĿÐ°": 1966,
      "ĠÐ°Ð¿ÑĢÐµÐ»Ñı": 1967,
      "ful": 1968,
      "ina": 1969,
      "ÑĢÑĥÐ´": 1970,
      "ĠÐ¾Ð¿ÑĢÐµÐ´Ðµ": 1971,
      "Ġterm": 1972,
      "Ð»ÑıÐµÑĤ": 1973,
      "Ġ30": 1974,
      "ĠÐ°Ð²Ð³ÑĥÑģÑĤÐ°": 1975,
      "gy": 1976,
      "Ð¸ÑĩÐµÑģÐºÐ°Ñı": 1977,
      "ield": 1978,
      "rench": 1979,
      "ĠStates": 1980,
      "iversity": 1981,
      "ash": 1982,
      "Ð¾Ð»Ð¾Ð¶": 1983,
      "ained": 1984,
      "ÑĢÐµÐ½": 1985,
      "ĠÑģÐ»Ð¾Ð²": 1986,
      "ĠBe": 1987,
      "ĠÐ°ÐºÑĤÑĳÑĢ": 1988,
      "ĠÐ¾ÐºÑĤÑıÐ±ÑĢÑı": 1989,
      "Ġsecond": 1990,
      "ĠJohn": 1991,
      "ĠÐºÑĢÑĥÐ¿": 1992,
      "ĠÑĢÑĥÑģÑģÐºÐ¸Ð¹": 1993,
      "ĠÐŁÐ¾": 1994,
      "11": 1995,
      "ĠBo": 1996,
      "ulation": 1997,
      "Ġresult": 1998,
      "enn": 1999,
      "ĠÐ²Ð¾Ð¹Ð½Ñĭ": 2000,
      "Ð¾Ð±Ñĭ": 2001,
      "ius": 2002,
      "Ð³Ð¾Ð²": 2003,
      "led": 2004,
      "ĠEurope": 2005,
      "ĠÐºÐ¾ÑĤÐ¾ÑĢÑĭÐ¹": 2006,
      "Ġpartic": 2007,
      "Ġconst": 2008,
      "ÑĤÐµ": 2009,
      "ĠÐ¿Ð¾Ð³": 2010,
      "iew": 2011,
      "ĠÐ¡Ð¾": 2012,
      "Ġlong": 2013,
      "Ð»Ð¸Ð·": 2014,
      "Ġappe": 2015,
      "Ġdesc": 2016,
      "Ð²Ð¾ÑĢ": 2017,
      "ĠÐ²Ð¸Ð´": 2018,
      "Ð·Ð½": 2019,
      "Ð»Ð¸Ð½": 2020,
      "Ġ:": 2021,
      "ĠÑĢÐ°Ð·Ð²Ð¸ÑĤ": 2022,
      "ĠÐ¿ÐµÑĢÐµÐ´": 2023,
      "ĠChrist": 2024,
      "Ð¼Ð¾Ð¶": 2025,
      "Ð³Ð»Ð¸Ð¹": 2026,
      "Ġoper": 2027,
      "Ð½ÐµÐµ": 2028,
      "ĠÐ¼Ð½Ð¾Ð³": 2029,
      "inn": 2030,
      "Ð°Ð½Ð¾": 2031,
      "ting": 2032,
      "ÑĢÐ°Ñī": 2033,
      "Ġfam": 2034,
      "til": 2035,
      "ank": 2036,
      "Ð¼ÐµÑģÑĤ": 2037,
      "ÐµÑĢÑĪ": 2038,
      "iam": 2039,
      "Ġsame": 2040,
      "ĠÐ¸Ð·Ð²ÐµÑģÑĤ": 2041,
      "ording": 2042,
      "Ð¼Ð°Ð½": 2043,
      "Ð°ÑĤÐ¾ÑĢ": 2044,
      "ĠÑįÐ»ÐµÐºÑĤ": 2045,
      "eries": 2046,
      "Ð»Ð¾Ð¶": 2047,
      "Ġstate": 2048,
      "ange": 2049,
      "Ġsch": 2050,
      "ÐµÑī": 2051,
      "ene": 2052,
      "Ġcontin": 2053,
      "ute": 2054,
      "Ð»ÐµÑĤ": 2055,
      "ĠÐĲÐ²": 2056,
      "Ġmin": 2057,
      "Ð¸Ð½Ðµ": 2058,
      "ĠÑĦÐµÐ²ÑĢÐ°Ð»Ñı": 2059,
      "Ð¾Ð³Ð»Ð°Ñģ": 2060,
      "198": 2061,
      "Ð°ÑĢÑĮ": 2062,
      "Ġcould": 2063,
      "Ġauth": 2064,
      "ĠÐ¼Ñĥ": 2065,
      "Ġagainst": 2066,
      "arm": 2067,
      "Ð°ÐºÑĤ": 2068,
      "ccess": 2069,
      "ives": 2070,
      "Ġdesign": 2071,
      "ĠÐ°ÑĢÑħ": 2072,
      "ĠÐ¢Ð°Ðº": 2073,
      "ĠÐĴÐµÐ»Ð¸Ðº": 2074,
      "ĠÐ½Ð¾ÑıÐ±ÑĢÑı": 2075,
      "ÑĤÑĥÑĢÐ°": 2076,
      "Ð»Ð¾ÑĤ": 2077,
      "ĠPh": 2078,
      "Ġdirect": 2079,
      "Ġname": 2080,
      "ĠÑģÐµÑĢ": 2081,
      "pect": 2082,
      "ĠÐ²Ðº": 2083,
      "ruct": 2084,
      "Ð´ÐµÑĢÐ¶": 2085,
      "Ġoften": 2086,
      "ĠÑĢÐ°Ð¹": 2087,
      "Ð½Ð¸Ðµ": 2088,
      "Ġlarg": 2089,
      "ĠÐ¿ÐµÑĢÐ¸": 2090,
      "Ġâ": 2091,
      "omet": 2092,
      "urch": 2093,
      "yn": 2094,
      "ĠÐ·Ð°Ð¼": 2095,
      "atic": 2096,
      "illion": 2097,
      "ional": 2098,
      "vent": 2099,
      "Ð°ÑĤÑĮÑģÑı": 2100,
      "ĠÑįÐºÐ¾Ð½Ð¾Ð¼": 2101,
      "Ġshe": 2102,
      "ĠÐ¾Ð´Ð¸Ð½": 2103,
      "ined": 2104,
      "ĠÐºÑĢÐµ": 2105,
      "Ð¾ÐºÑĢÐ°ÑĤ": 2106,
      "ĠÐ¶Ð¸Ð·": 2107,
      "ĠÑĤÐµÑĢÑĢÐ¸ÑĤÐ¾ÑĢÐ¸Ð¸": 2108,
      "Ð´Ð¶": 2109,
      "Ð±Ð¾Ð»": 2110,
      "ĠÑĢÐµÐ·ÑĥÐ»ÑĮÑĤ": 2111,
      "ital": 2112,
      "bert": 2113,
      "Ġelect": 2114,
      "osed": 2115,
      "yl": 2116,
      "Ð½Ð¾ÑģÑĤÑĮÑİ": 2117,
      "Ð¾Ð³ÑĢÐ°Ð¼": 2118,
      "ĠÐ±ÑĥÐ´": 2119,
      "Ġconsid": 2120,
      "Ġsl": 2121,
      "Ð¾Ð½Ð¾Ð²": 2122,
      "Ð·Ð½Ð°Ñĩ": 2123,
      "Ġbefore": 2124,
      "Ġcommon": 2125,
      "ĠÐ³ÑĢÑĥÐ¿Ð¿": 2126,
      "ÐµÑĢÐ½": 2127,
      "Ġmed": 2128,
      "ared": 2129,
      "ÑĢÐ¸Ð¹": 2130,
      "Ġfour": 2131,
      "though": 2132,
      "ĠÑĢÐµÐ³": 2133,
      "ÑĥÑĢÐµ": 2134,
      "Ġocc": 2135,
      "ÐµÑĢÑĤ": 2136,
      "ĠÐ¾Ð±Ð»Ð°ÑģÑĤÐ¸": 2137,
      "ograph": 2138,
      "ĠCl": 2139,
      "ĠÐ¼Ð¾Ð½": 2140,
      "ĠÑĦÐ¾ÑĢÐ¼": 2141,
      "ĠÐ½ÐµÐº": 2142,
      "ample": 2143,
      "chn": 2144,
      "ÐµÑĢÑħ": 2145,
      "Ð¸ÑĦ": 2146,
      "Ġbro": 2147,
      "Ð»Ð¾Ð¼": 2148,
      "ĠFrench": 2149,
      "Ð»ÐµÐ¹": 2150,
      "my": 2151,
      "oph": 2152,
      "50": 2153,
      "ĠWorld": 2154,
      "Ġown": 2155,
      "Ð½Ð¸ÐºÐ°": 2156,
      "ĠÑħÑĥÐ´": 2157,
      "ains": 2158,
      "ĠÐķÐ²ÑĢÐ¾Ð¿": 2159,
      "ĠÐŁÐµÑĤ": 2160,
      "ÑĥÐ½Ð°ÑĢÐ¾Ð´": 2161,
      "Ġdisc": 2162,
      "ĠÑĥÑĩÐ°ÑģÑĤ": 2163,
      "iod": 2164,
      "ĠÐ°Ð½Ð³Ð»Ð¸Ð¹": 2165,
      "arge": 2166,
      "197": 2167,
      "Ġmajor": 2168,
      "ble": 2169,
      "ĠÐ¸Ð¼ÐµÐ½": 2170,
      "ird": 2171,
      "xt": 2172,
      "ĠÐ¿Ð¾Ð±": 2173,
      "ĠÐºÐ¾Ð½ÑĨ": 2174,
      "Ġ-": 2175,
      "Ð¸Ð·Ð¼": 2176,
      "ĠBr": 2177,
      "ĠAlex": 2178,
      "Ð¸ÐºÐ¾Ð²": 2179,
      "Ð»Ð°ÑģÑģ": 2180,
      "ĠÐ²Ð¿": 2181,
      "ÑģÐºÑĥÑİ": 2182,
      "ĠÑģÑĩÐ¸ÑĤ": 2183,
      "Ð°ÑĤÐµ": 2184,
      "Ð½Ð¸Ð¹": 2185,
      "abl": 2186,
      "ĠOn": 2187,
      "way": 2188,
      "aid": 2189,
      "Ġwill": 2190,
      "ĠÐ¿ÑĢÐ¾Ð¸Ð·Ð²Ð¾Ð´": 2191,
      "min": 2192,
      "ring": 2193,
      "ĠÐ¾Ð±Ñī": 2194,
      "to": 2195,
      "ĠÐ²ÑĤÐ¾ÑĢ": 2196,
      "Ð°Ð»Ð¸ÑģÑĤ": 2197,
      "ÑĢÐµÐ¹": 2198,
      "ÑģÑģÐ»ÐµÐ´Ð¾Ð²": 2199,
      "ĠÐ½Ð°Ð´": 2200,
      "ĠÐ¼Ð¾Ð¶ÐµÑĤ": 2201,
      "ĠÐºÐ¾ÑĤÐ¾ÑĢÑĭÑħ": 2202,
      "ĠÐ°ÑĢÑĤ": 2203,
      "ĠÐ²Ð·": 2204,
      "ĠÐµÐ´Ð¸Ð½": 2205,
      "Ġsupport": 2206,
      "ĠÑģÑĤÐ°Ð»": 2207,
      "ĠÐ¿Ð¾ÑģÐ»ÐµÐ´": 2208,
      "ired": 2209,
      "ĠÑįÑĤÐ¾Ð¼": 2210,
      "Ġland": 2211,
      "IX": 2212,
      "Ġ24": 2213,
      "ĠÐ¼Ð¾Ð³": 2214,
      "iver": 2215,
      "Ð½Ð¸Ð²": 2216,
      "Ð¸Ð»Ð¾": 2217,
      "Ð¶Ð´Ð°Ð½": 2218,
      "Ġbecause": 2219,
      "oint": 2220,
      "Ġincre": 2221,
      "ĠÑģÑĥÐ´": 2222,
      "Ġsmall": 2223,
      "Ġseveral": 2224,
      "ÑĥÐ»Ñı": 2225,
      "ÑĪÐµÐ½Ð¸Ðµ": 2226,
      "ÐºÐ¾Ð»": 2227,
      "Ð¸Ð½Ð³": 2228,
      "Ġmat": 2229,
      "Ð¸ÐºÐµ": 2230,
      "ilit": 2231,
      "ĠÐºÐ¾Ð½ÑĤ": 2232,
      "ĠÐ¾ÐºÐ¾Ð»Ð¾": 2233,
      "Ð¸ÑģÑģÑĳÑĢ": 2234,
      "ley": 2235,
      "ÐµÐ½Ð´": 2236,
      "ÑĢÐ°Ð±Ð¾ÑĤ": 2237,
      "ides": 2238,
      "ĠÑģÐ¸Ð»": 2239,
      "Ġsince": 2240,
      "aking": 2241,
      "ven": 2242,
      "ica": 2243,
      "ÑĮÐµÑĢ": 2244,
      "Ð»ÑĳÐ½": 2245,
      "ÑĤÐ¾Ð½": 2246,
      "Ġeach": 2247,
      "lu": 2248,
      "Ð¿ÑĢÐ¸Ð¼ÐµÑĢ": 2249,
      "acter": 2250,
      "Ġif": 2251,
      "ĠÑĤÐ¾Ð³Ð¾": 2252,
      "ĠÑĥÐ¿": 2253,
      "Ġwar": 2254,
      "ively": 2255,
      "ÑģÐ¾Ð²": 2256,
      "ĠAnd": 2257,
      "An": 2258,
      "ÑİÐ·": 2259,
      "ĠÐ½ÐµÐ·": 2260,
      "ÑģÐºÐ¾": 2261,
      "ĠÑĦÐ¸Ð·": 2262,
      "ason": 2263,
      "Ġ0": 2264,
      "Ġref": 2265,
      "Ð¸ÑĤÐµÐ»ÑĮÐ½Ð¾": 2266,
      "ĠÐĵÐµÑĢÐ¼": 2267,
      "ĠÐ¶Ð¸Ð²": 2268,
      "ĠÐļÐ°ÑĢ": 2269,
      "Ġplayer": 2270,
      "ĠÐ³ÐµÐ½ÐµÑĢÐ°": 2271,
      "ÐµÐ´ÐµÑĢÐ°": 2272,
      "ÑģÐ»Ð¸": 2273,
      "ised": 2274,
      "Ð¸ÑĢÐ¸": 2275,
      "ĠÐ´Ð¾Ð»Ð¶": 2276,
      "Ġprog": 2277,
      "ĠÐºÐ¾ÑĢÐ¾Ð»": 2278,
      "Ð±Ð°": 2279,
      "Ð²Ñĭ": 2280,
      "ĠMar": 2281,
      "ĠGree": 2282,
      "Ð°Ð²Ð¸ÑģÐ¸Ð¼": 2283,
      "Ð¿Ð¾Ð½": 2284,
      "196": 2285,
      "ĠÐļÐ¾ÑĢ": 2286,
      "ĠÐ¿ÑĥÑĤ": 2287,
      "ĠÐ·Ð°ÐºÐ¾Ð½": 2288,
      "attle": 2289,
      "Ġuntil": 2290,
      "ĠÐĺÐ·": 2291,
      "Ġsuccess": 2292,
      "ĠÐ¡Ð¾Ð²ÐµÑĤ": 2293,
      "Ġgovernment": 2294,
      "ĠÐµÑģÑĤÑĮ": 2295,
      "inc": 2296,
      "ĠÑįÐºÑģÐ¿": 2297,
      "Ġdifferent": 2298,
      "ĠÐ´ÑĢÑĥÐ³Ð¸Ñħ": 2299,
      "ÑĢÐ¾Ð¹": 2300,
      "Ð¾ÑģÑĤÐ¾Ñĩ": 2301,
      "Ġtrad": 2302,
      "ĠÐ¿ÑĢÐ¾Ð¸Ñģ": 2303,
      "ĠÑĨÐµÑĢ": 2304,
      "ĠÐ¿ÐµÑĢÐ²ÑĭÐ¹": 2305,
      "ec": 2306,
      "Ð¾Ð±ÑĢÐ°Ð·": 2307,
      "Ġauthor": 2308,
      "ĠÑĢÐ°Ð·Ð»Ð¸Ñĩ": 2309,
      "Ġback": 2310,
      "Ġins": 2311,
      "que": 2312,
      "ÑĢÐ¸ÑĤÐ°Ð½": 2313,
      "ĠÐ¾Ñĩ": 2314,
      "Ġeffect": 2315,
      "ox": 2316,
      "ÑģÑĤÑĢÐ°": 2317,
      "ĠCan": 2318,
      "ĠÐ¸Ð·Ð±": 2319,
      "ĠÑĤÐµÑħ": 2320,
      "itions": 2321,
      "ĠÐ½ÐµÐºÐ¾ÑĤÐ¾ÑĢ": 2322,
      "ĠÐĿÐ¾Ð²": 2323,
      "eng": 2324,
      "ĠEm": 2325,
      "ĠÑģÐµÐ²ÐµÑĢ": 2326,
      "ĠÐ¸ÑĤ": 2327,
      "Ġlarge": 2328,
      "Ġexample": 2329,
      "Ġpublic": 2330,
      "Ð²Ð¸Ð´": 2331,
      "ĠÐ´Ð¾Ð¼": 2332,
      "conom": 2333,
      "ided": 2334,
      "ĠÐ»Ð¸ÑĤÐµÑĢÐ°": 2335,
      "ĠÑģÐ¾Ð²ÑĢÐµÐ¼ÐµÐ½": 2336,
      "ÑĭÐ²": 2337,
      "Ð¸ÑĢÐ°": 2338,
      "ĠÐ½ÐµÑģÐº": 2339,
      "Ð»ÐµÐ½Ñĭ": 2340,
      "Ġdeath": 2341,
      "ey": 2342,
      "ued": 2343,
      "ander": 2344,
      "ĠÑĤÑĢÐ°Ð½": 2345,
      "ÑĤÐ¾ÑĢÐ°": 2346,
      "Ð²Ð¾Ð»Ñİ": 2347,
      "ices": 2348,
      "Ġpo": 2349,
      "Ġhum": 2350,
      "ĠÑģÐ»ÐµÐ´": 2351,
      "ĠÐ¿ÑĢÐ¾Ð³ÑĢÐ°Ð¼": 2352,
      "Ð»Ð¸ÑĤ": 2353,
      "30": 2354,
      "oci": 2355,
      "ternational": 2356,
      "Ð¿Ð¾Ð´": 2357,
      "ission": 2358,
      "Ð²Ð¸": 2359,
      "Ð°ÑİÑĤÑģÑı": 2360,
      "ĠÐµÐ²": 2361,
      "Ġcontro": 2362,
      "ouse": 2363,
      "Ġlaw": 2364,
      "ĠSch": 2365,
      "ets": 2366,
      "ÐµÑģÐ¿ÑĥÐ±Ð»Ð¸": 2367,
      "Ð¾Ð½Ðµ": 2368,
      "Ð°Ð»Ð°ÑģÑĮ": 2369,
      "Ð¾ÑģÐ¾Ð±": 2370,
      "ÑīÐµÐµ": 2371,
      "ĠĊĊ": 2372,
      "ÑĪÐ°Ñı": 2373,
      "Ġdet": 2374,
      "Ð´ÐµÐ¼": 2375,
      "ĠÑĩÐ°ÑģÑĤÑĮ": 2376,
      "Ð¼Ð¸ÑĢÐ¾Ð²": 2377,
      "ĠÑįÑĤÐ¾Ð³Ð¾": 2378,
      "ĠÐ°Ð²ÑĤÐ¾ÑĢ": 2379,
      "rodu": 2380,
      "Ðķ": 2381,
      "ÐµÐ¼Ð°ÑĤ": 2382,
      "ĠUniversity": 2383,
      "ĠAustral": 2384,
      "ÑģÑĤÑĢÑĥ": 2385,
      "Ð¼Ð»": 2386,
      "Ð»Ñĥ": 2387,
      "ĠÑĤÐµÐ°ÑĤÑĢÐ°": 2388,
      "Ġbas": 2389,
      "raft": 2390,
      "ĠÑģÐ¾Ð¾ÑĤ": 2391,
      "Ġimport": 2392,
      "Ġrecord": 2393,
      "ull": 2394,
      "ator": 2395,
      "ĠÐľÐ°ÑĢ": 2396,
      "ÑĩÐ¸Ð½": 2397,
      "Ġcap": 2398,
      "Ð¸ÑĩÐµÑģÐºÐ¸": 2399,
      "pen": 2400,
      "Ð¸ÑģÐº": 2401,
      "ĠÐ°Ð¼ÐµÑĢÐ¸ÐºÐ°Ð½ÑģÐºÐ°Ñı": 2402,
      "ĠÐ¿ÐµÐ²": 2403,
      "por": 2404,
      "ÑıÐ¼": 2405,
      "arl": 2406,
      "ÑĢÑĮ": 2407,
      "ĠÐºÐ°ÑĤ": 2408,
      "son": 2409,
      "Ġ21": 2410,
      "ĠÑģÑĤÑĢÐ¾": 2411,
      "ÑģÑĭ": 2412,
      "ÑĪÐµÐ¹": 2413,
      "ĠÐ´Ð²Ð¸Ð¶": 2414,
      "ĠÑĦÑĢÐ°Ð½ÑĨÑĥÐ·ÑģÐºÐ¸Ð¹": 2415,
      "ĠÐŀÑģ": 2416,
      "ries": 2417,
      "ĠÐĺÐ²": 2418,
      "ĠÐ¿Ð¾Ñĩ": 2419,
      "ĠÐ´Ð¾Ðº": 2420,
      "ĠOr": 2421,
      "ÐºÐ°Ð½": 2422,
      "Ġinclude": 2423,
      "ym": 2424,
      "ĠÑģÐ»ÑĥÑĩ": 2425,
      "ĠÐĿÐ¸ÐºÐ¾Ð»": 2426,
      "Ġpower": 2427,
      "ĠHowever": 2428,
      "Ð¸Ð±Ð»Ð¸": 2429,
      "au": 2430,
      "ÐºÐ°Ñħ": 2431,
      "Ð¸ÑĤÐµÐ»ÐµÐ¹": 2432,
      "Ġ26": 2433,
      "ĠÑĦÑĥÐ½": 2434,
      "Ð¾ÑĤÐ¾Ð²": 2435,
      "ÑīÑĳ": 2436,
      "ĠÐ½Ð°Ð·ÑĭÐ²Ð°": 2437,
      "Ġallow": 2438,
      "Ð°ÑĢÐ°ÐºÑĤ": 2439,
      "Ð½Ð¸Ð²ÐµÑĢÑģ": 2440,
      "ĠÐ³Ð´Ðµ": 2441,
      "Ġ23": 2442,
      "ĠÑģÑĤÐ¾Ð»": 2443,
      "Ġ22": 2444,
      "Ð¸ÑĤÐ°": 2445,
      "vers": 2446,
      "Ġlife": 2447,
      "Ġ'": 2448,
      "Ġequ": 2449,
      "ĠÐłÐµÑģÐ¿ÑĥÐ±Ð»Ð¸": 2450,
      "Ġthough": 2451,
      "eb": 2452,
      "ĠÐ²ÐºÐ»ÑİÑĩ": 2453,
      "Ġnear": 2454,
      "ĠWh": 2455,
      "Ð¸ÐµÐ¼": 2456,
      "ĠÐ¿ÑĢÐ¾Ð¼": 2457,
      "rab": 2458,
      "ĠÐ¸ÑģÑģÐ»ÐµÐ´Ð¾Ð²": 2459,
      "ÑĢÑĳ": 2460,
      "Ð¾Ð»Ð¶": 2461,
      "ĠÐ°ÑĢÑĤÐ¸ÑģÑĤ": 2462,
      "ÑĢÐ¾Ðº": 2463,
      "Ġval": 2464,
      "Ð»Ð°Ð³": 2465,
      "ified": 2466,
      "ĠÑģÐµÐ±": 2467,
      "Ġshow": 2468,
      "ÑĭÑĪÐ»ÐµÐ½": 2469,
      "ee": 2470,
      "rad": 2471,
      "com": 2472,
      "194": 2473,
      "ience": 2474,
      "ĠComm": 2475,
      "ize": 2476,
      "ĠÐŀÐ±": 2477,
      "ĠÐ³Ð¾Ð»": 2478,
      "Ð½Ð¸Ñħ": 2479,
      "ĠÑĢÐµÐ¶": 2480,
      "ister": 2481,
      "ript": 2482,
      "ÑģÑĤÐ²ÐµÐ½Ð½Ð¾": 2483,
      "ician": 2484,
      "Ġrefer": 2485,
      "Ð¾ÑģÐ»Ðµ": 2486,
      "ÐµÑĢÐ¸Ð¸": 2487,
      "ĠÑĥÑĤ": 2488,
      "ÑĮÐµ": 2489,
      "Ġclass": 2490,
      "..": 2491,
      "Ġfoot": 2492,
      "Ġfun": 2493,
      "Ġperiod": 2494,
      "ĠÐºÐ½Ñı": 2495,
      "ĠÑĥÐ´": 2496,
      "ĠÐŁÑĢÐµ": 2497,
      "med": 2498,
      "Ġorgan": 2499,
      "Ġaround": 2500,
      "ĠCol": 2501,
      "ĠÐ½ÐµÐ·Ð°Ð²Ð¸ÑģÐ¸Ð¼": 2502,
      "Ð°Ð½Ð¸Ð¹": 2503,
      "ÐºÐ¾Ð½Ñĩ": 2504,
      "ĠRuss": 2505,
      "Ġdid": 2506,
      "ÑĢÑĥÐ¶": 2507,
      "ross": 2508,
      "ĠÐ°Ð´": 2509,
      "ÐºÐ¾Ð²Ð¾Ð´": 2510,
      "iety": 2511,
      "Ð¸ÑĨÑĭ": 2512,
      "ĠÑĤÐµÐ¾ÑĢ": 2513,
      "ÑĭÐ¼Ð¸": 2514,
      "ĠÐºÐ»Ð°ÑģÑģ": 2515,
      "Ġrequ": 2516,
      "row": 2517,
      "ÐµÑĢÐ°ÑĤÐ¾ÑĢ": 2518,
      "amed": 2519,
      "ÑĢÐ°Ð·Ð´": 2520,
      "Ġestabl": 2521,
      "ĠÐ¿ÐµÑĢÐ¸Ð¾Ð´": 2522,
      "ĠÐ¼Ð°ÑģÑģ": 2523,
      "ĠÐŀÐ´": 2524,
      "Ð§": 2525,
      "Ð¸ÑĢÐ¾Ð²Ð°Ð½": 2526,
      "ÑħÑĢÐ°Ð½": 2527,
      "ration": 2528,
      "ĠÐ¾Ð³": 2529,
      "ÑģÑĤÑĢÐµ": 2530,
      "ĠAg": 2531,
      "ĠAir": 2532,
      "ĠÐºÐ½Ð¸": 2533,
      "Ġrele": 2534,
      "ĠQ": 2535,
      "ÐµÑĢÐ¾Ð²": 2536,
      "ĠBar": 2537,
      "ugust": 2538,
      "ĠÐ¾ÑģÐ¾Ð±": 2539,
      "Ð°ÑĢÑħ": 2540,
      "Ð¾Ð¶Ð´ÐµÐ½Ð¸Ñı": 2541,
      "resent": 2542,
      "dom": 2543,
      "ris": 2544,
      "ner": 2545,
      "ilar": 2546,
      "ĠKing": 2547,
      "Ġ2010": 2548,
      "Ð´Ñĥ": 2549,
      "Ð»Ð¸Ð¼Ð¿": 2550,
      "Ð¸ÑĤÐµÑĤ": 2551,
      "ĠÑĩÐµÑĢÐµÐ·": 2552,
      "yd": 2553,
      "aim": 2554,
      "Ġcult": 2555,
      "ĠRoman": 2556,
      "ÑĭÐ²Ð°": 2557,
      "Ġ27": 2558,
      "Ð²Ð°ÑĤ": 2559,
      "gg": 2560,
      "ĠÐ¿Ð¾Ð½": 2561,
      "ĠÐĴÐ»Ð°Ð´": 2562,
      "iven": 2563,
      "Ġ28": 2564,
      "ival": 2565,
      "Ð»Ð¾Ñī": 2566,
      "Ð¼ÐµÑĤ": 2567,
      "Ġperson": 2568,
      "iving": 2569,
      "ÐµÐ½Ð½Ð¾": 2570,
      "Ġcor": 2571,
      "Ġmar": 2572,
      "Ð¾ÑģÐ»Ð°Ð²": 2573,
      "let": 2574,
      "Ġlit": 2575,
      "Ġposs": 2576,
      "Ġleg": 2577,
      "par": 2578,
      "Ġstr": 2579,
      "ÑĢÐ¾ÑģÑĤÑĢÐ°Ð½": 2580,
      "Ġvers": 2581,
      "ody": 2582,
      "ĠÐ²ÑģÐµÑħ": 2583,
      "ÑĪÐµÐ³Ð¾": 2584,
      "Ġthose": 2585,
      "ĠÐ²Ð¾Ð·Ð¼Ð¾Ð¶": 2586,
      "Ġcountry": 2587,
      "ĠÐ¿ÑĢÐ¾ÑĨ": 2588,
      "Ġdescrib": 2589,
      "ĠÐ¡ÐµÐ²ÐµÑĢ": 2590,
      "Ð¾Ð±Ð¾Ð´": 2591,
      "Ġorder": 2592,
      "25": 2593,
      "Ġamong": 2594,
      "ai": 2595,
      "ĠÐ½ÐµÐ¼ÐµÑĨÐºÐ¸Ð¹": 2596,
      "rew": 2597,
      "ĠÐ¼ÑĥÐ·Ñĭ": 2598,
      "ÑħÐ¾Ð´Ð¸ÑĤ": 2599,
      "ÑĦÐ°": 2600,
      "une": 2601,
      "Ð¾Ð»Ð¾Ð³Ð¸Ð¸": 2602,
      "ĠÐ¾Ð½Ð¸": 2603,
      "Ġ184": 2604,
      "omen": 2605,
      "Ġteam": 2606,
      "ended": 2607,
      "Ð´Ñĭ": 2608,
      "ster": 2609,
      "Ġ1990": 2610,
      "Ð°ÑĢÐ°ÐºÑĤÐµÑĢ": 2611,
      "ĠSouth": 2612,
      "ĠÑĤÑĭ": 2613,
      "Ġlike": 2614,
      "ĠÑĢÐµÐ»Ð¸": 2615,
      "Ð¥": 2616,
      "Ġbased": 2617,
      "ung": 2618,
      "ove": 2619,
      "Ġlanguage": 2620,
      "III": 2621,
      "ĠĊĠĊĠĊĠĊ": 2622,
      "Ġ(Â«": 2623,
      "ĠThey": 2624,
      "Ġappro": 2625,
      "Ġrun": 2626,
      "Ð½ÐµÐ³Ð¾": 2627,
      "ĠPr": 2628,
      "Ð¾Ð»Ð¾ÑĤ": 2629,
      "Ð¸Ð½ÑģÐºÐ¸Ð¹": 2630,
      "ids": 2631,
      "ÑĩÐ¸": 2632,
      "Ġconf": 2633,
      "Ð·ÑĭÐ²": 2634,
      "icial": 2635,
      "ĠÑĦÑĥÑĤ": 2636,
      "ĠÐ²Ð¾ÑģÑģÑĤ": 2637,
      "ÑģÑĤÐ¾Ñı": 2638,
      "ried": 2639,
      "Ġcommun": 2640,
      "ott": 2641,
      "ink": 2642,
      "ĠÐŁÐµÑĢÐ²": 2643,
      "ĠÐ½Ð°ÑĨÐ¸Ð¾Ð½Ð°Ð»ÑĮ": 2644,
      "ĠÐ¸Ð·Ð´": 2645,
      "ĠÐ±ÑĭÑĤÑĮ": 2646,
      "Ġ2000": 2647,
      "Ġhistor": 2648,
      "Ġright": 2649,
      "Ġmodern": 2650,
      "Ð½ÐµÐ²": 2651,
      "Ð¸ÑĤÐ¾ÑĢ": 2652,
      "ÑĢÑĥÐ·": 2653,
      "Â°": 2654,
      "ĠÐ½Ð¸Ñħ": 2655,
      "Ġla": 2656,
      "Ġann": 2657,
      "Ġprocess": 2658,
      "de": 2659,
      "ĠIII": 2660,
      "ĠMus": 2661,
      "ĠÑĩÐ°ÑģÑĤÐ¸": 2662,
      "ĠÐºÑĥÐ»ÑĮÑĤ": 2663,
      "Ð»Ð°Ð¼ÐµÐ½ÑĤ": 2664,
      "ĠÑģÐ¾Ð¾ÑĤÐ²ÐµÑĤ": 2665,
      "ĠÐºÐ¸Ð½": 2666,
      "Ġprop": 2667,
      "ĠÑĪÐºÐ¾Ð»": 2668,
      "Ġseries": 2669,
      "Ð¾Ð±Ñī": 2670,
      "ization": 2671,
      "Ð³Ð»Ð°": 2672,
      "ĠÐ°Ð»": 2673,
      "ague": 2674,
      "aced": 2675,
      "ĠÐºÐ¾Ð¼Ð¿Ð¾Ð·": 2676,
      "af": 2677,
      "Ġdiv": 2678,
      "ĠÑĤÐ¾Ñĩ": 2679,
      "ĠÐ¾ÑĤÐºÑĢÑĭÑĤ": 2680,
      "Ġarea": 2681,
      "Ġword": 2682,
      "ĠÐ¡Ð²": 2683,
      "ĠUS": 2684,
      "aving": 2685,
      "Ġnon": 2686,
      "Ġgu": 2687,
      "Ġexpl": 2688,
      "Ð¸Ð»Ð°ÑģÑĮ": 2689,
      "ĠÐ½Ð°Ð¿ÑĢÐ°Ð²": 2690,
      "ently": 2691,
      "ÑĤÐ¾Ð²": 2692,
      "Ġprogram": 2693,
      "ately": 2694,
      "oss": 2695,
      "ole": 2696,
      "Ġeven": 2697,
      "ĠÐ½Ð°Ñģ": 2698,
      "by": 2699,
      "ĠÑĥÐ±": 2700,
      "Ð¸Ð·Ð¼Ð°": 2701,
      "ilitary": 2702,
      "ĠÐ¸ÑģÐºÑĥÑģ": 2703,
      "ged": 2704,
      "ness": 2705,
      "ĠÑĥÑģÑĤÐ°Ð½Ð¾Ð²": 2706,
      "ĠÐ¼Ð¸ÑĢÐ¾Ð²": 2707,
      "ÑģÑĤÐ¸ÑĤÑĥ": 2708,
      "Ġ()": 2709,
      "ĠAugust": 2710,
      "ÑģÐ¾": 2711,
      "ĠÐ´ÐµÐ½ÑĮ": 2712,
      "ases": 2713,
      "ĠÑĤÐ¾ÑĢ": 2714,
      "ĠÐ±Ð¾Ð³": 2715,
      "ĠÐłÐ¾ÑģÑģÐ¸Ð¹": 2716,
      "ĠNational": 2717,
      "ĠÑĥÐ½Ð¸Ð²ÐµÑĢÑģ": 2718,
      "Ð»Ð¸Ð¼Ð¿Ð¸Ð¹": 2719,
      "olution": 2720,
      "tic": 2721,
      "ĠPl": 2722,
      "Ġ2008": 2723,
      "Ġbegan": 2724,
      "Ð¸Ð´Ðµ": 2725,
      "ÑģÐºÐ¸Ð¼Ð¸": 2726,
      "ĠÐ²ÑĭÑģÐ¾Ðº": 2727,
      "ger": 2728,
      "Ġmuch": 2729,
      "ternal": 2730,
      "ĠÐ´Ð°": 2731,
      "Ġpass": 2732,
      "ĠBC": 2733,
      "ĠÐ£ÐºÑĢÐ°": 2734,
      "Ð°ÑĢÐ¸ÑģÑĤ": 2735,
      "Ġ2007": 2736,
      "ĠÐºÐ°ÑĩÐµ": 2737,
      "ological": 2738,
      "tle": 2739,
      "Ð¼Ð¾ÑĤ": 2740,
      "ĠÐ»Ð¸ÑĪ": 2741,
      "ĠÑģÐ¾Ð´": 2742,
      "ĠÑħÑĥÐ´Ð¾Ð¶": 2743,
      "Ġcur": 2744,
      "ĠXV": 2745,
      "Ġinflu": 2746,
      "Ð»Ð°ÑģÑĮ": 2747,
      "Ġexper": 2748,
      "ĠÐ³Ð°Ð·": 2749,
      "ĠÐ¿Ð¾Ð´Ð´ÐµÑĢÐ¶": 2750,
      "Ġmark": 2751,
      "ĠÑĩÐ»ÐµÐ½": 2752,
      "ĠÐ²Ð¾Ð¿": 2753,
      "urther": 2754,
      "Al": 2755,
      "ÐļÐ°ÑĤ": 2756,
      "ÐµÑĢÐµ": 2757,
      "ĠÐºÐ¾ÑĤÐ¾ÑĢÐ¾Ð¹": 2758,
      "ĠÐºÐ°Ð½": 2759,
      "ĠÐ¿ÑĢÐ¸Ð½ÑıÑĤ": 2760,
      "ple": 2761,
      "Ġfin": 2762,
      "ĠÐ³ÑĢÐ°Ð¶Ð´Ð°Ð½": 2763,
      "Ġwater": 2764,
      "ÑĢÐ¸ÑģÑĤÐ¸Ð°Ð½": 2765,
      "ÑģÑĤÐ²ÐµÐ½Ð½ÑĭÐ¹": 2766,
      "Ð°Ð»Ð¸Ð·": 2767,
      "Ã¡": 2768,
      "Ġ[": 2769,
      "ilos": 2770,
      "ĠÐ´ÑĢÐµÐ²": 2771,
      "Ġperform": 2772,
      "ÑĦÐ¸ÑĨÐ¸Ð°Ð»ÑĮ": 2773,
      "ÐµÐ½Ð½ÑĭÐ¹": 2774,
      "Ġtechn": 2775,
      "Ġpopulation": 2776,
      "Ġ2014": 2777,
      "Ġopp": 2778,
      "Ġeng": 2779,
      "ĠÐ²ÑĢÐµÐ¼ÐµÐ½Ð¸": 2780,
      "Ġusing": 2781,
      "Ð¾ÑĢÑĥÐ¶": 2782,
      "ÑĤÑĥÑĢ": 2783,
      "ĠÐºÐ¾ÑĤ": 2784,
      "Ð°ÐºÑģ": 2785,
      "ĠÑĥÑĢÐ¾Ð²": 2786,
      "ÑĭÐ½": 2787,
      "Ġdue": 2788,
      "rid": 2789,
      "Ð°Ð»ÑĮÑıÐ½": 2790,
      "Ġ2011": 2791,
      "cer": 2792,
      "Ġreturn": 2793,
      "Ġsoc": 2794,
      "Ġtem": 2795,
      "ĠÐ¼Ð¸ÑĢÐµ": 2796,
      "ÑĭÑĩ": 2797,
      "Ġ2013": 2798,
      "Ġ2009": 2799,
      "ÑĢÑĳÑħ": 2800,
      "ÑĢÐ¾ÑĤ": 2801,
      "ĠGe": 2802,
      "ards": 2803,
      "Ġbelie": 2804,
      "Ġeconom": 2805,
      "Ð»Ð°ÑģÑĤÑĮ": 2806,
      "ĠÐ¿Ð»Ð°Ð½": 2807,
      "Ð¾Ð³Ð»Ð°ÑģÐ½Ð¾": 2808,
      "ĠÐ´Ð¾ÑĢ": 2809,
      "ane": 2810,
      "ĠÑĤÑĭÑģÑı": 2811,
      "Ġ2012": 2812,
      "Ð»ÑģÑı": 2813,
      "Ġwithin": 2814,
      "ĠAll": 2815,
      "Ġstand": 2816,
      "craft": 2817,
      "read": 2818,
      "ves": 2819,
      "Ġdr": 2820,
      "ĠÑĢÐµÐ²Ð¾Ð»Ñİ": 2821,
      "embers": 2822,
      "ĠÑĢÐµÑģÐ¿": 2823,
      "ĠÐ±ÑĢÐ¸ÑĤÐ°Ð½": 2824,
      "ÑįÐ½": 2825,
      "ĠÑħÐ°ÑĢÐ°ÐºÑĤÐµÑĢ": 2826,
      "ĠÑĦÑĥÐ½Ðº": 2827,
      "ĠÐ¶ÐµÐ½": 2828,
      "Ð»ÑĥÐ¶": 2829,
      "ĠÑĢÐµÐ·ÑĥÐ»ÑĮÑĤÐ°ÑĤÐµ": 2830,
      "ĠÐ¶Ð¸Ð·Ð½Ð¸": 2831,
      "ÑĨÐ¸Ð¿": 2832,
      "Ð½Ð¸ÑĨÐ°": 2833,
      "ĠÐ¾ÑĢÐ³Ð°Ð½Ð¸Ð·Ð°": 2834,
      "ĠÐºÐ°Ð·": 2835,
      "Ġfollowing": 2836,
      "ÑĥÐºÐ°": 2837,
      "Ð»Ð°Ð½": 2838,
      "ÑĥÑĢÐ°": 2839,
      "ĠÐºÐ¾Ð»Ð¸ÑĩÐµ": 2840,
      "ĠÐ¼ÐµÐ´": 2841,
      "ĠÐ·Ð°ÑĤ": 2842,
      "Ġfootball": 2843,
      "ĠÑĢÐ°ÑģÐ¿ÑĢÐ¾ÑģÑĤÑĢÐ°Ð½": 2844,
      "ĠÐ¼Ð¾Ð¶Ð½Ð¾": 2845,
      "ĠÐ»Ð¸Ð½": 2846,
      "Ġarch": 2847,
      "ĠÑĢÐ°Ð²": 2848,
      "Ġadv": 2849,
      "ĠÐ¸ÑģÑĤÐ¾ÑĢÐ¸Ð¸": 2850,
      "ĠÐ·Ð°Ð½Ð¸Ð¼": 2851,
      "Ġrest": 2852,
      "Ġvery": 2853,
      "Ġtyp": 2854,
      "ĠÐ·Ð²": 2855,
      "ĠÐ¸Ð·Ð¼ÐµÐ½": 2856,
      "21": 2857,
      "ĠNorth": 2858,
      "ĠÐ¶ÐµÐ»Ðµ": 2859,
      "ĠÑģÐ¾ÑħÑĢÐ°Ð½": 2860,
      "ÑģÐµÐ´": 2861,
      "Ð³Ðµ": 2862,
      "Ġav": 2863,
      "ĠÑĢÐµÑģÐ¿ÑĥÐ±Ð»Ð¸": 2864,
      "Ð¾ÑģÑĤÐ¾Ðº": 2865,
      "Ġrece": 2866,
      "Ġstat": 2867,
      "Ð¾ÑĢÐ¾Ð´": 2868,
      "ĠÐ¿Ð°Ð¼ÑıÑĤÑĮ": 2869,
      "ĠÐ´Ð²Ð°": 2870,
      "Ġstill": 2871,
      "ĠÑĢÐ¾Ð´": 2872,
      "ĠÑĢÐ°ÑģÑģ": 2873,
      "ĠÐ¿Ð¾Ð»Ð¾Ð¶": 2874,
      "ĠÐ³ÑĢÐ°Ð½": 2875,
      "Ġ185": 2876,
      "ĠÐ¼Ð¾Ð´": 2877,
      "Ð½ÐµÐ¼": 2878,
      "ÐµÐ²Ð°": 2879,
      "ĠÐĲÑĦ": 2880,
      "Ġhistory": 2881,
      "ĠÐ¿Ð¾Ð¼Ð¾Ñī": 2882,
      "ĠÑĤÐ¸Ð¿": 2883,
      "ĠÐľÐ¸Ñħ": 2884,
      "Ġ29": 2885,
      "ĠCar": 2886,
      "gen": 2887,
      "ÑģÑĤÐ²ÐµÐ½Ð½Ð¾Ð¹": 2888,
      "ÐµÐ³Ð¾ÑĢÐ¸Ñı": 2889,
      "Ð¸ÑĩÐµÑģÐºÐ¾Ðµ": 2890,
      "ollo": 2891,
      "ĠÑĢÐ°ÑģÐ¿Ð¾Ð»Ð¾Ð¶": 2892,
      "193": 2893,
      "Ð¸Ð´ÐµÑĢ": 2894,
      "ĠÐºÐ¾Ð³Ð´Ð°": 2895,
      "Ð²Ð¸Ð½": 2896,
      "ches": 2897,
      "ÑģÑĤÐ²Ð¾Ð²": 2898,
      "ĠGreek": 2899,
      "ze": 2900,
      "omin": 2901,
      "ĠÑģÐ¾Ð»": 2902,
      "ĠÐ½Ð°ÑĥÑĩ": 2903,
      "Ð°ÑĤÐ¾Ð²": 2904,
      "ĠÐ¿ÑĢÐ¾Ð¼ÑĭÑĪÐ»ÐµÐ½": 2905,
      "eter": 2906,
      "ĠÑģÐ¿Ðµ": 2907,
      "ĊĠĊ": 2908,
      "ÑĦÐ¾ÑĢÐ¼": 2909,
      "ĠThese": 2910,
      "estern": 2911,
      "ÑĤÑĭ": 2912,
      "Ġes": 2913,
      "Ð¾ÐµÐ²": 2914,
      "ĠCent": 2915,
      "app": 2916,
      "ĠÐºÐ¾Ð¼Ð¿Ð¾Ð·Ð¸ÑĤÐ¾ÑĢ": 2917,
      "Ġpopular": 2918,
      "ony": 2919,
      "ĠÑĢÑĥÐºÐ¾Ð²Ð¾Ð´": 2920,
      "ÐºÐ°Ð´ÐµÐ¼": 2921,
      "ense": 2922,
      "rian": 2923,
      "ential": 2924,
      "ÑģÑıÑĤ": 2925,
      "ÑĢÐ°ÐºÑĤ": 2926,
      "ĠÐµÑīÑĳ": 2927,
      "Re": 2928,
      "Ġ2006": 2929,
      "Ġrev": 2930,
      "Ġnow": 2931,
      "ĠÐ½Ð°Ð·Ð²Ð°Ð½Ð¸Ðµ": 2932,
      "ĠÐ¼Ð¾Ð»": 2933,
      "Ġsimilar": 2934,
      "ĠÑģÑĤÐ°ÑĤ": 2935,
      "lic": 2936,
      "Ġread": 2937,
      "Ġlast": 2938,
      "adem": 2939,
      "Ð»Ð¾ÑīÐ°Ð´": 2940,
      "Ð¾Ð´Ðµ": 2941,
      "lin": 2942,
      "Ġpar": 2943,
      "Ġreport": 2944,
      "Ġhand": 2945,
      "Ġbase": 2946,
      "ĠÐĺÐ½": 2947,
      "Ð°Ð½Ð¸Ñİ": 2948,
      "ĠÐĲÐ»ÐµÐºÑģÐ°Ð½Ð´ÑĢ": 2949,
      "Ð´Ð¾Ð²": 2950,
      "ĠÑĥÐ¿ÑĢÐ°Ð²": 2951,
      "Ð¸Ð±Ð¾Ð»ÐµÐµ": 2952,
      "Ġline": 2953,
      "Ð»Ð¸Ð²": 2954,
      "Ġrad": 2955,
      "Ġbi": 2956,
      "ÐµÐ½Ð³": 2957,
      "ĠÑģÐµÐ¼": 2958,
      "olic": 2959,
      "epend": 2960,
      "ĠYork": 2961,
      "ĠÐ¾ÑĤÐ´": 2962,
      "aster": 2963,
      "ĠÑıÐ²Ð»ÑıÑİÑĤÑģÑı": 2964,
      "Ġgeneral": 2965,
      "Ġbus": 2966,
      "ĠÐ³Ð¾ÑģÑĥÐ´Ð°ÑĢÑģÑĤÐ²Ð°": 2967,
      "ĠÐ²Ð»Ð°ÑģÑĤÐ¸": 2968,
      "Ġmusic": 2969,
      "22": 2970,
      "Ġled": 2971,
      "ĠÐ´Ð²ÑĥÑħ": 2972,
      "ĠÐ²Ðµ": 2973,
      "ÑĩÐ¸Ñģ": 2974,
      "Ð¾ÑĢÐ°Ñı": 2975,
      "ÑģÐºÐ¾Ð¼Ñĥ": 2976,
      "Ġconsidered": 2977,
      "Ð¸ÑĤÐµÐ»Ñı": 2978,
      "ĠÐŁÐ¾Ð»": 2979,
      "line": 2980,
      "Ġ$": 2981,
      "ÐŁÑĢÐ¸Ð¼": 2982,
      "isc": 2983,
      "ĠÑĤÑĢÐ¸": 2984,
      "tal": 2985,
      "ĠÐ¼ÐµÐ½": 2986,
      "ÑĢÐ¾Ð»": 2987,
      "ĠÐ½ÐµÐ´": 2988,
      "Ġ2005": 2989,
      "cing": 2990,
      "rand": 2991,
      "Ġopen": 2992,
      "ode": 2993,
      "alth": 2994,
      "ĠÐºÐ¾Ñģ": 2995,
      "ĠÐ¸ÑĤÐ°Ð»ÑĮÑıÐ½": 2996,
      "ĠÑĩÐµÐ¼": 2997,
      "ÑĥÑģÐº": 2998,
      "ĠÑĥÐ³": 2999,
      "ĠÐ¸Ð½ÑĤÐµÑĢ": 3000,
      "ÑħÐ°Ð½": 3001,
      "Ġalong": 3002,
      "Ð¾ÐµÐºÑĤ": 3003,
      "ĠÑģÐ¿Ð¾ÑģÐ¾Ð±": 3004,
      "Ġpresent": 3005,
      "ms": 3006,
      "Ġplace": 3007,
      "Ġcomput": 3008,
      "ÑĥÐ»Ð¸": 3009,
      ".)": 3010,
      "ÐµÐ»Ð¸Ñĩ": 3011,
      "Ġhome": 3012,
      "bo": 3013,
      "Ġ2017": 3014,
      "Ġter": 3015,
      "put": 3016,
      "Ġ100": 3017,
      "itional": 3018,
      "ÐµÑĢÐµÐ´": 3019,
      "24": 3020,
      ".:": 3021,
      "ÐļÐ°ÑĤÐµÐ³Ð¾ÑĢÐ¸Ñı": 3022,
      "Ð¸Ð»Ð¾ÑģÑĮ": 3023,
      "ales": 3024,
      "udd": 3025,
      "ĠÑģÐ¾Ð´ÐµÑĢÐ¶": 3026,
      "ĠÑĥÐ¶Ðµ": 3027,
      "ÑĢÐ°Ð±": 3028,
      "Ð¾Ð¿Ð¸Ñģ": 3029,
      "ĠÑĩÐµÐ»Ð¾Ð²ÐµÐºÐ°": 3030,
      "ĠÐ¼ÐµÑģÑĤÐ¾": 3031,
      "Ð°ÐµÐ¼": 3032,
      "Ð»ÑĥÐ±": 3033,
      "Ð»Ð¾Ð½": 3034,
      "ÑĨÐ¸ÐµÐ¹": 3035,
      "195": 3036,
      "Ġstart": 3037,
      "Ġcharacter": 3038,
      "Ġ183": 3039,
      "Ġfact": 3040,
      "ĠÐ²ÑģÐµÐ³Ð¾": 3041,
      "ÐµÐºÑģÑĤ": 3042,
      "Ġ1980": 3043,
      "Ġresp": 3044,
      "ĠÐŀÑĤ": 3045,
      "Ġ|": 3046,
      "lands": 3047,
      "ĠÑģÐ¸ÑģÑĤÐµÐ¼Ñĭ": 3048,
      "Ġschool": 3049,
      "ality": 3050,
      "ĠÑĩÑĤ": 3051,
      "ĠÐ¼Ð°ÑĤÐµÐ¼Ð°ÑĤ": 3052,
      "Ġ2015": 3053,
      "ĠÐĲÐ½Ð´": 3054,
      "ĠÐºÐ¾ÑĤÐ¾ÑĢÐ°Ñı": 3055,
      "ĠArab": 3056,
      "ĠÐ´ÑĢÑĥÐ³Ð¸Ðµ": 3057,
      "ots": 3058,
      "ÑıÐ¶": 3059,
      "Ð¾Ð·Ñı": 3060,
      "Ġ2018": 3061,
      "ĠÐ¿ÑĢÐ¸Ð¼ÐµÐ½": 3062,
      "Ð°Ð»Ð¸Ð½": 3063,
      "rent": 3064,
      "ĠItal": 3065,
      "ĠÑĩÐ¸ÑģÐ»Ðµ": 3066,
      "Ð°ÑĤÐµÐ»Ñı": 3067,
      "Ġcour": 3068,
      "Ð»ÐµÐ½Ð°": 3069,
      "Ġhead": 3070,
      "Ġshort": 3071,
      "ĠÐ²Ð¾Ð¿ÑĢÐ¾Ñģ": 3072,
      "ĠÐ»ÑİÐ±": 3073,
      "eder": 3074,
      "ĠÐ±Ð¾ÑĢ": 3075,
      "ÐºÐ¸Ñħ": 3076,
      "ĠÐ¸Ð·Ð¾Ð±": 3077,
      "Ġ2020": 3078,
      "ÐµÑĢÐ²ÑĭÐµ": 3079,
      "Ġdem": 3080,
      "Ð°Ð»ÑĮÐ½ÑĭÑħ": 3081,
      "ata": 3082,
      "ĠÐ½Ð°Ð±": 3083,
      "Ð°Ð»ÑĮÐ½Ð¾Ð¹": 3084,
      "ĠÐ¸ÑģÐ¿Ð¾Ð»ÑĮÐ·Ð¾Ð²": 3085,
      "ĠÐ´ÐµÑĤ": 3086,
      "Ġgreat": 3087,
      "Ð°Ð¼Ð±": 3088,
      "ĠÐ°Ð½ÑĤ": 3089,
      "Ġbuild": 3090,
      "ĠWill": 3091,
      "Ġimportant": 3092,
      "ĠThere": 3093,
      "cient": 3094,
      "ese": 3095,
      "ats": 3096,
      "idd": 3097,
      "ites": 3098,
      "ĠÐ·Ð´": 3099,
      "Ð»ÐµÐ½Ð¸Ð¸": 3100,
      "ÐµÐ²Ð¸Ñĩ": 3101,
      "wards": 3102,
      "ĠÐ¸Ð¼ÐµÐµÑĤ": 3103,
      "ban": 3104,
      "ÑĥÐ»ÑıÑĢ": 3105,
      "rem": 3106,
      "Ġ+": 3107,
      "ĠÐ²Ð½Ðµ": 3108,
      "istic": 3109,
      "Ġcrit": 3110,
      "ories": 3111,
      "Ġchild": 3112,
      "ĠÐ½ÐµÑģÐºÐ¾Ð»ÑĮÐºÐ¾": 3113,
      "Ð´ÐµÐ½": 3114,
      "ĠÑģÐ¼": 3115,
      "ĠÐĴÐ»Ð°Ð´Ð¸Ð¼Ð¸": 3116,
      "ĠBy": 3117,
      "ĠÐ¿ÑĢÐ¾ÑĨÐµÑģÑģ": 3118,
      "ĠÐĲÐ·": 3119,
      "ĠÐ¿Ð¾Ð´Ð¿Ð¸Ñģ": 3120,
      "Ġfamily": 3121,
      "ÑĢÐ¸Ð¸": 3122,
      "ument": 3123,
      "ĠXX": 3124,
      "ilt": 3125,
      "Ġ1970": 3126,
      "ĠÐ²Ð¾Ð¹ÑģÐº": 3127,
      "Ġold": 3128,
      "Ġaff": 3129,
      "Ġvis": 3130,
      "zer": 3131,
      "ĠÐ¤ÑĢÐ°Ð½ÑĨÐ¸Ð¸": 3132,
      "ery": 3133,
      "arian": 3134,
      "Ð¸ÑıÑħ": 3135,
      "Ð¸ÑĤÐµÐºÑĤ": 3136,
      "ĠÐĲÐ»ÑĮ": 3137,
      "ĠÐłÑĥÑģ": 3138,
      "Ð»ÐµÐ¼ÐµÐ½ÑĤ": 3139,
      "li": 3140,
      "ĠMay": 3141,
      "ĠÐºÐ¾ÑĤÐ¾ÑĢÐ¾Ð³Ð¾": 3142,
      "ÑģÑĤÐ²Ñĥ": 3143,
      "ĠEd": 3144,
      "ĠCanad": 3145,
      "ĠÐ´Ð¾Ð³": 3146,
      "pire": 3147,
      "ald": 3148,
      "urs": 3149,
      "Ġ2016": 3150,
      "Ġmembers": 3151,
      "ÑĳÐ²": 3152,
      "Ġvarious": 3153,
      "ĠÐ¿Ð°ÑĢÐ»Ð°Ð¼ÐµÐ½ÑĤ": 3154,
      "ÐµÐ»ÐµÐ¼": 3155,
      "ĠÑĤÑĢÐ°Ð½ÑģÐ¿": 3156,
      "ior": 3157,
      "Ð¾ÑĢÐ¾Ð²": 3158,
      "ĠÐ¼Ð¸Ð½Ð¸ÑģÑĤ": 3159,
      "ĠHis": 3160,
      "ele": 3161,
      "empt": 3162,
      "23": 3163,
      "bit": 3164,
      "Ġinc": 3165,
      "ÐµÑĩÐ°Ð½Ð¸Ñı": 3166,
      "Ġless": 3167,
      "ĠAss": 3168,
      "Ġparticular": 3169,
      "day": 3170,
      "Ð½Ð°Ð´": 3171,
      "ably": 3172,
      "ĠÑģÐ¼ÐµÑĢ": 3173,
      "ĠBel": 3174,
      "Ð½ÑıÑı": 3175,
      "ĠÐ¿Ð°Ð¼ÑıÑĤ": 3176,
      "Ġhig": 3177,
      "ĠÐ¡Ð°Ð½": 3178,
      "Ð°Ð»ÑĮÐ½ÑĭÐµ": 3179,
      "Ġphys": 3180,
      "Ġsaid": 3181,
      "urg": 3182,
      "sc": 3183,
      "ĠÑĥÑĩÑĳ": 3184,
      "ĠÐ¿ÑĢÐ¾Ð´Ð¾Ð»Ð¶": 3185,
      "ĠÐ¿ÐµÑģ": 3186,
      "ĠÐ²Ð½ÑĥÑĤ": 3187,
      "atter": 3188,
      "ĠÐ¾Ð±ÑĬÑıÐ²": 3189,
      "ÑĳÐ½Ð½ÑĭÑħ": 3190,
      "Ġ2019": 3191,
      "Ġ2004": 3192,
      "ÑĢÐ°Ð½Ð¸Ñĩ": 3193,
      "Ð»ÐµÑĢ": 3194,
      "ĠÑĦÑĥÑĤÐ±Ð¾Ð»": 3195,
      "ĠÑģÐ»ÑĥÐ¶": 3196,
      "Ġgl": 3197,
      "Ð´ÐµÐ¹": 3198,
      "ĠÐ¸Ñģ": 3199,
      "ĠBra": 3200,
      "Ġkill": 3201,
      "Ð½ÑĮ": 3202,
      "ÑĥÐµÑĤÑģÑı": 3203,
      "Ġbook": 3204,
      "iness": 3205,
      "Ġorigin": 3206,
      "Ð»Ð°ÑĤ": 3207,
      "ĠÐ¶ÑĥÑĢ": 3208,
      "ĠÐ³Ð¾Ð´Ñĭ": 3209,
      "rote": 3210,
      "Ħĸ": 3211,
      "ĠÑģÑĨÐµÐ½": 3212,
      "Ġleft": 3213,
      "ÑĦÐ¾ÑĢÐ¼Ð°": 3214,
      "Ð»Ð¸ÑģÑĮ": 3215,
      "ule": 3216,
      "Ġwhat": 3217,
      "Ġcomb": 3218,
      "Ġfre": 3219,
      "Ð»ÐµÐº": 3220,
      "Ġnational": 3221,
      "ÑıÐ±": 3222,
      "Ġanother": 3223,
      "Ð¾Ð»Ð¾Ð³Ð¸Ñı": 3224,
      "Ð¿ÐµÑĢÐ°": 3225,
      "ĠÐ¾Ð±ÑĬÐµÐºÑĤ": 3226,
      "ĠGod": 3227,
      "Ġspecies": 3228,
      "Ġhuman": 3229,
      "ray": 3230,
      "ither": 3231,
      "ĠÑįÐ½": 3232,
      "ĠÐºÐ¾Ð¼Ð°Ð½Ð´": 3233,
      "Ð°Ð»ÑĮÐ½Ð¾": 3234,
      "ccording": 3235,
      "ĠÐ¸Ð´Ðµ": 3236,
      "ĠXIX": 3237,
      "ĠÐ·Ð°ÐºÐ»ÑİÑĩ": 3238,
      "ÑĪÐ¸Ð¼": 3239,
      "eth": 3240,
      "Ġsour": 3241,
      "ĠÐ¾ÑĦÐ¸ÑĨÐ¸Ð°Ð»ÑĮ": 3242,
      "Ġ//": 3243,
      "%,": 3244,
      "ÑĢÐ¾Ð¼Ðµ": 3245,
      "Ġpat": 3246,
      "ÐłÐ¾Ð´": 3247,
      "Ġanim": 3248,
      "ĠÐ¼ÐµÐ¶Ð´ÑĥÐ½Ð°ÑĢÐ¾Ð´": 3249,
      "reen": 3250,
      "ÑĢÐ¸Ð´": 3251,
      "ware": 3252,
      "ÑģÑĥÑĤ": 3253,
      "amb": 3254,
      "ÐµÐ¶Ð´": 3255,
      "ÑģÐµÑĢ": 3256,
      "anu": 3257,
      "ĠÐłÐ¾ÑģÑģÐ¸Ð¹ÑģÐºÐ¾Ð¹": 3258,
      "Ð¸Ð½Ñĥ": 3259,
      "Ġgiven": 3260,
      "Ġpublished": 3261,
      "Ġmilitary": 3262,
      "Ġanal": 3263,
      "ĠÐ²ÑĭÐ¿": 3264,
      "ĠHer": 3265,
      "ĠApollo": 3266,
      "oks": 3267,
      "agn": 3268,
      "ĠÐ¾ÑĤÐ½Ð¾Ñģ": 3269,
      "ĠMin": 3270,
      "Ġgo": 3271,
      "ination": 3272,
      "Ð°Ð½Ðµ": 3273,
      "Ġrepresent": 3274,
      "ĠÐ°Ð½Ð³Ð»Ð¸Ð¹ÑģÐºÐ¸Ð¹": 3275,
      "ribut": 3276,
      "ĠÐľÐ°ÑĢÐ¸": 3277,
      "ĠâĦĸ": 3278,
      "ont": 3279,
      "ÐŁÑĢÐ¸Ð¼ÐµÑĩÐ°Ð½Ð¸Ñı": 3280,
      "ean": 3281,
      "ĠÑĢÐ°Ð·Ð´Ðµ": 3282,
      "ĠÑģÐ²Ð¾Ð¹": 3283,
      "Ġpolitician": 3284,
      "Ġprot": 3285,
      "iber": 3286,
      "less": 3287,
      "Ġ50": 3288,
      "ril": 3289,
      "ops": 3290,
      "Ex": 3291,
      "men": 3292,
      "Ð¾Ð½Ð´": 3293,
      "ĠÑģÐ²ÑıÐ·Ð¸": 3294,
      "Ð¾Ð·ÑıÐ¹": 3295,
      "ether": 3296,
      "Ð¾ÑĢÐ¾Ð½Ñĭ": 3297,
      "ĠÐĶÐµÐ½ÑĮ": 3298,
      "ĠÐ»Ð°": 3299,
      "Ġfore": 3300,
      "ĠÐŁÐµÑĢ": 3301,
      "ĠÐ¾Ð±ÑĢÐ°Ð·Ð¾Ð¼": 3302,
      "Ġport": 3303,
      "apan": 3304,
      "ĠÐ³ÑĢÑĥÐ¿Ð¿Ñĭ": 3305,
      "ĠÐ¡ÑĢÐµÐ´": 3306,
      "ĠÐ¾ÑĤÐ»Ð¸Ñĩ": 3307,
      "ĠÐºÑĢÐ¸ÑĤ": 3308,
      "ĠRo": 3309,
      "ĠChurch": 3310,
      "ĠÑįÐ¿": 3311,
      "ĠÐ¿Ð»Ð¾ÑīÐ°Ð´": 3312,
      "ĠÐĴÑģÐµ": 3313,
      "Ġident": 3314,
      "ĠÐ²Ð»Ð¸": 3315,
      "ĠÑħÑĥÐ´Ð¾Ð¶Ð½Ð¸Ðº": 3316,
      "Äģ": 3317,
      "ĠÐ²Ð¾Ð¹Ð½Ð°": 3318,
      "ĠÑģÐ¾Ð¾ÑĤÐ²ÐµÑĤÑģÑĤÐ²": 3319,
      "ÐµÑĪ": 3320,
      "ÑĭÑĤÐ¸Ñı": 3321,
      "ĠÑģÐµÐ±Ñı": 3322,
      "writ": 3323,
      "Ġsomet": 3324,
      "Ð¸ÑĤÐ°Ð¹": 3325,
      "Ġdevelopment": 3326,
      "ĠÐ¿ÑĢÐµÐ¼ÑĮÐµÑĢ": 3327,
      "ones": 3328,
      "aining": 3329,
      "Ġ1960": 3330,
      "Ġformer": 3331,
      "ÑīÐµÐ³Ð¾": 3332,
      "Ġsk": 3333,
      "Ġhel": 3334,
      "ĠÐ¾Ð´Ð½Ð°ÐºÐ¾": 3335,
      "ĠÐ´Ð¾ÑĢÐ¾Ð³": 3336,
      "Ð¸Ñī": 3337,
      "Ġ2001": 3338,
      "ured": 3339,
      "Ð»ÐµÐ½Ð¸ÐµÐ¼": 3340,
      "Ð¾Ð´Ð¾ÑĢ": 3341,
      "Ġcond": 3342,
      "ĠÐ²ÑĭÐ±Ð¾ÑĢ": 3343,
      "Ġ1991": 3344,
      "ĠÐ³Ð¾Ð´Ð¾Ð²": 3345,
      "Ġevery": 3346,
      "Ġgame": 3347,
      "ĠÐĽÐµÐ½": 3348,
      "Ð¼Ð»Ð½": 3349,
      "ÑĥÑį": 3350,
      "Ġsingle": 3351,
      "Ð¾ÑĢÑĤÐ°": 3352,
      "ÐµÐ½Ð½ÑĭÑħ": 3353,
      "ĠÐ²Ð¾Ð·Ð´": 3354,
      "ĠÐ¼Ð¸ÑĢ": 3355,
      "Ġclaim": 3356,
      "ipp": 3357,
      "ĠÐ´Ð¾Ð±": 3358,
      "Ġintrodu": 3359,
      "Ð¼Ð¸Ð½": 3360,
      "Ð¸ÑĤÐ¾Ð²": 3361,
      "Ġmake": 3362,
      "Ġrepl": 3363,
      "ĠÐĺÑģÐ¿": 3364,
      "Ġbecome": 3365,
      "ĠÐ¿ÑĢÐµÐ¼Ð¸Ð¸": 3366,
      "Ġpoint": 3367,
      "ĠÐ´ÑĢÐ°": 3368,
      "ĠÑıÐ·ÑĭÐºÐ°": 3369,
      "ham": 3370,
      "Ġtook": 3371,
      "Ġwithout": 3372,
      "ĠÐłÐ¡": 3373,
      "Ġking": 3374,
      "Ġsol": 3375,
      "ead": 3376,
      "ĠÐ¿Ð¾ÑıÐ²": 3377,
      "Ð±Ð¾": 3378,
      "27": 3379,
      "Ġdown": 3380,
      "akes": 3381,
      "ĠÐĹÐ°Ð¿": 3382,
      "ĠÑĥÑģÐ»Ð¾Ð²": 3383,
      "ĠAfter": 3384,
      "ÐµÑĦ": 3385,
      "nt": 3386,
      "Ð°Ñĩ": 3387,
      "Ð°ÑĤÐµÐ»ÐµÐ¹": 3388,
      "ÑĨÐ¸Ð°Ð»Ð¸ÑģÑĤ": 3389,
      "Ġstruct": 3390,
      "ĠÐ»Ð¸ÑĪÑĮ": 3391,
      "ÑĥÐ²": 3392,
      "ĠÐ¿ÑĢÐ¾ÑģÑĤÑĢÐ°Ð½": 3393,
      "Ġcamp": 3394,
      "stit": 3395,
      "ĠÐļÐ¾Ð¼": 3396,
      "Ġbeg": 3397,
      "Ġactiv": 3398,
      "ĠÐ³Ð¾ÑģÑĥÐ´Ð°ÑĢÑģÑĤÐ²ÐµÐ½Ð½ÑĭÐ¹": 3399,
      "ĠÐ¾Ð¿ÐµÑĢÐ°": 3400,
      "ĠÐ¼Ð½Ð¾Ð³Ð¾": 3401,
      "ĠÑįÐ»ÐµÐ¼ÐµÐ½ÑĤ": 3402,
      "ĠÐĺÐ½Ð´": 3403,
      "ĠÑĪÐ¸ÑĢ": 3404,
      "Ġincluded": 3405,
      "ĠÐ½Ð¸": 3406,
      "Ġpract": 3407,
      "ÑĢÐ¸Ñħ": 3408,
      "ĠÐ¿Ð¾Ð±ÐµÐ´": 3409,
      "Ġfield": 3410,
      "aul": 3411,
      "Ġfew": 3412,
      "ĠÐ´ÑĢ": 3413,
      "Ð¾ÑĢÐµ": 3414,
      "Ġrelig": 3415,
      "ana": 3416,
      "Ð¾Ð±ÑĢÐ¸ÑĤ": 3417,
      "Ġdeveloped": 3418,
      "aur": 3419,
      "ĠÐ¸Ð¼Ð¿ÐµÑĢÐ¸Ð¸": 3420,
      "ÑİÐ·Ð°": 3421,
      "astern": 3422,
      "ests": 3423,
      "ĠÐ¿Ð¾ÑģÑĤÑĢÐ¾": 3424,
      "ĠJu": 3425,
      "ÑģÑĤÐ²ÐµÐ½Ð½Ð¾Ð³Ð¾": 3426,
      "ourn": 3427,
      "ÐºÐ¾Ð³Ð¾": 3428,
      "ĠÐ¿ÑĢÐ¾Ð±": 3429,
      "ĠPol": 3430,
      "aut": 3431,
      "ivil": 3432,
      "ĠDav": 3433,
      "Ð²Ð¾": 3434,
      "Ġlate": 3435,
      "ĠÐŃÑĤÐ¾": 3436,
      "century": 3437,
      "ÐµÑĢÑĭ": 3438,
      "Ġmen": 3439,
      "ĠÐŀÐ½": 3440,
      "Ġast": 3441,
      "ĠÐ±ÐµÑĢ": 3442,
      "BC": 3443,
      "ention": 3444,
      "ĠÑĢÐµÑĪ": 3445,
      "Ġnamed": 3446,
      "Ġprim": 3447,
      "Ð¾Ð²ÑĭÑħ": 3448,
      "Ġgen": 3449,
      "serv": 3450,
      "Ġide": 3451,
      "Ġstates": 3452,
      "ography": 3453,
      "ĠÐ³ÐµÐ½ÐµÑĢÐ°Ð»": 3454,
      "ertain": 3455,
      "ances": 3456,
      "ĠBer": 3457,
      "ÐµÐ¼Ñĥ": 3458,
      "ĠÐ²ÑĭÑģÑĤÑĥÐ¿": 3459,
      "Ġwrote": 3460,
      "rain": 3461,
      "ĠÐ¾Ð½Ð°": 3462,
      "Ġlargest": 3463,
      "Ð½Ð°Ð»Ð¸": 3464,
      "Ġregion": 3465,
      "Ð³Ð¸Ð¾Ð·": 3466,
      "âĢ¦": 3467,
      "ĠÐ³Ð¾ÑĢÐ¾Ð´Ðµ": 3468,
      "ĠÐ°ÑĢÐ¼Ð¸Ð¸": 3469,
      "Ġarg": 3470,
      "Ġofficial": 3471,
      "Ġcaus": 3472,
      "Ð¾ÑĤÐ°": 3473,
      "Ġpain": 3474,
      "pecial": 3475,
      "ĠÐ¸Ð½ÑĤ": 3476,
      "190": 3477,
      "ĠÐ¿ÑĢÐ¾ÑĪ": 3478,
      "ĠÐ¿ÑĢÐµÐ´Ð¿ÑĢÐ¸": 3479,
      "ĠÑģÐ²Ð¾ÐµÐ¹": 3480,
      "Ġmean": 3481,
      "Ð¼Ð¾Ð½": 3482,
      "Ġbody": 3483,
      "ĠÐ°ÑĤ": 3484,
      "ĠÑĢÐµÐ³Ð¸Ð¾Ð½": 3485,
      "ĠÐºÐ°ÑĩÐµÑģÑĤÐ²Ðµ": 3486,
      "alf": 3487,
      "ÑĢÐµÑģÑĤ": 3488,
      "ĠÐŀÐ´Ð½Ð°ÐºÐ¾": 3489,
      "ĠBro": 3490,
      "ĠÑĢÑıÐ´": 3491,
      "Ġ2003": 3492,
      "Ð»ÐµÐ¼": 3493,
      "augh": 3494,
      "Ġprof": 3495,
      "ĠÑįÑĤÐ¾Ð¹": 3496,
      "Ġproduct": 3497,
      "ĠEx": 3498,
      "ored": 3499,
      "Ġspace": 3500,
      "ificant": 3501,
      "Ġlim": 3502,
      "ĠÑģÐ¾Ð·": 3503,
      "ÑĥÑĩÐµÐ½": 3504,
      "ĠÐºÑĢÐ°": 3505,
      "Ġexist": 3506,
      "Amer": 3507,
      "ÑĦÑĦ": 3508,
      "yle": 3509,
      "ÑģÐ¸Ñħ": 3510,
      "Ġlow": 3511,
      "Ã¼": 3512,
      "ruction": 3513,
      "Ġday": 3514,
      "ĠÐ½Ð°Ð·Ð½Ð°Ñĩ": 3515,
      "ĠSw": 3516,
      "Ġsym": 3517,
      "istory": 3518,
      "Ġalb": 3519,
      "most": 3520,
      "ĠÑģÐ¾Ð²ÐµÑĢÑĪ": 3521,
      "ferences": 3522,
      "Ġtele": 3523,
      "28": 3524,
      "Ġmult": 3525,
      "Ġview": 3526,
      "ĠÐ®Ð¶": 3527,
      "ĠÐ°ÑĢÑħÐ¸ÑĤÐµÐºÑĤ": 3528,
      "Ġneed": 3529,
      "ĠÐ¾Ð»Ð¸Ð¼Ð¿Ð¸Ð¹": 3530,
      "lear": 3531,
      "ĠNov": 3532,
      "ĠÐ¼Ð¾Ð³ÑĥÑĤ": 3533,
      "Ġ180": 3534,
      "Ġ=": 3535,
      "ÑıÑģ": 3536,
      "Ġbre": 3537,
      "ĠÑĩÑĤÐ¾Ð±Ñĭ": 3538,
      "Ġtreat": 3539,
      "ĠÐ´ÐµÐ¼": 3540,
      "Ġassoci": 3541,
      "rag": 3542,
      "Ġheld": 3543,
      "ĠChristian": 3544,
      "ĠÐĵÐµÑĢ": 3545,
      "ÑĥÐ¼ÐµÐ½ÑĤ": 3546,
      "Ġer": 3547,
      "Ġjust": 3548,
      "ÐµÐ»ÐµÐ²": 3549,
      "ĠÐĽÑİ": 3550,
      "ĠÑĦÐ¾ÑĢ": 3551,
      "Ġ2021": 3552,
      "ÑĢÐ¸Ð·": 3553,
      "ĠÑĢÐ°Ð´Ð¸": 3554,
      "ÑĥÑĢÐµÐ°ÑĤ": 3555,
      "ĠÎ": 3556,
      "ĠÑģÐ¾Ð±Ð¾Ð¹": 3557,
      "ĠÐºÐ°Ð¶Ð´": 3558,
      "ĠÐ¿Ð°ÑĢÑĤÐ¸Ð¸": 3559,
      "ĠÑĤÐ¾ÑĢÐ³Ð¾Ð²": 3560,
      "Ġvol": 3561,
      "Ġproper": 3562,
      "ÑıÑħ": 3563,
      "ĠÑįÑĤÐ¾ÑĤ": 3564,
      "Ġindust": 3565,
      "Ð¤Ð¡Ðł": 3566,
      "che": 3567,
      "Ġsold": 3568,
      "Ġsugg": 3569,
      "ĠJapan": 3570,
      "Ġlocal": 3571,
      "ison": 3572,
      "ĠÑģÐ¾ÑģÑĤÐ°Ð²Ð»ÑıÐµÑĤ": 3573,
      "ĠSept": 3574,
      "ĠÐ³Ð¾Ð´Ð°Ñħ": 3575,
      "ha": 3576,
      "Ġtimes": 3577,
      "ĠÑģÑĤÐ°Ð½": 3578,
      "Ġinit": 3579,
      "ĠÐ¿ÑĢÐ°ÐºÑĤ": 3580,
      "Ð¾ÑĢÐ²": 3581,
      "Ġusually": 3582,
      "Ġson": 3583,
      "iron": 3584,
      "ÑģÐ¾Ð½": 3585,
      "Ð°ÑĨÐ¸Ð¸": 3586,
      "Ġevent": 3587,
      "Ġphilos": 3588,
      "Ð´Ð¾": 3589,
      "Ġdev": 3590,
      "ĠÐĵÐµÑĢÐ¼Ð°Ð½Ð¸Ð¸": 3591,
      "Ġprev": 3592,
      "ĠÐ²ÐµÐ´": 3593,
      "ested": 3594,
      "ĠÐĹÐµÐ¼": 3595,
      "ĠĠĠĠĠĠĠĠ": 3596,
      "ĠÐĴÐµÐ»Ð¸ÐºÐ¾Ð±ÑĢÐ¸ÑĤ": 3597,
      "ĠÐ¾Ð¿Ð¸Ñģ": 3598,
      "Ġhowever": 3599,
      "Ð»Ð¾ÑĢ": 3600,
      "ĠÑģÐ¾ÑģÑĤÐ°Ð²Ð»Ñı": 3601,
      "ÐµÐ½Ð½ÑĭÐµ": 3602,
      "Ġlevel": 3603,
      "atural": 3604,
      "ĠAc": 3605,
      "ĠÑģÑĤÑĢÐ°Ð½Ðµ": 3606,
      "40": 3607,
      "ÑĩÑĳÑĤ": 3608,
      "Ġcell": 3609,
      "ĠÐ³Ðµ": 3610,
      "Ġ40": 3611,
      "Ġel": 3612,
      "ĠÐºÐ¼": 3613,
      "Ð°Ð»ÑĮÐ½ÑĭÐ¹": 3614,
      "alk": 3615,
      "ĠGu": 3616,
      "acks": 3617,
      "ĠAlexander": 3618,
      "Ð»Ñĭ": 3619,
      "ille": 3620,
      "ĠÐ¿ÑĥÐ±Ð»Ð¸": 3621,
      "ĠÐ¡Ð°Ð¼": 3622,
      "Ġcontrol": 3623,
      "Ġ2002": 3624,
      "ths": 3625,
      "Ġsignificant": 3626,
      "rican": 3627,
      "Ġpolitical": 3628,
      "ĠÑģÑĤÑĢÐ¾Ð¸ÑĤÐµÐ»ÑĮ": 3629,
      "Ð°ÑĤÐ¸Ð²": 3630,
      "Ġinvol": 3631,
      "ĠÐĲÐ±": 3632,
      "Ð¾ÑıÐ½": 3633,
      "ĠEuropean": 3634,
      "iation": 3635,
      "Ġrul": 3636,
      "ĠÐ½ÐµÐ±": 3637,
      "Ġworks": 3638,
      "ĠEngland": 3639,
      "ĠÐºÐ½ÑıÐ·": 3640,
      "rated": 3641,
      "Ġiss": 3642,
      "ek": 3643,
      "Ð¾Ð¼Ð¸Ð½": 3644,
      "ĠPar": 3645,
      "American": 3646,
      "ĠEar": 3647,
      "ÑĩÐ¸Ðº": 3648,
      "ĠÑģÑĤÑĢÐ°Ð½Ð°": 3649,
      "ĠÑģÐ¸Ð½": 3650,
      "ÑĢÐ¸Ñı": 3651,
      "Ġlight": 3652,
      "ĠÐ¿ÑĢÐ¾ÐµÐºÑĤ": 3653,
      "ĠWest": 3654,
      "Ġattempt": 3655,
      "ĠÐ²Ð¾Ð»": 3656,
      "Ġmy": 3657,
      "Ġlo": 3658,
      "ental": 3659,
      "Ġredu": 3660,
      "ĠÑħÑĢÐ¸ÑģÑĤÐ¸Ð°Ð½": 3661,
      "ĠÐ±ÐµÐ»": 3662,
      "ĠGeor": 3663,
      "ÑıÑĤÑģÑı": 3664,
      "inks": 3665,
      "ĠÐłÐ¡Ð¤Ð¡Ðł": 3666,
      "Ġ179": 3667,
      "ĠÐ»Ð°ÑĥÑĢÐµÐ°ÑĤ": 3668,
      "ĠBudd": 3669,
      "ĠÐ³ÐµÑĢ": 3670,
      "Ġaut": 3671,
      "ĠÑģÑĨÐµÐ½Ð°ÑĢÐ¸ÑģÑĤ": 3672,
      "ĠÐ½ÐµÐ¿": 3673,
      "Ġ1999": 3674,
      "ĠÐ°ÐºÑĤÐ¸Ð²": 3675,
      "ĠÑĤÑĭÑģÑıÑĩ": 3676,
      "side": 3677,
      "Ġcr": 3678,
      "ĠÐ½Ð°ÑĢÐ¾Ð´Ð½ÑĭÐ¹": 3679,
      "ĠWilliam": 3680,
      "ÑģÑĥ": 3681,
      "Ġway": 3682,
      "idence": 3683,
      "oon": 3684,
      "ari": 3685,
      "ĠÐºÐ¾": 3686,
      "Ġmeth": 3687,
      "Ġder": 3688,
      "Ġalthough": 3689,
      "XX": 3690,
      "ÐµÐ½ÐºÐ¾": 3691,
      "ĠÑģÐ²Ð¾Ð±Ð¾Ð´": 3692,
      "thern": 3693,
      "ÑĢÐ¾Ð¿ÐµÐ¹": 3694,
      "Ġestablished": 3695,
      "On": 3696,
      "ĠÐ¿ÑĢÐ¾ÑģÑĤ": 3697,
      "ĠOct": 3698,
      "ype": 3699,
      "ĠÐ¼Ð½Ð¾Ð¶Ðµ": 3700,
      "ĠÑģÑĤÐ°ÑĢ": 3701,
      "Ġcomple": 3702,
      "ĠÐ²Ð¾Ð¹ÑģÐºÐ°": 3703,
      "ÐµÐ¶Ð¸ÑģÑģÑĳÑĢ": 3704,
      "Ð°Ðµ": 3705,
      "Ġfive": 3706,
      "ĠÐĴÐ¾": 3707,
      "ĠÑĢÐ°Ð·ÑĢÐ°Ð±Ð¾ÑĤ": 3708,
      "ÑģÑĤÐ²ÐµÐ½Ð½ÑĭÑħ": 3709,
      "Ġchang": 3710,
      "ÑĪÐµÐµ": 3711,
      "ĠÐ¼Ð¸Ð½": 3712,
      "Ġmater": 3713,
      "ĠÑĦÐ¸Ð»ÑĮ": 3714,
      "ĠÐ¾Ð±ÑĬÐµÐ´Ð¸Ð½": 3715,
      "ÐŁÐ¾": 3716,
      "sh": 3717,
      "Ġtit": 3718,
      "Ġoriginal": 3719,
      "Ġproduction": 3720,
      "Ġgrow": 3721,
      "ĠApp": 3722,
      "ĠÑĥÐ²": 3723,
      "80": 3724,
      "ÑģÐ»ÑĥÐ¶": 3725,
      "Ð¯": 3726,
      "ĠÐ²ÑĭÐ±": 3727,
      "hern": 3728,
      "Ð¸Ð»Ð»Ð¸": 3729,
      "ria": 3730,
      "Ġlet": 3731,
      "cul": 3732,
      "for": 3733,
      "ÑĨÐµ": 3734,
      "ogn": 3735,
      "ĠÐ³ÑĢÐµ": 3736,
      "ĠÐĴÐµÑĢÑħ": 3737,
      "ÑĢÐ°Ð²Ð½": 3738,
      "ĠÐ¿Ð¾Ð·Ð²Ð¾Ð»": 3739,
      "Ġcase": 3740,
      "ĠÐŁÑĢÐ°Ð²": 3741,
      "ude": 3742,
      "Ġfunction": 3743,
      "Ð¼Ð¸ÑĤ": 3744,
      "aces": 3745,
      "Ġband": 3746,
      "ched": 3747,
      "ka": 3748,
      "Ġsong": 3749,
      "ivid": 3750,
      "ĠÐ¿ÑĢÐ¸ÑĢÐ¾Ð´": 3751,
      "ĠÑģÑĥ": 3752,
      "ĠĊĠ": 3753,
      "ĠÐ±ÑĭÐ²": 3754,
      "ublic": 3755,
      "sequ": 3756,
      "ĠÐ½ÐµÐ¾Ð±": 3757,
      "ĠÐĳÐµÑĢ": 3758,
      "alt": 3759,
      "ÐµÑĢÐµÐ²": 3760,
      "ope": 3761,
      "Ð³Ð¾ÑĢÐ¾Ð´": 3762,
      "ĠAustralian": 3763,
      "ends": 3764,
      "ÑİÑīÐ¸Ñħ": 3765,
      "inning": 3766,
      "ÑĢÐ°ÑĤÐ¸Ð²": 3767,
      "ĠÐ±Ð¾Ð»ÑĮÑĪÐ¸Ð½": 3768,
      "26": 3769,
      "aken": 3770,
      "ÑħÐ¾Ð´Ð¸Ð¼": 3771,
      "):": 3772,
      "Ð»ÐµÐ¶": 3773,
      "ĠÐ½Ð°Ð¿": 3774,
      "Ġwritten": 3775,
      "ĠÑıÐ·ÑĭÐº": 3776,
      "ĠFl": 3777,
      "AS": 3778,
      "eh": 3779,
      "Ġproduced": 3780,
      "ĠÐ¿ÑĢÐ°Ð²Ð¸ÑĤÐµÐ»ÑĮÑģÑĤÐ²Ð¾": 3781,
      "acy": 3782,
      "ondon": 3783,
      "29": 3784,
      "mon": 3785,
      "ote": 3786,
      "mber": 3787,
      "Ð¾ÑģÐ»ÐµÐ´": 3788,
      "Ð¼ÑĥÐ½": 3789,
      "ĠÐ²Ð¼ÐµÑģÑĤ": 3790,
      "ĠJew": 3791,
      "ĠÐ¿ÑĢÐ¾ÑĦ": 3792,
      "vision": 3793,
      "ĠÃ": 3794,
      "Ð¾Ð²ÐµÐ´": 3795,
      "Ġmillion": 3796,
      "ĠÐĽÑĥ": 3797,
      "Ġmanag": 3798,
      "ĠÐ¿ÑĢÐ¸Ð½Ñı": 3799,
      "Ð¾ÑĤÑı": 3800,
      "ability": 3801,
      "Ġsepar": 3802,
      "ĠÐ°ÐºÐ°Ð´ÐµÐ¼": 3803,
      "of": 3804,
      "anish": 3805,
      "Ð¾ÑģÐ¾Ð²": 3806,
      "formation": 3807,
      "ĠÐ´Ð¾Ð¿": 3808,
      "Ġhaving": 3809,
      "Ġturn": 3810,
      "etic": 3811,
      "ĠÑĢÐ°Ð½": 3812,
      "ips": 3813,
      "Ġeduc": 3814,
      "Ġ&": 3815,
      "ĠÐ°ÑģÑĤ": 3816,
      "ĠUnion": 3817,
      "Ð³ÑĢÐ°Ð´": 3818,
      "Ð°Ð½ÑģÐºÐ¸Ð¹": 3819,
      "ency": 3820,
      "ĠÐ¿ÑĢÐ¸Ð·Ð½": 3821,
      "ways": 3822,
      "ĠÐ¿Ð¾Ð»ÑĮ": 3823,
      "ows": 3824,
      "ÑıÐ¼Ð¸": 3825,
      "ĠShe": 3826,
      "Ġcountries": 3827,
      "ĠÑģÐºÐ¾ÑĢ": 3828,
      "cil": 3829,
      "rap": 3830,
      "co": 3831,
      "ama": 3832,
      "Ð²ÐµÐºÐ°": 3833,
      "ĠÐ°Ð¿": 3834,
      "Ġthird": 3835,
      "ĠÐłÐ¸Ð¼": 3836,
      "Ð¾Ð»Ð³": 3837,
      "Ġtop": 3838,
      "ĠÑģÐµÐº": 3839,
      "outhern": 3840,
      "ĠÑģÑĤÐ¾ÑĢÐ¾Ð½": 3841,
      "ĠÐ¸Ð½Ð´": 3842,
      "ĠÐľÐ¸ÑħÐ°": 3843,
      "ĠÐ¾Ð±ÑĭÑĩ": 3844,
      "Ġdoes": 3845,
      "ret": 3846,
      "ĠÑĤÑĢÑĥÐ´": 3847,
      "Ġprom": 3848,
      "ino": 3849,
      "Ġ31": 3850,
      "ĠÐ²Ð°Ð¶": 3851,
      "ploy": 3852,
      "ĠSeptember": 3853,
      "ler": 3854,
      "ĠRep": 3855,
      "ĠÐĲÐ»": 3856,
      "ĠBlack": 3857,
      "Ġdel": 3858,
      "ĠÑĤÑĢÑĳÑħ": 3859,
      "ĠÐŀÑĢ": 3860,
      "orthern": 3861,
      "ÑģÑĥÑĤÑģÑĤÐ²": 3862,
      "âĢĻ": 3863,
      "ĠSome": 3864,
      "Ġsix": 3865,
      "iqu": 3866,
      "Ġnorth": 3867,
      "ĠÐĳÐµÐ»": 3868,
      "ĠÐ¾ÑģÑĥÑīÐµÑģÑĤÐ²": 3869,
      "Ð¼Ð¸ÑĩÐµ": 3870,
      "Ġmass": 3871,
      "omb": 3872,
      "ĠÑĤÐµÐºÑģÑĤ": 3873,
      "ĠÐ¿ÐµÑĢÐµÐ²Ð¾Ð´": 3874,
      "ĠÑģÐ¸Ð¼": 3875,
      "ÑĢÐµÑģÑģ": 3876,
      "Ġdecl": 3877,
      "Ð°Ñī": 3878,
      "ĠMed": 3879,
      "Ð°Ð»Ð¸Ð¸": 3880,
      "face": 3881,
      "ĠÑĤÑĢÐµÐ±": 3882,
      "ĠÐ¤ÐµÐ´ÐµÑĢÐ°": 3883,
      "ÐµÑģÐ¿ÐµÑĩ": 3884,
      "ĠÐ²Ð¿ÐµÑĢÐ²ÑĭÐµ": 3885,
      "ara": 3886,
      "As": 3887,
      "ĠÑĥÐºÑĢÐ°": 3888,
      "Ð¾ÑģÑĤÐ°Ð²": 3889,
      "ĠÐ²Ð¸Ð´Ðµ": 3890,
      "ĠÐ²Ð¾Ð·Ð½Ð¸Ðº": 3891,
      "ĠÑĪÐ¸ÑĢÐ¾Ðº": 3892,
      "Ġproble": 3893,
      "ÑĳÐ½Ð½ÑĭÐµ": 3894,
      "arn": 3895,
      "ĠÐ½Ð°Ð¿ÑĢÐ¸Ð¼ÐµÑĢ": 3896,
      "ĠMan": 3897,
      "Ð¸ÑĩÐµÑģÐºÐ¸Ð¼": 3898,
      "Ġbuilt": 3899,
      "ĠÐ¿Ð°ÑĢÐ°": 3900,
      "hers": 3901,
      "ĠÑĤÐµÑĩ": 3902,
      "ĠÑĤÐµÐ¼Ð¿ÐµÑĢÐ°": 3903,
      "Ã¶": 3904,
      "ÐµÑĤÑĮ": 3905,
      "ĠArt": 3906,
      "anuary": 3907,
      "ĠÐ¸Ð³": 3908,
      "ĠÐĳÐ¾Ð³": 3909,
      "ĠÑģÐ²Ð¾Ðµ": 3910,
      "Ð¾Ð»Ð¾Ð²": 3911,
      "Ġdest": 3912,
      "ÐºÐ°Ð¼Ð¸": 3913,
      "osp": 3914,
      "ĠÐĽÐµ": 3915,
      "overed": 3916,
      "Ġobject": 3917,
      "Ġgroups": 3918,
      "Ġappear": 3919,
      "Ð°Ð»Ð¾Ð³": 3920,
      "ĠÐļÐ¾Ð»": 3921,
      "Ð°ÑģÑĤÑĢÐ¾": 3922,
      "Ġsystems": 3923,
      "ĠCal": 3924,
      "abor": 3925,
      "ĠÐ¿Ð¾Ð»ÑĮÐ·": 3926,
      "ĠÑģÑĤÐ°Ð»Ð¸": 3927,
      "ĠÐµÑģÐ»Ð¸": 3928,
      "Ġsw": 3929,
      "Ġshould": 3930,
      "ober": 3931,
      "ÐŀÐ±": 3932,
      "int": 3933,
      "ĠAnt": 3934,
      "ĠÐĴÐ°Ñģ": 3935,
      "Ð°Ð»ÑĮÐ½Ð¾Ð³Ð¾": 3936,
      "Ġstrong": 3937,
      "Ġseason": 3938,
      "ÑĢÑĥÐºÑĤ": 3939,
      "Ð¾Ð·Ð³Ð»Ð°": 3940,
      "ĠÐĺÑĤ": 3941,
      "atures": 3942,
      "ĠÐ±Ð¸": 3943,
      "Ġrese": 3944,
      "ĠÑĦÐ¸Ð½": 3945,
      "ĠÐ´ÐµÐ¿": 3946,
      "ĠAct": 3947,
      "ĠÐ²ÑģÑĤÑĥÐ¿": 3948,
      "ĠÐ¿ÑĢÐµÐ²": 3949,
      "ĠÑģÐ²Ð¾Ñİ": 3950,
      "rael": 3951,
      "eum": 3952,
      "ÐºÐ°ÑĤ": 3953,
      "ÑİÑīÐ¸Ðµ": 3954,
      "Ġreleased": 3955,
      "born": 3956,
      "ÐµÑĩÐµ": 3957,
      "Ġmaterial": 3958,
      "ĠÐ¢Ð¾Ð¼": 3959,
      "Ð¸ÐºÑĥ": 3960,
      "Ġ1992": 3961,
      "wh": 3962,
      "Ð»ÑıÐµÑĤÑģÑı": 3963,
      "ĠÐ¿ÐµÐ²Ð¸ÑĨÐ°": 3964,
      "Ð·Ð°Ð¸Ð¼": 3965,
      "ĠÑģÐ¾ÑĤ": 3966,
      "ĠÐļÐ°Ð·": 3967,
      "60": 3968,
      "78": 3969,
      "Ġcame": 3970,
      "ĠÐ¿ÑĢÐ¾Ð¸Ð·Ð²ÐµÐ´": 3971,
      "Ġobserv": 3972,
      "Ġlanguages": 3973,
      "Ġhelp": 3974,
      "ÐºÐ²Ð¸": 3975,
      "Ð²ÐµÑĢÐ¶Ð´": 3976,
      "References": 3977,
      "Ð°Ð´Ð°": 3978,
      "ÑĢÐ¸ÑĩÐµ": 3979,
      "ĠÐ¾ÑĤÐ½Ð¾ÑĪÐµÐ½Ð¸Ñı": 3980,
      "off": 3981,
      "ĠAmerica": 3982,
      "ĠÑĦÑĥÑĤÐ±Ð¾Ð»Ð¸ÑģÑĤ": 3983,
      "self": 3984,
      "ĠÐŁÐ¾ÑģÐ»Ðµ": 3985,
      "Ġstudy": 3986,
      "ÐºÐ¼": 3987,
      "Ð»ÐµÐ½Ð¸Ð¹": 3988,
      "itive": 3989,
      "Ġ1994": 3990,
      "ÑĢÐ°Ð¼": 3991,
      "ĠÐ°Ð²ÑĤÐ¾Ð¼": 3992,
      "ĠÐ½Ð°ÑĩÐ°Ð»Ðµ": 3993,
      "ĠLondon": 3994,
      "iction": 3995,
      "ĠApril": 3996,
      "Ġsent": 3997,
      "oms": 3998,
      "cember": 3999,
      "ĠÑĦÐ¾Ð½": 4000,
      "ĠÑģÐ¾ÑĨÐ¸Ð°Ð»ÑĮ": 4001,
      "Ġ2022": 4002,
      "Ð¸Ð½Ð¾Ð²": 4003,
      "ÑĥÐ±ÐµÑĢÐ½": 4004,
      "cle": 4005,
      "ÐµÑĢÐµÐ¶": 4006,
      "Ġothers": 4007,
      "ĠÑģÐ»Ð¾Ð¶": 4008,
      "ÐµÑĢÐ±ÑĥÑĢÐ³": 4009,
      "ĠÐºÑĢÑĥÐ¿Ð½ÐµÐ¹": 4010,
      "sp": 4011,
      "Ġtake": 4012,
      "ĠJanuary": 4013,
      "Ġlinks": 4014,
      "Ġdescribed": 4015,
      "umb": 4016,
      "70": 4017,
      "Ð¸ÑĤÑĥÑĤ": 4018,
      "Ð¼Ð°ÑĤÑĢÐ¸": 4019,
      "ĠÐ¼ÐµÑĤÐ¾Ð´": 4020,
      "Ð°Ð½Ð¸ÐµÐ¼": 4021,
      "Ð°Ð½Ð½ÑĭÐµ": 4022,
      "ĠÑĥÐºÐ°Ð·": 4023,
      "Ð°Ð³Ð¾Ð³": 4024,
      "Ġ1996": 4025,
      "Ġindepend": 4026,
      "ĠÐ¼Ð°Ð³": 4027,
      "ÑıÑīÐµÐ½": 4028,
      "ĠÑģÑĢÐµÐ´Ð¸": 4029,
      "ĠÐ´Ð¾ÑģÑĤÐ¸Ð³": 4030,
      "avy": 4031,
      "Ġep": 4032,
      "ĠÐºÐ¸Ð½Ð¾ÑĢ": 4033,
      "ĠÐ½Ð°ÑģÑĤÐ¾Ñı": 4034,
      "ĠÐ¾Ð´Ð½Ð¾Ð¹": 4035,
      "ĠEmpire": 4036,
      "Ġreal": 4037,
      "ĠÐ·Ð°Ð¿Ð°Ð´": 4038,
      "ÐµÐ½Ðµ": 4039,
      "ĠÐ¿Ð¾Ð³Ð¸Ð±": 4040,
      "Ð¶ÐµÐ½": 4041,
      "Ġwon": 4042,
      "Ġ1920": 4043,
      "ÐµÐ·Ð´": 4044,
      "ĠAtl": 4045,
      "ÑĪÐ¸ÐµÑģÑı": 4046,
      "ÑģÑĤÐ¸ÑĤÑĥÑĤ": 4047,
      "ĠÐ¾Ð±ÐµÑģÐ¿ÐµÑĩ": 4048,
      "ĠJune": 4049,
      "Ġplayed": 4050,
      "atin": 4051,
      "Ġcompos": 4052,
      "Ġindivid": 4053,
      "ected": 4054,
      "Ġtheory": 4055,
      "Ð³Ñĥ": 4056,
      "ÑĮÑİÑĤ": 4057,
      "ification": 4058,
      "Ð¸ÑĤÐµÐ»Ð¸": 4059,
      "Ð°Ð»Ð¾Ð²": 4060,
      "ÐµÐ¹Ð½": 4061,
      "ĠÐĵÐ¾ÑģÑĥÐ´Ð°ÑĢ": 4062,
      "val": 4063,
      "rict": 4064,
      "istan": 4065,
      "Ð³Ð¾ÑĤÐ¾Ð²": 4066,
      "ÑĢÐµÐ¶Ð´": 4067,
      "Ġwomen": 4068,
      "Ġtotal": 4069,
      "Ð¸ÑĤÐµÑĤÐ°": 4070,
      "Ġareas": 4071,
      "ĠJuly": 4072,
      "Ġalbum": 4073,
      "Ġbeh": 4074,
      "Ð¸ÑĨÐµ": 4075,
      "ĠÐ¸Ð¼Ð¿ÐµÑĢÐ°ÑĤÐ¾ÑĢ": 4076,
      "Ð¸ÑĨÐ¸Ð¸": 4077,
      "ĠÐļÐ°": 4078,
      "Ġversion": 4079,
      "ĠInternational": 4080,
      "ĠÐ°Ð²Ð¸": 4081,
      "ma": 4082,
      "Ġattack": 4083,
      "ĠÐºÐ¸Ð½Ð¾ÑĢÐµÐ¶Ð¸ÑģÑģÑĳÑĢ": 4084,
      "ĠÐ¿ÑĢÐ°Ð²Ð¸ÑĤÐµÐ»ÑĮÑģÑĤÐ²Ð°": 4085,
      "Ġpri": 4086,
      "ĠÑģÑĭ": 4087,
      "Ġeither": 4088,
      "ĠÐ¿ÑĢÐ¸Ð·": 4089,
      "Ġrelations": 4090,
      "ĠOctober": 4091,
      "ĠÑĢÐ¾ÑģÑģÐ¸Ð¹ÑģÐºÐ°Ñı": 4092,
      "ering": 4093,
      "ĠÐ¸Ð·ÑĥÑĩ": 4094,
      "Ġrole": 4095,
      "ĠÐ¿ÑĢÐ¾Ð²Ð¾Ð´": 4096,
      "ÑģÑĤÐ²ÐµÐ½Ð½ÑĭÐµ": 4097,
      "ÑģÑĤÑĢÐ¾": 4098,
      "ĠÐ¡ÐµÑĢÐ³": 4099,
      "ĠÑģÑĤÐ°Ð»Ð°": 4100,
      "ĠÑģÐµÐ»ÑĮ": 4101,
      "imate": 4102,
      "ĠMarch": 4103,
      "oviet": 4104,
      "ĠÐ²Ð»Ð¸ÑıÐ½": 4105,
      "ĠÐ·Ð°Ñħ": 4106,
      "ĠÐķÐ²ÑĢÐ¾Ð¿Ñĭ": 4107,
      "Ġmethod": 4108,
      "ĠÐ¿ÑĢÐ¾Ð¸ÑģÑħ": 4109,
      "ĠDavid": 4110,
      "ĠDecember": 4111,
      "lam": 4112,
      "ĠÑĤÐµÑħÐ½": 4113,
      "Ð¡ÑĤ": 4114,
      "Ġ1930": 4115,
      "Ð¾Ð»Ð¸ÑĤ": 4116,
      "Ð°ÑĢÐ¾Ð²": 4117,
      "ĠÐ¼Ð°ÑĤÐµÑĢÐ¸": 4118,
      "ĠÐ¾ÑĤÐ´ÐµÐ»ÑĮ": 4119,
      "Ð¸ÐµÐ²": 4120,
      "ĠÐ¿ÐµÐ´": 4121,
      "ĠÐ·Ð½Ð°ÑĩÐ¸ÑĤÐµÐ»ÑĮ": 4122,
      "ĠÐ¸ÑĤÐ°Ð»ÑĮÑıÐ½ÑģÐºÐ¸Ð¹": 4123,
      "ĠÐ±Ð»Ð°": 4124,
      "Ð°Ð»Ñĭ": 4125,
      "ÑıÑĤÐ¸Ñı": 4126,
      "ĠÑĢÐµÐ¶Ð¸ÑģÑģÑĳÑĢ": 4127,
      "Ð½Ð¸Ñĩ": 4128,
      "ĠÐ¿ÑĢÐ¾Ð¸Ð·Ð¾ÑĪ": 4129,
      "ĠÑģÐ¾Ñĩ": 4130,
      "ĠÐ½ÐµÐ¾Ð±ÑħÐ¾Ð´Ð¸Ð¼": 4131,
      "Ġcare": 4132,
      "ĠÐ½ÐµÐ¹": 4133,
      "Ġpost": 4134,
      "Ġ1945": 4135,
      "Ġtransl": 4136,
      "ÑģÑĤÐ°Ð½": 4137,
      "Ð±Ðµ": 4138,
      "Ð¸Ð½ÑģÐºÐ¾Ð¹": 4139,
      "ĠÐ³Ð¾Ð²Ð¾ÑĢ": 4140,
      "ÐŁÑĢÐ¸": 4141,
      "ĠÑİÐ¶": 4142,
      "ĠÐłÐµÑģÐ¿ÑĥÐ±Ð»Ð¸ÐºÐ¸": 4143,
      "pecially": 4144,
      "ĠÑģÐ¸Ð»ÑĮ": 4145,
      "ĠÐ´Ð¸Ð¿": 4146,
      "Ġcolle": 4147,
      "ĠÐ½Ð°Ð¸Ð±Ð¾Ð»ÐµÐµ": 4148,
      "Ġtown": 4149,
      "ÑģÑĭÐ»": 4150,
      "Ð¼ÐµÑĩ": 4151,
      "Ðĸ": 4152,
      "ĠâĢ": 4153,
      "Â»).": 4154,
      "oyal": 4155,
      "ĠAfrican": 4156,
      "ĠSu": 4157,
      "ÐµÐ¾ÑĢ": 4158,
      "ĠÑģÐ»ÐµÐ´ÑĥÑİÑī": 4159,
      "ĠÐļÐ°ÑĤ": 4160,
      "ĠÑģÐ²ÑıÑĤ": 4161,
      "work": 4162,
      "ĠÐĵÐ¾ÑĢ": 4163,
      "ÑĢÐµÐ¿": 4164,
      "ĠCity": 4165,
      "ergy": 4166,
      "Ð°Ð²ÑĪÐ¸Ð¹": 4167,
      "ÐµÐºÑģ": 4168,
      "ĠÐºÐ¾Ð»Ð¾Ð½": 4169,
      "ĠÑįÑĤÐ¸Ñħ": 4170,
      "ÐĺÑģÑĤ": 4171,
      "ĠÐ¿Ð¸ÑģÑĮ": 4172,
      "ape": 4173,
      "Ð¾ÑģÐ»Ð¾Ð²": 4174,
      "ĠDay": 4175,
      "icro": 4176,
      "Ð½Ð¸ÐºÐ¾Ð¼": 4177,
      "ĠÑĢÐ°Ð±Ð¾ÑĤÑĭ": 4178,
      "Ð°Ð½Ñģ": 4179,
      "duct": 4180,
      "ÑĢÐ°Ð¶ÐµÐ½Ð¸Ðµ": 4181,
      "Ġsinger": 4182,
      "Th": 4183,
      "Ð¾Ð²ÑĭÐµ": 4184,
      "ĠÑģÐ¾Ð¾Ð±Ñī": 4185,
      "Ġcompany": 4186,
      "ĠÐ¸ÑģÑĤÐ¾Ñĩ": 4187,
      "gypt": 4188,
      "Ar": 4189,
      "Ġlaun": 4190,
      "Ġsouth": 4191,
      "ĠÐ¯Ð¿Ð¾Ð½": 4192,
      "Ð½Ð¾ÑģÑĤÐµÐ¹": 4193,
      "Ð»ÐµÐ½Ð¾": 4194,
      "Ð±ÑĥÑĢÐ³": 4195,
      "ĠÐ¼ÑĥÐ·": 4196,
      "Ġaircraft": 4197,
      "ĠÑĤÑĢÐ°Ð½ÑģÐ¿Ð¾ÑĢÑĤ": 4198,
      "Ġterrit": 4199,
      "ĠÐ²Ð·Ð°Ð¸Ð¼": 4200,
      "ĠPres": 4201,
      "ĠÐ¿ÑĢÐ¸Ð²": 4202,
      "Ġrange": 4203,
      "ĠÐ¿ÑĢÐ¾Ð²Ð¾Ð·Ð³Ð»Ð°": 4204,
      "Ġbusiness": 4205,
      "Ð¦": 4206,
      "ĠÑģÐ¾ÑİÐ·": 4207,
      "ÑİÑīÐ¸Ð¹": 4208,
      "Ð¸ÑĤÐµÑĢÐ°ÑĤÑĥÑĢÐ°": 4209,
      "Ġservice": 4210,
      "iddle": 4211,
      "ĠÐĳÐ¾ÑĢ": 4212,
      "Ġage": 4213,
      "Ġ1989": 4214,
      "Ġgames": 4215,
      "ĠÑĦÐ¾ÑĤ": 4216,
      "ĠHar": 4217,
      "Ġ1998": 4218,
      "ÑĥÐ³": 4219,
      "Ġwid": 4220,
      "ĠÐºÐ°Ð¼": 4221,
      "ĠÑĢÐµÐ´": 4222,
      "ÃŃ": 4223,
      "Ġbattle": 4224,
      "Ð¸ÑĤÑĮÑģÑı": 4225,
      "%.": 4226,
      "ÐµÐ½Ñģ": 4227,
      "Ġposition": 4228,
      "ĠÐĿÐ¸ÐºÐ¾Ð»Ð°Ð¹": 4229,
      "ÑĢÐ°ÑģÑĤ": 4230,
      "Ð¾Ð·Ð½Ð°Ñĩ": 4231,
      "ĠPhil": 4232,
      "ĠWhen": 4233,
      "ĠÐľÐ¾Ð½": 4234,
      "ĠÐĶÐ¶Ð¾Ð½": 4235,
      "ĠEast": 4236,
      "writer": 4237,
      "incip": 4238,
      "bs": 4239,
      "ling": 4240,
      "ĠÐ½Ð¸Ð·": 4241,
      "ĠÐ°Ð±": 4242,
      "ĠÐ¼ÐµÐ½ÐµÐµ": 4243,
      "ÑĥÐ¼Ð°": 4244,
      "ĠÐŁÐ°Ð²": 4245,
      "Ġsometimes": 4246,
      "ÑĢÐ¾Ð·": 4247,
      "Ġ1993": 4248,
      "ĠÑģÐ¾Ð¿": 4249,
      "Ð¾Ð»ÑĳÑĤ": 4250,
      "ĠÐ¾ÑģÐ²": 4251,
      "ĠÐ¶ÐµÐ½Ñī": 4252,
      "used": 4253,
      "ĠNovember": 4254,
      "ps": 4255,
      "ÐµÑģÑĤÐ¸": 4256,
      "Ġmeas": 4257,
      "Ġcir": 4258,
      "ÐµÐ½Ð¸": 4259,
      "Ġhalf": 4260,
      "Ġforces": 4261,
      "ournal": 4262,
      "ĠÑĢÑĭ": 4263,
      "Ġ1950": 4264,
      "ĠÐºÐ¾ÑĢÐ¾Ð»ÑĮ": 4265,
      "ÑĩÐ¸Ð²": 4266,
      "ĠOne": 4267,
      "ĠÐ´Ð°Ð¶Ðµ": 4268,
      "ĠÐ½Ð°ÑĩÐ°Ð»Ð°": 4269,
      "ÐºÑĢÐ°ÑĤ": 4270,
      "Ġmot": 4271,
      "Ġconc": 4272,
      "Ġ1995": 4273,
      "ĠÐ¼Ð¾ÑĢÑı": 4274,
      "Ð¸Ð±Ð¸ÑĢ": 4275,
      "ĠÐ¾ÐºÑĢÑĥÐ³": 4276,
      "Ġ1997": 4277,
      "ĠFrance": 4278,
      "ĠÐ½Ð°Ð±Ð»Ñİ": 4279,
      "ĠÐ´Ð¸Ð¿Ð»Ð¾Ð¼": 4280,
      "ÐºÐ¸Ð½": 4281,
      "Â»)": 4282,
      "Ð½Ð¾Ñģ": 4283,
      "ĠCo": 4284,
      "ĠÑĢÐ°Ð±": 4285,
      "Ð°Ð½Ð½ÑĭÑħ": 4286,
      "ĠÐ¾ÑģÑĤÐ°Ð²": 4287,
      "Ġfurther": 4288,
      "Ġdied": 4289,
      "ĠÐ°Ð´Ð¼Ð¸Ð½Ð¸ÑģÑĤ": 4290,
      "ĠÐ¿ÑĢÐ¸Ð¼ÐµÑĢ": 4291,
      "ending": 4292,
      "Ġ(\"": 4293,
      "ĠÐºÐ¾ÑĤÐ¾ÑĢÐ¾Ð¼": 4294,
      "ĠÐ´Ð¾Ð³Ð¾Ð²Ð¾ÑĢ": 4295,
      "hib": 4296,
      "ĠÐ¿ÑģÐ¸Ñħ": 4297,
      "ising": 4298,
      "ĠÑĤÑĢÐµ": 4299,
      "ĠÐ¦ÐµÐ½ÑĤ": 4300,
      "Ð´ÐµÐ»Ð°": 4301,
      "ĠÑĨÐµÐ»": 4302,
      "ĠÐ²ÑĭÐ¿Ð¾Ð»": 4303,
      "ĠÐ½Ð°Ð¿Ð¸Ñģ": 4304,
      "ÐµÐ½ÑĤÐ°": 4305,
      "ĠÐ²ÑĭÐ´Ðµ": 4306,
      "Ġactor": 4307,
      "ĠÑģÐ²Ð¾ÐµÐ³Ð¾": 4308,
      "Ð½Ð¸ÑĤ": 4309,
      "reg": 4310,
      "Ġcal": 4311,
      "Ð¼Ð¸ÑĢ": 4312,
      "ĠÐ»ÐµÑģ": 4313,
      "ĠÐĴÐ»Ð°Ð´Ð¸Ð¼Ð¸ÑĢ": 4314,
      "Ġside": 4315,
      "ĠÑıÐ²": 4316,
      "Ġ178": 4317,
      "Ġball": 4318,
      "ĠPart": 4319,
      "ĠÐ¸Ð¼Ñı": 4320,
      "ĠÐľÐ¾ÑģÐºÐ²Ðµ": 4321,
      "ĠÑĤÑĢÐ°Ð´Ð¸": 4322,
      "ining": 4323,
      "ĠÐĳÐ¾Ð»ÑĮÑĪ": 4324,
      "enced": 4325,
      "ĠÐ½Ð°ÑĩÐ°Ð»Ð¾": 4326,
      "ydro": 4327,
      "itect": 4328,
      "Ð¾ÐºÐ°": 4329,
      "ĠÐ´ÐµÐ»Ð°": 4330,
      "Ð¾Ð¼ÐµÑĤ": 4331,
      "ĠPort": 4332,
      "ÐŁÐµÑĤ": 4333,
      "ached": 4334,
      "ront": 4335,
      "eneral": 4336,
      "Ġspecial": 4337,
      "ĠÐ½Ð°ÑħÐ¾Ð´Ð¸ÑĤÑģÑı": 4338,
      "Ġoccur": 4339,
      "Ð¾Ð´Ð¾ÑĢÐ¾Ð¶": 4340,
      "Ð°Ð½Ð³": 4341,
      "Ġnov": 4342,
      "right": 4343,
      "ĪĴ": 4344,
      "Ġsum": 4345,
      "ĠÑħÐ¾Ð·ÑıÐ¹": 4346,
      "Ð³Ð¸Ð¿": 4347,
      "ÐŀÑģ": 4348,
      "Ġaddition": 4349,
      "Ġsocial": 4350,
      "ĠÐ²Ð½ÑĥÑĤÑĢÐµÐ½": 4351,
      "ĠNe": 4352,
      "Ġmust": 4353,
      "ĠIS": 4354,
      "ĠÑģÑĤÐ°Ð½Ð¾Ð²": 4355,
      "ĠÐ¿ÑĢÐµÐ¿Ð¾Ð´": 4356,
      "Ġcoun": 4357,
      "ĠÐ¿ÑĢÐµÐ´Ð»Ð¾Ð¶": 4358,
      "ĠÐ»Ð¸Ð±": 4359,
      "bor": 4360,
      "Ġsuff": 4361,
      "ĠÐ¿ÐµÐ´Ð°Ð³Ð¾Ð³": 4362,
      "ĠÐ²Ð²ÐµÐ´": 4363,
      "ĠÐ¾ÑĨÐµÐ½": 4364,
      "ĠSoviet": 4365,
      "ĠEl": 4366,
      "ÐµÐ»Ð°": 4367,
      "ĠÐ¡Ð¾Ð²ÐµÑĤÐ°": 4368,
      "External": 4369,
      "ĠÑıÐ·ÑĭÐºÐµ": 4370,
      "ÐºÐ°Ñı": 4371,
      "ĠCath": 4372,
      "Ġleast": 4373,
      "asing": 4374,
      "ÑĥÑģÐ°": 4375,
      "Ġliter": 4376,
      "Ġengine": 4377,
      "ef": 4378,
      "ĠSy": 4379,
      "ĠÐºÑĥÑĢ": 4380,
      "ounced": 4381,
      "ief": 4382,
      "ÐµÐ¶Ð´ÑĥÐ½Ð°ÑĢÐ¾Ð´": 4383,
      "Ð°Ð½ÑĮ": 4384,
      "Ġancient": 4385,
      "ÑĢÑĥÑĪ": 4386,
      "Ġge": 4387,
      "ĠEgypt": 4388,
      "See": 4389,
      "Ġarm": 4390,
      "Ġpot": 4391,
      "Ġ1918": 4392,
      "Ð½ÐµÑģ": 4393,
      "Ġcreated": 4394,
      "ĠAng": 4395,
      "Ġtw": 4396,
      "ĠÐ±ÐµÑĢÐµÐ³": 4397,
      "ges": 4398,
      "Ġcompet": 4399,
      "ĠLeague": 4400,
      "Ð½Ð°ÑĢ": 4401,
      "ÑıÐµÑĤ": 4402,
      "ĠÐ¾ÐºÐ¾Ð½Ñĩ": 4403,
      "Ġabs": 4404,
      "tt": 4405,
      "ĠÐµÐ¼Ñĥ": 4406,
      "ĠÐŀÐŀ": 4407,
      "Ġcurrent": 4408,
      "ĠÑĩÐµÑĤÑĭ": 4409,
      "ĠÐĴÐ¸Ðº": 4410,
      "ĠChar": 4411,
      "ĠÐ´Ð²Ð¸Ð¶ÐµÐ½Ð¸Ñı": 4412,
      "ĠÑģÐ²Ð¾Ð¸Ñħ": 4413,
      "ĠRussian": 4414,
      "ĠÐ´Ð²Ð¾ÑĢ": 4415,
      "ĠCor": 4416,
      "ĠÑĢÐ°ÑģÑĤ": 4417,
      "Ð´Ð°ÐµÑĤ": 4418,
      "Ġreceived": 4419,
      "Ġren": 4420,
      "Ð¾Ð±ÐµÐ»ÐµÐ²": 4421,
      "ĠÐ¾ÑģÑĤÑĢÐ¾Ð²Ð°": 4422,
      "ĠÐ¾ÐºÐµ": 4423,
      "ĠÐ³ÑĢÐ°ÑĦ": 4424,
      "Ð°ÐºÐ¾Ð²": 4425,
      "ĠÐ¡Ð¿": 4426,
      "ĠÐ·Ð°Ñī": 4427,
      "ĠÐ¾ÑĤÐ½Ð¾ÑĪ": 4428,
      "ĠÐĴÐµÑĢÑħÐ¾Ð²": 4429,
      "ibr": 4430,
      "Ġcapt": 4431,
      "Ġ(),": 4432,
      "ĠÐ³Ð»Ð°": 4433,
      "ĠÐĲÐ´": 4434,
      "Ġmer": 4435,
      "ĠÑģÑĤÐµÐ¿": 4436,
      "rick": 4437,
      "ĠÐŁÐ¾Ð´": 4438,
      "Ġ1940": 4439,
      "Ġ60": 4440,
      "ĠÐ¿ÑĢÐ¾Ð²ÐµÐ´": 4441,
      "bers": 4442,
      "Ð½Ñİ": 4443,
      "ÑĳÐ·": 4444,
      "Ġz": 4445,
      "Ð¶Ð¸": 4446,
      "ĠÐ·Ð°Ñı": 4447,
      "Ġprevious": 4448,
      "oid": 4449,
      "ĠTur": 4450,
      "iol": 4451,
      "Ġlist": 4452,
      "Ġpossible": 4453,
      "ĠÐ¿Ð¾ÐºÐ°Ð·": 4454,
      "St": 4455,
      "ÐºÐ¾ÑĢ": 4456,
      "ators": 4457,
      "Ġet": 4458,
      "ĠÐ¼Ð¾Ð¼": 4459,
      "Ð¡Ð¾Ð±": 4460,
      "ique": 4461,
      "Ġfinal": 4462,
      "ĠIV": 4463,
      "otes": 4464,
      "ĠÐ»ÐµÐ³": 4465,
      "ĠÐ¸Ð½Ð¾ÑģÑĤ": 4466,
      "ĠÐ½Ð°Ñĥ": 4467,
      "ux": 4468,
      "ĠÑħÐ¾Ð´Ðµ": 4469,
      "Ġke": 4470,
      "Ġcontinued": 4471,
      "ĠÐļÑĢÐ°Ñģ": 4472,
      "ĠÐ¿ÑĢÐµÐ·Ð¸Ð´ÐµÐ½ÑĤÐ°": 4473,
      "ĠÐ¼Ð¸Ð»Ð»Ð¸": 4474,
      "ĠÑģÐ¾ÐµÐ´Ð¸Ð½": 4475,
      "ĠBen": 4476,
      "ĠÐ¾ÐºÐ°Ð·": 4477,
      "ĠÐ²ÐµÑĢÑģ": 4478,
      "Ġhost": 4479,
      "Ġespecially": 4480,
      "oung": 4481,
      "ĠÐ±ÑĥÐ´ÐµÑĤ": 4482,
      "Ch": 4483,
      "ÑģÐ¸": 4484,
      "ĠÐľÐ°Ðº": 4485,
      "Ġgenerally": 4486,
      "Ð¾Ð²Ð°Ð½Ð¸ÐµÐ¼": 4487,
      "ĠÐºÐ²": 4488,
      "ĠÐ²ÑĤÐ¾ÑĢÐ¾Ð¹": 4489,
      "Ġfather": 4490,
      "Ð°ÑĤÐµÐ»Ð¸": 4491,
      "ĠÐ¿Ð¾Ð»Ð¾Ð²": 4492,
      "Ġrather": 4493,
      "cript": 4494,
      "Ð»ÐµÐ³": 4495,
      "aves": 4496,
      "ĠÐºÐ¾Ð½ÑĦ": 4497,
      "ĠÐ¸Ð¼ÐµÑİÑĤ": 4498,
      "ĠÐ¸ÑģÐºÐ»ÑİÑĩ": 4499,
      "ĠÑĨÐµÑĢÐºÐ¾Ð²": 4500,
      "ĠÐ´ÑĢÐ°Ð¼Ð°ÑĤ": 4501,
      "ĠÐ´ÐµÑĢÐµÐ²": 4502,
      "mit": 4503,
      "ĠÐĹÐ°Ð¿Ð°Ð´": 4504,
      "Ġnatural": 4505,
      "raw": 4506,
      "ĠÐºÐ¾Ð½ÑĨÐµ": 4507,
      "ĠÑĢÐµÐ»Ð¸Ð³Ð¸Ð¾Ð·": 4508,
      "Ð°Ð»Ð¸Ð·Ð°": 4509,
      "Î±": 4510,
      "ĠIndian": 4511,
      "Ġdefe": 4512,
      "Ġtri": 4513,
      "ĠÑĩÐ°ÑģÑĤÐ½Ð¾ÑģÑĤÐ¸": 4514,
      "Ġfood": 4515,
      "Ð¾ÑĢÐ°Ñħ": 4516,
      "ĠComp": 4517,
      "ĠÐºÐ¾Ð½ÑģÑĤÐ¸ÑĤÑĥ": 4518,
      "ĠÐ²ÑģÑĤÑĢÐµ": 4519,
      "ĠÐ±Ð¾ÑĢÑĮ": 4520,
      "kn": 4521,
      "ify": 4522,
      "ney": 4523,
      "ĠÐŀÑģÐ½Ð¾Ð²": 4524,
      "Ġchem": 4525,
      "ensive": 4526,
      "ĠÐĿÐ°ÑĨÐ¸Ð¾Ð½Ð°Ð»ÑĮ": 4527,
      "Ġnext": 4528,
      "ĠÐľÐ¾ÑģÐºÐ¾Ð²": 4529,
      "189": 4530,
      "Ġfootballer": 4531,
      "ĠÐ¾Ð·": 4532,
      "ĠÐ¼ÐµÑħÐ°Ð½": 4533,
      "ĠEarth": 4534,
      "ades": 4535,
      "Ġstyle": 4536,
      "ĠÐĵÐµÐ½": 4537,
      "Ġproject": 4538,
      "ports": 4539,
      "Ġschol": 4540,
      "Ġdata": 4541,
      "ĠÐ²Ð½ÐµÑĪ": 4542,
      "Ð¾ÑıÑĤ": 4543,
      "ÑĢÐ´": 4544,
      "Ġhow": 4545,
      "ĠÑĥÐ¼": 4546,
      "ĠÐ´Ð¸Ð¿Ð»Ð¾Ð¼Ð°ÑĤ": 4547,
      "Ð¸Ð¼Ð¸ÑĩÐµ": 4548,
      "ĠÐ°ÑĤÐ¾Ð¼": 4549,
      "ĠSoc": 4550,
      "ements": 4551,
      "ĠGermany": 4552,
      "ÐºÑĨÐ¸Ð¸": 4553,
      "Ġtro": 4554,
      "Ð°Ð»ÑĤ": 4555,
      "uf": 4556,
      "Ð°Ð½Ð½ÑĭÐ¹": 4557,
      "ĠÐºÐ¾ÑĤÐ¾ÑĢÐ¾Ðµ": 4558,
      "ĠÐ¸Ð½ÑĦÐ¾ÑĢÐ¼Ð°": 4559,
      "ples": 4560,
      "Ġenc": 4561,
      "ĠÐ¡Ð¾ÑİÐ·Ð°": 4562,
      "ĠÐ´ÑĥÑħ": 4563,
      "ĠÐ¾Ð³ÑĢÐ°Ð½Ð¸Ñĩ": 4564,
      "Ġbir": 4565,
      "Ġ1941": 4566,
      "rica": 4567,
      "ĠÐ£ÐºÑĢÐ°Ð¸Ð½Ñĭ": 4568,
      "Ð»Ð¾ÑģÑĮ": 4569,
      "ĠÐŁÐ¾Ð»ÑĮÑĪ": 4570,
      "Ð²ÐµÐ¹": 4571,
      "ÑĨÐ¸ÑģÑĤ": 4572,
      "ÐĽÐ¸ÑĤÐµÑĢÐ°ÑĤÑĥÑĢÐ°": 4573,
      "bra": 4574,
      "Ġdi": 4575,
      "Ġhimself": 4576,
      "ĠÐ»Ð¸Ñĩ": 4577,
      "vert": 4578,
      "Ġtype": 4579,
      "ours": 4580,
      "ĠÐ½Ð°ÑĩÐ°Ð»": 4581,
      "Ġchildren": 4582,
      "ĠÑĢÐ°Ð·Ð²Ð¸ÑĤÐ¸Ñı": 4583,
      "ĠÑĢÐ°Ð¹Ð¾Ð½": 4584,
      "ÑģÑĤÐ°Ð½ÑĤ": 4585,
      "ĠÐ¸Ð¼ÐµÐ½Ð¸": 4586,
      "ĠÐ²Ð¾Ðº": 4587,
      "Ġfree": 4588,
      "Ġtest": 4589,
      "ÑĢÐ¾Ð½Ð¾Ð¼": 4590,
      "ĠÑĤÐµÐ¾ÑĢÐ¸Ð¸": 4591,
      "Ġavail": 4592,
      "Ġgood": 4593,
      "Ð°Ð»ÑĮÐ½Ð°Ñı": 4594,
      "ĠÐĶÐ»Ñı": 4595,
      "Ð¸ÑĩÐµÑģÐºÑĥÑİ": 4596,
      "ÑĳÑĤÑģÑı": 4597,
      "ĠÐ¿ÑıÑĤ": 4598,
      "ÑİÑģÐµÑĢ": 4599,
      "ĠAccording": 4600,
      "Ġpriv": 4601,
      "ĠÐ¸ÑģÑĤÐ¾ÑĢÐ¸Ðº": 4602,
      "Ã³": 4603,
      "ĠÑģÐ¸ÑģÑĤÐµÐ¼Ð°": 4604,
      "ĠÐ½ÐµÐ²": 4605,
      "utch": 4606,
      "Ð¸Ð²ÑĪÐ¸Ð¹": 4607,
      "ĠÐ¿Ð¾ÑĩÑĤÐ¸": 4608,
      "ĠÑĤÑĭÑģ": 4609,
      "ĠÑĤÐµÐ¿": 4610,
      "ĠÐ´Ð¸Ð½": 4611,
      "ĠÐ¾Ð±ÑıÐ·": 4612,
      "ĠÐ½ÐµÑĦ": 4613,
      "ĠÑĥÐ²ÐµÐ»Ð¸Ñĩ": 4614,
      "Ġfail": 4615,
      "Ġformed": 4616,
      "ĠÑĥÐ½Ð¸Ð²ÐµÑĢÑģÐ¸ÑĤÐµÑĤ": 4617,
      "ĠÐ¶ÐµÐ»ÐµÐ·": 4618,
      "ÐµÑı": 4619,
      "iles": 4620,
      "ĠÐ¿ÑĢÐ¾Ð´Ñĥ": 4621,
      "ĠGreat": 4622,
      "Ġrecogn": 4623,
      "Ġexpress": 4624,
      "ĠKingdom": 4625,
      "zil": 4626,
      "Ð±Ñĥ": 4627,
      "Ġforms": 4628,
      "ĠMc": 4629,
      "ĠÐ°Ð²ÑĤ": 4630,
      "uel": 4631,
      "ĠÐºÐ¾ÑĢÐ°": 4632,
      "Ð¾Ð²Ð°Ñı": 4633,
      "ĠOther": 4634,
      "Ġacid": 4635,
      "Ġblack": 4636,
      "ÑģÐºÐµ": 4637,
      "Ġplan": 4638,
      "Ð²Ð¸Ð¶": 4639,
      "ĠPress": 4640,
      "ĠHol": 4641,
      "Ġaccept": 4642,
      "ĠÐ¼Ð¸ÑĢÐ¾Ð²Ð¾Ð¹": 4643,
      "ĠTe": 4644,
      "ĠAtlant": 4645,
      "Ð¾Ð»Ð°": 4646,
      "Ġmaking": 4647,
      "ĠPer": 4648,
      "Ġarmy": 4649,
      "Ġtemper": 4650,
      "ĠÐ¿Ð°ÑģÑģ": 4651,
      "ÑĢÐµÐ¼": 4652,
      "ĠPal": 4653,
      "Ġdiff": 4654,
      "ÑĪÐ»Ð¸": 4655,
      "Ð¾ÑģÐ¿": 4656,
      "Ð´ÐµÑģÑĮ": 4657,
      "ĠÐºÐ¾Ð»Ð¸ÑĩÐµÑģÑĤÐ²Ð¾": 4658,
      "chan": 4659,
      "ĠÑģÑĤÐ¾ÑĢÐ¾Ð½Ñĭ": 4660,
      "ford": 4661,
      "rest": 4662,
      "ulg": 4663,
      "Ġnever": 4664,
      "Ġbroad": 4665,
      "ĠÐ¿Ð¾ÑģÑĤÐ¾ÑıÐ½": 4666,
      "ĠÑĨÐµÑĢÐºÐ²Ð¸": 4667,
      "ĠÐ¿ÑĢÐ¾ÑĦÐµÑģÑģ": 4668,
      "Ġox": 4669,
      "Ġdays": 4670,
      "ĠÑģÑĤÑĢÑĥÐºÑĤ": 4671,
      "ĠÐ¼Ð°ÑĪ": 4672,
      "ĠÑĢÐ¾Ð»ÑĮ": 4673,
      "ÑĤÑĥÐ³": 4674,
      "aries": 4675,
      "ĠÐ±Ð°Ð·": 4676,
      "Ġinitial": 4677,
      "Ġparts": 4678,
      "ming": 4679,
      "inary": 4680,
      "ĠÐ¾ÑĩÐµÐ½ÑĮ": 4681,
      "order": 4682,
      "ĠÐ¾ÑģÐ½Ð¾Ð²Ð½Ð¾Ð¼": 4683,
      "ĠÐĲÐ½ÑĤ": 4684,
      "ĠÐ²ÑģÑĳ": 4685,
      "imately": 4686,
      "ĠÐ³Ð»Ð°Ð²Ðµ": 4687,
      "Ð¾Ð»Ð½Ð¸ÑĤÐµÐ»ÑĮ": 4688,
      "Ġcommand": 4689,
      "Ġaver": 4690,
      "ĠÐ´Ð°Ð½Ð½ÑĭÐ¼": 4691,
      "minist": 4692,
      "Ġnet": 4693,
      "Ġscient": 4694,
      "Ġhold": 4695,
      "Ġstar": 4696,
      "ĠArmy": 4697,
      "Ð·Ð½Ð¾Ð´Ð¾ÑĢÐ¾Ð¶": 4698,
      "ĠÐ¿Ð°ÑĢÑĤÐ¸Ñı": 4699,
      "ĠÐºÐ¸Ñģ": 4700,
      "ÑĢÐ¸ÑĢÐ¾Ð²": 4701,
      "ĠÐ¿ÐµÑĢÐ²Ð¾Ð¹": 4702,
      "ÑģÑĤÐ¾Ð½": 4703,
      "Ġmodel": 4704,
      "Ġill": 4705,
      "ĠÑĦÐµÐ´ÐµÑĢÐ°": 4706,
      "ption": 4707,
      "ĠÐ¼ÐµÑģÑı": 4708,
      "ĠÑģÑĥÐ±": 4709,
      "itu": 4710,
      "Ġinternational": 4711,
      "ĠÐµÐ²ÑĢÐ¾Ð¿ÐµÐ¹": 4712,
      "Ð³ÐµÐ½ÑĤ": 4713,
      "ÑĩÐ°ÑģÑĤ": 4714,
      "Ð°ÑĤÐµÐ»ÑĮÐ½Ð¾": 4715,
      "ĠÐļÐ°Ð½": 4716,
      "ĠAfrica": 4717,
      "Ġseen": 4718,
      "ĠÐºÐ°ÑĢ": 4719,
      "ĠÐ·Ð¾Ð»Ð¾ÑĤ": 4720,
      "Ð»ÐµÐ½Ð¸Ñİ": 4721,
      "ĠArch": 4722,
      "Ġacadem": 4723,
      "Ġlower": 4724,
      "ning": 4725,
      "ĠÑģÐ»ÑĥÑĩÐ°Ðµ": 4726,
      "Ġpur": 4727,
      "Ð°ÐºÐ¾Ð½": 4728,
      "Ġregard": 4729,
      "ĠSea": 4730,
      "Ð½Ð°Ð»Ð¸ÑģÑĤ": 4731,
      "ĠÐºÐ°Ð¿": 4732,
      "Ġtext": 4733,
      "Ġcapital": 4734,
      "ĠÑĩÐ°ÑģÑĤÐ¾": 4735,
      "Ġimpro": 4736,
      "ÑĤÑĥÑĢÑĭ": 4737,
      "Ġcertain": 4738,
      "ingu": 4739,
      "Ð½Ð°Ð´Ð»ÐµÐ¶": 4740,
      "ĠÐ²ÑħÐ¾Ð´": 4741,
      "Ġprob": 4742,
      "ĠÐ¿ÑĢÐ°Ð·Ð´": 4743,
      "ĠÐ¿ÐµÐ²ÐµÑĨ": 4744,
      "Ð¡Ð¾Ð±ÑĭÑĤÐ¸Ñı": 4745,
      "75": 4746,
      "Ġ1917": 4747,
      "ky": 4748,
      "Ð¿Ð¸ÑģÐº": 4749,
      "ĠÐ·Ð°ÑĤÐµÐ¼": 4750,
      "Ġoffer": 4751,
      "Ġmem": 4752,
      "ĠÑĩÐ°Ñģ": 4753,
      "Ġ1988": 4754,
      "action": 4755,
      "ĠÑģÐ²ÐµÑĤ": 4756,
      "ĠÐ²Ð¾Ð·Ð²": 4757,
      "pite": 4758,
      "Ð±ÑĢÐµ": 4759,
      "ush": 4760,
      "ceed": 4761,
      "omp": 4762,
      "Ġ1986": 4763,
      "icle": 4764,
      "Ð»Ð¸Ñı": 4765,
      "ĠÐ°Ð»ÑĮ": 4766,
      "ÑĤÑĥÑĢÐµ": 4767,
      "ĠÑģÐ¾Ð³Ð»Ð°": 4768,
      "Ġfig": 4769,
      "ĠÐ½ÐµÑģ": 4770,
      "ÑĢÐ¾Ð±": 4771,
      "Ġpress": 4772,
      "ĠÐ²Ð¾Ð¾ÑĢÑĥÐ¶": 4773,
      "ÐºÐ°Ð»ÑĮ": 4774,
      "ĠÐ¼Ð¸ÑĦ": 4775,
      "berg": 4776,
      "Ġprincip": 4777,
      "Ġfollowed": 4778,
      "ĠÑĢÐµÐ»Ð¸Ð³": 4779,
      "ĠÐ´Ð°Ð²": 4780,
      "ĠPaul": 4781,
      "ĠÑĪÐ²ÐµÐ´": 4782,
      "ĠÑĩÐ¸ÑģÐ»Ð¾": 4783,
      "ĠÐ´ÐµÐ¿ÑĥÑĤ": 4784,
      "Ð¼Ð¾Ñģ": 4785,
      "ÑĨÐ¾Ð²": 4786,
      "Ġprote": 4787,
      "Ð¸Ð¹ÑģÐºÐ¸Ð¹": 4788,
      "ĠÐ³ÑĥÐ±ÐµÑĢÐ½": 4789,
      "ste": 4790,
      "ume": 4791,
      "Ġconsist": 4792,
      "Ġcomputer": 4793,
      "ta": 4794,
      "ĠÐĴÐµÐ»Ð¸ÐºÐ¾Ð±ÑĢÐ¸ÑĤÐ°Ð½Ð¸Ð¸": 4795,
      "Ð½Ð¸ÑĨ": 4796,
      "ĠÑĢÐ¾Ð¼": 4797,
      "Ġresearch": 4798,
      "ĠÐºÑĥÐ»ÑĮÑĤÑĥÑĢ": 4799,
      "like": 4800,
      "ĠÐ±Ð¸ÑĤ": 4801,
      "Ġlik": 4802,
      "Ð¾Ð¿Ð°Ñģ": 4803,
      "Ð¾Ð°Ð½": 4804,
      "itch": 4805,
      "ĠÑįÐ½ÐµÑĢÐ³": 4806,
      "ĠÑģÑĤÐ°ÑĤÑĮ": 4807,
      "Ġ1979": 4808,
      "Ġsubject": 4809,
      "arily": 4810,
      "Ġindic": 4811,
      "ebru": 4812,
      "Ġastron": 4813,
      "ĠDuring": 4814,
      "ĠÐ¾ÑĤÐ¼ÐµÑĩ": 4815,
      "Ġwin": 4816,
      "ĠÐĴÐ¸Ð»ÑĮ": 4817,
      "Ġmeans": 4818,
      "Ġcy": 4819,
      "play": 4820,
      "Ð¿Ð¿": 4821,
      "ĠÐ¿ÑĢÐ¾Ð¿": 4822,
      "Ġabove": 4823,
      "ads": 4824,
      "Ð¸Ð¾": 4825,
      "ĠÐ²Ð»Ð°ÑģÑĤÑĮ": 4826,
      "Ġthus": 4827,
      "ĠÐ·Ð½": 4828,
      "ĠMon": 4829,
      "Ġgod": 4830,
      "ĠÑıÐ´": 4831,
      "67": 4832,
      "ington": 4833,
      "ĠÑĥÑĤÐ²ÐµÑĢÐ¶Ð´": 4834,
      "BN": 4835,
      "rum": 4836,
      "Ġfire": 4837,
      "ĠÑĥÑĩÑĢÐµÐ¶Ð´": 4838,
      "Ġmarket": 4839,
      "ÑģÑĭÐ»ÐºÐ¸": 4840,
      "ali": 4841,
      "ights": 4842,
      "Ð¾ÐºÑģ": 4843,
      "ishing": 4844,
      "Ð°Ð´Ñĭ": 4845,
      "ĠÐ¾ÑģÐ½Ð¾Ð²Ðµ": 4846,
      "Ð¾Ð³ÑĢÐ°ÑĦÐ¸Ñı": 4847,
      "Ġtaken": 4848,
      "ĠÑįÑĤÐ°": 4849,
      "ĠÑįÑĤÐ¸": 4850,
      "Ġthroughout": 4851,
      "Ð¸Ð»Ñı": 4852,
      "Ð½ÐµÑĢ": 4853,
      "Ġbest": 4854,
      "Ð¾Ð½ÑĤ": 4855,
      "ych": 4856,
      "ĠÐ»ÑİÐ´ÐµÐ¹": 4857,
      "ĠItalian": 4858,
      "Ġwhe": 4859,
      "Ġdeb": 4860,
      "Ġreported": 4861,
      "ebruary": 4862,
      "ĠÑģÐ»Ð°Ð²": 4863,
      "ulf": 4864,
      "ĠÐ¿ÐµÑĢÐ²Ð°Ñı": 4865,
      "Ġ1944": 4866,
      "ĠÐ¿ÑĢÐ¸Ð½Ð°Ð´Ð»ÐµÐ¶": 4867,
      "Ġstory": 4868,
      "ĠÐ·Ð°Ð¿ÑĢÐµ": 4869,
      "Ġnumbers": 4870,
      "viron": 4871,
      "Ð²ÐµÐº": 4872,
      "Ġhouse": 4873,
      "ÑĳÑĤÐ°": 4874,
      "ĠWestern": 4875,
      "Ġ1969": 4876,
      "Ġground": 4877,
      "ĠÐľÐ¸ÑħÐ°Ð¸Ð»": 4878,
      "Ġden": 4879,
      "Ġhigher": 4880,
      "Ð¿Ð¸ÑģÐºÐ¾Ð¿": 4881,
      "Ġ1987": 4882,
      "ĠÐ¿ÑĢÐ¸Ð½ÑĨÐ¸Ð¿": 4883,
      "itude": 4884,
      "ĠÐ½ÐµÐ³Ð¾": 4885,
      "ÑıÑĤÐ¸Ðµ": 4886,
      "Ð¸Ð´Ð°": 4887,
      "hest": 4888,
      "Ġmiss": 4889,
      "ĠÐĲÐ¼ÐµÑĢ": 4890,
      "Ġacross": 4891,
      "ÐµÑĩÐ°ÑĤ": 4892,
      "ĠÑģÐ¸Ð»Ñĭ": 4893,
      "Ġsuccessful": 4894,
      "Ġfrequ": 4895,
      "ÐºÐ¸Ðµ": 4896,
      "ÑĥÑİÑĤÑģÑı": 4897,
      "Ġmathem": 4898,
      "ÑıÐ²Ð»Ñı": 4899,
      "ĠÐ¾Ð´Ð½Ð¸Ð¼": 4900,
      "ĠÐ±Ð°Ð½": 4901,
      "aper": 4902,
      "ĠPe": 4903,
      "ĠLa": 4904,
      "ĠÑĪÑĤ": 4905,
      "Ġ1968": 4906,
      "aign": 4907,
      "Ġalmost": 4908,
      "Ġcomplex": 4909,
      "ophy": 4910,
      "ridge": 4911,
      "ĠÑģÐ¿ÐµÑĨÐ¸Ð°Ð»ÑĮ": 4912,
      "ĠPresident": 4913,
      "ĠÑģÐ¾Ð±ÑĢÐ°Ð½": 4914,
      "Ġevidence": 4915,
      "65": 4916,
      "ĠSm": 4917,
      "ÑĦÐ¾ÑĢÐ¼Ð¸ÑĢÐ¾Ð²": 4918,
      "Ġterms": 4919,
      "Ġprofess": 4920,
      "ĠAlbert": 4921,
      "Ġ1967": 4922,
      "ĠBook": 4923,
      "na": 4924,
      "ĠÐ¾Ð»Ð¸Ð¼Ð¿Ð¸Ð¹ÑģÐºÐ¸Ð¹": 4925,
      "Ð°ÑĦ": 4926,
      "Ð»Ð¾Ð³": 4927,
      "ĠBattle": 4928,
      "ĠÑĢÐµÐºÐ¸": 4929,
      "ĠÐ¢Ð°ÐºÐ¶Ðµ": 4930,
      "Ġstandard": 4931,
      "Ġavailable": 4932,
      "ĠÑĥÑģÐ¿": 4933,
      "ĠÐ¸Ð½Ð¾ÑģÑĤÑĢÐ°Ð½": 4934,
      "ÐĶÐ¾": 4935,
      "ĠÑĢÐ¸Ð¼": 4936,
      "ÑĥÐ´Ð°": 4937,
      "iers": 4938,
      "Ġsuper": 4939,
      "Ġ1984": 4940,
      "ÑİÑĢ": 4941,
      "ĠÐ´Ð°ÑĤ": 4942,
      "Ð»Ð¸ÑĤÐµÐ»ÑĮ": 4943,
      "ÐºÐ°Ð½ÑĤ": 4944,
      "Un": 4945,
      "Ġelectron": 4946,
      "Ġtelevision": 4947,
      "ĠApple": 4948,
      "lim": 4949,
      "ĠÐ¿Ð¾Ð»Ð¸ÑĤÐ¸Ðº": 4950,
      "ĠCatholic": 4951,
      "ÐµÐ½Ð½Ð¾Ð¹": 4952,
      "Ð¸Ð½ÑģÐºÐ¾Ð³Ð¾": 4953,
      "Ð¸ÑģÑĤÐ¾Ð²": 4954,
      "Ð´ÐµÐ»": 4955,
      "ĠState": 4956,
      "Ġ1973": 4957,
      "rant": 4958,
      "aria": 4959,
      "Ġagre": 4960,
      "Ġhard": 4961,
      "ĠÐºÐ¾ÑĢÐ¾Ð»ÐµÐ²": 4962,
      "ĠÐĻ": 4963,
      "hel": 4964,
      "Ġ1975": 4965,
      "Ð°ÑİÑīÐ¸Ñħ": 4966,
      "Ġ1972": 4967,
      "Ġparty": 4968,
      "ĠIndia": 4969,
      "Ġintroduced": 4970,
      "Ġvict": 4971,
      "ought": 4972,
      "Ġupon": 4973,
      "ĠÐ½ÐµÐºÐ¾ÑĤÐ¾ÑĢÑĭÑħ": 4974,
      "Ġarchitect": 4975,
      "IV": 4976,
      "ÐµÐ½ÑĤÐ¾Ð²": 4977,
      "ĠRev": 4978,
      "ĠAthen": 4979,
      "ĠÐļÐ°ÑĢÐ»": 4980,
      "ĠLatin": 4981,
      "Ġbecom": 4982,
      "ĠÑģÐ»Ð¾Ð²Ð°": 4983,
      "ÑĨÐ¸Ðº": 4984,
      "unic": 4985,
      "ĠHen": 4986,
      "aint": 4987,
      "35": 4988,
      "ĠÐ¾Ñħ": 4989,
      "Ð¸Ð²Ð°ÐµÑĤ": 4990,
      "ateg": 4991,
      "ĠÐĺÐ²Ð°Ð½": 4992,
      "Ġdou": 4993,
      "Ġhydro": 4994,
      "ĠRes": 4995,
      "ĠÐ¿ÑĢÐµÐ´ÑģÐµÐ´": 4996,
      "Ġentire": 4997,
      "Ġ1981": 4998,
      "Ġaccording": 4999,
      "ĠAustralia": 5000,
      "Ġ1983": 5001,
      "ĠÐ¸Ð¼Ð¿ÐµÑĢÐ°": 5002,
      "ĠÐĺÐ²Ð°Ð½Ð¾Ð²": 5003,
      "\")": 5004,
      "Ð»Ð¾Ð¿": 5005,
      "istor": 5006,
      "rug": 5007,
      "ĠÐ²Ð¾Ð´Ñĭ": 5008,
      "Ð½Ð°ÑĢÑĥÐ¶": 5009,
      "Ġtog": 5010,
      "stand": 5011,
      "ĠÐ¿Ð»Ð°ÑĤ": 5012,
      "Ġthought": 5013,
      "Ð½ÐµÑĤ": 5014,
      "Ð¾ÑĢÐ¾ÑĤ": 5015,
      "Ġplayers": 5016,
      "ĠÐ¡Ð°Ð½ÐºÑĤ": 5017,
      "ĠÐ¶ÑĥÑĢÐ½Ð°Ð»Ð¸ÑģÑĤ": 5018,
      "het": 5019,
      "ÐµÐ½Ð½Ð¾Ð³Ð¾": 5020,
      "roy": 5021,
      "Ġred": 5022,
      "Ġeth": 5023,
      "Ġrespect": 5024,
      "ĠÐ½Ð°Ð·ÑĭÐ²Ð°ÐµÐ¼": 5025,
      "bon": 5026,
      "Ð°ÑĤÐ¾Ñĩ": 5027,
      "Ð»ÑıÑİÑĤ": 5028,
      "ÑĢÐ¾ÑģÑĤ": 5029,
      "Ð¾Ð»ÑĮÐºÑĥ": 5030,
      "Ġenergy": 5031,
      "ÐµÐ½Ð½Ð°Ñı": 5032,
      "Ð±ÐµÑĢ": 5033,
      "ĠÐĴÐ¾ÑģÑĤÐ¾Ñĩ": 5034,
      "ĠÐºÑĢÐµÑģÑĤÑĮ": 5035,
      "99": 5036,
      "ĠÐ½Ð¸Ðº": 5037,
      "ÑĢÑĥÐ´Ð°": 5038,
      "Ġforce": 5039,
      "ĠÑħÐ¾ÑĢ": 5040,
      "lement": 5041,
      "ĠÐĿÐ¾Ð±ÐµÐ»ÐµÐ²": 5042,
      "Ġ1982": 5043,
      "ĠÐ¸Ð·Ð±ÑĢÐ°Ð½": 5044,
      "Ġmultip": 5045,
      "jan": 5046,
      "ĠÐ¾ÑĤÐ²ÐµÑĤ": 5047,
      "ÑĢÐ°Ñĩ": 5048,
      "ĠÐ¼Ð°Ð»": 5049,
      "ĠPark": 5050,
      "ĠÑĨÐ°ÑĢ": 5051,
      "cret": 5052,
      "Ġtogether": 5053,
      "Ġfac": 5054,
      "ĠMor": 5055,
      "Ġ80": 5056,
      "Ġelements": 5057,
      "ĠÐ¾ÑĩÐµÑĢÐµÐ´": 5058,
      "Ġ1985": 5059,
      "ĠÐ§ÐµÑĢ": 5060,
      "Ġtradition": 5061,
      "Ð°ÐºÑģÐ¸Ð¼": 5062,
      "Ð°ÑĢÐ¸Ð¸": 5063,
      "Ð¸Ð±Ð»Ð¸Ð¾ÑĤ": 5064,
      "ĠÐ¿Ð°ÑģÑģÐ°Ð¶": 5065,
      "Ġsex": 5066,
      "Ġchange": 5067,
      "iter": 5068,
      "Ġfull": 5069,
      "Ð¸ÑĤÑĭ": 5070,
      "64": 5071,
      "aff": 5072,
      "ÏĦ": 5073,
      "Ð²Ð¸Ð³": 5074,
      "ĠFebruary": 5075,
      "ĠÐ¿ÑĢÐµÐ´Ð¿Ð¾Ð»": 5076,
      "Ġjoin": 5077,
      "ÑĨÐ°Ð¼Ð¸": 5078,
      "Ð»Ð°Ð¼": 5079,
      "Ð¸Ð½Ð³ÑĢÐ°Ð´": 5080,
      "ĠKh": 5081,
      "ĠÑıÐ·ÑĭÐºÐ¾Ð²": 5082,
      "Ġlocated": 5083,
      "ĠÐŀÐŀÐĿ": 5084,
      "Ġfar": 5085,
      "pir": 5086,
      "ĠÐ¿Ð¾Ð»Ñı": 5087,
      "ĠÐļÐ¾Ð½ÑģÑĤÐ°Ð½ÑĤ": 5088,
      "ĠÑĢÐ¸": 5089,
      "ÑĢÐµÐ½Ð¸Ñı": 5090,
      "Ġtre": 5091,
      "ÑĢÐ°Ð³": 5092,
      "Ð»Ð¸Ð¹": 5093,
      "Ġsee": 5094,
      "ĠScott": 5095,
      "ĠCanadian": 5096,
      "ĠCount": 5097,
      "ÑĥÐ±Ð»Ð¸ÐºÐ¾Ð²": 5098,
      "ĠIsrael": 5099,
      "Ð¸ÑģÐ°": 5100,
      "Ð¸Ð²ÑĪÐ¸ÐµÑģÑı": 5101,
      "Ġbooks": 5102,
      "ĠÐ¾ÑĢÐ³Ð°Ð½Ð¸Ð·": 5103,
      "ĠÐ²Ð¾ÐµÐ½Ð½ÑĭÐ¹": 5104,
      "ĠÐºÑĢÐ°Ñģ": 5105,
      "Ð¾ÐºÐ¾Ð¼": 5106,
      "Ġsoft": 5107,
      "Ġculture": 5108,
      "Ġconn": 5109,
      "Ð°Ð»ÑĮÐ½Ð¾Ðµ": 5110,
      "ĠWith": 5111,
      "ĠÐºÐ¾ÑĢÐ°Ð±": 5112,
      "Ð¾Ð¸ÑĤ": 5113,
      "atively": 5114,
      "ĠÐ´Ð°Ð»ÑĮ": 5115,
      "ĠGl": 5116,
      "ĠDes": 5117,
      "ĠDutch": 5118,
      "ÑĢÐ°Ð¶ÐµÐ½Ð¸Ñı": 5119,
      "ĠÐ¶Ð¸Ð²Ð¾Ð¿Ð¸Ñģ": 5120,
      "be": 5121,
      "Ð¾Ð²Ð¾Ð»ÑĮ": 5122,
      "Ð³ÐµÐ»ÑĮ": 5123,
      "Ġmember": 5124,
      "Ð½Ð°ÑģÑĤ": 5125,
      "ĠÐºÑĢÐµÐ¿": 5126,
      "rel": 5127,
      "Ġ1971": 5128,
      "ĠÐ´ÑĢÐ°Ð¼Ð°ÑĤÑĥÑĢÐ³": 5129,
      "ÑĪÑĤ": 5130,
      "ĠBrazil": 5131,
      "ÑĦÐµÑĢÐµÐ½": 5132,
      "ĠÑģÐ¸Ð¼Ð²Ð¾Ð»": 5133,
      "Ġpoin": 5134,
      "ĠÐ¿ÑĢÑıÐ¼": 5135,
      "ĠHouse": 5136,
      "ĠÐĵÑĢÐ¸": 5137,
      "Ġcourt": 5138,
      "ĠÐ·Ð°ÑıÐ²": 5139,
      "ĠÐ¿ÑĢÐ¾Ð´ÑİÑģÐµÑĢ": 5140,
      "Ġmeaning": 5141,
      "Ġ1974": 5142,
      "ĠÑįÐ¿Ð¾Ñħ": 5143,
      "ĠÑħÐ¾ÑĤÑı": 5144,
      "ishop": 5145,
      "ĠÐ²ÐµÑĤ": 5146,
      "ÐµÐºÑĤÐ¸Ð²": 5147,
      "ideo": 5148,
      "asc": 5149,
      "Ġinstead": 5150,
      "ĠÐ±Ð»Ð¸Ð·": 5151,
      "Ġlost": 5152,
      "ounds": 5153,
      "Ġ70": 5154,
      "Ġbar": 5155,
      "ÑĳÐ´": 5156,
      "ghan": 5157,
      "ÑĢÐ¾ÑĨ": 5158,
      "ĠÐ¸Ð½ÑģÑĤÐ¸ÑĤÑĥÑĤ": 5159,
      "Ġ1976": 5160,
      "uk": 5161,
      "Ð¿Ð¾": 5162,
      "Ġsec": 5163,
      "ÑģÑĤÐµ": 5164,
      "ĠÐ·Ð°Ð´Ð°": 5165,
      "Ġadop": 5166,
      "Ġrelated": 5167,
      "ĠÐ±Ð¾Ð»ÑĮÑĪÐµ": 5168,
      "Ġpresident": 5169,
      "Ġfeature": 5170,
      "ĠÑģÐ¼ÐµÑĢÑĤÐ¸": 5171,
      "ĠÑģÐ¾Ñģ": 5172,
      "Ġmid": 5173,
      "Ġcolon": 5174,
      "ĠÐ¼ÑĥÐ¶": 5175,
      "ĠÐ°Ñį": 5176,
      "ĠÑģÐ±Ð¾ÑĢ": 5177,
      "Ġmother": 5178,
      "Ġcompan": 5179,
      "ĠÐ¤ÐµÐ´ÐµÑĢÐ°ÑĨÐ¸Ð¸": 5180,
      "Ġfem": 5181,
      "Ġcrew": 5182,
      "ving": 5183,
      "ĠÐ²ÐµÑīÐµ": 5184,
      "Ġdesigned": 5185,
      "ĠÐ¢ÑĥÑĢ": 5186,
      "Ġfounded": 5187,
      "ĠÐĲÑĦÑĢÐ¸": 5188,
      "Ġkey": 5189,
      "ĠSpanish": 5190,
      "ĠÑĤÐµÑĩÐµÐ½Ð¸Ðµ": 5191,
      "ĠÐ¾ÑĤÐ¿ÑĢÐ°Ð²": 5192,
      "ÑĪÐ¸ÑĢ": 5193,
      "ĠÑĤÑĥ": 5194,
      "ĠÑĢÐ¾ÑģÑĤ": 5195,
      "ĠÐ´Ð¾ÐºÑĥÐ¼ÐµÐ½ÑĤ": 5196,
      "Ð¸Ð´ÐµÑĢÐ»Ð°Ð½Ð´": 5197,
      "Ġunivers": 5198,
      "Ġaverage": 5199,
      "Ð¸Ð»Ðµ": 5200,
      "Ġcivil": 5201,
      "Ġfri": 5202,
      "Ġconcept": 5203,
      "Ð¾Ð¶Ð´ÐµÐ½Ð¸Ðµ": 5204,
      "ĠÐ¡Ð²ÑıÑĤ": 5205,
      "ĠGeorge": 5206,
      ".).": 5207,
      "Ġfind": 5208,
      "Ġtour": 5209,
      "ĠJames": 5210,
      "Ġitself": 5211,
      "ÑĥÑģÑģ": 5212,
      "ula": 5213,
      "ems": 5214,
      "Ġimm": 5215,
      "Ġcop": 5216,
      "chie": 5217,
      "ĠÐ¦ÐµÐ½ÑĤÑĢÐ°Ð»ÑĮ": 5218,
      "ĠÐŁÑĢÐµÐ´": 5219,
      "Ġnumer": 5220,
      "Ġeconomic": 5221,
      "ĠÐ²Ð¾ÑģÑĤÐ¾Ñĩ": 5222,
      "Ġfav": 5223,
      "ÑĨÐ¾Ð³": 5224,
      "ĠÐ¿Ð¾ÑĢÑıÐ´": 5225,
      "ĠÐ²ÑģÑĤÑĢÐµÑĩ": 5226,
      "76": 5227,
      "ĠRich": 5228,
      "Ð¸ÑĩÐµÑģÐºÐ¾Ð¼": 5229,
      "Ġcentral": 5230,
      "ĠÐ¼Ð¾ÑĢÐµ": 5231,
      "ÑıÐ±ÑĢÑĮ": 5232,
      "Î¿": 5233,
      "Ð½Ð¸Ñı": 5234,
      "icult": 5235,
      "ĠÐ²Ð¾ÑģÑģÑĤÐ°Ð½Ð¾Ð²": 5236,
      "Ġwords": 5237,
      "86": 5238,
      "Ġsize": 5239,
      "ÑħÐ¾Ð´Ð°": 5240,
      "ĠÐ³Ð»ÑĥÐ±": 5241,
      "ĠÑĦÐ°ÐºÑĤ": 5242,
      "Ġ1939": 5243,
      "Ġassociated": 5244,
      "ĠÐ½ÐµÑĤ": 5245,
      "ÑĩÐµÐ¹": 5246,
      "ĠÐ»Ð°ÑĤ": 5247,
      "Ġclub": 5248,
      "ÑıÐµÑĤÑģÑı": 5249,
      "ÑĪÐ»Ð°": 5250,
      "Ð¾ÑĤÑĭ": 5251,
      "ĠÐłÐ°": 5252,
      "ĠÑĤÐ°ÐºÐ¸Ñħ": 5253,
      "ĠÐ¿Ð¾Ð·Ð´": 5254,
      "ÑĳÐ½Ð½ÑĭÐ¹": 5255,
      "Ġclos": 5256,
      "ĠÐĲÐ½Ð³Ð»Ð¸": 5257,
      "ĠAlexand": 5258,
      "ĠÐ·Ð°Ð²ÐµÑĢÑĪ": 5259,
      "ĠÐ¸Ð´": 5260,
      "ĠÐºÐ¾Ð½ÑģÑĤÑĢÑĥ": 5261,
      "ysis": 5262,
      "Ġmount": 5263,
      "ĠÐ½Ð°ÑĥÐº": 5264,
      "ĠÐ¾Ð±Ð½Ð°ÑĢÑĥÐ¶": 5265,
      "ĠÐĳÐ°ÑĢ": 5266,
      "ĠÐ¿Ð¾Ð»ÑĥÑĩÐ¸Ð»": 5267,
      "Ġvalue": 5268,
      "ÐºÐ°ÑĤÐµÑĢ": 5269,
      "ĠÑģÐ²ÑıÑīÐµÐ½": 5270,
      "ĠAngl": 5271,
      "Ġdeterm": 5272,
      "Ġinformation": 5273,
      "Ġwhose": 5274,
      "Ġ1977": 5275,
      "atory": 5276,
      "utes": 5277,
      "ÐµÐ·Ð´Ð°": 5278,
      "ĠÐ¼Ð½Ð¾Ð³Ð¸Ñħ": 5279,
      "Ġacademic": 5280,
      "ĠÐ¾Ð±Ð»Ð°ÑģÑĤ": 5281,
      ".),": 5282,
      "Ġang": 5283,
      "aps": 5284,
      "Ġsurface": 5285,
      "ĠÐºÑĥÐ»ÑĮÑĤÑĥÑĢÑĭ": 5286,
      "ĠÐ½Ð°ÑģÑĤÐ¾ÑıÑīÐµÐµ": 5287,
      "Ð¾ÑĢÑĥÑģ": 5288,
      "ĠRiver": 5289,
      "ÑģÑĤÐ²ÐµÐ½Ð½Ð¾Ðµ": 5290,
      "ĠÐºÐ¾Ð½Ðº": 5291,
      "Ġsurv": 5292,
      "Ð¸Ð·Ð°ÑĨÐ¸Ð¸": 5293,
      "ĠÐ¾ÑĢÐ³Ð°Ð½Ð¸Ð·Ð°ÑĨÐ¸Ð¸": 5294,
      "Ð²ÑĳÑĢ": 5295,
      "ĠAC": 5296,
      "ĠÑĥÐ»Ð¸": 5297,
      "ĠÐ¾Ð±Ð¾Ð·Ð½Ð°Ñĩ": 5298,
      "Ġ1964": 5299,
      "ĠÐ¾Ð±ÑĢÐ°Ð·Ð¾Ð²": 5300,
      "ĠÑĦÐ¸Ð»Ð¾ÑģÐ¾ÑĦÐ¸Ð¸": 5301,
      "ĠÑĦÐ¸Ð·Ð¸Ðº": 5302,
      "ÑģÐºÐ°Ð·": 5303,
      "ĠÐºÐ»Ð¸": 5304,
      "Ð¾Ð²ÑĭÐ¹": 5305,
      "ÐºÐ°Ð·ÑĭÐ²Ð°": 5306,
      "ĠÐ¼Ð½Ð¾Ð³Ð¸Ðµ": 5307,
      "Ġreligious": 5308,
      "ÐµÑĢÐ¸Ñı": 5309,
      "Ð½Ð¸ÐºÐ°Ð¼Ð¸": 5310,
      "Ġaccount": 5311,
      "ixed": 5312,
      "Ġmovement": 5313,
      "ĠÐ¿Ð¾Ð¿ÑĭÑĤ": 5314,
      "OS": 5315,
      "ĠÑıÐ¿Ð¾Ð½": 5316,
      "47": 5317,
      "omm": 5318,
      "ĠÐĴÐ°Ð»": 5319,
      "Ġ1978": 5320,
      "sel": 5321,
      "inct": 5322,
      "ĠAD": 5323,
      "ĠÐ·Ð½Ð°": 5324,
      "Ġaltern": 5325,
      "Ġexcept": 5326,
      "mercial": 5327,
      "icy": 5328,
      "ols": 5329,
      "Ġpers": 5330,
      "ĠÐ½Ð°ÑĢ": 5331,
      "lected": 5332,
      "ĠÑĢÐ°Ð·Ð»Ð¸ÑĩÐ½ÑĭÑħ": 5333,
      "Ð´Ð°Ð²": 5334,
      "ÑĪÑĳÐ»": 5335,
      "oted": 5336,
      "istance": 5337,
      "ĠÑĦÑĢÐ¾Ð½": 5338,
      "Ð¾Ð²Ð¾Ð³Ð¾": 5339,
      "anc": 5340,
      "ĠÐ¾Ð¿ÑĢÐµÐ´ÐµÐ»ÑĳÐ½": 5341,
      "ÑģÐ¾ÐµÐ´Ð¸Ð½": 5342,
      "Ð°ÑģÑĤÑĢÐ¾ÑĦÐ°": 5343,
      "ĠÑģÑĤÐ°Ð»Ð¾": 5344,
      "peror": 5345,
      "Ġstructure": 5346,
      "37": 5347,
      "ĠÐ¦Ðļ": 5348,
      "Ġpoet": 5349,
      "48": 5350,
      "Ġ1919": 5351,
      "ĠÐ±ÑĥÐº": 5352,
      "Ġ1966": 5353,
      "ĠÐĿÐ¾Ð±ÐµÐ»ÐµÐ²ÑģÐºÐ¾Ð¹": 5354,
      "Ð¸ÑģÑĮ": 5355,
      "ĠÐĵÑĢÐ°": 5356,
      "ĠÐ¾ÐºÑĢÑĥÐ¶": 5357,
      "ĠÐ¿Ð¾ÑĢÑĤ": 5358,
      "amples": 5359,
      "Ð»ÑıÐ½Ð´": 5360,
      "Ð¾ÑģÐ°": 5361,
      "Ġ1962": 5362,
      "Ġfall": 5363,
      "ĠÐ¼ÐµÐ½ÑĮ": 5364,
      "ĠÐĵÑĢÐµ": 5365,
      "Ġemploy": 5366,
      "90": 5367,
      "ĠÐľÐµÐ¶Ð´ÑĥÐ½Ð°ÑĢÐ¾Ð´": 5368,
      "rought": 5369,
      "ĠÐ¿ÑĢÐ¸Ð½Ð¸Ð¼": 5370,
      "Ġdirector": 5371,
      "Ad": 5372,
      "nd": 5373,
      "Ð±ÐµÑĢÐ³": 5374,
      "ĠÐŁÐ°ÑĢÐ¸": 5375,
      "Ġevents": 5376,
      "medi": 5377,
      "ĠÑĢÐ°ÑģÑģÐ¼Ð°ÑĤÑĢÐ¸": 5378,
      "55": 5379,
      "Ð¾ÑıÑĤÐµÐ»ÑĮ": 5380,
      "ĠÑĦÐ»Ð¾ÑĤ": 5381,
      "ĠÐ¿ÑĢÐ¾Ð²Ð¸Ð½": 5382,
      "ĠÐ¿ÑĢÐ¾Ð¸ÑģÑħÐ¾Ð¶Ð´ÐµÐ½Ð¸Ñı": 5383,
      "Ġmagn": 5384,
      "stant": 5385,
      "ĠÐ·Ð½Ð°Ðº": 5386,
      "Ġisland": 5387,
      "Ġaccess": 5388,
      "Ġfund": 5389,
      "Ð°ÑĢÑĭ": 5390,
      "ĠPers": 5391,
      "Ġonce": 5392,
      "ĠÐ·Ð°Ð¿Ð¸Ñģ": 5393,
      "ĠÐ½ÐµÐºÐ¾ÑĤÐ¾ÑĢÑĭÐµ": 5394,
      "Ġcampaign": 5395,
      "ÐºÑĤÐ¾ÑĢ": 5396,
      "Ġ1965": 5397,
      "ĠÑģÐ²Ð¾Ð¸": 5398,
      "ÑģÑĤÐ²Ð¸Ðµ": 5399,
      "Ġgre": 5400,
      "rast": 5401,
      "elling": 5402,
      "Ġ1942": 5403,
      "Ġcoast": 5404,
      "ĠÐ¿Ð¾Ð¼Ð¾ÑīÑĮÑİ": 5405,
      "Ġbuilding": 5406,
      "ĠJapanese": 5407,
      "ĠÐĴÑĤÐ¾ÑĢ": 5408,
      "Ð¾Ð±ÑīÐµ": 5409,
      "ĠÐ¿ÐµÑĢÐµÐ¿": 5410,
      "ĠÐºÐ¾Ð¼Ð¿ÑĮÑİÑĤ": 5411,
      "ios": 5412,
      "ĠSan": 5413,
      "Ð¾Ð³ÑĢÐ°ÑĦÐ¸Ð¸": 5414,
      "Cl": 5415,
      "Ð»ÑĥÑĩ": 5416,
      "ĠMich": 5417,
      "Ð¡ÑģÑĭÐ»ÐºÐ¸": 5418,
      "ĠÑĪÐºÐ¾Ð»Ñĭ": 5419,
      "Ð°Ñİ": 5420,
      "ÑģÑĤÑĢÐ¸Ð¹": 5421,
      "Ð¸Ð¹ÑģÐºÐ¾Ð³Ð¾": 5422,
      "ÑĥÑİÑīÐ¸Ñħ": 5423,
      "Ġinvest": 5424,
      "ĠSpe": 5425,
      "ĠÐļÑĥÐ±": 5426,
      "ĠÐ¿ÑĢÐ¸Ð²Ð¾Ð´": 5427,
      "ĠÐĽÐ°": 5428,
      "Ð»Ð¾Ðº": 5429,
      "Ġinfluence": 5430,
      "ties": 5431,
      "Ġ1943": 5432,
      "Ġactress": 5433,
      "ĠÐ¼Ð°ÑĢÑĪ": 5434,
      "ĠÐ¿Ð¾Ð¿ÑĥÐ»ÑıÑĢ": 5435,
      "Ġincreased": 5436,
      "Ġbaseball": 5437,
      "ĠÐłÐ¾Ð±": 5438,
      "ĠÐ²Ð¼ÐµÑģÑĤÐµ": 5439,
      "ĠÑħÐ¸Ð¼": 5440,
      "Ġdoc": 5441,
      "ĠÐ¾Ð´Ð½Ð¾": 5442,
      "Ġallowed": 5443,
      "ĠLou": 5444,
      "Ġreferred": 5445,
      "ĠÐ¼ÑĭÑģ": 5446,
      "Ġgave": 5447,
      "Ġable": 5448,
      "ĠÐ¿Ð¾Ð±ÐµÑĢÐµÐ¶": 5449,
      "Ġremained": 5450,
      "ĠAlthough": 5451,
      "ĠÐ¸ÑģÐ¿Ð¾Ð»ÑĮÐ·ÑĥÐµÑĤÑģÑı": 5452,
      "Ġannounced": 5453,
      "iting": 5454,
      "uries": 5455,
      "Ð¾Ð·Ð°": 5456,
      "Ġste": 5457,
      "ĠÐ¾Ð¿ÑĥÐ±Ð»Ð¸ÐºÐ¾Ð²": 5458,
      "ĠÑĩÐ¸ÑģÐ»Ð°": 5459,
      "ĠÑģÐ¾ÑĤÑĢÑĥÐ´": 5460,
      "Ġmission": 5461,
      "ĠÑĤÐ°ÐºÐ¸Ðµ": 5462,
      "ĠÑģÑĥÑīÐµÑģÑĤÐ²Ð¾Ð²": 5463,
      "ael": 5464,
      "ÑĢÐ°Ð»": 5465,
      "ĠÐ¿Ð¾Ð»Ð½Ð¾ÑģÑĤÑĮÑİ": 5466,
      "ocr": 5467,
      "Ġneg": 5468,
      "ĠÐ¿Ð¾Ð²ÐµÑĢÑħ": 5469,
      "ĠWhile": 5470,
      "Ġbrother": 5471,
      "Ð¼Ð°ÑĢ": 5472,
      "Ġser": 5473,
      "Ð±Ð¸": 5474,
      "ĠÐ¾ÑĤÐºÐ°Ð·": 5475,
      "ĠNo": 5476,
      "Ġnovel": 5477,
      "Ð¾Ð´ÐµÐ¹ÑģÑĤÐ²": 5478,
      "ĠÐ³Ð¾ÑģÑĥÐ´Ð°ÑĢÑģÑĤÐ²Ð¾": 5479,
      "Ġproducer": 5480,
      "oses": 5481,
      "ĠÐ²ÑĭÑħÐ¾Ð´": 5482,
      "oe": 5483,
      "Ġtrib": 5484,
      "ream": 5485,
      "Ġsite": 5486,
      "Ġapprox": 5487,
      "Ð¼Ð¾": 5488,
      "Ð°Ð½ÑģÐºÐ¾Ð¹": 5489,
      "Ġnames": 5490,
      "ĠÐ°ÑģÑĤÑĢÐ¾Ð½Ð¾Ð¼": 5491,
      "vironment": 5492,
      "33": 5493,
      "Ð°Ð¹Ð´Ð¶": 5494,
      "ÑĢÐµÑģ": 5495,
      "ĠÐľÐ¾Ð»": 5496,
      "ĠÐ¤Ð¸Ð»Ð¸": 5497,
      "ĠFrank": 5498,
      "ĠÐ¶Ð¸Ð²Ð¾ÑĤ": 5499,
      "ĠÐľÐ¸Ð½": 5500,
      "Ġuses": 5501,
      "Ġinteg": 5502,
      "Ġexec": 5503,
      "Ġfilms": 5504,
      "ĠISBN": 5505,
      "Am": 5506,
      "ĠZe": 5507,
      "Ð²Ð°ÐµÑĤ": 5508,
      "ĠÐĿÐµ": 5509,
      "ĠÐļÐ¾Ð½ÑģÑĤÐ¸ÑĤÑĥ": 5510,
      "ĠBur": 5511,
      "ĠÐ±ÑĢÐ¸ÑĤÐ°Ð½ÑģÐºÐ¸Ð¹": 5512,
      "ĠRobert": 5513,
      "Ġcirc": 5514,
      "ĠCharles": 5515,
      "Ġnorm": 5516,
      "There": 5517,
      "clus": 5518,
      "ĠVol": 5519,
      "ÐµÑĢÐ±Ð°Ð¹Ð´Ð¶": 5520,
      "Î½": 5521,
      "Ġdomin": 5522,
      "ÑģÑĤÐ²ÐµÐ½Ð½Ð°Ñı": 5523,
      "Ġanti": 5524,
      "ĠÑĢÐ°Ð±Ð¾Ñĩ": 5525,
      "Ġ().": 5526,
      "ĠPat": 5527,
      "ÑģÑĤÐ²ÐµÐ½Ð½ÑĭÐ¼": 5528,
      "Ġ1947": 5529,
      "Ġcommunity": 5530,
      "Ġparticularly": 5531,
      "not": 5532,
      "ĠRoyal": 5533,
      "ibility": 5534,
      "Ġcritic": 5535,
      "ÐŀÑģÐ½Ð¾Ð²": 5536,
      "ĠÐ¼Ð¾Ð¼ÐµÐ½ÑĤ": 5537,
      "Ð³Ð»Ð°Ð²": 5538,
      "Ð¸Ð¼Ð°": 5539,
      "Ð¸ÑĩÐ°": 5540,
      "Ġfeatures": 5541,
      "ĠÐºÐ°ÑĢÑĤ": 5542,
      "Ð½Ð¸Ñİ": 5543,
      "ĠArmen": 5544,
      "ĠÐ¾Ð´Ð½Ð¾Ð³Ð¾": 5545,
      "ĠQu": 5546,
      "Ġnuc": 5547,
      "ĠÐķÐºÐ°ÑĤÐµÑĢ": 5548,
      "Ġi": 5549,
      "ĠCong": 5550,
      "ĠÑĢÑĥÐ±": 5551,
      "ĠÐ·Ð°Ð²Ð¾Ð´": 5552,
      "ĠÐ¿ÑĢÐµÐ·Ð¸Ð´ÐµÐ½ÑĤÐ¾Ð¼": 5553,
      "ĠÐ³ÑĢÑĥÐ·": 5554,
      "ĠGro": 5555,
      "ulture": 5556,
      "Ð¿ÑĤ": 5557,
      "ĠÑĤÐ¾Ð¿": 5558,
      "Ġdifficult": 5559,
      "sen": 5560,
      "Ġcost": 5561,
      "Ġord": 5562,
      "ĠÐ¾Ð±ÑĢÐ°Ð·Ð¾Ð²Ð°Ð½Ð¸Ñı": 5563,
      "ĠÐ¼ÐµÑĤÐ°Ð»": 5564,
      "ĠÐ³ÑĢÐµÑĩÐµ": 5565,
      "Ð¶Ð°": 5566,
      "ĠPri": 5567,
      "ĠÐ»ÑĥÑĩ": 5568,
      "Ġwhite": 5569,
      "ĠÐ°Ð²ÑĤÐ¾Ð¼Ð¾Ð±": 5570,
      "ÑĳÑĤÑĢ": 5571,
      "Ġjournal": 5572,
      "45": 5573,
      "Ġreb": 5574,
      "ĠÐĴÐ¾Ð»": 5575,
      "ĠSte": 5576,
      "ĠÐ¿Ð¾ÑģÐ»ÐµÐ´Ð¾Ð²": 5577,
      "Ġconsider": 5578,
      "Ġtraditional": 5579,
      "Ġachie": 5580,
      "Ð¸Ð¼ÐµÐ½": 5581,
      "Ġdeg": 5582,
      "Ð¸ÑĨÐ¸Ñı": 5583,
      "ĠÐ¿ÐµÑĢÐ²ÑĭÐ¼": 5584,
      "ĠReg": 5585,
      "Ġfoc": 5586,
      "ĠÑģÐ¾Ð²ÐµÑĤÑģÐºÐ°Ñı": 5587,
      "Ġincludes": 5588,
      "inese": 5589,
      "Ð³Ð¾Ð´Ð°ÑĢÑı": 5590,
      "ĠÐ»Ð¸ÑĤÐµÑĢÐ°ÑĤÑĥÑĢ": 5591,
      "Ġkilled": 5592,
      "osition": 5593,
      "rial": 5594,
      "ĠÐ´ÐµÑģÑıÑĤ": 5595,
      "Ġservices": 5596,
      "Ġhit": 5597,
      "atives": 5598,
      "ĠGeneral": 5599,
      "ĠÐĶÐ¼Ð¸ÑĤ": 5600,
      "Ġalc": 5601,
      "Ġestim": 5602,
      "Ð®": 5603,
      "ÑĢÑİ": 5604,
      "Ð·ÐµÐ¼": 5605,
      "Ġpast": 5606,
      "ĠSer": 5607,
      "Ð°ÑģÑĤÑĭ": 5608,
      "ĠÑĨÐµÐ½ÑĤÑĢ": 5609,
      "ĠÐºÐ¾ÑĢÐ¾Ð»Ñı": 5610,
      "Ġindustry": 5611,
      "Ð³Ð³": 5612,
      "ĠMart": 5613,
      "ĠÐ¾Ð±Ð»Ð°ÑģÑĤÑĮ": 5614,
      "Ġ1961": 5615,
      "ĠSchool": 5616,
      "ĠÐ½ÐµÐ±Ð¾Ð»ÑĮÑĪ": 5617,
      "ĠÑĤÐ²Ð¾ÑĢ": 5618,
      "Ð½ÐµÑĩ": 5619,
      "ĠÐ¿ÐµÑĢÐ²Ð¾Ð³Ð¾": 5620,
      "Ġsources": 5621,
      "ÑģÑĤÐ²Ð¸Ð¸": 5622,
      "ĠMy": 5623,
      "ĠÐĵÐµÐ¾ÑĢ": 5624,
      "Ġexperim": 5625,
      "Ġborn": 5626,
      "ĠÐŁÐ¾ÑĢ": 5627,
      "ĠÐ»Ð¸ÑĨ": 5628,
      "Ġrate": 5629,
      "Ġbelieved": 5630,
      "%),": 5631,
      "ĠÑĤÐ¾ÑĤ": 5632,
      "Ð¸Ð²Ð°ÐµÑĤÑģÑı": 5633,
      "Ġscreen": 5634,
      "orph": 5635,
      "ĠÑĤÐ¾Ð½": 5636,
      "Ġaway": 5637,
      "Ð´Ð°Ð¼": 5638,
      "Ġarr": 5639,
      "Ġyoung": 5640,
      "Ġknow": 5641,
      "istry": 5642,
      "Ð°Ð½Ð´Ð°ÑĢÑĤ": 5643,
      "ĠÑĩÐµÐ¼Ð¿Ð¸Ð¾Ð½ÐºÐ°": 5644,
      "Ġtitle": 5645,
      "ras": 5646,
      "atal": 5647,
      "ĠÑģÐµÑĤ": 5648,
      "Ð°ÑĤÑĢÐ¸": 5649,
      "oul": 5650,
      "ĠSam": 5651,
      "Ð°ÑĨÐ¸Ñı": 5652,
      "ĠÑĤÐ°Ð½": 5653,
      "Â»),": 5654,
      "ĠÑģÑĤÐ°Ð²": 5655,
      "ĠBritain": 5656,
      "Ð¾Ð¿Ð¾Ð»Ð¾Ð¶": 5657,
      "Ġ)": 5658,
      "Ġten": 5659,
      "ĠÑģÐ¾Ð³Ð»Ð°Ñģ": 5660,
      "Ġwent": 5661,
      "ÑĢÑĭÐ²": 5662,
      "ĠÑĦÐ¸Ð»ÑĮÐ¼": 5663,
      "ĠĠĠ": 5664,
      "ĠÑĤÐµÐ»ÐµÐ²Ð¸Ð´": 5665,
      "Ġsymb": 5666,
      "ibrary": 5667,
      "ĠRed": 5668,
      "Ġmoved": 5669,
      "ores": 5670,
      "Ġ1946": 5671,
      "ĠÑĩÐ¸ÑģÐ»ÐµÐ½": 5672,
      "ĠÐĿÐ°ÑĢÐ¾Ð´": 5673,
      "Ġ1963": 5674,
      "ola": 5675,
      "Ġpercent": 5676,
      "Ġtrade": 5677,
      "ĠÐ¾ÑģÐ²Ð¾Ð±": 5678,
      "ÑīÐ¸Ðº": 5679,
      "ĠÑģÑĬ": 5680,
      "Ġcross": 5681,
      "Ġput": 5682,
      "ament": 5683,
      "ĠColle": 5684,
      "63": 5685,
      "mar": 5686,
      "ĠÐ¼Ð¾Ñī": 5687,
      "Ð»ÐµÐ²": 5688,
      "ĠBulg": 5689,
      "ĠHistory": 5690,
      "Ġ150": 5691,
      "ĠÑĩÐµÐ»Ð¾Ð²ÐµÑĩÐµ": 5692,
      "ĠÐĵÐµÑĢÐ¾Ð¹": 5693,
      "88": 5694,
      "oice": 5695,
      "ÑģÐ¼": 5696,
      "ĠÑģÐ¾Ð³Ð»Ð°ÑģÐ½Ð¾": 5697,
      "Ð»Ð¸Ð¶": 5698,
      "rol": 5699,
      "ĠÐ¾ÑĤÑģÑĥÑĤÑģÑĤÐ²": 5700,
      "ĠÑĢÐ°Ð¹Ð¾Ð½Ðµ": 5701,
      "ror": 5702,
      "ĠÐ´ÐµÑıÑĤÐµÐ»ÑĮÐ½Ð¾ÑģÑĤÐ¸": 5703,
      "Ġlarger": 5704,
      "Ġcoll": 5705,
      "Ġnorthern": 5706,
      "Ġeventually": 5707,
      "van": 5708,
      "Ð»Ð»Ð¸": 5709,
      "icles": 5710,
      "Ġmach": 5711,
      "ĠCoun": 5712,
      "ĠÑĢÐµÑĦÐ¾ÑĢÐ¼": 5713,
      "ĠÑĢÐ°Ð·Ð²Ð¸ÑĤÐ¸Ðµ": 5714,
      "ĠÑĤÐ°Ð¼": 5715,
      "ĠIm": 5716,
      "ĠÐĿÐ°Ñĩ": 5717,
      "ires": 5718,
      "rim": 5719,
      "ĠÐ½Ð¾Ñģ": 5720,
      "rown": 5721,
      "ĠDem": 5722,
      "ĠÐ¡Ð¾Ð²ÐµÑĤÑģÐºÐ¾Ð³Ð¾": 5723,
      "ÐµÑĪÐµ": 5724,
      "ourt": 5725,
      "ĠÐķÐ³Ð¾": 5726,
      "Ġclose": 5727,
      "hips": 5728,
      "ĠÐ²ÐµÐºÐµ": 5729,
      "Ġleading": 5730,
      "ĠÐķÐ³Ð¸Ð¿": 5731,
      "oney": 5732,
      "arliam": 5733,
      "ĠÐ²ÐµÐ»Ð¸": 5734,
      "omas": 5735,
      "ĠAsia": 5736,
      "Ġserved": 5737,
      "Â²": 5738,
      "ĠÑģÑĢÐ°Ð²Ð½": 5739,
      "ĠÐĹÐ°": 5740,
      "ĠMuseum": 5741,
      "Ð¼Ð¾ÑĤÑĢÑı": 5742,
      "ÐµÑĢÐ°Ð½": 5743,
      "ĠBas": 5744,
      "ĠÐ´ÐµÐ»": 5745,
      "Ġ1922": 5746,
      "ÑĪÐµÐ¼": 5747,
      "ĠÐ±Ð°Ð»": 5748,
      "Ġmaint": 5749,
      "ulated": 5750,
      "Ġconcern": 5751,
      "Ð°ÑĤÐµÐ»ÐµÐ¼": 5752,
      "Ġlog": 5753,
      "ĠÐ¿ÑĢÐ°Ð²Ð¾": 5754,
      "Ġsource": 5755,
      "ij": 5756,
      "ÑĤÑĭÑģ": 5757,
      "ÑħÐ¾Ð²": 5758,
      "Ġmight": 5759,
      "ĠÐĺÐ¾Ð°Ð½": 5760,
      "ÑĢÐ¾ÑĤÐ¸Ð²": 5761,
      "32": 5762,
      "rate": 5763,
      "ÐµÑĢÐ¾Ð¼": 5764,
      "utions": 5765,
      "Ġstarted": 5766,
      "eleb": 5767,
      "ĠÐ»Ð¸Ð±Ð¾": 5768,
      "based": 5769,
      "Ġstri": 5770,
      "Ġviol": 5771,
      "ĠÐ¿ÑĢÐ°Ð²Ð¾ÑģÐ»Ð°Ð²": 5772,
      "ĠÐ½Ð°ÑĩÐ¸Ð½Ð°": 5773,
      "ÑģÐºÐ¸": 5774,
      "Ð°Ð½Ð¸": 5775,
      "aching": 5776,
      "ĠÐ½ÐµÐ·Ð°Ð²Ð¸ÑģÐ¸Ð¼Ð¾ÑģÑĤÑĮ": 5777,
      "burg": 5778,
      "ĠÐ±ÐµÑģÐ¿": 5779,
      "ĠWe": 5780,
      "ĠIslam": 5781,
      "ĠAfghan": 5782,
      "ĠÐ¿Ð¾ÑĤÑĢÐµÐ±": 5783,
      "Ð¡ÐºÐ¾Ð½Ñĩ": 5784,
      "nel": 5785,
      "ĠSl": 5786,
      "54": 5787,
      "Ð½Ð¾Ð³": 5788,
      "ĠÐ¤Ð¸Ð½": 5789,
      "Ð¸Ð¼Ð¾": 5790,
      "istics": 5791,
      "ĠÐ¿ÑĢÐ¸Ð±": 5792,
      "ÑĥÐ»ÑĮÐ¿": 5793,
      "ĠÐķÐ²ÑĢÐ¾Ð¿Ðµ": 5794,
      "Ġess": 5795,
      "ÑĤÑĢÐ¸": 5796,
      "ĠÐ±Ð¸Ð±Ð»Ð¸Ð¾ÑĤ": 5797,
      "Ġchurch": 5798,
      "ĠÐŁÐµÑĤÑĢÐ°": 5799,
      "Ġeffects": 5800,
      "cast": 5801,
      "Ġreturned": 5802,
      "ĠÑģÐ¾ÑĩÐ¸Ð½": 5803,
      "uff": 5804,
      "Ġoil": 5805,
      "Ð³Ð»Ñı": 5806,
      "ĠÐ¿ÐµÑĢÐµÐ¼": 5807,
      "At": 5808,
      "Ð¾Ð½Ð°Ñĩ": 5809,
      "ĠÐ½Ð°Ð±Ð»ÑİÐ´": 5810,
      "Ð°ÑĨÐ¸Ð¾Ð½": 5811,
      "ilities": 5812,
      "Ġconduct": 5813,
      "ĠÑĩÐµÐ³Ð¾": 5814,
      "ĠÐ¿ÑĢÐ°Ð²Ð°": 5815,
      "ÑĦÐ¸ÑĨÐ¸": 5816,
      "ĠÑĢÐµÐ²Ð¾Ð»ÑİÑĨÐ¸Ð¸": 5817,
      "Ġ170": 5818,
      "Ġcommonly": 5819,
      "now": 5820,
      "Ġgun": 5821,
      "Ġcommercial": 5822,
      "Ġmeet": 5823,
      "year": 5824,
      "ĠÑĥÐ¼ÐµÑĢ": 5825,
      "ÐµÐ¹Ð¼": 5826,
      "ĠÑĨÐµÐ»ÑĮ": 5827,
      "Ð£Ð¼ÐµÑĢ": 5828,
      "ĠÐ¸Ð·Ð¾Ð±ÑĢÐµÑĤ": 5829,
      "ributed": 5830,
      "Î¹": 5831,
      "ĠÑĨÐ¸": 5832,
      "ĠÑĥÐ·": 5833,
      "ĠÐ¿ÑĢÐ¸Ñĩ": 5834,
      "ÐŁÐ¾ÑģÐ»Ðµ": 5835,
      "ĠÑĨÐµÐ½": 5836,
      "ĠÐŃÑĤ": 5837,
      "Ġrights": 5838,
      "Ġver": 5839,
      "ÑĥÐ¶Ð´": 5840,
      "ĠÑģÑĥÑīÐµ": 5841,
      "Ġcases": 5842,
      "ston": 5843,
      "ĠList": 5844,
      "ÑĢÑĥÐ¿Ð¿Ð°": 5845,
      "Ġspecific": 5846,
      "Ġprovide": 5847,
      "ĠÑĨÐµÐ½ÑĤÑĢÐ°Ð»ÑĮ": 5848,
      "ength": 5849,
      "ini": 5850,
      "Ġsaw": 5851,
      "Ð¾Ð»Ñİ": 5852,
      "ÐµÐ¼ÑĭÑħ": 5853,
      "ĠGovern": 5854,
      "ĠInstit": 5855,
      "Ġrock": 5856,
      "Ġpred": 5857,
      "ĠÐ½Ð°ÑģÐ»ÐµÐ´": 5858,
      "ĠTo": 5859,
      "ctor": 5860,
      "Ġ2023": 5861,
      "ĠÐ¿ÑĢÐµÐ¿Ð¾Ð´Ð¾Ð±": 5862,
      "Ð¡ÐºÐ¾Ð½ÑĩÐ°Ð»Ð¸ÑģÑĮ": 5863,
      "ÑģÐ²": 5864,
      "ĠÑħÐ¸Ð¼Ð¸ÑĩÐµ": 5865,
      "Ġadminist": 5866,
      "ĠÐ³Ð¾ÑĢÐ¾Ð´Ð¾Ð²": 5867,
      "ĠÑĥÑĩÑĳÐ½ÑĭÐ¹": 5868,
      "ĠÐĴÐ°ÑģÐ¸Ð»Ð¸": 5869,
      "En": 5870,
      "iot": 5871,
      "ÑĩÐµÐ±": 5872,
      "ĠÐľÐ°ÑĤ": 5873,
      "Ð¸ÑĩÐµÑģÐºÐ¸Ð¼Ð¸": 5874,
      "lier": 5875,
      "ĠÐµÑģÑĤÐµ": 5876,
      "ĠÑĢÐ°Ð·Ð±": 5877,
      "ĠÐ¿ÐµÑĢÐµÑħÐ¾Ð´": 5878,
      "ĠParty": 5879,
      "ÑģÐ¾Ð»": 5880,
      "omy": 5881,
      "ĠTr": 5882,
      "ĠJer": 5883,
      "Ð¸ÑĨÐµÐ¹": 5884,
      "Ġinterp": 5885,
      "Ġrespons": 5886,
      "ÑĮÐµÑĤ": 5887,
      "Ð¾Ð´Ð°ÑĤÐµÐ»ÑĮ": 5888,
      "ĠÐ¿Ð¾Ñį": 5889,
      "Ġrequired": 5890,
      "cher": 5891,
      "ÑĢÐ¸Ð³": 5892,
      "ĠÐŀÑģÑĤ": 5893,
      "ĠÐŃÑĢ": 5894,
      "Ġ1938": 5895,
      "ĠÐĺÐ·ÑĢÐ°": 5896,
      "Ġlikely": 5897,
      "za": 5898,
      "ÑĩÐµÐ²": 5899,
      "Ġ1925": 5900,
      "ĠÐ¡ÐµÑĢÐ³ÐµÐ¹": 5901,
      "arliament": 5902,
      "ÑĢÐ°ÑĨÐ¸Ð¸": 5903,
      "Ġbrought": 5904,
      "ĠÐ¾ÑģÐ½Ð¾Ð²Ð°ÑĤÐµÐ»ÑĮ": 5905,
      "ĠÐºÐ¾Ð¼Ð¿Ð°Ð½Ð¸Ð¸": 5906,
      "ĠÐ·Ð½Ð°ÑĩÐµÐ½Ð¸Ðµ": 5907,
      "ĠÐ°ÑĢÐ¼Ð¸Ñı": 5908,
      "ĠÐ²ÑĭÐ±Ð¾ÑĢÑĭ": 5909,
      "ĠÐºÐ¸ÑģÐ»Ð¾ÑĤ": 5910,
      "ĠÑĢÐµÑĪÐµÐ½Ð¸Ðµ": 5911,
      "ĠÐ·Ð°Ð³": 5912,
      "ĠÐŁÑĢÐµÐ·Ð¸Ð´ÐµÐ½ÑĤ": 5913,
      "upp": 5914,
      "ÑĢÐ°ÑĤÐ°": 5915,
      "ĠÑģÑĩÑĳÑĤ": 5916,
      "uture": 5917,
      "Ġtarg": 5918,
      "ÐµÐ½Ð½": 5919,
      "Ð°Ð½Ð¾Ð¼": 5920,
      "Ġlack": 5921,
      "Ġrule": 5922,
      "Ġelection": 5923,
      "Ð¸ÑĦÐ¸ÐºÐ°": 5924,
      "ĠÐŁÑĳÑĤÑĢ": 5925,
      "ĠÐĽÐ¸Ð²": 5926,
      "ĠÐ²Ð¾Ð·ÑĢÐ°ÑģÑĤ": 5927,
      "Ġrail": 5928,
      "ĠCont": 5929,
      "ĠÐ¿Ð»Ð¾ÑīÐ°Ð´Ð¸": 5930,
      "ÑĭÐ¿": 5931,
      "ĠÐľÐ°Ð¹": 5932,
      "Ġ35": 5933,
      "arent": 5934,
      "Ġprovided": 5935,
      "ÐłÐ¾Ð´Ð¸Ð»Ð¸ÑģÑĮ": 5936,
      "ĠÐ°Ðº": 5937,
      "ĠÐ¾Ð±Ð»Ð°": 5938,
      "ĠÐ°Ð½Ð³": 5939,
      "...": 5940,
      "reme": 5941,
      "pro": 5942,
      "Ġax": 5943,
      "ÑĢÑĥÑģ": 5944,
      "Ġleaders": 5945,
      "ĠÐ²Ð¸Ð´Ð¾Ð²": 5946,
      "ĠÑĢÐµÐ²Ð¾Ð»ÑİÑĨÐ¸Ð¾Ð½": 5947,
      "ĠBerlin": 5948,
      "ĠÐ¾Ð±ÑĭÑĩÐ½Ð¾": 5949,
      "ufact": 5950,
      "Ġcities": 5951,
      "Ġdaugh": 5952,
      "ĠHigh": 5953,
      "ĠÐ¸Ð½ÑĤÐµÑĢÐµÑģ": 5954,
      "Ġfle": 5955,
      "irit": 5956,
      "ĠÑģÐ°Ð¼ÑĭÑħ": 5957,
      "ĠÐ¿Ð¾ÑģÑĤÐ°Ð²": 5958,
      "ĠÐ¿Ð¾Ð»Ð¸ÑĤÐ¸ÑĩÐµÑģÐºÐ¸Ð¹": 5959,
      "Ð¼Ð¸Ð½Ð¸ÑģÑĤÑĢ": 5960,
      "Ġsal": 5961,
      "Ð°ÑĤÐ¾Ð¼": 5962,
      "Ġapplic": 5963,
      "ĠÐĺÑģÐ¿Ð°Ð½Ð¸Ð¸": 5964,
      "ĊĊĠ": 5965,
      "ĠÐłÐ°Ð·": 5966,
      "ĠÑģÐ¾ÑģÑĤÐ°Ð²Ðµ": 5967,
      "Ġincrease": 5968,
      "Ġnature": 5969,
      "Ġ1948": 5970,
      "Ġ1937": 5971,
      "Ġsubsequ": 5972,
      "ĠArabic": 5973,
      "Ġwidely": 5974,
      "ĠAS": 5975,
      "Ð°Ð²ÑĪÐ¸Ñħ": 5976,
      "ÐºÐ¾Ð²Ð°": 5977,
      "Ġsqu": 5978,
      "itor": 5979,
      "ĠÐĽÐ°ÑĤ": 5980,
      "ĠÐĽÐ¸ÑĤ": 5981,
      "Ġtransport": 5982,
      "ederal": 5983,
      "68": 5984,
      "ÑĢÐ°Ð½Ð°": 5985,
      "Ð¼Ð»ÑĢÐ´": 5986,
      "ÐŁÐµÑĤÐµÑĢÐ±ÑĥÑĢÐ³": 5987,
      "Ð£Ð¼ÐµÑĢÑĪÐ¸Ðµ": 5988,
      "ĠÐ³Ð¸Ð´": 5989,
      "Ġeast": 5990,
      "Ð²Ð°Ð´": 5991,
      "Ġris": 5992,
      "Ġtypically": 5993,
      "ĠÑģÐ°Ð¼Ð¾": 5994,
      "Ġ1958": 5995,
      "ĠÐºÐ¸ÑĤÐ°Ð¹": 5996,
      "ĠÐ¾ÑĤÐ¼ÐµÐ½": 5997,
      "aval": 5998,
      "ĠÐ¿Ð¾Ð»Ñĥ": 5999,
      "ĠÐ²ÑģÐµÐ¹": 6000,
      "ĠÐ½Ð°ÑĥÐºÐ¸": 6001,
      "ĠÐ²ÐµÑģ": 6002,
      "ĠÐŁÐ°Ð¼": 6003,
      "Ġalg": 6004,
      "ÐµÐ½Ð¸ÑıÑħ": 6005,
      "ĠÐĲÐ»ÐµÐºÑģÐ°Ð½Ð´ÑĢÐ°": 6006,
      "Ġtypes": 6007,
      "Ġcause": 6008,
      "ĠÐ´ÑĥÑĪ": 6009,
      "Ġdial": 6010,
      "ĠÐļÐ°Ð»Ð¸Ð½": 6011,
      "Ġmanufact": 6012,
      "Ġ1957": 6013,
      "Ġadded": 6014,
      "ĠCanada": 6015,
      "ĠÐ½Ð°Ð·ÑĭÐ²": 6016,
      "ÑĢÐ°ÑĤÑĮ": 6017,
      "ĠÐ¼Ð½ÐµÐ½Ð¸Ñİ": 6018,
      "ĠÐ¿Ð°ÑĢÑĤÐ¸Ð¹": 6019,
      "39": 6020,
      "unar": 6021,
      "ĠÐ¾Ð±ÑĢÐ°Ñī": 6022,
      "ĠÐ´Ð¾Ð»Ð»Ð°": 6023,
      "ĠÑĥÑģÑĤÑĢÐ¾Ð¹": 6024,
      "ÐĹÐ°": 6025,
      "Ġincreasing": 6026,
      "Ð¾ÑģÑĤÐ¾ÐºÐµ": 6027,
      "ĠÑģÑĦÐ¾ÑĢÐ¼Ð¸ÑĢÐ¾Ð²": 6028,
      "iding": 6029,
      "ĠÐ³Ð¾ÑģÑĥÐ´Ð°ÑĢÑģÑĤÐ²": 6030,
      "ÑĤÐ¾Ð½Ð¾Ð¼": 6031,
      "ĠMany": 6032,
      "ĠÐ¿ÑĢÐ¾Ð¶": 6033,
      "ĠÐľÐ¾ÑĢ": 6034,
      "Ġhealth": 6035,
      "elled": 6036,
      "Ġremains": 6037,
      "ÑĩÐ¸ÑģÐ»ÐµÐ½": 6038,
      "Ð²Ð°ÐµÑĤÑģÑı": 6039,
      "ĠÐĹÐµÐ¼Ð»Ð¸": 6040,
      "Ġgrowth": 6041,
      "Ð¾ÑģÐ»ÐµÐ´ÑģÑĤÐ²Ð¸Ð¸": 6042,
      "Ġtax": 6043,
      "ĠÐļÐŁ": 6044,
      "ills": 6045,
      "onds": 6046,
      "ĠÐ¿ÐµÑģÐµÐ½": 6047,
      "ĠÐ¿ÑĢÐ¾Ð±Ð»Ðµ": 6048,
      "Ġindividual": 6049,
      "85": 6050,
      "Ġlay": 6051,
      "ĠMost": 6052,
      "ĠÐĶÐ¾Ð½": 6053,
      "ĠÐ¼ÑĥÐ·ÑĭÐºÐ°Ð»ÑĮ": 6054,
      "ĠÐ»Ð¸Ð´ÐµÑĢ": 6055,
      "Ġrecorded": 6056,
      "Ġlittle": 6057,
      "ĠÐ¶ÐµÐ»ÐµÐ·Ð½Ð¾Ð´Ð¾ÑĢÐ¾Ð¶": 6058,
      "Ġur": 6059,
      "Ð½ÑıÑĤ": 6060,
      "ÑĥÑĢÑĥ": 6061,
      "ÑģÐºÐ¾Ð²": 6062,
      "Ġ1929": 6063,
      "Ð¼ÑĥÐ½Ð¸ÑģÑĤ": 6064,
      "62": 6065,
      "atch": 6066,
      "Ġvir": 6067,
      "resp": 6068,
      "ĠÑģÐ°Ð¼Ð¾Ð»ÑĳÑĤ": 6069,
      "ĠÑģÐ²Ð¾Ñĳ": 6070,
      "ĠÐºÑĢÐ°Ð¹": 6071,
      "lo": 6072,
      "ÐºÑĥÐ¿": 6073,
      "Ġsouthern": 6074,
      "ĠTrans": 6075,
      "ĠÑĢÐ°Ð¼": 6076,
      "ĠFre": 6077,
      "ĠÑģÐ¾ÑĨÐ¸": 6078,
      "ĠÐºÐ¸Ð½Ð¾Ð°ÐºÑĤ": 6079,
      "ĠÐ¼Ð¾Ð»Ð¾Ð´": 6080,
      "Ġcaused": 6081,
      "34": 6082,
      "ÑİÑīÐ°Ñı": 6083,
      "Ġscience": 6084,
      "ĠÐ¿Ð¾Ð³Ð¸Ð±Ð»Ð¸": 6085,
      "ÑĮÐ¸": 6086,
      "ÐµÐ½Ð¸ÑıÐ¼Ð¸": 6087,
      "icient": 6088,
      "ĠChina": 6089,
      "ĠÑħÑĥÐ´Ð¾Ð¶Ðµ": 6090,
      "Ð½Ð¸Ð¸": 6091,
      "Ð»Ð¸ÐºÑĤ": 6092,
      "ĠDan": 6093,
      "ĠÐĺÑģÑĤ": 6094,
      "ĠÐ¿ÑĢÐµÐ´Ð¾ÑģÑĤÐ°Ð²": 6095,
      "ference": 6096,
      "Ġconditions": 6097,
      "NA": 6098,
      "ÐºÐ¸Ð¼": 6099,
      "Ð¾Ð»Ð¸": 6100,
      "ĠÐ¼Ð°ÑģÑĤ": 6101,
      "ago": 6102,
      "ĠÑĢÑı": 6103,
      "Ð°Ð½Ð¸ÐµÐ¹": 6104,
      "Ġjud": 6105,
      "omer": 6106,
      "Ġ1926": 6107,
      "Ġmonths": 6108,
      "ĠÐ·Ð°Ð½Ñı": 6109,
      "Ġcontinu": 6110,
      "known": 6111,
      "ĠHenry": 6112,
      "ĠÐ¼ÑĥÑĩÐµÐ½": 6113,
      "ĠÐ¿Ð¾Ð½Ð¸Ð¼": 6114,
      "31": 6115,
      "Ġself": 6116,
      "Ġpen": 6117,
      "Ġhon": 6118,
      "ĠÐļÑĢÐ¾Ð¼Ðµ": 6119,
      "ÐºÐ°Ð¼": 6120,
      "Ð°Ð¼ÐµÑĢ": 6121,
      "ĠFirst": 6122,
      "Ġeducation": 6123,
      "ened": 6124,
      "ÑħÐ°": 6125,
      "Ġclear": 6126,
      "odern": 6127,
      "Ġoutside": 6128,
      "ĠÐĲÑĢÐ¼": 6129,
      "Ġfa": 6130,
      "wood": 6131,
      "ÑĢÐµÐ³": 6132,
      "ĠIf": 6133,
      "ĠÐ¿Ð¾ÑģÐ²": 6134,
      "ĠÐ¿ÑĢÐ¾ÑĤÐµÑģÑĤ": 6135,
      "axim": 6136,
      "Ġeffort": 6137,
      "ĠPortug": 6138,
      "ĠÐ°Ð·": 6139,
      "ĠÐ³ÐµÑĢÑĨÐ¾Ð³": 6140,
      "Ġcompanies": 6141,
      "ĠÐĵÐµÐ¾ÑĢÐ³": 6142,
      "49": 6143,
      "Ġinstit": 6144,
      "ĠMinister": 6145,
      "ĠÐĺÑĤÐ°Ð»Ð¸Ð¸": 6146,
      "ĠÐ°Ð´Ð¼Ð¸Ð½Ð¸ÑģÑĤÑĢÐ°ÑĤÐ¸Ð²": 6147,
      "Ġsea": 6148,
      "ÑĢÐ¾ÑĦ": 6149,
      "Ġ1956": 6150,
      "ÑĥÐ»Ð¸ÑĢÐ¾Ð²": 6151,
      "After": 6152,
      "ya": 6153,
      "itar": 6154,
      "Ġmag": 6155,
      "Ġ1900": 6156,
      "Ġlive": 6157,
      "ĠÐ´Ð²Ðµ": 6158,
      "ÑĢÐ°Ðº": 6159,
      "ett": 6160,
      "ĠÐĲÑĢÐ¸ÑģÑĤ": 6161,
      "Ð°Ð¹ÑĤ": 6162,
      "Ġquest": 6163,
      "Ġwriting": 6164,
      "ĠÐ½ÐµÑģÐºÐ¾Ð»ÑĮ": 6165,
      "ĠÐ½ÐµÐ·Ð°Ð²Ð¸ÑģÐ¸Ð¼Ð¾ÑģÑĤÐ¸": 6166,
      "gian": 6167,
      "Ġfight": 6168,
      "ĠCa": 6169,
      "ands": 6170,
      "Ġinterest": 6171,
      "Ġdefin": 6172,
      "Ġ;": 6173,
      "Ð¾ÑĤÐ²Ð¾ÑĢ": 6174,
      "Ġveh": 6175,
      "Ð½Ð¸ÑĩÐµ": 6176,
      "Ġaud": 6177,
      "Ġ1921": 6178,
      "ĠÐ²ÐµÐ»Ð¸Ðº": 6179,
      "Ð¾Ð»Ð°Ð³": 6180,
      "ĠÐºÑĥÐ»ÑĮ": 6181,
      "ĠÐ¶Ð¸ÑĤÐµÐ»ÐµÐ¹": 6182,
      "Ġbirth": 6183,
      "38": 6184,
      "XIX": 6185,
      "rig": 6186,
      "ĠÑģÑĢÐ¾Ðº": 6187,
      "Ġhom": 6188,
      "ĠÐ¿ÑĢÐ¸ÑħÐ¾Ð´": 6189,
      "throp": 6190,
      "ĠÐ¿ÑĢÐµÑģÑĤ": 6191,
      "ĠÐ¾ÑģÐ½Ð¾Ð²Ð°Ð½": 6192,
      "Ġmechan": 6193,
      "ĠÐ¸ÑģÑģÐ»ÐµÐ´Ð¾Ð²Ð°Ð½Ð¸Ñı": 6194,
      "ĠRepublic": 6195,
      "ection": 6196,
      "ÑĤÐµÐ½": 6197,
      "uted": 6198,
      "Ġparticip": 6199,
      "72": 6200,
      "ki": 6201,
      "ÑĥÑĢÐ¸": 6202,
      "Ġsound": 6203,
      "ĠÐłÐ¤": 6204,
      "Ġ1928": 6205,
      "ĠÐŃÐ½": 6206,
      "ĠAlban": 6207,
      "ression": 6208,
      "Ġproduce": 6209,
      "ÑĩÐ°": 6210,
      "Ð¸Ð½ÑģÐºÐ°Ñı": 6211,
      "Ġmostly": 6212,
      "ĠÐ¿Ð¾Ð»ÑĮÐ·Ð¾Ð²": 6213,
      "ÐĺÑģÑĤÐ¾ÑĢÐ¸Ñı": 6214,
      "66": 6215,
      "Ð¾ÑĢÐ´": 6216,
      "ÑĥÐ½ÐºÑĤ": 6217,
      "ĠAlf": 6218,
      "Ġphot": 6219,
      "ĠBuddh": 6220,
      "ĠÐ´Ð¸Ð½Ð°ÑģÑĤ": 6221,
      "Ð¾Ð¿Ð°ÑģÐ½Ð¾ÑģÑĤÐ¸": 6222,
      "Ð³ÑĢÐµÑģÑģ": 6223,
      "ÑĢÐ¾Ð²Ð°": 6224,
      "Ġ1949": 6225,
      "Ġearlier": 6226,
      "Ġflight": 6227,
      "Ð¼ÐµÑī": 6228,
      "ĠÑĦÐ¾ÑĢÐ¼Ð¸ÑĢÐ¾Ð²": 6229,
      "ÐµÐ½ÑģÐºÐ¸Ð¹": 6230,
      "ĠBut": 6231,
      "cont": 6232,
      "Ġregular": 6233,
      "ÐłÐ¾Ð´Ð¸Ð²ÑĪÐ¸ÐµÑģÑı": 6234,
      "ĠÐ²ÑĭÐ±Ð¾ÑĢÐ°Ñħ": 6235,
      "ĠÐĽÐµÐ¾Ð½": 6236,
      "Ð´Ð°ÑİÑĤ": 6237,
      "ector": 6238,
      "Ġconstit": 6239,
      "anks": 6240,
      "ĠÐ°Ð½Ð°": 6241,
      "ampions": 6242,
      "ÑĥÑİÑīÐ¸Ðµ": 6243,
      "Ġdestroy": 6244,
      "ĠÐºÑĢÐµÑģÑĤÑĮÑıÐ½": 6245,
      "Ð»Ð¸Ð½Ð°": 6246,
      "ĠÐ´ÑĢÑĥÐ³Ð¾Ð¹": 6247,
      "Ġlonger": 6248,
      "ĠÑĥÐ½Ð¸Ð²ÐµÑĢÑģÐ¸ÑĤÐµÑĤÐ°": 6249,
      "á½": 6250,
      "Ġliving": 6251,
      "For": 6252,
      "ĠÑĢÐ°Ð·Ð³": 6253,
      "ĠÑģÑĥÑīÐµÑģÑĤÐ²ÑĥÐµÑĤ": 6254,
      "ĠÑģÐµÐ±Ðµ": 6255,
      "Ġproducts": 6256,
      "ona": 6257,
      "Ġsat": 6258,
      "ÑĢÑĭÑĤ": 6259,
      "Ġhistorical": 6260,
      "Ð»ÑıÑĤÑĮ": 6261,
      "ĠÐĲÐ¼": 6262,
      "ĠChinese": 6263,
      "Ġtravel": 6264,
      "Ġradio": 6265,
      "Ġhighest": 6266,
      "Ġ1914": 6267,
      "ĠÐ¿ÐµÑĢÐ²ÑĭÐµ": 6268,
      "ĠÑģÐ¾Ð·Ð´Ð°Ð½": 6269,
      "airs": 6270,
      "ĠÐºÐ°ÑĤÐ¾Ð»": 6271,
      "Ġpotential": 6272,
      "Ð¾Ð»ÐµÐ²": 6273,
      "ĠÐ²Ð¾ÑģÐ¿": 6274,
      "Ġprivate": 6275,
      "ĠRichard": 6276,
      "ĠÐ¿ÑĢÐ¾Ð³": 6277,
      "ords": 6278,
      "Ġnecess": 6279,
      "Ġsoftware": 6280,
      "Ġeight": 6281,
      "ĠÐ¤ÑĢÐ¸Ð´": 6282,
      "ranch": 6283,
      "Ġ1924": 6284,
      "Ġvari": 6285,
      "ĠÐ¿Ð°Ð¿": 6286,
      "Ġlines": 6287,
      "Ð°ÐºÐ°": 6288,
      "ĠÐ½Ð°ÑģÐµÐ»ÐµÐ½Ð¸Ðµ": 6289,
      "ĠÑĤÑĢÐ°Ð´Ð¸ÑĨÐ¸Ð¾Ð½": 6290,
      "ĠÐĵÐ¾Ð»": 6291,
      "ĠOld": 6292,
      "ĠCouncil": 6293,
      "bai": 6294,
      "oz": 6295,
      "ĠMe": 6296,
      "ĠÐĽÐ¾Ð½Ð´": 6297,
      "Ġwest": 6298,
      "ĠÐ°ÑģÑģ": 6299,
      "ĠÐĺÑģ": 6300,
      "ĠÐ¿Ð¾ÑĤÐµÑĢ": 6301,
      "Ð»Ð°Ð½Ð´Ð¸Ð¸": 6302,
      "odes": 6303,
      "ÑĢÐ¾Ð¸Ð·": 6304,
      "Ġdise": 6305,
      "Ġresults": 6306,
      "Ġprimary": 6307,
      "ĠAcadem": 6308,
      "ĠAward": 6309,
      "Ġtowards": 6310,
      "ÑĳÑģ": 6311,
      "Ð¾Ð·Ð¼Ð¾Ð¶": 6312,
      "ÑĳÐ½Ð½Ð¾Ð¹": 6313,
      "ext": 6314,
      "ĠÐ·ÐµÐ¼Ð»Ð¸": 6315,
      "ĠÐ²Ð»Ð¸ÑıÐ½Ð¸Ðµ": 6316,
      "Ġdom": 6317,
      "ĠÐĿÐ¾": 6318,
      "Ġprevent": 6319,
      "Ġ1905": 6320,
      "ĠÐ´Ð¾ÑģÑĤÑĥÐ¿": 6321,
      "hab": 6322,
      "ivity": 6323,
      "Ġalways": 6324,
      "Ġconcent": 6325,
      "ĠDel": 6326,
      "ground": 6327,
      "hing": 6328,
      "million": 6329,
      "ĠIts": 6330,
      "Ġreplaced": 6331,
      "och": 6332,
      "Ġceleb": 6333,
      "ÑĢÐ¸ÑĨ": 6334,
      "ĠBell": 6335,
      "urity": 6336,
      "ĠÐ»Ð¾Ð³": 6337,
      "Ġvideo": 6338,
      "ĠÐ¾Ð±ÑīÐµÑģÑĤÐ²Ð°": 6339,
      "selves": 6340,
      "ĠÑĤÐ¾Ð³Ð´Ð°": 6341,
      "ÑĦÐ°Ð²": 6342,
      "ĠÐĴÐĴ": 6343,
      "ĠÑĦÐ°Ðº": 6344,
      "ĠÑĢÐ°Ð·Ð¼ÐµÑĢ": 6345,
      "Ð¶Ð´Ñĭ": 6346,
      "zerbai": 6347,
      "zerbaijan": 6348,
      "Ġaction": 6349,
      "Ġcreat": 6350,
      "ĠÐ¿ÑĢÐ¾Ð¼ÑĭÑĪÐ»ÐµÐ½Ð½Ð¾ÑģÑĤÐ¸": 6351,
      "ĠÐ·Ð°ÑħÐ²Ð°ÑĤ": 6352,
      "Ġterritory": 6353,
      "ÐµÐ»ÑĮÐ³": 6354,
      "ĠÑĢÐ°Ð·ÑĢÐµ": 6355,
      "ously": 6356,
      "Ð²ÐµÑĢÐ¶": 6357,
      "Ġcover": 6358,
      "Ġspeak": 6359,
      "Ġthemselves": 6360,
      "ĠÐ²ÐµÐ»": 6361,
      "ĠÑģÑĥÐ¿": 6362,
      "Ġmention": 6363,
      "Ġplant": 6364,
      "Ġ1932": 6365,
      "ribution": 6366,
      "ĠÐ¼Ð¾Ð½Ð°ÑģÑĤÑĭ": 6367,
      "Ġreading": 6368,
      "ĠÑģÐµÐºÑĢÐµÑĤ": 6369,
      "ĠÐ¼Ð°Ð½": 6370,
      "ÑįÐ¹": 6371,
      "Ġconstruction": 6372,
      "Ġgra": 6373,
      "ĠPeter": 6374,
      "aged": 6375,
      "Ġ1933": 6376,
      "ĠÐļÐ°Ð·Ð°Ñħ": 6377,
      "gin": 6378,
      "isl": 6379,
      "Ð¸Ð½Ð¾Ð¹": 6380,
      "umn": 6381,
      "Ġappeared": 6382,
      "ĠÐ²ÑĭÐ¿Ð¾Ð»Ð½": 6383,
      "79": 6384,
      "lied": 6385,
      "yer": 6386,
      "Ð¾Ð·Ð½": 6387,
      "ĠÐłÐ¾ÑģÑģÐ¸Ñı": 6388,
      "obal": 6389,
      "Ġblood": 6390,
      "Ġvariety": 6391,
      "ĠÑĥÐ¿ÑĢÐ°Ð²Ð»ÐµÐ½Ð¸Ñı": 6392,
      "ÑĤÐ¾Ð¶": 6393,
      "onn": 6394,
      "Ġ1959": 6395,
      "ĠÑģÐºÑĥÐ»ÑĮÐ¿": 6396,
      "ĠÐ¼Ð¾Ð´ÐµÐ»ÑĮ": 6397,
      "ĠÐ¿ÑĥÐ½ÐºÑĤ": 6398,
      "Ġbatt": 6399,
      "ÑĪÑĤÐ°": 6400,
      "Ð½Ð°Ð¿ÑĢÐ¸Ð¼ÐµÑĢ": 6401,
      "isms": 6402,
      "Ġdiscovered": 6403,
      "Ġemer": 6404,
      "Ġoccup": 6405,
      "porary": 6406,
      "ĠÐĴÐ¸ÐºÑĤÐ¾ÑĢ": 6407,
      "Ð¸ÑģÐ¿": 6408,
      "ĠÐ¾Ð´Ð½Ð°": 6409,
      "ĠÑĤÐµÑĢÐ¼Ð¸Ð½": 6410,
      "ĠÐ¸Ð³ÑĢÐ°": 6411,
      "ÐµÑĢÐ¸Ð¼": 6412,
      "ĠÐ¾ÑĤÐ´Ðµ": 6413,
      "Ð¸ÑģÑĤÑĭ": 6414,
      "ĠÐ¢Ðµ": 6415,
      "Ð¾ÑĩÑĮ": 6416,
      "ĠÐ´ÐµÐ¹ÑģÑĤÐ²Ð¸Ñı": 6417,
      "Ġelement": 6418,
      "ĠParis": 6419,
      "Ġchanges": 6420,
      "ĠÐ±Ð¾Ð»ÑĮÑĪÐ¸Ð½ÑģÑĤÐ²Ð¾": 6421,
      "lor": 6422,
      "yr": 6423,
      "ĠÑģÐºÐ°Ð·": 6424,
      "ico": 6425,
      "ĠIr": 6426,
      "ĠÐ¿Ð¾Ð´Ð¾Ð±": 6427,
      "Ġmajority": 6428,
      "ĠÐĳÐ¾ÑĢÐ¸Ñģ": 6429,
      "Ġwhether": 6430,
      "ÑĢÐ°Ñħ": 6431,
      "ĠÐ¿ÑĢÐ¾Ð³ÑĢÐ°Ð¼Ð¼": 6432,
      "ĠÐ¼ÑĥÐ·ÑĭÐºÐ°Ð½ÑĤ": 6433,
      "ĠÐ¿ÑĢÐ¸ÑģÐ¾ÐµÐ´Ð¸Ð½": 6434,
      "ĠÐ¿ÐµÑĢÐ²ÑĭÑħ": 6435,
      "Ð°ÑİÑīÐ¸Ðµ": 6436,
      "ĠÐ³Ð»": 6437,
      "ĠSim": 6438,
      "ects": 6439,
      "ĠÐºÐ°Ð½Ð°Ð´": 6440,
      "ĠBos": 6441,
      "ĠÐ¿ÑĢÐ¾Ð¸ÑģÑħÐ¾Ð´Ð¸ÑĤ": 6442,
      "ĠSwed": 6443,
      "Ġtroops": 6444,
      "61": 6445,
      "ÑĨÐµÐ½ÑĤ": 6446,
      "ĠLouis": 6447,
      "Ð¸Ð»ÐµÑĤ": 6448,
      "Ġ500": 6449,
      "ĠÑĢÑĥÑģÑģÐºÐ¾Ð¹": 6450,
      "ĠÐ¸Ð¼ÐµÐ½Ð½Ð¾": 6451,
      "go": 6452,
      "lines": 6453,
      "Ð¿Ð°Ð´": 6454,
      "Ġstated": 6455,
      "ÐµÑĢÐ¼Ð°Ð½": 6456,
      "ĠÐ¿Ð¾ÑįÑĤÐ¾Ð¼Ñĥ": 6457,
      "ĠÑģÐµÐ²ÐµÑĢÐ¾": 6458,
      "ÑĤÐ¸Ð²": 6459,
      "ĠBay": 6460,
      "ĠÑħÐ¾Ð»": 6461,
      "74": 6462,
      "Ġche": 6463,
      "Ġquant": 6464,
      "ĠÑĢÐµÑģÐ¿ÑĥÐ±Ð»Ð¸ÐºÐ¸": 6465,
      "Ġdig": 6466,
      "ili": 6467,
      "alled": 6468,
      "igned": 6469,
      "ĠÐºÑĢÑĥÐ³": 6470,
      "Ġreason": 6471,
      "Ġeas": 6472,
      "ÑĢÐ¾Ð¿Ð¾Ð»Ð¸ÑĤ": 6473,
      "Ġ1923": 6474,
      "ĠÐ·Ð°Ð²Ð¸ÑģÐ¸Ð¼": 6475,
      "bre": 6476,
      "ĠRussia": 6477,
      "ĠÐ²Ð·Ð°Ð¸Ð¼Ð¾Ð´ÐµÐ¹ÑģÑĤÐ²": 6478,
      "ĠÐ¿ÑĢÐ¾ÑħÐ¾Ð´": 6479,
      "ĠItaly": 6480,
      "Ð¾ÑĢÑĭ": 6481,
      "asion": 6482,
      "ĠÐ³Ð¸Ð¿": 6483,
      "Ġalle": 6484,
      "ĠÐ¿Ð¾ÑģÐº": 6485,
      "ĠUK": 6486,
      "ĠVal": 6487,
      "Ġ1936": 6488,
      "Ġ90": 6489,
      "ĠÐ²Ð°ÑĢÐ¸": 6490,
      "ĠÑĤÑĥÑĢ": 6491,
      "Ġalk": 6492,
      "artment": 6493,
      "ĠÐ°ÑĢÑĤÐ¸ÑģÑĤÐºÐ°": 6494,
      "ĠÐ²Ð¾Ð·Ð´ÑĥÑħ": 6495,
      "ĠÐºÐ¾Ð½ÑĦÐ»Ð¸ÐºÑĤ": 6496,
      "sych": 6497,
      "ÑģÐµÑĢÐ²": 6498,
      "Ð²Ñĥ": 6499,
      "ĠÐ²Ð¸Ð·": 6500,
      "Ð¾Ð±ÑĥÑģ": 6501,
      "ĠÐºÑĢÐ¸ÑĤÐ¸Ðº": 6502,
      "69": 6503,
      "ĠÐ²Ð»Ð°Ð´": 6504,
      "ĠÐ½Ð°ÑģÑĤÑĥÐ¿": 6505,
      "ĠSal": 6506,
      "ĠÐľÐ°Ð½": 6507,
      "Ð°Ð»Ð¸Ñı": 6508,
      "stein": 6509,
      "ĠÐļÐ¾Ð½ÑģÑĤÐ°Ð½ÑĤÐ¸Ð½": 6510,
      "%)": 6511,
      "Ġaward": 6512,
      "Ġsay": 6513,
      "Ð¾ÑģÑĤÐ¾Ð²": 6514,
      "Ġcome": 6515,
      "ĠÐĺÑĢ": 6516,
      "Ġ1927": 6517,
      "ĠÐ²Ð¾ÑģÐ¿ÑĢÐ¸": 6518,
      "Ġbeginning": 6519,
      "eff": 6520,
      "iences": 6521,
      "ĠÐ¿ÑĢÐµÐ¾Ð±ÑĢÐ°Ð·": 6522,
      "Ð¾ÑĢÐ¸": 6523,
      "ĠÐ¿Ð¾ÑģÑĤÐ°Ð½Ð¾Ð²": 6524,
      "Ġ(,": 6525,
      "ĠÐ¸Ð½Ð¶ÐµÐ½": 6526,
      "ĠThomas": 6527,
      "ĠÐ´ÐµÐ¼Ð¾ÐºÑĢÐ°ÑĤ": 6528,
      "ĠÐ¯Ð¿Ð¾Ð½Ð¸Ð¸": 6529,
      "Ġscholars": 6530,
      "ĠÐ·Ð°ÑģÐ»ÑĥÐ¶": 6531,
      "Ð²Ð°Ð¹": 6532,
      "Ð°Ð´Ð¶": 6533,
      "ev": 6534,
      "field": 6535,
      "ĠÑģÑĦÐµÑĢ": 6536,
      "ĠVir": 6537,
      "ĠÐ¾ÑģÐ¾Ð±ÐµÐ½Ð½Ð¾": 6538,
      "Ġpersonal": 6539,
      "ĠXVIII": 6540,
      "Ġforeign": 6541,
      "Ġ1934": 6542,
      "ĠÐ¾Ð±ÑĬÑıÑģ": 6543,
      "ĠÐ¡ÐµÐ²ÐµÑĢÐ½Ð¾Ð¹": 6544,
      "Ġcareer": 6545,
      "ĠÐ¿Ð¾ÑģÐºÐ¾Ð»ÑĮÐºÑĥ": 6546,
      "rative": 6547,
      "ĠÐ¼Ð¸Ðº": 6548,
      "ĠÐ¾Ð±ÑĢÐ°ÑĤ": 6549,
      "umin": 6550,
      "Ġanimals": 6551,
      "ĠÐ¿ÑĢÐ¾Ñģ": 6552,
      "Ġgas": 6553,
      "Ġwhom": 6554,
      "iforn": 6555,
      "ĠÑģÐ¿Ð¾ÑĢÑĤ": 6556,
      "Ð¸Ð¿ÐµÐ´": 6557,
      "Ġspok": 6558,
      "ĠÑĤÑĢÐ°Ð¼": 6559,
      "Ġproblems": 6560,
      "Ð°ÑģÐº": 6561,
      "phas": 6562,
      "ĠÑĤÐ¾Ð²": 6563,
      "ĠRad": 6564,
      "opp": 6565,
      "ĠÑĢÑĥÑģÑģÐºÐ¾Ð³Ð¾": 6566,
      "Ġremov": 6567,
      "Ġbelow": 6568,
      "ĠÑģÑĤÐ°Ð½Ð¾Ð²Ð¸ÑĤÑģÑı": 6569,
      "ien": 6570,
      "ĠÐ¯Ð½": 6571,
      "ĠSun": 6572,
      "Ġpoints": 6573,
      "44": 6574,
      "Ġatom": 6575,
      "ĠÑĥÑĩÐ°": 6576,
      "Ġoffice": 6577,
      "ĠÐ°ÐºÐ°Ð´ÐµÐ¼Ð¸Ðº": 6578,
      "ech": 6579,
      "eds": 6580,
      "ĠBat": 6581,
      "ĠÐĵÐ»Ð°Ð²": 6582,
      "ÐĴÐ¾": 6583,
      "Ð¿Ð°ÑĢÐ°ÑĤ": 6584,
      "ĠÐºÐ½ÑıÐ¶Ðµ": 6585,
      "ĠÐ´ÑĥÑħÐ¾Ð²": 6586,
      "Ġwife": 6587,
      "Ġtoo": 6588,
      "ump": 6589,
      "Ġregions": 6590,
      "yth": 6591,
      "Ð²Ð°ÑĢÐ´": 6592,
      "ĠÐ²ÐµÑĢÐ¾ÑıÑĤ": 6593,
      "ĠJewish": 6594,
      "Ġloss": 6595,
      "igu": 6596,
      "ĠÐ¿Ð¾Ð´Ð³Ð¾ÑĤÐ¾Ð²": 6597,
      "Ġfront": 6598,
      "Ġmale": 6599,
      "ÑĪÐ¸Ð¼Ð¸": 6600,
      "ÐµÑĢÐ°Ð»ÑĮ": 6601,
      "Ġprec": 6602,
      "ĠÐ»Ð¸Ð½Ð¸Ð¸": 6603,
      "ĠÑģÑĥÐ¼": 6604,
      "Ġlatter": 6605,
      "Ġseven": 6606,
      "acters": 6607,
      "ĠÐ¿ÑĢÐ¾ÑĤÑıÐ¶": 6608,
      "Ġantib": 6609,
      "Ġlimited": 6610,
      "ÑĭÐ½Ðµ": 6611,
      "Ġopt": 6612,
      "ÑĢÑıÐ´": 6613,
      "ĠÑįÑĤÐ¸Ð¼": 6614,
      "ÐĺÐ·": 6615,
      "Ġ1935": 6616,
      "ÑĢÐ¾ÑģÐ»Ð°Ð²": 6617,
      "ÑĥÑİÑīÐ¸Ð¹": 6618,
      "'t": 6619,
      "Îµ": 6620,
      "ĠÐ²ÐµÑī": 6621,
      "ÑĢÐ°Ð¹": 6622,
      "Ð¾Ð²Ð°Ð»": 6623,
      "ĠÐ½ÑĳÐ¼": 6624,
      "ĠÐ°ÑĢÐµÑģÑĤ": 6625,
      "ĠÐ´Ð°Ð½Ð½ÑĭÑħ": 6626,
      "ĠÐºÐ¾ÑģÐ¼Ð¸ÑĩÐµ": 6627,
      "ĠÑģÑĤÐµÐ¿ÐµÐ½Ð¸": 6628,
      "ĠÐĲÐ½Ð³Ð»Ð¸Ð¸": 6629,
      "Ġdam": 6630,
      "ĠÐ¼Ñĭ": 6631,
      "ĠMal": 6632,
      "ÑĥÑĢÐ³Ð°": 6633,
      "ĠÐ°Ð²ÑģÑĤÑĢÐ¸Ð¹": 6634,
      "Ð¾ÑħÑĢÐ°Ð½": 6635,
      "Ġbur": 6636,
      "imal": 6637,
      "gebra": 6638,
      "Ġadapt": 6639,
      "ĠÑģÐ¾Ð±ÑĭÑĤ": 6640,
      "part": 6641,
      "Ã¤": 6642,
      "âĢľ": 6643,
      "ĠÐ¿ÑĢÐµÐºÑĢÐ°": 6644,
      "Ġheav": 6645,
      "ĠÐķÑģÐ»Ð¸": 6646,
      "ÑĪÑĥÑİ": 6647,
      "Ð¸ÑĤÐµÐ»ÐµÐ¼": 6648,
      "Ġreached": 6649,
      "ÑĢÑĥÑģÑģ": 6650,
      "ĠÐ²ÑĭÑĪÐµ": 6651,
      "95": 6652,
      "ĠÐ¾Ð±Ð²Ð¸Ð½": 6653,
      "ĠÐ¾ÑĤÑģÑĤÐ°Ð²": 6654,
      "ĠHall": 6655,
      "ÑĥÑīÐ¸Ð¹": 6656,
      "Ġtoday": 6657,
      "ĠCourt": 6658,
      "ĠÑĩÐµÑģÑĤÑĮ": 6659,
      "Ġacqu": 6660,
      "irds": 6661,
      "ÑĤÐ¾ÑĢÐ°Ñı": 6662,
      "Ð½Ð°Ð¼": 6663,
      "Ġdirectly": 6664,
      "arc": 6665,
      "ĠBab": 6666,
      "ĠÑĢÐµÐ¹": 6667,
      "Ġdefined": 6668,
      "AM": 6669,
      "zz": 6670,
      "ĠÐ¿Ð¾Ð¶": 6671,
      "ÑĦÐ¾Ð½": 6672,
      "Ġtreatment": 6673,
      "Ð½Ð¸ÑĩÑĤÐ¾Ð¶": 6674,
      "ĠÑĤÑĢÐµÑĤÑĮ": 6675,
      "36": 6676,
      "Ð°ÐµÐ²": 6677,
      "ÑĦÐ¸ÑĨ": 6678,
      "ĠÐ¡Ð¾Ð»Ð½": 6679,
      "ĠÐ¾Ð±ÑĬÑĳÐ¼": 6680,
      "ket": 6681,
      "onse": 6682,
      "oral": 6683,
      "ithm": 6684,
      "spe": 6685,
      "Ġbor": 6686,
      "ĠÐºÐ¾Ð½ÑĤÑĢÐ¾Ð»": 6687,
      "ĠAssoci": 6688,
      "77": 6689,
      "=\"": 6690,
      "Ġsil": 6691,
      "Ġfuture": 6692,
      "ĠÐ´Ð½Ñı": 6693,
      "Ġperformed": 6694,
      "hol": 6695,
      "ÑıÑĤÐ¸Ð¹": 6696,
      "ledge": 6697,
      "ĠÑĦÐµÐ´ÐµÑĢÐ°Ð»ÑĮ": 6698,
      "Ġgrad": 6699,
      "Ð½Ð¾Ð²ÑĢÐµÐ¼ÐµÐ½": 6700,
      "Ġsett": 6701,
      "war": 6702,
      "Ð¡Ð¡": 6703,
      "ÑİÑīÐµÐ¹": 6704,
      "ĠÐºÐ¾ÑĢÐ¿": 6705,
      "Ġschools": 6706,
      "ĠSociety": 6707,
      "ĠAzerbaijan": 6708,
      "ĠÐ·Ð´ÐµÑģÑĮ": 6709,
      "ĠÐŁÐ°ÑĢ": 6710,
      "ĠEastern": 6711,
      "ĠInt": 6712,
      "Ġ45": 6713,
      "Ġproblem": 6714,
      "ĠÐ¾ÑĩÐµÑĢÐµÐ´ÑĮ": 6715,
      "Ð¿Ð¾Ð·": 6716,
      "Ð¾Ð»Ñı": 6717,
      "ĠÐ°Ð»ÑĦÐ°Ð²": 6718,
      "ĠÐĴÑĤÐ¾ÑĢÐ¾Ð¹": 6719,
      "uke": 6720,
      "ĠBah": 6721,
      "ĠÐ¿ÑĢÐµÐ¶": 6722,
      "ĠÐ²ÑĭÐ·Ð²": 6723,
      "ĠÐ¿ÐµÑĢÐ²Ð¾Ðµ": 6724,
      "ĠÐ¼ÐµÐ´Ð¸ÑĨ": 6725,
      "me": 6726,
      "ÐµÐ¼Ð¸": 6727,
      "enes": 6728,
      "Â»;": 6729,
      "Ð¾Ð¿Ð¾Ð»ÑĮ": 6730,
      "ĠNor": 6731,
      "ĠÑģÑĤÐ°ÑĤÑĥÑģ": 6732,
      "fl": 6733,
      "ĠÐ¡Ð¾Ð³Ð»Ð°ÑģÐ½Ð¾": 6734,
      "ĠStud": 6735,
      "ĠCentral": 6736,
      "Ġpurp": 6737,
      "uit": 6738,
      "raction": 6739,
      "Ġvia": 6740,
      "ÐµÐ»Ð°Ð½Ð´": 6741,
      "ĠÐ¿ÑĢÐ¸Ð½ÑıÐ»": 6742,
      "ĠÑģÐ¾Ðº": 6743,
      "ĠÑįÑĦÑĦ": 6744,
      "anded": 6745,
      "Ġsmaller": 6746,
      "ÐµÑĤÐµÐ»ÑĮ": 6747,
      "Ġhous": 6748,
      "ĠÑĢÐ¾Ðº": 6749,
      "Ġ1955": 6750,
      "IC": 6751,
      "ÑĥÐ»Ð°": 6752,
      "ĠÐĴÐµÐ½Ð³": 6753,
      "ĠÐ¼ÐµÑģÑĤÐµ": 6754,
      "Ġproposed": 6755,
      "ĠÐ¾Ð½Ð¾": 6756,
      "Ð¾Ð±ÐµÐ´": 6757,
      "Ġsequ": 6758,
      "Ġeconomy": 6759,
      "ĠÐļÑĥÑĢ": 6760,
      "ĠÐµÐ¿Ð¸ÑģÐºÐ¾Ð¿": 6761,
      "ĠÐ¿ÑĢÐ¾Ð²Ð¾Ð·Ð³Ð»Ð°ÑĪ": 6762,
      "ias": 6763,
      "Ġexpect": 6764,
      "ĠÑĤÐ¸Ð¿Ð°": 6765,
      "Ġgive": 6766,
      "ĠÐ¿ÑĢÐµÐ´ÑģÑĤÐ°Ð²Ð»ÑıÐµÑĤ": 6767,
      "ready": 6768,
      "ĠCongress": 6769,
      "onic": 6770,
      "ĠÑģÐ¸Ð»Ð°": 6771,
      "ĠÐ½Ð¸Ð¼": 6772,
      "Ġlearn": 6773,
      "onst": 6774,
      "aring": 6775,
      "ĠÐºÐ¾Ð´": 6776,
      "ĠMass": 6777,
      "Ð´ÐµÐ±": 6778,
      "ĠÐ¤ÑĳÐ´": 6779,
      "Ġcenturies": 6780,
      "Ð²ÐµÑĢÐ´": 6781,
      "anced": 6782,
      "ĠÐ¡Ð¡Ðł": 6783,
      "ĠWall": 6784,
      "ĠÑĢÐ°ÑģÐ¿Ð¾Ð»Ð°Ð³": 6785,
      "Ġcorresp": 6786,
      "Ġphysical": 6787,
      "Ġoriginally": 6788,
      "ÑģÐ¾Ð»ÑİÑĤ": 6789,
      "89": 6790,
      "ĠÐ²Ð´": 6791,
      "Ġsitu": 6792,
      "Ġlength": 6793,
      "ĠMiddle": 6794,
      "ĠÐ¸ÑģÐºÑĥÑģÑģÑĤÐ²Ð°": 6795,
      "ĠÐ·Ð°Ð»Ð¸": 6796,
      "ĠÐ¾ÑģÐ¾Ð±ÐµÐ½": 6797,
      "Ġgreater": 6798,
      "Ð°ÑĤÐ¸": 6799,
      "Ġ1910": 6800,
      "ources": 6801,
      "ĠAmericans": 6802,
      "ĠÐ¸ÑģÐ¿Ð°Ð½": 6803,
      "Ġcells": 6804,
      "Ġinvolved": 6805,
      "ĠÐ¿ÑĢÐ¸Ð¼ÐµÑĢÐ½Ð¾": 6806,
      "ĠSystem": 6807,
      "ĠInstitute": 6808,
      "ÐºÐµÑĤ": 6809,
      "ĠÐ¼ÐµÑĢ": 6810,
      "Ð°ÑĢÑģÐºÐ¸Ð¹": 6811,
      "Ð¸ÐºÐ¾": 6812,
      "ĠÑģÐ¾Ð²Ð¼ÐµÑģÑĤ": 6813,
      "ĠÑİÐ³Ð¾": 6814,
      "ĠÐ¿ÐµÑĢÐµÐ´Ð°": 6815,
      "ĠÐ¶Ð¸Ð²Ð¾Ð¿Ð¸ÑģÐµÑĨ": 6816,
      "71": 6817,
      "ĠÐ²Ð½Ð¸Ð¼": 6818,
      "ĠMac": 6819,
      "pha": 6820,
      "ÐĶÐł": 6821,
      "Ġenvironment": 6822,
      "Ġworking": 6823,
      "ĠÐ´ÐµÑıÑĤÐµÐ»ÑĮÐ½Ð¾ÑģÑĤÑĮ": 6824,
      "ifornia": 6825,
      "uals": 6826,
      "ĠAnn": 6827,
      "ĠÑįÐ»ÐµÐºÑĤÑĢÐ¾Ð½": 6828,
      "ÂŃ": 6829,
      "ĠÐ´ÐµÐº": 6830,
      "Ġremain": 6831,
      "ĠÐ¡Ð¾ÑİÐ·": 6832,
      "43": 6833,
      "song": 6834,
      "ĠAM": 6835,
      "oud": 6836,
      "amm": 6837,
      "ĠÐ²ÑĭÑĢÐ°Ð¶": 6838,
      "Ġunits": 6839,
      "Ġcommit": 6840,
      "ĠÐ²Ð¾Ð·Ð¼Ð¾Ð¶Ð½Ð¾ÑģÑĤÑĮ": 6841,
      "ĠÑģÐ¼ÑĭÑģ": 6842,
      "ĠÐ´Ð°Ð»ÑĮÐ½ÐµÐ¹": 6843,
      "ancial": 6844,
      "Ð±ÐµÐº": 6845,
      "ĠDep": 6846,
      "Ġrequire": 6847,
      "ĠĊĠĊĠĊĠĊĠĊĠĊĠĊĠĊ": 6848,
      "Ġpractice": 6849,
      "Ġcomplete": 6850,
      "De": 6851,
      "ĠBal": 6852,
      "Ð¸ÑĨÑĥ": 6853,
      "ĠÑģÐ¾ÑģÑĤÐ¾Ð¸ÑĤ": 6854,
      "ÑĨÐ¸ÐºÐ»Ð¾Ð¿": 6855,
      "Ïģ": 6856,
      "Ð¸ÐºÑģ": 6857,
      "ĠBuddha": 6858,
      "Ġindependent": 6859,
      "Ġwriters": 6860,
      "Ġsupported": 6861,
      "ĠÐ¼Ð°ÑĤÐµÐ¼Ð°ÑĤÐ¸Ðº": 6862,
      "Ġanalysis": 6863,
      "Ġleader": 6864,
      "ĠÐºÐ¾Ð½ÑĤÑĢ": 6865,
      "ĠÐ´Ð²Ð¸Ð¶ÐµÐ½Ð¸Ðµ": 6866,
      "ĠÑĢÐ°Ð¼ÐºÐ°Ñħ": 6867,
      "ÑģÑĤÐµÑĢ": 6868,
      "Ġbod": 6869,
      "Ð¾ÑĤÐµ": 6870,
      "ĠÐ²ÑĭÑĩÐ¸Ñģ": 6871,
      "Ġcharacters": 6872,
      "Ġmarried": 6873,
      "ĠÑĥÐº": 6874,
      "ĠÐ£Ð¸Ð»ÑĮ": 6875,
      "anned": 6876,
      "ĠÐĲÐ½Ð´ÑĢÐµ": 6877,
      "Other": 6878,
      "ĠÐ¿ÑĢÐ¸ÑĩÐ¸Ð½": 6879,
      "ĠHung": 6880,
      "ologist": 6881,
      "Ġ1954": 6882,
      "Ġguitar": 6883,
      "ĠMichael": 6884,
      "isation": 6885,
      "Ġwind": 6886,
      "ĠÐ¾Ð±Ð»Ð°Ð´": 6887,
      "board": 6888,
      "Ð²ÐµÐ¹ÑĨ": 6889,
      "ÑĨÐ¸ÐºÐ»Ð¾Ð¿ÐµÐ´": 6890,
      "Ð¾Ð»Ð¸Ð²": 6891,
      "ÑĢÐ¸Ð¶": 6892,
      "ĠÐ°ÑĢÐ°Ð±": 6893,
      "ÐµÐ²Ð¾Ð¹": 6894,
      "Ġyou": 6895,
      "ĠÑĤÐµÐ»ÐµÐ²ÐµÐ´": 6896,
      "ĠÐĲÐ²ÑģÑĤ": 6897,
      "ĠÐ¶Ð¸Ð·Ð½ÑĮ": 6898,
      "Ġmanager": 6899,
      "History": 6900,
      "view": 6901,
      "west": 6902,
      "reet": 6903,
      "ĠÑĢÐµÐ°Ðº": 6904,
      "Ġestablish": 6905,
      "ĠÐ´Ð½ÐµÐ¹": 6906,
      "ĠÐĿÑĮÑİ": 6907,
      "Ġvill": 6908,
      "Ġstudies": 6909,
      "ĠÑģÐ¾ÑģÑĤÐ¾ÑıÐ½Ð¸Ñİ": 6910,
      "ĠÐºÐ½Ð¸Ð³Ð¸": 6911,
      "Ġtechnology": 6912,
      "Ġseparate": 6913,
      "Ph": 6914,
      "ĠÑĥÐ½Ð¸ÑĩÑĤÐ¾Ð¶": 6915,
      "Ġbetter": 6916,
      "ĠIsland": 6917,
      "ĠÐ¿Ð¾ÑģÐ²ÑıÑī": 6918,
      "ĠÐ¤ÑĢÐ¸Ð´ÑĢÐ¸Ñħ": 6919,
      "Ð¾ÑģÐ½Ð¾Ð²": 6920,
      "lying": 6921,
      "ift": 6922,
      "Ġships": 6923,
      "ĠÐ²Ð¾Ð·Ð³Ð»Ð°Ð²": 6924,
      "ĠJews": 6925,
      "isions": 6926,
      "Ġcit": 6927,
      "ÑĢÐ¸Ð½": 6928,
      "ables": 6929,
      "ĠÑģÐ¸Ð»Ñĥ": 6930,
      "Ġera": 6931,
      "ĠÐ¼Ð½Ð¾Ð¶ÐµÑģÑĤÐ²Ð¾": 6932,
      "Ġprobably": 6933,
      "ĠÐ¤Ð¸Ð½Ð»ÑıÐ½Ð´": 6934,
      "ĠÐ½Ð¾ÑĢÐ¼": 6935,
      "Ð»Ð°Ð±": 6936,
      "owers": 6937,
      "ĠMuslim": 6938,
      "Ġtemperature": 6939,
      "Ġnetwork": 6940,
      "Ġdaughter": 6941,
      "ault": 6942,
      "á¼": 6943,
      "Ð¾Ð¼Ð¸Ð½Ð°": 6944,
      "ÑĥÑĤÑĮ": 6945,
      "Ð¸ÑĩÐ½Ð¾": 6946,
      "ĠÐ¨Ð²Ðµ": 6947,
      "Ġrecent": 6948,
      "Ġlaws": 6949,
      "ĠÑĤÐ¾ÑĩÐºÐ¸": 6950,
      "Ġletter": 6951,
      "ĠSmith": 6952,
      "Ð¸Ð°ÑĤ": 6953,
      "orks": 6954,
      "aling": 6955,
      "Ġ1000": 6956,
      "Ġfell": 6957,
      "ĠÑĥÑĩÐµÐ±": 6958,
      "ĠÐ²ÑĭÑĪ": 6959,
      "ĠÐĽÑĮ": 6960,
      "ĠÑĢÐ°Ð·Ð½ÑĭÑħ": 6961,
      "ĠÐĴÐµÑĢÑħÐ¾Ð²Ð½Ð¾Ð³Ð¾": 6962,
      "ĠÑĤÐµÐ»ÐµÐ²Ð¸Ð´ÐµÐ½Ð¸Ñı": 6963,
      "ĠÐ¿ÑĢÐ¸Ñģ": 6964,
      "Ġstation": 6965,
      "Ġriver": 6966,
      "Ð½Ð¾Ð¼ÑĥÑĩÐµÐ½": 6967,
      "Ġ1952": 6968,
      "ĠÐĸÐ°Ð½": 6969,
      "Ð²Ð¾Ð¹": 6970,
      "Ġnar": 6971,
      "ĠÐ¿ÐµÑĢÐµÐ½": 6972,
      "Ð³Ð¾Ð´Ð°Ñħ": 6973,
      "ĠAcademy": 6974,
      "58": 6975,
      "rd": 6976,
      "ĠÑģÑħ": 6977,
      "Ġbene": 6978,
      "Ð¾ÑģÑĢÐµÐ´": 6979,
      "Ġ1912": 6980,
      "ĠÐ¾Ð±ÑĥÑĩ": 6981,
      "ĠÐľÐ°ÑĢÑĤ": 6982,
      "ĠÐ·ÐµÐ¼ÐµÐ»ÑĮ": 6983,
      "Ġnearly": 6984,
      "ĠÐ²ÐµÑģÑĮ": 6985,
      "Ġphilosop": 6986,
      "ĠÐ¿ÑĥÐ±Ð»Ð¸ÑĨÐ¸ÑģÑĤ": 6987,
      "BS": 6988,
      "mir": 6989,
      "Ð»Ð°Ð²Ð°": 6990,
      "ĠBor": 6991,
      "oper": 6992,
      "ĠWil": 6993,
      "ĠÐĺÐ¼Ð¿": 6994,
      "Ð°Ð¹Ð»Ð¾Ð²": 6995,
      "Ġdistinct": 6996,
      "ĠÑĤÐ²Ð¾ÑĢÑĩÐµ": 6997,
      "ÑĥÐ°Ð½": 6998,
      "Ġplaced": 6999,
      "42": 7000,
      "cel": 7001,
      "ĠFrom": 7002,
      "ĠÐĶÐ¸": 7003,
      "ÐĲÑĢ": 7004,
      "ĠÐ¾ÑĤÐ½Ð¾ÑģÑıÑĤ": 7005,
      "ĠÐ¿Ð¾Ð¼Ð¾ÑīÐ¸": 7006,
      "ÑĢÐ¾Ð³": 7007,
      "Ð»Ð¸Ð±Ð¾": 7008,
      "Ġgold": 7009,
      "ĠInter": 7010,
      "Ġrelatively": 7011,
      "ĠÑģÐ¾Ð²ÑĢÐµÐ¼ÐµÐ½Ð½Ð¾Ð¹": 7012,
      "ĠÑĥÑĢÐ¾Ð²Ð½Ñı": 7013,
      "ĠCalifornia": 7014,
      "ĠÐ¿ÑĢÐ¾Ð´ÑĥÐºÑĤ": 7015,
      "During": 7016,
      "ĠÐŃÐ¹": 7017,
      "Ð²ÐµÑĢÐ³": 7018,
      "Ġmedic": 7019,
      "Ġx": 7020,
      "Ð°ÑĢÐµ": 7021,
      "ĠÐºÐ°Ð±": 7022,
      "utive": 7023,
      "ĠÐ¾ÑģÐ°Ð´": 7024,
      "ĠÐ¿ÑĢÐµÐ´ÑģÑĤÐ°Ð²Ð¸ÑĤÐµÐ»ÑĮ": 7025,
      "Ġoperations": 7026,
      "ĠÐ²ÐºÐ»ÑİÑĩÐ°Ñı": 7027,
      "Ġcomposer": 7028,
      "Ð¼Ð¾ÑĢ": 7029,
      "ÐµÑĢÐ¾": 7030,
      "ĠÑĩÐµÑĤ": 7031,
      "ĠÐ½Ð¾Ð²ÑĭÐ¹": 7032,
      "Ġproperties": 7033,
      "Wh": 7034,
      "Ġmole": 7035,
      "ĠÑĨÐ²ÐµÑĤ": 7036,
      "Ġ1953": 7037,
      "bed": 7038,
      "ises": 7039,
      "ĠÑĤÐµÐ¾ÑĢÐµÑĤ": 7040,
      "ĠÐ»Ð¸ÑĤÐ¾Ð²": 7041,
      "ĠÐ²Ð¾Ð¹Ð½Ðµ": 7042,
      "ĠÐ¿Ð¾Ð»ÑĥÑĩÐ¸Ð»Ð°": 7043,
      "ĠÐ¾ÑĤÐ½Ð¾ÑģÐ¸ÑĤÐµÐ»ÑĮÐ½Ð¾": 7044,
      "ĠâĢŀ": 7045,
      "Ġestimated": 7046,
      "Ð³Ð´Ð°": 7047,
      "Ð±Ð°Ð½": 7048,
      "Ð¾ÑĤÑĢÐµÐ±": 7049,
      "ÑĥÐ¼Ð°Ð½": 7050,
      "ĠÐ²Ð»Ð°ÑģÑĤ": 7051,
      "ÑģÑĤÐ²Ð¸Ñı": 7052,
      "ider": 7053,
      "Ġdisplay": 7054,
      "ressed": 7055,
      "Ð°ÑİÑīÐ¸Ð¹": 7056,
      "ashington": 7057,
      "Ġdiscuss": 7058,
      "ares": 7059,
      "Ð¾Ð²Ð¸Ñĩ": 7060,
      "uck": 7061,
      "ĠÐ¿ÑĢÐ¾Ð¸Ð·Ð²Ð¾Ð´ÑģÑĤÐ²Ð°": 7062,
      "ĠÐ¿ÑĢÐ°ÐºÑĤÐ¸ÑĩÐµÑģÐºÐ¸": 7063,
      "rich": 7064,
      "ĠÐ´ÐµÐ²": 7065,
      "Ġalready": 7066,
      "ĠÐĵÐ°": 7067,
      "riage": 7068,
      "uda": 7069,
      "ension": 7070,
      "ĠÐ¸Ð¼Ð¿ÐµÑĢÐ°ÑĤÐ¾ÑĢÐ°": 7071,
      "ĠÐ´Ð¾Ð»Ð»Ð°ÑĢÐ¾Ð²": 7072,
      "met": 7073,
      "ÑĥÐ½Ð°": 7074,
      "ÐµÐ½Ð´Ðµ": 7075,
      "Ġcut": 7076,
      "unt": 7077,
      "ĠÑĢÐµÑĩ": 7078,
      "ÑĳÐ½Ð½Ð¾Ð³Ð¾": 7079,
      "ĠVI": 7080,
      "Ġmetal": 7081,
      "ĠConf": 7082,
      "ĠÑĨÐµÐ»ÑĮÑİ": 7083,
      "Ġfarm": 7084,
      "Ġlab": 7085,
      "ĠÐºÐ¾Ð¼Ð¸ÑģÑģ": 7086,
      "ĠÐ´ÐµÑĤÐµÐ¹": 7087,
      "Ġwood": 7088,
      "ĠBak": 7089,
      "52": 7090,
      "ĠSince": 7091,
      "Ġstage": 7092,
      "Ġconqu": 7093,
      "ĠÐ·Ð°Ð´": 7094,
      "izing": 7095,
      "Ġcenter": 7096,
      "Ġnumerous": 7097,
      "ÑĪÐ¸": 7098,
      "ĠÐ¢Ð¸Ñħ": 7099,
      "Ð½Ð¾Ð²Ð°": 7100,
      "Ġ1931": 7101,
      "ĠÐ´Ð¾ÑģÑĤÐ°ÑĤÐ¾Ñĩ": 7102,
      "Ġhighly": 7103,
      "ĠÐ¾ÑģÑĤÑĢÐ¾Ð²Ð¾Ð²": 7104,
      "Ġadopted": 7105,
      "ĠÐ²ÐµÐ»Ð¸Ñĩ": 7106,
      "Ð°Ð»ÑĮÐ½ÑĭÐ¼": 7107,
      "ĠÐ¿ÐµÑĢÐµÐ³": 7108,
      "Ġ300": 7109,
      "hesis": 7110,
      "ĠÐŁÐ¾ÑĢÑĤÑĥÐ³": 7111,
      "AT": 7112,
      "Ġsac": 7113,
      "ĠÐ¿ÐµÑĢÐ²ÑĥÑİ": 7114,
      "Ġrap": 7115,
      "Ġmedia": 7116,
      "ĠÐ¿ÑĥÑĤÐ¸": 7117,
      "Ġapproximately": 7118,
      "ĠÐ²Ð°Ð»": 7119,
      "Ġpath": 7120,
      "Ð¾Ð½Ñĥ": 7121,
      "ĠÐ¿Ð¾Ð»Ð¾Ð¶ÐµÐ½Ð¸Ðµ": 7122,
      "83": 7123,
      "ĠMoon": 7124,
      "ĠÐłÐ¾Ð¼": 7125,
      "ients": 7126,
      "Ġwall": 7127,
      "Ġ1913": 7128,
      "59": 7129,
      "ĠÐ¾Ð·Ð½Ð°Ñĩ": 7130,
      "asons": 7131,
      "olk": 7132,
      "ĠÐĽÐµÐ²": 7133,
      "Ð¸ÑĢÐ¾Ð²Ð°ÑĤÑĮ": 7134,
      "Ġneigh": 7135,
      "Ġtherefore": 7136,
      "ĠÐĲÐ·ÐµÑĢÐ±Ð°Ð¹Ð´Ð¶": 7137,
      "ĠÐºÐ½ÑıÐ·ÑĮ": 7138,
      "ĠÑįÑĤÐ½": 7139,
      "Ġspect": 7140,
      "Ġ1908": 7141,
      "Ġmultiple": 7142,
      "ĠÑĢÐ°ÑģÑĤÐ²": 7143,
      "ĠÑģÑĤÐ°Ð½Ð´Ð°ÑĢÑĤ": 7144,
      "ĠÐ¿Ð¾Ñħ": 7145,
      "ĠÐĳÑĭ": 7146,
      "ĠÐ¸ÑģÐ¿Ð¾Ð»Ð½": 7147,
      "Ġsyn": 7148,
      "Ġobt": 7149,
      "Ġsurround": 7150,
      "Ð¸ÑĢÑĥÐµÑĤ": 7151,
      "ĠÐºÐ½Ð¸Ð³": 7152,
      "Ġtarget": 7153,
      "AR": 7154,
      "ĠÐ³Ð¸Ð¼": 7155,
      "ĠÐĳÐ°Ð»ÑĤ": 7156,
      "Ġdisp": 7157,
      "ĠÑģÐ¾Ð±ÑģÑĤÐ²ÐµÐ½": 7158,
      "ĠCollege": 7159,
      "DP": 7160,
      "ĠLiber": 7161,
      "ĠÐºÐ¾ÑĤÐ¾ÑĢÐ¾Ð¼Ñĥ": 7162,
      "Ġ1906": 7163,
      "ĠÑĤÑĢÐ°ÐºÑĤ": 7164,
      "He": 7165,
      "Ð´Ð°ÑĤ": 7166,
      "ĠBig": 7167,
      "ĠOff": 7168,
      "ĠÑħÐ¾Ðº": 7169,
      "nic": 7170,
      "oor": 7171,
      "Ð¼ÐµÐ´": 7172,
      "erc": 7173,
      "Ġinj": 7174,
      "Ġpay": 7175,
      "ĠÑģÑĤÐ¸Ñħ": 7176,
      "Ð¾Ð¿ÑĢÐ¸": 7177,
      "estival": 7178,
      "ÐµÑħÐ½": 7179,
      "ĠÐ´Ð¸Ð¿Ð»Ð¾Ð¼Ð°ÑĤÐ¸ÑĩÐµÑģÐºÐ¸Ðµ": 7180,
      "Ð¸Ð½Ð¸": 7181,
      "ÑĤÐ¾Ñĩ": 7182,
      "ÐĲÐ²": 7183,
      "ĠÑĢÐ°Ð±Ð¾ÑĤÑĥ": 7184,
      "ÐºÐ¾Ðµ": 7185,
      "ĠÐļÐ°Ðº": 7186,
      "Ð¾ÐºÐ¾Ð»": 7187,
      "ĠÐĵÐ¾Ð½": 7188,
      "ĠOtt": 7189,
      "Ġagric": 7190,
      "Ġcultural": 7191,
      "Ġsem": 7192,
      "ĠÐ±Ð»Ð°Ð³Ð¾Ð´Ð°ÑĢÑı": 7193,
      "ĠÐ½ÐµÐ¸Ð·": 7194,
      "ĠÐ¿Ð¾Ð´Ð°Ð²": 7195,
      "Ġscript": 7196,
      "ÑĥÐ»ÑĤ": 7197,
      "ÑĤÐµÑĩÐµ": 7198,
      "Ġappears": 7199,
      "Ġlargely": 7200,
      "ĠÐ¸Ð½Ð¾ÑģÑĤÑĢÐ°Ð½Ð½ÑĭÑħ": 7201,
      "olit": 7202,
      "ĠÐľÐ¸Ð½Ð¸ÑģÑĤ": 7203,
      "iant": 7204,
      "ĠâĪĴ": 7205,
      "ĠÑĥÑĩÐ°ÑģÑĤÐ½Ð¸Ðº": 7206,
      "aled": 7207,
      "ĠÐ³ÑĢÑĥÐ¿Ð¿Ð°": 7208,
      "Ġthreat": 7209,
      "Ġoffic": 7210,
      "ÑĥÐºÑĢÐ°ÑĤ": 7211,
      "Ġalcoh": 7212,
      "ÐĻ": 7213,
      "Ġens": 7214,
      "ÑĥÐ·Ñĭ": 7215,
      "head": 7216,
      "Ġdrug": 7217,
      "Ġever": 7218,
      "osis": 7219,
      "ĠÑģÐ²Ð¸Ð´": 7220,
      "Ġcontract": 7221,
      "ĠÐ½Ð¾Ð²ÑĭÑħ": 7222,
      "Ġimplement": 7223,
      "ĠÐ¸ÑĤÐ¾Ð³": 7224,
      "Ġjournalist": 7225,
      "ĠÐ½ÐµÑģÐºÐ¾Ð»ÑĮÐºÐ¸Ñħ": 7226,
      "ÐºÐ¸Ð½Ð°": 7227,
      "rying": 7228,
      "Ġreview": 7229,
      "Ġcode": 7230,
      "ĠÑĤÑĢÑĥÐ´Ð°": 7231,
      "ĠÐ³Ð°": 7232,
      "Ð»ÐµÑĩ": 7233,
      "Ð¾Ð¶Ð´Ðµ": 7234,
      "Ġleague": 7235,
      "ĠÐ³Ð¾Ð»Ð¾ÑģÐ¾Ð²": 7236,
      "Ġmathemat": 7237,
      "Ġdocument": 7238,
      "cles": 7239,
      "ĠÑģÐ»Ð°Ð²ÑıÐ½": 7240,
      "According": 7241,
      "SM": 7242,
      "cies": 7243,
      "|-": 7244,
      "Ð¸Ð¼ÑĥÑīÐµ": 7245,
      "astic": 7246,
      "ĠAsh": 7247,
      "ĠQue": 7248,
      "hood": 7249,
      "ÐµÐ½Ð½Ð¾Ðµ": 7250,
      "Ð»Ð¸Ð¸": 7251,
      "ÐµÐ¼ÑĭÐµ": 7252,
      "ĠÑĢÐ°Ð½ÐµÐµ": 7253,
      "ĠÑģÑĤÑĥÐ´": 7254,
      "ĠRome": 7255,
      "ĠÐ¾ÑĦÐ¸ÑĨÐ¸Ð°Ð»ÑĮÐ½Ð¾": 7256,
      "ĠScottish": 7257,
      "ĠAber": 7258,
      "Ġcontains": 7259,
      "Ð¾ÑģÐºÐ¾Ð²": 7260,
      "ĠÑĦÑĥÐ½ÐºÑĨÐ¸Ð¸": 7261,
      "standing": 7262,
      "Ð½Ð¾Ð²ÑĢÐµÐ¼ÐµÐ½Ð½Ð¾": 7263,
      "It": 7264,
      "Ġget": 7265,
      "anda": 7266,
      "ĠÐ¿Ð¾Ð»ÑĥÑĩÐ¸Ð»Ð¸": 7267,
      "ĠÐ³Ð¾ÑģÑĥÐ´Ð°ÑĢÑģÑĤÐ²ÐµÐ½Ð½Ð¾Ð³Ð¾": 7268,
      "Ð°Ð»Ð¸Ð·Ð°ÑĨÐ¸Ð¸": 7269,
      "BM": 7270,
      "ÑģÑĤÐ°Ð½Ð¾Ð²": 7271,
      "orial": 7272,
      "olf": 7273,
      "osing": 7274,
      "Ð¸ÑģÑĤÐ°Ð½": 7275,
      "Ġrank": 7276,
      "Ġunit": 7277,
      "Ġplants": 7278,
      "ĠÐ°Ð²ÑĤÐ¾Ð½Ð¾Ð¼": 7279,
      "ĠÐ¿Ð¾ÐºÐ°": 7280,
      "ĠÐ°ÑįÑĢÐ¾Ð¿": 7281,
      "itz": 7282,
      "Ð°Ð»ÑĮÐ½Ð¸Ðº": 7283,
      "ounts": 7284,
      "ÐĲÐ½": 7285,
      "ÑĥÐ»ÑĮÐ¼Ð°Ð½": 7286,
      "ĠÐ´Ð²ÑĥÐºÑĢÐ°ÑĤ": 7287,
      "ĠÐ®Ð¶Ð½Ð¾Ð¹": 7288,
      "ĠÐ´ÐµÐ¿ÑĥÑĤÐ°ÑĤÐ¾Ð²": 7289,
      "ĠÐ²ÑģÑı": 7290,
      "Ġdyn": 7291,
      "ĠÐ·Ð¸Ð¼": 7292,
      "ĠÐĴÐ°ÑĢ": 7293,
      "ĠÑģÑĤÑĢÐµ": 7294,
      "aches": 7295,
      "Ġrare": 7296,
      "Ġsoon": 7297,
      "ĠÑįÐºÑģÐ¿ÐµÑĢÐ¸Ð¼": 7298,
      "ĠÑĥÐ±Ð¸Ð¹": 7299,
      "Ġchemical": 7300,
      "ĠÑĤÐ°Ð¹": 7301,
      "Ġ1916": 7302,
      "change": 7303,
      "Ð°Ð»Ð¾Ð¼": 7304,
      "41": 7305,
      "Ab": 7306,
      "ĠÐ¼Ð¾ÑģÑĤ": 7307,
      "pped": 7308,
      "ferred": 7309,
      "ĠScot": 7310,
      "ÑĥÑı": 7311,
      "ĠÐºÐ»ÑĥÐ±": 7312,
      "ented": 7313,
      "Ġ1911": 7314,
      "Ð»ÑıÑİÑĤÑģÑı": 7315,
      "Ġamount": 7316,
      "Ġpolicy": 7317,
      "ĠÐ²Ð¾ÐµÐ½Ð½Ð¾": 7318,
      "Ġminor": 7319,
      "ÑıÐ±ÑĢÐµ": 7320,
      "ĠÐ¶ÐµÐ½ÑīÐ¸Ð½": 7321,
      "Ġmeasure": 7322,
      "ĠÑĤÐ¾Ð¼Ñĥ": 7323,
      "Ð¾ÑģÐµ": 7324,
      "Ð¾ÑģÑı": 7325,
      "ĠÐ¿Ð¾Ð´ÑĩÐ¸Ð½": 7326,
      "Ð°Ð½ÑĤÐ°": 7327,
      "Ð³Ð¾Ð»": 7328,
      "ĠÐ±Ð¾ÐµÐ²": 7329,
      "olved": 7330,
      "Ð°ÐºÐ¸": 7331,
      "ĠÐŁÐ»Ð°ÑĤ": 7332,
      "ĠÑĩÑĥÐ²": 7333,
      "iform": 7334,
      "Ġadditional": 7335,
      "ĠÑįÐ»ÐµÐºÑĤÑĢÐ¸ÑĩÐµ": 7336,
      "Ġdetail": 7337,
      "ĠÐ¼ÑĥÐ·ÐµÐ¹": 7338,
      "73": 7339,
      "time": 7340,
      "win": 7341,
      "Ð±Ð¸Ð½": 7342,
      "Ð±Ð¾Ð»ÑĮ": 7343,
      "ĠÐ¡Ðº": 7344,
      "ĠÐĲÐ½ÑĤÐ¾Ð½": 7345,
      "Ġrelease": 7346,
      "Ð¾ÑģÑĤÑĮÑİ": 7347,
      "Ð¾Ð·Ñĭ": 7348,
      "ĠWashington": 7349,
      "Ð°ÑĢÐ¸Ñı": 7350,
      "ĠÐ´ÑĢÑĥÐ³Ð¸Ð¼Ð¸": 7351,
      "Ġprin": 7352,
      "verse": 7353,
      "53": 7354,
      "ÑģÐ¾Ð¼": 7355,
      "Ð°Ð½ÑģÐ¾Ð²": 7356,
      "ĠSol": 7357,
      "ĠÑĢÐµÐº": 7358,
      "ÑĥÑģÑĥÐ»ÑĮÐ¼Ð°Ð½": 7359,
      "ĠÐ¥ÑĢÐ¸ÑģÑĤ": 7360,
      "ĠÑģÐ°Ð¼ÑĭÐ¼": 7361,
      "ĠÐ¾Ð±ÑĢÐ°Ð·Ð¾Ð²Ð°Ð½": 7362,
      "Ð´ÐµÐ½Ð°": 7363,
      "Ð¾Ð²ÑĭÐ¼": 7364,
      "ĠAv": 7365,
      "urches": 7366,
      "igen": 7367,
      "Ġship": 7368,
      "Ġdiss": 7369,
      "ĠÐ·Ð½Ð°ÑĩÐµÐ½Ð¸Ñı": 7370,
      "ĠÐ´Ð¸ÑĢÐ¸Ð¶": 7371,
      "ĠÑģÑĤÑĢÐ¾Ð¸ÑĤÐµÐ»ÑĮÑģÑĤÐ²Ð¾": 7372,
      "Ġprior": 7373,
      "ĠÐ¤Ð¸Ð»Ð¸Ð¿Ð¿": 7374,
      "nia": 7375,
      "Ð½Ð¸Ð·": 7376,
      "Ð°ÐºÑĥ": 7377,
      "ĠJose": 7378,
      "Ġ32": 7379,
      "ĠÑĢÑĥÑģÑģÐºÐ¸Ñħ": 7380,
      "Ġcoach": 7381,
      "ĠÑĨÐµÐ½ÑĤÑĢÐ°": 7382,
      "Ġelected": 7383,
      "Ġsuggested": 7384,
      "edic": 7385,
      "Ð»Ð¸ÑĤÑĮ": 7386,
      "ĠMex": 7387,
      "unity": 7388,
      "ÐŁÐµÑĢÐ²": 7389,
      "Ġcompared": 7390,
      "aren": 7391,
      "Ð¾Ð²Ð°ÑĤÑĮ": 7392,
      "ĠÐ¼Ð¾ÑĤ": 7393,
      "ĠÐ¢ÐµÐ¼": 7394,
      "Ġimmedi": 7395,
      "vention": 7396,
      "Ġcommunic": 7397,
      "Ġdivided": 7398,
      "ÐµÐ´Ð¸": 7399,
      "ĠRom": 7400,
      "ointed": 7401,
      "ĠÐ¿Ð»Ð¾ÑĤ": 7402,
      "ulpt": 7403,
      "Ð°Ð½Ð´Ð¸Ð´": 7404,
      "ĠÐ´Ð²Ð¸Ð³": 7405,
      "Ð¼ÐµÑĪ": 7406,
      "Ġhor": 7407,
      "ĠÐ¿ÑĢÐ¾Ñĩ": 7408,
      "ocal": 7409,
      "Ġwriter": 7410,
      "Ġmainly": 7411,
      "ĠÐ»Ð¸ÑĤÐµÑĢÐ°ÑĤÑĥÑĢÑĭ": 7412,
      "iro": 7413,
      "Ð¸ÑĢÐ°ÑĤ": 7414,
      "Ð·Ð¸Ð¸": 7415,
      "ĠÐŁÑĢÑĥÑģÑģ": 7416,
      "ĠÐ¿Ð¾ÑģÐµ": 7417,
      "ĠÑĥÑĩÐ°ÑģÑĤÐ¸Ðµ": 7418,
      "Ġcollection": 7419,
      "songwriter": 7420,
      "Is": 7421,
      "Ġwide": 7422,
      "ĠÐ½Ð°Ð¹": 7423,
      "Ġcarbon": 7424,
      "Ġperformance": 7425,
      "ĠÐ¼Ð½Ð¾Ð³Ð¾ÑĩÐ¸ÑģÐ»ÐµÐ½": 7426,
      "Ġidea": 7427,
      "mp": 7428,
      "ÑĳÐ³": 7429,
      "iance": 7430,
      "Ġcompon": 7431,
      "ĠÐ¸Ð½ÑĦ": 7432,
      "Ð°Ð½ÑĤÐ°ÑģÑĤ": 7433,
      "ĠÐ¿Ð¾ÑģÑĤÑĥÐ¿": 7434,
      "ĠÐ·Ð°ÐºÐ¾Ð½Ð¾Ð´Ð°ÑĤÐµÐ»ÑĮ": 7435,
      "ĠÐ¼Ð°ÑģÑĤÐµÑĢ": 7436,
      "Ġmom": 7437,
      "ĠÑĤÐ¾Ð»": 7438,
      "Ġask": 7439,
      "ĠÐ¿ÑĢÐ¾Ð³ÑĢÐ°Ð¼Ð¼Ñĭ": 7440,
      "ĠÑĥÐ±Ð¸ÑĤ": 7441,
      "ĠÐ·Ð½Ð°Ð¼ÐµÐ½": 7442,
      "idents": 7443,
      "Ġ1904": 7444,
      "ĠForce": 7445,
      "ĠÐ·ÑĢÐµÐ½Ð¸Ñı": 7446,
      "Ð¾ÑģÑĤÐ¾ÑıÑĤÐµÐ»ÑĮ": 7447,
      "Ð¾Ð»ÑĮÑĦ": 7448,
      "ĠÐŀÑĤÐµÑĩÐµ": 7449,
      "Ð½Ð¾Ð²ÑĮ": 7450,
      "ultural": 7451,
      "Ġcolor": 7452,
      "Ġsettle": 7453,
      "Ġcreate": 7454,
      "ĠÐĲÐ²ÑģÑĤÑĢÐ°": 7455,
      "den": 7456,
      "Ġsens": 7457,
      "Ġcust": 7458,
      "Ġpric": 7459,
      "ĠÐ°Ð¼": 7460,
      "rier": 7461,
      "ÐĵÐ¾ÑģÑĥÐ´Ð°ÑĢ": 7462,
      "ĠÐºÐ¾Ð¼Ð¿Ð»ÐµÐºÑģ": 7463,
      "Ġstudents": 7464,
      "Ð°Ð½Ð½Ð¾Ð¹": 7465,
      "ĠPet": 7466,
      "ĠÐ²Ð¾Ð¹ÑģÐºÐ°Ð¼Ð¸": 7467,
      "ÑģÑĥÑĢ": 7468,
      "Ġbound": 7469,
      "Ġbomb": 7470,
      "ĠTer": 7471,
      "rif": 7472,
      "ĠÐ±Ð¾Ð»ÑĮÑĪÐ¾Ð¹": 7473,
      "ĠÐ³Ð¾ÑģÑĥÐ´Ð°ÑĢÑģÑĤÐ²ÐµÐ½Ð½Ð¾Ð¹": 7474,
      "Ð¸ÑĢÑĥÐµÑĤÑģÑı": 7475,
      "ĠÐ¿ÑĢÐ¾ÑģÑĤÑĢÐ°Ð½ÑģÑĤÐ²Ð°": 7476,
      "ĠÑĤÐµÐ¼Ð¿ÐµÑĢÐ°ÑĤÑĥÑĢÐ°": 7477,
      "Ã¨": 7478,
      "ĠMore": 7479,
      "ĠÐ»ÐµÐ²": 7480,
      "ĠÐ²ÑĭÐ´": 7481,
      "Ð¸ÑĢÐ¾Ð²Ð°Ð½Ð¸Ñı": 7482,
      "ĠÑĥÑģÐ»Ð¾Ð²Ð¸ÑıÑħ": 7483,
      "ÑģÐµÐ²": 7484,
      "ĠÐ¾ÑĤÐº": 7485,
      "Ġwhole": 7486,
      "Ġ160": 7487,
      "ĠÐ¿Ð¾Ð»ÑĮÑģÐºÐ¸Ð¹": 7488,
      "Ġcou": 7489,
      "ÑĢÐ¸Ðº": 7490,
      "Ġalgebra": 7491,
      "Ð¸ÑĤÐµÐ»ÑĮÐ½Ð¾ÑģÑĤÐ¸": 7492,
      "ÑĨÐ¸ÑıÑħ": 7493,
      "Ġenough": 7494,
      "ĠÐ¾Ð±ÑĢÐ°Ð·Ð¾Ð²Ð°Ð½Ð¸Ðµ": 7495,
      "Ġfamous": 7496,
      "ĠWhite": 7497,
      "ĠÑĩÐ»ÐµÐ½Ð¾Ð²": 7498,
      "ID": 7499,
      "ÑĩÐµÐ½": 7500,
      "ÑģÐºÐ¾Ð¿": 7501,
      "Ġmakes": 7502,
      "Ð¸ÑĤÐ°Ñı": 7503,
      "ĠÐŀÐ½Ð¸": 7504,
      "ĠÐŃÐ´": 7505,
      "57": 7506,
      "cks": 7507,
      "Ġsaf": 7508,
      "Ġhyp": 7509,
      "ĠÐ¡ÐµÐ½": 7510,
      "ĠÐļÐ°Ð¼": 7511,
      "ĠÐłÐ¸Ñĩ": 7512,
      "ĠÐĳÐ¾Ð»Ð³": 7513,
      "ĠÐ¿Ð¾Ð´ÑĤ": 7514,
      "ipl": 7515,
      "ĠÐĲÐ»ÐµÐºÑģÐµÐ¹": 7516,
      "Ġbasis": 7517,
      "56": 7518,
      "Ð¾ÑĢÐ´Ð¶": 7519,
      "ÑĥÐ½Ð´": 7520,
      "Ġcontem": 7521,
      "Ġbreak": 7522,
      "iques": 7523,
      "Ġwestern": 7524,
      "ĠAj": 7525,
      "ĠÐļÐĿ": 7526,
      "ĠÑĪÐµÑģÑĤ": 7527,
      "ĠÐ¨ÑĤ": 7528,
      "ĠÐ¿ÐµÑĢÐµÐ²Ð¾Ð´ÑĩÐ¸Ðº": 7529,
      "ĠÑĨÐµÐ»Ð¾Ð¼": 7530,
      "Ġvictory": 7531,
      "ĠÐ¿Ð°ÑģÑģÐ°Ð¶Ð¸ÑĢ": 7532,
      "ĠMartin": 7533,
      "Ġbank": 7534,
      "ĠBill": 7535,
      "ĠCivil": 7536,
      "ĠÐĿÐ¾ÑĢÐ²": 7537,
      "ĠÐºÐ¾Ð½ÑĦÐµÑĢÐµÐ½": 7538,
      "ĠÐŃÑģÑĤÐ¾Ð½": 7539,
      "ĠÐ¾Ð±ÑīÐµÑģÑĤÐ²ÐµÐ½Ð½ÑĭÐ¹": 7540,
      "Ġcontroll": 7541,
      "ĠÐ²Ð¾ÑģÑģÑĤÐ°Ð½Ð¸Ðµ": 7542,
      "ĠÐ±ÐµÐ»Ð¾ÑĢÑĥÑģ": 7543,
      "aud": 7544,
      "ĠÑĦÐ¸Ð³": 7545,
      "ĠFore": 7546,
      "ĠÐĿÐ°Ð¿ÑĢÐ¸Ð¼ÐµÑĢ": 7547,
      "Ġshows": 7548,
      "Ġresponse": 7549,
      "ĠÐĲÐ·Ð¸Ð¸": 7550,
      "liest": 7551,
      "âĪĴ": 7552,
      "ĠÐ¿Ð»Ð¾": 7553,
      "icted": 7554,
      "ĠÐ½Ð°Ð»Ð¸Ñĩ": 7555,
      "ĠÐĴÐµÐ½": 7556,
      "ĠÐĲÑĤ": 7557,
      "ĠRec": 7558,
      "Ġderived": 7559,
      "ĠÐ²Ð¾Ð·Ð²ÑĢÐ°Ñī": 7560,
      "ĠÐļÐ¸ÑĤÐ°Ð¹": 7561,
      "Ð¡Ð¿": 7562,
      "ĠHistor": 7563,
      "ĠGo": 7564,
      "ĠGra": 7565,
      "ĠÐłÐ¾Ð´": 7566,
      "ĠÐ¿Ð¾Ð»Ð½Ð¾Ð¼": 7567,
      "ĠÐºÐ¾ÑĤÐ¾ÑĢÑĭÐ¼": 7568,
      "Ġtex": 7569,
      "ĠÐ²ÐµÑĢÑģÐ¸Ð¸": 7570,
      "ĠCompany": 7571,
      "ĠÑģÐ¼ÐµÐ½": 7572,
      "ÑįÐ»ÑĮ": 7573,
      "ĠMont": 7574,
      "ÐµÐ´ÐµÐ½Ð¸Ñı": 7575,
      "ĠÐ¿ÑĢÐ¸Ð±Ñĭ": 7576,
      "ellig": 7577,
      "ĠÐ¿ÑĢÐ¸Ð¾Ð±": 7578,
      "XXI": 7579,
      "ÐºÐ½Ð¾Ð²": 7580,
      "ĠMark": 7581,
      "ĠÐ¿Ð¾Ð»ÑĳÑĤ": 7582,
      "Ð¸ÑĤÐµÐ»ÑĮÐ½ÑĭÐ¹": 7583,
      "overy": 7584,
      "vey": 7585,
      "ĠÐ¿ÐµÑĢÐµÑģÐµ": 7586,
      "ĠÑģÑĩÐ¸ÑĤÐ°ÐµÑĤÑģÑı": 7587,
      "ĠÐ¾ÑĤÐ»Ð¸ÑĩÐ¸Ðµ": 7588,
      "Ġalgor": 7589,
      "ĠÐ£Ð¸Ð»ÑĮÑıÐ¼": 7590,
      "98": 7591,
      "TP": 7592,
      "ĠÐ¸Ð·Ð¼ÐµÑĢ": 7593,
      "ÐŀÑĤ": 7594,
      "Ġspread": 7595,
      "ĠÐ¯ÑĢÐ¾ÑģÐ»Ð°Ð²": 7596,
      "ĠÑĢÐ°Ð·Ð²Ð¸Ð²": 7597,
      "ĠÐ¾Ð±ÑīÐµÐ¹": 7598,
      "ĠÐ¿ÑĢÐ¾Ð¸ÑģÑħÐ¾Ð´": 7599,
      "Ġdivision": 7600,
      "ĠÑģÑĤÑĢÐ°Ð½Ð°Ñħ": 7601,
      "Ð¾Ð½Ð¸Ð¼": 7602,
      "oles": 7603,
      "Ð¸Ð²Ð°Ð½Ð¸Ñı": 7604,
      "ĠÐºÐ¾Ð½ÑĨÐ°": 7605,
      "ibly": 7606,
      "Ð½Ð¾Ð¿": 7607,
      "onso": 7608,
      "ĠSen": 7609,
      "ĠSouthern": 7610,
      "ĠÐ½Ð°Ð·Ð²Ð°Ð½Ð¸Ñı": 7611,
      "Ġhistorian": 7612,
      "ĠÑģÐ¸Ð½ÑĤ": 7613,
      "Ġlaunch": 7614,
      "Ġprofessional": 7615,
      "Ġdire": 7616,
      "ÐµÐ»Ñİ": 7617,
      "Ð»ÐµÐºÑģÐµ": 7618,
      "ĠÑıÐ´ÐµÑĢ": 7619,
      "arly": 7620,
      "ultan": 7621,
      "ĠÐ²Ð¾Ð¹Ð½Ñĥ": 7622,
      "ĠÑģÐ¸ÑģÑĤÐµÐ¼Ðµ": 7623,
      "Ġ1907": 7624,
      "Ġweap": 7625,
      "ĠÑĤÐµÐ°ÑĤÑĢÐ°Ð»ÑĮ": 7626,
      "ĠÑģÑĭÐ½": 7627,
      "Ġdraw": 7628,
      "Ð¼ÐµÐ½ÑĮ": 7629,
      "Ġactive": 7630,
      "Ġboard": 7631,
      "ĠÐłÐµÑģÐ¿ÑĥÐ±Ð»Ð¸ÐºÐ°": 7632,
      "Ġopened": 7633,
      "Ġphilosophy": 7634,
      "Ġliterature": 7635,
      "ĠÑģÐ±": 7636,
      "Ġbacter": 7637,
      "ĠÑĤÑĢÐµÐ½": 7638,
      "ĠMount": 7639,
      "uments": 7640,
      "Ġpromin": 7641,
      "Ġcompar": 7642,
      "aph": 7643,
      "ĠÐĵÑĢÐ°Ð¶Ð´Ð°Ð½": 7644,
      "ÑĢÐ¾ÑĢ": 7645,
      "Ġorbit": 7646,
      "ĠSpain": 7647,
      "Ġresulting": 7648,
      "ĠÐ½Ð°Ð·ÑĭÐ²Ð°ÐµÑĤÑģÑı": 7649,
      "pr": 7650,
      "press": 7651,
      "zant": 7652,
      "itors": 7653,
      "Ð¾Ð¼Ð¾Ð½": 7654,
      "Ġlunar": 7655,
      "amin": 7656,
      "ĠLibrary": 7657,
      "ĠÑĩÐ°ÑģÑĤÑĮÑİ": 7658,
      "ĠÐ¼Ð¾Ð½Ð°ÑĢÑħ": 7659,
      "ĠRevolution": 7660,
      "bro": 7661,
      "wide": 7662,
      "Ð¸ÑģÑĤÐ°Ð½Ð°": 7663,
      "Ġund": 7664,
      "Ġcentre": 7665,
      "ĠÑģÐ²Ð¾Ð¸Ð¼": 7666,
      "Ġexpans": 7667,
      "Ġrelationship": 7668,
      "alle": 7669,
      "Ġpsych": 7670,
      "Ġdate": 7671,
      "ĠSaint": 7672,
      "Ġstars": 7673,
      "ĠÐĵÑĢÑĥÐ·": 7674,
      "Ġpoor": 7675,
      "Ġletters": 7676,
      "itation": 7677,
      "arter": 7678,
      "ask": 7679,
      "ĠÐ°ÑĦ": 7680,
      "Ð¡Ð¾": 7681,
      "odox": 7682,
      "Ġshown": 7683,
      "Ġcannot": 7684,
      "Ġlegal": 7685,
      "Ġcompleted": 7686,
      "ĠÐ¸Ð½Ð¶ÐµÐ½ÐµÑĢ": 7687,
      "ÐµÐ½ÑĨÐ¸Ð¸": 7688,
      "Ð¾Ð»ÐµÑĤ": 7689,
      "ĠCenter": 7690,
      "Ġice": 7691,
      "ĠÐ¦ÐµÑĢ": 7692,
      "Ġtrue": 7693,
      "ĠÐ¿ÑĥÑĤÐµÑĪÐµ": 7694,
      "ĠÑĢÐ°Ð·Ð»Ð¸ÑĩÐ½ÑĭÐµ": 7695,
      "AC": 7696,
      "Ġwant": 7697,
      "Ð½Ð¸Ð¶": 7698,
      "ĠÑĤÐ°ÐºÐ¸Ð¼": 7699,
      "Ġinfluenced": 7700,
      "ville": 7701,
      "ato": 7702,
      "Ð¸ÑĤÐµÐ»ÑĮÐ½ÑĭÐµ": 7703,
      "Ð¢Ð°Ðº": 7704,
      "ĠÐ¾ÑģÑĤÑĢÐ¾Ð²Ðµ": 7705,
      "ĠÑĢÐµÐ¶Ð¸Ð¼": 7706,
      "Ġesc": 7707,
      "Ġclaimed": 7708,
      "ĠGroup": 7709,
      "ÑĩÐ°Ñģ": 7710,
      "ĠÑģÐµÑĢÐ²": 7711,
      "Ġthous": 7712,
      "ĠCons": 7713,
      "ĠMah": 7714,
      "ĠÐŀÐ»Ð¸Ð¼Ð¿Ð¸Ð¹": 7715,
      "Ġnoted": 7716,
      "ĠFranc": 7717,
      "ĠÐŁÑĢÐ°Ð²Ð¾ÑģÐ»Ð°Ð²": 7718,
      "ĊĠĊĠĊ": 7719,
      "ĠÐĽÐµÐ¹": 7720,
      "ĠÑĩÐµÐ»": 7721,
      "Ġquick": 7722,
      "ĠÐ´Ð¾Ð±Ð°Ð²": 7723,
      "va": 7724,
      "ĠÐ²Ð½Ð¾Ð²ÑĮ": 7725,
      "ĠÐ¾ÑĢÑĥÐ¶": 7726,
      "ÑĢÐµÐ·": 7727,
      "ĠTex": 7728,
      "ĠÐ¡Ð¾Ð»": 7729,
      "earch": 7730,
      "ĠÐºÐ°Ð¿Ð¸ÑĤ": 7731,
      "unicip": 7732,
      "Ġalternative": 7733,
      "ĠAssociation": 7734,
      "vin": 7735,
      "Ð²Ð°Ð½": 7736,
      "ita": 7737,
      "Ġcard": 7738,
      "osaur": 7739,
      "ially": 7740,
      "Ġ1951": 7741,
      "Ġworked": 7742,
      "ÑĥÑīÐ°Ñı": 7743,
      "back": 7744,
      "Ð±ÑĢÑĮ": 7745,
      "ĠBron": 7746,
      "ĠLaw": 7747,
      "ĠÐ°Ð½Ð°Ð»Ð¾Ð³": 7748,
      "ollowing": 7749,
      "ĠÐ¿ÐµÑĢÐ¸Ð¾Ð´Ð°": 7750,
      "ĠÐ´Ð¸Ð½Ð°ÑģÑĤÐ¸Ð¸": 7751,
      "mark": 7752,
      "ĠÐ½Ð¾Ð¼": 7753,
      "Ġheavy": 7754,
      "ĠDef": 7755,
      "Ġcarried": 7756,
      "ĠÑģÐ»ÐµÐ´ÑĥÐµÑĤ": 7757,
      "Ġteams": 7758,
      "ĠXVI": 7759,
      "87": 7760,
      "ĠÐ¾ÑģÐ½Ð¾Ð²Ð½ÑĭÑħ": 7761,
      "Ġsculpt": 7762,
      "ĠÑģÐ¸ÑģÑĤÐµÐ¼Ñĥ": 7763,
      "Ġfunctions": 7764,
      "ĠÑģÐ¾Ð¾ÑĤÐ²ÐµÑĤÑģÑĤÐ²Ð¸Ð¸": 7765,
      "Ġbehind": 7766,
      "ĠÐ°Ð±ÑģÐ¾Ð»ÑİÑĤ": 7767,
      "ÐºÐ²": 7768,
      "use": 7769,
      "ĠÐ·Ð°Ð»": 7770,
      "ĠGrand": 7771,
      "ĠÐ®ÑĢÐ¸Ð¹": 7772,
      "ĠÐ½ÐµÐ´Ð¾ÑģÑĤ": 7773,
      "Ġactivity": 7774,
      "ĠÑĩÐµÑĤÑĭÑĢÑĳÑħ": 7775,
      "Ġ),": 7776,
      "ĠÐ¿Ð»Ðµ": 7777,
      "Ġop": 7778,
      "ĠÐºÐ°Ð»": 7779,
      "ĠÐºÑĢÐ¸Ð·": 7780,
      "Ġ1915": 7781,
      "Ġconver": 7782,
      "ĠDou": 7783,
      "ĠÑĢÐ¾Ð´Ð°": 7784,
      "82": 7785,
      "CO": 7786,
      "with": 7787,
      "ĠÐ¡Ð°": 7788,
      "irm": 7789,
      "Ġconsum": 7790,
      "embly": 7791,
      "ging": 7792,
      "Ð¾Ð´Ñĭ": 7793,
      "ĠMary": 7794,
      "ĠÐ¿ÑĢÐµÐ´ÐµÐ»Ð°": 7795,
      "ĠOx": 7796,
      "ĠAtari": 7797,
      "ĠÑģÐ²Ð¾Ð¹ÑģÑĤÐ²Ð°": 7798,
      "Ġlevels": 7799,
      "bour": 7800,
      "Ïĥ": 7801,
      "Ð»Ð»": 7802,
      "Ð°ÑĢÐ´Ð°": 7803,
      "ĠMil": 7804,
      "ĠÐ¾ÑĤÐ²": 7805,
      "ĠÐ¸Ð½ÑģÑĤÑĢÑĥ": 7806,
      "ÑĦÐµÑĢÐµÐ½Ð´": 7807,
      "ĠBrown": 7808,
      "Ġcorrespond": 7809,
      "can": 7810,
      "ĠÑĤÑıÐ¶": 7811,
      "ĠMet": 7812,
      "ĠÐ¾ÐºÐºÑĥÐ¿": 7813,
      "Ġpun": 7814,
      "Ġpressure": 7815,
      "ĠÐĴÐ¸Ð»ÑĮÐ³ÐµÐ»ÑĮ": 7816,
      "ned": 7817,
      "ÐµÑģÐº": 7818,
      "Ð¾Ð²Ð¾Ðµ": 7819,
      "Ġcred": 7820,
      "ulations": 7821,
      "ĠÑģÑĤÐ¾": 7822,
      "reng": 7823,
      "ĠÐ¿Ð¾Ð²ÑĭÑĪ": 7824,
      "ĠÐ±ÐµÐ·Ð¾Ð¿Ð°ÑģÐ½Ð¾ÑģÑĤÐ¸": 7825,
      "Ġlawyer": 7826,
      "ĠÐ°ÑĤÐ¼Ð¾Ñģ": 7827,
      "ĠÑĥÐºÑĢÐ°Ð¸Ð½ÑģÐºÐ¸Ð¹": 7828,
      "ĠÐ·Ð°Ð¿ÑĢÐµÑī": 7829,
      "akh": 7830,
      "Ġcomplet": 7831,
      "key": 7832,
      "ĠÐľÐ°ÑĢÐ¸Ñı": 7833,
      "ĠÐ¼Ð°ÑĢÑĪÑĢÑĥ": 7834,
      "Ġrisk": 7835,
      ",\"": 7836,
      "Ð¿ÐµÑĢ": 7837,
      "ĠÐ½ÑĭÐ½Ðµ": 7838,
      "cean": 7839,
      "Ġplaces": 7840,
      "ĠÐ´Ð²ÑĥÐ¼": 7841,
      "ĠÐ²ÑģÐµÐ³Ð´Ð°": 7842,
      "ĠÑģÐ¾Ð·Ð´Ð°Ð½Ð¸Ñı": 7843,
      "ÑĥÐºÐ¾Ð²": 7844,
      "onia": 7845,
      "ĠÐ¾Ð±Ð¾ÑĢ": 7846,
      "ĠElect": 7847,
      "ĠDis": 7848,
      "Ġcontrast": 7849,
      "Ġ1903": 7850,
      "Ġincor": 7851,
      "ĠÐ²ÑĭÐ¿ÑĥÑģÐº": 7852,
      "Ġbenef": 7853,
      "ÑģÐµÐ½": 7854,
      "ĠÐ±ÑĢÐ°ÑĤ": 7855,
      "ĠTV": 7856,
      "ĠÐĴÐ¾Ð¹": 7857,
      "Ð¸Ð²Ð°ÑİÑĤ": 7858,
      "Ð½ÐµÐ³": 7859,
      "Ġclimate": 7860,
      "Ġspeed": 7861,
      "Ġearliest": 7862,
      "ĠÐĶÐ¶Ð¾ÑĢÐ´Ð¶": 7863,
      "ĠÑģÑĤÐ°Ð½ÑĨÐ¸Ð¸": 7864,
      "ĠÐĵÐµÐ½ÑĢÐ¸Ñħ": 7865,
      "Ð°Ð¼ÐµÑĢÐ¸ÐºÐ°Ð½": 7866,
      "Ġsport": 7867,
      "ĠAch": 7868,
      "Ġdone": 7869,
      "ĠÐ¼Ð°Ñģ": 7870,
      "ĠÐĲÑħ": 7871,
      "180": 7872,
      "Ġspirit": 7873,
      "ĠBarb": 7874,
      "Ġdemonst": 7875,
      "Ġbuildings": 7876,
      "Ġinn": 7877,
      "ĠÐ¿ÑĢÐ¸Ð²Ðµ": 7878,
      "ĠÑĢÐ°ÑģÑģÑĤÐ¾Ñı": 7879,
      "ÑĭÐ²Ð°ÐµÑĤÑģÑı": 7880,
      "ĠÐ·Ð°Ð½Ð¸Ð¼Ð°ÐµÑĤ": 7881,
      "ĠTurk": 7882,
      "ĠÑĨÐµÑĢÐºÐ¾Ð²ÑĮ": 7883,
      "ÏĤ": 7884,
      "ÑģÐºÐ¾ÑĢÐµ": 7885,
      "alo": 7886,
      "Ð°Ð»Ñĥ": 7887,
      "ĠÐ»ÑĮ": 7888,
      "ograp": 7889,
      "ĠÐºÐ¾ÑĤÐ¾ÑĢÑĥÑİ": 7890,
      "Ġbox": 7891,
      "Ġpresence": 7892,
      "Ġlaunched": 7893,
      "Ġkeep": 7894,
      "Ġmemory": 7895,
      "ĠÐ²Ð¾ÐµÐ½Ð½ÑĭÑħ": 7896,
      "Ġbehav": 7897,
      "ĠÐļÐŁÐ¡Ð¡": 7898,
      "ÐµÐ»Ð¾": 7899,
      "Ġeastern": 7900,
      "Ġnation": 7901,
      "Ġstep": 7902,
      "ĠÐŁÑĢÐ°Ð²Ð¸ÑĤÐµÐ»ÑĮ": 7903,
      "Ġmethods": 7904,
      "\"),": 7905,
      "Ð¸ÐºÑĤ": 7906,
      "ĠBase": 7907,
      "ĠÐ¡Ð¸Ð¼": 7908,
      "Ġforced": 7909,
      "ĠÐ¡ÑĤÐ°Ð»Ð¸Ð½": 7910,
      "ĠÐ¿ÑĢÐ¾Ð¸Ð·Ð²Ð¾Ð´ÑģÑĤÐ²Ð¾": 7911,
      "Ġfinancial": 7912,
      "ĠÐ°Ð½ÑĤÐ¸Ñĩ": 7913,
      "ĠÐ¿ÑĢÐµÐ´Ð¿Ð¾Ð»Ð°Ð³": 7914,
      "92": 7915,
      "Ġtree": 7916,
      "Ġdram": 7917,
      "ĠServ": 7918,
      "ÐļÐ¾Ð¼": 7919,
      "ĠÐ¿ÑĢÐ°Ð²Ð¸Ð»Ð¾": 7920,
      "ĠSecond": 7921,
      "Ġartists": 7922,
      "ĠÑĥÑĢÐ¾Ð²ÐµÐ½ÑĮ": 7923,
      "Ġsuggest": 7924,
      "ÐµÐ½Ð½ÑĭÐ¼": 7925,
      "ĠÐĴÑĭ": 7926,
      "ĠÐĴÑĭÑģ": 7927,
      "ĠÐļÐ¸ÐµÐ²": 7928,
      "ĠÑģÐ°Ð¼Ð¾ÑģÑĤÐ¾ÑıÑĤÐµÐ»ÑĮ": 7929,
      "Ġcounter": 7930,
      "Ġdouble": 7931,
      "ĠMu": 7932,
      "ĠÑĢÐµÑģÑĥÑĢ": 7933,
      "iah": 7934,
      "perial": 7935,
      "Ð¾Ð³ÑĢÐ°Ð´": 7936,
      "Ġchanged": 7937,
      "Ð¸ÑıÐ¼Ð¸": 7938,
      "thodox": 7939,
      "ĠNavy": 7940,
      "ella": 7941,
      "ĠÐ½Ð°ÑĩÐ°Ð»Ð¸": 7942,
      "Ġpreserv": 7943,
      "Ġprimarily": 7944,
      "Ġissue": 7945,
      "ÐºÑĢÐ°ÑĤÐ½ÑĭÐ¹": 7946,
      "rus": 7947,
      "heast": 7948,
      "Ð¾ÑĢÐµÑĩ": 7949,
      "Ð½Ð°Ð»Ð°": 7950,
      "Ð´Ð°ÐµÑĤÑģÑı": 7951,
      "ĠArk": 7952,
      "Ġlocation": 7953,
      "acc": 7954,
      "ĠÑĢÐ°Ð·ÑĢÑĥÑĪ": 7955,
      "ĠÑģÐ¿ÑĥÑĤ": 7956,
      "azine": 7957,
      "ĠÑĦÐ¾ÑĢÐ¼Ñĭ": 7958,
      "Ġrules": 7959,
      "Ġjoined": 7960,
      "Ġcitiz": 7961,
      "Ġult": 7962,
      "ÑıÐ³": 7963,
      "Ð°Ð½Ð½Ð°Ñı": 7964,
      "ĠAh": 7965,
      "ÐµÑģÑĤÐ¸Ð²": 7966,
      "ĠÑģÐ¾ÑĨÐ¸Ð°Ð»Ð¸ÑģÑĤ": 7967,
      "ÐµÐ´Ð¸Ð½Ðµ": 7968,
      "comp": 7969,
      "ĠIrish": 7970,
      "mad": 7971,
      "ss": 7972,
      "ĠÐ¿Ð°Ð»": 7973,
      "Ġcand": 7974,
      "Ð¾Ð´ÐµÐ»ÑĮ": 7975,
      "Ġperm": 7976,
      "ĠÐºÑĥÐ¿": 7977,
      "ĠÑĤÐ¸ÑĤ": 7978,
      "Ð¸ÑĤÐµÐ»ÑĮÐ½Ð¾Ðµ": 7979,
      "Ġcontain": 7980,
      "ĠÐ½Ð°ÑĩÐ°Ð»Ð°ÑģÑĮ": 7981,
      "ĠÐ´Ð¾Ð»Ð¶Ð½Ñĭ": 7982,
      "ĠÐ´ÐµÐ¼Ð¾Ð½": 7983,
      "usal": 7984,
      "ĠTest": 7985,
      "ĠÐ¡Ð¸Ð½": 7986,
      "ĠÐ¡Ð¾Ð±": 7987,
      "ĠMicro": 7988,
      "ĠÑĢÐµÑĪÐµÐ½Ð¸Ñı": 7989,
      "rone": 7990,
      "Ġround": 7991,
      "ĠÐ½Ð¾Ð²Ð¾Ð¹": 7992,
      "Ġimpact": 7993,
      "ĠÐ²ÑĭÐ±Ð¾ÑĢÐ¾Ð²": 7994,
      "which": 7995,
      "ÑıÑİÑĤ": 7996,
      "Ð°Ð½Ð´Ð°": 7997,
      "ĠÐºÑĢÑĥÐ¿Ð½ÑĭÑħ": 7998,
      "ĠÐ´Ð¾Ð¼Ð°": 7999,
      "Ġsociety": 8000,
      "ĠAtlantic": 8001,
      "Ġfocus": 8002,
      "Ð³Ð½": 8003,
      "ela": 8004,
      "Ð°ÑıÑģÑĮ": 8005,
      "Ġability": 8006,
      "ĠÐłÑĥÑģÐ¸": 8007,
      "iated": 8008,
      "Ð°Ð½Ð°Ð²": 8009,
      "iff": 8010,
      "ĠArist": 8011,
      "ÐµÐºÑĤÐ¾ÑĢ": 8012,
      "ĠÐ¸ÑģÑħÐ¾Ð´": 8013,
      "ĠÐ½ÐµÐ¿Ð¾ÑģÑĢÐµÐ´": 8014,
      "ÑĥÐ¼Ð±": 8015,
      "Ð¸ÑĤÐµÐ»ÑĮÐ½ÑĭÑħ": 8016,
      "ĠÑįÑĤÐ¾Ð¼Ñĥ": 8017,
      "Ð¿Ð¾Ð»Ð¸ÑĤ": 8018,
      "ĠÐ½Ð°ÑĢÐ¾Ð´Ð½Ð°Ñı": 8019,
      "Ġforest": 8020,
      "ĠÐ¿ÑĢÐ¾Ð±Ð»ÐµÐ¼": 8021,
      "Ġscientific": 8022,
      "81": 8023,
      "era": 8024,
      "ena": 8025,
      "rog": 8026,
      "ĠSeries": 8027,
      "Ð¸Ð»Ð¾Ð²": 8028,
      "Ð½Ð¸ÑĨÐ¸Ð¿": 8029,
      "undred": 8030,
      "ĠÐ±Ð¾Ð»ÑĮÑĪÐ¾Ðµ": 8031,
      "Ġtraining": 8032,
      "ĠJohnson": 8033,
      "Ġlook": 8034,
      "Ġdefeated": 8035,
      "ĠÑģÐ¾Ð³Ð»Ð°ÑĪÐµÐ½Ð¸Ðµ": 8036,
      "dam": 8037,
      "Ð»Ð°Ð½ÑĤ": 8038,
      "ĠÑģÐ¸ÑĤÑĥ": 8039,
      "Ġpie": 8040,
      "Ð¸ÐºÐ¾Ð¹": 8041,
      "ÑįÑĢ": 8042,
      "ĠÐĳÐµÐ½": 8043,
      "ĠProt": 8044,
      "Ġstatus": 8045,
      "Ð¸Ð¹ÑģÐºÐ¾Ð¹": 8046,
      "ĠÐ¿ÑĢÐµÐ´ÑģÑĤÐ°Ð²Ð»Ñı": 8047,
      "96": 8048,
      "Ġcateg": 8049,
      "ÐµÑĤÐµ": 8050,
      "ĠÐľÐµÐ´": 8051,
      "Ð¿Ð°Ð´Ðµ": 8052,
      "ĠÐ²Ð¿Ð¾ÑģÐ»ÐµÐ´ÑģÑĤÐ²Ð¸Ð¸": 8053,
      "Ġbelief": 8054,
      "ĠÐĺÐ½Ð´Ð¸Ð¸": 8055,
      "ĠÐŁÐ°Ð²ÐµÐ»": 8056,
      "ĠJoseph": 8057,
      "bl": 8058,
      "Ġsus": 8059,
      "ĠÐºÐ°Ð½Ð´Ð¸Ð´": 8060,
      "ĠBBC": 8061,
      "ĠÐŁÐ¾Ð±ÐµÐ´": 8062,
      "ĠÐłÑĭ": 8063,
      "ĠÐ¿ÑĢÐµÐ´ÑģÑĤÐ°Ð²Ð¸ÑĤÐµÐ»ÐµÐ¹": 8064,
      "ĠÐ½Ð¾Ð²Ð¾Ð³Ð¾": 8065,
      "ÑıÑīÐ¸Ñħ": 8066,
      "Ġfailed": 8067,
      "ĠÐĽÐ°ÑĤÐ²": 8068,
      "Ġtheore": 8069,
      "Ð¸Ð²ÑĪÐ¸Ñħ": 8070,
      "ĠFin": 8071,
      "Ġdecre": 8072,
      "ĠÐ¸Ð½Ð¾Ð³Ð´Ð°": 8073,
      "ĠÐ¸ÑģÐ¿Ð°Ð½ÑģÐºÐ¸Ð¹": 8074,
      "Ð¸Ð½Ð³Ð²": 8075,
      "Ð½ÐµÐ²ÐµÐº": 8076,
      "Ġsexual": 8077,
      "hold": 8078,
      "Ġir": 8079,
      "ils": 8080,
      "ĠÐĴÑĮÐµÑĤ": 8081,
      "ĠLord": 8082,
      "ĠÐĲÐ½Ð´ÑĢÐµÐ¹": 8083,
      "ĠÐ´Ð¾ÑĢÐ¾Ð³Ð¸": 8084,
      "ÐµÑĢÑĮ": 8085,
      "ĠÑĤÑĥÑĢÐµ": 8086,
      "ĠÑĩÐ¸ÑģÑĤ": 8087,
      "ĠÐĶÑĢÐµÐ²": 8088,
      "Ð¶ÐµÐ³Ð¾Ð´": 8089,
      "ieval": 8090,
      "Ġobjects": 8091,
      "ĠÑħÐ¾ÑĢÐ¾ÑĪ": 8092,
      "ocratic": 8093,
      "Ġmachine": 8094,
      "Ð²Ð¾Ð²": 8095,
      "ĠVict": 8096,
      "ĠÑģÐ²Ð¾ÑĳÐ¼": 8097,
      "Ġassum": 8098,
      "Ġblue": 8099,
      "ĠÐ´Ð¾Ð»Ð¶ÐµÐ½": 8100,
      "ĠAfghanistan": 8101,
      "ĠÐ¾Ð¶": 8102,
      "ĠÐĴÐ¾Ð·": 8103,
      "otic": 8104,
      "ĠDon": 8105,
      "ĠÑĢÐµÑĦÐµÑĢÐµÐ½Ð´": 8106,
      "Ġamb": 8107,
      "Ġregional": 8108,
      "Ġexperience": 8109,
      "ĠÐĴÐ°ÑģÐ¸Ð»Ð¸Ð¹": 8110,
      "ĠÐĴÐĴÐŁ": 8111,
      "Ð¼Ð¾Ð²": 8112,
      "rod": 8113,
      "ĠCap": 8114,
      "ĠPo": 8115,
      "ĠÑĢÐ°ÑģÑĪÐ¸ÑĢ": 8116,
      "ĠÐµÐ²ÑĢÐµÐ¹": 8117,
      "rument": 8118,
      "ĠÐ²ÑĢÐ°Ñĩ": 8119,
      "Ġlink": 8120,
      "ĠDiv": 8121,
      "obile": 8122,
      "ĠÐ¿Ð¾Ð¼ÐµÑī": 8123,
      "estic": 8124,
      "sec": 8125,
      "Ġrace": 8126,
      "ÑĢÐ°Ð±Ð°ÑĤÑĭ": 8127,
      "Ġrepresented": 8128,
      "ĠÐ²Ð¾Ð·Ð´ÑĥÑĪ": 8129,
      "ĠÐ¿ÑĢÐµÐºÑĢÐ°Ñī": 8130,
      "Ġtaking": 8131,
      "oln": 8132,
      "ĠBible": 8133,
      "ĠÑĪÐ°Ñħ": 8134,
      "ĠÐ¡Ð¾ÑĨÐ¸Ð°Ð»Ð¸ÑģÑĤ": 8135,
      "ĠÐ¾ÐºÑĢÑĥÐ³Ð°": 8136,
      "ĠÐ½Ð°ÑĢÐ¾Ð´Ð°": 8137,
      "Ġquestion": 8138,
      "FC": 8139,
      "arus": 8140,
      "eles": 8141,
      "ĠAbb": 8142,
      "ĠÑģÐ»Ð¾Ð²Ð¾": 8143,
      "Ġidentified": 8144,
      "ĠÐĽÐµÐ½Ð¸Ð½": 8145,
      "ĠÑįÐ»ÐµÐ¼ÐµÐ½ÑĤÐ¾Ð²": 8146,
      "Ġey": 8147,
      "ada": 8148,
      "ĠÐ§ÐµÑħ": 8149,
      "ĠÐ½Ð¾Ð²ÑĭÐµ": 8150,
      "ĠÐĴÐµÐ»Ð¸ÐºÐ¾Ð¹": 8151,
      "Ġneeded": 8152,
      "ÑĦÐ¸ÑĨÐ¸ÑĢÐ¾Ð²": 8153,
      "ĠÑģÐ²Ð¸Ð´ÐµÑĤÐµÐ»ÑĮ": 8154,
      "Further": 8155,
      "ÑĢÐ¸ÐºÐ°Ð½": 8156,
      "ĠÐ¼ÐµÐ»": 8157,
      "ÐŀÐ´": 8158,
      "tee": 8159,
      "ĠAmaz": 8160,
      "ĠÐľÐ¾ÑģÐºÐ²Ñĭ": 8161,
      "ĠColumb": 8162,
      "Ð½ÑİÑİ": 8163,
      "ĠÐ¸Ð½Ð¸": 8164,
      "urder": 8165,
      "ÐŁÑĢÐ°Ð·Ð´": 8166,
      "ÐµÐ³Ð¾ÑĢ": 8167,
      "ĠÐºÐ»Ð¸Ð¼Ð°ÑĤ": 8168,
      "rect": 8169,
      "Ġbra": 8170,
      "roll": 8171,
      "iled": 8172,
      "ĠÑģÐ¾Ð¾ÑĢÑĥÐ¶": 8173,
      "Ð°Ð±ÑĢÐ¸": 8174,
      "ĠÐ¸ÑģÐ¿Ð¾Ð»ÑĮÐ·ÑĥÑİÑĤÑģÑı": 8175,
      "ĠÐ°ÑĢÑħÐ¸ÑĤÐµÐºÑĤÐ¾ÑĢ": 8176,
      "ying": 8177,
      "ÐºÐ»ÑİÑĩ": 8178,
      "Ġsense": 8179,
      "Ð»Ð°Ð³Ð°": 8180,
      "ĠÐĶÐµÐ¼": 8181,
      "oston": 8182,
      "Ġkind": 8183,
      "ĠÐ¢Ð°ÐºÐ¸Ð¼": 8184,
      "ĠByzant": 8185,
      "Ġreduced": 8186,
      "ĠVirgin": 8187,
      "Ġcoin": 8188,
      "ĠÐ±Ñİ": 8189,
      "Ġintended": 8190,
      "ĠÐ¿Ð¸ÑģÐ°ÑĤÐµÐ»ÑĮÐ½Ð¸ÑĨÐ°": 8191,
      "Ġmove": 8192,
      "Ð¸Ð²Ð°Ð»": 8193,
      "Ġarran": 8194,
      "ĠÑģÐ°Ð¼Ð¾Ð³Ð¾": 8195,
      "Ġpeace": 8196,
      "ĠÐĴÑģÐµÐ¼Ð¸ÑĢ": 8197,
      "ĠÐĿÐ¾ÑĢÐ²ÐµÐ³": 8198,
      "uge": 8199,
      "Ġtable": 8200,
      "ĠÐºÑĢÐ¾Ð¼Ðµ": 8201,
      "ÑĪÐ¸Ð±": 8202,
      "Ġstreng": 8203,
      "ĠWind": 8204,
      "ĠJul": 8205,
      "ĠÐ·Ð°Ð¼ÐµÐ½": 8206,
      "Ġannual": 8207,
      "ĠÑĢÐµÐ´Ð°Ðº": 8208,
      "Ð°ÑĤÐ¾ÑĢÐ°": 8209,
      "Ġgraph": 8210,
      "ĠÐ¿ÑĢÐ¸ÐºÐ°Ð·": 8211,
      "Ð¸ÑģÑĤÐºÐ°": 8212,
      "ĠNorthern": 8213,
      "ÑĨÐ¸Ð¾Ð½Ð½Ð¾Ð¹": 8214,
      "ĠÑģÑĢÐµÐ´ÑģÑĤÐ²Ð°": 8215,
      "ĠÐ½Ð°ÑħÐ¾Ð´ÑıÑĤÑģÑı": 8216,
      "This": 8217,
      "Ġrapid": 8218,
      "51": 8219,
      "elt": 8220,
      "ĠÐ¡ÐŁ": 8221,
      "Ġresistance": 8222,
      "Ġpassed": 8223,
      "ĠÐ¿Ð¾Ð·Ð²Ð¾Ð»ÑıÐµÑĤ": 8224,
      "Engl": 8225,
      "46": 8226,
      "ĠÐļÐ°ÑĢÐ°": 8227,
      "Ġblock": 8228,
      "Ġconstruct": 8229,
      "ĠÐ²Ð·Ð³Ð»Ñı": 8230,
      "ĠÑģÑĥÐ±ÑĬ": 8231,
      "Ġfemale": 8232,
      "2000": 8233,
      "ĠÐ½Ð°Ð½": 8234,
      "ĠTra": 8235,
      "Ġcomposed": 8236,
      "Ð¼Ð¸Ð½Ð¸ÑģÑĤÑĢÐ¾Ð¼": 8237,
      "ĠShah": 8238,
      "ĠÐ´Ð¾ÐºÐ°Ð·": 8239,
      "ĠÐ´Ð½Ð¸": 8240,
      "ĠTor": 8241,
      "ĠÐĴÐ¾ÑĢÐ¾Ð½": 8242,
      "ĠÐĲÐ»ÐµÐºÑģÐµ": 8243,
      "ĠÐĿÐµÐ²": 8244,
      "ĠÐķÐ²Ð³": 8245,
      "Ġdistance": 8246,
      "ĠÑģÐµÐ²ÐµÑĢÐµ": 8247,
      "ĠÐ°ÑĤÐ¼Ð¾ÑģÑĦÐµÑĢ": 8248,
      "ĠÐ¿ÑĥÑģÑĤ": 8249,
      "Ġexhib": 8250,
      "ĠÐ¿Ð¾Ð´ÑĢÐ°Ð·": 8251,
      "Ġmaterials": 8252,
      "ĠÐ½ÐµÑĦÑĤ": 8253,
      "Ð¾Ð½ÐµÐ·": 8254,
      "lymp": 8255,
      "Ġislands": 8256,
      "Ġconne": 8257,
      "ĠÐĶÐ°Ð½Ð¸Ð¸": 8258,
      "ĠÐ·Ð°Ð±": 8259,
      "Ġyet": 8260,
      "ĠÐ°Ð¿Ð¿Ð°ÑĢÐ°ÑĤ": 8261,
      "Ġobserved": 8262,
      "ply": 8263,
      "ÐµÐ¸": 8264,
      "ida": 8265,
      "ĠÐŁÐ°": 8266,
      "uman": 8267,
      "Ð¾Ð»Ð¾Ð³Ð¸ÑĩÐµÑģÐºÐ¸Ñħ": 8268,
      "Ġ1901": 8269,
      "Ġdecided": 8270,
      "Ġissues": 8271,
      "ĠÐ¸Ð½ÑĦÐ¾ÑĢÐ¼Ð°ÑĨÐ¸Ð¸": 8272,
      "ĠÐĲÐ¼ÐµÑĢÐ¸ÐºÐ¸": 8273,
      "ÑĩÐ°ÑĤ": 8274,
      "ĠÐºÑĢÐ¾Ð²": 8275,
      "ĠÐ´Ð¾Ð±Ñĭ": 8276,
      "Ð¶Ñĥ": 8277,
      "lection": 8278,
      "ĠÐ±Ð»Ð°Ð³": 8279,
      "ĠÐĳÑĢÐ°Ð·": 8280,
      "Ð²Ð°ÑİÑĤ": 8281,
      "Ð¢Ðŀ": 8282,
      "ĠÐĲÐ²Ð³ÑĥÑģÑĤ": 8283,
      "ĠÐ²Ð¾ÐºÑĢÑĥÐ³": 8284,
      "Ġaccepted": 8285,
      "Ġtexts": 8286,
      "97": 8287,
      "kh": 8288,
      "ners": 8289,
      "uis": 8290,
      "ÑģÑĤÐ°": 8291,
      "ĠÐ²ÑģÐ¿": 8292,
      "ĠÐºÑĢÑĭ": 8293,
      "izations": 8294,
      "ĠÐ²ÐµÑĢÑĤ": 8295,
      "Ġsigned": 8296,
      "ĠÐļÐ¾ÑĢÐ¾Ð»ÐµÐ²": 8297,
      "ĠÐ¿ÑĥÑĤÑĳÐ¼": 8298,
      "incoln": 8299,
      "ĠAthens": 8300,
      "Ġbecoming": 8301,
      "ĠÐłÐ¾Ð±ÐµÑĢÑĤ": 8302,
      "actions": 8303,
      "well": 8304,
      "wana": 8305,
      "itt": 8306,
      "Ġbinary": 8307,
      "Ġpil": 8308,
      "ÑİÑīÐµÐµ": 8309,
      "ĠÐ¼ÑĥÑģÑĥÐ»ÑĮÐ¼Ð°Ð½": 8310,
      "ÑģÐ¿Ð¾ÑĢÑĤ": 8311,
      "ÑĢÐ¾Ð²Ð¸Ñĩ": 8312,
      "Ġappointed": 8313,
      "uese": 8314,
      "ĠPrize": 8315,
      "Ġdisease": 8316,
      "Ġexpansion": 8317,
      "edom": 8318,
      "rief": 8319,
      "ĠÐ¢ÑĢÐ¾ÑĨ": 8320,
      "ÐĵÐ¾ÑĢ": 8321,
      "ĠÐķÐ²ÑĢÐ¾Ð¿ÐµÐ¹": 8322,
      "rison": 8323,
      "Ġreligion": 8324,
      "ĠÑĢÑıÐ´Ð°": 8325,
      "Ð°Ð½Ð½": 8326,
      "Ġhours": 8327,
      "Ð¡ÑĢÐµÐ´": 8328,
      "ĠÐĿÐ¸Ð´ÐµÑĢÐ»Ð°Ð½Ð´": 8329,
      "Ġattacks": 8330,
      "ĠÐ¡ÑĢÐµÐ´Ð¸": 8331,
      "84": 8332,
      "set": 8333,
      "ygen": 8334,
      "ĠAst": 8335,
      "ÑĢÑĥÐ±": 8336,
      "ĠÐ¿Ð¾ÑĤÐ¾Ð¼": 8337,
      "ĠÐŀÐ±ÑĬ": 8338,
      "ĠÐ¸Ð½ÑĤÐµÐ»": 8339,
      "wer": 8340,
      "atre": 8341,
      "Ð¾ÑģÐ¸Ð±Ð¸ÑĢ": 8342,
      "Ġnight": 8343,
      "amine": 8344,
      "ÑĳÐ½Ð½Ð°Ñı": 8345,
      "Ġmatter": 8346,
      "ĠÐ¼Ð¾Ð´ÐµÐ»Ð¸": 8347,
      "ĠÑģÐ¾Ð»Ð½ÐµÑĩ": 8348,
      "Ġsongs": 8349,
      "ĠÐ¿ÑĢÐ¾Ð¸Ð·Ð¾ÑĪÐ»Ð¾": 8350,
      "ĠÐ²Ð°ÑĢÐ¸Ð°Ð½ÑĤ": 8351,
      "rine": 8352,
      "Ã§": 8353,
      "ÑĢÐ°Ð´": 8354,
      "Ġcast": 8355,
      "ĠArg": 8356,
      "ensus": 8357,
      "Ġprison": 8358,
      "Ġprovides": 8359,
      "ĠClass": 8360,
      "ĠÐ½Ð°Ð·ÑĭÐ²Ð°ÑİÑĤ": 8361,
      "ÑĭÐ²Ð°ÐµÑĤ": 8362,
      "ĠXVII": 8363,
      "ĠÑįÐ¿Ð¾ÑħÐ¸": 8364,
      "ĠÑħÐ¾ÐºÐºÐµ": 8365,
      "band": 8366,
      "ĠÐ²Ð»Ð°": 8367,
      "Ġfif": 8368,
      "Ð»ÐµÐ½Ð½ÑĭÑħ": 8369,
      "ĠÐĿÐ¾Ð²Ð¾Ð¹": 8370,
      "ĠÐĵÐ°ÑĢ": 8371,
      "agh": 8372,
      "Ġsuc": 8373,
      "ÐµÐºÐ¾ÑĤÐ¾ÑĢ": 8374,
      "Ð¸ÑĤÐµÐ»ÑĮÐ½Ð¾Ð³Ð¾": 8375,
      "ĠÐ¥Ð°Ð¹": 8376,
      "ĠHeb": 8377,
      "ĠÐ¾Ð³ÑĢÐ¾Ð¼": 8378,
      "Ġsummer": 8379,
      "ÑĪÐ°": 8380,
      "Ġlived": 8381,
      "Ġsearch": 8382,
      "Ġrat": 8383,
      "ĠÑģÐµÑĢÐµÐ´Ð¸Ð½Ðµ": 8384,
      "ĠÑįÐºÐ¾Ð½Ð¾Ð¼Ð¸ÐºÐ¸": 8385,
      "Ġfourth": 8386,
      "ĠÑĥÐ¿Ð¾ÑĤÑĢÐµÐ±": 8387,
      "ĠÐ½Ð°ÑģÑĩÐ¸ÑĤ": 8388,
      "ĠÐ³ÑĢÐ°Ð½Ð¸ÑĨÑĭ": 8389,
      "Ġcombined": 8390,
      "col": 8391,
      "light": 8392,
      "Ð³Ð¾ÑģÐ»Ð°Ð²": 8393,
      "ĠÐĵÑĥ": 8394,
      "ĠÐ¢ÐµÑĢ": 8395,
      "ĠÐºÐ¾Ð½ÐµÑĩ": 8396,
      "ÑİÑīÐ¸Ð¼": 8397,
      "Ġremaining": 8398,
      "Ġaddress": 8399,
      "Ð»Ð°Ð½Ð´ÑģÐºÐ¸Ð¹": 8400,
      "Ġindependence": 8401,
      "By": 8402,
      "ÑĨÐºÐ¸Ð¹": 8403,
      "ÑĳÑĢÐ°": 8404,
      "ĠÐļÑĢÑĭ": 8405,
      "ĠÐ²ÑĭÐ´Ð°": 8406,
      "Ġflu": 8407,
      "Ġbasic": 8408,
      "ĠÐ¸Ð·Ð¾Ð±ÑĢÐ°Ð¶": 8409,
      "Ġpaper": 8410,
      "ÐµÐ½ÑĤÑĭ": 8411,
      "Ġrise": 8412,
      "ĠÑģÐ»ÑĥÑĩÐ°Ð¹": 8413,
      "Ġmarriage": 8414,
      "ĠÐ¿Ð¾Ð²ÐµÑĢÑħÐ½Ð¾ÑģÑĤÐ¸": 8415,
      "ĠÐ·Ð°Ð²Ð¸ÑģÐ¸Ð¼Ð¾ÑģÑĤÐ¸": 8416,
      "Ġmoment": 8417,
      "FL": 8418,
      "Ð¾ÑĨÐ¸": 8419,
      "ÑĮÐµÐ²": 8420,
      "oration": 8421,
      "ĠÐ»Ð¸": 8422,
      "Ġsection": 8423,
      "Ġrot": 8424,
      "ĠÐļÐ°Ð»Ð¸Ð½Ð¸Ð½Ð³ÑĢÐ°Ð´": 8425,
      "ET": 8426,
      "ÑĥÐ°": 8427,
      "ĠRuth": 8428,
      "ĠEr": 8429,
      "Ġcomment": 8430,
      "ĠÐºÐ¾Ð¼Ð¿Ð°Ð½Ð¸Ñı": 8431,
      "aught": 8432,
      "ĠÐĲÑĢÐ¸ÑģÑĤÐ¾ÑĤ": 8433,
      "ĠÐ¿Ð°": 8434,
      "enth": 8435,
      "Ð¸Ð½Ð´": 8436,
      "Ġrecon": 8437,
      "ĠÐ¿ÑĢÐµÐ¸Ð¼ÑĥÑīÐµ": 8438,
      "ÐºÐ¸Ð¼Ð¸": 8439,
      "Ġweight": 8440,
      "Ġargued": 8441,
      "ĠÐĵÑĢÐ¸Ð³Ð¾ÑĢ": 8442,
      "ĠÑĤÑĢÐµÐ½ÐµÑĢ": 8443,
      "ala": 8444,
      "ĠÐ¼Ð»": 8445,
      "ĠRail": 8446,
      "ĠOlymp": 8447,
      "Ġweek": 8448,
      "ĠÑĦÐ¸Ð½Ð°Ð½ÑģÐ¾Ð²": 8449,
      "Ġpreviously": 8450,
      "ĠÑĥÑĩÐ°ÑģÑĤÐ²Ð¾Ð²": 8451,
      "Ð½ÑĥÐ»": 8452,
      "Ð±ÐµÑĢÑĤ": 8453,
      "Ġhapp": 8454,
      "ĠÐ¾Ð¿Ð¿Ð¾Ð·": 8455,
      "ĠÐ½Ð°ÑĩÐ°Ð»Ð¾ÑģÑĮ": 8456,
      "ĠÐĶÐ¶ÐµÐ¹Ð¼": 8457,
      "Ġburn": 8458,
      "ĠÐ´Ð¶": 8459,
      "Ġreign": 8460,
      "ĠÑįÐ¼Ð¸": 8461,
      "ĠÐ¿Ð¾ÑģÑĳÐ»": 8462,
      "ĠÐ¿Ð°Ð¼ÑıÑĤÐ¸": 8463,
      "ĠÐĶÐ¼Ð¸ÑĤÑĢÐ¸Ð¹": 8464,
      "ÐŁÑĢÐ°Ð·Ð´Ð½Ð¸ÐºÐ¸": 8465,
      "Notes": 8466,
      "ÑĢÐ¾Ð¶": 8467,
      "rey": 8468,
      "Ġmicro": 8469,
      "ÑĳÐ²Ð°": 8470,
      "Ġsynt": 8471,
      "arsh": 8472,
      "Ġ1909": 8473,
      "ĠÑİÐ³Ðµ": 8474,
      "Ġslow": 8475,
      "ÐĻÐ¾ÑĢ": 8476,
      "edy": 8477,
      "ÑĨÑĥ": 8478,
      "Ġmig": 8479,
      "Ð¾Ð½Ð¾Ð¼": 8480,
      "ĠÐ±Ð°ÑĢ": 8481,
      "ĠÐļÐ¸ÑĢÐ¸": 8482,
      "Ġgrand": 8483,
      "emit": 8484,
      "ĠÑĤÐµÐ»Ð°": 8485,
      "ĠÐ¿ÑĢÐ°Ð²Ð»ÐµÐ½Ð¸Ñı": 8486,
      "ĠÐ¡ÑĤÐ¾Ð»": 8487,
      "Ġdeaths": 8488,
      "ĠÑģÐ¿ÐµÑĨÐ¸": 8489,
      "Ġmyth": 8490,
      "Ġbroadcast": 8491,
      "ĠÑģÐ²ÑıÑīÐµÐ½Ð½Ð¾Ð¼ÑĥÑĩÐµÐ½": 8492,
      "Ġtend": 8493,
      "ĠÐ½ÑĥÐ¶": 8494,
      "Ġphen": 8495,
      "Ð¸ÑģÐ»Ð°Ð²": 8496,
      "ĠÐ¾Ð±Ð¾ÑĢÐ¾Ð½Ñĭ": 8497,
      "ĠÐĵÐµÐ½ÐµÑĢÐ°": 8498,
      "ÑĥÑİÑīÐµÐ³Ð¾": 8499,
      "Ġexc": 8500,
      "ĠÑħÑĢÐ°Ð½": 8501,
      "Ġ75": 8502,
      "1990": 8503,
      "Ġhumans": 8504,
      "Ġsoldiers": 8505,
      "ĠÐºÐ²Ð°Ð½ÑĤ": 8506,
      "ĠÑĢÐµÐ»Ð¸Ð³Ð¸Ð¸": 8507,
      "AP": 8508,
      "Some": 8509,
      "ĠÑĤÐ°Ð±": 8510,
      "Ð¸ÑĤÐµ": 8511,
      "ilies": 8512,
      "ĠÐ¼Ð¸Ð½Ð¸ÑģÑĤÑĢÐ¾Ð²": 8513,
      "ĠÐ²Ð¼ÐµÑģÑĤÐ¾": 8514,
      "Ð°ÑİÑīÐµÐ¹": 8515,
      "ĠRadio": 8516,
      "ani": 8517,
      "Ð·Ðµ": 8518,
      "ĠAut": 8519,
      "ĠÐ´Ð»Ð¸": 8520,
      "ĠBank": 8521,
      "ĠÐ¿ÐµÑĢÑģ": 8522,
      "Ġchief": 8523,
      "ensity": 8524,
      "ĠÐ¼ÐµÑģÑĤÐ°": 8525,
      "ĠIslands": 8526,
      "ĠÐ·Ð½Ð°ÑĩÐ¸ÑĤÐµÐ»ÑĮÐ½Ð¾": 8527,
      "Ġruns": 8528,
      "ĠOttoman": 8529,
      "ÑıÑİÑĤÑģÑı": 8530,
      "Ġinhab": 8531,
      "Ġmoney": 8532,
      "ĠMa": 8533,
      "ĠMiss": 8534,
      "ava": 8535,
      "ĠÐĶÐ¾": 8536,
      "ĠÐ¿ÑĢÐµÐ´Ð¼ÐµÑĤ": 8537,
      "ĠÐ²ÐµÑĢÑħ": 8538,
      "Ġconstant": 8539,
      "ĠÐ¸Ð·Ð¼ÐµÐ½ÐµÐ½Ð¸Ñı": 8540,
      "Ġturned": 8541,
      "Ġillust": 8542,
      "Ġrespectively": 8543,
      "ES": 8544,
      "cest": 8545,
      "Ġbillion": 8546,
      "ĠÐ¢Ð°Ð¹": 8547,
      "ÐºÐ¸Ð¿Ð°": 8548,
      "anguage": 8549,
      "ĠÑģÐ¾ÐºÑĢÐ°Ñī": 8550,
      "ĠÐ¿ÐµÑĩÐ°ÑĤ": 8551,
      "Ð½Ð¾Ð¾Ð±ÑĢÐ°Ð·": 8552,
      "Ð»ÑıÐ½": 8553,
      "ĠIran": 8554,
      "Ð°Ð¼Ð°": 8555,
      "ĠGold": 8556,
      "ĠÐĺÐ»ÑĮ": 8557,
      "illa": 8558,
      "ternet": 8559,
      "ĠÐ½Ð°ÑĢÐ¾Ð´Ð¾Ð²": 8560,
      "ĠÐ¸Ð·Ð±Ð¸ÑĢÐ°": 8561,
      "Ġolder": 8562,
      "Ð¼Ð¸Ñİ": 8563,
      "ĠÐļÐ¸ÑĤÐ°": 8564,
      "Ð°Ð²ÐºÐ°Ð·": 8565,
      "Ġvow": 8566,
      "ĠÐ¢Ð²ÐµÑĢ": 8567,
      "ĠÑıÐ·ÑĭÐºÐ¸": 8568,
      "ĠÑĥÐ´Ð°Ð»Ð¾ÑģÑĮ": 8569,
      "ĠÐ¼Ð¸Ð½Ð¸ÑģÑĤÑĢ": 8570,
      "ĠÐ¾ÐºÐµÐ°Ð½Ð°": 8571,
      "uild": 8572,
      "ÑĥÑģÐºÐ°": 8573,
      "ĠÐ¾ÑĦÐ¸ÑĨ": 8574,
      "ĠÐĹÐµÐ»Ð°Ð½Ð´": 8575,
      "ĠÐ½Ð°Ð·Ð½Ð°ÑĩÐµÐ½": 8576,
      "Ġproperty": 8577,
      "ĠÐ³ÐµÐ¾Ð³ÑĢÐ°ÑĦ": 8578,
      "ĠÐĹÐ°Ð¿Ð°Ð´Ð½Ð¾Ð¹": 8579,
      "Ġinitially": 8580,
      "ĠÐ´Ð¸ÑĢÐ¸Ð¶ÑĳÑĢ": 8581,
      "Ġpp": 8582,
      "ĠÐ¤ÐµÑĢ": 8583,
      "ĠÑģÐ¾Ð²ÐµÑĤÑģÐºÐ¾Ð¹": 8584,
      "Ġ<": 8585,
      "ĠÂ": 8586,
      "ĠÐ²ÐµÑĩ": 8587,
      "ĠÐ¼ÐµÑĢÐµ": 8588,
      "Ð¸Ð½Ð°Ð¼": 8589,
      "ĠCarl": 8590,
      "Ġauthority": 8591,
      "Ġindividuals": 8592,
      "ĠTechn": 8593,
      "ooth": 8594,
      "Ġspl": 8595,
      "Ð¾Ð¼Ð±": 8596,
      "ĠÐ´ÐµÑĢÐ¶": 8597,
      "ĠCamb": 8598,
      "ĠÐ¡ÐĿ": 8599,
      "ĠÐŁÐ¾Ð³": 8600,
      "ĠEv": 8601,
      "Ġdeep": 8602,
      "Ð·Ð°ÑĨÐ¸Ð¸": 8603,
      "Ġpattern": 8604,
      "ĠÑĩÐµÑĤÑĭÑĢÐµ": 8605,
      "Ġdegree": 8606,
      "rations": 8607,
      "Ġreve": 8608,
      "ĠBern": 8609,
      "Ġnit": 8610,
      "Ð¸ÑĤÐµÐ»ÑĮÐ½Ð¾Ð¹": 8611,
      "Ð°ÑĤÐµÐ»ÑĮÐ½ÑĭÑħ": 8612,
      "Ð¼Ð¸Ð½Ð¸ÑģÑĤÑĢÐ°": 8613,
      "ennis": 8614,
      "ĠGreece": 8615,
      "ĠÐ¶Ð¸Ð²Ð¾ÑĤÐ½ÑĭÑħ": 8616,
      "Ð¡Ð¾Ð²": 8617,
      "ĠÑĤÐ°ÐºÐ¾Ð¹": 8618,
      "Ð¸Ð»Ð¸Ñī": 8619,
      "Ð°ÑĢÐ¸Ð½": 8620,
      "Ð²ÐµÑī": 8621,
      "Ġmatch": 8622,
      "ĠÑģÐµÑĤÐ¸": 8623,
      "Ġharm": 8624,
      "ĠÐ±Ð»Ð¾Ðº": 8625,
      "Ġlif": 8626,
      "ĠÑĤÐµÑĢÐ¼": 8627,
      "ĠÐ³Ð¾ÑĢÐ¾Ð´ÑģÐºÐ¾Ð¹": 8628,
      "Ġmusical": 8629,
      "Ġmedical": 8630,
      "ĠÑģÐ¼ÐµÑĢÑĤ": 8631,
      "Ġsucceed": 8632,
      "ÑĢÐ¾Ñĩ": 8633,
      "inu": 8634,
      "ÑĪÐ°Ð»": 8635,
      "ĠÐ¸ÑģÐ¿ÑĭÑĤ": 8636,
      "ansas": 8637,
      "Ð½ÑĥÑĤÑĮ": 8638,
      "Ġlegisl": 8639,
      "ĠÐ¼Ð¸Ð»Ð»Ð¸Ð¾Ð½Ð¾Ð²": 8640,
      "ĠÐŃÑĤÐ¾ÑĤ": 8641,
      "Ð°Ð»ÐµÐºÑĤ": 8642,
      "reland": 8643,
      "ĠÐ¾ÑĪÐ¸Ð±": 8644,
      "ĠBol": 8645,
      "ĠBoston": 8646,
      "ĠÐ·Ð°ÑĢ": 8647,
      "illed": 8648,
      "Ġconsists": 8649,
      "Ġ1895": 8650,
      "Ġoperating": 8651,
      "Ġrecords": 8652,
      "Ġvalues": 8653,
      "ĠÐ¸ÑģÐ¿Ð¾Ð»ÑĮÐ·Ð¾Ð²Ð°ÑĤÑĮ": 8654,
      "Ġglobal": 8655,
      "ĠÑĪÐ¸ÑĢÐ¾ÐºÐ¾": 8656,
      "Ġalcohol": 8657,
      "ĠÐ¾Ð²": 8658,
      "Ġunc": 8659,
      "ĠÐ¿Ð¾ÑģÐ»ÐµÐ´Ð½Ð¸Ð¹": 8660,
      "Ġtechniques": 8661,
      "ĠÐ²Ð½ÑĥÑĤÑĢÐ¸": 8662,
      "ĠÐ¼Ð°Ð³Ð½Ð¸ÑĤ": 8663,
      "Ġfigure": 8664,
      "ĠÐ¨Ð²ÐµÑĨÐ¸Ð¸": 8665,
      "hi": 8666,
      "Ġtakes": 8667,
      "Ð¸Ð½ÐµÐ½ÑĤ": 8668,
      "ĠÑĩÐ»ÐµÐ½Ñĭ": 8669,
      "ÑĥÐ¼Ðµ": 8670,
      "soft": 8671,
      "ĠAnother": 8672,
      "ĠAbd": 8673,
      "ĠÐ½Ð°Ð¿ÑĢÐ°Ð²Ð»ÐµÐ½Ð¸Ñı": 8674,
      "Ġcandid": 8675,
      "acity": 8676,
      "Ġvan": 8677,
      "Ð¸Ð´Ð¾Ð²": 8678,
      "ÐłÐµÐ»Ð¸": 8679,
      "Ġcharg": 8680,
      "Ġ400": 8681,
      "ĠÑĤÑĢÐ°Ð½ÑģÐ¿Ð¾ÑĢÑĤÐ°": 8682,
      "Ġappearance": 8683,
      "Ġour": 8684,
      "ĠÐºÐ¸Ð»": 8685,
      "ÑĪÐ¸ÑģÑĮ": 8686,
      "ĠBest": 8687,
      "ĠÐļÐ¸ÑĢ": 8688,
      "Ġfort": 8689,
      "ĠNob": 8690,
      "Ġearth": 8691,
      "Ġ1902": 8692,
      "ĠÑģÑĤÐ°ÑĤÐ¸ÑģÑĤ": 8693,
      "Ġbecomes": 8694,
      "ĠJust": 8695,
      "ĠXII": 8696,
      "Ġequal": 8697,
      "ĠÐ´Ð¾ÑģÑĤÐ°ÑĤÐ¾ÑĩÐ½Ð¾": 8698,
      "English": 8699,
      "Ä±": 8700,
      "Ġbapt": 8701,
      "Ð¸ÑĤÐ¸": 8702,
      "ĠÐĴÐµÑĢ": 8703,
      "ĠÑĥÑĩÐµÐ½": 8704,
      "Ġenem": 8705,
      "Ġprovince": 8706,
      "Ġdirected": 8707,
      "ĠBCE": 8708,
      "ĠÐ½Ð¸Ð¶Ðµ": 8709,
      "ÑıÐ»": 8710,
      "atur": 8711,
      "aska": 8712,
      "ĠÐ±Ð¾Ð»ÑĮ": 8713,
      "ĠÐłÑĥ": 8714,
      "Ġvary": 8715,
      "Ð»Ð¾Ð²Ð°": 8716,
      "ĠÐ¾Ð¿ÐµÑĢ": 8717,
      "ĠÐ¿Ð¾ÑģÑĤÐµÐ¿": 8718,
      "ĠÑıÐ·ÑĭÐºÐ°Ñħ": 8719,
      "ÑĥÑīÐ¸Ñħ": 8720,
      "ĠÐºÐ¾Ð½ÑĨÐµÐ¿": 8721,
      "ĠPrime": 8722,
      "Ġautom": 8723,
      "ĠÑĢÑĭÐ±": 8724,
      "ĠÐ¿ÑĢÐµÐ´ÑģÐµÐ´Ð°ÑĤÐµÐ»ÑĮ": 8725,
      "ĠÐ°Ð½Ð°Ð»Ð¸Ð·": 8726,
[...]
