{
  "version": "1.0",
  "truncation": null,
  "padding": null,
  "added_tokens": [
    {
      "id": 0,
      "content": "[PAD]",
      "single_word": false,
      "lstrip": false,
      "rstrip": false,
      "normalized": false,
      "special": true
    },
    {
      "id": 1,
      "content": "[UNK]",
      "single_word": false,
      "lstrip": false,
      "rstrip": false,
      "normalized": false,
      "special": true
    },
    {
      "id": 2,
      "content": "[CLS]",
      "single_word": false,
      "lstrip": false,
      "rstrip": false,
      "normalized": false,
      "special": true
    },
    {
      "id": 3,
      "content": "[SEP]",
      "single_word": false,
      "lstrip": false,
      "rstrip": false,
      "normalized": false,
      "special": true
    },
    {
      "id": 4,
      "content": "[MASK]",
      "single_word": false,
      "lstrip": false,
      "rstrip": false,
      "normalized": false,
      "special": true
    }
  ],
  "normalizer": null,
  "pre_tokenizer": {
    "type": "BertPreTokenizer"
  },
  "post_processor": null,
  "decoder": null,
  "model": {
    "type": "BPE",
    "dropout": null,
    "unk_token": null,
    "continuing_subword_prefix": null,
    "end_of_word_suffix": null,
    "fuse_unk": false,
    "byte_fallback": false,
    "ignore_merges": false,
    "vocab": {
      "[PAD]": 0,
      "[UNK]": 1,
      "[CLS]": 2,
      "[SEP]": 3,
      "[MASK]": 4,
      "!": 5,
      "\"": 6,
      "#": 7,
      "$": 8,
      "%": 9,
      "&": 10,
      "'": 11,
      "(": 12,
      ")": 13,
      "*": 14,
      "+": 15,
      ",": 16,
      "-": 17,
      ".": 18,
      "/": 19,
      "0": 20,
      "1": 21,
      "2": 22,
      "3": 23,
      "4": 24,
      "5": 25,
      "6": 26,
      "7": 27,
      "8": 28,
      "9": 29,
      ":": 30,
      ";": 31,
      "<": 32,
      "=": 33,
      ">": 34,
      "?": 35,
      "@": 36,
      "A": 37,
      "B": 38,
      "C": 39,
      "D": 40,
      "E": 41,
      "F": 42,
      "G": 43,
      "H": 44,
      "I": 45,
      "J": 46,
      "K": 47,
      "L": 48,
      "M": 49,
      "N": 50,
      "O": 51,
      "P": 52,
      "Q": 53,
      "R": 54,
      "S": 55,
      "T": 56,
      "U": 57,
      "V": 58,
      "W": 59,
      "X": 60,
      "Y": 61,
      "Z": 62,
      "[": 63,
      "\\": 64,
      "]": 65,
      "^": 66,
      "_": 67,
      "`": 68,
      "a": 69,
      "b": 70,
      "c": 71,
      "d": 72,
      "e": 73,
      "f": 74,
      "g": 75,
      "h": 76,
      "i": 77,
      "j": 78,
      "k": 79,
      "l": 80,
      "m": 81,
      "n": 82,
      "o": 83,
      "p": 84,
      "q": 85,
      "r": 86,
      "s": 87,
      "t": 88,
      "u": 89,
      "v": 90,
      "w": 91,
      "x": 92,
      "y": 93,
      "z": 94,
      "{": 95,
      "|": 96,
      "}": 97,
      "~": 98,
<<<<<<< HEAD
      "¡": 99,
      "¢": 100,
      "£": 101,
      "¥": 102,
      "¦": 103,
      "§": 104,
      "¨": 105,
      "©": 106,
      "ª": 107,
      "«": 108,
      "¬": 109,
      "­": 110,
      "®": 111,
      "¯": 112,
      "°": 113,
      "±": 114,
      "²": 115,
      "³": 116,
      "´": 117,
      "µ": 118,
      "¶": 119,
      "·": 120,
      "¹": 121,
      "º": 122,
      "»": 123,
      "¼": 124,
      "½": 125,
      "¾": 126,
      "¿": 127,
      "À": 128,
      "Á": 129,
      "Â": 130,
      "Ã": 131,
      "Ä": 132,
      "Å": 133,
      "Æ": 134,
      "Ç": 135,
      "È": 136,
      "É": 137,
      "Ê": 138,
      "Ì": 139,
      "Í": 140,
      "Î": 141,
      "Ï": 142,
      "Ð": 143,
      "Ñ": 144,
      "Ò": 145,
      "Ó": 146,
      "Õ": 147,
      "Ö": 148,
      "×": 149,
      "Ø": 150,
      "Ù": 151,
      "Ú": 152,
      "Û": 153,
      "Ü": 154,
      "Ý": 155,
      "Þ": 156,
      "ß": 157,
      "à": 158,
      "á": 159,
      "â": 160,
      "ã": 161,
      "ä": 162,
      "å": 163,
      "æ": 164,
      "ç": 165,
      "è": 166,
      "é": 167,
      "ê": 168,
      "ë": 169,
      "ì": 170,
      "í": 171,
      "î": 172,
      "ï": 173,
      "ð": 174,
      "ñ": 175,
      "ò": 176,
      "ó": 177,
      "ô": 178,
      "õ": 179,
      "ö": 180,
      "÷": 181,
      "ø": 182,
      "ù": 183,
      "ú": 184,
      "û": 185,
      "ü": 186,
      "ý": 187,
      "þ": 188,
      "ÿ": 189,
      "Ā": 190,
      "ā": 191,
      "Ă": 192,
      "ă": 193,
      "Ą": 194,
      "ą": 195,
      "Ć": 196,
      "ć": 197,
      "Ĉ": 198,
      "ĉ": 199,
      "Č": 200,
      "č": 201,
      "ď": 202,
      "Đ": 203,
      "đ": 204,
      "Ē": 205,
      "ē": 206,
      "Ĕ": 207,
      "ĕ": 208,
      "ė": 209,
      "Ę": 210,
      "ę": 211,
      "Ě": 212,
      "ě": 213,
      "Ĝ": 214,
      "ĝ": 215,
      "Ğ": 216,
      "ğ": 217,
      "ġ": 218,
      "Ģ": 219,
      "ģ": 220,
      "Ĥ": 221,
      "ĥ": 222,
      "Ħ": 223,
      "ħ": 224,
      "Ĩ": 225,
      "ĩ": 226,
      "Ī": 227,
      "ī": 228,
      "ĭ": 229,
      "Į": 230,
      "į": 231,
      "İ": 232,
      "ı": 233,
      "Ĳ": 234,
      "ĳ": 235,
      "Ĵ": 236,
      "ĵ": 237,
      "Ķ": 238,
      "ķ": 239,
      "ļ": 240,
      "Ľ": 241,
      "Ł": 242,
      "ł": 243,
      "ń": 244,
      "ņ": 245,
      "ň": 246,
      "ŉ": 247,
      "Ŋ": 248,
      "ŋ": 249,
      "Ō": 250,
      "ō": 251,
      "ŏ": 252,
      "Ő": 253,
      "ő": 254,
      "Œ": 255,
      "œ": 256,
      "ŕ": 257,
      "ŗ": 258,
      "ř": 259,
      "Ś": 260,
      "ś": 261,
      "Ŝ": 262,
      "ŝ": 263,
      "Ş": 264,
      "ş": 265,
      "Š": 266,
      "š": 267,
      "Ţ": 268,
      "ţ": 269,
      "ť": 270,
      "Ū": 271,
      "ū": 272,
      "Ŭ": 273,
      "ŭ": 274,
      "ů": 275,
      "ű": 276,
      "ų": 277,
      "ŵ": 278,
      "ŷ": 279,
      "Ź": 280,
      "ź": 281,
      "Ż": 282,
      "ż": 283,
      "Ž": 284,
      "ž": 285,
      "ſ": 286,
      "Ɓ": 287,
      "Ɔ": 288,
      "ƈ": 289,
      "Ɗ": 290,
      "Ɛ": 291,
      "ƒ": 292,
      "Ƙ": 293,
      "ƙ": 294,
      "Ɯ": 295,
      "ơ": 296,
      "ƥ": 297,
      "ư": 298,
      "Ƶ": 299,
      "ƶ": 300,
      "Ʒ": 301,
      "Ƹ": 302,
      "ǁ": 303,
      "Ǎ": 304,
      "ǎ": 305,
      "ǐ": 306,
      "ǒ": 307,
      "ǔ": 308,
      "ǝ": 309,
      "Ǟ": 310,
      "ǟ": 311,
      "Ǡ": 312,
      "ǡ": 313,
      "ǣ": 314,
      "ǧ": 315,
      "ǫ": 316,
      "ǯ": 317,
      "ǰ": 318,
      "ǵ": 319,
      "Ǻ": 320,
      "ǻ": 321,
      "Ȁ": 322,
      "ȁ": 323,
      "Ȃ": 324,
      "ȃ": 325,
      "ȅ": 326,
      "ȉ": 327,
      "ȗ": 328,
      "Ș": 329,
      "ș": 330,
      "Ț": 331,
      "ț": 332,
      "ȝ": 333,
      "ȡ": 334,
      "Ȣ": 335,
      "Ȧ": 336,
      "ȧ": 337,
      "ȩ": 338,
      "ȫ": 339,
      "ȷ": 340,
      "Ⱥ": 341,
      "ɐ": 342,
      "ɑ": 343,
      "ɒ": 344,
      "ɓ": 345,
      "ɔ": 346,
      "ɕ": 347,
      "ɗ": 348,
      "ɘ": 349,
      "ə": 350,
      "ɛ": 351,
      "ɟ": 352,
      "ɡ": 353,
      "ɣ": 354,
      "ɤ": 355,
      "ɦ": 356,
      "ɨ": 357,
      "ɪ": 358,
      "ɫ": 359,
      "ɭ": 360,
      "ɲ": 361,
      "ɳ": 362,
      "ɵ": 363,
      "ɸ": 364,
      "ɹ": 365,
      "ɾ": 366,
      "ʂ": 367,
      "ʃ": 368,
      "ʈ": 369,
      "ʉ": 370,
      "ʊ": 371,
      "ʌ": 372,
      "ʎ": 373,
      "ʏ": 374,
      "ʑ": 375,
      "ʒ": 376,
      "ʔ": 377,
      "ʣ": 378,
      "ʤ": 379,
      "ʥ": 380,
      "ʦ": 381,
      "ʧ": 382,
      "ʨ": 383,
      "ʰ": 384,
      "ʲ": 385,
      "ʷ": 386,
      "ʻ": 387,
      "ʼ": 388,
      "ʽ": 389,
      "ʾ": 390,
      "ʿ": 391,
      "ˀ": 392,
      "ˁ": 393,
      "ˈ": 394,
      "ˊ": 395,
      "ː": 396,
      "˘": 397,
      "˚": 398,
      "ˠ": 399,
      "˭": 400,
      "˹": 401,
      "˺": 402,
      "̀": 403,
      "́": 404,
      "̂": 405,
      "̃": 406,
      "̄": 407,
      "̅": 408,
      "̈": 409,
      "̊": 410,
      "̌": 411,
      "̑": 412,
      "̡": 413,
      "̥": 414,
      "̦": 415,
      "̨": 416,
      "̮": 417,
      "̯": 418,
      "̲": 419,
      "̵": 420,
      "̽": 421,
      "͟": 422,
      "͡": 423,
      "Ϳ": 424,
      "΄": 425,
      "Ά": 426,
      "Έ": 427,
      "ΐ": 428,
      "Α": 429,
      "Β": 430,
      "Γ": 431,
      "Δ": 432,
      "Ε": 433,
      "Ζ": 434,
      "Η": 435,
      "Θ": 436,
      "Ι": 437,
      "Κ": 438,
      "Λ": 439,
      "Μ": 440,
      "Ν": 441,
      "Ξ": 442,
      "Ο": 443,
      "Π": 444,
      "Ρ": 445,
      "Σ": 446,
      "Τ": 447,
      "Υ": 448,
      "Φ": 449,
      "Χ": 450,
      "Ψ": 451,
      "Ω": 452,
      "Ϊ": 453,
      "ά": 454,
      "έ": 455,
      "ή": 456,
      "ί": 457,
      "α": 458,
      "β": 459,
      "γ": 460,
      "δ": 461,
      "ε": 462,
      "ζ": 463,
      "η": 464,
      "θ": 465,
      "ι": 466,
      "κ": 467,
      "λ": 468,
      "μ": 469,
      "ν": 470,
      "ξ": 471,
      "ο": 472,
      "π": 473,
      "ρ": 474,
      "ς": 475,
      "σ": 476,
      "τ": 477,
      "υ": 478,
      "φ": 479,
      "χ": 480,
      "ψ": 481,
      "ω": 482,
      "ϊ": 483,
      "ϋ": 484,
      "ό": 485,
      "ύ": 486,
      "ώ": 487,
      "ϑ": 488,
      "ϒ": 489,
      "Ϙ": 490,
      "ϝ": 491,
      "Ϫ": 492,
      "ϰ": 493,
      "ϲ": 494,
      "ϳ": 495,
      "ϵ": 496,
      "Ё": 497,
      "Ђ": 498,
      "Ѓ": 499,
      "Є": 500,
      "Ѕ": 501,
      "І": 502,
      "Ї": 503,
      "Ј": 504,
      "Љ": 505,
      "Њ": 506,
      "Ћ": 507,
      "Ќ": 508,
      "Ў": 509,
      "Џ": 510,
      "А": 511,
      "Б": 512,
      "В": 513,
      "Г": 514,
      "Д": 515,
      "Е": 516,
      "Ж": 517,
      "З": 518,
      "И": 519,
      "Й": 520,
      "К": 521,
      "Л": 522,
      "М": 523,
      "Н": 524,
      "О": 525,
      "П": 526,
      "Р": 527,
      "С": 528,
      "Т": 529,
      "У": 530,
      "Ф": 531,
      "Х": 532,
      "Ц": 533,
      "Ч": 534,
      "Ш": 535,
      "Щ": 536,
      "Ъ": 537,
      "Ы": 538,
      "Ь": 539,
      "Э": 540,
      "Ю": 541,
      "Я": 542,
      "а": 543,
      "б": 544,
      "в": 545,
      "г": 546,
      "д": 547,
      "е": 548,
      "ж": 549,
      "з": 550,
      "и": 551,
      "й": 552,
      "к": 553,
      "л": 554,
      "м": 555,
      "н": 556,
      "о": 557,
      "п": 558,
      "р": 559,
      "с": 560,
      "т": 561,
      "у": 562,
      "ф": 563,
      "х": 564,
      "ц": 565,
      "ч": 566,
      "ш": 567,
      "щ": 568,
      "ъ": 569,
      "ы": 570,
      "ь": 571,
      "э": 572,
      "ю": 573,
      "я": 574,
      "ѐ": 575,
      "ё": 576,
      "ђ": 577,
      "є": 578,
      "ѕ": 579,
      "і": 580,
      "ї": 581,
      "ј": 582,
      "љ": 583,
      "њ": 584,
      "ћ": 585,
      "ѝ": 586,
      "ў": 587,
      "џ": 588,
      "Ѡ": 589,
      "ѡ": 590,
      "Ѣ": 591,
      "ѣ": 592,
      "Ѥ": 593,
      "ѥ": 594,
      "Ѧ": 595,
      "ѧ": 596,
      "Ѩ": 597,
      "ѩ": 598,
      "Ѫ": 599,
      "ѫ": 600,
      "Ѭ": 601,
      "Ѯ": 602,
      "Ѱ": 603,
      "Ѳ": 604,
      "ѳ": 605,
      "Ѵ": 606,
      "ѵ": 607,
      "ѻ": 608,
      "Ѿ": 609,
      "ѿ": 610,
      "҂": 611,
      "҃": 612,
      "҅": 613,
      "Ґ": 614,
      "ґ": 615,
      "Ғ": 616,
      "ғ": 617,
      "Қ": 618,
      "қ": 619,
      "ҝ": 620,
      "Ң": 621,
      "ң": 622,
      "Ү": 623,
      "ү": 624,
      "Ұ": 625,
      "ұ": 626,
      "ҳ": 627,
      "Ҷ": 628,
      "ҷ": 629,
      "Һ": 630,
      "һ": 631,
      "Ӏ": 632,
      "Ӄ": 633,
      "ӏ": 634,
      "ӓ": 635,
      "Ә": 636,
      "ә": 637,
      "Ӝ": 638,
      "Ӡ": 639,
      "ӡ": 640,
      "Ө": 641,
      "ө": 642,
      "Ӯ": 643,
      "ӱ": 644,
      "ӹ": 645,
      "Ա": 646,
      "Գ": 647,
      "Դ": 648,
      "Ե": 649,
      "Թ": 650,
      "Լ": 651,
      "Մ": 652,
      "Ն": 653,
      "Ո": 654,
      "Ջ": 655,
      "Ս": 656,
      "Վ": 657,
      "Տ": 658,
      "Ւ": 659,
      "Ք": 660,
      "ա": 661,
      "բ": 662,
      "գ": 663,
      "դ": 664,
      "ե": 665,
      "զ": 666,
      "է": 667,
      "թ": 668,
      "ի": 669,
      "լ": 670,
      "խ": 671,
      "ծ": 672,
      "կ": 673,
      "հ": 674,
      "ղ": 675,
      "մ": 676,
      "յ": 677,
      "ն": 678,
      "շ": 679,
      "ո": 680,
      "չ": 681,
      "պ": 682,
      "ջ": 683,
      "ռ": 684,
      "ս": 685,
      "վ": 686,
      "տ": 687,
      "ր": 688,
      "ց": 689,
      "ւ": 690,
      "ք": 691,
      "օ": 692,
      "ֆ": 693,
      "և": 694,
      "ְ": 695,
      "ֲ": 696,
      "ִ": 697,
      "ֵ": 698,
      "ֶ": 699,
      "ַ": 700,
      "ָ": 701,
      "ֹ": 702,
      "ֻ": 703,
      "ּ": 704,
      "־": 705,
      "ׁ": 706,
      "ׂ": 707,
      "א": 708,
      "ב": 709,
      "ג": 710,
      "ד": 711,
      "ה": 712,
      "ו": 713,
      "ז": 714,
      "ח": 715,
      "ט": 716,
      "י": 717,
      "ך": 718,
      "כ": 719,
      "ל": 720,
      "ם": 721,
      "מ": 722,
      "ן": 723,
      "נ": 724,
      "ס": 725,
      "ע": 726,
      "ף": 727,
      "פ": 728,
      "ץ": 729,
      "צ": 730,
      "ק": 731,
      "ר": 732,
      "ש": 733,
      "ת": 734,
      "׳": 735,
      "״": 736,
      "ء": 737,
      "آ": 738,
      "أ": 739,
      "ؤ": 740,
      "إ": 741,
      "ئ": 742,
      "ا": 743,
      "ب": 744,
      "ة": 745,
      "ت": 746,
      "ث": 747,
      "ج": 748,
      "ح": 749,
      "خ": 750,
      "د": 751,
      "ذ": 752,
      "ر": 753,
      "ز": 754,
      "س": 755,
      "ش": 756,
      "ص": 757,
      "ض": 758,
      "ط": 759,
      "ظ": 760,
      "ع": 761,
      "غ": 762,
      "ـ": 763,
      "ف": 764,
      "ق": 765,
      "ك": 766,
      "ل": 767,
      "م": 768,
      "ن": 769,
      "ه": 770,
      "و": 771,
      "ى": 772,
      "ي": 773,
      "ً": 774,
      "َ": 775,
      "ُ": 776,
      "ِ": 777,
      "ّ": 778,
      "ْ": 779,
      "٠": 780,
      "١": 781,
      "٢": 782,
      "٣": 783,
      "٤": 784,
      "٥": 785,
      "٦": 786,
      "٧": 787,
      "٨": 788,
      "٩": 789,
      "ٰ": 790,
      "ٱ": 791,
      "ٹ": 792,
      "پ": 793,
      "څ": 794,
      "چ": 795,
      "ڈ": 796,
      "ژ": 797,
      "ڤ": 798,
      "ڥ": 799,
      "ک": 800,
      "ڬ": 801,
      "ڭ": 802,
      "ڮ": 803,
      "گ": 804,
      "ی": 805,
      "ۖ": 806,
      "۝": 807,
      "۞": 808,
      "ܐ": 809,
      "ܒ": 810,
      "ܓ": 811,
      "ܕ": 812,
      "ܗ": 813,
      "ܙ": 814,
      "ܝ": 815,
      "ܠ": 816,
      "ܡ": 817,
      "ܢ": 818,
      "ܪ": 819,
      "ܬ": 820,
      "ܲ": 821,
      "ܵ": 822,
      "ܼ": 823,
      "݂": 824,
      "݇": 825,
      "ं": 826,
      "ः": 827,
      "अ": 828,
      "आ": 829,
      "ई": 830,
      "ऋ": 831,
      "क": 832,
      "ख": 833,
      "च": 834,
      "छ": 835,
      "ज": 836,
      "झ": 837,
      "ट": 838,
      "ड": 839,
      "त": 840,
      "थ": 841,
      "द": 842,
      "ध": 843,
      "न": 844,
      "प": 845,
      "ब": 846,
      "म": 847,
      "य": 848,
      "र": 849,
      "ल": 850,
      "व": 851,
      "श": 852,
      "ष": 853,
      "स": 854,
      "ा": 855,
      "ि": 856,
      "ी": 857,
      "ु": 858,
      "ृ": 859,
      "े": 860,
      "ो": 861,
      "्": 862,
      "।": 863,
      "আ": 864,
      "ক": 865,
      "গ": 866,
      "জ": 867,
      "ত": 868,
      "দ": 869,
      "ন": 870,
      "প": 871,
      "ব": 872,
      "ভ": 873,
      "য": 874,
      "র": 875,
      "ল": 876,
      "স": 877,
      "়": 878,
      "া": 879,
      "ি": 880,
      "ু": 881,
      "ূ": 882,
      "ে": 883,
      "ো": 884,
      "্": 885,
      "ક": 886,
      "ણ": 887,
      "દ": 888,
      "પ": 889,
      "લ": 890,
      "ષ": 891,
      "સ": 892,
      "ા": 893,
      "્": 894,
      "ஒ": 895,
      "ட": 896,
      "ன": 897,
      "ப": 898,
      "ம": 899,
      "ய": 900,
      "ர": 901,
      "வ": 902,
      "ி": 903,
      "ீ": 904,
      "ு": 905,
      "ை": 906,
      "ொ": 907,
      "்": 908,
      "അ": 909,
      "ഇ": 910,
      "ക": 911,
      "ച": 912,
      "ട": 913,
      "ണ": 914,
      "യ": 915,
      "ര": 916,
      "ല": 917,
      "ള": 918,
      "സ": 919,
      "ാ": 920,
      "ി": 921,
      "ു": 922,
      "ോ": 923,
      "്": 924,
      "ค": 925,
      "ง": 926,
      "ช": 927,
      "บ": 928,
      "ม": 929,
      "ย": 930,
      "ร": 931,
      "ส": 932,
      "ห": 933,
      "อ": 934,
      "ะ": 935,
      "า": 936,
      "ิ": 937,
      "ี": 938,
      "เ": 939,
      "์": 940,
      "་": 941,
      "།": 942,
      "ཁ": 943,
      "ག": 944,
      "ར": 945,
      "ོ": 946,
      "ྫ": 947,
      "Ⴀ": 948,
      "Ⴃ": 949,
      "Ⴇ": 950,
      "Ⴊ": 951,
      "Ⴋ": 952,
      "Ⴍ": 953,
      "Ⴐ": 954,
      "Ⴑ": 955,
      "Ⴕ": 956,
      "Ⴡ": 957,
      "Ⴤ": 958,
      "ა": 959,
      "გ": 960,
      "დ": 961,
      "ე": 962,
      "კ": 963,
      "ლ": 964,
      "ნ": 965,
      "რ": 966,
      "ს": 967,
      "ქ": 968,
      "წ": 969,
      "ჭ": 970,
      "ᅀ": 971,
      "ሀ": 972,
      "ሁ": 973,
      "ሂ": 974,
      "ህ": 975,
      "ር": 976,
      "ስ": 977,
      "ን": 978,
      "እ": 979,
      "ክ": 980,
      "ድ": 981,
      "ᐱ": 982,
      "ᐳ": 983,
      "ᐶ": 984,
      "ᐸ": 985,
      "ᑎ": 986,
      "ᑐ": 987,
      "ᑕ": 988,
      "ᕡ": 989,
      "ᗆ": 990,
      "ᗗ": 991,
      "ᗘ": 992,
      "ᗡ": 993,
      "ᚼ": 994,
      "ᛁ": 995,
      "ᛉ": 996,
      "ᛐ": 997,
      "ᛒ": 998,
      "᛭": 999,
      "ᛳ": 1000,
      "់": 1001,
      "ᴀ": 1002,
      "ᴥ": 1003,
      "ᵄ": 1004,
      "ᶏ": 1005,
      "ᶐ": 1006,
      "ᶛ": 1007,
      "ᶯ": 1008,
      "Ḁ": 1009,
      "ḁ": 1010,
      "ḇ": 1011,
      "Ḍ": 1012,
      "ḍ": 1013,
      "ḏ": 1014,
      "ḑ": 1015,
      "ḗ": 1016,
      "ḙ": 1017,
      "ḡ": 1018,
      "Ḥ": 1019,
      "ḥ": 1020,
      "Ḫ": 1021,
      "ḫ": 1022,
      "ḯ": 1023,
      "ḱ": 1024,
      "Ḳ": 1025,
      "ḳ": 1026,
      "ḵ": 1027,
      "ḷ": 1028,
      "ṁ": 1029,
      "ṃ": 1030,
      "ṅ": 1031,
      "ṇ": 1032,
      "ṓ": 1033,
      "ṕ": 1034,
      "ṗ": 1035,
      "ṙ": 1036,
      "ṛ": 1037,
      "Ṟ": 1038,
      "Ṣ": 1039,
      "ṣ": 1040,
      "Ṫ": 1041,
      "Ṭ": 1042,
      "ṭ": 1043,
      "ṯ": 1044,
      "ṷ": 1045,
      "Ẃ": 1046,
      "Ẅ": 1047,
      "Ẇ": 1048,
      "Ẉ": 1049,
      "Ẓ": 1050,
      "ẓ": 1051,
      "ẖ": 1052,
      "ẚ": 1053,
      "Ạ": 1054,
      "ạ": 1055,
      "Ả": 1056,
      "ả": 1057,
      "Ấ": 1058,
      "ấ": 1059,
      "Ầ": 1060,
      "ầ": 1061,
      "Ẩ": 1062,
      "ẩ": 1063,
      "Ẫ": 1064,
      "ẫ": 1065,
      "Ậ": 1066,
      "ậ": 1067,
      "Ắ": 1068,
      "ắ": 1069,
      "Ằ": 1070,
      "ằ": 1071,
      "Ẳ": 1072,
      "ẳ": 1073,
      "Ẵ": 1074,
      "ẵ": 1075,
      "Ặ": 1076,
      "ặ": 1077,
      "Ẹ": 1078,
      "ẹ": 1079,
      "ẻ": 1080,
      "ẽ": 1081,
      "ế": 1082,
      "ể": 1083,
      "ễ": 1084,
      "ệ": 1085,
      "ỉ": 1086,
      "ị": 1087,
      "ọ": 1088,
      "ồ": 1089,
      "ỗ": 1090,
      "ộ": 1091,
      "ớ": 1092,
      "ờ": 1093,
      "ợ": 1094,
      "Ụ": 1095,
      "ữ": 1096,
      "ỳ": 1097,
      "ỷ": 1098,
      "ἀ": 1099,
      "ἁ": 1100,
      "ἂ": 1101,
      "ἃ": 1102,
      "ἄ": 1103,
      "ἅ": 1104,
      "Ἀ": 1105,
      "Ἁ": 1106,
      "Ἄ": 1107,
      "Ἅ": 1108,
      "ἐ": 1109,
      "ἑ": 1110,
      "ἒ": 1111,
      "ἔ": 1112,
      "ἕ": 1113,
      "Ἐ": 1114,
      "Ἑ": 1115,
      "Ἔ": 1116,
      "Ἕ": 1117,
      "ἠ": 1118,
      "ἡ": 1119,
      "ἢ": 1120,
      "ἤ": 1121,
      "ἥ": 1122,
      "ἦ": 1123,
      "Ἡ": 1124,
      "Ἥ": 1125,
      "Ἦ": 1126,
      "ἰ": 1127,
      "ἱ": 1128,
      "ἲ": 1129,
      "ἳ": 1130,
      "ἴ": 1131,
      "ἵ": 1132,
      "ἶ": 1133,
      "ἷ": 1134,
      "Ἰ": 1135,
      "Ἱ": 1136,
      "Ἵ": 1137,
      "ὀ": 1138,
      "ὁ": 1139,
      "ὄ": 1140,
      "ὅ": 1141,
      "Ὀ": 1142,
      "Ὁ": 1143,
      "Ὅ": 1144,
      "ὐ": 1145,
      "ὑ": 1146,
      "ὔ": 1147,
      "ὕ": 1148,
      "ὖ": 1149,
      "ὗ": 1150,
      "Ὑ": 1151,
      "ὡ": 1152,
      "ὢ": 1153,
      "ὤ": 1154,
      "ὥ": 1155,
      "ὦ": 1156,
      "Ὠ": 1157,
      "Ὢ": 1158,
      "Ὤ": 1159,
      "Ὧ": 1160,
      "ὰ": 1161,
      "ὲ": 1162,
      "ὴ": 1163,
      "ὶ": 1164,
      "ὸ": 1165,
      "ὺ": 1166,
      "ὼ": 1167,
      "ᾴ": 1168,
      "ᾶ": 1169,
      "ᾷ": 1170,
      "᾽": 1171,
      "᾿": 1172,
      "ῃ": 1173,
      "ῆ": 1174,
      "ῖ": 1175,
      "῞": 1176,
      "ῥ": 1177,
      "ῦ": 1178,
      "Ῥ": 1179,
      "ῶ": 1180,
      "ῷ": 1181,
      "῾": 1182,
      "​": 1183,
      "‌": 1184,
      "‍": 1185,
      "‎": 1186,
      "‐": 1187,
      "‑": 1188,
      "‒": 1189,
      "–": 1190,
      "—": 1191,
      "―": 1192,
      "‘": 1193,
      "’": 1194,
      "‚": 1195,
      "‛": 1196,
      "“": 1197,
      "”": 1198,
      "„": 1199,
      "†": 1200,
      "‡": 1201,
      "•": 1202,
      "․": 1203,
      "…": 1204,
      "‰": 1205,
      "′": 1206,
      "″": 1207,
      "‹": 1208,
      "›": 1209,
      "‿": 1210,
      "⁂": 1211,
      "⁠": 1212,
      "⁣": 1213,
      "⁰": 1214,
      "⁵": 1215,
      "⁻": 1216,
      "₁": 1217,
      "₂": 1218,
      "₃": 1219,
      "₄": 1220,
      "₡": 1221,
      "₩": 1222,
      "₪": 1223,
      "€": 1224,
      "₮": 1225,
      "₲": 1226,
      "₳": 1227,
      "₸": 1228,
      "₹": 1229,
      "℃": 1230,
      "ℏ": 1231,
      "ℓ": 1232,
      "№": 1233,
      "™": 1234,
      "⅓": 1235,
      "⅔": 1236,
      "⅛": 1237,
      "Ⅱ": 1238,
      "ↂ": 1239,
      "←": 1240,
      "↑": 1241,
      "→": 1242,
      "↓": 1243,
      "↔": 1244,
      "⇌": 1245,
      "∀": 1246,
      "∂": 1247,
      "∃": 1248,
      "∅": 1249,
      "∆": 1250,
      "∈": 1251,
      "∊": 1252,
      "∋": 1253,
      "−": 1254,
      "∗": 1255,
      "∘": 1256,
      "∙": 1257,
      "√": 1258,
      "∝": 1259,
      "∞": 1260,
      "∧": 1261,
      "∨": 1262,
      "∩": 1263,
      "∪": 1264,
      "∫": 1265,
      "∴": 1266,
      "∼": 1267,
      "≈": 1268,
      "≟": 1269,
      "≠": 1270,
      "≡": 1271,
      "≤": 1272,
      "≥": 1273,
      "≫": 1274,
      "≼": 1275,
      "≽": 1276,
      "⊂": 1277,
      "⊃": 1278,
      "⊆": 1279,
      "⊕": 1280,
      "⊖": 1281,
      "⊗": 1282,
      "⊤": 1283,
      "⊥": 1284,
      "⋅": 1285,
      "⋯": 1286,
      "⌈": 1287,
      "⌊": 1288,
      "⌋": 1289,
      "⌽": 1290,
      "⌿": 1291,
      "⍋": 1292,
      "⍨": 1293,
      "⍳": 1294,
      "⍴": 1295,
      "⍵": 1296,
      "⎧": 1297,
      "⎩": 1298,
      "⏨": 1299,
      "␣": 1300,
      "Ⓐ": 1301,
      "─": 1302,
      "┌": 1303,
      "┐": 1304,
      "╥": 1305,
      "╨": 1306,
      "▀": 1307,
      "▄": 1308,
      "█": 1309,
      "░": 1310,
      "▒": 1311,
      "▓": 1312,
      "□": 1313,
      "▼": 1314,
      "◊": 1315,
      "○": 1316,
      "◘": 1317,
      "☄": 1318,
      "☉": 1319,
      "☊": 1320,
      "☋": 1321,
      "☠": 1322,
      "☫": 1323,
      "☺": 1324,
      "♀": 1325,
      "♂": 1326,
      "♈": 1327,
      "♋": 1328,
      "♎": 1329,
      "♑": 1330,
      "♒": 1331,
      "♥": 1332,
      "♦": 1333,
      "♭": 1334,
      "♯": 1335,
      "♾": 1336,
      "⚇": 1337,
      "⚓": 1338,
      "⚗": 1339,
      "⚘": 1340,
      "⚥": 1341,
      "⚲": 1342,
      "⟨": 1343,
      "⟩": 1344,
      "⟳": 1345,
      "⟶": 1346,
      "⠀": 1347,
      "⠁": 1348,
      "⠋": 1349,
      "⠙": 1350,
      "⠟": 1351,
      "⠻": 1352,
      "⠿": 1353,
      "⡈": 1354,
      "⡟": 1355,
      "⡷": 1356,
      "⡿": 1357,
      "⢀": 1358,
      "⢁": 1359,
      "⢻": 1360,
      "⢿": 1361,
      "⣉": 1362,
      "⣌": 1363,
      "⣠": 1364,
      "⣦": 1365,
      "⣧": 1366,
      "⣴": 1367,
      "⣶": 1368,
      "⣷": 1369,
      "⣼": 1370,
      "⣾": 1371,
      "⣿": 1372,
      "⩽": 1373,
      "Ⰰ": 1374,
      "Ⰶ": 1375,
      "Ⱌ": 1376,
      "Ⱑ": 1377,
      "ⱑ": 1378,
      "ⱥ": 1379,
      "Ɑ": 1380,
      "Ɐ": 1381,
      "Ɒ": 1382,
      "ⱷ": 1383,
      "ⲃ": 1384,
      "ⲇ": 1385,
      "ⲉ": 1386,
      "ⲓ": 1387,
      "ⲡ": 1388,
      "ⲧ": 1389,
      "ⲱ": 1390,
      "。": 1391,
      "《": 1392,
      "》": 1393,
      "か": 1394,
      "き": 1395,
      "く": 1396,
      "け": 1397,
      "こ": 1398,
      "さ": 1399,
      "し": 1400,
      "と": 1401,
      "な": 1402,
      "の": 1403,
      "ら": 1404,
      "り": 1405,
      "る": 1406,
      "れ": 1407,
      "ろ": 1408,
      "わ": 1409,
      "ア": 1410,
      "イ": 1411,
      "ェ": 1412,
      "キ": 1413,
      "グ": 1414,
      "ケ": 1415,
      "サ": 1416,
      "ジ": 1417,
      "ス": 1418,
      "タ": 1419,
      "ダ": 1420,
      "ッ": 1421,
      "テ": 1422,
      "デ": 1423,
      "ト": 1424,
      "ド": 1425,
      "ナ": 1426,
      "ニ": 1427,
      "ハ": 1428,
      "バ": 1429,
      "ヒ": 1430,
      "ビ": 1431,
      "ピ": 1432,
      "フ": 1433,
      "メ": 1434,
      "リ": 1435,
      "ル": 1436,
      "レ": 1437,
      "ロ": 1438,
      "ワ": 1439,
      "ン": 1440,
      "・": 1441,
      "ー": 1442,
      "ㄌ": 1443,
      "ㄢ": 1444,
      "ㄨ": 1445,
      "一": 1446,
      "七": 1447,
      "三": 1448,
      "上": 1449,
      "下": 1450,
      "中": 1451,
      "主": 1452,
      "久": 1453,
      "之": 1454,
      "也": 1455,
      "事": 1456,
      "二": 1457,
      "五": 1458,
      "井": 1459,
      "亜": 1460,
      "亦": 1461,
      "京": 1462,
      "人": 1463,
      "仏": 1464,
      "以": 1465,
      "件": 1466,
      "伊": 1467,
      "传": 1468,
      "伽": 1469,
      "但": 1470,
      "佛": 1471,
      "作": 1472,
      "例": 1473,
      "侠": 1474,
      "俟": 1475,
      "候": 1476,
      "偿": 1477,
      "傳": 1478,
      "傷": 1479,
      "僕": 1480,
      "僧": 1481,
      "儀": 1482,
      "儒": 1483,
      "儿": 1484,
      "元": 1485,
      "入": 1486,
      "八": 1487,
      "公": 1488,
      "六": 1489,
      "内": 1490,
      "农": 1491,
      "刑": 1492,
      "利": 1493,
      "前": 1494,
      "功": 1495,
      "务": 1496,
      "務": 1497,
      "北": 1498,
      "十": 1499,
      "千": 1500,
      "南": 1501,
      "卷": 1502,
      "友": 1503,
      "可": 1504,
      "台": 1505,
      "史": 1506,
      "叶": 1507,
      "司": 1508,
      "合": 1509,
      "同": 1510,
      "后": 1511,
      "吐": 1512,
      "吗": 1513,
      "君": 1514,
      "员": 1515,
      "咄": 1516,
      "和": 1517,
      "品": 1518,
      "啞": 1519,
      "四": 1520,
      "回": 1521,
      "固": 1522,
      "国": 1523,
      "國": 1524,
      "土": 1525,
      "在": 1526,
      "坐": 1527,
      "垒": 1528,
      "垣": 1529,
      "堂": 1530,
      "堡": 1531,
      "壁": 1532,
      "士": 1533,
      "处": 1534,
      "复": 1535,
      "大": 1536,
      "天": 1537,
      "太": 1538,
      "夫": 1539,
      "女": 1540,
      "奴": 1541,
      "如": 1542,
      "始": 1543,
      "姦": 1544,
      "婁": 1545,
      "婆": 1546,
      "学": 1547,
      "安": 1548,
      "宗": 1549,
      "実": 1550,
      "家": 1551,
      "宿": 1552,
      "密": 1553,
      "寛": 1554,
      "實": 1555,
      "対": 1556,
      "將": 1557,
      "小": 1558,
      "山": 1559,
      "岁": 1560,
      "島": 1561,
      "崩": 1562,
      "州": 1563,
      "左": 1564,
      "币": 1565,
      "师": 1566,
      "帝": 1567,
      "師": 1568,
      "常": 1569,
      "幼": 1570,
      "府": 1571,
      "庫": 1572,
      "建": 1573,
      "強": 1574,
      "彌": 1575,
      "录": 1576,
      "往": 1577,
      "律": 1578,
      "得": 1579,
      "德": 1580,
      "徽": 1581,
      "心": 1582,
      "応": 1583,
      "思": 1584,
      "性": 1585,
      "悉": 1586,
      "悟": 1587,
      "情": 1588,
      "惡": 1589,
      "慶": 1590,
      "憲": 1591,
      "懸": 1592,
      "成": 1593,
      "戦": 1594,
      "才": 1595,
      "折": 1596,
      "拓": 1597,
      "拘": 1598,
      "提": 1599,
      "摩": 1600,
      "支": 1601,
      "改": 1602,
      "政": 1603,
      "故": 1604,
      "教": 1605,
      "文": 1606,
      "斤": 1607,
      "方": 1608,
      "族": 1609,
      "无": 1610,
      "日": 1611,
      "明": 1612,
      "時": 1613,
      "晏": 1614,
      "景": 1615,
      "暂": 1616,
      "曇": 1617,
      "更": 1618,
      "曹": 1619,
      "曼": 1620,
      "月": 1621,
      "有": 1622,
      "朋": 1623,
      "木": 1624,
      "未": 1625,
      "本": 1626,
      "朱": 1627,
      "机": 1628,
      "李": 1629,
      "杜": 1630,
      "条": 1631,
      "東": 1632,
      "杵": 1633,
      "极": 1634,
      "林": 1635,
      "查": 1636,
      "树": 1637,
      "校": 1638,
      "梅": 1639,
      "條": 1640,
      "检": 1641,
      "植": 1642,
      "楚": 1643,
      "楞": 1644,
      "極": 1645,
      "楽": 1646,
      "樂": 1647,
      "樸": 1648,
      "樹": 1649,
      "次": 1650,
      "欧": 1651,
      "欲": 1652,
      "歌": 1653,
      "正": 1654,
      "步": 1655,
      "歲": 1656,
      "歴": 1657,
      "殖": 1658,
      "母": 1659,
      "毛": 1660,
      "民": 1661,
      "氣": 1662,
      "水": 1663,
      "汗": 1664,
      "汝": 1665,
      "沐": 1666,
      "沙": 1667,
      "沢": 1668,
      "泉": 1669,
      "法": 1670,
      "泡": 1671,
      "波": 1672,
      "泰": 1673,
      "流": 1674,
      "测": 1675,
      "海": 1676,
      "淨": 1677,
      "清": 1678,
      "港": 1679,
      "漢": 1680,
      "漿": 1681,
      "濟": 1682,
      "灣": 1683,
      "灯": 1684,
      "災": 1685,
      "為": 1686,
      "無": 1687,
      "然": 1688,
      "熊": 1689,
      "燃": 1690,
      "燈": 1691,
      "燕": 1692,
      "爛": 1693,
      "爸": 1694,
      "犯": 1695,
      "猕": 1696,
      "猴": 1697,
      "獣": 1698,
      "獲": 1699,
      "玉": 1700,
      "珍": 1701,
      "珠": 1702,
      "瑾": 1703,
      "瓜": 1704,
      "用": 1705,
      "略": 1706,
      "白": 1707,
      "百": 1708,
      "皇": 1709,
      "盘": 1710,
      "盤": 1711,
      "盧": 1712,
      "目": 1713,
      "直": 1714,
      "相": 1715,
      "省": 1716,
      "眼": 1717,
      "督": 1718,
      "睦": 1719,
      "破": 1720,
      "社": 1721,
      "祖": 1722,
      "神": 1723,
      "福": 1724,
      "禪": 1725,
      "秋": 1726,
      "科": 1727,
      "秦": 1728,
      "種": 1729,
      "竜": 1730,
      "竞": 1731,
      "竺": 1732,
      "筒": 1733,
      "算": 1734,
      "節": 1735,
      "糖": 1736,
      "紅": 1737,
      "細": 1738,
      "絞": 1739,
      "絶": 1740,
      "絹": 1741,
      "經": 1742,
      "線": 1743,
      "續": 1744,
      "罗": 1745,
      "罚": 1746,
      "罪": 1747,
      "羅": 1748,
      "美": 1749,
      "羽": 1750,
      "者": 1751,
      "耳": 1752,
      "胃": 1753,
      "胡": 1754,
      "脈": 1755,
      "自": 1756,
      "至": 1757,
      "臺": 1758,
      "节": 1759,
      "芳": 1760,
      "茶": 1761,
      "荒": 1762,
      "荼": 1763,
      "菩": 1764,
      "营": 1765,
      "薩": 1766,
      "藻": 1767,
      "蘆": 1768,
      "虎": 1769,
      "蛇": 1770,
      "蠻": 1771,
      "血": 1772,
      "行": 1773,
      "街": 1774,
      "衣": 1775,
      "袈": 1776,
      "裏": 1777,
      "裟": 1778,
      "褥": 1779,
      "西": 1780,
      "見": 1781,
      "覧": 1782,
      "覺": 1783,
      "觀": 1784,
      "解": 1785,
      "記": 1786,
      "訟": 1787,
      "訴": 1788,
      "語": 1789,
      "論": 1790,
      "諸": 1791,
      "諾": 1792,
      "證": 1793,
      "议": 1794,
      "试": 1795,
      "資": 1796,
      "賢": 1797,
      "贊": 1798,
      "赔": 1799,
      "越": 1800,
      "趙": 1801,
      "跌": 1802,
      "軍": 1803,
      "轉": 1804,
      "辉": 1805,
      "辯": 1806,
      "辰": 1807,
      "農": 1808,
      "适": 1809,
      "通": 1810,
      "連": 1811,
      "道": 1812,
      "達": 1813,
      "遠": 1814,
      "那": 1815,
      "都": 1816,
      "配": 1817,
      "里": 1818,
      "重": 1819,
      "金": 1820,
      "錄": 1821,
      "鍛": 1822,
      "鏡": 1823,
      "鑒": 1824,
      "锻": 1825,
      "長": 1826,
      "长": 1827,
      "門": 1828,
      "開": 1829,
      "間": 1830,
      "関": 1831,
      "阳": 1832,
      "阵": 1833,
      "阿": 1834,
      "陀": 1835,
      "附": 1836,
      "陰": 1837,
      "陳": 1838,
      "陵": 1839,
      "陽": 1840,
      "際": 1841,
      "雄": 1842,
      "集": 1843,
      "雖": 1844,
      "離": 1845,
      "霸": 1846,
      "青": 1847,
      "面": 1848,
      "鞮": 1849,
      "韓": 1850,
      "順": 1851,
      "頭": 1852,
      "願": 1853,
      "類": 1854,
      "香": 1855,
      "馬": 1856,
      "马": 1857,
      "骨": 1858,
      "高": 1859,
      "魏": 1860,
      "魔": 1861,
      "魚": 1862,
      "鮑": 1863,
      "鯤": 1864,
      "鯷": 1865,
      "鴛": 1866,
      "鴦": 1867,
      "麻": 1868,
      "黄": 1869,
      "黑": 1870,
      "鼠": 1871,
      "齊": 1872,
      "龍": 1873,
      "龙": 1874,
      "龜": 1875,
      "ꙋ": 1876,
      "ꙑ": 1877,
      "Ꙗ": 1878,
      "ꙗ": 1879,
      "ꜣ": 1880,
      "Ꜧ": 1881,
      "ꜧ": 1882,
      "Ꜹ": 1883,
      "ꞌ": 1884,
      "ꞑ": 1885,
      "Ꞻ": 1886,
      "ꞻ": 1887,
      "ꬱ": 1888,
      "대": 1889,
      "더": 1890,
      "라": 1891,
      "렉": 1892,
      "르": 1893,
      "목": 1894,
      "바": 1895,
      "사": 1896,
      "산": 1897,
      "수": 1898,
      "식": 1899,
      "알": 1900,
      "용": 1901,
      "음": 1902,
      "의": 1903,
      "이": 1904,
      "일": 1905,
      "조": 1906,
      "주": 1907,
      "증": 1908,
      "충": 1909,
      "판": 1910,
      "홍": 1911,
      "ﭙ": 1912,
      "︎": 1913,
      "ﺎ": 1914,
      "ﻫ": 1915,
      "ﻻ": 1916,
      "（": 1917,
      "）": 1918,
      "，": 1919,
      "／": 1920,
      "；": 1921,
      "𐀀": 1922,
      "𐀅": 1923,
      "𐀏": 1924,
      "𐀩": 1925,
      "𐀫": 1926,
      "𐀭": 1927,
      "𐌀": 1928,
      "𐤀": 1929,
      "𐤌": 1930,
      "𐤍": 1931,
      "𐤏": 1932,
      "𑀓": 1933,
      "𑀥": 1934,
      "𑀦": 1935,
      "𑀩": 1936,
      "𑀫": 1937,
      "𑀬": 1938,
      "𑀲": 1939,
      "𑀻": 1940,
      "𑀼": 1941,
      "𑁆": 1942,
      "𒀀": 1943,
      "𒂵": 1944,
      "𒆠": 1945,
      "𒉈": 1946,
      "𓅓": 1947,
      "𓆎": 1948,
      "𓊖": 1949,
      "𓏏": 1950,
      "𝘢": 1951,
      "𝘦": 1952,
      "𝘪": 1953,
      "𝘭": 1954,
      "𝘰": 1955,
      "𝘱": 1956,
      "🇦": 1957,
      "🇫": 1958,
      "🇮": 1959,
      "🇶": 1960,
      "🇷": 1961,
      "🇸": 1962,
      "🇺": 1963,
      "🇿": 1964,
      "🚲": 1965,
      "🛈": 1966,
      "𨁂": 1967,
      "th": 1968,
      "in": 1969,
      "an": 1970,
      "er": 1971,
      "ст": 1972,
      "the": 1973,
      "on": 1974,
      "ен": 1975,
      "ра": 1976,
      "но": 1977,
      "re": 1978,
      "at": 1979,
      "ко": 1980,
      "ро": 1981,
      "на": 1982,
      "en": 1983,
      "al": 1984,
      "or": 1985,
      "ed": 1986,
      "is": 1987,
      "es": 1988,
      "го": 1989,
      "of": 1990,
      "ar": 1991,
      "ре": 1992,
      "по": 1993,
      "and": 1994,
      "as": 1995,
      "ли": 1996,
      "ри": 1997,
      "ни": 1998,
      "то": 1999,
      "ic": 2000,
      "ль": 2001,
      "во": 2002,
      "ны": 2003,
      "it": 2004,
      "ки": 2005,
      "ва": 2006,
      "ка": 2007,
      "to": 2008,
      "те": 2009,
      "ing": 2010,
      "ion": 2011,
      "ro": 2012,
      "ло": 2013,
      "ла": 2014,
      "да": 2015,
      "ве": 2016,
      "та": 2017,
      "st": 2018,
      "le": 2019,
      "19": 2020,
      "ени": 2021,
      "не": 2022,
      "ле": 2023,
      "со": 2024,
      "ми": 2025,
      "ou": 2026,
      "ти": 2027,
      "ски": 2028,
      "ent": 2029,
      "he": 2030,
      "де": 2031,
      "ско": 2032,
      "ac": 2033,
      "ме": 2034,
      "до": 2035,
      "за": 2036,
      "om": 2037,
      "ма": 2038,
      "ви": 2039,
      "il": 2040,
      "че": 2041,
      "el": 2042,
      "ци": 2043,
      "ol": 2044,
      "ди": 2045,
      "ch": 2046,
      "am": 2047,
      "мо": 2048,
      "ad": 2049,
      "си": 2050,
      "ру": 2051,
      "ся": 2052,
      "se": 2053,
      "пе": 2054,
      "ля": 2055,
      "об": 2056,
      "ста": 2057,
      "20": 2058,
      "ter": 2059,
      "про": 2060,
      "be": 2061,
      "ur": 2062,
      "ly": 2063,
      "for": 2064,
      "ation": 2065,
      "вы": 2066,
      "бо": 2067,
      "de": 2068,
      "im": 2069,
      "iv": 2070,
      "ет": 2071,
      "us": 2072,
      "из": 2073,
      "се": 2074,
      "ct": 2075,
      "The": 2076,
      "ig": 2077,
      "сти": 2078,
      "un": 2079,
      "ча": 2080,
      "ский": 2081,
      "са": 2082,
      "от": 2083,
      "ir": 2084,
      "при": 2085,
      "па": 2086,
      "сто": 2087,
      "ду": 2088,
      "con": 2089,
      "ce": 2090,
      "wh": 2091,
      "id": 2092,
      "пре": 2093,
      "ith": 2094,
      "ul": 2095,
      "ow": 2096,
      "ер": 2097,
      "was": 2098,
      "ist": 2099,
      "чи": 2100,
      "ag": 2101,
      "ers": 2102,
      "ения": 2103,
      "ги": 2104,
      "тель": 2105,
      "бы": 2106,
      "ть": 2107,
      "ной": 2108,
      "em": 2109,
      "ных": 2110,
      "ot": 2111,
      "ab": 2112,
      "ay": 2113,
      "op": 2114,
      "by": 2115,
      "with": 2116,
      "18": 2117,
      "пи": 2118,
      "ut": 2119,
      "are": 2120,
      "ap": 2121,
      "ры": 2122,
      "et": 2123,
      "ный": 2124,
      "га": 2125,
      "ver": 2126,
      "res": 2127,
      "ение": 2128,
      "pro": 2129,
      "же": 2130,
      "раз": 2131,
      "хо": 2132,
      "that": 2133,
      "um": 2134,
      "com": 2135,
      "av": 2136,
      "ос": 2137,
      "ian": 2138,
      "ные": 2139,
      "tr": 2140,
      "мен": 2141,
      "ств": 2142,
      "ту": 2143,
      "ного": 2144,
      "ря": 2145,
      "ска": 2146,
      "pl": 2147,
      "ши": 2148,
      "ку": 2149,
      "ther": 2150,
      "mo": 2151,
      "all": 2152,
      "му": 2153,
      "su": 2154,
      "In": 2155,
      "ain": 2156,
      "ex": 2157,
      "ской": 2158,
      "су": 2159,
      "сь": 2160,
      "est": 2161,
      "os": 2162,
      "pe": 2163,
      "сть": 2164,
      "ар": 2165,
      "он": 2166,
      "ор": 2167,
      "rom": 2168,
      "ies": 2169,
      "ан": 2170,
      "ран": 2171,
      "his": 2172,
      "if": 2173,
      "ей": 2174,
      "ты": 2175,
      "ere": 2176,
      "oun": 2177,
      "ского": 2178,
      "cl": 2179,
      "ity": 2180,
      "ant": 2181,
      "from": 2182,
      "ис": 2183,
      "ство": 2184,
      "лу": 2185,
      "ish": 2186,
      "фи": 2187,
      "so": 2188,
      "ем": 2189,
      "ate": 2190,
      "00": 2191,
      "ют": 2192,
      "ia": 2193,
      "щи": 2194,
      "od": 2195,
      "art": 2196,
      "ния": 2197,
      "зи": 2198,
      "ну": 2199,
      "ня": 2200,
      "ne": 2201,
      "года": 2202,
      "ich": 2203,
      "ции": 2204,
      "жи": 2205,
      "qu": 2206,
      "ская": 2207,
      "кото": 2208,
      "гра": 2209,
      "ная": 2210,
      "вой": 2211,
      "ess": 2212,
      "пу": 2213,
      "вер": 2214,
      "igh": 2215,
      "бе": 2216,
      "ri": 2217,
      "ще": 2218,
      "лен": 2219,
      "per": 2220,
      "ill": 2221,
      "ical": 2222,
      "пра": 2223,
      "man": 2224,
      "ется": 2225,
      "кт": 2226,
      "200": 2227,
      "ment": 2228,
      "би": 2229,
      "ial": 2230,
      "нов": 2231,
      "ud": 2232,
      "ствен": 2233,
      "ld": 2234,
      "te": 2235,
      "act": 2236,
      "ive": 2237,
      "зы": 2238,
      "сле": 2239,
      "ber": 2240,
      "17": 2241,
      "ке": 2242,
      "лю": 2243,
      "ated": 2244,
      "sh": 2245,
      "кон": 2246,
      "ort": 2247,
      "ard": 2248,
      "og": 2249,
      "du": 2250,
      "mer": 2251,
      "oc": 2252,
      "ин": 2253,
      "род": 2254,
      "стро": 2255,
      "ak": 2256,
      "which": 2257,
      "под": 2258,
      "der": 2259,
      "ние": 2260,
      "gh": 2261,
      "мы": 2262,
      "ства": 2263,
      "году": 2264,
      "ба": 2265,
      "ских": 2266,
      "ев": 2267,
      "ine": 2268,
      "ge": 2269,
      "зо": 2270,
      "ным": 2271,
      "199": 2272,
      "str": 2273,
      "вля": 2274,
      "что": 2275,
      "ph": 2276,
      "ков": 2277,
      "ное": 2278,
      "ell": 2279,
      "our": 2280,
      "ary": 2281,
      "пер": 2282,
      "вет": 2283,
      "ear": 2284,
      "ra": 2285,
      "were": 2286,
      "one": 2287,
      "На": 2288,
      "так": 2289,
      "201": 2290,
      "ure": 2291,
      "not": 2292,
      "По": 2293,
      "ip": 2294,
      "зна": 2295,
      "пере": 2296,
      "end": 2297,
      "рас": 2298,
      "ave": 2299,
      "rit": 2300,
      "ров": 2301,
      "ден": 2302,
      "ён": 2303,
      "ts": 2304,
      "comp": 2305,
      "II": 2306,
      "tw": 2307,
      "over": 2308,
      "wor": 2309,
      "ком": 2310,
      "Ка": 2311,
      "up": 2312,
      "тер": 2313,
      "An": 2314,
      "ions": 2315,
      "стра": 2316,
      "ass": 2317,
      "Al": 2318,
      "ame": 2319,
      "ды": 2320,
      "ie": 2321,
      "its": 2322,
      "ong": 2323,
      "гу": 2324,
      "ib": 2325,
      "ше": 2326,
      "ast": 2327,
      "pr": 2328,
      "мя": 2329,
      "СС": 2330,
      "ous": 2331,
      "Ch": 2332,
      "Со": 2333,
      "бу": 2334,
      "жа": 2335,
      "ности": 2336,
      "ские": 2337,
      "ican": 2338,
      "Ar": 2339,
      "это": 2340,
      "au": 2341,
      "рова": 2342,
      "ца": 2343,
      "как": 2344,
      "ном": 2345,
      "ха": 2346,
      "пред": 2347,
      "bl": 2348,
      "тор": 2349,
      "вре": 2350,
      "ire": 2351,
      "out": 2352,
      "тов": 2353,
      "сси": 2354,
      "198": 2355,
      "ность": 2356,
      "для": 2357,
      "port": 2358,
      "гла": 2359,
      "ans": 2360,
      "ack": 2361,
      "also": 2362,
      "pt": 2363,
      "15": 2364,
      "бря": 2365,
      "age": 2366,
      "cent": 2367,
      "це": 2368,
      "нии": 2369,
      "она": 2370,
      "которы": 2371,
      "тиче": 2372,
      "аль": 2373,
      "ав": 2374,
      "iz": 2375,
      "воз": 2376,
      "дар": 2377,
      "ach": 2378,
      "рии": 2379,
      "кра": 2380,
      "тра": 2381,
      "сло": 2382,
      "ore": 2383,
      "have": 2384,
      "form": 2385,
      "ect": 2386,
      "Amer": 2387,
      "fer": 2388,
      "16": 2389,
      "197": 2390,
      "бли": 2391,
      "им": 2392,
      "had": 2393,
      "ум": 2394,
      "ign": 2395,
      "ome": 2396,
      "af": 2397,
      "од": 2398,
      "ence": 2399,
      "вя": 2400,
      "but": 2401,
      "кан": 2402,
      "has": 2403,
      "ге": 2404,
      "part": 2405,
      "196": 2406,
      "ang": 2407,
      "bo": 2408,
      "ция": 2409,
      "его": 2410,
      "ult": 2411,
      "ide": 2412,
      "ления": 2413,
      "other": 2414,
      "сво": 2415,
      "ight": 2416,
      "ov": 2417,
      "own": 2418,
      "ations": 2419,
      "ke": 2420,
      "ющи": 2421,
      "194": 2422,
      "мер": 2423,
      "также": 2424,
      "ev": 2425,
      "St": 2426,
      "cre": 2427,
      "ound": 2428,
      "ory": 2429,
      "me": 2430,
      "10": 2431,
      "fir": 2432,
      "American": 2433,
      "ша": 2434,
      "pres": 2435,
      "ally": 2436,
      "сте": 2437,
      "land": 2438,
      "Ма": 2439,
      "ition": 2440,
      "po": 2441,
      "their": 2442,
      "Un": 2443,
      "том": 2444,
      "ction": 2445,
      "pre": 2446,
      "тив": 2447,
      "tern": 2448,
      "cor": 2449,
      "или": 2450,
      "cont": 2451,
      "ater": 2452,
      "жен": 2453,
      "все": 2454,
      "ci": 2455,
      "Th": 2456,
      "ree": 2457,
      "ould": 2458,
      "mon": 2459,
      "dis": 2460,
      "хи": 2461,
      "фор": 2462,
      "ser": 2463,
      "ян": 2464,
      "лся": 2465,
      "ks": 2466,
      "li": 2467,
      "sy": 2468,
      "ace": 2469,
      "пол": 2470,
      "ates": 2471,
      "лись": 2472,
      "att": 2473,
      "нд": 2474,
      "gr": 2475,
      "ces": 2476,
      "поль": 2477,
      "теле": 2478,
      "pol": 2479,
      "first": 2480,
      "int": 2481,
      "ёр": 2482,
      "рабо": 2483,
      "able": 2484,
      "ran": 2485,
      "цен": 2486,
      "can": 2487,
      "ща": 2488,
      "ely": 2489,
      "14": 2490,
      "дер": 2491,
      "писа": 2492,
      "нача": 2493,
      "co": 2494,
      "used": 2495,
      "12": 2496,
      "лы": 2497,
      "this": 2498,
      "pos": 2499,
      "ник": 2500,
      "ren": 2501,
      "ются": 2502,
      "ября": 2503,
      "ление": 2504,
      "ней": 2505,
      "who": 2506,
      "193": 2507,
      "вод": 2508,
      "ob": 2509,
      "был": 2510,
      "fl": 2511,
      "зу": 2512,
      "ime": 2513,
      "ак": 2514,
      "сту": 2515,
      "aw": 2516,
      "явля": 2517,
      "дру": 2518,
      "после": 2519,
      "gen": 2520,
      "вши": 2521,
      "incl": 2522,
      "рия": 2523,
      "Ко": 2524,
      "Рос": 2525,
      "логи": 2526,
      "ред": 2527,
      "des": 2528,
      "ении": 2529,
      "been": 2530,
      "сы": 2531,
      "195": 2532,
      "образ": 2533,
      "мери": 2534,
      "ens": 2535,
      "сла": 2536,
      "Росси": 2537,
      "дов": 2538,
      "боль": 2539,
      "Во": 2540,
      "зда": 2541,
      "рус": 2542,
      "йский": 2543,
      "most": 2544,
      "ew": 2545,
      "13": 2546,
      "ile": 2547,
      "уч": 2548,
      "ice": 2549,
      "спо": 2550,
      "ind": 2551,
      "ue": 2552,
      "play": 2553,
      "вед": 2554,
      "En": 2555,
      "spe": 2556,
      "госу": 2557,
      "ную": 2558,
      "ван": 2559,
      "gl": 2560,
      "пар": 2561,
      "ными": 2562,
      "It": 2563,
      "ходи": 2564,
      "государ": 2565,
      "He": 2566,
      "горо": 2567,
      "жд": 2568,
      "стви": 2569,
      "ву": 2570,
      "тся": 2571,
      "совет": 2572,
      "ced": 2573,
      "ес": 2574,
      "руп": 2575,
      "ust": 2576,
      "три": 2577,
      "ase": 2578,
      "ений": 2579,
      "дин": 2580,
      "year": 2581,
      "cess": 2582,
      "ational": 2583,
      "low": 2584,
      "лек": 2585,
      "акт": 2586,
      "ok": 2587,
      "ром": 2588,
      "192": 2589,
      "ath": 2590,
      "ry": 2591,
      "ele": 2592,
      "мож": 2593,
      "ству": 2594,
      "such": 2595,
      "ман": 2596,
      "СР": 2597,
      "жду": 2598,
      "дей": 2599,
      "стоя": 2600,
      "sp": 2601,
      "пы": 2602,
      "поли": 2603,
      "лове": 2604,
      "ough": 2605,
      "gro": 2606,
      "ents": 2607,
      "свя": 2608,
      "uring": 2609,
      "лее": 2610,
      "more": 2611,
      "ию": 2612,
      "тия": 2613,
      "rel": 2614,
      "ite": 2615,
      "col": 2616,
      "фа": 2617,
      "ef": 2618,
      "слу": 2619,
      "ское": 2620,
      "arch": 2621,
      "язы": 2622,
      "соста": 2623,
      "ple": 2624,
      "фе": 2625,
      "тр": 2626,
      "ever": 2627,
      "min": 2628,
      "ited": 2629,
      "ict": 2630,
      "исто": 2631,
      "ma": 2632,
      "Бо": 2633,
      "reg": 2634,
      "мерикан": 2635,
      "two": 2636,
      "дан": 2637,
      "ve": 2638,
      "ade": 2639,
      "her": 2640,
      "ding": 2641,
      "br": 2642,
      "ty": 2643,
      "ied": 2644,
      "coun": 2645,
      "produ": 2646,
      "поло": 2647,
      "Re": 2648,
      "ors": 2649,
      "ском": 2650,
      "arg": 2651,
      "ance": 2652,
      "olog": 2653,
      "ubl": 2654,
      "челове": 2655,
      "За": 2656,
      "ism": 2657,
      "ics": 2658,
      "they": 2659,
      "ген": 2660,
      "соб": 2661,
      "американ": 2662,
      "into": 2663,
      "стран": 2664,
      "сен": 2665,
      "вания": 2666,
      "Au": 2667,
      "cons": 2668,
      "ugh": 2669,
      "пла": 2670,
      "рь": 2671,
      "kn": 2672,
      "than": 2673,
      "use": 2674,
      "кре": 2675,
      "Па": 2676,
      "ury": 2677,
      "дол": 2678,
      "ular": 2679,
      "их": 2680,
      "any": 2681,
      "vel": 2682,
      "При": 2683,
      "we": 2684,
      "зыва": 2685,
      "мар": 2686,
      "публи": 2687,
      "ten": 2688,
      "объ": 2689,
      "air": 2690,
      "вые": 2691,
      "les": 2692,
      "пера": 2693,
      "old": 2694,
      "прави": 2695,
      "кры": 2696,
      "чен": 2697,
      "ved": 2698,
      "лась": 2699,
      "after": 2700,
      "some": 2701,
      "Af": 2702,
      "und": 2703,
      "лось": 2704,
      "полу": 2705,
      "произ": 2706,
      "As": 2707,
      "более": 2708,
      "ход": 2709,
      "hy": 2710,
      "bec": 2711,
      "обла": 2712,
      "off": 2713,
      "lo": 2714,
      "inter": 2715,
      "росси": 2716,
      "Se": 2717,
      "includ": 2718,
      "цы": 2719,
      "каза": 2720,
      "спе": 2721,
      "осно": 2722,
      "клю": 2723,
      "red": 2724,
      "rough": 2725,
      "рой": 2726,
      "кой": 2727,
      "име": 2728,
      "ний": 2729,
      "ah": 2730,
      "вание": 2731,
      "mar": 2732,
      "мини": 2733,
      "main": 2734,
      "СССР": 2735,
      "лько": 2736,
      "между": 2737,
      "лет": 2738,
      "Ни": 2739,
      "time": 2740,
      "190": 2741,
      "пло": 2742,
      "fin": 2743,
      "зе": 2744,
      "цу": 2745,
      "были": 2746,
      "them": 2747,
      "кла": 2748,
      "publ": 2749,
      "11": 2750,
      "ood": 2751,
      "ari": 2752,
      "народ": 2753,
      "вый": 2754,
      "als": 2755,
      "work": 2756,
      "sc": 2757,
      "ника": 2758,
      "ased": 2759,
      "ext": 2760,
      "вых": 2761,
      "тре": 2762,
      "стан": 2763,
      "een": 2764,
      "Ми": 2765,
      "many": 2766,
      "ons": 2767,
      "iss": 2768,
      "ению": 2769,
      "сов": 2770,
      "num": 2771,
      "writ": 2772,
      "reat": 2773,
      "This": 2774,
      "прав": 2775,
      "время": 2776,
      "ёт": 2777,
      "stem": 2778,
      "нима": 2779,
      "Ли": 2780,
      "new": 2781,
      "lin": 2782,
      "ональ": 2783,
      "comm": 2784,
      "25": 2785,
      "емы": 2786,
      "would": 2787,
      "было": 2788,
      "ail": 2789,
      "ск": 2790,
      "sub": 2791,
      "cial": 2792,
      "тан": 2793,
      "ским": 2794,
      "med": 2795,
      "отно": 2796,
      "образо": 2797,
      "only": 2798,
      "ific": 2799,
      "ative": 2800,
      "жение": 2801,
      "no": 2802,
      "ску": 2803,
      "21": 2804,
      "зиден": 2805,
      "Мо": 2806,
      "Com": 2807,
      "исполь": 2808,
      "Ве": 2809,
      "созда": 2810,
      "000": 2811,
      "кино": 2812,
      "Ки": 2813,
      "ars": 2814,
      "Ра": 2815,
      "century": 2816,
      "лов": 2817,
      "ings": 2818,
      "вая": 2819,
      "ters": 2820,
      "cond": 2821,
      "ball": 2822,
      "рито": 2823,
      "him": 2824,
      "фо": 2825,
      "други": 2826,
      "betw": 2827,
      "between": 2828,
      "ose": 2829,
      "gan": 2830,
      "чем": 2831,
      "Но": 2832,
      "under": 2833,
      "ться": 2834,
      "была": 2835,
      "тур": 2836,
      "ann": 2837,
      "фу": 2838,
      "тера": 2839,
      "гли": 2840,
      "ress": 2841,
      "Ан": 2842,
      "предста": 2843,
      "30": 2844,
      "high": 2845,
      "cur": 2846,
      "является": 2847,
      "циаль": 2848,
      "then": 2849,
      "тро": 2850,
      "ём": 2851,
      "dr": 2852,
      "urn": 2853,
      "год": 2854,
      "when": 2855,
      "орга": 2856,
      "ual": 2857,
      "цион": 2858,
      "ince": 2859,
      "ese": 2860,
      "bu": 2861,
      "гда": 2862,
      "обще": 2863,
      "ал": 2864,
      "ject": 2865,
      "ted": 2866,
      "do": 2867,
      "22": 2868,
      "коло": 2869,
      "ists": 2870,
      "ys": 2871,
      "tain": 2872,
      "though": 2873,
      "кий": 2874,
      "эле": 2875,
      "way": 2876,
      "ins": 2877,
      "cer": 2878,
      "вла": 2879,
      "known": 2880,
      "ric": 2881,
      "trans": 2882,
      "fe": 2883,
      "город": 2884,
      "may": 2885,
      "преде": 2886,
      "call": 2887,
      "али": 2888,
      "De": 2889,
      "dif": 2890,
      "io": 2891,
      "насе": 2892,
      "pop": 2893,
      "ities": 2894,
      "жения": 2895,
      "where": 2896,
      "189": 2897,
      "лосо": 2898,
      "гово": 2899,
      "Се": 2900,
      "коро": 2901,
      "Са": 2902,
      "led": 2903,
      "Ме": 2904,
      "миче": 2905,
      "ью": 2906,
      "ating": 2907,
      "коно": 2908,
      "par": 2909,
      "России": 2910,
      "террито": 2911,
      "Bo": 2912,
      "ур": 2913,
      "Ро": 2914,
      "стве": 2915,
      "ron": 2916,
      "Con": 2917,
      "ople": 2918,
      "fore": 2919,
      "дея": 2920,
      "бри": 2921,
      "рав": 2922,
      "мая": 2923,
      "ivers": 2924,
      "hist": 2925,
      "рон": 2926,
      "века": 2927,
      "которые": 2928,
      "ms": 2929,
      "bor": 2930,
      "воен": 2931,
      "Алек": 2932,
      "system": 2933,
      "само": 2934,
      "них": 2935,
      "города": 2936,
      "над": 2937,
      "overn": 2938,
      "Engl": 2939,
      "found": 2940,
      "част": 2941,
      "English": 2942,
      "ds": 2943,
      "vis": 2944,
      "23": 2945,
      "ium": 2946,
      "ished": 2947,
      "советский": 2948,
      "about": 2949,
      "Ger": 2950,
      "fect": 2951,
      "мии": 2952,
      "uc": 2953,
      "sup": 2954,
      "through": 2955,
      "my": 2956,
      "set": 2957,
      "car": 2958,
      "ful": 2959,
      "ix": 2960,
      "циональ": 2961,
      "вос": 2962,
      "части": 2963,
      "Brit": 2964,
      "For": 2965,
      "До": 2966,
      "мени": 2967,
      "during": 2968,
      "дви": 2969,
      "gener": 2970,
      "Wh": 2971,
      "ake": 2972,
      "ident": 2973,
      "New": 2974,
      "риса": 2975,
      "years": 2976,
      "вич": 2977,
      "тери": 2978,
      "ера": 2979,
      "бер": 2980,
      "СШ": 2981,
      "Ви": 2982,
      "реж": 2983,
      "fol": 2984,
      "эк": 2985,
      "телей": 2986,
      "США": 2987,
      "cap": 2988,
      "тем": 2989,
      "cted": 2990,
      "At": 2991,
      "ок": 2992,
      "лия": 2993,
      "ат": 2994,
      "there": 2995,
      "президен": 2996,
      "Jo": 2997,
      "времен": 2998,
      "Фран": 2999,
      "того": 3000,
      "Пер": 3001,
      "Пе": 3002,
      "суще": 3003,
      "дова": 3004,
      "fil": 3005,
      "дом": 3006,
      "Ва": 3007,
      "ub": 3008,
      "Не": 3009,
      "лин": 3010,
      "води": 3011,
      "eng": 3012,
      "lex": 3013,
      "сты": 3014,
      "serv": 3015,
      "cy": 3016,
      "Le": 3017,
      "мира": 3018,
      "day": 3019,
      "ton": 3020,
      "prov": 3021,
      "son": 3022,
      "outh": 3023,
      "24": 3024,
      "velop": 3025,
      "uro": 3026,
      "Is": 3027,
      "ft": 3028,
      "рт": 3029,
      "ху": 3030,
      "inv": 3031,
      "ниче": 3032,
      "uss": 3033,
      "well": 3034,
      "Am": 3035,
      "ена": 3036,
      "Та": 3037,
      "сред": 3038,
      "лич": 3039,
      "рез": 3040,
      "ily": 3041,
      "develop": 3042,
      "таль": 3043,
      "Br": 3044,
      "sur": 3045,
      "сса": 3046,
      "актриса": 3047,
      "Ар": 3048,
      "фран": 3049,
      "stru": 3050,
      "Ев": 3051,
      "III": 3052,
      "ep": 3053,
      "тельно": 3054,
      "angu": 3055,
      "Бе": 3056,
      "188": 3057,
      "loc": 3058,
      "amp": 3059,
      "государствен": 3060,
      "графи": 3061,
      "теля": 3062,
      "един": 3063,
      "mem": 3064,
      "цуз": 3065,
      "ax": 3066,
      "вого": 3067,
      "пад": 3068,
      "ause": 3069,
      "sing": 3070,
      "обо": 3071,
      "On": 3072,
      "United": 3073,
      "лан": 3074,
      "ife": 3075,
      "ures": 3076,
      "они": 3077,
      "la": 3078,
      "остро": 3079,
      "row": 3080,
      "зем": 3081,
      "Си": 3082,
      "ек": 3083,
      "авто": 3084,
      "янва": 3085,
      "50": 3086,
      "точ": 3087,
      "called": 3088,
      "тура": 3089,
      "стре": 3090,
      "ship": 3091,
      "станов": 3092,
      "rap": 3093,
      "ward": 3094,
      "Ру": 3095,
      "разви": 3096,
      "owever": 3097,
      "зова": 3098,
      "чение": 3099,
      "тру": 3100,
      "later": 3101,
      "ians": 3102,
      "again": 3103,
      "present": 3104,
      "including": 3105,
      "polit": 3106,
      "лей": 3107,
      "these": 3108,
      "ников": 3109,
      "рев": 3110,
      "приня": 3111,
      "доро": 3112,
      "цию": 3113,
      "iel": 3114,
      "рак": 3115,
      "нако": 3116,
      "тин": 3117,
      "откры": 3118,
      "dist": 3119,
      "груп": 3120,
      "мно": 3121,
      "дель": 3122,
      "king": 3123,
      "ники": 3124,
      "ized": 3125,
      "чита": 3126,
      "ious": 3127,
      "рей": 3128,
      "тий": 3129,
      "ution": 3130,
      "вест": 3131,
      "add": 3132,
      "ature": 3133,
      "правитель": 3134,
      "человек": 3135,
      "made": 3136,
      "деятель": 3137,
      "Wor": 3138,
      "while": 3139,
      "oy": 3140,
      "тек": 3141,
      "follow": 3142,
      "наз": 3143,
      "187": 3144,
      "number": 3145,
      "ible": 3146,
      "мец": 3147,
      "ана": 3148,
      "ually": 3149,
      "ered": 3150,
      "личе": 3151,
      "ude": 3152,
      "зя": 3153,
      "скую": 3154,
      "ise": 3155,
      "nam": 3156,
      "страны": 3157,
      "дека": 3158,
      "Кон": 3159,
      "ically": 3160,
      "ost": 3161,
      "peri": 3162,
      "being": 3163,
      "Pro": 3164,
      "ret": 3165,
      "её": 3166,
      "состоя": 3167,
      "sign": 3168,
      "филосо": 3169,
      "bel": 3170,
      "cri": 3171,
      "govern": 3172,
      "Ин": 3173,
      "186": 3174,
      "nor": 3175,
      "inn": 3176,
      "XI": 3177,
      "рай": 3178,
      "people": 3179,
      "зави": 3180,
      "spec": 3181,
      "Про": 3182,
      "мир": 3183,
      "ural": 3184,
      "war": 3185,
      "dom": 3186,
      "Be": 3187,
      "стру": 3188,
      "которых": 3189,
      "ement": 3190,
      "cept": 3191,
      "бур": 3192,
      "cho": 3193,
      "изи": 3194,
      "met": 3195,
      "которо": 3196,
      "group": 3197,
      "leg": 3198,
      "гре": 3199,
      "three": 3200,
      "cr": 3201,
      "француз": 3202,
      "ций": 3203,
      "both": 3204,
      "только": 3205,
      "тя": 3206,
      "Nor": 3207,
      "вал": 3208,
      "Ac": 3209,
      "реди": 3210,
      "евра": 3211,
      "Го": 3212,
      "осу": 3213,
      "War": 3214,
      "dep": 3215,
      "ments": 3216,
      "ale": 3217,
      "рий": 3218,
      "авгу": 3219,
      "langu": 3220,
      "стиче": 3221,
      "countr": 3222,
      "city": 3223,
      "27": 3224,
      "char": 3225,
      "Ad": 3226,
      "тора": 3227,
      "rol": 3228,
      "vari": 3229,
      "Mar": 3230,
      "апре": 3231,
      "гер": 3232,
      "sim": 3233,
      "ному": 3234,
      "окт": 3235,
      "unt": 3236,
      "26": 3237,
      "BC": 3238,
      "vers": 3239,
      "вели": 3240,
      "Euro": 3241,
      "ick": 3242,
      "ages": 3243,
      "Joh": 3244,
      "ug": 3245,
      "oper": 3246,
      "val": 3247,
      "вра": 3248,
      "немец": 3249,
      "Sh": 3250,
      "hel": 3251,
      "Austr": 3252,
      "санд": 3253,
      "ond": 3254,
      "сер": 3255,
      "января": 3256,
      "dire": 3257,
      "сно": 3258,
      "differ": 3259,
      "простран": 3260,
      "ants": 3261,
      "ros": 3262,
      "нию": 3263,
      "жда": 3264,
      "ких": 3265,
      "пери": 3266,
      "igin": 3267,
      "Гер": 3268,
      "тен": 3269,
      "вое": 3270,
      "бра": 3271,
      "stud": 3272,
      "buil": 3273,
      "Sp": 3274,
      "became": 3275,
      "шение": 3276,
      "тео": 3277,
      "пример": 3278,
      "28": 3279,
      "марта": 3280,
      "Ре": 3281,
      "То": 3282,
      "вым": 3283,
      "iver": 3284,
      "Александ": 3285,
      "зависи": 3286,
      "urch": 3287,
      "эти": 3288,
      "шения": 3289,
      "рован": 3290,
      "еди": 3291,
      "por": 3292,
      "pers": 3293,
      "ством": 3294,
      "куль": 3295,
      "нк": 3296,
      "ences": 3297,
      "Chr": 3298,
      "июля": 3299,
      "российский": 3300,
      "ology": 3301,
      "Вели": 3302,
      "цев": 3303,
      "ят": 3304,
      "ae": 3305,
      "ived": 3306,
      "грани": 3307,
      "ility": 3308,
      "line": 3309,
      "imes": 3310,
      "действи": 3311,
      "world": 3312,
      "ёл": 3313,
      "early": 3314,
      "опреде": 3315,
      "основ": 3316,
      "нее": 3317,
      "ck": 3318,
      "американский": 3319,
      "Дж": 3320,
      "Ку": 3321,
      "органи": 3322,
      "него": 3323,
      "Fran": 3324,
      "let": 3325,
      "public": 3326,
      "писатель": 3327,
      "мь": 3328,
      "Га": 3329,
      "истори": 3330,
      "ash": 3331,
      "грам": 3332,
      "jor": 3333,
      "февра": 3334,
      "теа": 3335,
      "ющих": 3336,
      "Ex": 3337,
      "Ба": 3338,
      "обра": 3339,
      "ститу": 3340,
      "oot": 3341,
      "лё": 3342,
      "British": 3343,
      "bers": 3344,
      "lead": 3345,
      "извест": 3346,
      "оста": 3347,
      "верси": 3348,
      "requ": 3349,
      "ier": 3350,
      "пози": 3351,
      "inst": 3352,
      "кого": 3353,
      "men": 3354,
      "Europe": 3355,
      "льта": 3356,
      "элект": 3357,
      "чения": 3358,
      "мест": 3359,
      "0s": 3360,
      "шо": 3361,
      "exam": 3362,
      "elf": 3363,
      "gy": 3364,
      "state": 3365,
      "contin": 3366,
      "less": 3367,
      "iet": 3368,
      "Pr": 3369,
      "кола": 3370,
      "suc": 3371,
      "нием": 3372,
      "Мар": 3373,
      "йской": 3374,
      "back": 3375,
      "вший": 3376,
      "uch": 3377,
      "лн": 3378,
      "зд": 3379,
      "пор": 3380,
      "second": 3381,
      "форма": 3382,
      "тех": 3383,
      "июня": 3384,
      "John": 3385,
      "long": 3386,
      "oman": 3387,
      "appe": 3388,
      "уни": 3389,
      "памя": 3390,
      "декабря": 3391,
      "поэ": 3392,
      "яви": 3393,
      "См": 3394,
      "часть": 3395,
      "Ab": 3396,
      "населения": 3397,
      "ower": 3398,
      "тии": 3399,
      "щей": 3400,
      "Cl": 3401,
      "той": 3402,
      "ждения": 3403,
      "сент": 3404,
      "апреля": 3405,
      "Ph": 3406,
      "like": 3407,
      "стал": 3408,
      "хов": 3409,
      "получи": 3410,
      "кри": 3411,
      "fam": 3412,
      "называ": 3413,
      "став": 3414,
      "собо": 3415,
      "августа": 3416,
      "States": 3417,
      "высо": 3418,
      "шая": 3419,
      "larg": 3420,
      "Ге": 3421,
      "против": 3422,
      "русский": 3423,
      "az": 3424,
      "кси": 3425,
      "sever": 3426,
      "который": 3427,
      "круп": 3428,
      "Ле": 3429,
      "сентября": 3430,
      "ень": 3431,
      "Евро": 3432,
      "нер": 3433,
      "эконо": 3434,
      "октября": 3435,
      "thor": 3436,
      "лом": 3437,
      "яв": 3438,
      "origin": 3439,
      "ющие": 3440,
      "Де": 3441,
      "сли": 3442,
      "sm": 3443,
      "послед": 3444,
      "дии": 3445,
      "Bl": 3446,
      "iversity": 3447,
      "partic": 3448,
      "bre": 3449,
      "soci": 3450,
      "Об": 3451,
      "German": 3452,
      "cording": 3453,
      "лли": 3454,
      "тие": 3455,
      "ional": 3456,
      "ives": 3457,
      "29": 3458,
      "del": 3459,
      "ina": 3460,
      "жиз": 3461,
      "вто": 3462,
      "ulation": 3463,
      "цо": 3464,
      "шей": 3465,
      "che": 3466,
      "ban": 3467,
      "40": 3468,
      "Par": 3469,
      "дву": 3470,
      "ответ": 3471,
      "много": 3472,
      "войны": 3473,
      "mus": 3474,
      "актёр": 3475,
      "вать": 3476,
      "логиче": 3477,
      "Tr": 3478,
      "bro": 3479,
      "Christ": 3480,
      "стов": 3481,
      "нский": 3482,
      "rench": 3483,
      "Су": 3484,
      "iew": 3485,
      "меча": 3486,
      "вета": 3487,
      "цер": 3488,
      "зульта": 3489,
      "лён": 3490,
      "вали": 3491,
      "design": 3492,
      "февраля": 3493,
      "около": 3494,
      "arr": 3495,
      "туры": 3496,
      "лез": 3497,
      "место": 3498,
      "ble": 3499,
      "чемпи": 3500,
      "Alex": 3501,
      "ord": 3502,
      "Пос": 3503,
      "физи": 3504,
      "нь": 3505,
      "щая": 3506,
      "World": 3507,
      "Да": 3508,
      "name": 3509,
      "ild": 3510,
      "держа": 3511,
      "составля": 3512,
      "ноября": 3513,
      "обы": 3514,
      "cient": 3515,
      "лага": 3516,
      "often": 3517,
      "Ind": 3518,
      "miss": 3519,
      "Из": 3520,
      "same": 3521,
      "cover": 3522,
      "дера": 3523,
      "against": 3524,
      "ссо": 3525,
      "ступ": 3526,
      "could": 3527,
      "шин": 3528,
      "ox": 3529,
      "щен": 3530,
      "based": 3531,
      "elect": 3532,
      "common": 3533,
      "French": 3534,
      "atic": 3535,
      "систе": 3536,
      "oth": 3537,
      "англи": 3538,
      "территории": 3539,
      "four": 3540,
      "сточ": 3541,
      "Or": 3542,
      "результа": 3543,
      "ute": 3544,
      "ностью": 3545,
      "можно": 3546,
      "ад": 3547,
      "ital": 3548,
      "illion": 3549,
      "лист": 3550,
      "кор": 3551,
      "ared": 3552,
      "Ла": 3553,
      "stand": 3554,
      "доб": 3555,
      "сист": 3556,
      "счита": 3557,
      "gram": 3558,
      "йская": 3559,
      "consid": 3560,
      "дина": 3561,
      "области": 3562,
      "come": 3563,
      "point": 3564,
      "ших": 3565,
      "before": 3566,
      "Col": 3567,
      "тран": 3568,
      "press": 3569,
      "зации": 3570,
      "Ста": 3571,
      "ним": 3572,
      "fact": 3573,
      "ember": 3574,
      "льно": 3575,
      "мыш": 3576,
      "ую": 3577,
      "flu": 3578,
      "мент": 3579,
      "скими": 3580,
      "will": 3581,
      "может": 3582,
      "вор": 3583,
      "lar": 3584,
      "тели": 3585,
      "волю": 3586,
      "aid": 3587,
      "фер": 3588,
      "major": 3589,
      "лиги": 3590,
      "chn": 3591,
      "рес": 3592,
      "ca": 3593,
      "law": 3594,
      "шен": 3595,
      "sol": 3596,
      "ik": 3597,
      "этом": 3598,
      "дра": 3599,
      "Can": 3600,
      "струк": 3601,
      "политиче": 3602,
      "мента": 3603,
      "ору": 3604,
      "кар": 3605,
      "vent": 3606,
      "lect": 3607,
      "лев": 3608,
      "support": 3609,
      "Кар": 3610,
      "fic": 3611,
      "ющий": 3612,
      "since": 3613,
      "thern": 3614,
      "trad": 3615,
      "order": 3616,
      "Gree": 3617,
      "матиче": 3618,
      "each": 3619,
      "мор": 3620,
      "now": 3621,
      "enn": 3622,
      "sk": 3623,
      "согла": 3624,
      "small": 3625,
      "нови": 3626,
      "incre": 3627,
      "bi": 3628,
      "success": 3629,
      "ames": 3630,
      "Пре": 3631,
      "льный": 3632,
      "read": 3633,
      "depend": 3634,
      "dec": 3635,
      "alian": 3636,
      "неско": 3637,
      "abl": 3638,
      "because": 3639,
      "life": 3640,
      "remain": 3641,
      "театра": 3642,
      "км": 3643,
      "твер": 3644,
      "ilit": 3645,
      "ях": 3646,
      "ука": 3647,
      "ting": 3648,
      "tem": 3649,
      "chool": 3650,
      "organ": 3651,
      "зан": 3652,
      "view": 3653,
      "player": 3654,
      "член": 3655,
      "худо": 3656,
      "вин": 3657,
      "bas": 3658,
      "fun": 3659,
      "several": 3660,
      "mark": 3661,
      "chan": 3662,
      "government": 3663,
      "слав": 3664,
      "исс": 3665,
      "ired": 3666,
      "ener": 3667,
      "есть": 3668,
      "право": 3669,
      "class": 3670,
      "Мос": 3671,
      "bert": 3672,
      "мой": 3673,
      "aking": 3674,
      "author": 3675,
      "После": 3676,
      "зма": 3677,
      "иссле": 3678,
      "ius": 3679,
      "ides": 3680,
      "ograp": 3681,
      "fr": 3682,
      "хра": 3683,
      "ley": 3684,
      "имен": 3685,
      "plac": 3686,
      "ica": 3687,
      "hum": 3688,
      "direct": 3689,
      "Ber": 3690,
      "щее": 3691,
      "где": 3692,
      "Ав": 3693,
      "ason": 3694,
      "програм": 3695,
      "aim": 3696,
      "кро": 3697,
      "генера": 3698,
      "значи": 3699,
      "ively": 3700,
      "que": 3701,
      "non": 3702,
      "acter": 3703,
      "Од": 3704,
      "effect": 3705,
      "ices": 3706,
      "Car": 3707,
      "один": 3708,
      "век": 3709,
      "других": 3710,
      "ven": 3711,
      "современ": 3712,
      "allow": 3713,
      "ouse": 3714,
      "2000": 3715,
      "using": 3716,
      "mp": 3717,
      "cour": 3718,
      "gu": 3719,
      "film": 3720,
      "вклю": 3721,
      "descri": 3722,
      "very": 3723,
      "There": 3724,
      "foot": 3725,
      "until": 3726,
      "пара": 3727,
      "кие": 3728,
      "строи": 3729,
      "шего": 3730,
      "дела": 3731,
      "ряд": 3732,
      "different": 3733,
      "работа": 3734,
      "XV": 3735,
      "arm": 3736,
      "Моск": 3737,
      "ended": 3738,
      "However": 3739,
      "ках": 3740,
      "ator": 3741,
      "Те": 3742,
      "тон": 3743,
      "large": 3744,
      "Рес": 3745,
      "And": 3746,
      "she": 3747,
      "Alexand": 3748,
      "побе": 3749,
      "смо": 3750,
      "top": 3751,
      "вар": 3752,
      "conom": 3753,
      "2010": 3754,
      "проис": 3755,
      "yl": 3756,
      "вен": 3757,
      "example": 3758,
      "death": 3759,
      "light": 3760,
      "University": 3761,
      "resp": 3762,
      "архи": 3763,
      "тик": 3764,
      "moder": 3765,
      "чно": 3766,
      "itions": 3767,
      "bed": 3768,
      "Вла": 3769,
      "чу": 3770,
      "equ": 3771,
      "stit": 3772,
      "выбо": 3773,
      "app": 3774,
      "bod": 3775,
      "зависимо": 3776,
      "Russ": 3777,
      "els": 3778,
      "офи": 3779,
      "гов": 3780,
      "вид": 3781,
      "ner": 3782,
      "Roman": 3783,
      "ким": 3784,
      "poss": 3785,
      "Фе": 3786,
      "этого": 3787,
      "чис": 3788,
      "литера": 3789,
      "ze": 3790,
      "тист": 3791,
      "ья": 3792,
      "ternational": 3793,
      "rad": 3794,
      "вает": 3795,
      "establ": 3796,
      "использу": 3797,
      "2008": 3798,
      "lit": 3799,
      "Республи": 3800,
      "режисс": 3801,
      "import": 3802,
      "Air": 3803,
      "Bar": 3804,
      "ляр": 3805,
      "работ": 3806,
      "lim": 3807,
      "щё": 3808,
      "power": 3809,
      "первый": 3810,
      "cle": 3811,
      "Ис": 3812,
      "чемпион": 3813,
      "uary": 3814,
      "ствует": 3815,
      "реги": 3816,
      "even": 3817,
      "ield": 3818,
      "ather": 3819,
      "ристи": 3820,
      "tle": 3821,
      "мет": 3822,
      "мина": 3823,
      "шие": 3824,
      "ided": 3825,
      "ье": 3826,
      "тей": 3827,
      "ственно": 3828,
      "cas": 3829,
      "run": 3830,
      "include": 3831,
      "Pe": 3832,
      "рист": 3833,
      "mat": 3834,
      "ил": 3835,
      "иль": 3836,
      "вшие": 3837,
      "Так": 3838,
      "vol": 3839,
      "head": 3840,
      "put": 3841,
      "льной": 3842,
      "commun": 3843,
      "near": 3844,
      "виде": 3845,
      "2007": 3846,
      "result": 3847,
      "raft": 3848,
      "show": 3849,
      "находи": 3850,
      "person": 3851,
      "trib": 3852,
      "cult": 3853,
      "cord": 3854,
      "зм": 3855,
      "ref": 3856,
      "refer": 3857,
      "без": 3858,
      "water": 3859,
      "Му": 3860,
      "Все": 3861,
      "музы": 3862,
      "случа": 3863,
      "US": 3864,
      "ger": 3865,
      "обе": 3866,
      "ician": 3867,
      "мов": 3868,
      "цией": 3869,
      "сс": 3870,
      "31": 3871,
      "ock": 3872,
      "Совет": 3873,
      "основа": 3874,
      "language": 3875,
      "кня": 3876,
      "помо": 3877,
      "attle": 3878,
      "кни": 3879,
      "льных": 3880,
      "around": 3881,
      "националь": 3882,
      "King": 3883,
      "Герма": 3884,
      "Ap": 3885,
      "div": 3886,
      "ues": 3887,
      "2012": 3888,
      "Ge": 3889,
      "ize": 3890,
      "2014": 3891,
      "period": 3892,
      "американская": 3893,
      "ками": 3894,
      "тего": 3895,
      "мирова": 3896,
      "bus": 3897,
      "тар": 3898,
      "185": 3899,
      "South": 3900,
      "2011": 3901,
      "кус": 3902,
      "ister": 3903,
      "60": 3904,
      "exp": 3905,
      "сков": 3906,
      "через": 3907,
      "когда": 3908,
      "датель": 3909,
      "Никола": 3910,
      "pass": 3911,
      "ница": 3912,
      "After": 3913,
      "Aug": 3914,
      "мышлен": 3915,
      "мпи": 3916,
      "логии": 3917,
      "стер": 3918,
      "184": 3919,
      "rele": 3920,
      "крат": 3921,
      "mot": 3922,
      "Вер": 3923,
      "2009": 3924,
      "Бу": 3925,
      "харак": 3926,
      "modern": 3927,
      "did": 3928,
      "дия": 3929,
      "2013": 3930,
      "вается": 3931,
      "рен": 3932,
      "Sc": 3933,
      "appro": 3934,
      "ral": 3935,
      "жён": 3936,
      "поч": 3937,
      "глав": 3938,
      "Hist": 3939,
      "лии": 3940,
      "tal": 3941,
      "go": 3942,
      "Пет": 3943,
      "indu": 3944,
      "религи": 3945,
      "министра": 3946,
      "National": 3947,
      "щения": 3948,
      "di": 3949,
      "опера": 3950,
      "первые": 3951,
      "struct": 3952,
      "hol": 3953,
      "Ри": 3954,
      "team": 3955,
      "Это": 3956,
      "arian": 3957,
      "histor": 3958,
      "всех": 3959,
      "призна": 3960,
      "mov": 3961,
      "ходит": 3962,
      "бор": 3963,
      "веро": 3964,
      "wn": 3965,
      "They": 3966,
      "August": 3967,
      "соответ": 3968,
      "those": 3969,
      "лле": 3970,
      "оз": 3971,
      "100": 3972,
      "Pl": 3973,
      "process": 3974,
      "2005": 3975,
      "президент": 3976,
      "режиссёр": 3977,
      "iven": 3978,
      "бле": 3979,
      "By": 3980,
      "offic": 3981,
      "ali": 3982,
      "country": 3983,
      "ene": 3984,
      "каде": 3985,
      "быть": 3986,
      "ланд": 3987,
      "ilar": 3988,
      "скому": 3989,
      "нет": 3990,
      "ival": 3991,
      "лог": 3992,
      "импера": 3993,
      "миро": 3994,
      "tic": 3995,
      "Влади": 3996,
      "ised": 3997,
      "bin": 3998,
      "bit": 3999,
      "уров": 4000,
      "нау": 4001,
      "2006": 4002,
      "Ear": 4003,
      "80": 4004,
      "among": 4005,
      "производ": 4006,
      "test": 4007,
      "мон": 4008,
      "ague": 4009,
      "Че": 4010,
      "place": 4011,
      "Gr": 4012,
      "omet": 4013,
      "XIX": 4014,
      "open": 4015,
      "program": 4016,
      "AS": 4017,
      "револю": 4018,
      "Ха": 4019,
      "руко": 4020,
      "сей": 4021,
      "сою": 4022,
      "долж": 4023,
      "iving": 4024,
      "меня": 4025,
      "une": 4026,
      "тыся": 4027,
      "control": 4028,
      "мия": 4029,
      "чин": 4030,
      "использова": 4031,
      "Укра": 4032,
      "lands": 4033,
      "компа": 4034,
      "Her": 4035,
      "Би": 4036,
      "следу": 4037,
      "французский": 4038,
      "ради": 4039,
      "formed": 4040,
      "каче": 4041,
      "craft": 4042,
      "зах": 4043,
      "искус": 4044,
      "born": 4045,
      "action": 4046,
      "series": 4047,
      "cell": 4048,
      "area": 4049,
      "expl": 4050,
      "дж": 4051,
      "ждан": 4052,
      "стей": 4053,
      "рая": 4054,
      "ступи": 4055,
      "годах": 4056,
      "тики": 4057,
      "функ": 4058,
      "XX": 4059,
      "ization": 4060,
      "версите": 4061,
      "omen": 4062,
      "hand": 4063,
      "techn": 4064,
      "Pol": 4065,
      "ids": 4066,
      "которой": 4067,
      "rest": 4068,
      "многи": 4069,
      "времени": 4070,
      "окру": 4071,
      "Пи": 4072,
      "term": 4073,
      "поги": 4074,
      "ines": 4075,
      "rop": 4076,
      "aving": 4077,
      "слова": 4078,
      "ilitary": 4079,
      "Ag": 4080,
      "самы": 4081,
      "Ти": 4082,
      "ai": 4083,
      "million": 4084,
      "лены": 4085,
      "вне": 4086,
      "зии": 4087,
      "econom": 4088,
      "щего": 4089,
      "оне": 4090,
      "нен": 4091,
      "ird": 4092,
      "2017": 4093,
      "yn": 4094,
      "дь": 4095,
      "much": 4096,
      "дели": 4097,
      "inc": 4098,
      "циали": 4099,
      "войска": 4100,
      "ately": 4101,
      "ified": 4102,
      "ards": 4103,
      "70": 4104,
      "book": 4105,
      "например": 4106,
      "мате": 4107,
      "шта": 4108,
      "influ": 4109,
      "кло": 4110,
      "ony": 4111,
      "Вы": 4112,
      "ternal": 4113,
      "являются": 4114,
      "Лу": 4115,
      "два": 4116,
      "due": 4117,
      "вс": 4118,
      "спор": 4119,
      "2020": 4120,
      "ходя": 4121,
      "1990": 4122,
      "typ": 4123,
      "проце": 4124,
      "2004": 4125,
      "мире": 4126,
      "osop": 4127,
      "began": 4128,
      "день": 4129,
      "представи": 4130,
      "2018": 4131,
      "эн": 4132,
      "ets": 4133,
      "thod": 4134,
      "Greek": 4135,
      "2015": 4136,
      "спорт": 4137,
      "Сан": 4138,
      "belie": 4139,
      "stat": 4140,
      "Ne": 4141,
      "sequ": 4142,
      "bur": 4143,
      "тика": 4144,
      "ross": 4145,
      "кая": 4146,
      "continu": 4147,
      "Ser": 4148,
      "льного": 4149,
      "спи": 4150,
      "urther": 4151,
      "These": 4152,
      "поэт": 4153,
      "рода": 4154,
      "льные": 4155,
      "gg": 4156,
      "ilosop": 4157,
      "строй": 4158,
      "base": 4159,
      "population": 4160,
      "рок": 4161,
      "шко": 4162,
      "науч": 4163,
      "различ": 4164,
      "количе": 4165,
      "поз": 4166,
      "артист": 4167,
      "Ди": 4168,
      "От": 4169,
      "ческих": 4170,
      "промышлен": 4171,
      "вом": 4172,
      "2016": 4173,
      "вших": 4174,
      "All": 4175,
      "see": 4176,
      "бла": 4177,
      "ший": 4178,
      "ung": 4179,
      "pect": 4180,
      "right": 4181,
      "return": 4182,
      "немецкий": 4183,
      "мона": 4184,
      "football": 4185,
      "комп": 4186,
      "сторо": 4187,
      "hal": 4188,
      "song": 4189,
      "position": 4190,
      "жизни": 4191,
      "занима": 4192,
      "Сер": 4193,
      "коман": 4194,
      "ческой": 4195,
      "North": 4196,
      "what": 4197,
      "den": 4198,
      "шь": 4199,
      "одно": 4200,
      "располо": 4201,
      "включа": 4202,
      "Cent": 4203,
      "усло": 4204,
      "трен": 4205,
      "claim": 4206,
      "history": 4207,
      "Apol": 4208,
      "Вен": 4209,
      "ork": 4210,
      "within": 4211,
      "компози": 4212,
      "результате": 4213,
      "разд": 4214,
      "pat": 4215,
      "годы": 4216,
      "contain": 4217,
      "древ": 4218,
      "His": 4219,
      "aster": 4220,
      "Arab": 4221,
      "вну": 4222,
      "республи": 4223,
      "following": 4224,
      "фут": 4225,
      "лимпи": 4226,
      "млн": 4227,
      "ением": 4228,
      "ственный": 4229,
      "енно": 4230,
      "35": 4231,
      "стри": 4232,
      "1991": 4233,
      "правления": 4234,
      "Canad": 4235,
      "Bel": 4236,
      "last": 4237,
      "popular": 4238,
      "ёх": 4239,
      "rece": 4240,
      "истории": 4241,
      "электро": 4242,
      "Север": 4243,
      "кви": 4244,
      "still": 4245,
      "2001": 4246,
      "Пу": 4247,
      "180": 4248,
      "ane": 4249,
      "свобо": 4250,
      "смер": 4251,
      "ино": 4252,
      "возгла": 4253,
      "ability": 4254,
      "кру": 4255,
      "чь": 4256,
      "ster": 4257,
      "ently": 4258,
      "general": 4259,
      "ещё": 4260,
      "ped": 4261,
      "ones": 4262,
      "def": 4263,
      "йского": 4264,
      "2019": 4265,
      "государства": 4266,
      "кова": 4267,
      "Sch": 4268,
      "дости": 4269,
      "нем": 4270,
      "ament": 4271,
      "Man": 4272,
      "ights": 4273,
      "ove": 4274,
      "home": 4275,
      "худож": 4276,
      "gre": 4277,
      "сом": 4278,
      "группы": 4279,
      "уже": 4280,
      "гор": 4281,
      "власти": 4282,
      "ness": 4283,
      "search": 4284,
      "similar": 4285,
      "системы": 4286,
      "ственной": 4287,
      "estern": 4288,
      "adem": 4289,
      "возмож": 4290,
      "band": 4291,
      "иболее": 4292,
      "тыс": 4293,
      "ган": 4294,
      "Ro": 4295,
      "ially": 4296,
      "филь": 4297,
      "нами": 4298,
      "пись": 4299,
      "официаль": 4300,
      "шли": 4301,
      "self": 4302,
      "британ": 4303,
      "compos": 4304,
      "импе": 4305,
      "mb": 4306,
      "Госу": 4307,
      "лена": 4308,
      "mit": 4309,
      "mag": 4310,
      "Лю": 4311,
      "гру": 4312,
      "down": 4313,
      "along": 4314,
      "всего": 4315,
      "Аль": 4316,
      "тегория": 4317,
      "sch": 4318,
      "prote": 4319,
      "ham": 4320,
      "вопро": 4321,
      "конча": 4322,
      "строитель": 4323,
      "народный": 4324,
      "iam": 4325,
      "способ": 4326,
      "York": 4327,
      "дро": 4328,
      "cut": 4329,
      "ографи": 4330,
      "философ": 4331,
      "Coun": 4332,
      "центра": 4333,
      "vir": 4334,
      "хот": 4335,
      "которая": 4336,
      "университе": 4337,
      "key": 4338,
      "месте": 4339,
      "чер": 4340,
      "Some": 4341,
      "двух": 4342,
      "anim": 4343,
      "Ио": 4344,
      "доста": 4345,
      "field": 4346,
      "school": 4347,
      "станови": 4348,
      "раб": 4349,
      "вов": 4350,
      "тальян": 4351,
      "ality": 4352,
      "дет": 4353,
      "учё": 4354,
      "music": 4355,
      "фон": 4356,
      "2003": 4357,
      "Сою": 4358,
      "Бер": 4359,
      "рд": 4360,
      "хран": 4361,
      "report": 4362,
      "пас": 4363,
      "состав": 4364,
      "alth": 4365,
      "anal": 4366,
      "ведения": 4367,
      "лении": 4368,
      "considered": 4369,
      "great": 4370,
      "alk": 4371,
      "личи": 4372,
      "туре": 4373,
      "ves": 4374,
      "child": 4375,
      "posed": 4376,
      "Миха": 4377,
      "defin": 4378,
      "другие": 4379,
      "ler": 4380,
      "уда": 4381,
      "Пра": 4382,
      "character": 4383,
      "start": 4384,
      "Государ": 4385,
      "существо": 4386,
      "переда": 4387,
      "level": 4388,
      "Mon": 4389,
      "сель": 4390,
      "человека": 4391,
      "которого": 4392,
      "верх": 4393,
      "большо": 4394,
      "уби": 4395,
      "record": 4396,
      "van": 4397,
      "former": 4398,
      "tradition": 4399,
      "диа": 4400,
      "Will": 4401,
      "период": 4402,
      "Apollo": 4403,
      "зер": 4404,
      "нин": 4405,
      "няя": 4406,
      "парла": 4407,
      "Eng": 4408,
      "issu": 4409,
      "family": 4410,
      "числе": 4411,
      "ступа": 4412,
      "цар": 4413,
      "сут": 4414,
      "ске": 4415,
      "May": 4416,
      "ison": 4417,
      "plic": 4418,
      "распростран": 4419,
      "щих": 4420,
      "Украи": 4421,
      "нах": 4422,
      "eder": 4423,
      "сол": 4424,
      "инте": 4425,
      "имеет": 4426,
      "rodu": 4427,
      "ways": 4428,
      "human": 4429,
      "ological": 4430,
      "writer": 4431,
      "несколько": 4432,
      "живо": 4433,
      "Велико": 4434,
      "кли": 4435,
      "желез": 4436,
      "formation": 4437,
      "прин": 4438,
      "ches": 4439,
      "Категория": 4440,
      "God": 4441,
      "мето": 4442,
      "phys": 4443,
      "тами": 4444,
      "острова": 4445,
      "мьер": 4446,
      "влия": 4447,
      "left": 4448,
      "независимо": 4449,
      "important": 4450,
      "jo": 4451,
      "тай": 4452,
      "Church": 4453,
      "179": 4454,
      "pri": 4455,
      "side": 4456,
      "ried": 4457,
      "crit": 4458,
      "держи": 4459,
      "short": 4460,
      "урна": 4461,
      "aut": 4462,
      "ff": 4463,
      "just": 4464,
      "разде": 4465,
      "продол": 4466,
      "Однако": 4467,
      "бя": 4468,
      "фри": 4469,
      "хозя": 4470,
      "udd": 4471,
      "2002": 4472,
      "1999": 4473,
      "particular": 4474,
      "евро": 4475,
      "Co": 4476,
      "Ed": 4477,
      "ety": 4478,
      "members": 4479,
      "attack": 4480,
      "kill": 4481,
      "уре": 4482,
      "face": 4483,
      "прия": 4484,
      "ata": 4485,
      "годов": 4486,
      "species": 4487,
      "ристиан": 4488,
      "Ос": 4489,
      "sl": 4490,
      "назна": 4491,
      "addition": 4492,
      "логия": 4493,
      "published": 4494,
      "экономиче": 4495,
      "apt": 4496,
      "град": 4497,
      "чной": 4498,
      "коми": 4499,
      "матери": 4500,
      "ense": 4501,
      "various": 4502,
      "Александр": 4503,
      "относи": 4504,
      "совер": 4505,
      "net": 4506,
      "national": 4507,
      "гло": 4508,
      "итальян": 4509,
      "хе": 4510,
      "анти": 4511,
      "ays": 4512,
      "Min": 4513,
      "ration": 4514,
      "37": 4515,
      "sour": 4516,
      "расположен": 4517,
      "числен": 4518,
      "product": 4519,
      "ning": 4520,
      "body": 4521,
      "площа": 4522,
      "Gu": 4523,
      "мета": 4524,
      "мене": 4525,
      "36": 4526,
      "ank": 4527,
      "бург": 4528,
      "ably": 4529,
      "рах": 4530,
      "полага": 4531,
      "могу": 4532,
      "пря": 4533,
      "acy": 4534,
      "городе": 4535,
      "game": 4536,
      "заклю": 4537,
      "степ": 4538,
      "largest": 4539,
      "Me": 4540,
      "ling": 4541,
      "День": 4542,
      "Фи": 4543,
      "ument": 4544,
      "oss": 4545,
      "сцен": 4546,
      "труд": 4547,
      "said": 4548,
      "uses": 4549,
      "ots": 4550,
      "works": 4551,
      "given": 4552,
      "iness": 4553,
      "ales": 4554,
      "Лени": 4555,
      "vision": 4556,
      "бре": 4557,
      "мечания": 4558,
      "Ген": 4559,
      "ories": 4560,
      "tit": 4561,
      "represent": 4562,
      "ision": 4563,
      "шее": 4564,
      "Франции": 4565,
      "aur": 4566,
      "зов": 4567,
      "Sy": 4568,
      "zer": 4569,
      "нитель": 4570,
      "ческие": 4571,
      "fac": 4572,
      "ste": 4573,
      "каз": 4574,
      "2021": 4575,
      "ческий": 4576,
      "prof": 4577,
      "лки": 4578,
      "связи": 4579,
      "Роди": 4580,
      "activ": 4581,
      "vi": 4582,
      "military": 4583,
      "Christian": 4584,
      "утвер": 4585,
      "cal": 4586,
      "ground": 4587,
      "образом": 4588,
      "представ": 4589,
      "European": 4590,
      "bir": 4591,
      "another": 4592,
      "Ло": 4593,
      "mission": 4594,
      "там": 4595,
      "ris": 4596,
      "Исто": 4597,
      "свой": 4598,
      "мом": 4599,
      "ites": 4600,
      "According": 4601,
      "1992": 4602,
      "ery": 4603,
      "стр": 4604,
      "ama": 4605,
      "took": 4606,
      "tak": 4607,
      "politician": 4608,
      "виа": 4609,
      "журна": 4610,
      "ему": 4611,
      "ott": 4612,
      "исследова": 4613,
      "uter": 4614,
      "ru": 4615,
      "Анд": 4616,
      "Российской": 4617,
      "рин": 4618,
      "Char": 4619,
      "однако": 4620,
      "др": 4621,
      "late": 4622,
      "бира": 4623,
      "лением": 4624,
      "oks": 4625,
      "1980": 4626,
      "Dav": 4627,
      "beg": 4628,
      "Примечания": 4629,
      "nat": 4630,
      "introdu": 4631,
      "бан": 4632,
      "щение": 4633,
      "camp": 4634,
      "town": 4635,
      "упо": 4636,
      "пан": 4637,
      "конце": 4638,
      "development": 4639,
      "уча": 4640,
      "chang": 4641,
      "ческого": 4642,
      "кам": 4643,
      "developed": 4644,
      "ats": 4645,
      "istic": 4646,
      "mean": 4647,
      "relig": 4648,
      "память": 4649,
      "себя": 4650,
      "этому": 4651,
      "When": 4652,
      "every": 4653,
      "ither": 4654,
      "apan": 4655,
      "изда": 4656,
      "широ": 4657,
      "хозяй": 4658,
      "сим": 4659,
      "композитор": 4660,
      "without": 4661,
      "множе": 4662,
      "exist": 4663,
      "make": 4664,
      "Юж": 4665,
      "sty": 4666,
      "запад": 4667,
      "обре": 4668,
      "шёл": 4669,
      "named": 4670,
      "низ": 4671,
      "Петер": 4672,
      "Ju": 4673,
      "собы": 4674,
      "single": 4675,
      "Nov": 4676,
      "ha": 4677,
      "rote": 4678,
      "occur": 4679,
      "production": 4680,
      "During": 4681,
      "син": 4682,
      "prim": 4683,
      "atter": 4684,
      "Боль": 4685,
      "IS": 4686,
      "We": 4687,
      "cul": 4688,
      "представля": 4689,
      "телем": 4690,
      "лишь": 4691,
      "pur": 4692,
      "1996": 4693,
      "образова": 4694,
      "Alexander": 4695,
      "участ": 4696,
      "Sw": 4697,
      "Он": 4698,
      "held": 4699,
      "Jan": 4700,
      "пов": 4701,
      "Japan": 4702,
      "выше": 4703,
      "Поль": 4704,
      "39": 4705,
      "forms": 4706,
      "ask": 4707,
      "usually": 4708,
      "states": 4709,
      "чных": 4710,
      "вз": 4711,
      "Jew": 4712,
      "34": 4713,
      "38": 4714,
      "rec": 4715,
      "тради": 4716,
      "собой": 4717,
      "ples": 4718,
      "автор": 4719,
      "mun": 4720,
      "init": 4721,
      "тных": 4722,
      "особ": 4723,
      "tract": 4724,
      "cop": 4725,
      "ctor": 4726,
      "Mo": 4727,
      "Med": 4728,
      "rent": 4729,
      "брита": 4730,
      "32": 4731,
      "One": 4732,
      "tele": 4733,
      "augh": 4734,
      "шла": 4735,
      "rown": 4736,
      "included": 4737,
      "itch": 4738,
      "become": 4739,
      "space": 4740,
      "премьер": 4741,
      "мень": 4742,
      "pain": 4743,
      "wrote": 4744,
      "ivil": 4745,
      "щий": 4746,
      "подписа": 4747,
      "astr": 4748,
      "наб": 4749,
      "чё": 4750,
      "принима": 4751,
      "ствии": 4752,
      "pract": 4753,
      "Ор": 4754,
      "сон": 4755,
      "region": 4756,
      "Великобрита": 4757,
      "eas": 4758,
      "пя": 4759,
      "архитек": 4760,
      "Mus": 4761,
      "чёт": 4762,
      "ществ": 4763,
      "unch": 4764,
      "1945": 4765,
      "few": 4766,
      "посе": 4767,
      "ходе": 4768,
      "онов": 4769,
      "лиза": 4770,
      "дав": 4771,
      "партии": 4772,
      "Black": 4773,
      "mult": 4774,
      "РС": 4775,
      "model": 4776,
      "1994": 4777,
      "case": 4778,
      "лла": 4779,
      "ana": 4780,
      "Australian": 4781,
      "West": 4782,
      "tra": 4783,
      "начала": 4784,
      "established": 4785,
      "нан": 4786,
      "нару": 4787,
      "рам": 4788,
      "акаде": 4789,
      "восто": 4790,
      "wards": 4791,
      "качестве": 4792,
      "этой": 4793,
      "associ": 4794,
      "Sept": 4795,
      "своей": 4796,
      "пси": 4797,
      "граждан": 4798,
      "футбо": 4799,
      "прак": 4800,
      "Ива": 4801,
      "aul": 4802,
      "говор": 4803,
      "building": 4804,
      "need": 4805,
      "Budd": 4806,
      "Зем": 4807,
      "империи": 4808,
      "range": 4809,
      "Per": 4810,
      "bar": 4811,
      "lab": 4812,
      "кта": 4813,
      "лий": 4814,
      "гии": 4815,
      "ждение": 4816,
      "proper": 4817,
      "ственного": 4818,
      "Geor": 4819,
      "IV": 4820,
      "чтобы": 4821,
      "могут": 4822,
      "mid": 4823,
      "формирова": 4824,
      "Other": 4825,
      "вести": 4826,
      "version": 4827,
      "treat": 4828,
      "Cor": 4829,
      "тиво": 4830,
      "cially": 4831,
      "ям": 4832,
      "although": 4833,
      "cing": 4834,
      "заи": 4835,
      "1998": 4836,
      "пада": 4837,
      "change": 4838,
      "ths": 4839,
      "емо": 4840,
      "ющей": 4841,
      "philosop": 4842,
      "Для": 4843,
      "вей": 4844,
      "2022": 4845,
      "1970": 4846,
      "название": 4847,
      "составляет": 4848,
      "каж": 4849,
      "армии": 4850,
      "written": 4851,
      "political": 4852,
      "local": 4853,
      "Ste": 4854,
      "сни": 4855,
      "ificant": 4856,
      "английский": 4857,
      "нам": 4858,
      "five": 4859,
      "роль": 4860,
      "испол": 4861,
      "event": 4862,
      "feat": 4863,
      "built": 4864,
      "hip": 4865,
      "season": 4866,
      "rul": 4867,
      "redu": 4868,
      "1989": 4869,
      "xim": 4870,
      "grow": 4871,
      "function": 4872,
      "фак": 4873,
      "reach": 4874,
      "Гу": 4875,
      "ены": 4876,
      "начи": 4877,
      "ient": 4878,
      "stri": 4879,
      "comple": 4880,
      "этот": 4881,
      "sold": 4882,
      "real": 4883,
      "nal": 4884,
      "times": 4885,
      "льная": 4886,
      "заня": 4887,
      "позво": 4888,
      "ential": 4889,
      "объек": 4890,
      "муни": 4891,
      "ferences": 4892,
      "ено": 4893,
      "ферен": 4894,
      "храни": 4895,
      "война": 4896,
      "пут": 4897,
      "Li": 4898,
      "стране": 4899,
      "hic": 4900,
      "England": 4901,
      "гро": 4902,
      "граф": 4903,
      "тысяч": 4904,
      "conne": 4905,
      "языка": 4906,
      "strong": 4907,
      "Ant": 4908,
      "produced": 4909,
      "иде": 4910,
      "sugg": 4911,
      "William": 4912,
      "suggest": 4913,
      "ит": 4914,
      "inning": 4915,
      "1920": 4916,
      "закон": 4917,
      "1997": 4918,
      "настоя": 4919,
      "система": 4920,
      "AC": 4921,
      "however": 4922,
      "брь": 4923,
      "либо": 4924,
      "государственный": 4925,
      "rican": 4926,
      "установ": 4927,
      "har": 4928,
      "45": 4929,
      "1995": 4930,
      "генерал": 4931,
      "нова": 4932,
      "шим": 4933,
      "78": 4934,
      "стали": 4935,
      "ссии": 4936,
      "90": 4937,
      "ями": 4938,
      "отношения": 4939,
      "Германии": 4940,
      "75": 4941,
      "aged": 4942,
      "измен": 4943,
      "empt": 4944,
      "played": 4945,
      "международ": 4946,
      "significant": 4947,
      "оп": 4948,
      "кое": 4949,
      "ops": 4950,
      "Националь": 4951,
      "если": 4952,
      "веду": 4953,
      "бло": 4954,
      "посто": 4955,
      "подоб": 4956,
      "El": 4957,
      "Свя": 4958,
      "Ma": 4959,
      "кин": 4960,
      "educ": 4961,
      "invol": 4962,
      "1993": 4963,
      "противо": 4964,
      "Рус": 4965,
      "turn": 4966,
      "интер": 4967,
      "веден": 4968,
      "cil": 4969,
      "друго": 4970,
      "мокра": 4971,
      "mater": 4972,
      "кс": 4973,
      "grap": 4974,
      "Fe": 4975,
      "aren": 4976,
      "зей": 4977,
      "важ": 4978,
      "матри": 4979,
      "History": 4980,
      "Apr": 4981,
      "sent": 4982,
      "ston": 4983,
      "йских": 4984,
      "нения": 4985,
      "sto": 4986,
      "воды": 4987,
      "ured": 4988,
      "word": 4989,
      "object": 4990,
      "Oc": 4991,
      "bet": 4992,
      "лено": 4993,
      "178": 4994,
      "жении": 4995,
      "atom": 4996,
      "постро": 4997,
      "море": 4998,
      "юж": 4999,
      "International": 5000,
      "актив": 5001,
      "больше": 5002,
      "большин": 5003,
      "оке": 5004,
      "сам": 5005,
      "ior": 5006,
      "философи": 5007,
      "художник": 5008,
      "ктор": 5009,
      "премии": 5010,
      "значитель": 5011,
      "среди": 5012,
      "placed": 5013,
      "оте": 5014,
      "original": 5015,
      "услови": 5016,
      "язык": 5017,
      "Pres": 5018,
      "начале": 5019,
      "Хо": 5020,
      "idence": 5021,
      "September": 5022,
      "роди": 5023,
      "ствуют": 5024,
      "third": 5025,
      "стана": 5026,
      "Union": 5027,
      "глу": 5028,
      "вобо": 5029,
      "having": 5030,
      "вода": 5031,
      "separ": 5032,
      "вари": 5033,
      "правительство": 5034,
      "appear": 5035,
      "чные": 5036,
      "вают": 5037,
      "April": 5038,
      "Федера": 5039,
      "сцена": 5040,
      "Bra": 5041,
      "лений": 5042,
      "темпера": 5043,
      "aves": 5044,
      "evol": 5045,
      "Bur": 5046,
      "эта": 5047,
      "ivid": 5048,
      "Act": 5049,
      "log": 5050,
      "Цен": 5051,
      "six": 5052,
      "ogn": 5053,
      "type": 5054,
      "едини": 5055,
      "mass": 5056,
      "roy": 5057,
      "ственных": 5058,
      "Comp": 5059,
      "европе": 5060,
      "bum": 5061,
      "даль": 5062,
      "mic": 5063,
      "необ": 5064,
      "мас": 5065,
      "Lond": 5066,
      "take": 5067,
      "тически": 5068,
      "дорож": 5069,
      "щён": 5070,
      "ances": 5071,
      "olic": 5072,
      "systems": 5073,
      "голо": 5074,
      "ald": 5075,
      "acc": 5076,
      "London": 5077,
      "bon": 5078,
      "1960": 5079,
      "Atl": 5080,
      "ствие": 5081,
      "обес": 5082,
      "countries": 5083,
      "groups": 5084,
      "сил": 5085,
      "оборо": 5086,
      "Литера": 5087,
      "role": 5088,
      "проду": 5089,
      "встре": 5090,
      "дой": 5091,
      "ФСР": 5092,
      "содержа": 5093,
      "idge": 5094,
      "onom": 5095,
      "does": 5096,
      "вица": 5097,
      "Emp": 5098,
      "экономи": 5099,
      "зь": 5100,
      "мин": 5101,
      "proble": 5102,
      "социаль": 5103,
      "outhern": 5104,
      "care": 5105,
      "кур": 5106,
      "лга": 5107,
      "AD": 5108,
      "Европе": 5109,
      "ometimes": 5110,
      "She": 5111,
      "бай": 5112,
      "company": 5113,
      "house": 5114,
      "ploy": 5115,
      "служи": 5116,
      "ography": 5117,
      "празд": 5118,
      "энер": 5119,
      "защи": 5120,
      "ption": 5121,
      "pen": 5122,
      "восточ": 5123,
      "mber": 5124,
      "зако": 5125,
      "served": 5126,
      "reed": 5127,
      "тая": 5128,
      "1918": 5129,
      "decl": 5130,
      "пута": 5131,
      "command": 5132,
      "north": 5133,
      "бран": 5134,
      "stant": 5135,
      "lines": 5136,
      "Hol": 5137,
      "independ": 5138,
      "anish": 5139,
      "укра": 5140,
      "христиан": 5141,
      "ристо": 5142,
      "eth": 5143,
      "ained": 5144,
      "нор": 5145,
      "РСФСР": 5146,
      "wid": 5147,
      "кто": 5148,
      "Запад": 5149,
      "half": 5150,
      "ОО": 5151,
      "vious": 5152,
      "nov": 5153,
      "America": 5154,
      "released": 5155,
      "AM": 5156,
      "David": 5157,
      "cience": 5158,
      "Ben": 5159,
      "post": 5160,
      "ющая": 5161,
      "iction": 5162,
      "clos": 5163,
      "свою": 5164,
      "road": 5165,
      "material": 5166,
      "alt": 5167,
      "Основ": 5168,
      "поле": 5169,
      "came": 5170,
      "деся": 5171,
      "трёх": 5172,
      "rael": 5173,
      "сад": 5174,
      "джа": 5175,
      "thus": 5176,
      "стала": 5177,
      "aver": 5178,
      "west": 5179,
      "пли": 5180,
      "should": 5181,
      "inste": 5182,
      "Между": 5183,
      "ом": 5184,
      "вил": 5185,
      "dev": 5186,
      "fig": 5187,
      "ссе": 5188,
      "constru": 5189,
      "research": 5190,
      "65": 5191,
      "References": 5192,
      "ремен": 5193,
      "African": 5194,
      "дри": 5195,
      "languages": 5196,
      "June": 5197,
      "обеспе": 5198,
      "atin": 5199,
      "See": 5200,
      "33": 5201,
      "вала": 5202,
      "get": 5203,
      "force": 5204,
      "крупней": 5205,
      "possible": 5206,
      "actor": 5207,
      "помощ": 5208,
      "Phil": 5209,
      "пробле": 5210,
      "Япо": 5211,
      "July": 5212,
      "text": 5213,
      "которое": 5214,
      "others": 5215,
      "хода": 5216,
      "study": 5217,
      "total": 5218,
      "даже": 5219,
      "меди": 5220,
      "одной": 5221,
      "espe": 5222,
      "возду": 5223,
      "BN": 5224,
      "sum": 5225,
      "wood": 5226,
      "емых": 5227,
      "впервые": 5228,
      "дования": 5229,
      "chem": 5230,
      "March": 5231,
      "January": 5232,
      "cir": 5233,
      "информа": 5234,
      "ctions": 5235,
      "число": 5236,
      "aircraft": 5237,
      "covered": 5238,
      "dro": 5239,
      "олимпи": 5240,
      "theory": 5241,
      "организа": 5242,
      "Gener": 5243,
      "наиболее": 5244,
      "лёт": 5245,
      "tober": 5246,
      "певица": 5247,
      "выпу": 5248,
      "certain": 5249,
      "64": 5250,
      "Согла": 5251,
      "величи": 5252,
      "itive": 5253,
      "October": 5254,
      "Day": 5255,
      "aly": 5256,
      "кисло": 5257,
      "источ": 5258,
      "links": 5259,
      "ification": 5260,
      "described": 5261,
      "ющего": 5262,
      "ends": 5263,
      "Dece": 5264,
      "father": 5265,
      "won": 5266,
      "mor": 5267,
      "ждён": 5268,
      "жде": 5269,
      "church": 5270,
      "след": 5271,
      "Также": 5272,
      "lam": 5273,
      "ющим": 5274,
      "правительства": 5275,
      "Empire": 5276,
      "either": 5277,
      "free": 5278,
      "hor": 5279,
      "ником": 5280,
      "1988": 5281,
      "December": 5282,
      "соедин": 5283,
      "щие": 5284,
      "кана": 5285,
      "сооб": 5286,
      "Spe": 5287,
      "попу": 5288,
      "individ": 5289,
      "направ": 5290,
      "alia": 5291,
      "pot": 5292,
      "моря": 5293,
      "сценарист": 5294,
      "милли": 5295,
      "деля": 5296,
      "столи": 5297,
      "list": 5298,
      "лауре": 5299,
      "отдель": 5300,
      "пыта": 5301,
      "ark": 5302,
      "необходи": 5303,
      "With": 5304,
      "Гла": 5305,
      "жу": 5306,
      "method": 5307,
      "луч": 5308,
      "Soc": 5309,
      "dra": 5310,
      "ford": 5311,
      "клад": 5312,
      "style": 5313,
      "Ду": 5314,
      "дли": 5315,
      "твор": 5316,
      "areas": 5317,
      "anti": 5318,
      "48": 5319,
      "лод": 5320,
      "ination": 5321,
      "ката": 5322,
      "lear": 5323,
      "tribut": 5324,
      "sure": 5325,
      "thing": 5326,
      "союз": 5327,
      "сматри": 5328,
      "меся": 5329,
      "гель": 5330,
      "произо": 5331,
      "меха": 5332,
      "рами": 5333,
      "Arch": 5334,
      "класси": 5335,
      "cause": 5336,
      "current": 5337,
      "ged": 5338,
      "termin": 5339,
      "бере": 5340,
      "Russian": 5341,
      "Des": 5342,
      "earli": 5343,
      "sometimes": 5344,
      "heav": 5345,
      "istan": 5346,
      "south": 5347,
      "Ту": 5348,
      "губер": 5349,
      "nia": 5350,
      "ъе": 5351,
      "1986": 5352,
      "Васи": 5353,
      "mand": 5354,
      "джи": 5355,
      "iple": 5356,
      "держ": 5357,
      "вшиеся": 5358,
      "шло": 5359,
      "ined": 5360,
      "учи": 5361,
      "business": 5362,
      "aries": 5363,
      "дат": 5364,
      "syn": 5365,
      "фика": 5366,
      "meas": 5367,
      "died": 5368,
      "этих": 5369,
      "East": 5370,
      "scri": 5371,
      "нению": 5372,
      "веке": 5373,
      "ственные": 5374,
      "Cath": 5375,
      "вии": 5376,
      "федера": 5377,
      "готов": 5378,
      "поня": 5379,
      "useum": 5380,
      "менее": 5381,
      "Sov": 5382,
      "far": 5383,
      "ades": 5384,
      "вало": 5385,
      "работы": 5386,
      "Tur": 5387,
      "1941": 5388,
      "тно": 5389,
      "предло": 5390,
      "tro": 5391,
      "Ита": 5392,
      "sw": 5393,
      "service": 5394,
      "album": 5395,
      "тах": 5396,
      "буду": 5397,
      "восста": 5398,
      "движения": 5399,
      "singer": 5400,
      "Soviet": 5401,
      "ink": 5402,
      "Восточ": 5403,
      "dest": 5404,
      "adv": 5405,
      "territ": 5406,
      "часто": 5407,
      "natural": 5408,
      "Литература": 5409,
      "ps": 5410,
      "котором": 5411,
      "администра": 5412,
      "Республики": 5413,
      "Гор": 5414,
      "фото": 5415,
      "official": 5416,
      "льку": 5417,
      "liter": 5418,
      "November": 5419,
      "games": 5420,
      "women": 5421,
      "авиа": 5422,
      "ports": 5423,
      "1979": 5424,
      "свои": 5425,
      "нение": 5426,
      "нской": 5427,
      "мат": 5428,
      "ов": 5429,
      "кол": 5430,
      "1984": 5431,
      "France": 5432,
      "Гра": 5433,
      "чень": 5434,
      "Крас": 5435,
      "ille": 5436,
      "чени": 5437,
      "дор": 5438,
      "ming": 5439,
      "black": 5440,
      "провозгла": 5441,
      "наблю": 5442,
      "кос": 5443,
      "осуществ": 5444,
      "российская": 5445,
      "оче": 5446,
      "проек": 5447,
      "City": 5448,
      "носи": 5449,
      "бит": 5450,
      "especially": 5451,
      "dle": 5452,
      "отнош": 5453,
      "радио": 5454,
      "bs": 5455,
      "рию": 5456,
      "моби": 5457,
      "making": 5458,
      "plan": 5459,
      "Although": 5460,
      "седа": 5461,
      "Ги": 5462,
      "происхо": 5463,
      "continued": 5464,
      "ency": 5465,
      "астро": 5466,
      "освобо": 5467,
      "тых": 5468,
      "1969": 5469,
      "Egy": 5470,
      "Mor": 5471,
      "нского": 5472,
      "король": 5473,
      "лауреат": 5474,
      "Сред": 5475,
      "выпол": 5476,
      "бир": 5477,
      "76": 5478,
      "99": 5479,
      "related": 5480,
      "облада": 5481,
      "hold": 5482,
      "власть": 5483,
      "La": 5484,
      "Part": 5485,
      "нец": 5486,
      "ню": 5487,
      "ensive": 5488,
      "Har": 5489,
      "Ал": 5490,
      "ournal": 5491,
      "педа": 5492,
      "moved": 5493,
      "ток": 5494,
      "1972": 5495,
      "host": 5496,
      "compet": 5497,
      "1987": 5498,
      "Испа": 5499,
      "neg": 5500,
      "try": 5501,
      "внутрен": 5502,
      "выс": 5503,
      "находится": 5504,
      "религиоз": 5505,
      "вело": 5506,
      "transl": 5507,
      "engine": 5508,
      "написа": 5509,
      "мик": 5510,
      "запа": 5511,
      "своего": 5512,
      "пыт": 5513,
      "Indian": 5514,
      "forces": 5515,
      "контро": 5516,
      "must": 5517,
      "сре": 5518,
      "uel": 5519,
      "Port": 5520,
      "fall": 5521,
      "Европы": 5522,
      "cu": 5523,
      "launch": 5524,
      "лян": 5525,
      "Egypt": 5526,
      "конструк": 5527,
      "Кро": 5528,
      "relation": 5529,
      "выра": 5530,
      "начало": 5531,
      "further": 5532,
      "°C": 5533,
      "женщи": 5534,
      "рим": 5535,
      "слов": 5536,
      "capital": 5537,
      "вшая": 5538,
      "imate": 5539,
      "ush": 5540,
      "ending": 5541,
      "воро": 5542,
      "ief": 5543,
      "created": 5544,
      "ino": 5545,
      "1981": 5546,
      "1944": 5547,
      "матема": 5548,
      "combin": 5549,
      "1917": 5550,
      "вую": 5551,
      "Москов": 5552,
      "oto": 5553,
      "ограни": 5554,
      "ули": 5555,
      "accoun": 5556,
      "1975": 5557,
      "minist": 5558,
      "board": 5559,
      "thes": 5560,
      "55": 5561,
      "Not": 5562,
      "пода": 5563,
      "льное": 5564,
      "1940": 5565,
      "аб": 5566,
      "gar": 5567,
      "hard": 5568,
      "1985": 5569,
      "четы": 5570,
      "дипло": 5571,
      "project": 5572,
      "1968": 5573,
      "собра": 5574,
      "министр": 5575,
      "Ча": 5576,
      "itect": 5577,
      "шую": 5578,
      "tre": 5579,
      "vo": 5580,
      "lection": 5581,
      "скоро": 5582,
      "ancient": 5583,
      "compan": 5584,
      "Совета": 5585,
      "языке": 5586,
      "президента": 5587,
      "AT": 5588,
      "dam": 5589,
      "External": 5590,
      "вец": 5591,
      "47": 5592,
      "дю": 5593,
      "умер": 5594,
      "пита": 5595,
      "ори": 5596,
      "знача": 5597,
      "тельных": 5598,
      "Ang": 5599,
      "вёр": 5600,
      "1930": 5601,
      "перио": 5602,
      "member": 5603,
      "Николай": 5604,
      "ibr": 5605,
      "parts": 5606,
      "lor": 5607,
      "рит": 5608,
      "оружён": 5609,
      "Te": 5610,
      "hib": 5611,
      "исклю": 5612,
      "цей": 5613,
      "север": 5614,
      "Earth": 5615,
      "ern": 5616,
      "While": 5617,
      "почти": 5618,
      "Res": 5619,
      "bra": 5620,
      "своих": 5621,
      "enced": 5622,
      "золо": 5623,
      "1967": 5624,
      "жей": 5625,
      "social": 5626,
      "1976": 5627,
      "чный": 5628,
      "вшего": 5629,
      "разме": 5630,
      "manag": 5631,
      "League": 5632,
      "successful": 5633,
      "least": 5634,
      "ara": 5635,
      "вол": 5636,
      "частности": 5637,
      "нес": 5638,
      "Владимир": 5639,
      "how": 5640,
      "принци": 5641,
      "data": 5642,
      "Пред": 5643,
      "церков": 5644,
      "1983": 5645,
      "Верхов": 5646,
      "чик": 5647,
      "lik": 5648,
      "OS": 5649,
      "семь": 5650,
      "500": 5651,
      "1982": 5652,
      "isto": 5653,
      "ounced": 5654,
      "дво": 5655,
      "era": 5656,
      "неф": 5657,
      "имени": 5658,
      "зада": 5659,
      "конститу": 5660,
      "Ком": 5661,
      "Москве": 5662,
      "1974": 5663,
      "To": 5664,
      "лами": 5665,
      "1973": 5666,
      "good": 5667,
      "previous": 5668,
      "зде": 5669,
      "Atlant": 5670,
      "оказа": 5671,
      "hem": 5672,
      "rather": 5673,
      "special": 5674,
      "Em": 5675,
      "участи": 5676,
      "generally": 5677,
      "экспе": 5678,
      "пле": 5679,
      "ментов": 5680,
      "памят": 5681,
      "док": 5682,
      "sem": 5683,
      "footballer": 5684,
      "received": 5685,
      "spir": 5686,
      "имеют": 5687,
      "итальянский": 5688,
      "украин": 5689,
      "Su": 5690,
      "КП": 5691,
      "борь": 5692,
      "продук": 5693,
      "44": 5694,
      "бро": 5695,
      "мей": 5696,
      "иг": 5697,
      "quest": 5698,
      "Germany": 5699,
      "второй": 5700,
      "mal": 5701,
      "фло": 5702,
      "рис": 5703,
      "1971": 5704,
      "food": 5705,
      "Согласно": 5706,
      "писы": 5707,
      "ains": 5708,
      "тому": 5709,
      "Bul": 5710,
      "wide": 5711,
      "показа": 5712,
      "жил": 5713,
      "сня": 5714,
      "моно": 5715,
      "внеш": 5716,
      "обя": 5717,
      "данным": 5718,
      "имя": 5719,
      "цами": 5720,
      "сылки": 5721,
      "children": 5722,
      "лича": 5723,
      "демокра": 5724,
      "транспорт": 5725,
      "писи": 5726,
      "министро": 5727,
      "avail": 5728,
      "1964": 5729,
      "иностран": 5730,
      "Pal": 5731,
      "Latin": 5732,
      "cast": 5733,
      "ta": 5734,
      "бес": 5735,
      "pha": 5736,
      "постоян": 5737,
      "Англи": 5738,
      "торов": 5739,
      "priv": 5740,
      "футболист": 5741,
      "ney": 5742,
      "vert": 5743,
      "final": 5744,
      "temper": 5745,
      "нев": 5746,
      "acid": 5747,
      "schol": 5748,
      "ape": 5749,
      "модель": 5750,
      "Кали": 5751,
      "oung": 5752,
      "tom": 5753,
      "ago": 5754,
      "захва": 5755,
      "aud": 5756,
      "asing": 5757,
      "General": 5758,
      "Great": 5759,
      "появи": 5760,
      "будет": 5761,
      "consist": 5762,
      "Roy": 5763,
      "ам": 5764,
      "Italian": 5765,
      "основан": 5766,
      "ront": 5767,
      "beh": 5768,
      "ows": 5769,
      "aff": 5770,
      "round": 5771,
      "ements": 5772,
      "развития": 5773,
      "hab": 5774,
      "trav": 5775,
      "vict": 5776,
      "нией": 5777,
      "тирова": 5778,
      "ква": 5779,
      "opt": 5780,
      "attempt": 5781,
      "бой": 5782,
      "scient": 5783,
      "чего": 5784,
      "Lu": 5785,
      "кинорежиссёр": 5786,
      "шу": 5787,
      "образования": 5788,
      "rica": 5789,
      "теории": 5790,
      "Canadian": 5791,
      "Art": 5792,
      "1977": 5793,
      "lower": 5794,
      "всё": 5795,
      "ek": 5796,
      "win": 5797,
      "concer": 5798,
      "сами": 5799,
      "циа": 5800,
      "гом": 5801,
      "utch": 5802,
      "количество": 5803,
      "recogn": 5804,
      "ply": 5805,
      "заимо": 5806,
      "цкий": 5807,
      "ётся": 5808,
      "seen": 5809,
      "party": 5810,
      "days": 5811,
      "Kingdom": 5812,
      "спорта": 5813,
      "стату": 5814,
      "История": 5815,
      "taken": 5816,
      "форму": 5817,
      "культур": 5818,
      "computer": 5819,
      "Apple": 5820,
      "Бар": 5821,
      "150": 5822,
      "мировой": 5823,
      "whe": 5824,
      "хан": 5825,
      "suf": 5826,
      "партия": 5827,
      "next": 5828,
      "rate": 5829,
      "zil": 5830,
      "Пар": 5831,
      "ators": 5832,
      "чей": 5833,
      "interest": 5834,
      "ope": 5835,
      "Джон": 5836,
      "очень": 5837,
      "надле": 5838,
      "bish": 5839,
      "feder": 5840,
      "rac": 5841,
      "био": 5842,
      "1978": 5843,
      "Paul": 5844,
      "fire": 5845,
      "массо": 5846,
      "ческая": 5847,
      "стать": 5848,
      "bes": 5849,
      "Вол": 5850,
      "ountain": 5851,
      "cus": 5852,
      "описа": 5853,
      "права": 5854,
      "himself": 5855,
      "domin": 5856,
      "Ново": 5857,
      "действия": 5858,
      "ising": 5859,
      "Army": 5860,
      "ique": 5861,
      "20th": 5862,
      "Western": 5863,
      "рения": 5864,
      "Book": 5865,
      "Mac": 5866,
      "Press": 5867,
      "ned": 5868,
      "взя": 5869,
      "sex": 5870,
      "Africa": 5871,
      "hydro": 5872,
      "Украины": 5873,
      "1966": 5874,
      "стороны": 5875,
      "Ана": 5876,
      "лл": 5877,
      "books": 5878,
      "казыва": 5879,
      "основном": 5880,
      "Most": 5881,
      "market": 5882,
      "iment": 5883,
      "never": 5884,
      "характер": 5885,
      "battle": 5886,
      "1939": 5887,
      "ring": 5888,
      "лению": 5889,
      "тый": 5890,
      "fail": 5891,
      "mod": 5892,
      "founded": 5893,
      "Brazil": 5894,
      "печа": 5895,
      "емые": 5896,
      "ляет": 5897,
      "сфе": 5898,
      "това": 5899,
      "300": 5900,
      "army": 5901,
      "regard": 5902,
      "евич": 5903,
      "эпо": 5904,
      "1962": 5905,
      "священ": 5906,
      "бю": 5907,
      "нодорож": 5908,
      "academ": 5909,
      "akes": 5910,
      "сме": 5911,
      "international": 5912,
      "славя": 5913,
      "ties": 5914,
      "49": 5915,
      "Many": 5916,
      "god": 5917,
      "суб": 5918,
      "Центра": 5919,
      "ls": 5920,
      "затем": 5921,
      "1950": 5922,
      "ole": 5923,
      "emp": 5924,
      "главе": 5925,
      "1965": 5926,
      "церкви": 5927,
      "accept": 5928,
      "выми": 5929,
      "стой": 5930,
      "поддерж": 5931,
      "iety": 5932,
      "реки": 5933,
      "Бело": 5934,
      "педаго": 5935,
      "Mc": 5936,
      "тике": 5937,
      "Союза": 5938,
      "na": 5939,
      "фан": 5940,
      "хотя": 5941,
      "природ": 5942,
      "туга": 5943,
      "случае": 5944,
      "sal": 5945,
      "хро": 5946,
      "ющее": 5947,
      "тил": 5948,
      "experi": 5949,
      "формы": 5950,
      "President": 5951,
      "Sm": 5952,
      "rew": 5953,
      "broad": 5954,
      "парламент": 5955,
      "Catholic": 5956,
      "доку": 5957,
      "первой": 5958,
      "1943": 5959,
      "ering": 5960,
      "Виль": 5961,
      "If": 5962,
      "озе": 5963,
      "сия": 5964,
      "standard": 5965,
      "мед": 5966,
      "ведён": 5967,
      "ссажи": 5968,
      "No": 5969,
      "toge": 5970,
      "1942": 5971,
      "Sea": 5972,
      "определён": 5973,
      "оцен": 5974,
      "решение": 5975,
      "prop": 5976,
      "порт": 5977,
      "star": 5978,
      "offer": 5979,
      "ours": 5980,
      "fort": 5981,
      "express": 5982,
      "Australia": 5983,
      "свобод": 5984,
      "Пла": 5985,
      "inal": 5986,
      "1919": 5987,
      "Чер": 5988,
      "менты": 5989,
      "перед": 5990,
      "icy": 5991,
      "words": 5992,
      "ведение": 5993,
      "frequ": 5994,
      "170": 5995,
      "Israel": 5996,
      "реали": 5997,
      "игра": 5998,
      "exper": 5999,
      "subject": 6000,
      "dou": 6001,
      "Бал": 6002,
      "together": 6003,
      "court": 6004,
      "Пор": 6005,
      "дово": 6006,
      "employ": 6007,
      "story": 6008,
      "депута": 6009,
      "Народ": 6010,
      "1961": 6011,
      "68": 6012,
      "стол": 6013,
      "oid": 6014,
      "above": 6015,
      "ify": 6016,
      "Athen": 6017,
      "aper": 6018,
      "принадле": 6019,
      "ges": 6020,
      "iles": 6021,
      "тельной": 6022,
      "1963": 6023,
      "тельные": 6024,
      "Scott": 6025,
      "Dutch": 6026,
      "ceed": 6027,
      "Собы": 6028,
      "almost": 6029,
      "Cam": 6030,
      "comes": 6031,
      "требо": 6032,
      "My": 6033,
      "gas": 6034,
      "Амери": 6035,
      "Сто": 6036,
      "indic": 6037,
      "специаль": 6038,
      "industr": 6039,
      "saw": 6040,
      "оло": 6041,
      "эро": 6042,
      "основе": 6043,
      "best": 6044,
      "nit": 6045,
      "Под": 6046,
      "architect": 6047,
      "кресть": 6048,
      "energy": 6049,
      "House": 6050,
      "List": 6051,
      "ваются": 6052,
      "избран": 6053,
      "людей": 6054,
      "India": 6055,
      "fri": 6056,
      "получа": 6057,
      "руковод": 6058,
      "respon": 6059,
      "tour": 6060,
      "ington": 6061,
      "первая": 6062,
      "Albert": 6063,
      "одним": 6064,
      "means": 6065,
      "rain": 6066,
      "завер": 6067,
      "white": 6068,
      "ishing": 6069,
      "Bor": 6070,
      "stre": 6071,
      "outs": 6072,
      "mathem": 6073,
      "События": 6074,
      "went": 6075,
      "чного": 6076,
      "силы": 6077,
      "Jer": 6078,
      "followed": 6079,
      "available": 6080,
      "Hen": 6081,
      "крас": 6082,
      "сохрани": 6083,
      "тельное": 6084,
      "Раз": 6085,
      "взаимо": 6086,
      "San": 6087,
      "гей": 6088,
      "according": 6089,
      "полови": 6090,
      "constit": 6091,
      "Россия": 6092,
      "iers": 6093,
      "ог": 6094,
      "upon": 6095,
      "течение": 6096,
      "сохран": 6097,
      "запре": 6098,
      "higher": 6099,
      "fem": 6100,
      "значение": 6101,
      "economic": 6102,
      "meaning": 6103,
      "pite": 6104,
      "лина": 6105,
      "Battle": 6106,
      "Кор": 6107,
      "цент": 6108,
      "throughout": 6109,
      "Санкт": 6110,
      "profess": 6111,
      "продолжа": 6112,
      "astern": 6113,
      "популяр": 6114,
      "Гре": 6115,
      "ought": 6116,
      "компью": 6117,
      "television": 6118,
      "ерт": 6119,
      "numbers": 6120,
      "scre": 6121,
      "Тур": 6122,
      "1947": 6123,
      "viron": 6124,
      "Тро": 6125,
      "ships": 6126,
      "психо": 6127,
      "Афри": 6128,
      "поля": 6129,
      "medi": 6130,
      "мена": 6131,
      "дена": 6132,
      "Spanish": 6133,
      "погиб": 6134,
      "State": 6135,
      "партий": 6136,
      "Trans": 6137,
      "ume": 6138,
      "mother": 6139,
      "introduced": 6140,
      "две": 6141,
      "1900": 6142,
      "сказа": 6143,
      "president": 6144,
      "1938": 6145,
      "colon": 6146,
      "sen": 6147,
      "Angl": 6148,
      "правля": 6149,
      "arily": 6150,
      "prob": 6151,
      "войск": 6152,
      "треб": 6153,
      "Lin": 6154,
      "Ru": 6155,
      "sof": 6156,
      "некоторых": 6157,
      "институ": 6158,
      "тической": 6159,
      "особенно": 6160,
      "дел": 6161,
      "reported": 6162,
      "tail": 6163,
      "berg": 6164,
      "Великобритании": 6165,
      "жений": 6166,
      "фици": 6167,
      "central": 6168,
      "evidence": 6169,
      "вшей": 6170,
      "пассажи": 6171,
      "перевод": 6172,
      "recent": 6173,
      "George": 6174,
      "Кроме": 6175,
      "Qu": 6176,
      "мл": 6177,
      "1946": 6178,
      "объяви": 6179,
      "очеред": 6180,
      "CO": 6181,
      "ben": 6182,
      "across": 6183,
      "проте": 6184,
      "продю": 6185,
      "химиче": 6186,
      "designed": 6187,
      "ken": 6188,
      "sel": 6189,
      "успе": 6190,
      "culture": 6191,
      "зон": 6192,
      "све": 6193,
      "пост": 6194,
      "terms": 6195,
      "многих": 6196,
      "Mod": 6197,
      "эф": 6198,
      "като": 6199,
      "инди": 6200,
      "ходят": 6201,
      "thought": 6202,
      "aign": 6203,
      "inte": 6204,
      "метро": 6205,
      "экс": 6206,
      "настоящее": 6207,
      "позд": 6208,
      "личие": 6209,
      "ото": 6210,
      "ене": 6211,
      "full": 6212,
      "см": 6213,
      "стар": 6214,
      "active": 6215,
      "Since": 6216,
      "cup": 6217,
      "гля": 6218,
      "доль": 6219,
      "aint": 6220,
      "Vol": 6221,
      "вок": 6222,
      "complex": 6223,
      "invest": 6224,
      "From": 6225,
      "poet": 6226,
      "19th": 6227,
      "Поли": 6228,
      "Afgh": 6229,
      "стало": 6230,
      "Нор": 6231,
      "создан": 6232,
      "срав": 6233,
      "ints": 6234,
      "тиру": 6235,
      "abs": 6236,
      "использо": 6237,
      "vot": 6238,
      "циона": 6239,
      "amb": 6240,
      "поте": 6241,
      "Febr": 6242,
      "54": 6243,
      "aining": 6244,
      "evolution": 6245,
      "James": 6246,
      "grad": 6247,
      "value": 6248,
      "Mid": 6249,
      "фрон": 6250,
      "пое": 6251,
      "entire": 6252,
      "Май": 6253,
      "elements": 6254,
      "Им": 6255,
      "oph": 6256,
      "cret": 6257,
      "rich": 6258,
      "возник": 6259,
      "February": 6260,
      "civil": 6261,
      "fav": 6262,
      "мана": 6263,
      "uments": 6264,
      "Thom": 6265,
      "Констан": 6266,
      "Ленин": 6267,
      "начина": 6268,
      "ateg": 6269,
      "religious": 6270,
      "гни": 6271,
      "сона": 6272,
      "певец": 6273,
      "проводи": 6274,
      "тельного": 6275,
      "Fir": 6276,
      "оконча": 6277,
      "1922": 6278,
      "Po": 6279,
      "посред": 6280,
      "ults": 6281,
      "суль": 6282,
      "Rich": 6283,
      "ата": 6284,
      "философии": 6285,
      "58": 6286,
      "Фри": 6287,
      "лова": 6288,
      "imp": 6289,
      "efore": 6290,
      "кратный": 6291,
      "скольку": 6292,
      "гео": 6293,
      "ныне": 6294,
      "located": 6295,
      "Бы": 6296,
      "бар": 6297,
      "веща": 6298,
      "except": 6299,
      "водо": 6300,
      "ступил": 6301,
      "продюсер": 6302,
      "льным": 6303,
      "зопас": 6304,
      "организации": 6305,
      "construction": 6306,
      "size": 6307,
      "лой": 6308,
      "русской": 6309,
      "capt": 6310,
      "ООН": 6311,
      "mach": 6312,
      "cost": 6313,
      "Lou": 6314,
      "coming": 6315,
      "Воз": 6316,
      "Нобе": 6317,
      "Рим": 6318,
      "VI": 6319,
      "doc": 6320,
      "ux": 6321,
      "таких": 6322,
      "чай": 6323,
      "сторон": 6324,
      "избира": 6325,
      "players": 6326,
      "объедин": 6327,
      "condu": 6328,
      "предприя": 6329,
      "ull": 6330,
      "многие": 6331,
      "менталь": 6332,
      "Pat": 6333,
      "Pri": 6334,
      "surface": 6335,
      "цов": 6336,
      "левской": 6337,
      "Japanese": 6338,
      "average": 6339,
      "общи": 6340,
      "disc": 6341,
      "hom": 6342,
      "тельство": 6343,
      "Reg": 6344,
      "тря": 6345,
      "Пере": 6346,
      "смерти": 6347,
      "риаль": 6348,
      "нём": 6349,
      "ссы": 6350,
      "Armen": 6351,
      "циалистиче": 6352,
      "нас": 6353,
      "club": 6354,
      "ula": 6355,
      "значения": 6356,
      "ССР": 6357,
      "Pers": 6358,
      "япо": 6359,
      "речи": 6360,
      "160": 6361,
      "общества": 6362,
      "лью": 6363,
      "ounds": 6364,
      "1958": 6365,
      "никами": 6366,
      "jan": 6367,
      "центр": 6368,
      "ram": 6369,
      "рина": 6370,
      "Dem": 6371,
      "Sam": 6372,
      "находя": 6373,
      "crew": 6374,
      "связан": 6375,
      "iter": 6376,
      "tru": 6377,
      "teach": 6378,
      "1956": 6379,
      "русского": 6380,
      "numer": 6381,
      "AP": 6382,
      "Dis": 6383,
      "ideo": 6384,
      "муж": 6385,
      "служ": 6386,
      "культуры": 6387,
      "ria": 6388,
      "instead": 6389,
      "lay": 6390,
      "ностей": 6391,
      "тет": 6392,
      "писко": 6393,
      "Федерации": 6394,
      "военный": 6395,
      "щую": 6396,
      "1937": 6397,
      "altern": 6398,
      "access": 6399,
      "бога": 6400,
      "рыв": 6401,
      "отсут": 6402,
      "тю": 6403,
      "стоит": 6404,
      "млрд": 6405,
      "Мон": 6406,
      "alg": 6407,
      "1948": 6408,
      "whose": 6409,
      "associated": 6410,
      "anth": 6411,
      "ket": 6412,
      "information": 6413,
      "законо": 6414,
      "itself": 6415,
      "structure": 6416,
      "mig": 6417,
      "respect": 6418,
      "Islam": 6419,
      "музыка": 6420,
      "ioned": 6421,
      "lost": 6422,
      "High": 6423,
      "Вто": 6424,
      "дома": 6425,
      "провин": 6426,
      "получил": 6427,
      "atively": 6428,
      "пора": 6429,
      "Конститу": 6430,
      "academic": 6431,
      "Mich": 6432,
      "числа": 6433,
      "feature": 6434,
      "Его": 6435,
      "вича": 6436,
      "обнару": 6437,
      "find": 6438,
      "станции": 6439,
      "устрой": 6440,
      "тельный": 6441,
      "Среди": 6442,
      "acqu": 6443,
      "лирова": 6444,
      "Нача": 6445,
      "sat": 6446,
      "библи": 6447,
      "производи": 6448,
      "1957": 6449,
      "66": 6450,
      "lack": 6451,
      "тельности": 6452,
      "burg": 6453,
      "Govern": 6454,
      "вле": 6455,
      "назначен": 6456,
      "вместе": 6457,
      "некоторые": 6458,
      "имено": 6459,
      "River": 6460,
      "пользова": 6461,
      "различных": 6462,
      "hit": 6463,
      "двига": 6464,
      "Mic": 6465,
      "гну": 6466,
      "пти": 6467,
      "quar": 6468,
      "полно": 6469,
      "bran": 6470,
      "такие": 6471,
      "movement": 6472,
      "новых": 6473,
      "бом": 6474,
      "ribut": 6475,
      "director": 6476,
      "Ссылки": 6477,
      "Frank": 6478,
      "драма": 6479,
      "ases": 6480,
      "педагог": 6481,
      "Фин": 6482,
      "ственное": 6483,
      "рассматри": 6484,
      "учения": 6485,
      "center": 6486,
      "Пари": 6487,
      "компании": 6488,
      "Royal": 6489,
      "Afghan": 6490,
      "Иван": 6491,
      "Фили": 6492,
      "away": 6493,
      "1925": 6494,
      "ert": 6495,
      "tware": 6496,
      "ean": 6497,
      "Аб": 6498,
      "аре": 6499,
      "маши": 6500,
      "гар": 6501,
      "Red": 6502,
      "ект": 6503,
      "достаточ": 6504,
      "ябрь": 6505,
      "pread": 6506,
      "ЦК": 6507,
      "гна": 6508,
      "еписко": 6509,
      "Alf": 6510,
      "screen": 6511,
      "pp": 6512,
      "clear": 6513,
      "Gro": 6514,
      "жды": 6515,
      "rem": 6516,
      "катери": 6517,
      "область": 6518,
      "specific": 6519,
      "ISBN": 6520,
      "TV": 6521,
      "1914": 6522,
      "1949": 6523,
      "ixed": 6524,
      "nic": 6525,
      "oil": 6526,
      "actions": 6527,
      "nuc": 6528,
      "иму": 6529,
      "peror": 6530,
      "allowed": 6531,
      "Charles": 6532,
      "поверх": 6533,
      "используется": 6534,
      "particularly": 6535,
      "тию": 6536,
      "ount": 6537,
      "First": 6538,
      "once": 6539,
      "ored": 6540,
      "surv": 6541,
      "император": 6542,
      "cit": 6543,
      "rock": 6544,
      "государство": 6545,
      "Том": 6546,
      "approxim": 6547,
      "mos": 6548,
      "1928": 6549,
      "характери": 6550,
      "67": 6551,
      "щем": 6552,
      "1929": 6553,
      "матические": 6554,
      "помощью": 6555,
      "likely": 6556,
      "изобра": 6557,
      "ландии": 6558,
      "опубли": 6559,
      "island": 6560,
      "поста": 6561,
      "мани": 6562,
      "прекра": 6563,
      "utes": 6564,
      "commer": 6565,
      "плане": 6566,
      "Park": 6567,
      "Cong": 6568,
      "ляется": 6569,
      "полностью": 6570,
      "tained": 6571,
      "Bas": 6572,
      "сбор": 6573,
      "umb": 6574,
      "суд": 6575,
      "rail": 6576,
      "бело": 6577,
      "actress": 6578,
      "producer": 6579,
      "lege": 6580,
      "мель": 6581,
      "2023": 6582,
      "referred": 6583,
      "Ху": 6584,
      "гг": 6585,
      "ysis": 6586,
      "назва": 6587,
      "шем": 6588,
      "campaign": 6589,
      "симво": 6590,
      "Mart": 6591,
      "Екатери": 6592,
      "Ман": 6593,
      "чён": 6594,
      "раст": 6595,
      "чная": 6596,
      "exe": 6597,
      "estim": 6598,
      "rought": 6599,
      "школы": 6600,
      "сокра": 6601,
      "agon": 6602,
      "events": 6603,
      "uck": 6604,
      "help": 6605,
      "Зе": 6606,
      "42": 6607,
      "президентом": 6608,
      "XVIII": 6609,
      "ns": 6610,
      "88": 6611,
      "сотруд": 6612,
      "техно": 6613,
      "техниче": 6614,
      "Ze": 6615,
      "inct": 6616,
      "лон": 6617,
      "бое": 6618,
      "руководи": 6619,
      "influence": 6620,
      "sit": 6621,
      "тором": 6622,
      "слож": 6623,
      "последова": 6624,
      "baseball": 6625,
      "east": 6626,
      "пен": 6627,
      "forman": 6628,
      "names": 6629,
      "increased": 6630,
      "gun": 6631,
      "эр": 6632,
      "1921": 6633,
      "необходимо": 6634,
      "Bu": 6635,
      "Gl": 6636,
      "omb": 6637,
      "указа": 6638,
      "управления": 6639,
      "одного": 6640,
      "election": 6641,
      "novel": 6642,
      "Ot": 6643,
      "nel": 6644,
      "визи": 6645,
      "чеб": 6646,
      "обычно": 6647,
      "Президен": 6648,
      "пала": 6649,
      "1924": 6650,
      "побереж": 6651,
      "journal": 6652,
      "regular": 6653,
      "43": 6654,
      "foc": 6655,
      "туа": 6656,
      "59": 6657,
      "gave": 6658,
      "середи": 6659,
      "source": 6660,
      "севе": 6661,
      "announced": 6662,
      "Если": 6663,
      "ап": 6664,
      "ност": 6665,
      "atory": 6666,
      "percent": 6667,
      "1936": 6668,
      "согласно": 6669,
      "музыкан": 6670,
      "Михаил": 6671,
      "Bah": 6672,
      "aj": 6673,
      "atch": 6674,
      "remained": 6675,
      "site": 6676,
      "zo": 6677,
      "1926": 6678,
      "rights": 6679,
      "seven": 6680,
      "1933": 6681,
      "School": 6682,
      "бого": 6683,
      "возможно": 6684,
      "know": 6685,
      "района": 6686,
      "Im": 6687,
      "наро": 6688,
      "traditional": 6689,
      "vironment": 6690,
      "понима": 6691,
      "сор": 6692,
      "теоре": 6693,
      "ios": 6694,
      "tax": 6695,
      "Лон": 6696,
      "aps": 6697,
      "деятельности": 6698,
      "77": 6699,
      "ael": 6700,
      "тическая": 6701,
      "Еги": 6702,
      "цио": 6703,
      "sea": 6704,
      "Памя": 6705,
      "комплек": 6706,
      "flight": 6707,
      "разу": 6708,
      "образу": 6709,
      "видов": 6710,
      "includes": 6711,
      "лам": 6712,
      "годаря": 6713,
      "consider": 6714,
      "Berlin": 6715,
      "рождения": 6716,
      "строфа": 6717,
      "автомоби": 6718,
      "Further": 6719,
      "ked": 6720,
      "фли": 6721,
      "uries": 6722,
      "стин": 6723,
      "применя": 6724,
      "resist": 6725,
      "Ян": 6726,
      "ственным": 6727,
      "Jewish": 6728,
      "pon": 6729,
      "зву": 6730,
      "osp": 6731,
      "Кана": 6732,
      "Гри": 6733,
      "1959": 6734,
      "writing": 6735,
      "films": 6736,
      "ficult": 6737,
      "viol": 6738,
      "Nav": 6739,
      "jud": 6740,
      "ving": 6741,
      "АН": 6742,
      "секре": 6743,
      "отмеча": 6744,
      "ulf": 6745,
      "финан": 6746,
      "ваться": 6747,
      "plant": 6748,
      "короля": 6749,
      "gress": 6750,
      "Фа": 6751,
      "Ша": 6752,
      "швед": 6753,
      "сан": 6754,
      "хоро": 6755,
      "plied": 6756,
      "Коро": 6757,
      "группа": 6758,
      "62": 6759,
      "рю": 6760,
      "жением": 6761,
      "critic": 6762,
      "космо": 6763,
      "Как": 6764,
      "1905": 6765,
      "front": 6766,
      "драматур": 6767,
      "доне": 6768,
      "районе": 6769,
      "зербай": 6770,
      "cel": 6771,
      "сдела": 6772,
      "места": 6773,
      "achie": 6774,
      "graph": 6775,
      "Museum": 6776,
      "най": 6777,
      "Arabic": 6778,
      "features": 6779,
      "Dr": 6780,
      "hon": 6781,
      "режи": 6782,
      "ственная": 6783,
      "phen": 6784,
      "plement": 6785,
      "difficult": 6786,
      "inese": 6787,
      "торы": 6788,
      "close": 6789,
      "services": 6790,
      "ufact": 6791,
      "Умер": 6792,
      "телями": 6793,
      "industry": 6794,
      "uation": 6795,
      "ева": 6796,
      "метров": 6797,
      "мах": 6798,
      "Asia": 6799,
      "effects": 6800,
      "Ir": 6801,
      "instr": 6802,
      "ention": 6803,
      "разработ": 6804,
      "перво": 6805,
      "types": 6806,
      "договор": 6807,
      "близ": 6808,
      "killed": 6809,
      "Кан": 6810,
      "шки": 6811,
      "вались": 6812,
      "тина": 6813,
      "trade": 6814,
      "знания": 6815,
      "емый": 6816,
      "Britain": 6817,
      "leading": 6818,
      "sources": 6819,
      "1932": 6820,
      "believed": 6821,
      "Dan": 6822,
      "ними": 6823,
      "расши": 6824,
      "auto": 6825,
      "Robert": 6826,
      "медици": 6827,
      "происхождения": 6828,
      "ym": 6829,
      "типа": 6830,
      "Fol": 6831,
      "daugh": 6832,
      "равно": 6833,
      "историк": 6834,
      "дня": 6835,
      "oney": 6836,
      "ряда": 6837,
      "Instit": 6838,
      "ibility": 6839,
      "наук": 6840,
      "young": 6841,
      "новой": 6842,
      "birth": 6843,
      "han": 6844,
      "Эр": 6845,
      "развитие": 6846,
      "Rad": 6847,
      "western": 6848,
      "есте": 6849,
      "фра": 6850,
      "title": 6851,
      "gian": 6852,
      "northern": 6853,
      "community": 6854,
      "имуще": 6855,
      "лер": 6856,
      "учре": 6857,
      "городов": 6858,
      "symb": 6859,
      "данных": 6860,
      "электри": 6861,
      "41": 6862,
      "тный": 6863,
      "уз": 6864,
      "гие": 6865,
      "Петербур": 6866,
      "yer": 6867,
      "ulture": 6868,
      "Хар": 6869,
      "оно": 6870,
      "рабочи": 6871,
      "первым": 6872,
      "треть": 6873,
      "leng": 6874,
      "might": 6875,
      "Мари": 6876,
      "связа": 6877,
      "встреча": 6878,
      "56": 6879,
      "проф": 6880,
      "фек": 6881,
      "Portug": 6882,
      "uk": 6883,
      "ogy": 6884,
      "жена": 6885,
      "олимпийский": 6886,
      "Hung": 6887,
      "Tw": 6888,
      "Кре": 6889,
      "Нью": 6890,
      "лег": 6891,
      "тельства": 6892,
      "мало": 6893,
      "sych": 6894,
      "52": 6895,
      "рует": 6896,
      "первого": 6897,
      "coast": 6898,
      "Canada": 6899,
      "лай": 6900,
      "Эти": 6901,
      "ун": 6902,
      "тона": 6903,
      "льд": 6904,
      "Карл": 6905,
      "ibrary": 6906,
      "72": 6907,
      "mir": 6908,
      "pair": 6909,
      "Дми": 6910,
      "princ": 6911,
      "литератур": 6912,
      "BM": 6913,
      "administ": 6914,
      "торго": 6915,
      "spect": 6916,
      "larger": 6917,
      "1954": 6918,
      "bridge": 6919,
      "креп": 6920,
      "Шве": 6921,
      "err": 6922,
      "commonly": 6923,
      "standing": 6924,
      "iqu": 6925,
      "раство": 6926,
      "метал": 6927,
      "1923": 6928,
      "eventually": 6929,
      "рхи": 6930,
      "1935": 6931,
      "AR": 6932,
      "вооружён": 6933,
      "дон": 6934,
      "тые": 6935,
      "1955": 6936,
      "appeared": 6937,
      "98": 6938,
      "AF": 6939,
      "don": 6940,
      "регу": 6941,
      "гия": 6942,
      "1934": 6943,
      "герцо": 6944,
      "Изра": 6945,
      "cases": 6946,
      "typically": 6947,
      "административ": 6948,
      "Пё": 6949,
      "относя": 6950,
      "dig": 6951,
      "za": 6952,
      "жё": 6953,
      "ulated": 6954,
      "istics": 6955,
      "Histor": 6956,
      "революции": 6957,
      "вай": 6958,
      "безопас": 6959,
      "pred": 6960,
      "Gre": 6961,
      "хва": 6962,
      "юго": 6963,
      "северо": 6964,
      "interpre": 6965,
      "approach": 6966,
      "Party": 6967,
      "голь": 6968,
      "Казах": 6969,
      "draw": 6970,
      "IC": 6971,
      "Old": 6972,
      "spo": 6973,
      "Эн": 6974,
      "ola": 6975,
      "cities": 6976,
      "Роб": 6977,
      "hi": 6978,
      "targ": 6979,
      "meet": 6980,
      "Филип": 6981,
      "лах": 6982,
      "ilities": 6983,
      "художе": 6984,
      "past": 6985,
      "кими": 6986,
      "rot": 6987,
      "сок": 6988,
      "ready": 6989,
      "выборы": 6990,
      "nature": 6991,
      "ческое": 6992,
      "цист": 6993,
      "нуж": 6994,
      "Cour": 6995,
      "Sim": 6996,
      "аэро": 6997,
      "положи": 6998,
      "fight": 6999,
      "Сконча": 7000,
      "тить": 7001,
      "produce": 7002,
      "cycl": 7003,
      "respons": 7004,
      "cords": 7005,
      "started": 7006,
      "управ": 7007,
      "бов": 7008,
      "growth": 7009,
      "mostly": 7010,
      "1927": 7011,
      "leaders": 7012,
      "Alban": 7013,
      "63": 7014,
      "health": 7015,
      "изобре": 7016,
      "науки": 7017,
      "rule": 7018,
      "Пётр": 7019,
      "dial": 7020,
      "допол": 7021,
      "тури": 7022,
      "performan": 7023,
      "возвра": 7024,
      "corpor": 7025,
      "Геор": 7026,
      "систем": 7027,
      "science": 7028,
      "atives": 7029,
      "протя": 7030,
      "appoint": 7031,
      "армия": 7032,
      "provide": 7033,
      "включая": 7034,
      "площади": 7035,
      "ато": 7036,
      "unar": 7037,
      "AI": 7038,
      "Eastern": 7039,
      "say": 7040,
      "1952": 7041,
      "Academ": 7042,
      "благо": 7043,
      "моло": 7044,
      "трам": 7045,
      "liament": 7046,
      "заслу": 7047,
      "линг": 7048,
      "верну": 7049,
      "China": 7050,
      "returned": 7051,
      "ey": 7052,
      "lected": 7053,
      "Сен": 7054,
      "applic": 7055,
      "little": 7056,
      "драматург": 7057,
      "вёл": 7058,
      "transport": 7059,
      "79": 7060,
      "дис": 7061,
      "provided": 7062,
      "независимость": 7063,
      "Don": 7064,
      "bal": 7065,
      "всей": 7066,
      "highest": 7067,
      "Bal": 7068,
      "uture": 7069,
      "necess": 7070,
      "зом": 7071,
      "край": 7072,
      "added": 7073,
      "Bos": 7074,
      "Del": 7075,
      "ВВ": 7076,
      "artic": 7077,
      "manufact": 7078,
      "Лит": 7079,
      "Петра": 7080,
      "claimed": 7081,
      "большой": 7082,
      "Ash": 7083,
      "Cali": 7084,
      "Jack": 7085,
      "ires": 7086,
      "тные": 7087,
      "тной": 7088,
      "полож": 7089,
      "Генри": 7090,
      "squ": 7091,
      "жителей": 7092,
      "составе": 7093,
      "required": 7094,
      "железнодорож": 7095,
      "ico": 7096,
      "тили": 7097,
      "тельность": 7098,
      "super": 7099,
      "телевид": 7100,
      "distribut": 7101,
      "эй": 7102,
      "code": 7103,
      "ствия": 7104,
      "Commun": 7105,
      "самых": 7106,
      "Str": 7107,
      "brought": 7108,
      "occup": 7109,
      "мнению": 7110,
      "вался": 7111,
      "совершен": 7112,
      "примен": 7113,
      "elling": 7114,
      "increase": 7115,
      "Калинин": 7116,
      "live": 7117,
      "Chinese": 7118,
      "Земли": 7119,
      "UK": 7120,
      "rat": 7121,
      "emer": 7122,
      "рую": 7123,
      "ems": 7124,
      "break": 7125,
      "традицион": 7126,
      "fa": 7127,
      "ёв": 7128,
      "реш": 7129,
      "omin": 7130,
      "причи": 7131,
      "increasing": 7132,
      "политический": 7133,
      "living": 7134,
      "ьет": 7135,
      "points": 7136,
      "долла": 7137,
      "69": 7138,
      "Дон": 7139,
      "советская": 7140,
      "vehic": 7141,
      "counter": 7142,
      "британский": 7143,
      "Cap": 7144,
      "1910": 7145,
      "print": 7146,
      "стандар": 7147,
      "songwriter": 7148,
      "отлича": 7149,
      "земли": 7150,
      "53": 7151,
      "bey": 7152,
      "soon": 7153,
      "первых": 7154,
      "individual": 7155,
      "Henry": 7156,
      "оны": 7157,
      "чества": 7158,
      "iding": 7159,
      "subsequ": 7160,
      "журналист": 7161,
      "But": 7162,
      "рово": 7163,
      "рек": 7164,
      "воде": 7165,
      "выступа": 7166,
      "Of": 7167,
      "сочин": 7168,
      "utions": 7169,
      "Умершие": 7170,
      "via": 7171,
      "последствии": 7172,
      "уг": 7173,
      "itor": 7174,
      "пуска": 7175,
      "education": 7176,
      "57": 7177,
      "Bat": 7178,
      "box": 7179,
      "политик": 7180,
      "changes": 7181,
      "наблюда": 7182,
      "Испании": 7183,
      "Louis": 7184,
      "Нобелевской": 7185,
      "concept": 7186,
      "prom": 7187,
      "affect": 7188,
      "observ": 7189,
      "instit": 7190,
      "вероят": 7191,
      "defined": 7192,
      "Minister": 7193,
      "Глав": 7194,
      "ened": 7195,
      "лега": 7196,
      "завод": 7197,
      "Republic": 7198,
      "caused": 7199,
      "Russia": 7200,
      "Иоан": 7201,
      "1000": 7202,
      "bell": 7203,
      "кса": 7204,
      "поряд": 7205,
      "песен": 7206,
      "51": 7207,
      "тот": 7208,
      "себе": 7209,
      "speak": 7210,
      "communic": 7211,
      "Мен": 7212,
      "твёр": 7213,
      "Право": 7214,
      "Fil": 7215,
      "Mal": 7216,
      "sound": 7217,
      "southern": 7218,
      "Бри": 7219,
      "вида": 7220,
      "своё": 7221,
      "состави": 7222,
      "Петро": 7223,
      "Lab": 7224,
      "Inter": 7225,
      "испан": 7226,
      "анали": 7227,
      "Richard": 7228,
      "Publ": 7229,
      "fish": 7230,
      "1953": 7231,
      "существует": 7232,
      "widely": 7233,
      "Скончались": 7234,
      "Bill": 7235,
      "Bell": 7236,
      "вли": 7237,
      "реаль": 7238,
      "газ": 7239,
      "conditions": 7240,
      "companies": 7241,
      "gin": 7242,
      "эль": 7243,
      "вес": 7244,
      "государств": 7245,
      "remains": 7246,
      "Val": 7247,
      "ист": 7248,
      "руется": 7249,
      "несколь": 7250,
      "смы": 7251,
      "вия": 7252,
      "mechan": 7253,
      "months": 7254,
      "ampion": 7255,
      "Советского": 7256,
      "дней": 7257,
      "голов": 7258,
      "тику": 7259,
      "циони": 7260,
      "цикло": 7261,
      "anted": 7262,
      "recorded": 7263,
      "ранее": 7264,
      "ously": 7265,
      "круг": 7266,
      "outside": 7267,
      "Its": 7268,
      "тогда": 7269,
      "blood": 7270,
      "остров": 7271,
      "нар": 7272,
      "дий": 7273,
      "Early": 7274,
      "cular": 7275,
      "Дру": 7276,
      "discovered": 7277,
      "Peter": 7278,
      "issue": 7279,
      "ka": 7280,
      "тного": 7281,
      "1912": 7282,
      "1931": 7283,
      "другой": 7284,
      "bot": 7285,
      "products": 7286,
      "lif": 7287,
      "прото": 7288,
      "инду": 7289,
      "население": 7290,
      "Sal": 7291,
      "lic": 7292,
      "арми": 7293,
      "Stud": 7294,
      "лых": 7295,
      "iverse": 7296,
      "video": 7297,
      "жан": 7298,
      "нист": 7299,
      "contr": 7300,
      "sett": 7301,
      "исследования": 7302,
      "Родились": 7303,
      "61": 7304,
      "working": 7305,
      "герман": 7306,
      "ograph": 7307,
      "historical": 7308,
      "РФ": 7309,
      "зали": 7310,
      "Swed": 7311,
      "космиче": 7312,
      "Otto": 7313,
      "Bro": 7314,
      "XXI": 7315,
      "ново": 7316,
      "radio": 7317,
      "Mag": 7318,
      "ид": 7319,
      "коле": 7320,
      "establish": 7321,
      "private": 7322,
      "ятся": 7323,
      "выз": 7324,
      "ipp": 7325,
      "Bay": 7326,
      "оса": 7327,
      "нович": 7328,
      "инжен": 7329,
      "speed": 7330,
      "icted": 7331,
      "положение": 7332,
      "complete": 7333,
      "1913": 7334,
      "istry": 7335,
      "billion": 7336,
      "sil": 7337,
      "promot": 7338,
      "primary": 7339,
      "script": 7340,
      "BS": 7341,
      "Vir": 7342,
      "fund": 7343,
      "pose": 7344,
      "concent": 7345,
      "бин": 7346,
      "bishop": 7347,
      "коль": 7348,
      "которым": 7349,
      "Council": 7350,
      "влияние": 7351,
      "brew": 7352,
      "Paris": 7353,
      "вариан": 7354,
      "ference": 7355,
      "ordin": 7356,
      "Сергей": 7357,
      "прожи": 7358,
      "гим": 7359,
      "движение": 7360,
      "княже": 7361,
      "arent": 7362,
      "Италии": 7363,
      "свет": 7364,
      "хло": 7365,
      "usion": 7366,
      "мых": 7367,
      "Александра": 7368,
      "Dev": 7369,
      "Ше": 7370,
      "гидро": 7371,
      "кую": 7372,
      "Герой": 7373,
      "reading": 7374,
      "университета": 7375,
      "лем": 7376,
      "явления": 7377,
      "учёный": 7378,
      "software": 7379,
      "зрения": 7380,
      "одна": 7381,
      "Родившиеся": 7382,
      "assist": 7383,
      "принял": 7384,
      "физик": 7385,
      "limited": 7386,
      "двор": 7387,
      "enc": 7388,
      "основатель": 7389,
      "большинство": 7390,
      "whether": 7391,
      "поме": 7392,
      "writers": 7393,
      "territory": 7394,
      "wall": 7395,
      "always": 7396,
      "legal": 7397,
      "longer": 7398,
      "eight": 7399,
      "nation": 7400,
      "element": 7401,
      "монасты": 7402,
      "независимости": 7403,
      "earlier": 7404,
      "крестьян": 7405,
      "гон": 7406,
      "1911": 7407,
      "циях": 7408,
      "форм": 7409,
      "промышленности": 7410,
      "музыкант": 7411,
      "uals": 7412,
      "фави": 7413,
      "batt": 7414,
      "rict": 7415,
      "ued": 7416,
      "бук": 7417,
      "именно": 7418,
      "Прави": 7419,
      "Тем": 7420,
      "тические": 7421,
      "крепо": 7422,
      "1901": 7423,
      "AN": 7424,
      "Du": 7425,
      "тья": 7426,
      "Italy": 7427,
      "чув": 7428,
      "выборах": 7429,
      "bat": 7430,
      "тки": 7431,
      "reason": 7432,
      "cele": 7433,
      "жены": 7434,
      "район": 7435,
      "electron": 7436,
      "chemical": 7437,
      "Miss": 7438,
      "Sun": 7439,
      "male": 7440,
      "объя": 7441,
      "personal": 7442,
      "pow": 7443,
      "Тер": 7444,
      "литов": 7445,
      "iting": 7446,
      "prevent": 7447,
      "obal": 7448,
      "долго": 7449,
      "bound": 7450,
      "Ры": 7451,
      "step": 7452,
      "честь": 7453,
      "действие": 7454,
      "библиоте": 7455,
      "Big": 7456,
      "Ca": 7457,
      "determin": 7458,
      "писе": 7459,
      "color": 7460,
      "аппара": 7461,
      "гани": 7462,
      "rup": 7463,
      "поскольку": 7464,
      "towards": 7465,
      "тических": 7466,
      "погибли": 7467,
      "утвержда": 7468,
      "loss": 7469,
      "replaced": 7470,
      "кораб": 7471,
      "ols": 7472,
      "лый": 7473,
      "leader": 7474,
      "Cr": 7475,
      "поэтому": 7476,
      "тепло": 7477,
      "1906": 7478,
      "results": 7479,
      "office": 7480,
      "variety": 7481,
      "Thomas": 7482,
      "Ир": 7483,
      "отказа": 7484,
      "происходит": 7485,
      "analysis": 7486,
      "упомина": 7487,
      "Ter": 7488,
      "стью": 7489,
      "православ": 7490,
      "selves": 7491,
      "ll": 7492,
      "языков": 7493,
      "мощ": 7494,
      "коммуни": 7495,
      "foreign": 7496,
      "возможность": 7497,
      "Второй": 7498,
      "Associ": 7499,
      "Оте": 7500,
      "1916": 7501,
      "нео": 7502,
      "Mass": 7503,
      "stated": 7504,
      "Солн": 7505,
      "majority": 7506,
      "People": 7507,
      "Кли": 7508,
      "зам": 7509,
      "уси": 7510,
      "ona": 7511,
      "cohol": 7512,
      "учение": 7513,
      "ДР": 7514,
      "Яро": 7515,
      "нда": 7516,
      "скоре": 7517,
      "Int": 7518,
      "themselves": 7519,
      "попыт": 7520,
      "defe": 7521,
      "династи": 7522,
      "length": 7523,
      "path": 7524,
      "etic": 7525,
      "95": 7526,
      "lav": 7527,
      "обеспечи": 7528,
      "Award": 7529,
      "mad": 7530,
      "новый": 7531,
      "дерев": 7532,
      "concl": 7533,
      "тельная": 7534,
      "конфли": 7535,
      "pher": 7536,
      "примерно": 7537,
      "1908": 7538,
      "troops": 7539,
      "400": 7540,
      "приме": 7541,
      "разру": 7542,
      "1951": 7543,
      "отра": 7544,
      "духов": 7545,
      "зия": 7546,
      "королев": 7547,
      "здесь": 7548,
      "Wil": 7549,
      "яр": 7550,
      "льп": 7551,
      "фесси": 7552,
      "porary": 7553,
      "обяза": 7554,
      "74": 7555,
      "Go": 7556,
      "too": 7557,
      "today": 7558,
      "шал": 7559,
      "labor": 7560,
      "Aber": 7561,
      "хар": 7562,
      "Международ": 7563,
      "Древ": 7564,
      "Мин": 7565,
      "скульп": 7566,
      "astronom": 7567,
      "Di": 7568,
      "Тру": 7569,
      "гри": 7570,
      "alge": 7571,
      "System": 7572,
      "ded": 7573,
      "wife": 7574,
      "приро": 7575,
      "odes": 7576,
      "Рас": 7577,
      "Central": 7578,
      "problems": 7579,
      "integr": 7580,
      "Пру": 7581,
      "icip": 7582,
      "тического": 7583,
      "destroy": 7584,
      "Smith": 7585,
      "Middle": 7586,
      "Эй": 7587,
      "пове": 7588,
      "het": 7589,
      "whom": 7590,
      "Sol": 7591,
      "микро": 7592,
      "республики": 7593,
      "становится": 7594,
      "йские": 7595,
      "edition": 7596,
      "umin": 7597,
      "рования": 7598,
      "award": 7599,
      "Мини": 7600,
      "Арм": 7601,
      "particip": 7602,
      "Ль": 7603,
      "Хи": 7604,
      "aring": 7605,
      "линии": 7606,
      "photo": 7607,
      "русских": 7608,
      "regions": 7609,
      "образование": 7610,
      "чемпионка": 7611,
      "Society": 7612,
      "thesis": 7613,
      "Court": 7614,
      "ьер": 7615,
      "itar": 7616,
      "зация": 7617,
      "coach": 7618,
      "beginning": 7619,
      "Mer": 7620,
      "river": 7621,
      "Гру": 7622,
      "ус": 7623,
      "рик": 7624,
      "говори": 7625,
      "cross": 7626,
      "iation": 7627,
      "счёт": 7628,
      "стом": 7629,
      "teen": 7630,
      "Наука": 7631,
      "Another": 7632,
      "below": 7633,
      "Bi": 7634,
      "сфер": 7635,
      "ises": 7636,
      "следова": 7637,
      "ландский": 7638,
      "latter": 7639,
      "магни": 7640,
      "animals": 7641,
      "степени": 7642,
      "сет": 7643,
      "дам": 7644,
      "quant": 7645,
      "letter": 7646,
      "Северной": 7647,
      "commercial": 7648,
      "Elect": 7649,
      "щении": 7650,
      "мифо": 7651,
      "oul": 7652,
      "agre": 7653,
      "гам": 7654,
      "brother": 7655,
      "independent": 7656,
      "night": 7657,
      "рица": 7658,
      "adop": 7659,
      "antib": 7660,
      "career": 7661,
      "ech": 7662,
      "дни": 7663,
      "flow": 7664,
      "NA": 7665,
      "реак": 7666,
      "proved": 7667,
      "supported": 7668,
      "множество": 7669,
      "conf": 7670,
      "ares": 7671,
      "Def": 7672,
      "stop": 7673,
      "поддержи": 7674,
      "station": 7675,
      "новремен": 7676,
      "метри": 7677,
      "1904": 7678,
      "фильм": 7679,
      "daughter": 7680,
      "fle": 7681,
      "wind": 7682,
      "Ира": 7683,
      "Americans": 7684,
      "elected": 7685,
      "Azer": 7686,
      "Фё": 7687,
      "ресу": 7688,
      "acters": 7689,
      "contribut": 7690,
      "Петербург": 7691,
      "клу": 7692,
      "stone": 7693,
      "торгов": 7694,
      "married": 7695,
      "производства": 7696,
      "искусства": 7697,
      "материа": 7698,
      "Японии": 7699,
      "дование": 7700,
      "Воро": 7701,
      "celebr": 7702,
      "future": 7703,
      "Авст": 7704,
      "помощи": 7705,
      "treatment": 7706,
      "dy": 7707,
      "pan": 7708,
      "валось": 7709,
      "forced": 7710,
      "mole": 7711,
      "prison": 7712,
      "точки": 7713,
      "губерна": 7714,
      "46": 7715,
      "bour": 7716,
      "пет": 7717,
      "куп": 7718,
      "алфави": 7719,
      "originally": 7720,
      "Michael": 7721,
      "ами": 7722,
      "шед": 7723,
      "возра": 7724,
      "польский": 7725,
      "1907": 7726,
      "Muslim": 7727,
      "мые": 7728,
      "problem": 7729,
      "habit": 7730,
      "schools": 7731,
      "temperature": 7732,
      "vill": 7733,
      "ровать": 7734,
      "Кита": 7735,
      "85": 7736,
      "цкого": 7737,
      "раба": 7738,
      "веще": 7739,
      "move": 7740,
      "pie": 7741,
      "pitch": 7742,
      "league": 7743,
      "performed": 7744,
      "carbon": 7745,
      "восстанов": 7746,
      "очередь": 7747,
      "you": 7748,
      "коне": 7749,
      "ump": 7750,
      "Jud": 7751,
      "fell": 7752,
      "spr": 7753,
      "Фер": 7754,
      "мучени": 7755,
      "съе": 7756,
      "reme": 7757,
      "веков": 7758,
      "май": 7759,
      "ждений": 7760,
      "Congress": 7761,
      "directly": 7762,
      "Fore": 7763,
      "pay": 7764,
      "гран": 7765,
      "deb": 7766,
      "Нидер": 7767,
      "ledge": 7768,
      "Class": 7769,
      "physical": 7770,
      "представляет": 7771,
      "Liber": 7772,
      "onso": 7773,
      "economy": 7774,
      "bai": 7775,
      "посвя": 7776,
      "располага": 7777,
      "ension": 7778,
      "заме": 7779,
      "units": 7780,
      "приз": 7781,
      "ссия": 7782,
      "ingu": 7783,
      "мато": 7784,
      "выда": 7785,
      "give": 7786,
      "доступ": 7787,
      "reached": 7788,
      "71": 7789,
      "Ад": 7790,
      "учеб": 7791,
      "proposed": 7792,
      "бал": 7793,
      "smaller": 7794,
      "Rom": 7795,
      "yr": 7796,
      "женный": 7797,
      "Авгу": 7798,
      "Jews": 7799,
      "Institute": 7800,
      "Ши": 7801,
      "Ann": 7802,
      "account": 7803,
      "Кла": 7804,
      "сра": 7805,
      "эт": 7806,
      "stage": 7807,
      "общей": 7808,
      "острове": 7809,
      "поро": 7810,
      "imal": 7811,
      "бель": 7812,
      "commit": 7813,
      "деятельность": 7814,
      "micro": 7815,
      "Califor": 7816,
      "Azerbai": 7817,
      "Azerbaijan": 7818,
      "рель": 7819,
      "состоит": 7820,
      "еты": 7821,
      "первое": 7822,
      "Buddha": 7823,
      "новые": 7824,
      "седатель": 7825,
      "област": 7826,
      "ционной": 7827,
      "Город": 7828,
      "фанта": 7829,
      "probably": 7830,
      "Hall": 7831,
      "cou": 7832,
      "sac": 7833,
      "Кур": 7834,
      "внима": 7835,
      "читы": 7836,
      "дальней": 7837,
      "Jose": 7838,
      "zz": 7839,
      "новь": 7840,
      "cells": 7841,
      "убий": 7842,
      "mas": 7843,
      "реши": 7844,
      "решения": 7845,
      "pected": 7846,
      "centuries": 7847,
      "Aust": 7848,
      "environment": 7849,
      "жела": 7850,
      "finan": 7851,
      "execut": 7852,
      "ands": 7853,
      "look": 7854,
      "жизнь": 7855,
      "XVI": 7856,
      "относительно": 7857,
      "Дмитри": 7858,
      "ustr": 7859,
      "уро": 7860,
      "канад": 7861,
      "Большо": 7862,
      "manager": 7863,
      "Fr": 7864,
      "More": 7865,
      "сформирова": 7866,
      "весь": 7867,
      "ющими": 7868,
      "Англии": 7869,
      "bad": 7870,
      "gold": 7871,
      "преподоб": 7872,
      "самолё": 7873,
      "inner": 7874,
      "Scottish": 7875,
      "nav": 7876,
      "1915": 7877,
      "музей": 7878,
      "mountain": 7879,
      "Сте": 7880,
      "маги": 7881,
      "Фридри": 7882,
      "California": 7883,
      "nd": 7884,
      "чное": 7885,
      "ources": 7886,
      "1903": 7887,
      "medic": 7888,
      "состоянию": 7889,
      "книги": 7890,
      "involved": 7891,
      "73": 7892,
      "Met": 7893,
      "силу": 7894,
      "разно": 7895,
      "Ach": 7896,
      "PC": 7897,
      "КН": 7898,
      "мера": 7899,
      "просто": 7900,
      "сек": 7901,
      "городской": 7902,
      "берг": 7903,
      "функции": 7904,
      "technology": 7905,
      "greater": 7906,
      "рамках": 7907,
      "Sup": 7908,
      "Азербай": 7909,
      "Олимпи": 7910,
      "Пав": 7911,
      "stor": 7912,
      "момент": 7913,
      "maz": 7914,
      "военно": 7915,
      "require": 7916,
      "квар": 7917,
      "специали": 7918,
      "better": 7919,
      "ias": 7920,
      "реда": 7921,
      "тета": 7922,
      "разных": 7923,
      "компания": 7924,
      "циклопе": 7925,
      "Bol": 7926,
      "Ке": 7927,
      "приводи": 7928,
      "contract": 7929,
      "пути": 7930,
      "Пол": 7931,
      "characters": 7932,
      "Республика": 7933,
      "официально": 7934,
      "practice": 7935,
      "approximately": 7936,
      "Фор": 7937,
      "щена": 7938,
      "зован": 7939,
      "address": 7940,
      "Que": 7941,
      "cat": 7942,
      "тол": 7943,
      "руб": 7944,
      "Aj": 7945,
      "revol": 7946,
      "тический": 7947,
      "Second": 7948,
      "университет": 7949,
      "Андре": 7950,
      "ST": 7951,
      "увеличи": 7952,
      "verse": 7953,
      "keep": 7954,
      "музе": 7955,
      "Ката": 7956,
      "studies": 7957,
      "cultural": 7958,
      "divided": 7959,
      "Wash": 7960,
      "отстав": 7961,
      "track": 7962,
      "торая": 7963,
      "Португа": 7964,
      "famil": 7965,
      "estimated": 7966,
      "Джей": 7967,
      "inf": 7968,
      "enes": 7969,
      "вшим": 7970,
      "metal": 7971,
      "единя": 7972,
      "уничто": 7973,
      "вшихся": 7974,
      "composer": 7975,
      "днев": 7976,
      "оди": 7977,
      "лес": 7978,
      "operation": 7979,
      "nearly": 7980,
      "уровня": 7981,
      "cis": 7982,
      "pts": 7983,
      "Осно": 7984,
      "ider": 7985,
      "ённых": 7986,
      "dialect": 7987,
      "algebra": 7988,
      "лях": 7989,
      "distinct": 7990,
      "кроме": 7991,
      "changed": 7992,
      "travel": 7993,
      "Academy": 7994,
      "Mex": 7995,
      "Золо": 7996,
      "Ци": 7997,
      "хом": 7998,
      "isms": 7999,
      "media": 8000,
      "date": 8001,
      "мере": 8002,
      "ivity": 8003,
      "Island": 8004,
      "объяв": 8005,
      "Mos": 8006,
      "card": 8007,
      "unit": 8008,
      "пересе": 8009,
      "государственного": 8010,
      "соответству": 8011,
      "практически": 8012,
      "фла": 8013,
      "cru": 8014,
      "км²": 8015,
      "separate": 8016,
      "friend": 8017,
      "писец": 8018,
      "burn": 8019,
      "lived": 8020,
      "теше": 8021,
      "exts": 8022,
      "acts": 8023,
      "бас": 8024,
      "Fl": 8025,
      "ядер": 8026,
      "мика": 8027,
      "целью": 8028,
      "экспери": 8029,
      "86": 8030,
      "Base": 8031,
      "Wall": 8032,
      "Вос": 8033,
      "fully": 8034,
      "многочислен": 8035,
      "современной": 8036,
      "DP": 8037,
      "ступления": 8038,
      "членов": 8039,
      "Moon": 8040,
      "коллек": 8041,
      "target": 8042,
      "Mu": 8043,
      "Лей": 8044,
      "alcohol": 8045,
      "otic": 8046,
      "relatively": 8047,
      "properties": 8048,
      "enter": 8049,
      "ental": 8050,
      "agric": 8051,
      "войне": 8052,
      "стической": 8053,
      "востоке": 8054,
      "Вар": 8055,
      "установи": 8056,
      "час": 8057,
      "бус": 8058,
      "географи": 8059,
      "Анти": 8060,
      "curity": 8061,
      "aling": 8062,
      "isation": 8063,
      "которому": 8064,
      "Верховного": 8065,
      "Er": 8066,
      "dim": 8067,
      "повы": 8068,
      "amed": 8069,
      "College": 8070,
      "discuss": 8071,
      "ni": 8072,
      "Они": 8073,
      "alle": 8074,
      "alpha": 8075,
      "ницы": 8076,
      "тельным": 8077,
      "мысли": 8078,
      "XVII": 8079,
      "министром": 8080,
      "Feder": 8081,
      "Жан": 8082,
      "демон": 8083,
      "заяви": 8084,
      "труда": 8085,
      "cos": 8086,
      "постанов": 8087,
      "lying": 8088,
      "благодаря": 8089,
      "древне": 8090,
      "ya": 8091,
      "threat": 8092,
      "riage": 8093,
      "жай": 8094,
      "островов": 8095,
      "тинен": 8096,
      "получила": 8097,
      "Союз": 8098,
      "Fin": 8099,
      "tree": 8100,
      "тана": 8101,
      "highly": 8102,
      "appears": 8103,
      "вел": 8104,
      "ционных": 8105,
      "operations": 8106,
      "Австра": 8107,
      "Kar": 8108,
      "SM": 8109,
      "чёр": 8110,
      "ads": 8111,
      "ills": 8112,
      "всегда": 8113,
      "десяти": 8114,
      "Southern": 8115,
      "Остро": 8116,
      "детей": 8117,
      "добы": 8118,
      "фигу": 8119,
      "Например": 8120,
      "начал": 8121,
      "largely": 8122,
      "Washington": 8123,
      "pet": 8124,
      "летия": 8125,
      "тием": 8126,
      "derived": 8127,
      "mainly": 8128,
      "программы": 8129,
      "школа": 8130,
      "валь": 8131,
      "закры": 8132,
      "Вой": 8133,
      "совмест": 8134,
      "guitar": 8135,
      "activity": 8136,
      "широко": 8137,
      "свиде": 8138,
      "форми": 8139,
      "anned": 8140,
      "White": 8141,
      "document": 8142,
      "Финлян": 8143,
      "Irish": 8144,
      "Bab": 8145,
      "Же": 8146,
      "вё": 8147,
      "мён": 8148,
      "review": 8149,
      "aces": 8150,
      "сибир": 8151,
      "mob": 8152,
      "Blue": 8153,
      "multiple": 8154,
      "безопасности": 8155,
      "adopted": 8156,
      "Amaz": 8157,
      "Civil": 8158,
      "race": 8159,
      "Юго": 8160,
      "штей": 8161,
      "нового": 8162,
      "реб": 8163,
      "чески": 8164,
      "гий": 8165,
      "спект": 8166,
      "issues": 8167,
      "Аристо": 8168,
      "нера": 8169,
      "plants": 8170,
      "пунк": 8171,
      "izing": 8172,
      "cred": 8173,
      "drug": 8174,
      "императора": 8175,
      "strial": 8176,
      "mathemat": 8177,
      "вся": 8178,
      "еже": 8179,
      "нская": 8180,
      "означа": 8181,
      "чении": 8182,
      "already": 8183,
      "конферен": 8184,
      "Объ": 8185,
      "математиче": 8186,
      "hous": 8187,
      "дипломатические": 8188,
      "Democ": 8189,
      "journalist": 8190,
      "собствен": 8191,
      "120": 8192,
      "Law": 8193,
      "Фо": 8194,
      "артистка": 8195,
      "Фу": 8196,
      "чел": 8197,
      "therefore": 8198,
      "спек": 8199,
      "четыр": 8200,
      "Rome": 8201,
      "orith": 8202,
      "туру": 8203,
      "первую": 8204,
      "Тео": 8205,
      "оби": 8206,
      "долларов": 8207,
      "нескольких": 8208,
      "Bon": 8209,
      "onic": 8210,
      "валась": 8211,
      "implement": 8212,
      "Болга": 8213,
      "numerous": 8214,
      "Pre": 8215,
      "Cal": 8216,
      "Ox": 8217,
      "Tor": 8218,
      "sam": 8219,
      "create": 8220,
      "указыва": 8221,
      "Венг": 8222,
      "большое": 8223,
      "воздуш": 8224,
      "Гон": 8225,
      "лета": 8226,
      "section": 8227,
      "estival": 8228,
      "minor": 8229,
      "Cont": 8230,
      "performance": 8231,
      "Dou": 8232,
      "oft": 8233,
      "тиви": 8234,
      "виду": 8235,
      "пространства": 8236,
      "contains": 8237,
      "measure": 8238,
      "asons": 8239,
      "тони": 8240,
      "famous": 8241,
      "Суще": 8242,
      "Сталин": 8243,
      "Martin": 8244,
      "нских": 8245,
      "ody": 8246,
      "открыт": 8247,
      "победи": 8248,
      "release": 8249,
      "новременно": 8250,
      "чным": 8251,
      "кита": 8252,
      "доба": 8253,
      "idea": 8254,
      "работу": 8255,
      "лые": 8256,
      "строительство": 8257,
      "prior": 8258,
      "построен": 8259,
      "депутатов": 8260,
      "89": 8261,
      "rare": 8262,
      "align": 8263,
      "demon": 8264,
      "присут": 8265,
      "policy": 8266,
      "свойства": 8267,
      "ode": 8268,
      "СП": 8269,
      "Уиль": 8270,
      "нему": 8271,
      "сай": 8272,
      "туаль": 8273,
      "щик": 8274,
      "марш": 8275,
      "electr": 8276,
      "чём": 8277,
      "пос": 8278,
      "emit": 8279,
      "1909": 8280,
      "получили": 8281,
      "температура": 8282,
      "rise": 8283,
      "вана": 8284,
      "дами": 8285,
      "suit": 8286,
      "слово": 8287,
      "территория": 8288,
      "gent": 8289,
      "лад": 8290,
      "ulpt": 8291,
      "true": 8292,
      "другими": 8293,
      "Atari": 8294,
      "Scot": 8295,
      "самым": 8296,
      "Норве": 8297,
      "thr": 8298,
      "нос": 8299,
      "дере": 8300,
      "жит": 8301,
      "forming": 8302,
      "kind": 8303,
      "mis": 8304,
      "емой": 8305,
      "icated": 8306,
      "Таким": 8307,
      "версии": 8308,
      "Mah": 8309,
      "hood": 8310,
      "юр": 8311,
      "sets": 8312,
      "complet": 8313,
      "respond": 8314,
      "князь": 8315,
      "AL": 8316,
      "wise": 8317,
      "дя": 8318,
      "Наиболее": 8319,
      "Джор": 8320,
      "солют": 8321,
      "иностранных": 8322,
      "saf": 8323,
      "Эсто": 8324,
      "цени": 8325,
      "chief": 8326,
      "convent": 8327,
      "ift": 8328,
      "plays": 8329,
      "требу": 8330,
      "Force": 8331,
      "Вене": 8332,
      "пяти": 8333,
      "Saint": 8334,
      "ients": 8335,
      "ито": 8336,
      "льник": 8337,
      "decre": 8338,
      "рованных": 8339,
      "Rel": 8340,
      "ковой": 8341,
      "alleg": 8342,
      "orbit": 8343,
      "anda": 8344,
      "тарь": 8345,
      "sec": 8346,
      "neigh": 8347,
      "конца": 8348,
      "earch": 8349,
      "буд": 8350,
      "католиче": 8351,
      "H2": 8352,
      "атом": 8353,
      "isl": 8354,
      "жено": 8355,
      "130": 8356,
      "Mont": 8357,
      "network": 8358,
      "Основные": 8359,
      "участие": 8360,
      "наст": 8361,
      "лок": 8362,
      "compon": 8363,
      "государственной": 8364,
      "oxy": 8365,
      "laws": 8366,
      "course": 8367,
      "исследователь": 8368,
      "scholars": 8369,
      "Егип": 8370,
      "pal": 8371,
      "partment": 8372,
      "hell": 8373,
      "ющихся": 8374,
      "интере": 8375,
      "Южной": 8376,
      "Граждан": 8377,
      "table": 8378,
      "Цер": 8379,
      "догово": 8380,
      "detail": 8381,
      "corre": 8382,
      "Div": 8383,
      "IX": 8384,
      "lunar": 8385,
      "вании": 8386,
      "стави": 8387,
      "Коре": 8388,
      "minister": 8389,
      "законодатель": 8390,
      "hu": 8391,
      "вшее": 8392,
      "thous": 8393,
      "igen": 8394,
      "hys": 8395,
      "ционного": 8396,
      "opened": 8397,
      "Turk": 8398,
      "vin": 8399,
      "чил": 8400,
      "которую": 8401,
      "переворо": 8402,
      "ficient": 8403,
      "производство": 8404,
      "Modern": 8405,
      "телевидения": 8406,
      "лето": 8407,
      "elled": 8408,
      "compared": 8409,
      "initial": 8410,
      "ease": 8411,
      "льский": 8412,
      "carry": 8413,
      "Spain": 8414,
      "иногда": 8415,
      "Григо": 8416,
      "iance": 8417,
      "частью": 8418,
      "зен": 8419,
      "ena": 8420,
      "places": 8421,
      "достаточно": 8422,
      "ware": 8423,
      "collect": 8424,
      "округа": 8425,
      "живописец": 8426,
      "potential": 8427,
      "Radio": 8428,
      "Bron": 8429,
      "da": 8430,
      "разби": 8431,
      "жили": 8432,
      "distance": 8433,
      "системе": 8434,
      "Вильгель": 8435,
      "Ottoman": 8436,
      "Brown": 8437,
      "шка": 8438,
      "settle": 8439,
      "земле": 8440,
      "второ": 8441,
      "Rev": 8442,
      "постав": 8443,
      "мимо": 8444,
      "военных": 8445,
      "названия": 8446,
      "expand": 8447,
      "additional": 8448,
      "емого": 8449,
      "suggested": 8450,
      "запу": 8451,
      "astic": 8452,
      "порта": 8453,
      "мби": 8454,
      "кома": 8455,
      "orial": 8456,
      "пой": 8457,
      "ields": 8458,
      "spirit": 8459,
      "response": 8460,
      "плен": 8461,
      "мастер": 8462,
      "immedi": 8463,
      "дороги": 8464,
      "professional": 8465,
      "ресур": 8466,
      "пользу": 8467,
      "poly": 8468,
      "whole": 8469,
      "epis": 8470,
      "условиях": 8471,
      "телеведу": 8472,
      "друг": 8473,
      "сын": 8474,
      "Prince": 8475,
      "ga": 8476,
      "hus": 8477,
      "mom": 8478,
      "сро": 8479,
      "ябре": 8480,
      "стя": 8481,
      "дал": 8482,
      "stars": 8483,
      "прово": 8484,
      "следует": 8485,
      "female": 8486,
      "гражда": 8487,
      "Group": 8488,
      "Revolution": 8489,
      "bacter": 8490,
      "Акаде": 8491,
      "шён": 8492,
      "onaut": 8493,
      "alter": 8494,
      "olf": 8495,
      "действо": 8496,
      "worked": 8497,
      "Киев": 8498,
      "students": 8499,
      "influenced": 8500,
      "aled": 8501,
      "Grand": 8502,
      "изменения": 8503,
      "Atlantic": 8504,
      "Test": 8505,
      "rd": 8506,
      "лья": 8507,
      "преимуще": 8508,
      "рым": 8509,
      "ultural": 8510,
      "transfer": 8511,
      "литературы": 8512,
      "Mem": 8513,
      "makes": 8514,
      "впоследствии": 8515,
      "нике": 8516,
      "отличие": 8517,
      "iah": 8518,
      "считается": 8519,
      "статус": 8520,
      "Adr": 8521,
      "XII": 8522,
      "лож": 8523,
      "Ark": 8524,
      "целом": 8525,
      "consum": 8526,
      "Mil": 8527,
      "Азии": 8528,
      "превра": 8529,
      "ряду": 8530,
      "weap": 8531,
      "philosophy": 8532,
      "amount": 8533,
      "shows": 8534,
      "восстание": 8535,
      "Ham": 8536,
      "ини": 8537,
      "ологиче": 8538,
      "изо": 8539,
      "contem": 8540,
      "historian": 8541,
      "Two": 8542,
      "странах": 8543,
      "называется": 8544,
      "passed": 8545,
      "rian": 8546,
      "различные": 8547,
      "энергии": 8548,
      "Association": 8549,
      "образи": 8550,
      "lowing": 8551,
      "border": 8552,
      "covery": 8553,
      "ВВП": 8554,
      "Mary": 8555,
      "ti": 8556,
      "room": 8557,
      "univers": 8558,
      "ционные": 8559,
      "Company": 8560,
      "experiment": 8561,
      "Cur": 8562,
      "зве": 8563,
      "пру": 8564,
      "роз": 8565,
      "таким": 8566,
      "досто": 8567,
      "беж": 8568,
      "rier": 8569,
      "pressure": 8570,
      "чены": 8571,
      "Нов": 8572,
      "letters": 8573,
      "провод": 8574,
      "compar": 8575,
      "alternative": 8576,
      "сел": 8577,
      "excl": 8578,
      "preser": 8579,
      "Новой": 8580,
      "систему": 8581,
      "профес": 8582,
      "iques": 8583,
      "Joseph": 8584,
      "маршру": 8585,
      "pil": 8586,
      "Бен": 8587,
      "conver": 8588,
      "ables": 8589,
      "подготов": 8590,
      "произведения": 8591,
      "eastern": 8592,
      "Нидерлан": 8593,
      "spread": 8594,
      "tes": 8595,
      "гол": 8596,
      "poor": 8597,
      "division": 8598,
      "completed": 8599,
      "96": 8600,
      "Mur": 8601,
      "Круп": 8602,
      "Фло": 8603,
      "ума": 8604,
      "enough": 8605,
      "wealth": 8606,
      "1902": 8607,
      "основных": 8608,
      "equip": 8609,
      "sport": 8610,
      "ир": 8611,
      "голосо": 8612,
      "выделя": 8613,
      "promin": 8614,
      "своим": 8615,
      "cannot": 8616,
      "sculpt": 8617,
      "Byz": 8618,
      "double": 8619,
      "Vict": 8620,
      "atures": 8621,
      "лидер": 8622,
      "подвер": 8623,
      "phere": 8624,
      "weak": 8625,
      "ционный": 8626,
      "Leg": 8627,
      "войсками": 8628,
      "академик": 8629,
      "sus": 8630,
      "управля": 8631,
      "ческим": 8632,
      "тым": 8633,
      "functions": 8634,
      "соответствии": 8635,
      "Fre": 8636,
      "Лат": 8637,
      "спут": 8638,
      "деле": 8639,
      "стика": 8640,
      "iff": 8641,
      "arts": 8642,
      "ibly": 8643,
      "bul": 8644,
      "mel": 8645,
      "taking": 8646,
      "inj": 8647,
      "collection": 8648,
      "плат": 8649,
      "правило": 8650,
      "окку": 8651,
      "Тай": 8652,
      "Center": 8653,
      "risk": 8654,
      "philosoph": 8655,
      "BBC": 8656,
      "Library": 8657,
      "Rail": 8658,
      "чено": 8659,
      "ступление": 8660,
      "drop": 8661,
      "sens": 8662,
      "Це": 8663,
      "вновь": 8664,
      "кора": 8665,
      "отрица": 8666,
      "confl": 8667,
      "писал": 8668,
      "Франция": 8669,
      "чением": 8670,
      "resulting": 8671,
      "victory": 8672,
      "97": 8673,
      "совета": 8674,
      "dete": 8675,
      "idents": 8676,
      "ayed": 8677,
      "noted": 8678,
      "графии": 8679,
      "literature": 8680,
      "Гар": 8681,
      "дови": 8682,
      "сид": 8683,
      "shown": 8684,
      "мым": 8685,
      "плани": 8686,
      "weight": 8687,
      "1895": 8688,
      "значительно": 8689,
      "уровень": 8690,
      "шах": 8691,
      "ведений": 8692,
      "Byzant": 8693,
      "Три": 8694,
      "arrow": 8695,
      "Индии": 8696,
      "sky": 8697,
      "mitted": 8698,
      "Побе": 8699,
      "кер": 8700,
      "кнов": 8701,
      "ellig": 8702,
      "русском": 8703,
      "определя": 8704,
      "Филосо": 8705,
      "Tele": 8706,
      "Йор": 8707,
      "хок": 8708,
      "континен": 8709,
      "ips": 8710,
      "centre": 8711,
      "атмо": 8712,
      "Первый": 8713,
      "ющиеся": 8714,
      "команду": 8715,
      "heavy": 8716,
      "launched": 8717,
      "migr": 8718,
      "appointed": 8719,
      "Es": 8720,
      "Ат": 8721,
      "воду": 8722,
      "отве": 8723,
      "climate": 8724,
      "войну": 8725,
      "Aristo": 8726,
      "expans": 8727,
      "levels": 8728,
      "бора": 8729,
      "usal": 8730,
      "playing": 8731,
      "forest": 8732,
      "ксима": 8733,
      "orders": 8734,
      "инженер": 8735,
      "Best": 8736,
      "уве": 8737,
      "tos": 8738,
      "omer": 8739,
      "ams": 8740,
      "станция": 8741,
      "Руси": 8742,
      "scientific": 8743,
      "мусуль": 8744,
      "расстоя": 8745,
      "Johnson": 8746,
      "lawyer": 8747,
      "basis": 8748,
      "benef": 8749,
      "Afghanistan": 8750,
      "Sto": 8751,
      "cture": 8752,
      "invent": 8753,
      "Lord": 8754,
      "бен": 8755,
      "semb": 8756,
      "испа": 8757,
      "предполага": 8758,
      "primarily": 8759,
      "церковь": 8760,
      "citiz": 8761,
      "cand": 8762,
      "mud": 8763,
      "ниц": 8764,
      "itz": 8765,
      "кило": 8766,
      "osaur": 8767,
      "teams": 8768,
      "suffer": 8769,
      "algorith": 8770,
      "нок": 8771,
      "рец": 8772,
      "деб": 8773,
      "condition": 8774,
      "самостоя": 8775,
      "carried": 8776,
      "memory": 8777,
      "signed": 8778,
      "этим": 8779,
      "вшийся": 8780,
      "joined": 8781,
      "Music": 8782,
      "действу": 8783,
      "занимает": 8784,
      "sembly": 8785,
      "Do": 8786,
      "Ur": 8787,
      "reign": 8788,
      "стати": 8789,
      "ulations": 8790,
      "regional": 8791,
      "itors": 8792,
      "ultan": 8793,
      "ologist": 8794,
      "городского": 8795,
      "1896": 8796,
      "Интер": 8797,
      "match": 8798,
      "периода": 8799,
      "behind": 8800,
      "ita": 8801,
      "quick": 8802,
      "week": 8803,
      "математик": 8804,
      "опублико": 8805,
      "Life": 8806,
      "лого": 8807,
      "армя": 8808,
      "комму": 8809,
      "Мария": 8810,
      "vey": 8811,
      "элементов": 8812,
      "Ай": 8813,
      "Рей": 8814,
      "theore": 8815,
      "ato": 8816,
      "рос": 8817,
      "training": 8818,
      "канди": 8819,
      "scale": 8820,
      "создания": 8821,
      "явление": 8822,
      "multi": 8823,
      "сова": 8824,
      "мора": 8825,
      "изм": 8826,
      "преду": 8827,
      "должен": 8828,
      "Northern": 8829,
      "Serv": 8830,
      "represented": 8831,
      "methods": 8832,
      "выполня": 8833,
      "принадлежа": 8834,
      "ET": 8835,
      "bri": 8836,
      "va": 8837,
      "тка": 8838,
      "тность": 8839,
      "asp": 8840,
      "моле": 8841,
      "силь": 8842,
      "demand": 8843,
      "cean": 8844,
      "быстро": 8845,
      "reng": 8846,
      "relationship": 8847,
      "92": 8848,
      "Jul": 8849,
      "Wind": 8850,
      "categ": 8851,
      "done": 8852,
      "ker": 8853,
      "Вьет": 8854,
      "Празд": 8855,
      "национа": 8856,
      "ela": 8857,
      "identified": 8858,
      "соглашение": 8859,
      "джан": 8860,
      "Aud": 8861,
      "Hy": 8862,
      "mur": 8863,
      "ющую": 8864,
      "путеше": 8865,
      "inton": 8866,
      "события": 8867,
      "кажды": 8868,
      "ференду": 8869,
      "demonstr": 8870,
      "Ae": 8871,
      "ES": 8872,
      "ging": 8873,
      "иска": 8874,
      "urban": 8875,
      "предо": 8876,
      "Under": 8877,
      "earliest": 8878,
      "machine": 8879,
      "Кри": 8880,
      "роман": 8881,
      "проект": 8882,
      "formal": 8883,
      "Алексей": 8884,
      "Despite": 8885,
      "Techn": 8886,
      "sembl": 8887,
      "Калининград": 8888,
      "voc": 8889,
      "varian": 8890,
      "эм": 8891,
      "Common": 8892,
      "Ty": 8893,
      "одо": 8894,
      "цвет": 8895,
      "испыта": 8896,
      "выборов": 8897,
      "зависимости": 8898,
      "belief": 8899,
      "Series": 8900,
      "доволь": 8901,
      "Following": 8902,
      "фы": 8903,
      "thers": 8904,
      "ropol": 8905,
      "deg": 8906,
      "electric": 8907,
      "Athens": 8908,
      "Democr": 8909,
      "fair": 8910,
      "mi": 8911,
      "ners": 8912,
      "ois": 8913,
      "опи": 8914,
      "restr": 8915,
      "непосред": 8916,
      "aging": 8917,
      "шими": 8918,
      "бежа": 8919,
      "химик": 8920,
      "средства": 8921,
      "крупных": 8922,
      "marked": 8923,
      "должны": 8924,
      "солне": 8925,
      "83": 8926,
      "Tex": 8927,
      "sense": 8928,
      "СН": 8929,
      "роли": 8930,
      "народа": 8931,
      "начали": 8932,
      "региона": 8933,
      "династии": 8934,
      "psych": 8935,
      "мел": 8936,
      "числи": 8937,
      "подтвер": 8938,
      "grand": 8939,
      "arrang": 8940,
      "дца": 8941,
      "меж": 8942,
      "assum": 8943,
      "presence": 8944,
      "форме": 8945,
      "средне": 8946,
      "location": 8947,
      "мили": 8948,
      "perial": 8949,
      "classical": 8950,
      "позволя": 8951,
      "Ak": 8952,
      "Браз": 8953,
      "oll": 8954,
      "portion": 8955,
      "Abd": 8956,
      "Adrian": 8957,
      "woman": 8958,
      "Дан": 8959,
      "жский": 8960,
      "види": 8961,
      "needed": 8962,
      "эффек": 8963,
      "мости": 8964,
      "ситуа": 8965,
      "ходов": 8966,
      "peace": 8967,
      "relations": 8968,
      "колони": 8969,
      "society": 8970,
      "Всемир": 8971,
      "Notes": 8972,
      "Начало": 8973,
      "yet": 8974,
      "Юрий": 8975,
      "Алексе": 8976,
      "Ah": 8977,
      "fel": 8978,
      "ГУ": 8979,
      "содержи": 8980,
      "доказа": 8981,
      "emph": 8982,
      "status": 8983,
      "КПСС": 8984,
      "Cy": 8985,
      "независи": 8986,
      "Both": 8987,
      "театр": 8988,
      "Восточной": 8989,
      "западе": 8990,
      "Bible": 8991,
      "ЕС": 8992,
      "Ruth": 8993,
      "четырёх": 8994,
      "Ep": 8995,
      "Oper": 8996,
      "theast": 8997,
      "eds": 8998,
      "повед": 8999,
      "заим": 9000,
      "руса": 9001,
      "страна": 9002,
      "общественный": 9003,
      "1899": 9004,
      "behav": 9005,
      "Sen": 9006,
      "араб": 9007,
      "стики": 9008,
      "суда": 9009,
      "ванто": 9010,
      "maintain": 9011,
      "самого": 9012,
      "оружи": 9013,
      "уровне": 9014,
      "happ": 9015,
      "ike": 9016,
      "описы": 9017,
      "уль": 9018,
      "amin": 9019,
      "председа": 9020,
      "представителей": 9021,
      "Генера": 9022,
      "фессиональ": 9023,
      "Hum": 9024,
      "Спи": 9025,
      "Тран": 9026,
      "дения": 9027,
      "охран": 9028,
      "resol": 9029,
      "cles": 9030,
      "Кам": 9031,
      "Западной": 9032,
      "fif": 9033,
      "своём": 9034,
      "reduced": 9035,
      "ведены": 9036,
      "objects": 9037,
      "defeated": 9038,
      "плу": 9039,
      "streng": 9040,
      "oud": 9041,
      "отде": 9042,
      "charge": 9043,
      "возможности": 9044,
      "исполнитель": 9045,
      "Израи": 9046,
      "Batman": 9047,
      "приходи": 9048,
      "tee": 9049,
      "1990s": 9050,
      "близи": 9051,
      "undred": 9052,
      "Китай": 9053,
      "ieval": 9054,
      "Кири": 9055,
      "1898": 9056,
      "используются": 9057,
      "Этот": 9058,
      "внутри": 9059,
      "соверши": 9060,
      "buildings": 9061,
      "абсолют": 9062,
      "Treat": 9063,
      "Нес": 9064,
      "лизации": 9065,
      "метра": 9066,
      "charg": 9067,
      "бера": 9068,
      "intended": 9069,
      "Рича": 9070,
      "достига": 9071,
      "rules": 9072,
      "experience": 9073,
      "Just": 9074,
      "Vi": 9075,
      "ba": 9076,
      "hours": 9077,
      "Пло": 9078,
      "ципа": 9079,
      "модели": 9080,
      "тивной": 9081,
      "объё": 9082,
      "Хай": 9083,
      "Alfred": 9084,
      "Gold": 9085,
      "Land": 9086,
      "Later": 9087,
      "die": 9088,
      "емая": 9089,
      "эко": 9090,
      "ковых": 9091,
      "гос": 9092,
      "elop": 9093,
      "advan": 9094,
      "annual": 9095,
      "ография": 9096,
      "Navy": 9097,
      "Virgin": 9098,
      "референду": 9099,
      "ida": 9100,
      "сум": 9101,
      "artists": 9102,
      "owned": 9103,
      "Великой": 9104,
      "корпу": 9105,
      "ТО": 9106,
      "рг": 9107,
      "поря": 9108,
      "image": 9109,
      "гами": 9110,
      "Anton": 9111,
      "ждении": 9112,
      "Iran": 9113,
      "сети": 9114,
      "ests": 9115,
      "ниях": 9116,
      "обору": 9117,
      "Shah": 9118,
      "composed": 9119,
      "океана": 9120,
      "нюю": 9121,
      "Bulgar": 9122,
      "Anglican": 9123,
      "пассажир": 9124,
      "находятся": 9125,
      "изобрета": 9126,
      "Nob": 9127,
      "farm": 9128,
      "Бра": 9129,
      "eles": 9130,
      "sect": 9131,
      "превы": 9132,
      "bapt": 9133,
      "alo": 9134,
      "дири": 9135,
      "mentioned": 9136,
      "Насе": 9137,
      "BCE": 9138,
      "взгля": 9139,
      "UN": 9140,
      "paper": 9141,
      "вместо": 9142,
      "ясь": 9143,
      "гото": 9144,
      "позна": 9145,
      "началась": 9146,
      "myth": 9147,
      "принято": 9148,
      "binary": 9149,
      "Islamic": 9150,
      "1st": 9151,
      "Bet": 9152,
      "ky": 9153,
      "рази": 9154,
      "электрон": 9155,
      "программ": 9156,
      "позволяет": 9157,
      "Василий": 9158,
      "ault": 9159,
      "дже": 9160,
      "oral": 9161,
      "хам": 9162,
      "план": 9163,
      "элемента": 9164,
      "транспорта": 9165,
      "убит": 9166,
      "Major": 9167,
      "independence": 9168,
      "женщин": 9169,
      "ini": 9170,
      "неболь": 9171,
      "notes": 9172,
      "Борис": 9173,
      "brain": 9174,
      "marriage": 9175,
      "Ленина": 9176,
      "пять": 9177,
      "reedom": 9178,
      "SS": 9179,
      "Sub": 9180,
      "Бан": 9181,
      "itation": 9182,
      "chap": 9183,
      "шает": 9184,
      "советской": 9185,
      "Boston": 9186,
      "сохраня": 9187,
      "Bib": 9188,
      "ny": 9189,
      "islands": 9190,
      "распреде": 9191,
      "Alask": 9192,
      "путём": 9193,
      "closed": 9194,
      "севере": 9195,
      "Отече": 9196,
      "Ban": 9197,
      "CE": 9198,
      "пр": 9199,
      "observed": 9200,
      "публицист": 9201,
      "общего": 9202,
      "особен": 9203,
      "failed": 9204,
      "чки": 9205,
      "arus": 9206,
      "Philosop": 9207,
      "участник": 9208,
      "BA": 9209,
      "dens": 9210,
      "occas": 9211,
      "1970s": 9212,
      "religion": 9213,
      "информации": 9214,
      "Portugu": 9215,
      "degree": 9216,
      "reject": 9217,
      "сул": 9218,
      "Assy": 9219,
      "containing": 9220,
      "materials": 9221,
      "астроно": 9222,
      "Lincol": 9223,
      "Portuguese": 9224,
      "lov": 9225,
      "Окт": 9226,
      "втор": 9227,
      "евский": 9228,
      "Islands": 9229,
      "Религи": 9230,
      "Дании": 9231,
      "фикации": 9232,
      "Prize": 9233,
      "Ev": 9234,
      "texts": 9235,
      "uters": 9236,
      "Чу": 9237,
      "чений": 9238,
      "берт": 9239,
      "экспеди": 9240,
      "accepted": 9241,
      "середине": 9242,
      "resistance": 9243,
      "Бла": 9244,
      "anc": 9245,
      "мото": 9246,
      "начально": 9247,
      "россий": 9248,
      "употреб": 9249,
      "Lincoln": 9250,
      "82": 9251,
      "Bapt": 9252,
      "вокруг": 9253,
      "тел": 9254,
      "расстре": 9255,
      "1960s": 9256,
      "disease": 9257,
      "Мол": 9258,
      "Москвы": 9259,
      "обороны": 9260,
      "Bak": 9261,
      "юри": 9262,
      "созна": 9263,
      "стами": 9264,
      "класса": 9265,
      "Бель": 9266,
      "границы": 9267,
      "matter": 9268,
      "огром": 9269,
      "угле": 9270,
      "Уильям": 9271,
      "600": 9272,
      "orn": 9273,
      "стои": 9274,
      "военной": 9275,
      "Austrian": 9276,
      "называют": 9277,
      "случай": 9278,
      "protect": 9279,
      "Research": 9280,
      "fill": 9281,
      "ping": 9282,
      "winter": 9283,
      "свер": 9284,
      "ниже": 9285,
      "кара": 9286,
      "лева": 9287,
      "тива": 9288,
      "raised": 9289,
      "знамени": 9290,
      "fourth": 9291,
      "sequence": 9292,
      "экономики": 9293,
      "previously": 9294,
      "audi": 9295,
      "vow": 9296,
      "ане": 9297,
      "изма": 9298,
      "изуча": 9299,
      "1897": 9300,
      "Сиби": 9301,
      "rapid": 9302,
      "basic": 9303,
      "turned": 9304,
      "summer": 9305,
      "Oly": 9306,
      "Sat": 9307,
      "XIII": 9308,
      "bow": 9309,
      "oe": 9310,
      "enic": 9311,
      "рование": 9312,
      "серва": 9313,
      "decided": 9314,
      "оппози": 9315,
      "combined": 9316,
      "четыре": 9317,
      "hydrogen": 9318,
      "VII": 9319,
      "оши": 9320,
      "deal": 9321,
      "exhib": 9322,
      "мыс": 9323,
      "ella": 9324,
      "izations": 9325,
      "участво": 9326,
      "contrast": 9327,
      "Pan": 9328,
      "onto": 9329,
      "наи": 9330,
      "чета": 9331,
      "earth": 9332,
      "данные": 9333,
      "Первая": 9334,
      "Гол": 9335,
      "критик": 9336,
      "runs": 9337,
      "площадь": 9338,
      "голосов": 9339,
      "переводчик": 9340,
      "nes": 9341,
      "соору": 9342,
      "older": 9343,
      "expected": 9344,
      "языки": 9345,
      "основы": 9346,
      "azine": 9347,
      "Polish": 9348,
      "министров": 9349,
      "wing": 9350,
      "юге": 9351,
      "потом": 9352,
      "сед": 9353,
      "quality": 9354,
      "еврей": 9355,
      "Hebrew": 9356,
      "теория": 9357,
      "Америки": 9358,
      "Ire": 9359,
      "tu": 9360,
      "тип": 9361,
      "bear": 9362,
      "deep": 9363,
      "oted": 9364,
      "Prime": 9365,
      "поверхности": 9366,
      "Ver": 9367,
      "rang": 9368,
      "Джа": 9369,
      "becoming": 9370,
      "humans": 9371,
      "equal": 9372,
      "pattern": 9373,
      "appearance": 9374,
      "отношении": 9375,
      "насчиты": 9376,
      "Ярослав": 9377,
      "expansion": 9378,
      "EC": 9379,
      "Out": 9380,
      "Year": 9381,
      "cav": 9382,
      "понен": 9383,
      "250": 9384,
      "magnit": 9385,
      "Jes": 9386,
      "amine": 9387,
      "Социалистиче": 9388,
      "coll": 9389,
      "члены": 9390,
      "религии": 9391,
      "figure": 9392,
      "молеку": 9393,
      "Bir": 9394,
      "Мно": 9395,
      "боже": 9396,
      "слан": 9397,
      "pression": 9398,
      "крови": 9399,
      "большеви": 9400,
      "lie": 9401,
      "ror": 9402,
      "лит": 9403,
      "constant": 9404,
      "1980s": 9405,
      "территориаль": 9406,
      "Francis": 9407,
      "Greece": 9408,
      "moving": 9409,
      "necessary": 9410,
      "Av": 9411,
      "aus": 9412,
      "кл": 9413,
      "нат": 9414,
      "линей": 9415,
      "предоста": 9416,
      "ковский": 9417,
      "argued": 9418,
      "военного": 9419,
      "AA": 9420,
      "money": 9421,
      "льном": 9422,
      "кипа": 9423,
      "разо": 9424,
      "русская": 9425,
      "произошло": 9426,
      "Президент": 9427,
      "CP": 9428,
      "Стра": 9429,
      "шена": 9430,
      "ъек": 9431,
      "лица": 9432,
      "сере": 9433,
      "XIV": 9434,
      "Because": 9435,
      "deaths": 9436,
      "Тихо": 9437,
      "украинский": 9438,
      "эпохи": 9439,
      "Government": 9440,
      "financial": 9441,
      "зис": 9442,
      "дого": 9443,
      "iron": 9444,
      "erson": 9445,
      "люби": 9446,
      "global": 9447,
      "последний": 9448,
      "позже": 9449,
      "aught": 9450,
      "Кра": 9451,
      "рона": 9452,
      "stic": 9453,
      "прежде": 9454,
      "comment": 9455,
      "миллионов": 9456,
      "Oxford": 9457,
      "Sever": 9458,
      "native": 9459,
      "rine": 9460,
      "тник": 9461,
      "нав": 9462,
      "тела": 9463,
      "provides": 9464,
      "operating": 9465,
      "Columb": 9466,
      "effective": 9467,
      "industrial": 9468,
      "Библи": 9469,
      "Olymp": 9470,
      "NAS": 9471,
      "atre": 9472,
      "гора": 9473,
      "подви": 9474,
      "председатель": 9475,
      "Москва": 9476,
      "Балтий": 9477,
      "FC": 9478,
      "mill": 9479,
      "оказыва": 9480,
      "worth": 9481,
      "терро": 9482,
      "Павел": 9483,
      "чена": 9484,
      "памяти": 9485,
      "вопрос": 9486,
      "Bank": 9487,
      "MP": 9488,
      "вступи": 9489,
      "advert": 9490,
      "паро": 9491,
      "персона": 9492,
      "thodox": 9493,
      "Михай": 9494,
      "океан": 9495,
      "Hel": 9496,
      "hot": 9497,
      "rates": 9498,
      "шан": 9499,
      "такой": 9500,
      "ляции": 9501,
      "Their": 9502,
      "mann": 9503,
      "перемен": 9504,
      "началось": 9505,
      "cum": 9506,
      "spl": 9507,
      "мс": 9508,
      "создание": 9509,
      "Confeder": 9510,
      "values": 9511,
      "directed": 9512,
      "всю": 9513,
      "удалось": 9514,
      "концеп": 9515,
      "soldiers": 9516,
      "АО": 9517,
      "тино": 9518,
      "приобре": 9519,
      "illustr": 9520,
      "positions": 9521,
      "гене": 9522,
      "Sur": 9523,
      "fast": 9524,
      "Ам": 9525,
      "государственных": 9526,
      "remaining": 9527,
      "испанский": 9528,
      "winning": 9529,
      "Ак": 9530,
      "Она": 9531,
      "лка": 9532,
      "igation": 9533,
      "тивных": 9534,
      "month": 9535,
      "сена": 9536,
      "versions": 9537,
      "высоко": 9538,
      "bank": 9539,
      "использовать": 9540,
      "scholar": 9541,
      "относятся": 9542,
      "Net": 9543,
      "big": 9544,
      "сви": 9545,
      "isions": 9546,
      "entered": 9547,
      "семей": 9548,
      "possess": 9549,
      "главным": 9550,
      "takes": 9551,
      "Андрей": 9552,
      "полномо": 9553,
      "moment": 9554,
      "candid": 9555,
      "ii": 9556,
      "vary": 9557,
      "reser": 9558,
      "ested": 9559,
      "номучени": 9560,
      "процесс": 9561,
      "initially": 9562,
      "глубо": 9563,
      "dominant": 9564,
      "народов": 9565,
      "Dist": 9566,
      "Jean": 9567,
      "SI": 9568,
      "ij": 9569,
      "Эконо": 9570,
      "покры": 9571,
      "потреб": 9572,
      "ials": 9573,
      "That": 9574,
      "слави": 9575,
      "животных": 9576,
      "calcul": 9577,
      "87": 9578,
      "соль": 9579,
      "языках": 9580,
      "medical": 9581,
      "ronic": 9582,
      "Архи": 9583,
      "respectively": 9584,
      "Тре": 9585,
      "attacks": 9586,
      "метрополи": 9587,
      "Hungarian": 9588,
      "Aar": 9589,
      "nine": 9590,
      "жению": 9591,
      "infect": 9592,
      "мость": 9593,
      "province": 9594,
      "cript": 9595,
      "legisl": 9596,
      "синте": 9597,
      "rupt": 9598,
      "мм": 9599,
      "эми": 9600,
      "incorpor": 9601,
      "направления": 9602,
      "зад": 9603,
      "upper": 9604,
      "операции": 9605,
      "Новосибир": 9606,
      "symbol": 9607,
      "Bulgaria": 9608,
      "Hell": 9609,
      "Time": 9610,
      "orb": 9611,
      "дио": 9612,
      "заверши": 9613,
      "Королев": 9614,
      "inem": 9615,
      "рост": 9616,
      "постеп": 9617,
      "forts": 9618,
      "сев": 9619,
      "Современ": 9620,
      "ansas": 9621,
      "составил": 9622,
      "включает": 9623,
      "til": 9624,
      "Дже": 9625,
      "Шу": 9626,
      "яс": 9627,
      "onia": 9628,
      "attract": 9629,
      "secret": 9630,
      "becomes": 9631,
      "dex": 9632,
      "глава": 9633,
      "succeed": 9634,
      "musical": 9635,
      "Organ": 9636,
      "authority": 9637,
      "Carol": 9638,
      "birds": 9639,
      "middle": 9640,
      "churches": 9641,
      "individuals": 9642,
      "oxygen": 9643,
      "cry": 9644,
      "mut": 9645,
      "тский": 9646,
      "reve": 9647,
      "Като": 9648,
      "Коми": 9649,
      "consists": 9650,
      "земель": 9651,
      "1894": 9652,
      "чемпиона": 9653,
      "models": 9654,
      "federal": 9655,
      "Rob": 9656,
      "tend": 9657,
      "toms": 9658,
      "ada": 9659,
      "iga": 9660,
      "инстру": 9661,
      "ensus": 9662,
      "1890": 9663,
      "Виктор": 9664,
      "techniques": 9665,
      "распространён": 9666,
      "property": 9667,
      "рабочих": 9668,
      "faith": 9669,
      "emphas": 9670,
      "hundred": 9671,
      "och": 9672,
      "slow": 9673,
      "acity": 9674,
      "стане": 9675,
      "составляют": 9676,
      "93": 9677,
      "tun": 9678,
      "wana": 9679,
      "ас": 9680,
      "лём": 9681,
      "нё": 9682,
      "умень": 9683,
      "atal": 9684,
      "просты": 9685,
      "share": 9686,
      "фести": 9687,
      "Германия": 9688,
      "Швеции": 9689,
      "los": 9690,
      "von": 9691,
      "Ура": 9692,
      "мотря": 9693,
      "compl": 9694,
      "igned": 9695,
      "ternet": 9696,
      "kingdom": 9697,
      "apparent": 9698,
      "Gen": 9699,
      "Pak": 9700,
      "Ах": 9701,
      "кну": 9702,
      "эпи": 9703,
      "reaction": 9704,
      "records": 9705,
      "rod": 9706,
      "bring": 9707,
      "Mark": 9708,
      "allowing": 9709,
      "прямо": 9710,
      "Tim": 9711,
      "зме": 9712,
      "нён": 9713,
      "нена": 9714,
      "щу": 9715,
      "геро": 9716,
      "Parliament": 9717,
      "Alexandria": 9718,
      "favor": 9719,
      "Scotland": 9720,
      "Несмотря": 9721,
      "giving": 9722,
      "Аф": 9723,
      "звание": 9724,
      "folk": 9725,
      "последние": 9726,
      "продолжи": 9727,
      "Октябрь": 9728,
      "Mill": 9729,
      "dess": 9730,
      "иско": 9731,
      "стен": 9732,
      "online": 9733,
      "насле": 9734,
      "edy": 9735,
      "aded": 9736,
      "sole": 9737,
      "Ancient": 9738,
      "здание": 9739,
      "programs": 9740,
      "центром": 9741,
      "instrument": 9742,
      "Victor": 9743,
      "Den": 9744,
      "сах": 9745,
      "гина": 9746,
      "liber": 9747,
      "здания": 9748,
      "speech": 9749,
      "народная": 9750,
      "impact": 9751,
      "Science": 9752,
      "anarch": 9753,
      "жид": 9754,
      "ровал": 9755,
      "prec": 9756,
      "всем": 9757,
      "советских": 9758,
      "allows": 9759,
      "союза": 9760,
      "advant": 9761,
      "Mad": 9762,
      "Over": 9763,
      "iber": 9764,
      "wa": 9765,
      "тации": 9766,
      "ils": 9767,
      "бывший": 9768,
      "студен": 9769,
      "осуществля": 9770,
      "sexual": 9771,
      "Alaska": 9772,
      "heart": 9773,
      "Восто": 9774,
      "Евг": 9775,
      "1889": 9776,
      "рованные": 9777,
      "knowledge": 9778,
      "Роберт": 9779,
      "Sum": 9780,
      "dead": 9781,
      "despite": 9782,
      "территорию": 9783,
      "городах": 9784,
      "муниципа": 9785,
      "станавли": 9786,
      "offered": 9787,
      "constitution": 9788,
      "регуляр": 9789,
      "герцог": 9790,
      "responsible": 9791,
      "Sir": 9792,
      "iated": 9793,
      "arc": 9794,
      "пом": 9795,
      "chall": 9796,
      "creation": 9797,
      "Thus": 9798,
      "Ale": 9799,
      "урав": 9800,
      "alone": 9801,
      "uni": 9802,
      "зона": 9803,
      "contro": 9804,
      "действий": 9805,
      "известный": 9806,
      "animal": 9807,
      "Ломоно": 9808,
      "следствие": 9809,
      "Egyptian": 9810,
      "Pet": 9811,
      "ders": 9812,
      "Эта": 9813,
      "подо": 9814,
      "рией": 9815,
      "iments": 9816,
      "progress": 9817,
      "artist": 9818,
      "compounds": 9819,
      "desc": 9820,
      "Джо": 9821,
      "программирова": 9822,
      "относится": 9823,
      "existence": 9824,
      "Nap": 9825,
      "mouth": 9826,
      "света": 9827,
      "нина": 9828,
      "гах": 9829,
      "люди": 9830,
      "Досто": 9831,
      "enna": 9832,
      "Греции": 9833,
      "interpret": 9834,
      "Kore": 9835,
      "Tom": 9836,
      "pack": 9837,
      "латин": 9838,
      "забо": 9839,
      "ходы": 9840,
      "скри": 9841,
      "энциклопе": 9842,
      "письмен": 9843,
      "figures": 9844,
      "компьютер": 9845,
      "использования": 9846,
      "Armenia": 9847,
      "Фридрих": 9848,
      "Ireland": 9849,
      "Cast": 9850,
      "mix": 9851,
      "ул": 9852,
      "чности": 9853,
      "прода": 9854,
      "normal": 9855,
      "Belarus": 9856,
      "катастрофа": 9857,
      "лингви": 9858,
      "84": 9859,
      "VIII": 9860,
      "ари": 9861,
      "пят": 9862,
      "тная": 9863,
      "чество": 9864,
      "цин": 9865,
      "логических": 9866,
      "Bahá": 9867,
      "Public": 9868,
      "978": 9869,
      "ллей": 9870,
      "rev": 9871,
      "меры": 9872,
      "Ali": 9873,
      "Мак": 9874,
      "связыва": 9875,
      "отношение": 9876,
      "Моло": 9877,
      "субъек": 9878,
      "hop": 9879,
      "фир": 9880,
      "предме": 9881,
      "symp": 9882,
      "1880": 9883,
      "назван": 9884,
      "basket": 9885,
      "Луи": 9886,
      "объектов": 9887,
      "управление": 9888,
      "controvers": 9889,
      "тт": 9890,
      "евре": 9891,
      "frequently": 9892,
      "аресто": 9893,
      "internal": 9894,
      "ani": 9895,
      "kept": 9896,
      "учени": 9897,
      "тонн": 9898,
      "equival": 9899,
      "услов": 9900,
      "сотрудниче": 9901,
      "spoken": 9902,
      "usalem": 9903,
      "800": 9904,
      "RO": 9905,
      "гори": 9906,
      "ideas": 9907,
      "firm": 9908,
      "serve": 9909,
      "состава": 9910,
      "commiss": 9911,
      "simple": 9912,
      "писательница": 9913,
      "91": 9914,
      "Free": 9915,
      "fran": 9916,
      "says": 9917,
      "жерт": 9918,
      "uded": 9919,
      "Послед": 9920,
      "командова": 9921,
      "природы": 9922,
      "Duke": 9923,
      "Бразили": 9924,
      "2nd": 9925,
      "Langu": 9926,
      "Времен": 9927,
      "НА": 9928,
      "кален": 9929,
      "phone": 9930,
      "последу": 9931,
      "spent": 9932,
      "decision": 9933,
      "94": 9934,
      "Py": 9935,
      "лиде": 9936,
      "топо": 9937,
      "plane": 9938,
      "Француз": 9939,
      "songs": 9940,
      "ведена": 9941,
      "Jerusalem": 9942,
      "Bang": 9943,
      "Эле": 9944,
      "неж": 9945,
      "москов": 9946,
      "agreed": 9947,
      "emperor": 9948,
      "positive": 9949,
      "СПб": 9950,
      "ray": 9951,
      "Елиза": 9952,
      "тема": 9953,
      "евского": 9954,
      "зоны": 9955,
      "monarch": 9956,
      "политической": 9957,
      "национального": 9958,
      "connect": 9959,
      "architecture": 9960,
      "побережье": 9961,
      "Hill": 9962,
      "pun": 9963,
      "Бру": 9964,
      "deen": 9965,
      "pron": 9966,
      "Петербурге": 9967,
      "paren": 9968,
      "ano": 9969,
      "repe": 9970,
      "examples": 9971,
      "архитектор": 9972,
      "agreement": 9973,
      "Pop": 9974,
      "slight": 9975,
      "eral": 9976,
      "told": 9977,
      "вызыва": 9978,
      "циями": 9979,
      "hypo": 9980,
      "Некоторые": 9981,
      "установлен": 9982,
      "Белору": 9983,
      "сферы": 9984,
      "Off": 9985,
      "эту": 9986,
      "дил": 9987,
      "сильно": 9988,
      "пусти": 9989,
      "дены": 9990,
      "Also": 9991,
      "хозяйства": 9992,
      "Венгрии": 9993,
      "81": 9994,
      "Econom": 9995,
      "Mel": 9996,
      "Мор": 9997,
      "Чёр": 9998,
      "amber": 9999,
      "igu": 10000,
      "estic": 10001,
      "direction": 10002,
      "organization": 10003,
      "Польши": 10004,
      "families": 10005,
      "Tem": 10006,
      "ava": 10007,
      "izes": 10008,
      "anger": 10009,
      "общество": 10010,
      "governor": 10011,
      "самый": 10012,
      "Импера": 10013,
      "Ly": 10014,
      "TP": 10015,
      "bass": 10016,
      "Ара": 10017,
      "убе": 10018,
      "enem": 10019,
      "гой": 10020,
      "вери": 10021,
      "непре": 10022,
      "социалистиче": 10023,
      "oured": 10024,
      "ordered": 10025,
      "definition": 10026,
      "преимущественно": 10027,
[...]
