{
  "version": "1.0",
  "truncation": null,
  "padding": null,
  "added_tokens": [
    {
      "id": 0,
      "content": "[UNK]",
      "single_word": false,
      "lstrip": false,
      "rstrip": false,
      "normalized": false,
      "special": true
    },
    {
      "id": 1,
      "content": "[EOS]",
      "single_word": false,
      "lstrip": false,
      "rstrip": false,
      "normalized": false,
      "special": true
    }
  ],
  "normalizer": {
    "type": "Sequence",
    "normalizers": [
      {
        "type": "NFKC"
      }
    ]
  },
  "pre_tokenizer": {
    "type": "BertPreTokenizer"
  },
  "post_processor": null,
  "decoder": null,
  "model": {
    "type": "BPE",
    "dropout": null,
    "unk_token": "[UNK]",
    "continuing_subword_prefix": null,
    "end_of_word_suffix": null,
    "fuse_unk": false,
    "byte_fallback": false,
    "ignore_merges": false,
    "vocab": {
      "[UNK]": 0,
      "[EOS]": 1,
      "!": 2,
      "\"": 3,
      "#": 4,
      "$": 5,
      "%": 6,
      "&": 7,
      "'": 8,
      "(": 9,
      ")": 10,
      "*": 11,
      "+": 12,
      ",": 13,
      "-": 14,
      ".": 15,
      "/": 16,
      "0": 17,
      "1": 18,
      "2": 19,
      "3": 20,
      "4": 21,
      "5": 22,
      "6": 23,
      "7": 24,
      "8": 25,
      "9": 26,
      ":": 27,
      ";": 28,
      "<": 29,
      "=": 30,
      ">": 31,
      "?": 32,
      "@": 33,
      "A": 34,
      "B": 35,
      "C": 36,
      "D": 37,
      "E": 38,
      "F": 39,
      "G": 40,
      "H": 41,
      "I": 42,
      "J": 43,
      "K": 44,
      "L": 45,
      "M": 46,
      "N": 47,
      "O": 48,
      "P": 49,
      "Q": 50,
      "R": 51,
      "S": 52,
      "T": 53,
      "U": 54,
      "V": 55,
      "W": 56,
      "X": 57,
      "Y": 58,
      "Z": 59,
      "[": 60,
      "\\": 61,
      "]": 62,
      "^": 63,
      "_": 64,
      "`": 65,
      "a": 66,
      "b": 67,
      "c": 68,
      "d": 69,
      "e": 70,
      "f": 71,
      "g": 72,
      "h": 73,
      "i": 74,
      "j": 75,
      "k": 76,
      "l": 77,
      "m": 78,
      "n": 79,
      "o": 80,
      "p": 81,
      "q": 82,
      "r": 83,
      "s": 84,
      "t": 85,
      "u": 86,
      "v": 87,
      "w": 88,
      "x": 89,
      "y": 90,
      "z": 91,
      "{": 92,
      "|": 93,
      "}": 94,
      "~": 95,
      "¡": 96,
      "¢": 97,
      "£": 98,
      "¥": 99,
      "¦": 100,
      "§": 101,
      "©": 102,
      "«": 103,
      "¬": 104,
      "­": 105,
      "®": 106,
      "°": 107,
      "±": 108,
      "¶": 109,
      "·": 110,
      "»": 111,
      "¿": 112,
      "À": 113,
      "Á": 114,
      "Â": 115,
      "Ã": 116,
      "Ä": 117,
      "Å": 118,
      "Æ": 119,
      "Ç": 120,
      "È": 121,
      "É": 122,
      "Ê": 123,
      "Ì": 124,
      "Í": 125,
      "Î": 126,
      "Ï": 127,
      "Ð": 128,
      "Ñ": 129,
      "Ò": 130,
      "Ó": 131,
      "Õ": 132,
      "Ö": 133,
      "×": 134,
      "Ø": 135,
      "Ù": 136,
      "Ú": 137,
      "Û": 138,
      "Ü": 139,
      "Ý": 140,
      "Þ": 141,
      "ß": 142,
      "à": 143,
      "á": 144,
      "â": 145,
      "ã": 146,
      "ä": 147,
      "å": 148,
      "æ": 149,
      "ç": 150,
      "è": 151,
      "é": 152,
      "ê": 153,
      "ë": 154,
      "ì": 155,
      "í": 156,
      "î": 157,
      "ï": 158,
      "ð": 159,
      "ñ": 160,
      "ò": 161,
      "ó": 162,
      "ô": 163,
      "õ": 164,
      "ö": 165,
      "÷": 166,
      "ø": 167,
      "ù": 168,
      "ú": 169,
      "û": 170,
      "ü": 171,
      "ý": 172,
      "þ": 173,
      "ÿ": 174,
      "Ā": 175,
      "ā": 176,
      "Ă": 177,
      "ă": 178,
      "Ą": 179,
      "ą": 180,
      "Ć": 181,
      "ć": 182,
      "Ĉ": 183,
      "ĉ": 184,
      "Č": 185,
      "č": 186,
      "ď": 187,
      "Đ": 188,
      "đ": 189,
      "Ē": 190,
      "ē": 191,
      "Ĕ": 192,
      "ĕ": 193,
      "ė": 194,
      "Ę": 195,
      "ę": 196,
      "Ě": 197,
      "ě": 198,
      "Ĝ": 199,
      "ĝ": 200,
      "Ğ": 201,
      "ğ": 202,
      "ġ": 203,
      "Ģ": 204,
      "ģ": 205,
      "Ĥ": 206,
      "ĥ": 207,
      "Ħ": 208,
      "ħ": 209,
      "Ĩ": 210,
      "ĩ": 211,
      "Ī": 212,
      "ī": 213,
      "ĭ": 214,
      "Į": 215,
      "į": 216,
      "İ": 217,
      "ı": 218,
      "Ĵ": 219,
      "ĵ": 220,
      "Ķ": 221,
      "ķ": 222,
      "ļ": 223,
      "Ľ": 224,
      "Ł": 225,
      "ł": 226,
      "Ń": 227,
      "ń": 228,
      "ņ": 229,
      "ň": 230,
      "Ŋ": 231,
      "ŋ": 232,
      "Ō": 233,
      "ō": 234,
      "ŏ": 235,
      "Ő": 236,
      "ő": 237,
      "Œ": 238,
      "œ": 239,
      "ŕ": 240,
      "ŗ": 241,
      "ř": 242,
      "Ś": 243,
      "ś": 244,
      "Ŝ": 245,
      "ŝ": 246,
      "Ş": 247,
      "ş": 248,
      "Š": 249,
      "š": 250,
      "Ţ": 251,
      "ţ": 252,
      "ť": 253,
      "Ū": 254,
      "ū": 255,
      "Ŭ": 256,
      "ŭ": 257,
      "ů": 258,
      "ű": 259,
      "ų": 260,
      "ŵ": 261,
      "ŷ": 262,
      "Ź": 263,
      "ź": 264,
      "Ż": 265,
      "ż": 266,
      "Ž": 267,
      "ž": 268,
      "Ɓ": 269,
      "Ɔ": 270,
      "ƈ": 271,
      "Ɗ": 272,
      "Ɛ": 273,
      "ƒ": 274,
      "Ƙ": 275,
      "ƙ": 276,
      "Ɯ": 277,
      "Ɲ": 278,
      "ơ": 279,
      "ƥ": 280,
      "ư": 281,
      "Ƶ": 282,
      "ƶ": 283,
      "Ʒ": 284,
      "Ƹ": 285,
      "ǁ": 286,
      "Ǎ": 287,
      "ǎ": 288,
      "ǐ": 289,
      "ǒ": 290,
      "ǔ": 291,
      "ǝ": 292,
      "Ǟ": 293,
      "ǟ": 294,
      "Ǡ": 295,
      "ǡ": 296,
      "ǣ": 297,
      "ǧ": 298,
      "ǫ": 299,
      "ǯ": 300,
      "ǰ": 301,
      "ǵ": 302,
      "Ǻ": 303,
      "ǻ": 304,
      "Ȁ": 305,
      "ȁ": 306,
      "Ȃ": 307,
      "ȃ": 308,
      "ȅ": 309,
      "ȉ": 310,
      "ȗ": 311,
      "Ș": 312,
      "ș": 313,
      "Ț": 314,
      "ț": 315,
      "ȝ": 316,
      "ȡ": 317,
      "Ȣ": 318,
      "Ȧ": 319,
      "ȧ": 320,
      "ȩ": 321,
      "ȫ": 322,
      "ȷ": 323,
      "Ⱥ": 324,
      "ɐ": 325,
      "ɑ": 326,
      "ɒ": 327,
      "ɓ": 328,
      "ɔ": 329,
      "ɕ": 330,
      "ɗ": 331,
      "ɘ": 332,
      "ə": 333,
      "ɛ": 334,
      "ɟ": 335,
      "ɡ": 336,
      "ɣ": 337,
      "ɤ": 338,
      "ɦ": 339,
      "ɨ": 340,
      "ɪ": 341,
      "ɫ": 342,
      "ɭ": 343,
      "ɲ": 344,
      "ɳ": 345,
      "ɵ": 346,
      "ɸ": 347,
      "ɹ": 348,
      "ɾ": 349,
      "ʀ": 350,
      "ʂ": 351,
      "ʃ": 352,
      "ʈ": 353,
      "ʉ": 354,
      "ʊ": 355,
      "ʌ": 356,
      "ʎ": 357,
      "ʏ": 358,
      "ʑ": 359,
      "ʒ": 360,
      "ʔ": 361,
      "ʣ": 362,
      "ʤ": 363,
      "ʥ": 364,
      "ʦ": 365,
      "ʧ": 366,
      "ʨ": 367,
      "ʻ": 368,
      "ʼ": 369,
      "ʽ": 370,
      "ʾ": 371,
      "ʿ": 372,
      "ˀ": 373,
      "ˁ": 374,
      "ˈ": 375,
      "ˊ": 376,
      "ː": 377,
      "˭": 378,
      "˹": 379,
      "˺": 380,
      "̀": 381,
      "́": 382,
      "̂": 383,
      "̃": 384,
      "̄": 385,
      "̅": 386,
      "̆": 387,
      "̈": 388,
      "̊": 389,
      "̌": 390,
      "̑": 391,
      "̓": 392,
      "̔": 393,
      "̡": 394,
      "̥": 395,
      "̦": 396,
      "̨": 397,
      "̮": 398,
      "̯": 399,
      "̲": 400,
      "̵": 401,
      "̽": 402,
      "͟": 403,
      "͡": 404,
      "Ϳ": 405,
      "Ά": 406,
      "Έ": 407,
      "ΐ": 408,
      "Α": 409,
      "Β": 410,
      "Γ": 411,
      "Δ": 412,
      "Ε": 413,
      "Ζ": 414,
      "Η": 415,
      "Θ": 416,
      "Ι": 417,
      "Κ": 418,
      "Λ": 419,
      "Μ": 420,
      "Ν": 421,
      "Ξ": 422,
      "Ο": 423,
      "Π": 424,
      "Ρ": 425,
      "Σ": 426,
      "Τ": 427,
      "Υ": 428,
      "Φ": 429,
      "Χ": 430,
      "Ψ": 431,
      "Ω": 432,
      "Ϊ": 433,
      "ά": 434,
      "έ": 435,
      "ή": 436,
      "ί": 437,
      "α": 438,
      "β": 439,
      "γ": 440,
      "δ": 441,
      "ε": 442,
      "ζ": 443,
      "η": 444,
      "θ": 445,
      "ι": 446,
      "κ": 447,
      "λ": 448,
      "μ": 449,
      "ν": 450,
      "ξ": 451,
      "ο": 452,
      "π": 453,
      "ρ": 454,
      "ς": 455,
      "σ": 456,
      "τ": 457,
      "υ": 458,
      "φ": 459,
      "χ": 460,
      "ψ": 461,
      "ω": 462,
      "ϊ": 463,
      "ϋ": 464,
      "ό": 465,
      "ύ": 466,
      "ώ": 467,
      "Ϙ": 468,
      "ϝ": 469,
      "Ϫ": 470,
      "ϳ": 471,
      "Ё": 472,
      "Ђ": 473,
      "Ѓ": 474,
      "Є": 475,
      "Ѕ": 476,
      "І": 477,
      "Ї": 478,
      "Ј": 479,
      "Љ": 480,
      "Њ": 481,
      "Ћ": 482,
      "Ќ": 483,
      "Ў": 484,
      "Џ": 485,
      "А": 486,
      "Б": 487,
      "В": 488,
      "Г": 489,
      "Д": 490,
      "Е": 491,
      "Ж": 492,
      "З": 493,
      "И": 494,
      "Й": 495,
      "К": 496,
      "Л": 497,
      "М": 498,
      "Н": 499,
      "О": 500,
      "П": 501,
      "Р": 502,
      "С": 503,
      "Т": 504,
      "У": 505,
      "Ф": 506,
      "Х": 507,
      "Ц": 508,
      "Ч": 509,
      "Ш": 510,
      "Щ": 511,
      "Ъ": 512,
      "Ы": 513,
      "Ь": 514,
      "Э": 515,
      "Ю": 516,
      "Я": 517,
      "а": 518,
      "б": 519,
      "в": 520,
      "г": 521,
      "д": 522,
      "е": 523,
      "ж": 524,
      "з": 525,
      "и": 526,
      "й": 527,
      "к": 528,
      "л": 529,
      "м": 530,
      "н": 531,
      "о": 532,
      "п": 533,
      "р": 534,
      "с": 535,
      "т": 536,
      "у": 537,
      "ф": 538,
      "х": 539,
      "ц": 540,
      "ч": 541,
      "ш": 542,
      "щ": 543,
      "ъ": 544,
      "ы": 545,
      "ь": 546,
      "э": 547,
      "ю": 548,
      "я": 549,
      "ѐ": 550,
      "ё": 551,
      "ђ": 552,
      "є": 553,
      "ѕ": 554,
      "і": 555,
      "ї": 556,
      "ј": 557,
      "љ": 558,
      "њ": 559,
      "ћ": 560,
      "ѝ": 561,
      "ў": 562,
      "џ": 563,
      "Ѡ": 564,
      "ѡ": 565,
      "Ѣ": 566,
      "ѣ": 567,
      "Ѥ": 568,
      "ѥ": 569,
      "Ѧ": 570,
      "ѧ": 571,
      "Ѩ": 572,
      "ѩ": 573,
      "Ѫ": 574,
      "ѫ": 575,
      "Ѭ": 576,
      "Ѯ": 577,
      "Ѱ": 578,
      "Ѳ": 579,
      "ѳ": 580,
      "Ѵ": 581,
      "ѵ": 582,
      "ѻ": 583,
      "Ѿ": 584,
      "ѿ": 585,
      "҂": 586,
      "҃": 587,
      "҅": 588,
      "Ґ": 589,
      "ґ": 590,
      "Ғ": 591,
      "ғ": 592,
      "Қ": 593,
      "қ": 594,
      "ҝ": 595,
      "Ң": 596,
      "ң": 597,
      "Ү": 598,
      "ү": 599,
      "Ұ": 600,
      "ұ": 601,
      "ҳ": 602,
      "Ҷ": 603,
      "ҷ": 604,
      "Һ": 605,
      "һ": 606,
      "Ӏ": 607,
      "Ӄ": 608,
      "ӏ": 609,
      "ӓ": 610,
      "Ә": 611,
      "ә": 612,
      "Ӝ": 613,
      "Ӡ": 614,
      "ӡ": 615,
      "Ө": 616,
      "ө": 617,
      "Ӯ": 618,
      "ӱ": 619,
      "ӹ": 620,
      "Ա": 621,
      "Գ": 622,
      "Դ": 623,
      "Ե": 624,
      "Թ": 625,
      "Լ": 626,
      "Մ": 627,
      "Ն": 628,
      "Ո": 629,
      "Ջ": 630,
      "Ս": 631,
      "Վ": 632,
      "Տ": 633,
      "Ւ": 634,
      "Ք": 635,
      "ա": 636,
      "բ": 637,
      "գ": 638,
      "դ": 639,
      "ե": 640,
      "զ": 641,
      "է": 642,
      "թ": 643,
      "ի": 644,
      "լ": 645,
      "խ": 646,
      "ծ": 647,
      "կ": 648,
      "հ": 649,
      "ղ": 650,
      "մ": 651,
      "յ": 652,
      "ն": 653,
      "շ": 654,
      "ո": 655,
      "չ": 656,
      "պ": 657,
      "ջ": 658,
      "ռ": 659,
      "ս": 660,
      "վ": 661,
      "տ": 662,
      "ր": 663,
      "ց": 664,
      "ւ": 665,
      "ք": 666,
      "օ": 667,
      "ֆ": 668,
      "ְ": 669,
      "ֲ": 670,
      "ִ": 671,
      "ֵ": 672,
      "ֶ": 673,
      "ַ": 674,
      "ָ": 675,
      "ֹ": 676,
      "ֻ": 677,
      "ּ": 678,
      "־": 679,
      "ׁ": 680,
      "ׂ": 681,
      "א": 682,
      "ב": 683,
      "ג": 684,
      "ד": 685,
      "ה": 686,
      "ו": 687,
      "ז": 688,
      "ח": 689,
      "ט": 690,
      "י": 691,
      "ך": 692,
      "כ": 693,
      "ל": 694,
      "ם": 695,
      "מ": 696,
      "ן": 697,
      "נ": 698,
      "ס": 699,
      "ע": 700,
      "ף": 701,
      "פ": 702,
      "ץ": 703,
      "צ": 704,
      "ק": 705,
      "ר": 706,
      "ש": 707,
      "ת": 708,
      "׳": 709,
      "״": 710,
      "ء": 711,
      "آ": 712,
      "أ": 713,
      "ؤ": 714,
      "إ": 715,
      "ئ": 716,
      "ا": 717,
      "ب": 718,
      "ة": 719,
      "ت": 720,
      "ث": 721,
      "ج": 722,
      "ح": 723,
      "خ": 724,
      "د": 725,
      "ذ": 726,
      "ر": 727,
      "ز": 728,
      "س": 729,
      "ش": 730,
      "ص": 731,
      "ض": 732,
      "ط": 733,
      "ظ": 734,
      "ع": 735,
      "غ": 736,
      "ـ": 737,
      "ف": 738,
      "ق": 739,
      "ك": 740,
      "ل": 741,
      "م": 742,
      "ن": 743,
      "ه": 744,
      "و": 745,
      "ى": 746,
      "ي": 747,
      "ً": 748,
      "َ": 749,
      "ُ": 750,
      "ِ": 751,
      "ّ": 752,
      "ْ": 753,
      "٠": 754,
      "١": 755,
      "٢": 756,
      "٣": 757,
      "٤": 758,
      "٥": 759,
      "٦": 760,
      "٧": 761,
      "٨": 762,
      "٩": 763,
      "ٰ": 764,
      "ٱ": 765,
      "ٹ": 766,
      "پ": 767,
      "څ": 768,
      "چ": 769,
      "ڈ": 770,
      "ژ": 771,
      "ڤ": 772,
      "ڥ": 773,
      "ک": 774,
      "ڬ": 775,
      "ڭ": 776,
      "ڮ": 777,
      "گ": 778,
      "ی": 779,
      "ۖ": 780,
      "۝": 781,
      "۞": 782,
      "ܐ": 783,
      "ܒ": 784,
      "ܓ": 785,
      "ܕ": 786,
      "ܗ": 787,
      "ܙ": 788,
      "ܝ": 789,
      "ܠ": 790,
      "ܡ": 791,
      "ܢ": 792,
      "ܪ": 793,
      "ܬ": 794,
      "ܲ": 795,
      "ܵ": 796,
      "ܼ": 797,
      "݂": 798,
      "݇": 799,
      "ߊ": 800,
      "ߋ": 801,
      "ߌ": 802,
      "ߍ": 803,
      "ߎ": 804,
      "ߏ": 805,
      "ߐ": 806,
      "ߒ": 807,
      "ߓ": 808,
      "ߔ": 809,
      "ߕ": 810,
      "ߖ": 811,
      "ߗ": 812,
      "ߘ": 813,
      "ߙ": 814,
      "ߚ": 815,
      "ߛ": 816,
      "ߜ": 817,
      "ߝ": 818,
      "ߞ": 819,
      "ߟ": 820,
      "ߡ": 821,
      "ߢ": 822,
      "ߣ": 823,
      "ߤ": 824,
      "ߥ": 825,
      "ߦ": 826,
      "߫": 827,
      "߬": 828,
      "߯": 829,
      "߰": 830,
      "߲": 831,
      "ं": 832,
      "ः": 833,
      "अ": 834,
      "आ": 835,
      "ई": 836,
      "ऋ": 837,
      "क": 838,
      "ख": 839,
      "च": 840,
      "छ": 841,
      "ज": 842,
      "झ": 843,
      "ट": 844,
      "ड": 845,
      "त": 846,
      "थ": 847,
      "द": 848,
      "ध": 849,
      "न": 850,
      "प": 851,
      "ब": 852,
      "म": 853,
      "य": 854,
      "र": 855,
      "ल": 856,
      "व": 857,
      "श": 858,
      "ष": 859,
      "स": 860,
      "ा": 861,
      "ि": 862,
      "ी": 863,
      "ु": 864,
      "ृ": 865,
      "े": 866,
      "ो": 867,
      "्": 868,
      "।": 869,
      "আ": 870,
      "ক": 871,
      "গ": 872,
      "জ": 873,
      "ত": 874,
      "দ": 875,
      "ন": 876,
      "প": 877,
      "ব": 878,
      "ভ": 879,
      "য": 880,
      "র": 881,
      "ল": 882,
      "স": 883,
      "়": 884,
      "া": 885,
      "ি": 886,
      "ু": 887,
      "ূ": 888,
      "ে": 889,
      "ো": 890,
      "্": 891,
      "ક": 892,
      "ણ": 893,
      "દ": 894,
      "પ": 895,
      "લ": 896,
      "ષ": 897,
      "સ": 898,
      "ા": 899,
      "્": 900,
      "ஒ": 901,
      "ட": 902,
      "ன": 903,
      "ப": 904,
      "ம": 905,
      "ய": 906,
      "ர": 907,
      "வ": 908,
      "ி": 909,
      "ீ": 910,
      "ு": 911,
      "ை": 912,
      "ொ": 913,
      "்": 914,
      "അ": 915,
      "ഇ": 916,
      "ക": 917,
      "ച": 918,
      "ട": 919,
      "ണ": 920,
      "യ": 921,
      "ര": 922,
      "ല": 923,
      "ള": 924,
      "സ": 925,
      "ാ": 926,
      "ി": 927,
      "ു": 928,
      "ോ": 929,
      "്": 930,
      "ค": 931,
      "ง": 932,
      "ช": 933,
      "บ": 934,
      "ม": 935,
      "ย": 936,
      "ร": 937,
      "ส": 938,
      "ห": 939,
      "อ": 940,
      "ะ": 941,
      "า": 942,
      "ิ": 943,
      "ี": 944,
      "เ": 945,
      "์": 946,
      "་": 947,
      "།": 948,
      "ཁ": 949,
      "ག": 950,
      "ར": 951,
      "ོ": 952,
      "ྫ": 953,
      "Ⴀ": 954,
      "Ⴃ": 955,
      "Ⴇ": 956,
      "Ⴊ": 957,
      "Ⴋ": 958,
      "Ⴍ": 959,
      "Ⴐ": 960,
      "Ⴑ": 961,
      "Ⴕ": 962,
      "Ⴡ": 963,
      "Ⴤ": 964,
      "ა": 965,
      "გ": 966,
      "დ": 967,
      "ე": 968,
      "კ": 969,
      "ლ": 970,
      "ნ": 971,
      "რ": 972,
      "ს": 973,
      "ქ": 974,
      "წ": 975,
      "ჭ": 976,
      "ᅀ": 977,
      "ሀ": 978,
      "ሁ": 979,
      "ሂ": 980,
      "ህ": 981,
      "ር": 982,
      "ስ": 983,
      "ን": 984,
      "እ": 985,
      "ክ": 986,
      "ድ": 987,
      "ᐱ": 988,
      "ᐳ": 989,
      "ᐶ": 990,
      "ᐸ": 991,
      "ᑎ": 992,
      "ᑐ": 993,
      "ᑕ": 994,
      "ᕡ": 995,
      "ᗆ": 996,
      "ᗗ": 997,
      "ᗘ": 998,
      "ᗡ": 999,
      "ᚼ": 1000,
      "ᛁ": 1001,
      "ᛉ": 1002,
      "ᛐ": 1003,
      "ᛒ": 1004,
      "᛭": 1005,
      "ᛳ": 1006,
      "់": 1007,
      "ᴀ": 1008,
      "ᴥ": 1009,
      "ᶏ": 1010,
      "ᶐ": 1011,
      "Ḁ": 1012,
      "ḁ": 1013,
      "ḇ": 1014,
      "Ḍ": 1015,
      "ḍ": 1016,
      "ḏ": 1017,
      "ḑ": 1018,
      "ḗ": 1019,
      "ḙ": 1020,
      "ḡ": 1021,
      "Ḥ": 1022,
      "ḥ": 1023,
      "Ḫ": 1024,
      "ḫ": 1025,
      "ḯ": 1026,
      "ḱ": 1027,
      "Ḳ": 1028,
      "ḳ": 1029,
      "ḵ": 1030,
      "ḷ": 1031,
      "ṁ": 1032,
      "ṃ": 1033,
      "ṅ": 1034,
      "ṇ": 1035,
      "ṓ": 1036,
      "ṕ": 1037,
      "ṗ": 1038,
      "ṙ": 1039,
      "ṛ": 1040,
      "Ṟ": 1041,
      "Ṣ": 1042,
      "ṣ": 1043,
      "Ṫ": 1044,
      "Ṭ": 1045,
      "ṭ": 1046,
      "ṯ": 1047,
      "ṷ": 1048,
      "Ẃ": 1049,
      "Ẅ": 1050,
      "Ẇ": 1051,
      "Ẉ": 1052,
      "Ẓ": 1053,
      "ẓ": 1054,
      "ẖ": 1055,
      "Ạ": 1056,
      "ạ": 1057,
      "Ả": 1058,
      "ả": 1059,
      "Ấ": 1060,
      "ấ": 1061,
      "Ầ": 1062,
      "ầ": 1063,
      "Ẩ": 1064,
      "ẩ": 1065,
      "Ẫ": 1066,
      "ẫ": 1067,
      "Ậ": 1068,
      "ậ": 1069,
      "Ắ": 1070,
      "ắ": 1071,
      "Ằ": 1072,
      "ằ": 1073,
      "Ẳ": 1074,
      "ẳ": 1075,
      "Ẵ": 1076,
      "ẵ": 1077,
      "Ặ": 1078,
      "ặ": 1079,
      "Ẹ": 1080,
      "ẹ": 1081,
      "ẻ": 1082,
      "ẽ": 1083,
      "ế": 1084,
      "ể": 1085,
      "ễ": 1086,
      "ệ": 1087,
      "ỉ": 1088,
      "ị": 1089,
      "ọ": 1090,
      "ồ": 1091,
      "ỗ": 1092,
      "ộ": 1093,
      "ớ": 1094,
      "ờ": 1095,
      "ợ": 1096,
      "Ụ": 1097,
      "ữ": 1098,
      "ỳ": 1099,
      "ỷ": 1100,
      "ἀ": 1101,
      "ἁ": 1102,
      "ἂ": 1103,
      "ἃ": 1104,
      "ἄ": 1105,
      "ἅ": 1106,
      "Ἀ": 1107,
      "Ἁ": 1108,
      "Ἄ": 1109,
      "Ἅ": 1110,
      "ἐ": 1111,
      "ἑ": 1112,
      "ἒ": 1113,
      "ἔ": 1114,
      "ἕ": 1115,
      "Ἐ": 1116,
      "Ἑ": 1117,
      "Ἔ": 1118,
      "Ἕ": 1119,
      "ἠ": 1120,
      "ἡ": 1121,
      "ἢ": 1122,
      "ἤ": 1123,
      "ἥ": 1124,
      "ἦ": 1125,
      "Ἡ": 1126,
      "Ἥ": 1127,
      "Ἦ": 1128,
      "ἰ": 1129,
      "ἱ": 1130,
      "ἲ": 1131,
      "ἳ": 1132,
      "ἴ": 1133,
      "ἵ": 1134,
      "ἶ": 1135,
      "ἷ": 1136,
      "Ἰ": 1137,
      "Ἱ": 1138,
      "Ἵ": 1139,
      "ὀ": 1140,
      "ὁ": 1141,
      "ὄ": 1142,
      "ὅ": 1143,
      "Ὀ": 1144,
      "Ὁ": 1145,
      "Ὅ": 1146,
      "ὐ": 1147,
      "ὑ": 1148,
      "ὔ": 1149,
      "ὕ": 1150,
      "ὖ": 1151,
      "ὗ": 1152,
      "Ὑ": 1153,
      "ὡ": 1154,
      "ὢ": 1155,
      "ὤ": 1156,
      "ὥ": 1157,
      "ὦ": 1158,
      "Ὠ": 1159,
      "Ὢ": 1160,
      "Ὤ": 1161,
      "Ὧ": 1162,
      "ὰ": 1163,
      "ὲ": 1164,
      "ὴ": 1165,
      "ὶ": 1166,
      "ὸ": 1167,
      "ὺ": 1168,
      "ὼ": 1169,
      "ᾴ": 1170,
      "ᾶ": 1171,
      "ᾷ": 1172,
      "ῃ": 1173,
      "ῆ": 1174,
      "ῖ": 1175,
      "ῥ": 1176,
      "ῦ": 1177,
      "Ῥ": 1178,
      "ῶ": 1179,
      "ῷ": 1180,
      "​": 1181,
      "‌": 1182,
      "‍": 1183,
      "‎": 1184,
      "‐": 1185,
      "‒": 1186,
      "–": 1187,
      "—": 1188,
      "―": 1189,
      "‘": 1190,
      "’": 1191,
      "‚": 1192,
      "‛": 1193,
      "“": 1194,
      "”": 1195,
      "„": 1196,
      "†": 1197,
      "‡": 1198,
      "•": 1199,
      "‰": 1200,
      "′": 1201,
      "‹": 1202,
      "›": 1203,
      "‿": 1204,
      "⁂": 1205,
      "⁄": 1206,
      "⁠": 1207,
      "⁣": 1208,
      "₡": 1209,
      "₩": 1210,
      "₪": 1211,
      "€": 1212,
      "₮": 1213,
      "₲": 1214,
      "₳": 1215,
      "₸": 1216,
      "₹": 1217,
      "ↂ": 1218,
      "←": 1219,
      "↑": 1220,
      "→": 1221,
      "↓": 1222,
      "↔": 1223,
      "⇌": 1224,
      "∀": 1225,
      "∂": 1226,
      "∃": 1227,
      "∅": 1228,
      "∆": 1229,
      "∈": 1230,
      "∊": 1231,
      "∋": 1232,
      "−": 1233,
      "∗": 1234,
      "∘": 1235,
      "∙": 1236,
      "√": 1237,
      "∝": 1238,
      "∞": 1239,
      "∧": 1240,
      "∨": 1241,
      "∩": 1242,
      "∪": 1243,
      "∫": 1244,
      "∴": 1245,
      "∼": 1246,
      "≈": 1247,
      "≟": 1248,
      "≠": 1249,
      "≡": 1250,
      "≤": 1251,
      "≥": 1252,
      "≫": 1253,
      "≼": 1254,
      "≽": 1255,
      "⊂": 1256,
      "⊃": 1257,
      "⊆": 1258,
      "⊕": 1259,
      "⊖": 1260,
      "⊗": 1261,
      "⊤": 1262,
      "⊥": 1263,
      "⋅": 1264,
      "⋯": 1265,
      "⌈": 1266,
      "⌊": 1267,
      "⌋": 1268,
      "⌽": 1269,
      "⌿": 1270,
      "⍋": 1271,
      "⍨": 1272,
      "⍳": 1273,
      "⍴": 1274,
      "⍵": 1275,
      "⎧": 1276,
      "⎩": 1277,
      "⏨": 1278,
      "␣": 1279,
      "─": 1280,
      "┌": 1281,
      "┐": 1282,
      "╥": 1283,
      "╨": 1284,
      "▀": 1285,
      "▄": 1286,
      "█": 1287,
      "░": 1288,
      "▒": 1289,
      "▓": 1290,
      "□": 1291,
      "▼": 1292,
      "◊": 1293,
      "○": 1294,
      "◘": 1295,
      "☄": 1296,
      "☉": 1297,
      "☊": 1298,
      "☋": 1299,
      "☠": 1300,
      "☫": 1301,
      "☺": 1302,
      "♀": 1303,
      "♂": 1304,
      "♈": 1305,
      "♋": 1306,
      "♎": 1307,
      "♑": 1308,
      "♒": 1309,
      "♥": 1310,
      "♦": 1311,
      "♭": 1312,
      "♯": 1313,
      "♾": 1314,
      "⚇": 1315,
      "⚓": 1316,
      "⚗": 1317,
      "⚘": 1318,
      "⚥": 1319,
      "⚲": 1320,
      "⟨": 1321,
      "⟩": 1322,
      "⟳": 1323,
      "⟶": 1324,
      "⠀": 1325,
      "⠁": 1326,
      "⠋": 1327,
      "⠙": 1328,
      "⠟": 1329,
      "⠻": 1330,
      "⠿": 1331,
      "⡈": 1332,
      "⡟": 1333,
      "⡷": 1334,
      "⡿": 1335,
      "⢀": 1336,
      "⢁": 1337,
      "⢻": 1338,
      "⢿": 1339,
      "⣉": 1340,
      "⣌": 1341,
      "⣠": 1342,
      "⣦": 1343,
      "⣧": 1344,
      "⣴": 1345,
      "⣶": 1346,
      "⣷": 1347,
      "⣼": 1348,
      "⣾": 1349,
      "⣿": 1350,
      "⩽": 1351,
      "Ⰰ": 1352,
      "Ⰶ": 1353,
      "Ⱌ": 1354,
      "Ⱑ": 1355,
      "ⱑ": 1356,
      "ⱥ": 1357,
      "Ɑ": 1358,
      "Ɐ": 1359,
      "Ɒ": 1360,
      "ⱷ": 1361,
      "ⲃ": 1362,
      "ⲇ": 1363,
      "ⲉ": 1364,
      "ⲓ": 1365,
      "ⲡ": 1366,
      "ⲧ": 1367,
      "ⲱ": 1368,
      "。": 1369,
      "《": 1370,
      "》": 1371,
      "か": 1372,
      "き": 1373,
      "く": 1374,
      "け": 1375,
      "こ": 1376,
      "さ": 1377,
      "し": 1378,
      "と": 1379,
      "な": 1380,
      "の": 1381,
      "ら": 1382,
      "り": 1383,
      "る": 1384,
      "れ": 1385,
      "ろ": 1386,
      "わ": 1387,
      "ア": 1388,
      "イ": 1389,
      "ェ": 1390,
      "キ": 1391,
      "グ": 1392,
      "ケ": 1393,
      "サ": 1394,
      "ジ": 1395,
      "ス": 1396,
      "タ": 1397,
      "ダ": 1398,
      "ッ": 1399,
      "テ": 1400,
      "デ": 1401,
      "ト": 1402,
      "ド": 1403,
      "ナ": 1404,
      "ニ": 1405,
      "ハ": 1406,
      "バ": 1407,
      "ヒ": 1408,
      "ビ": 1409,
      "ピ": 1410,
      "フ": 1411,
      "メ": 1412,
      "リ": 1413,
      "ル": 1414,
      "レ": 1415,
      "ロ": 1416,
      "ワ": 1417,
      "ン": 1418,
      "・": 1419,
      "ー": 1420,
      "ㄌ": 1421,
      "ㄢ": 1422,
      "ㄨ": 1423,
      "一": 1424,
      "七": 1425,
      "三": 1426,
      "上": 1427,
      "下": 1428,
      "中": 1429,
      "主": 1430,
      "久": 1431,
      "之": 1432,
      "也": 1433,
      "事": 1434,
      "二": 1435,
      "五": 1436,
      "井": 1437,
      "亜": 1438,
      "亦": 1439,
      "京": 1440,
      "人": 1441,
      "仏": 1442,
      "以": 1443,
      "件": 1444,
      "伊": 1445,
      "传": 1446,
      "伽": 1447,
      "但": 1448,
      "佛": 1449,
      "作": 1450,
      "例": 1451,
      "侠": 1452,
      "俟": 1453,
      "候": 1454,
      "偿": 1455,
      "傳": 1456,
      "傷": 1457,
      "僕": 1458,
      "僧": 1459,
      "儀": 1460,
      "儒": 1461,
      "儿": 1462,
      "元": 1463,
      "入": 1464,
      "八": 1465,
      "公": 1466,
      "六": 1467,
      "内": 1468,
      "农": 1469,
      "刑": 1470,
      "利": 1471,
      "前": 1472,
      "功": 1473,
      "务": 1474,
      "務": 1475,
      "北": 1476,
      "十": 1477,
      "千": 1478,
      "南": 1479,
      "卷": 1480,
      "友": 1481,
      "可": 1482,
      "台": 1483,
      "史": 1484,
      "叶": 1485,
      "司": 1486,
      "合": 1487,
      "同": 1488,
      "后": 1489,
      "吐": 1490,
      "吗": 1491,
      "君": 1492,
      "员": 1493,
      "咄": 1494,
      "和": 1495,
      "品": 1496,
      "啞": 1497,
      "四": 1498,
      "回": 1499,
      "固": 1500,
      "国": 1501,
      "國": 1502,
      "土": 1503,
      "在": 1504,
      "坐": 1505,
      "垒": 1506,
      "垣": 1507,
      "堂": 1508,
      "堡": 1509,
      "壁": 1510,
      "士": 1511,
      "处": 1512,
      "复": 1513,
      "大": 1514,
      "天": 1515,
      "太": 1516,
      "夫": 1517,
      "女": 1518,
      "奴": 1519,
      "如": 1520,
      "始": 1521,
      "姦": 1522,
      "婁": 1523,
      "婆": 1524,
      "学": 1525,
      "安": 1526,
      "宗": 1527,
      "実": 1528,
      "家": 1529,
      "宿": 1530,
      "密": 1531,
      "寛": 1532,
      "實": 1533,
      "対": 1534,
      "將": 1535,
      "小": 1536,
      "山": 1537,
      "岁": 1538,
      "島": 1539,
      "崩": 1540,
      "州": 1541,
      "左": 1542,
      "币": 1543,
      "师": 1544,
      "帝": 1545,
      "師": 1546,
      "常": 1547,
      "幼": 1548,
      "府": 1549,
      "庫": 1550,
      "建": 1551,
      "強": 1552,
      "彌": 1553,
      "录": 1554,
      "往": 1555,
      "律": 1556,
      "得": 1557,
      "德": 1558,
      "徽": 1559,
      "心": 1560,
      "応": 1561,
      "思": 1562,
      "性": 1563,
      "悉": 1564,
      "悟": 1565,
      "情": 1566,
      "惡": 1567,
      "慶": 1568,
      "憲": 1569,
      "懸": 1570,
      "成": 1571,
      "戦": 1572,
      "才": 1573,
      "折": 1574,
      "拓": 1575,
      "拘": 1576,
      "提": 1577,
      "摩": 1578,
      "支": 1579,
      "改": 1580,
      "政": 1581,
      "故": 1582,
      "教": 1583,
      "文": 1584,
      "斤": 1585,
      "方": 1586,
      "族": 1587,
      "无": 1588,
      "日": 1589,
      "明": 1590,
      "時": 1591,
      "晏": 1592,
      "景": 1593,
      "暂": 1594,
      "曇": 1595,
      "更": 1596,
      "曹": 1597,
      "曼": 1598,
      "月": 1599,
      "有": 1600,
      "朋": 1601,
      "木": 1602,
      "未": 1603,
      "本": 1604,
      "朱": 1605,
      "机": 1606,
      "李": 1607,
      "杜": 1608,
      "条": 1609,
      "東": 1610,
      "杵": 1611,
      "极": 1612,
      "林": 1613,
      "查": 1614,
      "树": 1615,
      "校": 1616,
      "梅": 1617,
      "條": 1618,
      "检": 1619,
      "植": 1620,
      "楚": 1621,
      "楞": 1622,
      "極": 1623,
      "楽": 1624,
      "樂": 1625,
      "樸": 1626,
      "樹": 1627,
      "次": 1628,
      "欧": 1629,
      "欲": 1630,
      "歌": 1631,
      "正": 1632,
      "步": 1633,
      "歲": 1634,
      "歴": 1635,
      "殖": 1636,
      "母": 1637,
      "毛": 1638,
      "民": 1639,
      "氣": 1640,
      "水": 1641,
      "汗": 1642,
      "汝": 1643,
      "沐": 1644,
      "沙": 1645,
      "沢": 1646,
      "泉": 1647,
      "法": 1648,
      "泡": 1649,
      "波": 1650,
      "泰": 1651,
      "流": 1652,
      "测": 1653,
      "海": 1654,
      "淨": 1655,
      "清": 1656,
      "港": 1657,
      "漢": 1658,
      "漿": 1659,
      "濟": 1660,
      "灣": 1661,
      "灯": 1662,
      "災": 1663,
      "為": 1664,
      "無": 1665,
      "然": 1666,
      "熊": 1667,
      "燃": 1668,
      "燈": 1669,
      "燕": 1670,
      "爛": 1671,
      "爸": 1672,
      "犯": 1673,
      "猕": 1674,
      "猴": 1675,
      "獣": 1676,
      "獲": 1677,
      "玉": 1678,
      "珍": 1679,
      "珠": 1680,
      "瑾": 1681,
      "瓜": 1682,
      "用": 1683,
      "略": 1684,
      "白": 1685,
      "百": 1686,
      "皇": 1687,
      "盘": 1688,
      "盤": 1689,
      "盧": 1690,
      "目": 1691,
      "直": 1692,
      "相": 1693,
      "省": 1694,
      "眼": 1695,
      "督": 1696,
      "睦": 1697,
      "破": 1698,
      "社": 1699,
      "祖": 1700,
      "神": 1701,
      "福": 1702,
      "禪": 1703,
      "秋": 1704,
      "科": 1705,
      "秦": 1706,
      "種": 1707,
      "竜": 1708,
      "竞": 1709,
      "竺": 1710,
      "筒": 1711,
      "算": 1712,
      "節": 1713,
      "糖": 1714,
      "紅": 1715,
      "細": 1716,
      "絞": 1717,
      "絶": 1718,
      "絹": 1719,
      "經": 1720,
      "線": 1721,
      "續": 1722,
      "罗": 1723,
      "罚": 1724,
      "罪": 1725,
      "羅": 1726,
      "美": 1727,
      "羽": 1728,
      "者": 1729,
      "耳": 1730,
      "胃": 1731,
      "胡": 1732,
      "脈": 1733,
      "自": 1734,
      "至": 1735,
      "臺": 1736,
      "节": 1737,
      "芳": 1738,
      "茶": 1739,
      "荒": 1740,
      "荼": 1741,
      "菩": 1742,
      "营": 1743,
      "薩": 1744,
      "藻": 1745,
      "蘆": 1746,
      "虎": 1747,
      "蛇": 1748,
      "蠻": 1749,
      "血": 1750,
      "行": 1751,
      "街": 1752,
      "衣": 1753,
      "袈": 1754,
      "裏": 1755,
      "裟": 1756,
      "褥": 1757,
      "西": 1758,
      "見": 1759,
      "覧": 1760,
      "覺": 1761,
      "觀": 1762,
      "解": 1763,
      "記": 1764,
      "訟": 1765,
      "訴": 1766,
      "語": 1767,
      "論": 1768,
      "諸": 1769,
      "諾": 1770,
      "證": 1771,
      "议": 1772,
      "试": 1773,
      "貘": 1774,
      "資": 1775,
      "賢": 1776,
      "贊": 1777,
      "赔": 1778,
      "越": 1779,
      "趙": 1780,
      "跌": 1781,
      "軍": 1782,
      "轉": 1783,
      "辉": 1784,
      "辯": 1785,
      "辰": 1786,
      "農": 1787,
      "适": 1788,
      "通": 1789,
      "連": 1790,
      "道": 1791,
      "達": 1792,
      "遠": 1793,
      "那": 1794,
      "都": 1795,
      "配": 1796,
      "里": 1797,
      "重": 1798,
      "金": 1799,
      "錄": 1800,
      "鍛": 1801,
      "鏡": 1802,
      "鑒": 1803,
      "锻": 1804,
      "長": 1805,
      "长": 1806,
      "門": 1807,
      "開": 1808,
      "間": 1809,
      "関": 1810,
      "阳": 1811,
      "阵": 1812,
      "阿": 1813,
      "陀": 1814,
      "附": 1815,
      "陰": 1816,
      "陳": 1817,
      "陵": 1818,
      "陽": 1819,
      "際": 1820,
      "雄": 1821,
      "集": 1822,
      "雖": 1823,
      "離": 1824,
      "霸": 1825,
      "青": 1826,
      "面": 1827,
      "鞮": 1828,
      "韓": 1829,
      "順": 1830,
      "頭": 1831,
      "願": 1832,
      "類": 1833,
      "香": 1834,
      "馬": 1835,
      "马": 1836,
      "骨": 1837,
      "高": 1838,
      "魏": 1839,
      "魔": 1840,
      "魚": 1841,
      "鮑": 1842,
      "鯤": 1843,
      "鯷": 1844,
      "鴛": 1845,
      "鴦": 1846,
      "麻": 1847,
      "黄": 1848,
      "黑": 1849,
      "鼠": 1850,
      "齊": 1851,
      "龍": 1852,
      "龙": 1853,
      "龜": 1854,
      "ꙋ": 1855,
      "ꙑ": 1856,
      "Ꙗ": 1857,
      "ꙗ": 1858,
      "ꜣ": 1859,
      "Ꜧ": 1860,
      "ꜧ": 1861,
      "Ꜹ": 1862,
      "ꞌ": 1863,
      "ꞑ": 1864,
      "Ꞻ": 1865,
      "ꞻ": 1866,
      "ꬱ": 1867,
      "대": 1868,
      "더": 1869,
      "라": 1870,
      "렉": 1871,
      "르": 1872,
      "목": 1873,
      "바": 1874,
      "사": 1875,
      "산": 1876,
      "수": 1877,
      "식": 1878,
      "알": 1879,
      "용": 1880,
      "음": 1881,
      "의": 1882,
      "이": 1883,
      "일": 1884,
      "조": 1885,
      "주": 1886,
      "증": 1887,
      "충": 1888,
      "판": 1889,
      "홍": 1890,
      "︎": 1891,
      "𐀀": 1892,
      "𐀅": 1893,
      "𐀏": 1894,
      "𐀩": 1895,
      "𐀫": 1896,
      "𐀭": 1897,
      "𐌀": 1898,
      "𐤀": 1899,
      "𐤌": 1900,
      "𐤍": 1901,
      "𐤏": 1902,
      "𑀓": 1903,
      "𑀥": 1904,
      "𑀦": 1905,
      "𑀩": 1906,
      "𑀫": 1907,
      "𑀬": 1908,
      "𑀲": 1909,
      "𑀻": 1910,
      "𑀼": 1911,
      "𑁆": 1912,
      "𒀀": 1913,
      "𒂵": 1914,
      "𒆠": 1915,
      "𒉈": 1916,
      "𓅓": 1917,
      "𓆎": 1918,
      "𓊖": 1919,
      "𓏏": 1920,
      "🇦": 1921,
      "🇫": 1922,
      "🇮": 1923,
      "🇶": 1924,
      "🇷": 1925,
      "🇸": 1926,
      "🇺": 1927,
      "🇿": 1928,
      "🚲": 1929,
      "🛈": 1930,
      "𨁂": 1931,
      "th": 1932,
      "in": 1933,
      "an": 1934,
      "er": 1935,
      "ст": 1936,
      "the": 1937,
      "on": 1938,
      "ен": 1939,
      "ра": 1940,
      "re": 1941,
      "но": 1942,
      "at": 1943,
      "ко": 1944,
      "ро": 1945,
      "на": 1946,
      "en": 1947,
      "al": 1948,
      "or": 1949,
      "ed": 1950,
      "is": 1951,
      "es": 1952,
      "го": 1953,
      "of": 1954,
      "ar": 1955,
      "ре": 1956,
      "and": 1957,
      "по": 1958,
      "as": 1959,
      "ли": 1960,
      "ри": 1961,
      "ни": 1962,
      "ль": 1963,
      "то": 1964,
      "ic": 1965,
      "во": 1966,
      "ны": 1967,
      "ки": 1968,
      "it": 1969,
      "ка": 1970,
      "ва": 1971,
      "to": 1972,
      "те": 1973,
      "ing": 1974,
      "ion": 1975,
      "ro": 1976,
      "ла": 1977,
      "ло": 1978,
      "19": 1979,
      "ве": 1980,
      "да": 1981,
      "та": 1982,
      "st": 1983,
      "le": 1984,
      "ени": 1985,
      "не": 1986,
      "ле": 1987,
      "со": 1988,
      "ми": 1989,
      "ou": 1990,
      "ти": 1991,
      "ски": 1992,
      "ent": 1993,
      "he": 1994,
      "ер": 1995,
      "ско": 1996,
      "ac": 1997,
      "до": 1998,
      "за": 1999,
      "om": 2000,
      "ви": 2001,
      "ма": 2002,
      "il": 2003,
      "де": 2004,
      "el": 2005,
      "че": 2006,
      "ци": 2007,
      "ме": 2008,
      "ol": 2009,
      "ди": 2010,
      "ch": 2011,
      "am": 2012,
      "ad": 2013,
      "мо": 2014,
      "си": 2015,
      "se": 2016,
      "ся": 2017,
      "ру": 2018,
      "ля": 2019,
      "об": 2020,
      "20": 2021,
      "ста": 2022,
      "ter": 2023,
      "be": 2024,
      "про": 2025,
      "ur": 2026,
      "ly": 2027,
      "for": 2028,
      "ation": 2029,
      "вы": 2030,
      "de": 2031,
      "бо": 2032,
      "im": 2033,
      "ет": 2034,
      "iv": 2035,
      "us": 2036,
      "из": 2037,
      "ский": 2038,
      "ct": 2039,
      "The": 2040,
      "ig": 2041,
      "са": 2042,
      "un": 2043,
      "сти": 2044,
      "ча": 2045,
      "пе": 2046,
      "ir": 2047,
      "от": 2048,
      "се": 2049,
      "па": 2050,
      "при": 2051,
      "сто": 2052,
      "ду": 2053,
      "con": 2054,
      "ce": 2055,
      "wh": 2056,
      "пре": 2057,
      "id": 2058,
      "ith": 2059,
      "ul": 2060,
      "ow": 2061,
      "was": 2062,
      "ag": 2063,
      "ist": 2064,
      "ers": 2065,
      "тель": 2066,
      "чи": 2067,
      "ги": 2068,
      "ения": 2069,
      "ть": 2070,
      "em": 2071,
      "ot": 2072,
      "бы": 2073,
      "ной": 2074,
      "18": 2075,
      "ay": 2076,
      "ab": 2077,
      "ных": 2078,
      "пи": 2079,
      "op": 2080,
      "by": 2081,
      "with": 2082,
      "ut": 2083,
      "ный": 2084,
      "are": 2085,
      "ap": 2086,
      "et": 2087,
      "av": 2088,
      "га": 2089,
      "res": 2090,
      "ры": 2091,
      "ение": 2092,
      "pro": 2093,
      "же": 2094,
      "раз": 2095,
      "хо": 2096,
      "that": 2097,
      "um": 2098,
      "com": 2099,
      "ver": 2100,
      "ос": 2101,
      "tr": 2102,
      "ian": 2103,
      "ные": 2104,
      "ту": 2105,
      "мен": 2106,
      "ска": 2107,
      "ств": 2108,
      "ного": 2109,
      "ря": 2110,
      "pl": 2111,
      "ши": 2112,
      "ther": 2113,
      "all": 2114,
      "mo": 2115,
      "му": 2116,
      "ку": 2117,
      "su": 2118,
      "ain": 2119,
      "In": 2120,
      "ex": 2121,
      "ской": 2122,
      "су": 2123,
      "сь": 2124,
      "est": 2125,
      "ар": 2126,
      "os": 2127,
      "он": 2128,
      "pe": 2129,
      "ор": 2130,
      "сть": 2131,
      "rom": 2132,
      "ан": 2133,
      "ies": 2134,
      "ран": 2135,
      "his": 2136,
      "if": 2137,
      "ей": 2138,
      "ты": 2139,
      "ere": 2140,
      "ского": 2141,
      "oun": 2142,
      "cl": 2143,
      "ity": 2144,
      "ant": 2145,
      "from": 2146,
      "ис": 2147,
      "ish": 2148,
      "лу": 2149,
      "ство": 2150,
      "фи": 2151,
      "so": 2152,
      "ate": 2153,
      "00": 2154,
      "ем": 2155,
      "art": 2156,
      "od": 2157,
      "ia": 2158,
      "ют": 2159,
      "щи": 2160,
      "зи": 2161,
      "ния": 2162,
      "ну": 2163,
      "ne": 2164,
      "ская": 2165,
      "ня": 2166,
      "ich": 2167,
      "qu": 2168,
      "года": 2169,
      "ции": 2170,
      "жи": 2171,
      "гра": 2172,
      "вой": 2173,
      "ная": 2174,
      "кото": 2175,
      "ess": 2176,
      "пу": 2177,
      "igh": 2178,
      "ri": 2179,
      "вер": 2180,
      "бе": 2181,
      "per": 2182,
      "ill": 2183,
      "кт": 2184,
      "ще": 2185,
      "лен": 2186,
      "200": 2187,
      "man": 2188,
      "ical": 2189,
      "пра": 2190,
      "би": 2191,
      "ется": 2192,
      "ment": 2193,
      "ld": 2194,
      "ial": 2195,
      "act": 2196,
      "ствен": 2197,
      "ud": 2198,
      "нов": 2199,
      "17": 2200,
      "te": 2201,
      "ive": 2202,
      "sh": 2203,
      "зы": 2204,
      "ber": 2205,
      "сле": 2206,
      "ard": 2207,
      "ке": 2208,
      "ated": 2209,
      "ort": 2210,
      "лю": 2211,
      "кон": 2212,
      "og": 2213,
      "du": 2214,
      "oc": 2215,
      "ин": 2216,
      "mer": 2217,
      "род": 2218,
      "ak": 2219,
      "which": 2220,
      "der": 2221,
      "стро": 2222,
      "под": 2223,
      "gh": 2224,
      "ние": 2225,
      "ба": 2226,
      "мы": 2227,
      "ства": 2228,
      "199": 2229,
      "ев": 2230,
      "ских": 2231,
      "году": 2232,
      "ine": 2233,
      "ge": 2234,
      "вет": 2235,
      "пер": 2236,
      "зо": 2237,
      "ip": 2238,
      "str": 2239,
      "ков": 2240,
      "ным": 2241,
      "our": 2242,
      "ell": 2243,
      "что": 2244,
      "вля": 2245,
      "ary": 2246,
      "ear": 2247,
      "were": 2248,
      "ное": 2249,
      "201": 2250,
      "ra": 2251,
      "one": 2252,
      "not": 2253,
      "На": 2254,
      "ure": 2255,
      "ph": 2256,
      "rit": 2257,
      "ave": 2258,
      "так": 2259,
      "По": 2260,
      "ден": 2261,
      "end": 2262,
      "пере": 2263,
      "ров": 2264,
      "рас": 2265,
      "зна": 2266,
      "ts": 2267,
      "II": 2268,
      "ён": 2269,
      "tw": 2270,
      "comp": 2271,
      "ум": 2272,
      "Ка": 2273,
      "ком": 2274,
      "over": 2275,
      "wor": 2276,
      "up": 2277,
      "ame": 2278,
      "ong": 2279,
      "тер": 2280,
      "ions": 2281,
      "ass": 2282,
      "An": 2283,
      "ie": 2284,
      "стра": 2285,
      "bl": 2286,
      "its": 2287,
      "Al": 2288,
      "ды": 2289,
      "СС": 2290,
      "ше": 2291,
      "гу": 2292,
      "ast": 2293,
      "pr": 2294,
      "Со": 2295,
      "ous": 2296,
      "мя": 2297,
      "Ch": 2298,
      "ном": 2299,
      "тор": 2300,
      "ца": 2301,
      "бу": 2302,
      "au": 2303,
      "жа": 2304,
      "ans": 2305,
      "ib": 2306,
      "ские": 2307,
      "Ar": 2308,
      "ности": 2309,
      "сси": 2310,
      "это": 2311,
      "рова": 2312,
      "ха": 2313,
      "198": 2314,
      "ire": 2315,
      "пред": 2316,
      "out": 2317,
      "как": 2318,
      "вре": 2319,
      "port": 2320,
      "тов": 2321,
      "15": 2322,
      "ack": 2323,
      "pt": 2324,
      "гла": 2325,
      "also": 2326,
      "для": 2327,
      "age": 2328,
      "cent": 2329,
      "ность": 2330,
      "ав": 2331,
      "ican": 2332,
      "197": 2333,
      "нии": 2334,
      "кра": 2335,
      "бря": 2336,
      "она": 2337,
      "iz": 2338,
      "це": 2339,
      "ach": 2340,
      "тра": 2341,
      "дар": 2342,
      "аль": 2343,
      "тиче": 2344,
      "кан": 2345,
      "рии": 2346,
      "воз": 2347,
      "16": 2348,
      "которы": 2349,
      "ect": 2350,
      "have": 2351,
      "ore": 2352,
      "fer": 2353,
      "form": 2354,
      "бли": 2355,
      "сло": 2356,
      "од": 2357,
      "Amer": 2358,
      "had": 2359,
      "196": 2360,
      "им": 2361,
      "ign": 2362,
      "ome": 2363,
      "af": 2364,
      "вя": 2365,
      "ence": 2366,
      "but": 2367,
      "part": 2368,
      "has": 2369,
      "ге": 2370,
      "ang": 2371,
      "bo": 2372,
      "194": 2373,
      "ult": 2374,
      "ide": 2375,
      "ция": 2376,
      "ov": 2377,
      "other": 2378,
      "ight": 2379,
      "own": 2380,
      "ke": 2381,
      "его": 2382,
      "ations": 2383,
      "ления": 2384,
      "сво": 2385,
      "St": 2386,
      "ev": 2387,
      "ющи": 2388,
      "ound": 2389,
      "cre": 2390,
      "также": 2391,
      "Ма": 2392,
      "ory": 2393,
      "10": 2394,
      "ша": 2395,
      "me": 2396,
      "fir": 2397,
      "ally": 2398,
      "pres": 2399,
      "their": 2400,
      "ition": 2401,
      "land": 2402,
      "po": 2403,
      "pre": 2404,
      "ction": 2405,
      "Un": 2406,
      "нд": 2407,
      "сте": 2408,
      "cor": 2409,
      "том": 2410,
      "tern": 2411,
      "cont": 2412,
      "жен": 2413,
      "ёр": 2414,
      "тив": 2415,
      "ater": 2416,
      "или": 2417,
      "Th": 2418,
      "att": 2419,
      "мер": 2420,
      "ould": 2421,
      "хи": 2422,
      "ci": 2423,
      "ree": 2424,
      "mon": 2425,
      "все": 2426,
      "dis": 2427,
      "ян": 2428,
      "ace": 2429,
      "American": 2430,
      "ks": 2431,
      "ser": 2432,
      "ates": 2433,
      "лся": 2434,
      "sy": 2435,
      "фор": 2436,
      "пол": 2437,
      "писа": 2438,
      "теле": 2439,
      "лись": 2440,
      "ник": 2441,
      "193": 2442,
      "ces": 2443,
      "gr": 2444,
      "цен": 2445,
      "14": 2446,
      "поль": 2447,
      "first": 2448,
      "ran": 2449,
      "able": 2450,
      "int": 2451,
      "can": 2452,
      "ely": 2453,
      "pol": 2454,
      "12": 2455,
      "йский": 2456,
      "мери": 2457,
      "рабо": 2458,
      "li": 2459,
      "нача": 2460,
      "this": 2461,
      "ща": 2462,
      "used": 2463,
      "ren": 2464,
      "co": 2465,
      "лы": 2466,
      "pos": 2467,
      "who": 2468,
      "ime": 2469,
      "ября": 2470,
      "fl": 2471,
      "ob": 2472,
      "ней": 2473,
      "195": 2474,
      "вод": 2475,
      "ление": 2476,
      "aw": 2477,
      "фа": 2478,
      "ются": 2479,
      "зу": 2480,
      "был": 2481,
      "сту": 2482,
      "рус": 2483,
      "Ко": 2484,
      "вши": 2485,
      "gen": 2486,
      "после": 2487,
      "des": 2488,
      "Рос": 2489,
      "рия": 2490,
      "дер": 2491,
      "incl": 2492,
      "совет": 2493,
      "дру": 2494,
      "явля": 2495,
      "been": 2496,
      "ении": 2497,
      "логи": 2498,
      "ред": 2499,
      "Росси": 2500,
      "сла": 2501,
      "ens": 2502,
      "ue": 2503,
      "образ": 2504,
      "сы": 2505,
      "зда": 2506,
      "Во": 2507,
      "ind": 2508,
      "13": 2509,
      "дов": 2510,
      "боль": 2511,
      "ew": 2512,
      "most": 2513,
      "ile": 2514,
      "вед": 2515,
      "play": 2516,
      "уч": 2517,
      "En": 2518,
      "ice": 2519,
      "ван": 2520,
      "госу": 2521,
      "spe": 2522,
      "спо": 2523,
      "It": 2524,
      "государ": 2525,
      "gl": 2526,
      "He": 2527,
      "акт": 2528,
      "пар": 2529,
      "ную": 2530,
      "жд": 2531,
      "192": 2532,
      "ными": 2533,
      "ходи": 2534,
      "горо": 2535,
      "ced": 2536,
      "стви": 2537,
      "ес": 2538,
      "лек": 2539,
      "руп": 2540,
      "дин": 2541,
      "тся": 2542,
      "СР": 2543,
      "ase": 2544,
      "три": 2545,
      "ust": 2546,
      "year": 2547,
      "мерикан": 2548,
      "low": 2549,
      "ений": 2550,
      "cess": 2551,
      "ok": 2552,
      "ry": 2553,
      "ational": 2554,
      "ман": 2555,
      "пы": 2556,
      "ele": 2557,
      "ву": 2558,
      "ath": 2559,
      "such": 2560,
      "sp": 2561,
      "поли": 2562,
      "ром": 2563,
      "жду": 2564,
      "ough": 2565,
      "свя": 2566,
      "американ": 2567,
      "ак": 2568,
      "стоя": 2569,
      "лове": 2570,
      "more": 2571,
      "ству": 2572,
      "uring": 2573,
      "мож": 2574,
      "ents": 2575,
      "gro": 2576,
      "дей": 2577,
      "col": 2578,
      "rel": 2579,
      "ite": 2580,
      "тия": 2581,
      "ef": 2582,
      "лее": 2583,
      "тр": 2584,
      "her": 2585,
      "ию": 2586,
      "слу": 2587,
      "Бо": 2588,
      "ict": 2589,
      "ever": 2590,
      "ple": 2591,
      "two": 2592,
      "arch": 2593,
      "ское": 2594,
      "исто": 2595,
      "ited": 2596,
      "min": 2597,
      "ma": 2598,
      "ade": 2599,
      "язы": 2600,
      "ding": 2601,
      "соста": 2602,
      "ve": 2603,
      "br": 2604,
      "reg": 2605,
      "ty": 2606,
      "ied": 2607,
      "дан": 2608,
      "фе": 2609,
      "produ": 2610,
      "coun": 2611,
      "ors": 2612,
      "Re": 2613,
      "ance": 2614,
      "arg": 2615,
      "поло": 2616,
      "ген": 2617,
      "ubl": 2618,
      "сен": 2619,
      "ском": 2620,
      "olog": 2621,
      "челове": 2622,
      "they": 2623,
      "За": 2624,
      "ics": 2625,
      "ism": 2626,
      "Па": 2627,
      "into": 2628,
      "cons": 2629,
      "росси": 2630,
      "соб": 2631,
      "kn": 2632,
      "ugh": 2633,
      "стран": 2634,
      "than": 2635,
      "ury": 2636,
      "use": 2637,
      "вания": 2638,
      "Au": 2639,
      "any": 2640,
      "ular": 2641,
      "ск": 2642,
      "пла": 2643,
      "публи": 2644,
      "При": 2645,
      "ten": 2646,
      "vel": 2647,
      "we": 2648,
      "дол": 2649,
      "их": 2650,
      "мар": 2651,
      "пера": 2652,
      "les": 2653,
      "old": 2654,
      "air": 2655,
      "вые": 2656,
      "объ": 2657,
      "зыва": 2658,
      "some": 2659,
      "after": 2660,
      "прави": 2661,
      "ved": 2662,
      "und": 2663,
      "лась": 2664,
      "190": 2665,
      "чен": 2666,
      "Af": 2667,
      "осно": 2668,
      "СССР": 2669,
      "цу": 2670,
      "лось": 2671,
      "Se": 2672,
      "кры": 2673,
      "As": 2674,
      "bec": 2675,
      "полу": 2676,
      "lo": 2677,
      "Ни": 2678,
      "произ": 2679,
      "кре": 2680,
      "inter": 2681,
      "off": 2682,
      "рь": 2683,
      "обла": 2684,
      "hy": 2685,
      "рой": 2686,
      "includ": 2687,
      "цы": 2688,
      "red": 2689,
      "более": 2690,
      "ход": 2691,
      "rough": 2692,
      "народ": 2693,
      "main": 2694,
      "мини": 2695,
      "mar": 2696,
      "каза": 2697,
      "лет": 2698,
      "time": 2699,
      "спе": 2700,
      "кой": 2701,
      "вание": 2702,
      "ний": 2703,
      "ah": 2704,
      "вый": 2705,
      "fin": 2706,
      "между": 2707,
      "клю": 2708,
      "име": 2709,
      "зе": 2710,
      "them": 2711,
      "лько": 2712,
      "publ": 2713,
      "11": 2714,
      "ood": 2715,
      "пло": 2716,
      "Ми": 2717,
      "sc": 2718,
      "кино": 2719,
      "ext": 2720,
      "als": 2721,
      "мпи": 2722,
      "были": 2723,
      "ased": 2724,
      "ari": 2725,
      "work": 2726,
      "ника": 2727,
      "стан": 2728,
      "een": 2729,
      "iss": 2730,
      "many": 2731,
      "тре": 2732,
      "вых": 2733,
      "ons": 2734,
      "num": 2735,
      "reat": 2736,
      "writ": 2737,
      "сов": 2738,
      "ёт": 2739,
      "тан": 2740,
      "comm": 2741,
      "This": 2742,
      "ению": 2743,
      "Ли": 2744,
      "ail": 2745,
      "sub": 2746,
      "кла": 2747,
      "ональ": 2748,
      "new": 2749,
      "would": 2750,
      "lin": 2751,
      "прав": 2752,
      "время": 2753,
      "stem": 2754,
      "25": 2755,
      "нима": 2756,
      "med": 2757,
      "only": 2758,
      "зиден": 2759,
      "cial": 2760,
      "no": 2761,
      "21": 2762,
      "емы": 2763,
      "ific": 2764,
      "ative": 2765,
      "ским": 2766,
      "было": 2767,
      "Мо": 2768,
      "жение": 2769,
      "Ве": 2770,
      "ску": 2771,
      "образо": 2772,
      "Com": 2773,
      "гли": 2774,
      "созда": 2775,
      "отно": 2776,
      "тур": 2777,
      "Ки": 2778,
      "фу": 2779,
      "Ра": 2780,
      "century": 2781,
      "000": 2782,
      "тера": 2783,
      "лов": 2784,
      "him": 2785,
      "ball": 2786,
      "ars": 2787,
      "исполь": 2788,
      "вая": 2789,
      "фо": 2790,
      "under": 2791,
      "ings": 2792,
      "ose": 2793,
      "betw": 2794,
      "between": 2795,
      "cond": 2796,
      "ters": 2797,
      "год": 2798,
      "ann": 2799,
      "кий": 2800,
      "gan": 2801,
      "Но": 2802,
      "Ан": 2803,
      "30": 2804,
      "urn": 2805,
      "советский": 2806,
      "рито": 2807,
      "ress": 2808,
      "cur": 2809,
      "ual": 2810,
      "high": 2811,
      "други": 2812,
      "была": 2813,
      "then": 2814,
      "ться": 2815,
      "when": 2816,
      "bu": 2817,
      "предста": 2818,
      "dr": 2819,
      "тро": 2820,
      "189": 2821,
      "циаль": 2822,
      "ём": 2823,
      "орга": 2824,
      "ince": 2825,
      "tain": 2826,
      "ese": 2827,
      "является": 2828,
      "обще": 2829,
      "ted": 2830,
      "ал": 2831,
      "ject": 2832,
      "though": 2833,
      "ys": 2834,
      "do": 2835,
      "цион": 2836,
      "22": 2837,
      "ists": 2838,
      "коло": 2839,
      "ric": 2840,
      "гда": 2841,
      "ins": 2842,
      "fe": 2843,
      "known": 2844,
      "way": 2845,
      "cer": 2846,
      "may": 2847,
      "trans": 2848,
      "али": 2849,
      "call": 2850,
      "эле": 2851,
      "De": 2852,
      "io": 2853,
      "вла": 2854,
      "ур": 2855,
      "dif": 2856,
      "дея": 2857,
      "коро": 2858,
      "город": 2859,
      "pop": 2860,
      "Алек": 2861,
      "ities": 2862,
      "Се": 2863,
      "Ме": 2864,
      "where": 2865,
      "бри": 2866,
      "ью": 2867,
      "Са": 2868,
      "преде": 2869,
      "лосо": 2870,
      "Ро": 2871,
      "гово": 2872,
      "led": 2873,
      "жения": 2874,
      "России": 2875,
      "насе": 2876,
      "ating": 2877,
      "Br": 2878,
      "par": 2879,
      "миче": 2880,
      "Bo": 2881,
      "мии": 2882,
      "Con": 2883,
      "воен": 2884,
      "века": 2885,
      "fore": 2886,
      "риса": 2887,
      "ople": 2888,
      "ms": 2889,
      "террито": 2890,
      "стве": 2891,
      "hist": 2892,
      "рон": 2893,
      "ivers": 2894,
      "реж": 2895,
      "Brit": 2896,
      "рав": 2897,
      "Ger": 2898,
      "над": 2899,
      "само": 2900,
      "bor": 2901,
      "До": 2902,
      "found": 2903,
      "мая": 2904,
      "Пер": 2905,
      "коно": 2906,
      "ds": 2907,
      "ранцу": 2908,
      "system": 2909,
      "ат": 2910,
      "част": 2911,
      "которые": 2912,
      "Engl": 2913,
      "about": 2914,
      "них": 2915,
      "English": 2916,
      "бер": 2917,
      "vis": 2918,
      "23": 2919,
      "overn": 2920,
      "fect": 2921,
      "города": 2922,
      "ished": 2923,
      "set": 2924,
      "Ви": 2925,
      "sup": 2926,
      "мира": 2927,
      "ера": 2928,
      "ful": 2929,
      "циональ": 2930,
      "through": 2931,
      "СШ": 2932,
      "uc": 2933,
      "during": 2934,
      "ium": 2935,
      "ix": 2936,
      "дви": 2937,
      "Wh": 2938,
      "США": 2939,
      "car": 2940,
      "my": 2941,
      "For": 2942,
      "New": 2943,
      "ake": 2944,
      "ident": 2945,
      "gener": 2946,
      "вич": 2947,
      "президен": 2948,
      "мени": 2949,
      "fol": 2950,
      "years": 2951,
      "cap": 2952,
      "части": 2953,
      "актриса": 2954,
      "тери": 2955,
      "Ва": 2956,
      "телей": 2957,
      "cted": 2958,
      "At": 2959,
      "ранцуз": 2960,
      "ху": 2961,
      "there": 2962,
      "эк": 2963,
      "лия": 2964,
      "188": 2965,
      "fil": 2966,
      "Jo": 2967,
      "ок": 2968,
      "лин": 2969,
      "son": 2970,
      "того": 2971,
      "дова": 2972,
      "ub": 2973,
      "eng": 2974,
      "lex": 2975,
      "тем": 2976,
      "day": 2977,
      "Le": 2978,
      "времен": 2979,
      "Ар": 2980,
      "таль": 2981,
      "води": 2982,
      "дом": 2983,
      "cy": 2984,
      "serv": 2985,
      "Не": 2986,
      "суще": 2987,
      "ship": 2988,
      "prov": 2989,
      "вос": 2990,
      "outh": 2991,
      "ton": 2992,
      "Is": 2993,
      "сты": 2994,
      "24": 2995,
      "uro": 2996,
      "Ев": 2997,
      "uss": 2998,
      "inv": 2999,
      "well": 3000,
      "velop": 3001,
      "ft": 3002,
      "Та": 3003,
      "ниче": 3004,
      "ена": 3005,
      "ron": 3006,
      "ily": 3007,
      "пор": 3008,
      "sur": 3009,
      "сса": 3010,
      "государствен": 3011,
      "stru": 3012,
      "III": 3013,
      "develop": 3014,
      "Am": 3015,
      "рез": 3016,
      "Бе": 3017,
      "ep": 3018,
      "сер": 3019,
      "лич": 3020,
      "Пе": 3021,
      "сред": 3022,
      "loc": 3023,
      "angu": 3024,
      "теля": 3025,
      "amp": 3026,
      "вого": 3027,
      "графи": 3028,
      "On": 3029,
      "ause": 3030,
      "един": 3031,
      "sing": 3032,
      "деятель": 3033,
      "mem": 3034,
      "лан": 3035,
      "ife": 3036,
      "тельно": 3037,
      "ax": 3038,
      "мец": 3039,
      "United": 3040,
      "Си": 3041,
      "пад": 3042,
      "ures": 3043,
      "они": 3044,
      "ward": 3045,
      "Фран": 3046,
      "обо": 3047,
      "XI": 3048,
      "откры": 3049,
      "row": 3050,
      "зем": 3051,
      "спор": 3052,
      "стре": 3053,
      "остро": 3054,
      "rap": 3055,
      "called": 3056,
      "50": 3057,
      "187": 3058,
      "француз": 3059,
      "тин": 3060,
      "later": 3061,
      "авто": 3062,
      "груп": 3063,
      "Ру": 3064,
      "again": 3065,
      "owever": 3066,
      "рей": 3067,
      "ек": 3068,
      "станов": 3069,
      "лей": 3070,
      "ians": 3071,
      "ников": 3072,
      "present": 3073,
      "including": 3074,
      "186": 3075,
      "ники": 3076,
      "these": 3077,
      "дель": 3078,
      "приня": 3079,
      "янва": 3080,
      "king": 3081,
      "рак": 3082,
      "тура": 3083,
      "точ": 3084,
      "тру": 3085,
      "ious": 3086,
      "dist": 3087,
      "зова": 3088,
      "Wor": 3089,
      "iel": 3090,
      "ized": 3091,
      "цию": 3092,
      "разви": 3093,
      "рев": 3094,
      "add": 3095,
      "made": 3096,
      "чение": 3097,
      "тий": 3098,
      "человек": 3099,
      "российский": 3100,
      "polit": 3101,
      "ution": 3102,
      "доро": 3103,
      "ature": 3104,
      "ually": 3105,
      "американский": 3106,
      "oy": 3107,
      "Кон": 3108,
      "while": 3109,
      "чита": 3110,
      "follow": 3111,
      "правитель": 3112,
      "ible": 3113,
      "вест": 3114,
      "number": 3115,
      "нако": 3116,
      "мно": 3117,
      "ered": 3118,
      "тек": 3119,
      "мир": 3120,
      "ана": 3121,
      "ically": 3122,
      "ise": 3123,
      "ret": 3124,
      "ude": 3125,
      "nam": 3126,
      "being": 3127,
      "изи": 3128,
      "Be": 3129,
      "филосо": 3130,
      "наз": 3131,
      "писатель": 3132,
      "nor": 3133,
      "ost": 3134,
      "cri": 3135,
      "личе": 3136,
      "зя": 3137,
      "немец": 3138,
      "скую": 3139,
      "sign": 3140,
      "cr": 3141,
      "bel": 3142,
      "санд": 3143,
      "Pro": 3144,
      "состоя": 3145,
      "inn": 3146,
      "страны": 3147,
      "dom": 3148,
      "зави": 3149,
      "people": 3150,
      "дека": 3151,
      "Ин": 3152,
      "spec": 3153,
      "Nor": 3154,
      "её": 3155,
      "three": 3156,
      "cept": 3157,
      "ement": 3158,
      "рай": 3159,
      "бур": 3160,
      "war": 3161,
      "Про": 3162,
      "рий": 3163,
      "govern": 3164,
      "ural": 3165,
      "теа": 3166,
      "стру": 3167,
      "peri": 3168,
      "Александ": 3169,
      "la": 3170,
      "ному": 3171,
      "ale": 3172,
      "cho": 3173,
      "both": 3174,
      "гре": 3175,
      "group": 3176,
      "city": 3177,
      "met": 3178,
      "leg": 3179,
      "Го": 3180,
      "гер": 3181,
      "Ad": 3182,
      "War": 3183,
      "dep": 3184,
      "которо": 3185,
      "пример": 3186,
      "которых": 3187,
      "Ac": 3188,
      "ments": 3189,
      "ций": 3190,
      "тя": 3191,
      "осу": 3192,
      "вал": 3193,
      "памя": 3194,
      "стиче": 3195,
      "реди": 3196,
      "тора": 3197,
      "27": 3198,
      "sim": 3199,
      "langu": 3200,
      "hel": 3201,
      "char": 3202,
      "vari": 3203,
      "rol": 3204,
      "oper": 3205,
      "Sh": 3206,
      "только": 3207,
      "unt": 3208,
      "Euro": 3209,
      "countr": 3210,
      "вра": 3211,
      "евра": 3212,
      "Mar": 3213,
      "26": 3214,
      "vers": 3215,
      "ug": 3216,
      "Дж": 3217,
      "Joh": 3218,
      "авгу": 3219,
      "ond": 3220,
      "Гер": 3221,
      "buil": 3222,
      "ick": 3223,
      "ages": 3224,
      "val": 3225,
      "differ": 3226,
      "ros": 3227,
      "вели": 3228,
      "окт": 3229,
      "ants": 3230,
      "BC": 3231,
      "igin": 3232,
      "тен": 3233,
      "То": 3234,
      "dire": 3235,
      "апре": 3236,
      "British": 3237,
      "вое": 3238,
      "Ре": 3239,
      "became": 3240,
      "stud": 3241,
      "Austr": 3242,
      "line": 3243,
      "поэ": 3244,
      "русский": 3245,
      "28": 3246,
      "Sp": 3247,
      "сно": 3248,
      "public": 3249,
      "бра": 3250,
      "нию": 3251,
      "зависи": 3252,
      "жда": 3253,
      "чемпи": 3254,
      "января": 3255,
      "пози": 3256,
      "Вели": 3257,
      "Ку": 3258,
      "тео": 3259,
      "por": 3260,
      "шение": 3261,
      "вым": 3262,
      "простран": 3263,
      "iver": 3264,
      "ких": 3265,
      "пери": 3266,
      "urch": 3267,
      "pers": 3268,
      "ences": 3269,
      "ived": 3270,
      "ash": 3271,
      "ck": 3272,
      "imes": 3273,
      "цев": 3274,
      "Ба": 3275,
      "Chr": 3276,
      "рован": 3277,
      "ility": 3278,
      "early": 3279,
      "ology": 3280,
      "let": 3281,
      "еди": 3282,
      "ством": 3283,
      "истори": 3284,
      "шения": 3285,
      "марта": 3286,
      "мь": 3287,
      "актёр": 3288,
      "куль": 3289,
      "world": 3290,
      "нк": 3291,
      "Га": 3292,
      "ae": 3293,
      "ят": 3294,
      "Fran": 3295,
      "jor": 3296,
      "ёл": 3297,
      "органи": 3298,
      "Ex": 3299,
      "лё": 3300,
      "июля": 3301,
      "грани": 3302,
      "действи": 3303,
      "эти": 3304,
      "нее": 3305,
      "кола": 3306,
      "men": 3307,
      "него": 3308,
      "основ": 3309,
      "lead": 3310,
      "Мар": 3311,
      "опреде": 3312,
      "Bl": 3313,
      "грам": 3314,
      "bers": 3315,
      "лист": 3316,
      "ститу": 3317,
      "requ": 3318,
      "Europe": 3319,
      "вший": 3320,
      "кого": 3321,
      "0s": 3322,
      "ier": 3323,
      "inst": 3324,
      "обра": 3325,
      "верси": 3326,
      "ющих": 3327,
      "oot": 3328,
      "февра": 3329,
      "gy": 3330,
      "извест": 3331,
      "ень": 3332,
      "elf": 3333,
      "Ге": 3334,
      "став": 3335,
      "шо": 3336,
      "contin": 3337,
      "exam": 3338,
      "льта": 3339,
      "back": 3340,
      "suc": 3341,
      "См": 3342,
      "нер": 3343,
      "элект": 3344,
      "less": 3345,
      "йской": 3346,
      "Pr": 3347,
      "iet": 3348,
      "state": 3349,
      "чения": 3350,
      "John": 3351,
      "uch": 3352,
      "мест": 3353,
      "appe": 3354,
      "second": 3355,
      "long": 3356,
      "той": 3357,
      "ждения": 3358,
      "нием": 3359,
      "Cl": 3360,
      "уни": 3361,
      "сент": 3362,
      "ower": 3363,
      "кри": 3364,
      "Ле": 3365,
      "яви": 3366,
      "bi": 3367,
      "зд": 3368,
      "az": 3369,
      "тех": 3370,
      "oman": 3371,
      "German": 3372,
      "like": 3373,
      "лн": 3374,
      "тии": 3375,
      "хов": 3376,
      "форма": 3377,
      "щей": 3378,
      "шая": 3379,
      "Евро": 3380,
      "нский": 3381,
      "sever": 3382,
      "кси": 3383,
      "fam": 3384,
      "оста": 3385,
      "стал": 3386,
      "июня": 3387,
      "сентября": 3388,
      "States": 3389,
      "декабря": 3390,
      "часть": 3391,
      "Ph": 3392,
      "получи": 3393,
      "larg": 3394,
      "населения": 3395,
      "partic": 3396,
      "собо": 3397,
      "rench": 3398,
      "против": 3399,
      "апреля": 3400,
      "Де": 3401,
      "Ab": 3402,
      "origin": 3403,
      "называ": 3404,
      "круп": 3405,
      "thor": 3406,
      "Par": 3407,
      "высо": 3408,
      "эконо": 3409,
      "сли": 3410,
      "дии": 3411,
      "sm": 3412,
      "августа": 3413,
      "послед": 3414,
      "который": 3415,
      "англи": 3416,
      "soci": 3417,
      "iversity": 3418,
      "физи": 3419,
      "cording": 3420,
      "лом": 3421,
      "яв": 3422,
      "лли": 3423,
      "цо": 3424,
      "октября": 3425,
      "bre": 3426,
      "ina": 3427,
      "che": 3428,
      "щен": 3429,
      "ional": 3430,
      "del": 3431,
      "войны": 3432,
      "ющие": 3433,
      "ulation": 3434,
      "design": 3435,
      "40": 3436,
      "29": 3437,
      "mus": 3438,
      "Об": 3439,
      "ives": 3440,
      "тие": 3441,
      "bro": 3442,
      "French": 3443,
      "йская": 3444,
      "Tr": 3445,
      "Су": 3446,
      "ban": 3447,
      "Ав": 3448,
      "много": 3449,
      "цер": 3450,
      "iew": 3451,
      "Christ": 3452,
      "шей": 3453,
      "arr": 3454,
      "World": 3455,
      "вета": 3456,
      "стов": 3457,
      "Да": 3458,
      "меча": 3459,
      "жиз": 3460,
      "театра": 3461,
      "около": 3462,
      "often": 3463,
      "вать": 3464,
      "ответ": 3465,
      "ord": 3466,
      "нь": 3467,
      "ble": 3468,
      "зульта": 3469,
      "логиче": 3470,
      "век": 3471,
      "cover": 3472,
      "name": 3473,
      "фер": 3474,
      "ild": 3475,
      "miss": 3476,
      "доб": 3477,
      "обы": 3478,
      "same": 3479,
      "туры": 3480,
      "Alex": 3481,
      "вали": 3482,
      "лез": 3483,
      "лён": 3484,
      "щая": 3485,
      "could": 3486,
      "common": 3487,
      "место": 3488,
      "Ind": 3489,
      "февраля": 3490,
      "against": 3491,
      "Пос": 3492,
      "кар": 3493,
      "four": 3494,
      "ссо": 3495,
      "cient": 3496,
      "Из": 3497,
      "based": 3498,
      "ox": 3499,
      "исс": 3500,
      "дера": 3501,
      "шин": 3502,
      "Or": 3503,
      "Ла": 3504,
      "ноября": 3505,
      "ступ": 3506,
      "лев": 3507,
      "oth": 3508,
      "составля": 3509,
      "кор": 3510,
      "лага": 3511,
      "ared": 3512,
      "дра": 3513,
      "ute": 3514,
      "consid": 3515,
      "atic": 3516,
      "elect": 3517,
      "illion": 3518,
      "ад": 3519,
      "ital": 3520,
      "stand": 3521,
      "come": 3522,
      "результа": 3523,
      "сист": 3524,
      "before": 3525,
      "чемпион": 3526,
      "систе": 3527,
      "ших": 3528,
      "территории": 3529,
      "сточ": 3530,
      "рес": 3531,
      "дина": 3532,
      "ностью": 3533,
      "худо": 3534,
      "можно": 3535,
      "Кар": 3536,
      "point": 3537,
      "Ста": 3538,
      "Col": 3539,
      "счита": 3540,
      "press": 3541,
      "ember": 3542,
      "each": 3543,
      "now": 3544,
      "области": 3545,
      "gram": 3546,
      "ik": 3547,
      "fact": 3548,
      "flu": 3549,
      "лиги": 3550,
      "major": 3551,
      "волю": 3552,
      "вор": 3553,
      "aid": 3554,
      "тран": 3555,
      "will": 3556,
      "мыш": 3557,
      "ним": 3558,
      "lar": 3559,
      "зации": 3560,
      "ую": 3561,
      "скими": 3562,
      "мент": 3563,
      "льно": 3564,
      "политиче": 3565,
      "ca": 3566,
      "льный": 3567,
      "chn": 3568,
      "шен": 3569,
      "тист": 3570,
      "тели": 3571,
      "может": 3572,
      "тик": 3573,
      "vent": 3574,
      "струк": 3575,
      "support": 3576,
      "Can": 3577,
      "order": 3578,
      "fic": 3579,
      "law": 3580,
      "ору": 3581,
      "trad": 3582,
      "since": 3583,
      "sol": 3584,
      "lect": 3585,
      "мента": 3586,
      "thern": 3587,
      "dec": 3588,
      "read": 3589,
      "sk": 3590,
      "этом": 3591,
      "ames": 3592,
      "enn": 3593,
      "success": 3594,
      "рист": 3595,
      "ющий": 3596,
      "small": 3597,
      "вин": 3598,
      "incre": 3599,
      "слав": 3600,
      "remain": 3601,
      "мор": 3602,
      "вид": 3603,
      "No": 3604,
      "матиче": 3605,
      "Пре": 3606,
      "режисс": 3607,
      "Gree": 3608,
      "согла": 3609,
      "because": 3610,
      "Мос": 3611,
      "depend": 3612,
      "Ber": 3613,
      "ting": 3614,
      "член": 3615,
      "bert": 3616,
      "life": 3617,
      "ven": 3618,
      "генера": 3619,
      "view": 3620,
      "ired": 3621,
      "fun": 3622,
      "зан": 3623,
      "chan": 3624,
      "several": 3625,
      "один": 3626,
      "abl": 3627,
      "bas": 3628,
      "class": 3629,
      "зависимо": 3630,
      "дву": 3631,
      "tem": 3632,
      "organ": 3633,
      "ilit": 3634,
      "alian": 3635,
      "mark": 3636,
      "ука": 3637,
      "ях": 3638,
      "aking": 3639,
      "chool": 3640,
      "км": 3641,
      "твер": 3642,
      "право": 3643,
      "ides": 3644,
      "player": 3645,
      "ил": 3646,
      "неско": 3647,
      "ograp": 3648,
      "plac": 3649,
      "иссле": 3650,
      "ley": 3651,
      "author": 3652,
      "вто": 3653,
      "зма": 3654,
      "government": 3655,
      "fr": 3656,
      "acter": 3657,
      "2000": 3658,
      "aim": 3659,
      "ica": 3660,
      "ively": 3661,
      "using": 3662,
      "hum": 3663,
      "film": 3664,
      "descri": 3665,
      "direct": 3666,
      "ason": 3667,
      "allow": 3668,
      "есть": 3669,
      "имен": 3670,
      "gu": 3671,
      "Car": 3672,
      "После": 3673,
      "хра": 3674,
      "ius": 3675,
      "щее": 3676,
      "non": 3677,
      "кро": 3678,
      "Моск": 3679,
      "програм": 3680,
      "que": 3681,
      "тон": 3682,
      "mp": 3683,
      "Вла": 3684,
      "effect": 3685,
      "ices": 3686,
      "top": 3687,
      "cour": 3688,
      "где": 3689,
      "until": 3690,
      "первый": 3691,
      "ended": 3692,
      "ener": 3693,
      "2010": 3694,
      "There": 3695,
      "ouse": 3696,
      "значи": 3697,
      "побе": 3698,
      "вар": 3699,
      "современ": 3700,
      "attle": 3701,
      "arm": 3702,
      "different": 3703,
      "вен": 3704,
      "However": 3705,
      "XV": 3706,
      "пара": 3707,
      "держа": 3708,
      "Од": 3709,
      "архи": 3710,
      "light": 3711,
      "других": 3712,
      "вклю": 3713,
      "Те": 3714,
      "large": 3715,
      "шего": 3716,
      "проис": 3717,
      "Рес": 3718,
      "смо": 3719,
      "ator": 3720,
      "foot": 3721,
      "she": 3722,
      "бор": 3723,
      "Фе": 3724,
      "resp": 3725,
      "литера": 3726,
      "кие": 3727,
      "Alexand": 3728,
      "And": 3729,
      "bed": 3730,
      "ках": 3731,
      "крат": 3732,
      "дела": 3733,
      "работа": 3734,
      "example": 3735,
      "ряд": 3736,
      "University": 3737,
      "нови": 3738,
      "Russ": 3739,
      "moder": 3740,
      "death": 3741,
      "ner": 3742,
      "itions": 3743,
      "офи": 3744,
      "equ": 3745,
      "чу": 3746,
      "els": 3747,
      "2008": 3748,
      "stit": 3749,
      "американская": 3750,
      "app": 3751,
      "yl": 3752,
      "bod": 3753,
      "conom": 3754,
      "режиссёр": 3755,
      "poss": 3756,
      "uary": 3757,
      "Bar": 3758,
      "ья": 3759,
      "гов": 3760,
      "мой": 3761,
      "lit": 3762,
      "иль": 3763,
      "музы": 3764,
      "ternational": 3765,
      "обе": 3766,
      "Roman": 3767,
      "even": 3768,
      "ather": 3769,
      "ница": 3770,
      "ze": 3771,
      "ким": 3772,
      "основа": 3773,
      "Республи": 3774,
      "185": 3775,
      "establ": 3776,
      "import": 3777,
      "вает": 3778,
      "этого": 3779,
      "rad": 3780,
      "чно": 3781,
      "ock": 3782,
      "Air": 3783,
      "cle": 3784,
      "lim": 3785,
      "184": 3786,
      "чис": 3787,
      "cord": 3788,
      "tle": 3789,
      "французский": 3790,
      "power": 3791,
      "ляр": 3792,
      "строи": 3793,
      "cas": 3794,
      "2007": 3795,
      "mat": 3796,
      "ided": 3797,
      "head": 3798,
      "работ": 3799,
      "использу": 3800,
      "Pe": 3801,
      "ield": 3802,
      "ье": 3803,
      "put": 3804,
      "ристи": 3805,
      "тей": 3806,
      "include": 3807,
      "Никола": 3808,
      "щё": 3809,
      "мина": 3810,
      "run": 3811,
      "ues": 3812,
      "commun": 3813,
      "near": 3814,
      "Совет": 3815,
      "датель": 3816,
      "реги": 3817,
      "result": 3818,
      "шие": 3819,
      "мет": 3820,
      "vol": 3821,
      "Все": 3822,
      "XIX": 3823,
      "Му": 3824,
      "cult": 3825,
      "ствует": 3826,
      "лог": 3827,
      "show": 3828,
      "31": 3829,
      "ref": 3830,
      "person": 3831,
      "льной": 3832,
      "trib": 3833,
      "ственно": 3834,
      "вшие": 3835,
      "кня": 3836,
      "refer": 3837,
      "US": 3838,
      "сс": 3839,
      "мов": 3840,
      "2012": 3841,
      "Герма": 3842,
      "around": 3843,
      "2014": 3844,
      "стер": 3845,
      "2011": 3846,
      "water": 3847,
      "зм": 3848,
      "тего": 3849,
      "виде": 3850,
      "raft": 3851,
      "Так": 3852,
      "King": 3853,
      "Ge": 3854,
      "находи": 3855,
      "ger": 3856,
      "без": 3857,
      "language": 3858,
      "Ис": 3859,
      "националь": 3860,
      "ize": 3861,
      "случа": 3862,
      "цией": 3863,
      "кус": 3864,
      "президент": 3865,
      "period": 3866,
      "rele": 3867,
      "каде": 3868,
      "ister": 3869,
      "ланд": 3870,
      "сков": 3871,
      "2013": 3872,
      "2009": 3873,
      "Вер": 3874,
      "мирова": 3875,
      "кни": 3876,
      "ician": 3877,
      "div": 3878,
      "Бу": 3879,
      "exp": 3880,
      "чем": 3881,
      "помо": 3882,
      "bus": 3883,
      "льных": 3884,
      "Ap": 3885,
      "первые": 3886,
      "did": 3887,
      "Sc": 3888,
      "60": 3889,
      "рен": 3890,
      "артист": 3891,
      "pass": 3892,
      "Aug": 3893,
      "After": 3894,
      "South": 3895,
      "Пет": 3896,
      "Ри": 3897,
      "тар": 3898,
      "поги": 3899,
      "оз": 3900,
      "ками": 3901,
      "через": 3902,
      "мышлен": 3903,
      "лии": 3904,
      "appro": 3905,
      "Pl": 3906,
      "modern": 3907,
      "Влади": 3908,
      "поч": 3909,
      "логии": 3910,
      "дия": 3911,
      "ral": 3912,
      "mot": 3913,
      "глав": 3914,
      "опера": 3915,
      "когда": 3916,
      "поэт": 3917,
      "Hist": 3918,
      "вается": 3919,
      "struct": 3920,
      "go": 3921,
      "2005": 3922,
      "indu": 3923,
      "tal": 3924,
      "жён": 3925,
      "National": 3926,
      "XX": 3927,
      "импера": 3928,
      "wn": 3929,
      "They": 3930,
      "histor": 3931,
      "лле": 3932,
      "выбо": 3933,
      "харак": 3934,
      "team": 3935,
      "2006": 3936,
      "mov": 3937,
      "August": 3938,
      "those": 3939,
      "ilar": 3940,
      "offic": 3941,
      "100": 3942,
      "Gr": 3943,
      "very": 3944,
      "религи": 3945,
      "By": 3946,
      "hol": 3947,
      "министра": 3948,
      "щения": 3949,
      "iven": 3950,
      "призна": 3951,
      "ene": 3952,
      "мон": 3953,
      "нет": 3954,
      "arian": 3955,
      "Это": 3956,
      "ival": 3957,
      "process": 3958,
      "лимпи": 3959,
      "всех": 3960,
      "Ха": 3961,
      "Че": 3962,
      "among": 3963,
      "open": 3964,
      "ходит": 3965,
      "tic": 3966,
      "ised": 3967,
      "веро": 3968,
      "80": 3969,
      "миро": 3970,
      "немецкий": 3971,
      "сей": 3972,
      "place": 3973,
      "bit": 3974,
      "di": 3975,
      "бле": 3976,
      "скому": 3977,
      "country": 3978,
      "соответ": 3979,
      "bin": 3980,
      "test": 3981,
      "Ear": 3982,
      "револю": 3983,
      "une": 3984,
      "нау": 3985,
      "ague": 3986,
      "Укра": 3987,
      "omet": 3988,
      "omen": 3989,
      "дж": 3990,
      "быть": 3991,
      "руко": 3992,
      "iving": 3993,
      "Her": 3994,
      "компа": 3995,
      "Би": 3996,
      "день": 3997,
      "сою": 3998,
      "уров": 3999,
      "action": 4000,
      "control": 4001,
      "производ": 4002,
      "мия": 4003,
      "expl": 4004,
      "ai": 4005,
      "program": 4006,
      "ради": 4007,
      "искус": 4008,
      "area": 4009,
      "formed": 4010,
      "AS": 4011,
      "компози": 4012,
      "Пи": 4013,
      "hand": 4014,
      "зах": 4015,
      "долж": 4016,
      "series": 4017,
      "ждан": 4018,
      "фут": 4019,
      "ery": 4020,
      "тыся": 4021,
      "lands": 4022,
      "чин": 4023,
      "меня": 4024,
      "aving": 4025,
      "Лу": 4026,
      "использова": 4027,
      "born": 4028,
      "ступи": 4029,
      "Ти": 4030,
      "тики": 4031,
      "cell": 4032,
      "rest": 4033,
      "версите": 4034,
      "1990": 4035,
      "следу": 4036,
      "ards": 4037,
      "слова": 4038,
      "term": 4039,
      "ization": 4040,
      "каче": 4041,
      "рок": 4042,
      "craft": 4043,
      "циали": 4044,
      "мате": 4045,
      "techn": 4046,
      "2017": 4047,
      "2020": 4048,
      "войска": 4049,
      "ines": 4050,
      "стей": 4051,
      "рая": 4052,
      "эн": 4053,
      "ird": 4054,
      "которой": 4055,
      "ets": 4056,
      "ids": 4057,
      "Ag": 4058,
      "Pol": 4059,
      "годах": 4060,
      "ately": 4061,
      "самы": 4062,
      "rop": 4063,
      "2004": 4064,
      "Сер": 4065,
      "ified": 4066,
      "функ": 4067,
      "million": 4068,
      "зии": 4069,
      "ilitary": 4070,
      "2018": 4071,
      "much": 4072,
      "нен": 4073,
      "народный": 4074,
      "оне": 4075,
      "времени": 4076,
      "book": 4077,
      "yn": 4078,
      "70": 4079,
      "многи": 4080,
      "окру": 4081,
      "шта": 4082,
      "щего": 4083,
      "худож": 4084,
      "ross": 4085,
      "influ": 4086,
      "два": 4087,
      "2015": 4088,
      "typ": 4089,
      "вне": 4090,
      "дь": 4091,
      "лены": 4092,
      "began": 4093,
      "кло": 4094,
      "мире": 4095,
      "ternal": 4096,
      "econom": 4097,
      "разд": 4098,
      "ony": 4099,
      "дели": 4100,
      "due": 4101,
      "Вы": 4102,
      "представи": 4103,
      "inc": 4104,
      "Сан": 4105,
      "2016": 4106,
      "bur": 4107,
      "Ди": 4108,
      "sequ": 4109,
      "комп": 4110,
      "sl": 4111,
      "кая": 4112,
      "North": 4113,
      "song": 4114,
      "Ser": 4115,
      "ший": 4116,
      "urther": 4117,
      "These": 4118,
      "stat": 4119,
      "например": 4120,
      "continu": 4121,
      "thod": 4122,
      "belie": 4123,
      "проце": 4124,
      "ходя": 4125,
      "Ne": 4126,
      "gg": 4127,
      "pect": 4128,
      "спорт": 4129,
      "являются": 4130,
      "трен": 4131,
      "population": 4132,
      "All": 4133,
      "180": 4134,
      "return": 4135,
      "Greek": 4136,
      "osop": 4137,
      "шко": 4138,
      "льного": 4139,
      "hal": 4140,
      "base": 4141,
      "тика": 4142,
      "спи": 4143,
      "мона": 4144,
      "see": 4145,
      "position": 4146,
      "От": 4147,
      "коман": 4148,
      "британ": 4149,
      "бла": 4150,
      "строй": 4151,
      "память": 4152,
      "ственный": 4153,
      "den": 4154,
      "рода": 4155,
      "промышлен": 4156,
      "ork": 4157,
      "льные": 4158,
      "Cent": 4159,
      "what": 4160,
      "1991": 4161,
      "вом": 4162,
      "ilosop": 4163,
      "науч": 4164,
      "right": 4165,
      "тальян": 4166,
      "Вен": 4167,
      "within": 4168,
      "вших": 4169,
      "band": 4170,
      "вс": 4171,
      "количе": 4172,
      "ali": 4173,
      "ung": 4174,
      "группы": 4175,
      "claim": 4176,
      "183": 4177,
      "ческих": 4178,
      "ped": 4179,
      "поз": 4180,
      "различ": 4181,
      "чер": 4182,
      "стри": 4183,
      "history": 4184,
      "сторо": 4185,
      "contain": 4186,
      "His": 4187,
      "football": 4188,
      "ёх": 4189,
      "aster": 4190,
      "ческой": 4191,
      "2001": 4192,
      "pat": 4193,
      "following": 4194,
      "республи": 4195,
      "кова": 4196,
      "уре": 4197,
      "годы": 4198,
      "жизни": 4199,
      "Ио": 4200,
      "результате": 4201,
      "занима": 4202,
      "popular": 4203,
      "шь": 4204,
      "Миха": 4205,
      "возгла": 4206,
      "включа": 4207,
      "still": 4208,
      "истории": 4209,
      "Man": 4210,
      "независимо": 4211,
      "одно": 4212,
      "last": 4213,
      "усло": 4214,
      "Apol": 4215,
      "rece": 4216,
      "располо": 4217,
      "вну": 4218,
      "философ": 4219,
      "Arab": 4220,
      "йского": 4221,
      "ison": 4222,
      "Ro": 4223,
      "Пу": 4224,
      "Лю": 4225,
      "ently": 4226,
      "древ": 4227,
      "кви": 4228,
      "сцен": 4229,
      "2019": 4230,
      "Север": 4231,
      "ган": 4232,
      "ane": 4233,
      "Canad": 4234,
      "gre": 4235,
      "ением": 4236,
      "смер": 4237,
      "енно": 4238,
      "def": 4239,
      "similar": 4240,
      "Аль": 4241,
      "general": 4242,
      "чь": 4243,
      "ones": 4244,
      "электро": 4245,
      "ино": 4246,
      "млн": 4247,
      "Александр": 4248,
      "ove": 4249,
      "Bel": 4250,
      "кру": 4251,
      "правления": 4252,
      "ability": 4253,
      "Сою": 4254,
      "тегория": 4255,
      "уби": 4256,
      "гор": 4257,
      "свобо": 4258,
      "ament": 4259,
      "ights": 4260,
      "Пра": 4261,
      "York": 4262,
      "home": 4263,
      "Бер": 4264,
      "филь": 4265,
      "ственной": 4266,
      "Sch": 4267,
      "iam": 4268,
      "ness": 4269,
      "self": 4270,
      "конча": 4271,
      "государства": 4272,
      "report": 4273,
      "key": 4274,
      "учё": 4275,
      "cut": 4276,
      "ially": 4277,
      "импе": 4278,
      "estern": 4279,
      "дости": 4280,
      "mit": 4281,
      "ещё": 4282,
      "search": 4283,
      "mag": 4284,
      "along": 4285,
      "2003": 4286,
      "фон": 4287,
      "mb": 4288,
      "нем": 4289,
      "179": 4290,
      "down": 4291,
      "урна": 4292,
      "лена": 4293,
      "ham": 4294,
      "сом": 4295,
      "официаль": 4296,
      "рд": 4297,
      "гру": 4298,
      "итальян": 4299,
      "adem": 4300,
      "дет": 4301,
      "власти": 4302,
      "Some": 4303,
      "Анд": 4304,
      "системы": 4305,
      "compos": 4306,
      "Госу": 4307,
      "ктиче": 4308,
      "День": 4309,
      "шли": 4310,
      "Coun": 4311,
      "тыс": 4312,
      "music": 4313,
      "sch": 4314,
      "строитель": 4315,
      "уже": 4316,
      "prote": 4317,
      "considered": 4318,
      "пись": 4319,
      "университе": 4320,
      "иболее": 4321,
      "нами": 4322,
      "возмож": 4323,
      "дро": 4324,
      "vir": 4325,
      "record": 4326,
      "живо": 4327,
      "раб": 4328,
      "field": 4329,
      "станови": 4330,
      "posed": 4331,
      "вопро": 4332,
      "Will": 4333,
      "May": 4334,
      "anal": 4335,
      "ality": 4336,
      "всего": 4337,
      "ves": 4338,
      "хот": 4339,
      "туре": 4340,
      "anim": 4341,
      "вов": 4342,
      "start": 4343,
      "которая": 4344,
      "центра": 4345,
      "двух": 4346,
      "great": 4347,
      "способ": 4348,
      "ографи": 4349,
      "доста": 4350,
      "school": 4351,
      "цар": 4352,
      "месте": 4353,
      "child": 4354,
      "alth": 4355,
      "премь": 4356,
      "пас": 4357,
      "defin": 4358,
      "Велико": 4359,
      "Категория": 4360,
      "зер": 4361,
      "issu": 4362,
      "van": 4363,
      "side": 4364,
      "alk": 4365,
      "состав": 4366,
      "character": 4367,
      "лении": 4368,
      "short": 4369,
      "Государ": 4370,
      "Mon": 4371,
      "tradition": 4372,
      "Украи": 4373,
      "former": 4374,
      "хран": 4375,
      "уда": 4376,
      "композитор": 4377,
      "человека": 4378,
      "ведения": 4379,
      "сель": 4380,
      "2002": 4381,
      "attack": 4382,
      "ster": 4383,
      "Eng": 4384,
      "level": 4385,
      "нин": 4386,
      "диа": 4387,
      "переда": 4388,
      "ological": 4389,
      "formation": 4390,
      "личи": 4391,
      "другие": 4392,
      "rodu": 4393,
      "парла": 4394,
      "существо": 4395,
      "ске": 4396,
      "1999": 4397,
      "которого": 4398,
      "family": 4399,
      "left": 4400,
      "plic": 4401,
      "jo": 4402,
      "няя": 4403,
      "верх": 4404,
      "прин": 4405,
      "ried": 4406,
      "большо": 4407,
      "ches": 4408,
      "phys": 4409,
      "ступа": 4410,
      "ways": 4411,
      "God": 4412,
      "crit": 4413,
      "pri": 4414,
      "фри": 4415,
      "числе": 4416,
      "сут": 4417,
      "important": 4418,
      "сол": 4419,
      "щих": 4420,
      "период": 4421,
      "гло": 4422,
      "нах": 4423,
      "eder": 4424,
      "желез": 4425,
      "ff": 4426,
      "sw": 4427,
      "Apollo": 4428,
      "human": 4429,
      "кли": 4430,
      "particular": 4431,
      "Church": 4432,
      "журна": 4433,
      "writer": 4434,
      "just": 4435,
      "распростран": 4436,
      "острова": 4437,
      "инте": 4438,
      "cal": 4439,
      "тай": 4440,
      "Ed": 4441,
      "тами": 4442,
      "несколько": 4443,
      "Co": 4444,
      "имеет": 4445,
      "kill": 4446,
      "ety": 4447,
      "мето": 4448,
      "addition": 4449,
      "ler": 4450,
      "aut": 4451,
      "Ген": 4452,
      "ning": 4453,
      "коми": 4454,
      "град": 4455,
      "members": 4456,
      "влия": 4457,
      "zer": 4458,
      "ories": 4459,
      "published": 4460,
      "ристиан": 4461,
      "species": 4462,
      "net": 4463,
      "бя": 4464,
      "product": 4465,
      "35": 4466,
      "совер": 4467,
      "продол": 4468,
      "face": 4469,
      "хозя": 4470,
      "евро": 4471,
      "ank": 4472,
      "разде": 4473,
      "Ос": 4474,
      "автор": 4475,
      "Франции": 4476,
      "various": 4477,
      "ata": 4478,
      "хе": 4479,
      "стр": 4480,
      "Однако": 4481,
      "udd": 4482,
      "бург": 4483,
      "ays": 4484,
      "sour": 4485,
      "назна": 4486,
      "ument": 4487,
      "прия": 4488,
      "Gu": 4489,
      "рах": 4490,
      "годов": 4491,
      "ense": 4492,
      "ably": 4493,
      "анти": 4494,
      "tit": 4495,
      "матери": 4496,
      "экономиче": 4497,
      "national": 4498,
      "Фи": 4499,
      "activ": 4500,
      "acy": 4501,
      "Роди": 4502,
      "body": 4503,
      "oss": 4504,
      "каз": 4505,
      "Scot": 4506,
      "Min": 4507,
      "чной": 4508,
      "1980": 4509,
      "1992": 4510,
      "Me": 4511,
      "ration": 4512,
      "заклю": 4513,
      "логия": 4514,
      "apt": 4515,
      "мечания": 4516,
      "said": 4517,
      "game": 4518,
      "футбо": 4519,
      "Лени": 4520,
      "works": 4521,
      "largest": 4522,
      "др": 4523,
      "держи": 4524,
      "мета": 4525,
      "2021": 4526,
      "ales": 4527,
      "мене": 4528,
      "относи": 4529,
      "given": 4530,
      "виа": 4531,
      "prof": 4532,
      "uses": 4533,
      "ling": 4534,
      "нитель": 4535,
      "Ло": 4536,
      "зов": 4537,
      "площа": 4538,
      "represent": 4539,
      "числен": 4540,
      "кто": 4541,
      "mission": 4542,
      "расположен": 4543,
      "пря": 4544,
      "another": 4545,
      "ision": 4546,
      "городе": 4547,
      "ground": 4548,
      "European": 4549,
      "vi": 4550,
      "iness": 4551,
      "рин": 4552,
      "took": 4553,
      "могу": 4554,
      "шее": 4555,
      "труд": 4556,
      "fac": 4557,
      "atter": 4558,
      "полага": 4559,
      "vision": 4560,
      "бре": 4561,
      "ste": 4562,
      "Sy": 4563,
      "ris": 4564,
      "ческий": 4565,
      "степ": 4566,
      "aur": 4567,
      "Christian": 4568,
      "bir": 4569,
      "исследова": 4570,
      "tak": 4571,
      "military": 4572,
      "ru": 4573,
      "связи": 4574,
      "обре": 4575,
      "участ": 4576,
      "ites": 4577,
      "1996": 4578,
      "Примечания": 4579,
      "According": 4580,
      "сон": 4581,
      "ama": 4582,
      "там": 4583,
      "ческие": 4584,
      "мом": 4585,
      "Российской": 4586,
      "лки": 4587,
      "бан": 4588,
      "утвер": 4589,
      "РС": 4590,
      "late": 4591,
      "Char": 4592,
      "акаде": 4593,
      "английский": 4594,
      "town": 4595,
      "пан": 4596,
      "представ": 4597,
      "свой": 4598,
      "introdu": 4599,
      "образом": 4600,
      "When": 4601,
      "istic": 4602,
      "chang": 4603,
      "ither": 4604,
      "бира": 4605,
      "Исто": 4606,
      "beg": 4607,
      "Dav": 4608,
      "Sw": 4609,
      "nat": 4610,
      "without": 4611,
      "mean": 4612,
      "oks": 4613,
      "uter": 4614,
      "development": 4615,
      "Петер": 4616,
      "ему": 4617,
      "politician": 4618,
      "camp": 4619,
      "Jan": 4620,
      "exist": 4621,
      "developed": 4622,
      "ческого": 4623,
      "make": 4624,
      "every": 4625,
      "щение": 4626,
      "sty": 4627,
      "1994": 4628,
      "лением": 4629,
      "ats": 4630,
      "relig": 4631,
      "named": 4632,
      "однако": 4633,
      "упо": 4634,
      "usually": 4635,
      "Поль": 4636,
      "During": 4637,
      "кам": 4638,
      "сим": 4639,
      "Юж": 4640,
      "apan": 4641,
      "Nov": 4642,
      "сцена": 4643,
      "Ju": 4644,
      "prim": 4645,
      "We": 4646,
      "space": 4647,
      "брита": 4648,
      "изда": 4649,
      "single": 4650,
      "aul": 4651,
      "себя": 4652,
      "вз": 4653,
      "конце": 4654,
      "rote": 4655,
      "curren": 4656,
      "тных": 4657,
      "уча": 4658,
      "шёл": 4659,
      "1945": 4660,
      "pur": 4661,
      "премьер": 4662,
      "хозяй": 4663,
      "этому": 4664,
      "pract": 4665,
      "held": 4666,
      "states": 4667,
      "премии": 4668,
      "Боль": 4669,
      "init": 4670,
      "запад": 4671,
      "широ": 4672,
      "щий": 4673,
      "син": 4674,
      "выше": 4675,
      "One": 4676,
      "лла": 4677,
      "пов": 4678,
      "Ор": 4679,
      "шла": 4680,
      "ask": 4681,
      "Великобрита": 4682,
      "низ": 4683,
      "образова": 4684,
      "building": 4685,
      "rec": 4686,
      "production": 4687,
      "телем": 4688,
      "собы": 4689,
      "множе": 4690,
      "become": 4691,
      "художник": 4692,
      "IS": 4693,
      "ples": 4694,
      "государственный": 4695,
      "Alexander": 4696,
      "Japan": 4697,
      "tract": 4698,
      "forms": 4699,
      "cul": 4700,
      "pain": 4701,
      "подписа": 4702,
      "Jew": 4703,
      "Mo": 4704,
      "mun": 4705,
      "bar": 4706,
      "Med": 4707,
      "cop": 4708,
      "eas": 4709,
      "Он": 4710,
      "ходе": 4711,
      "собой": 4712,
      "граф": 4713,
      "ктор": 4714,
      "подоб": 4715,
      "лий": 4716,
      "лишь": 4717,
      "представля": 4718,
      "few": 4719,
      "чных": 4720,
      "augh": 4721,
      "кта": 4722,
      "Black": 4723,
      "архитек": 4724,
      "ctor": 4725,
      "range": 4726,
      "говор": 4727,
      "hip": 4728,
      "чё": 4729,
      "принима": 4730,
      "wrote": 4731,
      "included": 4732,
      "rown": 4733,
      "Mus": 4734,
      "1998": 4735,
      "IV": 4736,
      "West": 4737,
      "itch": 4738,
      "тради": 4739,
      "wards": 4740,
      "1970": 4741,
      "вей": 4742,
      "лиза": 4743,
      "пси": 4744,
      "model": 4745,
      "нан": 4746,
      "associ": 4747,
      "пя": 4748,
      "империи": 4749,
      "особ": 4750,
      "заи": 4751,
      "партии": 4752,
      "tele": 4753,
      "mult": 4754,
      "ям": 4755,
      "mid": 4756,
      "Гу": 4757,
      "Sept": 4758,
      "case": 4759,
      "ствии": 4760,
      "region": 4761,
      "although": 4762,
      "мень": 4763,
      "ivil": 4764,
      "unch": 4765,
      "наб": 4766,
      "дав": 4767,
      "75": 4768,
      "онов": 4769,
      "1989": 4770,
      "Ива": 4771,
      "ana": 4772,
      "lab": 4773,
      "рам": 4774,
      "astr": 4775,
      "начала": 4776,
      "генерал": 4777,
      "cing": 4778,
      "нару": 4779,
      "посе": 4780,
      "established": 4781,
      "ha": 4782,
      "граждан": 4783,
      "война": 4784,
      "ществ": 4785,
      "армии": 4786,
      "Geor": 4787,
      "олимпи": 4788,
      "2022": 4789,
      "восто": 4790,
      "Зем": 4791,
      "чёт": 4792,
      "Other": 4793,
      "гии": 4794,
      "proper": 4795,
      "Australian": 4796,
      "Cor": 4797,
      "need": 4798,
      "change": 4799,
      "written": 4800,
      "своей": 4801,
      "treat": 4802,
      "Per": 4803,
      "event": 4804,
      "качестве": 4805,
      "испол": 4806,
      "feat": 4807,
      "version": 4808,
      "five": 4809,
      "rul": 4810,
      "ths": 4811,
      "cially": 4812,
      "reach": 4813,
      "веду": 4814,
      "tra": 4815,
      "этой": 4816,
      "90": 4817,
      "function": 4818,
      "built": 4819,
      "78": 4820,
      "occur": 4821,
      "ificant": 4822,
      "ждение": 4823,
      "45": 4824,
      "ственного": 4825,
      "1995": 4826,
      "кин": 4827,
      "1920": 4828,
      "вести": 4829,
      "1997": 4830,
      "Ste": 4831,
      "1993": 4832,
      "ient": 4833,
      "чени": 4834,
      "Budd": 4835,
      "кс": 4836,
      "чтобы": 4837,
      "формирова": 4838,
      "нова": 4839,
      "xim": 4840,
      "redu": 4841,
      "season": 4842,
      "этот": 4843,
      "могут": 4844,
      "178": 4845,
      "comple": 4846,
      "local": 4847,
      "Националь": 4848,
      "название": 4849,
      "ющей": 4850,
      "тиво": 4851,
      "пада": 4852,
      "aged": 4853,
      "times": 4854,
      "ferences": 4855,
      "емо": 4856,
      "сни": 4857,
      "sold": 4858,
      "strong": 4859,
      "William": 4860,
      "сценарист": 4861,
      "Хо": 4862,
      "нам": 4863,
      "grow": 4864,
      "sent": 4865,
      "philosop": 4866,
      "Для": 4867,
      "real": 4868,
      "постро": 4869,
      "ены": 4870,
      "каж": 4871,
      "political": 4872,
      "ферен": 4873,
      "льная": 4874,
      "sugg": 4875,
      "suggest": 4876,
      "роль": 4877,
      "вица": 4878,
      "составляет": 4879,
      "Fe": 4880,
      "начи": 4881,
      "England": 4882,
      "stri": 4883,
      "nal": 4884,
      "ено": 4885,
      "муни": 4886,
      "пут": 4887,
      "лауре": 4888,
      "зако": 4889,
      "produced": 4890,
      "ФСР": 4891,
      "36": 4892,
      "conne": 4893,
      "гро": 4894,
      "закон": 4895,
      "played": 4896,
      "inning": 4897,
      "заня": 4898,
      "Li": 4899,
      "turn": 4900,
      "bet": 4901,
      "hic": 4902,
      "har": 4903,
      "Германии": 4904,
      "ops": 4905,
      "however": 4906,
      "empt": 4907,
      "бло": 4908,
      "иде": 4909,
      "Ant": 4910,
      "invol": 4911,
      "настоя": 4912,
      "стране": 4913,
      "позво": 4914,
      "храни": 4915,
      "grap": 4916,
      "объек": 4917,
      "significant": 4918,
      "ит": 4919,
      "языка": 4920,
      "Рус": 4921,
      "nov": 4922,
      "йских": 4923,
      "тысяч": 4924,
      "Свя": 4925,
      "word": 4926,
      "El": 4927,
      "AC": 4928,
      "установ": 4929,
      "веден": 4930,
      "1918": 4931,
      "ured": 4932,
      "РСФСР": 4933,
      "посто": 4934,
      "международ": 4935,
      "брь": 4936,
      "система": 4937,
      "ential": 4938,
      "aren": 4939,
      "cil": 4940,
      "ссии": 4941,
      "стали": 4942,
      "Oc": 4943,
      "mater": 4944,
      "ями": 4945,
      "шим": 4946,
      "bum": 4947,
      "object": 4948,
      "educ": 4949,
      "либо": 4950,
      "если": 4951,
      "укра": 4952,
      "мокра": 4953,
      "отношения": 4954,
      "History": 4955,
      "sto": 4956,
      "International": 4957,
      "roy": 4958,
      "aver": 4959,
      "ior": 4960,
      "placed": 4961,
      "кое": 4962,
      "измен": 4963,
      "Apr": 4964,
      "море": 4965,
      "юж": 4966,
      "интер": 4967,
      "original": 4968,
      "зей": 4969,
      "idence": 4970,
      "1960": 4971,
      "друго": 4972,
      "third": 4973,
      "противо": 4974,
      "лено": 4975,
      "September": 4976,
      "жении": 4977,
      "вобо": 4978,
      "command": 4979,
      "сма": 4980,
      "ston": 4981,
      "оке": 4982,
      "having": 4983,
      "актив": 4984,
      "оте": 4985,
      "воды": 4986,
      "сам": 4987,
      "больше": 4988,
      "six": 4989,
      "стана": 4990,
      "нения": 4991,
      "оп": 4992,
      "atom": 4993,
      "pen": 4994,
      "appear": 4995,
      "лауреат": 4996,
      "Ma": 4997,
      "гар": 4998,
      "38": 4999,
      "важ": 5000,
      "separ": 5001,
      "type": 5002,
      "take": 5003,
      "большин": 5004,
      "ссе": 5005,
      "певица": 5006,
      "зь": 5007,
      "философи": 5008,
      "празд": 5009,
      "среди": 5010,
      "роди": 5011,
      "aves": 5012,
      "Pres": 5013,
      "mass": 5014,
      "Union": 5015,
      "role": 5016,
      "значитель": 5017,
      "услови": 5018,
      "April": 5019,
      "правительство": 5020,
      "начале": 5021,
      "ivid": 5022,
      "evol": 5023,
      "язык": 5024,
      "Цен": 5025,
      "вают": 5026,
      "iction": 5027,
      "ogn": 5028,
      "Comp": 5029,
      "вари": 5030,
      "вода": 5031,
      "Act": 5032,
      "ствуют": 5033,
      "ption": 5034,
      "Федера": 5035,
      "Bur": 5036,
      "Bra": 5037,
      "Atl": 5038,
      "Lond": 5039,
      "глу": 5040,
      "мин": 5041,
      "ances": 5042,
      "мик": 5043,
      "log": 5044,
      "mic": 5045,
      "даль": 5046,
      "London": 5047,
      "rican": 5048,
      "groups": 5049,
      "европе": 5050,
      "голо": 5051,
      "north": 5052,
      "едини": 5053,
      "чные": 5054,
      "does": 5055,
      "лений": 5056,
      "эта": 5057,
      "olic": 5058,
      "systems": 5059,
      "дой": 5060,
      "ственных": 5061,
      "care": 5062,
      "acc": 5063,
      "ography": 5064,
      "idge": 5065,
      "бай": 5066,
      "темпера": 5067,
      "щён": 5068,
      "ometimes": 5069,
      "сил": 5070,
      "кур": 5071,
      "Между": 5072,
      "дорож": 5073,
      "countries": 5074,
      "Emp": 5075,
      "mber": 5076,
      "ald": 5077,
      "оборо": 5078,
      "sou": 5079,
      "37": 5080,
      "лёт": 5081,
      "обес": 5082,
      "встре": 5083,
      "cience": 5084,
      "released": 5085,
      "трёх": 5086,
      "bon": 5087,
      "proble": 5088,
      "ploy": 5089,
      "ствие": 5090,
      "обходи": 5091,
      "She": 5092,
      "ained": 5093,
      "экономи": 5094,
      "wid": 5095,
      "ссы": 5096,
      "house": 5097,
      "ОО": 5098,
      "впервые": 5099,
      "reed": 5100,
      "тая": 5101,
      "защи": 5102,
      "half": 5103,
      "нор": 5104,
      "served": 5105,
      "Литера": 5106,
      "Европе": 5107,
      "бран": 5108,
      "company": 5109,
      "AD": 5110,
      "содержа": 5111,
      "lines": 5112,
      "проду": 5113,
      "decl": 5114,
      "дри": 5115,
      "onom": 5116,
      "ристо": 5117,
      "Hol": 5118,
      "eth": 5119,
      "32": 5120,
      "vious": 5121,
      "text": 5122,
      "west": 5123,
      "поле": 5124,
      "социаль": 5125,
      "джа": 5126,
      "clos": 5127,
      "America": 5128,
      "служи": 5129,
      "stant": 5130,
      "энер": 5131,
      "Запад": 5132,
      "independ": 5133,
      "should": 5134,
      "post": 5135,
      "восточ": 5136,
      "constru": 5137,
      "anish": 5138,
      "June": 5139,
      "came": 5140,
      "христиан": 5141,
      "alt": 5142,
      "пута": 5143,
      "See": 5144,
      "January": 5145,
      "force": 5146,
      "inste": 5147,
      "48": 5148,
      "road": 5149,
      "material": 5150,
      "David": 5151,
      "педа": 5152,
      "65": 5153,
      "сад": 5154,
      "пли": 5155,
      "стала": 5156,
      "1988": 5157,
      "меди": 5158,
      "covered": 5159,
      "possible": 5160,
      "Ben": 5161,
      "fig": 5162,
      "References": 5163,
      "ом": 5164,
      "thus": 5165,
      "dev": 5166,
      "свою": 5167,
      "крупней": 5168,
      "AM": 5169,
      "ющая": 5170,
      "Япо": 5171,
      "вил": 5172,
      "July": 5173,
      "March": 5174,
      "study": 5175,
      "ремен": 5176,
      "research": 5177,
      "rael": 5178,
      "ката": 5179,
      "деся": 5180,
      "ctions": 5181,
      "atin": 5182,
      "ark": 5183,
      "languages": 5184,
      "others": 5185,
      "described": 5186,
      "wood": 5187,
      "возду": 5188,
      "Основ": 5189,
      "39": 5190,
      "sum": 5191,
      "обеспе": 5192,
      "get": 5193,
      "won": 5194,
      "tober": 5195,
      "City": 5196,
      "вала": 5197,
      "total": 5198,
      "российская": 5199,
      "Dece": 5200,
      "лод": 5201,
      "вец": 5202,
      "October": 5203,
      "espe": 5204,
      "гель": 5205,
      "Васи": 5206,
      "гип": 5207,
      "хода": 5208,
      "cir": 5209,
      "1979": 5210,
      "certain": 5211,
      "December": 5212,
      "организа": 5213,
      "Phil": 5214,
      "пыта": 5215,
      "помощ": 5216,
      "lam": 5217,
      "dro": 5218,
      "34": 5219,
      "выпу": 5220,
      "1986": 5221,
      "links": 5222,
      "Gener": 5223,
      "With": 5224,
      "either": 5225,
      "itive": 5226,
      "дования": 5227,
      "actor": 5228,
      "которое": 5229,
      "одной": 5230,
      "ification": 5231,
      "pot": 5232,
      "album": 5233,
      "пробле": 5234,
      "avy": 5235,
      "1941": 5236,
      "women": 5237,
      "дю": 5238,
      "list": 5239,
      "ends": 5240,
      "ждён": 5241,
      "father": 5242,
      "aly": 5243,
      "chem": 5244,
      "Empire": 5245,
      "theory": 5246,
      "информа": 5247,
      "произо": 5248,
      "mor": 5249,
      "даже": 5250,
      "church": 5251,
      "sure": 5252,
      "dra": 5253,
      "кана": 5254,
      "Day": 5255,
      "емых": 5256,
      "free": 5257,
      "individ": 5258,
      "BN": 5259,
      "aircraft": 5260,
      "правительства": 5261,
      "Ду": 5262,
      "Russian": 5263,
      "dest": 5264,
      "south": 5265,
      "Ту": 5266,
      "64": 5267,
      "style": 5268,
      "наиболее": 5269,
      "число": 5270,
      "thing": 5271,
      "футболист": 5272,
      "Spe": 5273,
      "жу": 5274,
      "король": 5275,
      "hor": 5276,
      "жде": 5277,
      "ющего": 5278,
      "сооб": 5279,
      "1984": 5280,
      "твор": 5281,
      "столи": 5282,
      "Согла": 5283,
      "соедин": 5284,
      "бит": 5285,
      "попу": 5286,
      "Des": 5287,
      "след": 5288,
      "ющим": 5289,
      "areas": 5290,
      "союз": 5291,
      "lear": 5292,
      "милли": 5293,
      "луч": 5294,
      "величи": 5295,
      "авиа": 5296,
      "current": 5297,
      "ником": 5298,
      "ged": 5299,
      "источ": 5300,
      "tribut": 5301,
      "ined": 5302,
      "alia": 5303,
      "кисло": 5304,
      "ford": 5305,
      "щие": 5306,
      "died": 5307,
      "sometimes": 5308,
      "Гла": 5309,
      "дат": 5310,
      "earli": 5311,
      "1972": 5312,
      "дли": 5313,
      "method": 5314,
      "Soc": 5315,
      "Arch": 5316,
      "кинорежиссёр": 5317,
      "тно": 5318,
      "меха": 5319,
      "моря": 5320,
      "istan": 5321,
      "anti": 5322,
      "фото": 5323,
      "Также": 5324,
      "джи": 5325,
      "мат": 5326,
      "cause": 5327,
      "termin": 5328,
      "направ": 5329,
      "дор": 5330,
      "1969": 5331,
      "scri": 5332,
      "чик": 5333,
      "деля": 5334,
      "движения": 5335,
      "mand": 5336,
      "астро": 5337,
      "ination": 5338,
      "отдель": 5339,
      "useum": 5340,
      "Sov": 5341,
      "Европы": 5342,
      "происхо": 5343,
      "syn": 5344,
      "класси": 5345,
      "итальянский": 5346,
      "far": 5347,
      "провозгла": 5348,
      "aries": 5349,
      "необходи": 5350,
      "Tur": 5351,
      "шло": 5352,
      "adv": 5353,
      "вшиеся": 5354,
      "меся": 5355,
      "East": 5356,
      "губер": 5357,
      "Soviet": 5358,
      "Ита": 5359,
      "ink": 5360,
      "ъе": 5361,
      "рами": 5362,
      "бере": 5363,
      "1987": 5364,
      "вии": 5365,
      "Гор": 5366,
      "iple": 5367,
      "nia": 5368,
      "министр": 5369,
      "Николай": 5370,
      "сматри": 5371,
      "business": 5372,
      "учи": 5373,
      "1981": 5374,
      "федера": 5375,
      "liter": 5376,
      "Республики": 5377,
      "tro": 5378,
      "1975": 5379,
      "восста": 5380,
      "France": 5381,
      "games": 5382,
      "meas": 5383,
      "service": 5384,
      "Гра": 5385,
      "Крас": 5386,
      "Cath": 5387,
      "November": 5388,
      "ports": 5389,
      "радио": 5390,
      "нского": 5391,
      "буду": 5392,
      "фика": 5393,
      "African": 5394,
      "dle": 5395,
      "нской": 5396,
      "official": 5397,
      "ов": 5398,
      "кол": 5399,
      "готов": 5400,
      "ades": 5401,
      "1917": 5402,
      "1976": 5403,
      "предло": 5404,
      "1968": 5405,
      "Вол": 5406,
      "кос": 5407,
      "Although": 5408,
      "матема": 5409,
      "natural": 5410,
      "ps": 5411,
      "1940": 5412,
      "менее": 5413,
      "singer": 5414,
      "ственные": 5415,
      "battle": 5416,
      "рим": 5417,
      "1944": 5418,
      "работы": 5419,
      "этих": 5420,
      "ming": 5421,
      "освобо": 5422,
      "котором": 5423,
      "держ": 5424,
      "Восточ": 5425,
      "украин": 5426,
      "bs": 5427,
      "Ал": 5428,
      "вало": 5429,
      "веке": 5430,
      "1985": 5431,
      "нению": 5432,
      "territ": 5433,
      "имя": 5434,
      "поня": 5435,
      "moved": 5436,
      "continued": 5437,
      "ille": 5438,
      "plan": 5439,
      "related": 5440,
      "свои": 5441,
      "relation": 5442,
      "76": 5443,
      "Egy": 5444,
      "моби": 5445,
      "black": 5446,
      "конструк": 5447,
      "Владимир": 5448,
      "ensive": 5449,
      "администра": 5450,
      "especially": 5451,
      "носи": 5452,
      "ency": 5453,
      "тах": 5454,
      "часто": 5455,
      "Литература": 5456,
      "Ги": 5457,
      "Har": 5458,
      "льку": 5459,
      "lection": 5460,
      "making": 5461,
      "нение": 5462,
      "нец": 5463,
      "Mor": 5464,
      "Part": 5465,
      "проек": 5466,
      "седа": 5467,
      "тых": 5468,
      "начало": 5469,
      "осуществ": 5470,
      "Испа": 5471,
      "Not": 5472,
      "лян": 5473,
      "1967": 5474,
      "1930": 5475,
      "бир": 5476,
      "умер": 5477,
      "99": 5478,
      "рию": 5479,
      "женщи": 5480,
      "1973": 5481,
      "чень": 5482,
      "наблю": 5483,
      "отнош": 5484,
      "оче": 5485,
      "forces": 5486,
      "hold": 5487,
      "ню": 5488,
      "1974": 5489,
      "neg": 5490,
      "fall": 5491,
      "host": 5492,
      "Москов": 5493,
      "вшая": 5494,
      "try": 5495,
      "must": 5496,
      "Egypt": 5497,
      "further": 5498,
      "вело": 5499,
      "жей": 5500,
      "transl": 5501,
      "compet": 5502,
      "ships": 5503,
      "выпол": 5504,
      "ток": 5505,
      "1982": 5506,
      "project": 5507,
      "1983": 5508,
      "религиоз": 5509,
      "La": 5510,
      "дипло": 5511,
      "власть": 5512,
      "capital": 5513,
      "Indian": 5514,
      "внутрен": 5515,
      "ournal": 5516,
      "board": 5517,
      "combin": 5518,
      "gar": 5519,
      "Сред": 5520,
      "ending": 5521,
      "cu": 5522,
      "рис": 5523,
      "запа": 5524,
      "пыт": 5525,
      "облада": 5526,
      "tom": 5527,
      "uel": 5528,
      "ush": 5529,
      "Bi": 5530,
      "слов": 5531,
      "launch": 5532,
      "55": 5533,
      "dam": 5534,
      "выс": 5535,
      "вую": 5536,
      "engine": 5537,
      "написа": 5538,
      "created": 5539,
      "accoun": 5540,
      "Port": 5541,
      "Ча": 5542,
      "иг": 5543,
      "ino": 5544,
      "священ": 5545,
      "воро": 5546,
      "контро": 5547,
      "1964": 5548,
      "своего": 5549,
      "bra": 5550,
      "Кро": 5551,
      "ули": 5552,
      "hib": 5553,
      "педаго": 5554,
      "hard": 5555,
      "сре": 5556,
      "находится": 5557,
      "tre": 5558,
      "imate": 5559,
      "External": 5560,
      "четы": 5561,
      "ief": 5562,
      "parts": 5563,
      "памят": 5564,
      "47": 5565,
      "compan": 5566,
      "Совета": 5567,
      "скоро": 5568,
      "выра": 5569,
      "minist": 5570,
      "вёр": 5571,
      "enced": 5572,
      "1971": 5573,
      "°C": 5574,
      "пода": 5575,
      "Москве": 5576,
      "AT": 5577,
      "льное": 5578,
      "sex": 5579,
      "ots": 5580,
      "ibr": 5581,
      "президента": 5582,
      "thes": 5583,
      "itect": 5584,
      "vo": 5585,
      "ancient": 5586,
      "клад": 5587,
      "While": 5588,
      "собра": 5589,
      "ains": 5590,
      "ограни": 5591,
      "successful": 5592,
      "To": 5593,
      "аб": 5594,
      "шую": 5595,
      "рит": 5596,
      "Ang": 5597,
      "Te": 5598,
      "ta": 5599,
      "least": 5600,
      "Джон": 5601,
      "мей": 5602,
      "lik": 5603,
      "Верхов": 5604,
      "пита": 5605,
      "ern": 5606,
      "языке": 5607,
      "member": 5608,
      "Res": 5609,
      "lor": 5610,
      "оружён": 5611,
      "цей": 5612,
      "1977": 5613,
      "League": 5614,
      "social": 5615,
      "ори": 5616,
      "нес": 5617,
      "модель": 5618,
      "тельных": 5619,
      "manag": 5620,
      "знача": 5621,
      "Англи": 5622,
      "era": 5623,
      "перио": 5624,
      "Earth": 5625,
      "ounced": 5626,
      "Atlant": 5627,
      "исклю": 5628,
      "how": 5629,
      "чный": 5630,
      "обя": 5631,
      "вол": 5632,
      "фло": 5633,
      "стар": 5634,
      "received": 5635,
      "Su": 5636,
      "вшего": 5637,
      "ara": 5638,
      "север": 5639,
      "КП": 5640,
      "золо": 5641,
      "почти": 5642,
      "1978": 5643,
      "previous": 5644,
      "Ком": 5645,
      "final": 5646,
      "good": 5647,
      "generally": 5648,
      "fire": 5649,
      "OS": 5650,
      "500": 5651,
      "data": 5652,
      "Пред": 5653,
      "isto": 5654,
      "своих": 5655,
      "церков": 5656,
      "round": 5657,
      "имени": 5658,
      "sem": 5659,
      "beh": 5660,
      "rather": 5661,
      "33": 5662,
      "Em": 5663,
      "44": 5664,
      "конститу": 5665,
      "Germany": 5666,
      "экспе": 5667,
      "wide": 5668,
      "неф": 5669,
      "Afric": 5670,
      "mal": 5671,
      "oto": 5672,
      "семь": 5673,
      "Great": 5674,
      "дво": 5675,
      "special": 5676,
      "цкий": 5677,
      "частности": 5678,
      "принци": 5679,
      "участи": 5680,
      "лами": 5681,
      "борь": 5682,
      "quest": 5683,
      "1939": 5684,
      "второй": 5685,
      "Roy": 5686,
      "пле": 5687,
      "лл": 5688,
      "кратный": 5689,
      "spir": 5690,
      "priv": 5691,
      "зада": 5692,
      "ull": 5693,
      "avail": 5694,
      "бро": 5695,
      "зде": 5696,
      "ape": 5697,
      "oung": 5698,
      "hem": 5699,
      "vict": 5700,
      "нев": 5701,
      "док": 5702,
      "domin": 5703,
      "ментов": 5704,
      "ney": 5705,
      "будет": 5706,
      "1966": 5707,
      "иностран": 5708,
      "захва": 5709,
      "оказа": 5710,
      "trav": 5711,
      "жил": 5712,
      "цами": 5713,
      "погиб": 5714,
      "children": 5715,
      "1962": 5716,
      "основан": 5717,
      "food": 5718,
      "био": 5719,
      "Mc": 5720,
      "сня": 5721,
      "демокра": 5722,
      "писы": 5723,
      "footballer": 5724,
      "Latin": 5725,
      "Бар": 5726,
      "asing": 5727,
      "моно": 5728,
      "имеют": 5729,
      "Bor": 5730,
      "ows": 5731,
      "ago": 5732,
      "министро": 5733,
      "продук": 5734,
      "cast": 5735,
      "тому": 5736,
      "consist": 5737,
      "писи": 5738,
      "150": 5739,
      "acid": 5740,
      "Союза": 5741,
      "pha": 5742,
      "attempt": 5743,
      "days": 5744,
      "внеш": 5745,
      "Согласно": 5746,
      "Pal": 5747,
      "показа": 5748,
      "lower": 5749,
      "suf": 5750,
      "temper": 5751,
      "vert": 5752,
      "данным": 5753,
      "ам": 5754,
      "opt": 5755,
      "1965": 5756,
      "General": 5757,
      "next": 5758,
      "нией": 5759,
      "seen": 5760,
      "interest": 5761,
      "concer": 5762,
      "Кали": 5763,
      "транспорт": 5764,
      "хан": 5765,
      "schol": 5766,
      "лича": 5767,
      "ements": 5768,
      "постоян": 5769,
      "Paul": 5770,
      "aud": 5771,
      "шу": 5772,
      "бой": 5773,
      "бес": 5774,
      "Art": 5775,
      "ek": 5776,
      "Italian": 5777,
      "ply": 5778,
      "aff": 5779,
      "taken": 5780,
      "hab": 5781,
      "recogn": 5782,
      "win": 5783,
      "появи": 5784,
      "ators": 5785,
      "тирова": 5786,
      "ope": 5787,
      "мировой": 5788,
      "bish": 5789,
      "Ана": 5790,
      "циа": 5791,
      "продю": 5792,
      "теории": 5793,
      "ква": 5794,
      "1942": 5795,
      "Lu": 5796,
      "scient": 5797,
      "1950": 5798,
      "гей": 5799,
      "певец": 5800,
      "фан": 5801,
      "20th": 5802,
      "Kingdom": 5803,
      "bes": 5804,
      "rate": 5805,
      "himself": 5806,
      "Украины": 5807,
      "образования": 5808,
      "чего": 5809,
      "спорта": 5810,
      "1943": 5811,
      "whe": 5812,
      "гом": 5813,
      "ountain": 5814,
      "развития": 5815,
      "Пар": 5816,
      "сия": 5817,
      "массо": 5818,
      "party": 5819,
      "fail": 5820,
      "ned": 5821,
      "сами": 5822,
      "Canadian": 5823,
      "ising": 5824,
      "utch": 5825,
      "партия": 5826,
      "broad": 5827,
      "всё": 5828,
      "cus": 5829,
      "права": 5830,
      "количество": 5831,
      "ique": 5832,
      "това": 5833,
      "ётся": 5834,
      "стату": 5835,
      "rac": 5836,
      "1919": 5837,
      "заимо": 5838,
      "Press": 5839,
      "never": 5840,
      "ours": 5841,
      "чей": 5842,
      "Western": 5843,
      "ring": 5844,
      "Нобе": 5845,
      "культур": 5846,
      "Apple": 5847,
      "История": 5848,
      "Many": 5849,
      "Виль": 5850,
      "zil": 5851,
      "army": 5852,
      "computer": 5853,
      "форму": 5854,
      "продюсер": 5855,
      "взя": 5856,
      "rew": 5857,
      "ческая": 5858,
      "regard": 5859,
      "market": 5860,
      "Mac": 5861,
      "стать": 5862,
      "hydro": 5863,
      "Ново": 5864,
      "Book": 5865,
      "Собы": 5866,
      "inal": 5867,
      "оло": 5868,
      "надле": 5869,
      "experi": 5870,
      "первая": 5871,
      "1963": 5872,
      "Most": 5873,
      "feder": 5874,
      "ront": 5875,
      "левской": 5876,
      "очень": 5877,
      "Army": 5878,
      "1961": 5879,
      "books": 5880,
      "описа": 5881,
      "тый": 5882,
      "akes": 5883,
      "49": 5884,
      "ties": 5885,
      "iment": 5886,
      "туга": 5887,
      "Sea": 5888,
      "300": 5889,
      "эпо": 5890,
      "действия": 5891,
      "accept": 5892,
      "печа": 5893,
      "Бело": 5894,
      "fort": 5895,
      "mod": 5896,
      "церкви": 5897,
      "стороны": 5898,
      "Africa": 5899,
      "Центра": 5900,
      "казыва": 5901,
      "ерт": 5902,
      "События": 5903,
      "озе": 5904,
      "евич": 5905,
      "ases": 5906,
      "170": 5907,
      "первой": 5908,
      "founded": 5909,
      "лению": 5910,
      "1938": 5911,
      "international": 5912,
      "ole": 5913,
      "основном": 5914,
      "na": 5915,
      "главе": 5916,
      "Brazil": 5917,
      "emp": 5918,
      "Чер": 5919,
      "бю": 5920,
      "решение": 5921,
      "words": 5922,
      "характер": 5923,
      "Battle": 5924,
      "Sm": 5925,
      "express": 5926,
      "standard": 5927,
      "нодорож": 5928,
      "If": 5929,
      "god": 5930,
      "sal": 5931,
      "ляет": 5932,
      "стой": 5933,
      "toge": 5934,
      "тике": 5935,
      "перевод": 5936,
      "емые": 5937,
      "сме": 5938,
      "academ": 5939,
      "ссажи": 5940,
      "1947": 5941,
      "парламент": 5942,
      "fem": 5943,
      "Пор": 5944,
      "тил": 5945,
      "доку": 5946,
      "славя": 5947,
      "Catholic": 5948,
      "offer": 5949,
      "iety": 5950,
      "суб": 5951,
      "frequ": 5952,
      "выми": 5953,
      "драма": 5954,
      "story": 5955,
      "aper": 5956,
      "prop": 5957,
      "затем": 5958,
      "стол": 5959,
      "ведён": 5960,
      "реки": 5961,
      "мед": 5962,
      "поддерж": 5963,
      "рения": 5964,
      "завер": 5965,
      "мас": 5966,
      "случае": 5967,
      "My": 5968,
      "star": 5969,
      "педагог": 5970,
      "together": 5971,
      "1946": 5972,
      "формы": 5973,
      "природ": 5974,
      "хотя": 5975,
      "President": 5976,
      "dou": 5977,
      "хро": 5978,
      "indic": 5979,
      "subject": 5980,
      "Bul": 5981,
      "ющее": 5982,
      "stre": 5983,
      "ify": 5984,
      "игра": 5985,
      "68": 5986,
      "Кор": 5987,
      "Бал": 5988,
      "Пла": 5989,
      "ering": 5990,
      "Народ": 5991,
      "Australia": 5992,
      "ктически": 5993,
      "Scott": 5994,
      "court": 5995,
      "Амери": 5996,
      "свобод": 5997,
      "oid": 5998,
      "1900": 5999,
      "iles": 6000,
      "respon": 6001,
      "перед": 6002,
      "оцен": 6003,
      "реали": 6004,
      "outs": 6005,
      "exper": 6006,
      "определён": 6007,
      "almost": 6008,
      "comes": 6009,
      "Israel": 6010,
      "India": 6011,
      "icy": 6012,
      "ceed": 6013,
      "followed": 6014,
      "эро": 6015,
      "best": 6016,
      "избран": 6017,
      "employ": 6018,
      "ведение": 6019,
      "went": 6020,
      "депута": 6021,
      "pite": 6022,
      "above": 6023,
      "менты": 6024,
      "Сто": 6025,
      "tour": 6026,
      "fri": 6027,
      "дово": 6028,
      "profess": 6029,
      "List": 6030,
      "ges": 6031,
      "Тур": 6032,
      "писко": 6033,
      "Sou": 6034,
      "лина": 6035,
      "white": 6036,
      "1937": 6037,
      "Великобритании": 6038,
      "Hen": 6039,
      "Констан": 6040,
      "industr": 6041,
      "reported": 6042,
      "тельной": 6043,
      "ington": 6044,
      "торов": 6045,
      "available": 6046,
      "means": 6047,
      "State": 6048,
      "ought": 6049,
      "требо": 6050,
      "военный": 6051,
      "iers": 6052,
      "ishing": 6053,
      "порт": 6054,
      "Jer": 6055,
      "saw": 6056,
      "принадле": 6057,
      "Россия": 6058,
      "1922": 6059,
      "higher": 6060,
      "sen": 6061,
      "запре": 6062,
      "medi": 6063,
      "energy": 6064,
      "House": 6065,
      "nit": 6066,
      "Гре": 6067,
      "Albert": 6068,
      "crew": 6069,
      "architect": 6070,
      "meaning": 6071,
      "Athen": 6072,
      "Cam": 6073,
      "руковод": 6074,
      "кресть": 6075,
      "Dutch": 6076,
      "San": 6077,
      "тельные": 6078,
      "ume": 6079,
      "Под": 6080,
      "объяви": 6081,
      "numbers": 6082,
      "upon": 6083,
      "rain": 6084,
      "людей": 6085,
      "получа": 6086,
      "Раз": 6087,
      "Санкт": 6088,
      "mathem": 6089,
      "психо": 6090,
      "крас": 6091,
      "ваются": 6092,
      "дел": 6093,
      "войск": 6094,
      "специаль": 6095,
      "Тро": 6096,
      "according": 6097,
      "основе": 6098,
      "одним": 6099,
      "throughout": 6100,
      "across": 6101,
      "prob": 6102,
      "Febr": 6103,
      "constit": 6104,
      "сылки": 6105,
      "Афри": 6106,
      "ог": 6107,
      "силы": 6108,
      "Май": 6109,
      "чного": 6110,
      "тельное": 6111,
      "партий": 6112,
      "introduced": 6113,
      "astern": 6114,
      "мена": 6115,
      "complex": 6116,
      "Фри": 6117,
      "эр": 6118,
      "arily": 6119,
      "сохрани": 6120,
      "designed": 6121,
      "February": 6122,
      "sof": 6123,
      "viron": 6124,
      "дена": 6125,
      "взаимо": 6126,
      "jan": 6127,
      "culture": 6128,
      "популяр": 6129,
      "сохран": 6130,
      "Trans": 6131,
      "компью": 6132,
      "Qu": 6133,
      "течение": 6134,
      "полови": 6135,
      "recent": 6136,
      "evidence": 6137,
      "1958": 6138,
      "доль": 6139,
      "Spanish": 6140,
      "economic": 6141,
      "продолжа": 6142,
      "значение": 6143,
      "tail": 6144,
      "terms": 6145,
      "цент": 6146,
      "sel": 6147,
      "mother": 6148,
      "правля": 6149,
      "television": 6150,
      "hon": 6151,
      "пассажи": 6152,
      "олимпийский": 6153,
      "ене": 6154,
      "aint": 6155,
      "поля": 6156,
      "president": 6157,
      "colon": 6158,
      "метро": 6159,
      "сказа": 6160,
      "1956": 6161,
      "capt": 6162,
      "Po": 6163,
      "две": 6164,
      "еписко": 6165,
      "япо": 6166,
      "full": 6167,
      "Since": 6168,
      "active": 6169,
      "инди": 6170,
      "институ": 6171,
      "From": 6172,
      "Lin": 6173,
      "Нор": 6174,
      "драматур": 6175,
      "гео": 6176,
      "54": 6177,
      "Sam": 6178,
      "като": 6179,
      "Ru": 6180,
      "ken": 6181,
      "све": 6182,
      "George": 6183,
      "настоящее": 6184,
      "Mid": 6185,
      "Mod": 6186,
      "aign": 6187,
      "проте": 6188,
      "central": 6189,
      "Thom": 6190,
      "thought": 6191,
      "berg": 6192,
      "Angl": 6193,
      "ben": 6194,
      "19th": 6195,
      "Fir": 6196,
      "Рим": 6197,
      "создан": 6198,
      "inte": 6199,
      "Vol": 6200,
      "cup": 6201,
      "Им": 6202,
      "жений": 6203,
      "entire": 6204,
      "creen": 6205,
      "треб": 6206,
      "CO": 6207,
      "мл": 6208,
      "риж": 6209,
      "циона": 6210,
      "coming": 6211,
      "циалистиче": 6212,
      "некоторых": 6213,
      "фици": 6214,
      "players": 6215,
      "size": 6216,
      "вшей": 6217,
      "ints": 6218,
      "рина": 6219,
      "Ленин": 6220,
      "особенно": 6221,
      "пост": 6222,
      "бело": 6223,
      "1948": 6224,
      "ООН": 6225,
      "VI": 6226,
      "fav": 6227,
      "зон": 6228,
      "позд": 6229,
      "uments": 6230,
      "очеред": 6231,
      "лова": 6232,
      "ults": 6233,
      "invest": 6234,
      "James": 6235,
      "эф": 6236,
      "успе": 6237,
      "cret": 6238,
      "poet": 6239,
      "химиче": 6240,
      "цов": 6241,
      "ныне": 6242,
      "бар": 6243,
      "фрон": 6244,
      "aining": 6245,
      "ateg": 6246,
      "ходят": 6247,
      "located": 6248,
      "Кроме": 6249,
      "гни": 6250,
      "Rich": 6251,
      "vot": 6252,
      "разме": 6253,
      "grad": 6254,
      "Park": 6255,
      "value": 6256,
      "многих": 6257,
      "Поли": 6258,
      "Воз": 6259,
      "Afgh": 6260,
      "construction": 6261,
      "58": 6262,
      "doc": 6263,
      "Иван": 6264,
      "см": 6265,
      "сона": 6266,
      "elements": 6267,
      "пое": 6268,
      "abs": 6269,
      "except": 6270,
      "русской": 6271,
      "efore": 6272,
      "начина": 6273,
      "evolution": 6274,
      "ото": 6275,
      "вок": 6276,
      "тельного": 6277,
      "ата": 6278,
      "гля": 6279,
      "тиру": 6280,
      "стало": 6281,
      "160": 6282,
      "личие": 6283,
      "iter": 6284,
      "religious": 6285,
      "ССР": 6286,
      "cost": 6287,
      "1925": 6288,
      "ступил": 6289,
      "hom": 6290,
      "ux": 6291,
      "тю": 6292,
      "веща": 6293,
      "ket": 6294,
      "rich": 6295,
      "imp": 6296,
      "quar": 6297,
      "disc": 6298,
      "использо": 6299,
      "Pers": 6300,
      "поте": 6301,
      "Михаил": 6302,
      "Мон": 6303,
      "ula": 6304,
      "lost": 6305,
      "civil": 6306,
      "ls": 6307,
      "срав": 6308,
      "1929": 6309,
      "Lou": 6310,
      "1957": 6311,
      "оконча": 6312,
      "мана": 6313,
      "объедин": 6314,
      "ram": 6315,
      "проводи": 6316,
      "возник": 6317,
      "музыка": 6318,
      "Pri": 6319,
      "club": 6320,
      "суль": 6321,
      "организации": 6322,
      "instead": 6323,
      "Бы": 6324,
      "музыкан": 6325,
      "Japanese": 6326,
      "чай": 6327,
      "философии": 6328,
      "condu": 6329,
      "зопас": 6330,
      "ria": 6331,
      "посред": 6332,
      "водо": 6333,
      "льным": 6334,
      "Reg": 6335,
      "High": 6336,
      "менталь": 6337,
      "избира": 6338,
      "numer": 6339,
      "Пере": 6340,
      "average": 6341,
      "нист": 6342,
      "скольку": 6343,
      "сторон": 6344,
      "tru": 6345,
      "Pat": 6346,
      "away": 6347,
      "associated": 6348,
      "mach": 6349,
      "рыв": 6350,
      "предприя": 6351,
      "русского": 6352,
      "feature": 6353,
      "altern": 6354,
      "ideo": 6355,
      "whose": 6356,
      "surface": 6357,
      "find": 6358,
      "respect": 6359,
      "общества": 6360,
      "structure": 6361,
      "1914": 6362,
      "access": 6363,
      "1949": 6364,
      "Dis": 6365,
      "нём": 6366,
      "нас": 6367,
      "alg": 6368,
      "amb": 6369,
      "смерти": 6370,
      "таких": 6371,
      "тря": 6372,
      "тельство": 6373,
      "служ": 6374,
      "многие": 6375,
      "66": 6376,
      "общи": 6377,
      "Armen": 6378,
      "Dem": 6379,
      "lay": 6380,
      "information": 6381,
      "муж": 6382,
      "1928": 6383,
      "Фили": 6384,
      "риаль": 6385,
      "тет": 6386,
      "никами": 6387,
      "лью": 6388,
      "ounds": 6389,
      "экс": 6390,
      "культуры": 6391,
      "компании": 6392,
      "itself": 6393,
      "Федерации": 6394,
      "hit": 6395,
      "Вто": 6396,
      "пора": 6397,
      "ioned": 6398,
      "teach": 6399,
      "центр": 6400,
      "Royal": 6401,
      "atively": 6402,
      "драматург": 6403,
      "gun": 6404,
      "речи": 6405,
      "значения": 6406,
      "станции": 6407,
      "связан": 6408,
      "AP": 6409,
      "anth": 6410,
      "Islam": 6411,
      "ун": 6412,
      "находя": 6413,
      "сор": 6414,
      "обнару": 6415,
      "1921": 6416,
      "ностей": 6417,
      "вича": 6418,
      "Нача": 6419,
      "1933": 6420,
      "щую": 6421,
      "дома": 6422,
      "бом": 6423,
      "Конститу": 6424,
      "Mich": 6425,
      "River": 6426,
      "жды": 6427,
      "император": 6428,
      "Govern": 6429,
      "1924": 6430,
      "бога": 6431,
      "стоит": 6432,
      "1926": 6433,
      "получил": 6434,
      "млрд": 6435,
      "mig": 6436,
      "отсут": 6437,
      "ount": 6438,
      "ean": 6439,
      "sat": 6440,
      "Его": 6441,
      "провин": 6442,
      "ЦК": 6443,
      "surv": 6444,
      "историк": 6445,
      "burg": 6446,
      "acqu": 6447,
      "тельный": 6448,
      "библи": 6449,
      "двига": 6450,
      "lack": 6451,
      "1936": 6452,
      "nic": 6453,
      "pread": 6454,
      "Памя": 6455,
      "tware": 6456,
      "particularly": 6457,
      "academic": 6458,
      "Аб": 6459,
      "лирова": 6460,
      "катери": 6461,
      "устрой": 6462,
      "ored": 6463,
      "аре": 6464,
      "пти": 6465,
      "ribut": 6466,
      "movement": 6467,
      "АН": 6468,
      "имено": 6469,
      "oil": 6470,
      "гна": 6471,
      "числа": 6472,
      "utes": 6473,
      "суд": 6474,
      "строфа": 6475,
      "Frank": 6476,
      "likely": 6477,
      "once": 6478,
      "clear": 6479,
      "назначен": 6480,
      "Mic": 6481,
      "Среди": 6482,
      "мало": 6483,
      "Фин": 6484,
      "вместе": 6485,
      "гну": 6486,
      "производи": 6487,
      "uck": 6488,
      "bran": 6489,
      "rock": 6490,
      "полно": 6491,
      "ландии": 6492,
      "allowed": 6493,
      "руководи": 6494,
      "Charles": 6495,
      "rem": 6496,
      "First": 6497,
      "Red": 6498,
      "вле": 6499,
      "новых": 6500,
      "тельности": 6501,
      "commer": 6502,
      "director": 6503,
      "Ман": 6504,
      "цио": 6505,
      "ixed": 6506,
      "67": 6507,
      "gas": 6508,
      "actions": 6509,
      "island": 6510,
      "некоторые": 6511,
      "пользова": 6512,
      "han": 6513,
      "Гри": 6514,
      "ert": 6515,
      "center": 6516,
      "east": 6517,
      "peror": 6518,
      "1932": 6519,
      "учения": 6520,
      "specific": 6521,
      "различных": 6522,
      "Afghan": 6523,
      "швед": 6524,
      "mos": 6525,
      "гг": 6526,
      "такие": 6527,
      "маши": 6528,
      "ственное": 6529,
      "область": 6530,
      "Gro": 6531,
      "Екатери": 6532,
      "ект": 6533,
      "опубли": 6534,
      "2023": 6535,
      "exe": 6536,
      "1959": 6537,
      "1905": 6538,
      "ysis": 6539,
      "Том": 6540,
      "TV": 6541,
      "screen": 6542,
      "сбор": 6543,
      "tained": 6544,
      "approxim": 6545,
      "Ссылки": 6546,
      "Нобелевской": 6547,
      "чён": 6548,
      "прекра": 6549,
      "ябрь": 6550,
      "рассматри": 6551,
      "nuc": 6552,
      "мель": 6553,
      "cit": 6554,
      "pp": 6555,
      "umb": 6556,
      "events": 6557,
      "ka": 6558,
      "sit": 6559,
      "referred": 6560,
      "Bas": 6561,
      "42": 6562,
      "ns": 6563,
      "пен": 6564,
      "inct": 6565,
      "rail": 6566,
      "rought": 6567,
      "resist": 6568,
      "Alf": 6569,
      "школы": 6570,
      "происхождения": 6571,
      "88": 6572,
      "Дми": 6573,
      "sea": 6574,
      "достаточ": 6575,
      "campaign": 6576,
      "Если": 6577,
      "Лон": 6578,
      "поверх": 6579,
      "государство": 6580,
      "Кана": 6581,
      "XVIII": 6582,
      "Mart": 6583,
      "Ша": 6584,
      "сфе": 6585,
      "симво": 6586,
      "иму": 6587,
      "тию": 6588,
      "estim": 6589,
      "плане": 6590,
      "names": 6591,
      "ISBN": 6592,
      "Cong": 6593,
      "site": 6594,
      "президентом": 6595,
      "mir": 6596,
      "Зе": 6597,
      "щем": 6598,
      "atch": 6599,
      "lege": 6600,
      "Americ": 6601,
      "Ze": 6602,
      "bot": 6603,
      "космо": 6604,
      "лон": 6605,
      "forman": 6606,
      "бое": 6607,
      "изобра": 6608,
      "политик": 6609,
      "increased": 6610,
      "используется": 6611,
      "baseball": 6612,
      "журналист": 6613,
      "novel": 6614,
      "помощью": 6615,
      "поста": 6616,
      "матические": 6617,
      "gave": 6618,
      "цист": 6619,
      "полностью": 6620,
      "характери": 6621,
      "шем": 6622,
      "help": 6623,
      "теоре": 6624,
      "influence": 6625,
      "producer": 6626,
      "назва": 6627,
      "59": 6628,
      "omb": 6629,
      "раст": 6630,
      "сотруд": 6631,
      "agon": 6632,
      "actress": 6633,
      "1934": 6634,
      "Президен": 6635,
      "Bu": 6636,
      "чная": 6637,
      "traditional": 6638,
      "43": 6639,
      "Im": 6640,
      "тина": 6641,
      "ляется": 6642,
      "know": 6643,
      "remained": 6644,
      "Роб": 6645,
      "визи": 6646,
      "source": 6647,
      "announced": 6648,
      "Ot": 6649,
      "77": 6650,
      "Ян": 6651,
      "osp": 6652,
      "1935": 6653,
      "foc": 6654,
      "seven": 6655,
      "секре": 6656,
      "percent": 6657,
      "regular": 6658,
      "техниче": 6659,
      "aps": 6660,
      "короля": 6661,
      "nel": 6662,
      "ева": 6663,
      "пала": 6664,
      "техно": 6665,
      "льд": 6666,
      "Gl": 6667,
      "rights": 6668,
      "сокра": 6669,
      "ving": 6670,
      "лер": 6671,
      "бого": 6672,
      "consider": 6673,
      "последова": 6674,
      "1923": 6675,
      "управления": 6676,
      "доне": 6677,
      "туа": 6678,
      "pon": 6679,
      "uries": 6680,
      "слож": 6681,
      "films": 6682,
      "побереж": 6683,
      "британский": 6684,
      "viol": 6685,
      "School": 6686,
      "указа": 6687,
      "стин": 6688,
      "includes": 6689,
      "автомоби": 6690,
      "ficult": 6691,
      "vironment": 6692,
      "Нью": 6693,
      "договор": 6694,
      "Коро": 6695,
      "election": 6696,
      "tax": 6697,
      "наро": 6698,
      "одного": 6699,
      "Further": 6700,
      "journal": 6701,
      "Фа": 6702,
      "zo": 6703,
      "рю": 6704,
      "сфер": 6705,
      "чеб": 6706,
      "writing": 6707,
      "Карл": 6708,
      "согласно": 6709,
      "необходимо": 6710,
      "ап": 6711,
      "шки": 6712,
      "лам": 6713,
      "community": 6714,
      "Robert": 6715,
      "ked": 6716,
      "ност": 6717,
      "рождения": 6718,
      "1954": 6719,
      "critic": 6720,
      "ael": 6721,
      "лег": 6722,
      "обычно": 6723,
      "Museum": 6724,
      "jud": 6725,
      "Ху": 6726,
      "atory": 6727,
      "севе": 6728,
      "зербай": 6729,
      "середи": 6730,
      "первым": 6731,
      "советская": 6732,
      "title": 6733,
      "graph": 6734,
      "front": 6735,
      "1955": 6736,
      "features": 6737,
      "Bah": 6738,
      "Егип": 6739,
      "заслу": 6740,
      "plied": 6741,
      "Republic": 6742,
      "зву": 6743,
      "песен": 6744,
      "close": 6745,
      "района": 6746,
      "killed": 6747,
      "Эр": 6748,
      "финан": 6749,
      "ibility": 6750,
      "Мари": 6751,
      "difficult": 6752,
      "Britain": 6753,
      "деятельности": 6754,
      "instr": 6755,
      "achie": 6756,
      "leading": 6757,
      "Jewish": 6758,
      "62": 6759,
      "gress": 6760,
      "Пё": 6761,
      "ention": 6762,
      "разу": 6763,
      "anted": 6764,
      "возможно": 6765,
      "sych": 6766,
      "Asia": 6767,
      "комплек": 6768,
      "хоро": 6769,
      "1927": 6770,
      "движение": 6771,
      "uation": 6772,
      "понима": 6773,
      "видов": 6774,
      "ulf": 6775,
      "Геор": 6776,
      "Умер": 6777,
      "Berlin": 6778,
      "Arabic": 6779,
      "Хар": 6780,
      "фли": 6781,
      "Dr": 6782,
      "ист": 6783,
      "flight": 6784,
      "services": 6785,
      "группа": 6786,
      "young": 6787,
      "проф": 6788,
      "изобре": 6789,
      "отмеча": 6790,
      "годаря": 6791,
      "ственным": 6792,
      "первого": 6793,
      "тической": 6794,
      "plement": 6795,
      "литератур": 6796,
      "ственная": 6797,
      "образу": 6798,
      "63": 6799,
      "XXI": 6800,
      "aj": 6801,
      "дня": 6802,
      "медици": 6803,
      "тный": 6804,
      "inese": 6805,
      "применя": 6806,
      "spect": 6807,
      "believed": 6808,
      "industry": 6809,
      "SM": 6810,
      "Tw": 6811,
      "ваться": 6812,
      "сан": 6813,
      "Петербур": 6814,
      "перво": 6815,
      "types": 6816,
      "41": 6817,
      "районе": 6818,
      "физик": 6819,
      "ym": 6820,
      "най": 6821,
      "phen": 6822,
      "sources": 6823,
      "Fol": 6824,
      "Кре": 6825,
      "trade": 6826,
      "Сконча": 6827,
      "жена": 6828,
      "наук": 6829,
      "birth": 6830,
      "Пётр": 6831,
      "cel": 6832,
      "места": 6833,
      "Ir": 6834,
      "might": 6835,
      "ufact": 6836,
      "близ": 6837,
      "Кан": 6838,
      "сдела": 6839,
      "разработ": 6840,
      "oney": 6841,
      "Как": 6842,
      "auto": 6843,
      "телями": 6844,
      "bal": 6845,
      "daugh": 6846,
      "Филип": 6847,
      "52": 6848,
      "za": 6849,
      "метров": 6850,
      "Dan": 6851,
      "leng": 6852,
      "режи": 6853,
      "тья": 6854,
      "symb": 6855,
      "coast": 6856,
      "емый": 6857,
      "чемпионка": 6858,
      "western": 6859,
      "мах": 6860,
      "1952": 6861,
      "effects": 6862,
      "Rad": 6863,
      "ними": 6864,
      "тором": 6865,
      "лай": 6866,
      "cords": 6867,
      "northern": 6868,
      "69": 6869,
      "новой": 6870,
      "ios": 6871,
      "есте": 6872,
      "телевид": 6873,
      "полож": 6874,
      "Герой": 6875,
      "fle": 6876,
      "уз": 6877,
      "ico": 6878,
      "oph": 6879,
      "Instit": 6880,
      "учре": 6881,
      "гия": 6882,
      "72": 6883,
      "err": 6884,
      "знания": 6885,
      "Canada": 6886,
      "типа": 6887,
      "ряда": 6888,
      "Иоан": 6889,
      "расши": 6890,
      "герцо": 6891,
      "larger": 6892,
      "Изра": 6893,
      "Генри": 6894,
      "ibrary": 6895,
      "вались": 6896,
      "электри": 6897,
      "eventually": 6898,
      "Эн": 6899,
      "appeared": 6900,
      "commonly": 6901,
      "gian": 6902,
      "фра": 6903,
      "Право": 6904,
      "ogy": 6905,
      "политический": 6906,
      "ready": 6907,
      "typically": 6908,
      "оно": 6909,
      "основатель": 6910,
      "встреча": 6911,
      "draw": 6912,
      "pair": 6913,
      "развитие": 6914,
      "имуще": 6915,
      "Cap": 6916,
      "гие": 6917,
      "ulture": 6918,
      "рабочи": 6919,
      "городов": 6920,
      "approach": 6921,
      "Сергей": 6922,
      "Шве": 6923,
      "данных": 6924,
      "Gre": 6925,
      "Old": 6926,
      "ey": 6927,
      "iqu": 6928,
      "мучени": 6929,
      "Советского": 6930,
      "standing": 6931,
      "AF": 6932,
      "тельства": 6933,
      "художе": 6934,
      "музыкант": 6935,
      "юго": 6936,
      "тона": 6937,
      "1910": 6938,
      "cases": 6939,
      "Петра": 6940,
      "fight": 6941,
      "торы": 6942,
      "дон": 6943,
      "связа": 6944,
      "bridge": 6945,
      "независимость": 6946,
      "ems": 6947,
      "ires": 6948,
      "yer": 6949,
      "метал": 6950,
      "Portug": 6951,
      "administ": 6952,
      "princ": 6953,
      "фек": 6954,
      "линг": 6955,
      "Hung": 6956,
      "squ": 6957,
      "эй": 6958,
      "ulated": 6959,
      "cities": 6960,
      "аэро": 6961,
      "голь": 6962,
      "торго": 6963,
      "started": 6964,
      "BM": 6965,
      "targ": 6966,
      "вооружён": 6967,
      "рует": 6968,
      "положение": 6969,
      "революции": 6970,
      "Cour": 6971,
      "dig": 6972,
      "ilities": 6973,
      "Histor": 6974,
      "79": 6975,
      "AR": 6976,
      "рхи": 6977,
      "meet": 6978,
      "code": 6979,
      "Эти": 6980,
      "регу": 6981,
      "rot": 6982,
      "Казах": 6983,
      "returned": 6984,
      "Sim": 6985,
      "don": 6986,
      "past": 6987,
      "spo": 6988,
      "тной": 6989,
      "respons": 6990,
      "IC": 6991,
      "бов": 6992,
      "вай": 6993,
      "сец": 6994,
      "istics": 6995,
      "interpre": 6996,
      "безопас": 6997,
      "performan": 6998,
      "produce": 6999,
      "rule": 7000,
      "Party": 7001,
      "Bal": 7002,
      "раство": 7003,
      "pred": 7004,
      "1953": 7005,
      "хва": 7006,
      "разно": 7007,
      "тые": 7008,
      "ola": 7009,
      "aval": 7010,
      "China": 7011,
      "provide": 7012,
      "административ": 7013,
      "science": 7014,
      "положи": 7015,
      "благо": 7016,
      "Скончались": 7017,
      "hi": 7018,
      "Сен": 7019,
      "лах": 7020,
      "армия": 7021,
      "1931": 7022,
      "little": 7023,
      "науки": 7024,
      "учёный": 7025,
      "Del": 7026,
      "nature": 7027,
      "эль": 7028,
      "necess": 7029,
      "относя": 7030,
      "выборы": 7031,
      "claimed": 7032,
      "say": 7033,
      "тные": 7034,
      "сок": 7035,
      "ческое": 7036,
      "северо": 7037,
      "преподоб": 7038,
      "Academ": 7039,
      "кими": 7040,
      "1912": 7041,
      "тить": 7042,
      "health": 7043,
      "mostly": 7044,
      "жё": 7045,
      "growth": 7046,
      "atives": 7047,
      "возвра": 7048,
      "corpor": 7049,
      "cycl": 7050,
      "нуж": 7051,
      "counter": 7052,
      "Лит": 7053,
      "моло": 7054,
      "artic": 7055,
      "elling": 7056,
      "required": 7057,
      "включая": 7058,
      "управ": 7059,
      "тури": 7060,
      "provided": 7061,
      "leaders": 7062,
      "Don": 7063,
      "Jack": 7064,
      "dial": 7065,
      "live": 7066,
      "ёв": 7067,
      "omin": 7068,
      "appoint": 7069,
      "Бри": 7070,
      "РФ": 7071,
      "трам": 7072,
      "Str": 7073,
      "brought": 7074,
      "вёл": 7075,
      "лой": 7076,
      "56": 7077,
      "Eastern": 7078,
      "super": 7079,
      "liament": 7080,
      "recorded": 7081,
      "batt": 7082,
      "lected": 7083,
      "креп": 7084,
      "систем": 7085,
      "1913": 7086,
      "зом": 7087,
      "Commun": 7088,
      "AI": 7089,
      "верну": 7090,
      "Alban": 7091,
      "added": 7092,
      "Родились": 7093,
      "площади": 7094,
      "протя": 7095,
      "uture": 7096,
      "applic": 7097,
      "highest": 7098,
      "transport": 7099,
      "конодатель": 7100,
      "break": 7101,
      "Bos": 7102,
      "Of": 7103,
      "воде": 7104,
      "допол": 7105,
      "bey": 7106,
      "occup": 7107,
      "инжен": 7108,
      "distribut": 7109,
      "Swed": 7110,
      "ьет": 7111,
      "print": 7112,
      "большой": 7113,
      "98": 7114,
      "ато": 7115,
      "unar": 7116,
      "box": 7117,
      "soon": 7118,
      "самых": 7119,
      "тили": 7120,
      "manufact": 7121,
      "край": 7122,
      "subsequ": 7123,
      "But": 7124,
      "Publ": 7125,
      "ВВ": 7126,
      "реш": 7127,
      "increasing": 7128,
      "emer": 7129,
      "Chinese": 7130,
      "ствия": 7131,
      "increase": 7132,
      "железнодорож": 7133,
      "widely": 7134,
      "Испании": 7135,
      "Дон": 7136,
      "itor": 7137,
      "составе": 7138,
      "Fil": 7139,
      "UK": 7140,
      "первых": 7141,
      "всей": 7142,
      "1908": 7143,
      "Henry": 7144,
      "57": 7145,
      "points": 7146,
      "Александра": 7147,
      "Земли": 7148,
      "uk": 7149,
      "тическая": 7150,
      "53": 7151,
      "Ash": 7152,
      "примен": 7153,
      "Умершие": 7154,
      "51": 7155,
      "living": 7156,
      "fa": 7157,
      "via": 7158,
      "iding": 7159,
      "долла": 7160,
      "caused": 7161,
      "rat": 7162,
      "жителей": 7163,
      "Bat": 7164,
      "Bro": 7165,
      "нар": 7166,
      "ландский": 7167,
      "совершен": 7168,
      "changes": 7169,
      "ened": 7170,
      "prom": 7171,
      "Louis": 7172,
      "gin": 7173,
      "вался": 7174,
      "utions": 7175,
      "Russia": 7176,
      "individual": 7177,
      "sound": 7178,
      "рую": 7179,
      "1901": 7180,
      "Петро": 7181,
      "тного": 7182,
      "вия": 7183,
      "испан": 7184,
      "affect": 7185,
      "southern": 7186,
      "Калинин": 7187,
      "bell": 7188,
      "кса": 7189,
      "мнению": 7190,
      "твёр": 7191,
      "тельность": 7192,
      "mechan": 7193,
      "дий": 7194,
      "причи": 7195,
      "земли": 7196,
      "remains": 7197,
      "мани": 7198,
      "discovered": 7199,
      "defined": 7200,
      "education": 7201,
      "enc": 7202,
      "газ": 7203,
      "последствии": 7204,
      "communic": 7205,
      "традицион": 7206,
      "Mal": 7207,
      "male": 7208,
      "дам": 7209,
      "concept": 7210,
      "1906": 7211,
      "ampion": 7212,
      "рек": 7213,
      "своё": 7214,
      "observ": 7215,
      "стандар": 7216,
      "conditions": 7217,
      "чества": 7218,
      "выступа": 7219,
      "outside": 7220,
      "Richard": 7221,
      "vehic": 7222,
      "instit": 7223,
      "Peter": 7224,
      "космиче": 7225,
      "жан": 7226,
      "contr": 7227,
      "Early": 7228,
      "songwriter": 7229,
      "issue": 7230,
      "Мен": 7231,
      "рово": 7232,
      "завод": 7233,
      "погибли": 7234,
      "Bell": 7235,
      "Val": 7236,
      "лега": 7237,
      "sec": 7238,
      "гим": 7239,
      "ously": 7240,
      "speed": 7241,
      "Глав": 7242,
      "fish": 7243,
      "оны": 7244,
      "уг": 7245,
      "1916": 7246,
      "отлича": 7247,
      "1000": 7248,
      "пуска": 7249,
      "speak": 7250,
      "companies": 7251,
      "Bill": 7252,
      "lav": 7253,
      "тот": 7254,
      "1911": 7255,
      "сочин": 7256,
      "наблюда": 7257,
      "Bay": 7258,
      "дней": 7259,
      "гон": 7260,
      "Inter": 7261,
      "months": 7262,
      "ift": 7263,
      "состави": 7264,
      "historical": 7265,
      "Minister": 7266,
      "ograph": 7267,
      "реаль": 7268,
      "поряд": 7269,
      "вес": 7270,
      "себе": 7271,
      "writers": 7272,
      "Its": 7273,
      "вли": 7274,
      "остров": 7275,
      "анали": 7276,
      "iverse": 7277,
      "вероят": 7278,
      "lic": 7279,
      "ini": 7280,
      "государств": 7281,
      "cru": 7282,
      "герман": 7283,
      "products": 7284,
      "private": 7285,
      "Lab": 7286,
      "Vir": 7287,
      "лга": 7288,
      "литов": 7289,
      "лад": 7290,
      "арми": 7291,
      "working": 7292,
      "video": 7293,
      "Хи": 7294,
      "61": 7295,
      "Дру": 7296,
      "цикло": 7297,
      "plant": 7298,
      "pose": 7299,
      "radio": 7300,
      "прото": 7301,
      "лых": 7302,
      "существует": 7303,
      "sil": 7304,
      "Тру": 7305,
      "коль": 7306,
      "тику": 7307,
      "круг": 7308,
      "Италии": 7309,
      "Sal": 7310,
      "usion": 7311,
      "blood": 7312,
      "независимости": 7313,
      "script": 7314,
      "bishop": 7315,
      "Otto": 7316,
      "Ше": 7317,
      "нович": 7318,
      "icted": 7319,
      "sett": 7320,
      "несколь": 7321,
      "establish": 7322,
      "complete": 7323,
      "голов": 7324,
      "тогда": 7325,
      "циони": 7326,
      "руется": 7327,
      "destroy": 7328,
      "смы": 7329,
      "ранее": 7330,
      "лем": 7331,
      "Mag": 7332,
      "ново": 7333,
      "Paris": 7334,
      "исследования": 7335,
      "другой": 7336,
      "льп": 7337,
      "бин": 7338,
      "ference": 7339,
      "software": 7340,
      "Azer": 7341,
      "оса": 7342,
      "принял": 7343,
      "свет": 7344,
      "обяза": 7345,
      "promot": 7346,
      "инду": 7347,
      "шал": 7348,
      "скульп": 7349,
      "uals": 7350,
      "Родившиеся": 7351,
      "billion": 7352,
      "Stud": 7353,
      "earlier": 7354,
      "население": 7355,
      "BS": 7356,
      "Dev": 7357,
      "fund": 7358,
      "ус": 7359,
      "istry": 7360,
      "Council": 7361,
      "primary": 7362,
      "Международ": 7363,
      "concent": 7364,
      "выборах": 7365,
      "университета": 7366,
      "живопи": 7367,
      "arent": 7368,
      "iting": 7369,
      "ipp": 7370,
      "longer": 7371,
      "кораб": 7372,
      "рик": 7373,
      "выз": 7374,
      "assist": 7375,
      "которым": 7376,
      "Du": 7377,
      "eight": 7378,
      "Тер": 7379,
      "ятся": 7380,
      "коле": 7381,
      "одна": 7382,
      "1951": 7383,
      "loss": 7384,
      "зали": 7385,
      "reading": 7386,
      "limited": 7387,
      "1904": 7388,
      "Ир": 7389,
      "дни": 7390,
      "гидро": 7391,
      "element": 7392,
      "ordin": 7393,
      "Cal": 7394,
      "гани": 7395,
      "brew": 7396,
      "whether": 7397,
      "Cr": 7398,
      "itar": 7399,
      "честь": 7400,
      "княже": 7401,
      "Thomas": 7402,
      "wall": 7403,
      "двор": 7404,
      "always": 7405,
      "analysis": 7406,
      "Italy": 7407,
      "wind": 7408,
      "towards": 7409,
      "мых": 7410,
      "nation": 7411,
      "pow": 7412,
      "rict": 7413,
      "legal": 7414,
      "majority": 7415,
      "православ": 7416,
      "монасты": 7417,
      "влияние": 7418,
      "вариан": 7419,
      "selves": 7420,
      "Award": 7421,
      "bai": 7422,
      "replaced": 7423,
      "канад": 7424,
      "defe": 7425,
      "cele": 7426,
      "кую": 7427,
      "жены": 7428,
      "bound": 7429,
      "Оте": 7430,
      "хло": 7431,
      "прожи": 7432,
      "results": 7433,
      "prevent": 7434,
      "personal": 7435,
      "Sun": 7436,
      "night": 7437,
      "поме": 7438,
      "too": 7439,
      "step": 7440,
      "треть": 7441,
      "промышленности": 7442,
      "Дмитри": 7443,
      "аппара": 7444,
      "Miss": 7445,
      "Ры": 7446,
      "Тем": 7447,
      "тки": 7448,
      "reason": 7449,
      "Прави": 7450,
      "territory": 7451,
      "AN": 7452,
      "ued": 7453,
      "ьер": 7454,
      "дами": 7455,
      "ols": 7456,
      "объяв": 7457,
      "династи": 7458,
      "bat": 7459,
      "rup": 7460,
      "зрения": 7461,
      "наст": 7462,
      "determin": 7463,
      "1907": 7464,
      "крепо": 7465,
      "большинство": 7466,
      "ll": 7467,
      "коммуни": 7468,
      "themselves": 7469,
      "крестьян": 7470,
      "74": 7471,
      "Bab": 7472,
      "Ter": 7473,
      "отказа": 7474,
      "циях": 7475,
      "лый": 7476,
      "Второй": 7477,
      "Azerbai": 7478,
      "Azerbaijan": 7479,
      "форм": 7480,
      "Big": 7481,
      "mas": 7482,
      "польский": 7483,
      "variety": 7484,
      "фави": 7485,
      "действие": 7486,
      "electron": 7487,
      "именно": 7488,
      "People": 7489,
      "length": 7490,
      "stated": 7491,
      "Ca": 7492,
      "сра": 7493,
      "яс": 7494,
      "женный": 7495,
      "particip": 7496,
      "дис": 7497,
      "obal": 7498,
      "office": 7499,
      "район": 7500,
      "библиоте": 7501,
      "concl": 7502,
      "долго": 7503,
      "Associ": 7504,
      "leader": 7505,
      "чув": 7506,
      "chemical": 7507,
      "95": 7508,
      "quant": 7509,
      "Central": 7510,
      "Кли": 7511,
      "Яро": 7512,
      "edition": 7513,
      "зам": 7514,
      "cross": 7515,
      "mad": 7516,
      "новый": 7517,
      "бук": 7518,
      "color": 7519,
      "фесси": 7520,
      "ДР": 7521,
      "тепло": 7522,
      "Int": 7523,
      "porary": 7524,
      "Middle": 7525,
      "гри": 7526,
      "попыт": 7527,
      "мощ": 7528,
      "path": 7529,
      "Эй": 7530,
      "хар": 7531,
      "нео": 7532,
      "стью": 7533,
      "утвержда": 7534,
      "Mass": 7535,
      "поэтому": 7536,
      "поскольку": 7537,
      "foreign": 7538,
      "Wil": 7539,
      "Another": 7540,
      "yr": 7541,
      "приз": 7542,
      "Солн": 7543,
      "упомина": 7544,
      "troops": 7545,
      "today": 7546,
      "происходит": 7547,
      "pie": 7548,
      "Фё": 7549,
      "ises": 7550,
      "языков": 7551,
      "400": 7552,
      "Гру": 7553,
      "etic": 7554,
      "photo": 7555,
      "award": 7556,
      "равно": 7557,
      "Di": 7558,
      "ded": 7559,
      "королев": 7560,
      "возможность": 7561,
      "Go": 7562,
      "stop": 7563,
      "Ль": 7564,
      "Мин": 7565,
      "яр": 7566,
      "ona": 7567,
      "дерев": 7568,
      "wife": 7569,
      "уси": 7570,
      "cohol": 7571,
      "республики": 7572,
      "iation": 7573,
      "ид": 7574,
      "пове": 7575,
      "разру": 7576,
      "учение": 7577,
      "station": 7578,
      "скоре": 7579,
      "духов": 7580,
      "conf": 7581,
      "whom": 7582,
      "зия": 7583,
      "Пру": 7584,
      "Фер": 7585,
      "heav": 7586,
      "конфли": 7587,
      "beginning": 7588,
      "labor": 7589,
      "Court": 7590,
      "antib": 7591,
      "problems": 7592,
      "commercial": 7593,
      "teen": 7594,
      "integr": 7595,
      "stor": 7596,
      "микро": 7597,
      "adop": 7598,
      "тельная": 7599,
      "артистка": 7600,
      "обеспечи": 7601,
      "йские": 7602,
      "alge": 7603,
      "Мини": 7604,
      "career": 7605,
      "нда": 7606,
      "icip": 7607,
      "het": 7608,
      "отра": 7609,
      "Арм": 7610,
      "Mer": 7611,
      "odes": 7612,
      "below": 7613,
      "примерно": 7614,
      "aring": 7615,
      "русских": 7616,
      "System": 7617,
      "Smith": 7618,
      "Sol": 7619,
      "цкого": 7620,
      "щении": 7621,
      "магни": 7622,
      "стом": 7623,
      "Северной": 7624,
      "становится": 7625,
      "Wall": 7626,
      "Японии": 7627,
      "здесь": 7628,
      "46": 7629,
      "agre": 7630,
      "regions": 7631,
      "говори": 7632,
      "animals": 7633,
      "Society": 7634,
      "forced": 7635,
      "1903": 7636,
      "Aber": 7637,
      "dy": 7638,
      "Древ": 7639,
      "letter": 7640,
      "astronom": 7641,
      "treatment": 7642,
      "Олимпи": 7643,
      "первое": 7644,
      "brother": 7645,
      "latter": 7646,
      "счёт": 7647,
      "линии": 7648,
      "приро": 7649,
      "искусства": 7650,
      "Def": 7651,
      "сет": 7652,
      "зация": 7653,
      "рования": 7654,
      "coach": 7655,
      "alifor": 7656,
      "river": 7657,
      "umin": 7658,
      "бель": 7659,
      "supported": 7660,
      "NA": 7661,
      "fell": 7662,
      "1915": 7663,
      "contribut": 7664,
      "ares": 7665,
      "образование": 7666,
      "самолё": 7667,
      "ech": 7668,
      "pan": 7669,
      "следова": 7670,
      "married": 7671,
      "Авст": 7672,
      "thesis": 7673,
      "85": 7674,
      "клу": 7675,
      "вел": 7676,
      "Петербург": 7677,
      "independent": 7678,
      "bour": 7679,
      "еты": 7680,
      "гам": 7681,
      "originally": 7682,
      "убий": 7683,
      "Золо": 7684,
      "Ира": 7685,
      "stone": 7686,
      "фильм": 7687,
      "Сте": 7688,
      "daughter": 7689,
      "Elect": 7690,
      "Воро": 7691,
      "elected": 7692,
      "реак": 7693,
      "proved": 7694,
      "Наука": 7695,
      "губерна": 7696,
      "Англии": 7697,
      "celebr": 7698,
      "гран": 7699,
      "мифо": 7700,
      "мере": 7701,
      "ads": 7702,
      "торгов": 7703,
      "рица": 7704,
      "acters": 7705,
      "flow": 7706,
      "степени": 7707,
      "Muslim": 7708,
      "reached": 7709,
      "future": 7710,
      "Джей": 7711,
      "мера": 7712,
      "новремен": 7713,
      "prison": 7714,
      "ир": 7715,
      "уро": 7716,
      "league": 7717,
      "problem": 7718,
      "71": 7719,
      "Нидер": 7720,
      "Рас": 7721,
      "фанта": 7722,
      "spr": 7723,
      "Пав": 7724,
      "щик": 7725,
      "physical": 7726,
      "performed": 7727,
      "торая": 7728,
      "Авгу": 7729,
      "directly": 7730,
      "Фридри": 7731,
      "give": 7732,
      "you": 7733,
      "ами": 7734,
      "ingu": 7735,
      "май": 7736,
      "множество": 7737,
      "лидер": 7738,
      "седатель": 7739,
      "move": 7740,
      "поддержи": 7741,
      "шед": 7742,
      "восстанов": 7743,
      "inner": 7744,
      "производства": 7745,
      "habit": 7746,
      "Americans": 7747,
      "Жан": 7748,
      "Кита": 7749,
      "Class": 7750,
      "Кур": 7751,
      "reme": 7752,
      "метри": 7753,
      "берг": 7754,
      "Blue": 7755,
      "Андре": 7756,
      "материа": 7757,
      "Michael": 7758,
      "помощи": 7759,
      "vill": 7760,
      "съе": 7761,
      "дование": 7762,
      "mole": 7763,
      "probably": 7764,
      "Jud": 7765,
      "pay": 7766,
      "эт": 7767,
      "ресу": 7768,
      "возра": 7769,
      "Bak": 7770,
      "Fore": 7771,
      "Hall": 7772,
      "Фор": 7773,
      "schools": 7774,
      "Liber": 7775,
      "Congress": 7776,
      "cou": 7777,
      "stage": 7778,
      "жением": 7779,
      "pitch": 7780,
      "куп": 7781,
      "ension": 7782,
      "алфави": 7783,
      "ledge": 7784,
      "точки": 7785,
      "temperature": 7786,
      "валось": 7787,
      "мые": 7788,
      "More": 7789,
      "bad": 7790,
      "поро": 7791,
      "академик": 7792,
      "account": 7793,
      "deb": 7794,
      "pected": 7795,
      "бал": 7796,
      "бус": 7797,
      "commit": 7798,
      "micro": 7799,
      "pet": 7800,
      "units": 7801,
      "ссия": 7802,
      "ровать": 7803,
      "look": 7804,
      "очередь": 7805,
      "Ад": 7806,
      "ждений": 7807,
      "smaller": 7808,
      "Большо": 7809,
      "Met": 7810,
      "раба": 7811,
      "коне": 7812,
      "веще": 7813,
      "proposed": 7814,
      "carbon": 7815,
      "Jews": 7816,
      "gold": 7817,
      "Кла": 7818,
      "посвя": 7819,
      "centuries": 7820,
      "Rom": 7821,
      "Ке": 7822,
      "ands": 7823,
      "веков": 7824,
      "мато": 7825,
      "выда": 7826,
      "Scottish": 7827,
      "PC": 7828,
      "XVI": 7829,
      "economy": 7830,
      "execut": 7831,
      "Institute": 7832,
      "Bon": 7833,
      "Califor": 7834,
      "теше": 7835,
      "представляет": 7836,
      "73": 7837,
      "Island": 7838,
      "Que": 7839,
      "ядер": 7840,
      "новь": 7841,
      "finan": 7842,
      "острове": 7843,
      "onso": 7844,
      "рель": 7845,
      "imal": 7846,
      "располага": 7847,
      "greater": 7848,
      "Jose": 7849,
      "реда": 7850,
      "доступ": 7851,
      "Ann": 7852,
      "ционной": 7853,
      "живописец": 7854,
      "sac": 7855,
      "zz": 7856,
      "учеб": 7857,
      "Пол": 7858,
      "nd": 7859,
      "ustr": 7860,
      "environment": 7861,
      "решения": 7862,
      "заме": 7863,
      "Город": 7864,
      "cells": 7865,
      "щена": 7866,
      "track": 7867,
      "деятельность": 7868,
      "better": 7869,
      "involved": 7870,
      "pts": 7871,
      "новые": 7872,
      "общей": 7873,
      "военно": 7874,
      "уничто": 7875,
      "guitar": 7876,
      "mountain": 7877,
      "реши": 7878,
      "дальней": 7879,
      "читы": 7880,
      "музей": 7881,
      "тические": 7882,
      "област": 7883,
      "специали": 7884,
      "компания": 7885,
      "practice": 7886,
      "manager": 7887,
      "Aust": 7888,
      "внима": 7889,
      "состоит": 7890,
      "Buddha": 7891,
      "Азербай": 7892,
      "Уиль": 7893,
      "льник": 7894,
      "маги": 7895,
      "силу": 7896,
      "жела": 7897,
      "require": 7898,
      "км2": 7899,
      "approximately": 7900,
      "California": 7901,
      "КН": 7902,
      "enes": 7903,
      "сек": 7904,
      "contract": 7905,
      "operation": 7906,
      "Fr": 7907,
      "ources": 7908,
      "Ката": 7909,
      "keep": 7910,
      "burn": 7911,
      "тета": 7912,
      "жизнь": 7913,
      "travel": 7914,
      "Bol": 7915,
      "Base": 7916,
      "сформирова": 7917,
      "otic": 7918,
      "suit": 7919,
      "Республика": 7920,
      "официально": 7921,
      "университет": 7922,
      "Португа": 7923,
      "квар": 7924,
      "относительно": 7925,
      "estimated": 7926,
      "medic": 7927,
      "technology": 7928,
      "date": 7929,
      "чное": 7930,
      "весь": 7931,
      "ющими": 7932,
      "Джор": 7933,
      "книги": 7934,
      "рамках": 7935,
      "Sup": 7936,
      "гий": 7937,
      "characters": 7938,
      "separate": 7939,
      "Wash": 7940,
      "cat": 7941,
      "cis": 7942,
      "ённых": 7943,
      "Second": 7944,
      "metal": 7945,
      "явления": 7946,
      "ias": 7947,
      "циклопе": 7948,
      "Fl": 7949,
      "Mos": 7950,
      "Вар": 7951,
      "тол": 7952,
      "городской": 7953,
      "address": 7954,
      "состоянию": 7955,
      "nearly": 7956,
      "changed": 7957,
      "Ach": 7958,
      "фла": 7959,
      "момент": 7960,
      "acts": 7961,
      "isms": 7962,
      "ping": 7963,
      "оди": 7964,
      "revol": 7965,
      "кита": 7966,
      "просто": 7967,
      "отстав": 7968,
      "музе": 7969,
      "телеведу": 7970,
      "media": 7971,
      "открыт": 7972,
      "distinct": 7973,
      "studies": 7974,
      "cultural": 7975,
      "функции": 7976,
      "Academy": 7977,
      "Лей": 7978,
      "днев": 7979,
      "приводи": 7980,
      "ider": 7981,
      "maz": 7982,
      "famil": 7983,
      "divided": 7984,
      "лес": 7985,
      "пути": 7986,
      "бас": 7987,
      "зован": 7988,
      "curity": 7989,
      "fully": 7990,
      "hell": 7991,
      "демон": 7992,
      "руб": 7993,
      "activity": 7994,
      "ST": 7995,
      "разных": 7996,
      "friend": 7997,
      "хом": 7998,
      "Верховного": 7999,
      "Вос": 8000,
      "exts": 8001,
      "фигу": 8002,
      "вшим": 8003,
      "discuss": 8004,
      "algebra": 8005,
      "aling": 8006,
      "amed": 8007,
      "лях": 8008,
      "lived": 8009,
      "установи": 8010,
      "White": 8011,
      "телевидения": 8012,
      "Aj": 8013,
      "Mex": 8014,
      "увеличи": 8015,
      "enter": 8016,
      "anned": 8017,
      "номучени": 8018,
      "вшихся": 8019,
      "dialect": 8020,
      "86": 8021,
      "постанов": 8022,
      "aces": 8023,
      "relatively": 8024,
      "1909": 8025,
      "единя": 8026,
      "коллек": 8027,
      "target": 8028,
      "card": 8029,
      "dim": 8030,
      "Осно": 8031,
      "inf": 8032,
      "ivity": 8033,
      "государственного": 8034,
      "operations": 8035,
      "уровня": 8036,
      "Mu": 8037,
      "дв": 8038,
      "ницы": 8039,
      "тарь": 8040,
      "оби": 8041,
      "современной": 8042,
      "composer": 8043,
      "Вой": 8044,
      "document": 8045,
      "Feder": 8046,
      "ti": 8047,
      "unit": 8048,
      "Анти": 8049,
      "ступления": 8050,
      "кроме": 8051,
      "Союз": 8052,
      "ni": 8053,
      "нская": 8054,
      "threat": 8055,
      "заяви": 8056,
      "пересе": 8057,
      "стической": 8058,
      "properties": 8059,
      "валь": 8060,
      "highly": 8061,
      "appears": 8062,
      "XVII": 8063,
      "исследователь": 8064,
      "ental": 8065,
      "lying": 8066,
      "князь": 8067,
      "Moon": 8068,
      "экспери": 8069,
      "saf": 8070,
      "Фо": 8071,
      "войне": 8072,
      "riage": 8073,
      "императора": 8074,
      "практически": 8075,
      "mainly": 8076,
      "которому": 8077,
      "получила": 8078,
      "Австра": 8079,
      "целью": 8080,
      "членов": 8081,
      "соответству": 8082,
      "already": 8083,
      "мысли": 8084,
      "adopted": 8085,
      "штей": 8086,
      "alpha": 8087,
      "лета": 8088,
      "мика": 8089,
      "детей": 8090,
      "тинен": 8091,
      "Григо": 8092,
      "alle": 8093,
      "alcohol": 8094,
      "час": 8095,
      "хок": 8096,
      "derived": 8097,
      "начал": 8098,
      "победи": 8099,
      "Washington": 8100,
      "Er": 8101,
      "hous": 8102,
      "вё": 8103,
      "review": 8104,
      "географи": 8105,
      "cred": 8106,
      "DP": 8107,
      "Fin": 8108,
      "cos": 8109,
      "Юго": 8110,
      "isation": 8111,
      "тана": 8112,
      "agric": 8113,
      "ills": 8114,
      "конферен": 8115,
      "Bron": 8116,
      "многочислен": 8117,
      "College": 8118,
      "востоке": 8119,
      "orith": 8120,
      "Они": 8121,
      "тельным": 8122,
      "drug": 8123,
      "ционных": 8124,
      "министром": 8125,
      "Фу": 8126,
      "mob": 8127,
      "жай": 8128,
      "issues": 8129,
      "Же": 8130,
      "реб": 8131,
      "повы": 8132,
      "тони": 8133,
      "первую": 8134,
      "izing": 8135,
      "форми": 8136,
      "островов": 8137,
      "Венг": 8138,
      "древне": 8139,
      "Southern": 8140,
      "numerous": 8141,
      "tree": 8142,
      "Остро": 8143,
      "нера": 8144,
      "закры": 8145,
      "Объ": 8146,
      "Kar": 8147,
      "программы": 8148,
      "Grand": 8149,
      "multiple": 8150,
      "четыр": 8151,
      "Финлян": 8152,
      "Irish": 8153,
      "ya": 8154,
      "летия": 8155,
      "therefore": 8156,
      "благодаря": 8157,
      "воздуш": 8158,
      "120": 8159,
      "hood": 8160,
      "race": 8161,
      "Гон": 8162,
      "мён": 8163,
      "чёр": 8164,
      "plants": 8165,
      "neigh": 8166,
      "largely": 8167,
      "безопасности": 8168,
      "Dou": 8169,
      "нового": 8170,
      "сибир": 8171,
      "Тео": 8172,
      "тиви": 8173,
      "добы": 8174,
      "strial": 8175,
      "десяти": 8176,
      "mathemat": 8177,
      "Pre": 8178,
      "вся": 8179,
      "тием": 8180,
      "performance": 8181,
      "kind": 8182,
      "rare": 8183,
      "Ши": 8184,
      "школа": 8185,
      "verse": 8186,
      "minor": 8187,
      "Law": 8188,
      "юр": 8189,
      "section": 8190,
      "всегда": 8191,
      "совмест": 8192,
      "release": 8193,
      "долларов": 8194,
      "bacter": 8195,
      "rise": 8196,
      "чении": 8197,
      "asons": 8198,
      "чески": 8199,
      "implement": 8200,
      "Например": 8201,
      "famous": 8202,
      "широко": 8203,
      "IX": 8204,
      "еже": 8205,
      "свиде": 8206,
      "oft": 8207,
      "льский": 8208,
      "sets": 8209,
      "пунк": 8210,
      "Democ": 8211,
      "Civil": 8212,
      "Празд": 8213,
      "мастер": 8214,
      "complet": 8215,
      "химик": 8216,
      "работу": 8217,
      "спек": 8218,
      "математиче": 8219,
      "89": 8220,
      "Amaz": 8221,
      "mis": 8222,
      "Аристо": 8223,
      "create": 8224,
      "Ox": 8225,
      "Rome": 8226,
      "означа": 8227,
      "estival": 8228,
      "собствен": 8229,
      "спект": 8230,
      "contains": 8231,
      "дипломатические": 8232,
      "cular": 8233,
      "sam": 8234,
      "чел": 8235,
      "строительство": 8236,
      "Saint": 8237,
      "demon": 8238,
      "130": 8239,
      "Сталин": 8240,
      "prior": 8241,
      "иностранных": 8242,
      "Вильгель": 8243,
      "атом": 8244,
      "respond": 8245,
      "Граждан": 8246,
      "математик": 8247,
      "ody": 8248,
      "journalist": 8249,
      "разби": 8250,
      "1902": 8251,
      "opened": 8252,
      "Turk": 8253,
      "Норве": 8254,
      "Tor": 8255,
      "vin": 8256,
      "чил": 8257,
      "compared": 8258,
      "католиче": 8259,
      "Ци": 8260,
      "вана": 8261,
      "нескольких": 8262,
      "tes": 8263,
      "дя": 8264,
      "валась": 8265,
      "запу": 8266,
      "туру": 8267,
      "idea": 8268,
      "Коре": 8269,
      "measure": 8270,
      "Mil": 8271,
      "Mah": 8272,
      "Rel": 8273,
      "thr": 8274,
      "нос": 8275,
      "true": 8276,
      "course": 8277,
      "большое": 8278,
      "пяти": 8279,
      "новременно": 8280,
      "wise": 8281,
      "зен": 8282,
      "нских": 8283,
      "ковой": 8284,
      "сай": 8285,
      "convent": 8286,
      "policy": 8287,
      "plays": 8288,
      "труда": 8289,
      "указыва": 8290,
      "female": 8291,
      "виду": 8292,
      "лые": 8293,
      "collection": 8294,
      "самым": 8295,
      "построен": 8296,
      "hu": 8297,
      "lif": 8298,
      "ode": 8299,
      "Эсто": 8300,
      "чным": 8301,
      "icated": 8302,
      "присут": 8303,
      "марш": 8304,
      "Cont": 8305,
      "пространства": 8306,
      "получили": 8307,
      "initial": 8308,
      "Martin": 8309,
      "gent": 8310,
      "емой": 8311,
      "жено": 8312,
      "Суще": 8313,
      "ficient": 8314,
      "align": 8315,
      "anda": 8316,
      "detail": 8317,
      "депутатов": 8318,
      "AL": 8319,
      "onic": 8320,
      "вида": 8321,
      "ulpt": 8322,
      "жит": 8323,
      "прак": 8324,
      "forming": 8325,
      "electr": 8326,
      "Южной": 8327,
      "1895": 8328,
      "версии": 8329,
      "oxy": 8330,
      "ients": 8331,
      "Йор": 8332,
      "СП": 8333,
      "пос": 8334,
      "нему": 8335,
      "доба": 8336,
      "догово": 8337,
      "дере": 8338,
      "settle": 8339,
      "ES": 8340,
      "alleg": 8341,
      "immedi": 8342,
      "emit": 8343,
      "туаль": 8344,
      "corre": 8345,
      "ционного": 8346,
      "территория": 8347,
      "network": 8348,
      "свойства": 8349,
      "Modern": 8350,
      "Ham": 8351,
      "чём": 8352,
      "chief": 8353,
      "amount": 8354,
      "decre": 8355,
      "elled": 8356,
      "участие": 8357,
      "professional": 8358,
      "вшее": 8359,
      "earch": 8360,
      "слово": 8361,
      "places": 8362,
      "температура": 8363,
      "лок": 8364,
      "igen": 8365,
      "переворо": 8366,
      "collect": 8367,
      "другими": 8368,
      "carry": 8369,
      "additional": 8370,
      "suggested": 8371,
      "цени": 8372,
      "испа": 8373,
      "hys": 8374,
      "Atari": 8375,
      "Таким": 8376,
      "инженер": 8377,
      "mom": 8378,
      "ито": 8379,
      "плен": 8380,
      "compon": 8381,
      "буд": 8382,
      "partment": 8383,
      "сын": 8384,
      "scholars": 8385,
      "pal": 8386,
      "гол": 8387,
      "iance": 8388,
      "Force": 8389,
      "laws": 8390,
      "table": 8391,
      "шка": 8392,
      "вании": 8393,
      "требу": 8394,
      "Ottoman": 8395,
      "thous": 8396,
      "стя": 8397,
      "лето": 8398,
      "Наиболее": 8399,
      "государственной": 8400,
      "distance": 8401,
      "Вене": 8402,
      "солют": 8403,
      "H2": 8404,
      "Акаде": 8405,
      "Бен": 8406,
      "пру": 8407,
      "ena": 8408,
      "orbit": 8409,
      "isl": 8410,
      "конца": 8411,
      "minister": 8412,
      "рованных": 8413,
      "response": 8414,
      "Цер": 8415,
      "мби": 8416,
      "orial": 8417,
      "общественный": 8418,
      "Div": 8419,
      "Rev": 8420,
      "ease": 8421,
      "кер": 8422,
      "стави": 8423,
      "astic": 8424,
      "Киев": 8425,
      "1896": 8426,
      "expand": 8427,
      "Atlantic": 8428,
      "профес": 8429,
      "тский": 8430,
      "пой": 8431,
      "heavy": 8432,
      "ields": 8433,
      "ющихся": 8434,
      "интере": 8435,
      "Основные": 8436,
      "potential": 8437,
      "Two": 8438,
      "Bot": 8439,
      "Spain": 8440,
      "литературы": 8441,
      "influenced": 8442,
      "Mary": 8443,
      "hers": 8444,
      "sus": 8445,
      "Гар": 8446,
      "законодатель": 8447,
      "которую": 8448,
      "playing": 8449,
      "Алексей": 8450,
      "passed": 8451,
      "производство": 8452,
      "enough": 8453,
      "жили": 8454,
      "тического": 8455,
      "порта": 8456,
      "Prince": 8457,
      "Radio": 8458,
      "da": 8459,
      "lunar": 8460,
      "ware": 8461,
      "постав": 8462,
      "whole": 8463,
      "земле": 8464,
      "spirit": 8465,
      "шён": 8466,
      "тических": 8467,
      "Group": 8468,
      "Brown": 8469,
      "зве": 8470,
      "idents": 8471,
      "шах": 8472,
      "contem": 8473,
      "transfer": 8474,
      "войсками": 8475,
      "rd": 8476,
      "кома": 8477,
      "aled": 8478,
      "alter": 8479,
      "лья": 8480,
      "students": 8481,
      "частью": 8482,
      "системе": 8483,
      "иногда": 8484,
      "Best": 8485,
      "makes": 8486,
      "taking": 8487,
      "дал": 8488,
      "военных": 8489,
      "второ": 8490,
      "емого": 8491,
      "Mem": 8492,
      "ga": 8493,
      "inj": 8494,
      "ultural": 8495,
      "Мария": 8496,
      "восстание": 8497,
      "достаточно": 8498,
      "hus": 8499,
      "сви": 8500,
      "эм": 8501,
      "stars": 8502,
      "ables": 8503,
      "рым": 8504,
      "rier": 8505,
      "названия": 8506,
      "округа": 8507,
      "risk": 8508,
      "Company": 8509,
      "роз": 8510,
      "прово": 8511,
      "дороги": 8512,
      "shows": 8513,
      "условиях": 8514,
      "XII": 8515,
      "мимо": 8516,
      "poor": 8517,
      "worked": 8518,
      "basis": 8519,
      "victory": 8520,
      "96": 8521,
      "Revolution": 8522,
      "pir": 8523,
      "Фло": 8524,
      "ини": 8525,
      "ябре": 8526,
      "пользу": 8527,
      "consum": 8528,
      "Mont": 8529,
      "eastern": 8530,
      "Bir": 8531,
      "Cur": 8532,
      "room": 8533,
      "лож": 8534,
      "гражда": 8535,
      "poly": 8536,
      "друг": 8537,
      "Нов": 8538,
      "участник": 8539,
      "сро": 8540,
      "публицист": 8541,
      "Leg": 8542,
      "alternative": 8543,
      "впоследствии": 8544,
      "дови": 8545,
      "epis": 8546,
      "Center": 8547,
      "ресур": 8548,
      "Test": 8549,
      "spread": 8550,
      "olf": 8551,
      "excl": 8552,
      "меры": 8553,
      "действо": 8554,
      "считается": 8555,
      "убит": 8556,
      "Юрий": 8557,
      "досто": 8558,
      "equip": 8559,
      "следует": 8560,
      "completed": 8561,
      "переводчик": 8562,
      "Association": 8563,
      "Азии": 8564,
      "ьё": 8565,
      "onaut": 8566,
      "preser": 8567,
      "lowing": 8568,
      "критик": 8569,
      "orders": 8570,
      "Нидерлан": 8571,
      "одо": 8572,
      "спут": 8573,
      "нике": 8574,
      "изо": 8575,
      "превра": 8576,
      "suffer": 8577,
      "Library": 8578,
      "Mur": 8579,
      "Vict": 8580,
      "Це": 8581,
      "ума": 8582,
      "univers": 8583,
      "испыта": 8584,
      "iah": 8585,
      "Ark": 8586,
      "Новой": 8587,
      "изменения": 8588,
      "Adr": 8589,
      "рец": 8590,
      "преимуще": 8591,
      "путеше": 8592,
      "compar": 8593,
      "weap": 8594,
      "functions": 8595,
      "Life": 8596,
      "sport": 8597,
      "голосо": 8598,
      "iff": 8599,
      "centre": 8600,
      "pressure": 8601,
      "letters": 8602,
      "sky": 8603,
      "historian": 8604,
      "статус": 8605,
      "Do": 8606,
      "Лат": 8607,
      "отличие": 8608,
      "ряду": 8609,
      "странах": 8610,
      "номер": 8611,
      "border": 8612,
      "Франция": 8613,
      "covery": 8614,
      "double": 8615,
      "iques": 8616,
      "rian": 8617,
      "conver": 8618,
      "promin": 8619,
      "целом": 8620,
      "ступление": 8621,
      "match": 8622,
      "philosophy": 8623,
      "literature": 8624,
      "experiment": 8625,
      "bri": 8626,
      "сел": 8627,
      "phere": 8628,
      "ibly": 8629,
      "resulting": 8630,
      "atures": 8631,
      "беж": 8632,
      "expans": 8633,
      "joined": 8634,
      "энергии": 8635,
      "Joseph": 8636,
      "Rail": 8637,
      "pil": 8638,
      "voc": 8639,
      "кнов": 8640,
      "ологиче": 8641,
      "ayed": 8642,
      "войну": 8643,
      "shown": 8644,
      "ultan": 8645,
      "чены": 8646,
      "Первый": 8647,
      "Тай": 8648,
      "division": 8649,
      "mitted": 8650,
      "97": 8651,
      "drop": 8652,
      "sens": 8653,
      "Ат": 8654,
      "weak": 8655,
      "ционный": 8656,
      "называется": 8657,
      "таким": 8658,
      "сид": 8659,
      "провод": 8660,
      "cannot": 8661,
      "образи": 8662,
      "1899": 8663,
      "различные": 8664,
      "украинский": 8665,
      "изобрета": 8666,
      "mel": 8667,
      "och": 8668,
      "psych": 8669,
      "Рей": 8670,
      "Три": 8671,
      "бен": 8672,
      "кора": 8673,
      "повед": 8674,
      "relationship": 8675,
      "ВВП": 8676,
      "Sto": 8677,
      "Круп": 8678,
      "подготов": 8679,
      "своим": 8680,
      "weight": 8681,
      "wealth": 8682,
      "sculpt": 8683,
      "ционные": 8684,
      "окку": 8685,
      "систему": 8686,
      "команду": 8687,
      "маршру": 8688,
      "Fre": 8689,
      "управля": 8690,
      "совета": 8691,
      "ams": 8692,
      "arts": 8693,
      "ellig": 8694,
      "Byz": 8695,
      "Ай": 8696,
      "тым": 8697,
      "noted": 8698,
      "carried": 8699,
      "графии": 8700,
      "algorith": 8701,
      "confl": 8702,
      "quick": 8703,
      "Johnson": 8704,
      "behind": 8705,
      "arrow": 8706,
      "dete": 8707,
      "blue": 8708,
      "Борис": 8709,
      "произведения": 8710,
      "станция": 8711,
      "основных": 8712,
      "Tele": 8713,
      "ners": 8714,
      "вновь": 8715,
      "воду": 8716,
      "деле": 8717,
      "ческим": 8718,
      "Lord": 8719,
      "стика": 8720,
      "плат": 8721,
      "BBC": 8722,
      "Ur": 8723,
      "ниц": 8724,
      "выделя": 8725,
      "usal": 8726,
      "подвер": 8727,
      "чено": 8728,
      "identified": 8729,
      "соответствии": 8730,
      "Music": 8731,
      "ault": 8732,
      "нок": 8733,
      "армя": 8734,
      "ведений": 8735,
      "Индии": 8736,
      "primarily": 8737,
      "benef": 8738,
      "92": 8739,
      "мым": 8740,
      "ips": 8741,
      "Руси": 8742,
      "ксима": 8743,
      "launched": 8744,
      "vey": 8745,
      "плани": 8746,
      "правило": 8747,
      "condition": 8748,
      "1898": 8749,
      "Всемир": 8750,
      "appointed": 8751,
      "Byzant": 8752,
      "Побе": 8753,
      "национа": 8754,
      "itors": 8755,
      "писал": 8756,
      "behav": 8757,
      "Tex": 8758,
      "Wind": 8759,
      "атмо": 8760,
      "чением": 8761,
      "джан": 8762,
      "династии": 8763,
      "Es": 8764,
      "силь": 8765,
      "бора": 8766,
      "отрица": 8767,
      "climate": 8768,
      "teams": 8769,
      "исполнитель": 8770,
      "scientific": 8771,
      "migr": 8772,
      "опер": 8773,
      "вшийся": 8774,
      "уровень": 8775,
      "Afghanistan": 8776,
      "thers": 8777,
      "itz": 8778,
      "semb": 8779,
      "континен": 8780,
      "русском": 8781,
      "Религи": 8782,
      "значительно": 8783,
      "levels": 8784,
      "опублико": 8785,
      "ging": 8786,
      "роман": 8787,
      "ita": 8788,
      "расстоя": 8789,
      "invent": 8790,
      "memory": 8791,
      "Serv": 8792,
      "Series": 8793,
      "Филосо": 8794,
      "83": 8795,
      "Кри": 8796,
      "тка": 8797,
      "aging": 8798,
      "Under": 8799,
      "week": 8800,
      "scale": 8801,
      "городского": 8802,
      "определя": 8803,
      "mud": 8804,
      "tor": 8805,
      "tos": 8806,
      "demand": 8807,
      "Despite": 8808,
      "Уильям": 8809,
      "sembly": 8810,
      "done": 8811,
      "уве": 8812,
      "сова": 8813,
      "деб": 8814,
      "отве": 8815,
      "Aristo": 8816,
      "Northern": 8817,
      "ющиеся": 8818,
      "buildings": 8819,
      "citiz": 8820,
      "кило": 8821,
      "omer": 8822,
      "стати": 8823,
      "мусуль": 8824,
      "создания": 8825,
      "forest": 8826,
      "ференду": 8827,
      "Navy": 8828,
      "cip": 8829,
      "Вьет": 8830,
      "рос": 8831,
      "лого": 8832,
      "cture": 8833,
      "Интер": 8834,
      "соглашение": 8835,
      "represented": 8836,
      "церковь": 8837,
      "demonstr": 8838,
      "предполага": 8839,
      "Пари": 8840,
      "signed": 8841,
      "Рича": 8842,
      "cand": 8843,
      "categ": 8844,
      "ker": 8845,
      "Браз": 8846,
      "уль": 8847,
      "reign": 8848,
      "ulations": 8849,
      "reng": 8850,
      "ologist": 8851,
      "lawyer": 8852,
      "multi": 8853,
      "Jul": 8854,
      "мили": 8855,
      "urban": 8856,
      "pher": 8857,
      "formal": 8858,
      "charge": 8859,
      "Cy": 8860,
      "Ty": 8861,
      "varian": 8862,
      "cean": 8863,
      "предо": 8864,
      "преду": 8865,
      "osaur": 8866,
      "regional": 8867,
      "самостоя": 8868,
      "этим": 8869,
      "занимает": 8870,
      "sembl": 8871,
      "restr": 8872,
      "ato": 8873,
      "alo": 8874,
      "training": 8875,
      "location": 8876,
      "периода": 8877,
      "mur": 8878,
      "theore": 8879,
      "мора": 8880,
      "erson": 8881,
      "комму": 8882,
      "действу": 8883,
      "earliest": 8884,
      "КПСС": 8885,
      "Oper": 8886,
      "ba": 8887,
      "тность": 8888,
      "presence": 8889,
      "intended": 8890,
      "sexual": 8891,
      "Hy": 8892,
      "woman": 8893,
      "1990s": 8894,
      "methods": 8895,
      "fair": 8896,
      "моле": 8897,
      "проект": 8898,
      "assum": 8899,
      "канди": 8900,
      "grand": 8901,
      "элементов": 8902,
      "явление": 8903,
      "arrang": 8904,
      "соверши": 8905,
      "выполня": 8906,
      "Techn": 8907,
      "Ak": 8908,
      "Aud": 8909,
      "bul": 8910,
      "рг": 8911,
      "роли": 8912,
      "charg": 8913,
      "быстро": 8914,
      "artists": 8915,
      "должен": 8916,
      "Common": 8917,
      "Генера": 8918,
      "принадлежа": 8919,
      "Following": 8920,
      "ET": 8921,
      "Дан": 8922,
      "изм": 8923,
      "Both": 8924,
      "театр": 8925,
      "electric": 8926,
      "Василий": 8927,
      "Израи": 8928,
      "defeated": 8929,
      "Ev": 8930,
      "уса": 8931,
      "народа": 8932,
      "меж": 8933,
      "расстре": 8934,
      "Павел": 8935,
      "belief": 8936,
      "события": 8937,
      "Начало": 8938,
      "цвет": 8939,
      "начали": 8940,
      "rules": 8941,
      "Ae": 8942,
      "Hum": 8943,
      "sense": 8944,
      "иска": 8945,
      "ющую": 8946,
      "ela": 8947,
      "portion": 8948,
      "inton": 8949,
      "Алексе": 8950,
      "marked": 8951,
      "status": 8952,
      "Democr": 8953,
      "опи": 8954,
      "фы": 8955,
      "perial": 8956,
      "зависимости": 8957,
      "выборов": 8958,
      "кажды": 8959,
      "machine": 8960,
      "четырёх": 8961,
      "fel": 8962,
      "Бра": 8963,
      "СН": 8964,
      "дца": 8965,
      "oll": 8966,
      "deg": 8967,
      "emph": 8968,
      "relations": 8969,
      "1897": 8970,
      "Notes": 8971,
      "Virgin": 8972,
      "happ": 8973,
      "mi": 8974,
      "theast": 8975,
      "Кам": 8976,
      "началась": 8977,
      "оружи": 8978,
      "Хай": 8979,
      "должны": 8980,
      "доволь": 8981,
      "Калининград": 8982,
      "фессиональ": 8983,
      "Year": 8984,
      "hours": 8985,
      "yet": 8986,
      "ropol": 8987,
      "бежа": 8988,
      "Ah": 8989,
      "мел": 8990,
      "народная": 8991,
      "needed": 8992,
      "числи": 8993,
      "peace": 8994,
      "ieval": 8995,
      "средства": 8996,
      "крупных": 8997,
      "society": 8998,
      "classical": 8999,
      "reduced": 9000,
      "непосред": 9001,
      "подтвер": 9002,
      "ella": 9003,
      "Кири": 9004,
      "колони": 9005,
      "региона": 9006,
      "Андрей": 9007,
      "солне": 9008,
      "Athens": 9009,
      "ходов": 9010,
      "шими": 9011,
      "форме": 9012,
      "средне": 9013,
      "Treat": 9014,
      "Спи": 9015,
      "лева": 9016,
      "мости": 9017,
      "русская": 9018,
      "слави": 9019,
      "берт": 9020,
      "objects": 9021,
      "Gold": 9022,
      "Iran": 9023,
      "Pan": 9024,
      "суда": 9025,
      "maintain": 9026,
      "Западной": 9027,
      "Adrian": 9028,
      "Just": 9029,
      "Vi": 9030,
      "fif": 9031,
      "ГУ": 9032,
      "тический": 9033,
      "Abd": 9034,
      "позволя": 9035,
      "ведены": 9036,
      "Восточной": 9037,
      "ЕС": 9038,
      "плу": 9039,
      "нав": 9040,
      "види": 9041,
      "ситуа": 9042,
      "Социалистиче": 9043,
      "undred": 9044,
      "failed": 9045,
      "пассажир": 9046,
      "испанский": 9047,
      "Bet": 9048,
      "eds": 9049,
      "cles": 9050,
      "occas": 9051,
      "experience": 9052,
      "эффек": 9053,
      "Отече": 9054,
      "Bible": 9055,
      "Later": 9056,
      "streng": 9057,
      "composed": 9058,
      "resistance": 9059,
      "Тран": 9060,
      "референду": 9061,
      "доказа": 9062,
      "amin": 9063,
      "resol": 9064,
      "хам": 9065,
      "председа": 9066,
      "представителей": 9067,
      "1st": 9068,
      "содержи": 9069,
      "стики": 9070,
      "отде": 9071,
      "Великой": 9072,
      "западе": 9073,
      "ike": 9074,
      "араб": 9075,
      "охран": 9076,
      "Shah": 9077,
      "Land": 9078,
      "Sen": 9079,
      "заим": 9080,
      "owned": 9081,
      "Ruth": 9082,
      "Бан": 9083,
      "Нес": 9084,
      "неж": 9085,
      "elop": 9086,
      "метра": 9087,
      "tee": 9088,
      "страна": 9089,
      "своём": 9090,
      "тивной": 9091,
      "annual": 9092,
      "самого": 9093,
      "Виктор": 9094,
      "женщин": 9095,
      "ois": 9096,
      "paper": 9097,
      "itation": 9098,
      "гита": 9099,
      "советской": 9100,
      "ванто": 9101,
      "уровне": 9102,
      "ky": 9103,
      "oud": 9104,
      "близи": 9105,
      "Китай": 9106,
      "Этот": 9107,
      "Чу": 9108,
      "описы": 9109,
      "бера": 9110,
      "azine": 9111,
      "turned": 9112,
      "Major": 9113,
      "closed": 9114,
      "Sub": 9115,
      "fill": 9116,
      "дения": 9117,
      "стами": 9118,
      "сети": 9119,
      "mentioned": 9120,
      "ждении": 9121,
      "план": 9122,
      "containing": 9123,
      "advan": 9124,
      "ests": 9125,
      "1970s": 9126,
      "marriage": 9127,
      "UN": 9128,
      "farm": 9129,
      "ковых": 9130,
      "поря": 9131,
      "лизации": 9132,
      "eles": 9133,
      "image": 9134,
      "ida": 9135,
      "myth": 9136,
      "принято": 9137,
      "возможности": 9138,
      "Ленина": 9139,
      "reedom": 9140,
      "Islamic": 9141,
      "Batman": 9142,
      "die": 9143,
      "мс": 9144,
      "гос": 9145,
      "приходи": 9146,
      "Болга": 9147,
      "внутри": 9148,
      "нюю": 9149,
      "Alfred": 9150,
      "winter": 9151,
      "Пло": 9152,
      "ТО": 9153,
      "втор": 9154,
      "эко": 9155,
      "превы": 9156,
      "сул": 9157,
      "объё": 9158,
      "Москвы": 9159,
      "кратная": 9160,
      "используются": 9161,
      "достига": 9162,
      "абсолют": 9163,
      "экспеди": 9164,
      "двум": 9165,
      "Oly": 9166,
      "дже": 9167,
      "модели": 9168,
      "гами": 9169,
      "сум": 9170,
      "евский": 9171,
      "корпу": 9172,
      "Nob": 9173,
      "Out": 9174,
      "емая": 9175,
      "ципа": 9176,
      "1960s": 9177,
      "independence": 9178,
      "oe": 9179,
      "Джа": 9180,
      "sect": 9181,
      "notes": 9182,
      "ография": 9183,
      "обороны": 9184,
      "ny": 9185,
      "ясь": 9186,
      "гото": 9187,
      "chap": 9188,
      "Anton": 9189,
      "здания": 9190,
      "обору": 9191,
      "rapid": 9192,
      "писательница": 9193,
      "океана": 9194,
      "Роберт": 9195,
      "Ire": 9196,
      "SS": 9197,
      "Бла": 9198,
      "вместо": 9199,
      "ump": 9200,
      "decided": 9201,
      "bapt": 9202,
      "lov": 9203,
      "Дже": 9204,
      "onto": 9205,
      "islands": 9206,
      "шает": 9207,
      "Бель": 9208,
      "BCE": 9209,
      "электрон": 9210,
      "matter": 9211,
      "binary": 9212,
      "пять": 9213,
      "dominant": 9214,
      "accepted": 9215,
      "Bulgar": 9216,
      "находятся": 9217,
      "82": 9218,
      "bow": 9219,
      "кл": 9220,
      "чки": 9221,
      "рази": 9222,
      "quality": 9223,
      "observed": 9224,
      "последний": 9225,
      "Дании": 9226,
      "fourth": 9227,
      "materials": 9228,
      "summer": 9229,
      "Ban": 9230,
      "VII": 9231,
      "позна": 9232,
      "exhib": 9233,
      "ковский": 9234,
      "россий": 9235,
      "Boston": 9236,
      "Евг": 9237,
      "программ": 9238,
      "religion": 9239,
      "взгля": 9240,
      "cry": 9241,
      "транспорта": 9242,
      "путём": 9243,
      "позволяет": 9244,
      "катастрофа": 9245,
      "BA": 9246,
      "texts": 9247,
      "пр": 9248,
      "юри": 9249,
      "enem": 9250,
      "Насе": 9251,
      "Мол": 9252,
      "элемента": 9253,
      "attacks": 9254,
      "информации": 9255,
      "астроно": 9256,
      "contrast": 9257,
      "becoming": 9258,
      "expected": 9259,
      "raised": 9260,
      "знамени": 9261,
      "That": 9262,
      "brain": 9263,
      "1894": 9264,
      "Гол": 9265,
      "combined": 9266,
      "previously": 9267,
      "CE": 9268,
      "Оска": 9269,
      "reject": 9270,
      "oral": 9271,
      "тел": 9272,
      "неболь": 9273,
      "protect": 9274,
      "сохраня": 9275,
      "севере": 9276,
      "expansion": 9277,
      "degree": 9278,
      "XIII": 9279,
      "rang": 9280,
      "Окт": 9281,
      "arus": 9282,
      "Alask": 9283,
      "общего": 9284,
      "dens": 9285,
      "еврей": 9286,
      "распреде": 9287,
      "Первая": 9288,
      "серва": 9289,
      "Carol": 9290,
      "equal": 9291,
      "sequence": 9292,
      "appearance": 9293,
      "Память": 9294,
      "хокке": 9295,
      "600": 9296,
      "los": 9297,
      "наи": 9298,
      "вокруг": 9299,
      "председатель": 9300,
      "disease": 9301,
      "coll": 9302,
      "Islands": 9303,
      "Сиби": 9304,
      "basic": 9305,
      "особен": 9306,
      "Америки": 9307,
      "Prize": 9308,
      "ане": 9309,
      "шена": 9310,
      "кара": 9311,
      "deal": 9312,
      "oted": 9313,
      "военной": 9314,
      "Austrian": 9315,
      "Philosop": 9316,
      "фикации": 9317,
      "свер": 9318,
      "мото": 9319,
      "block": 9320,
      "1980s": 9321,
      "izations": 9322,
      "случай": 9323,
      "Research": 9324,
      "Lincol": 9325,
      "Portugu": 9326,
      "Olymp": 9327,
      "Sat": 9328,
      "ror": 9329,
      "vow": 9330,
      "Кра": 9331,
      "edon": 9332,
      "older": 9333,
      "начально": 9334,
      "слан": 9335,
      "Assy": 9336,
      "songs": 9337,
      "употреб": 9338,
      "audi": 9339,
      "эпохи": 9340,
      "necessary": 9341,
      "Portuguese": 9342,
      "Bapt": 9343,
      "Ver": 9344,
      "lie": 9345,
      "uters": 9346,
      "чений": 9347,
      "enic": 9348,
      "тива": 9349,
      "deep": 9350,
      "изма": 9351,
      "Като": 9352,
      "чемпиона": 9353,
      "Francis": 9354,
      "границы": 9355,
      "середине": 9356,
      "Bang": 9357,
      "Sever": 9358,
      "nes": 9359,
      "Ам": 9360,
      "тник": 9361,
      "infect": 9362,
      "кипа": 9363,
      "класса": 9364,
      "provides": 9365,
      "Михай": 9366,
      "голосов": 9367,
      "министров": 9368,
      "заверши": 9369,
      "Lincoln": 9370,
      "Av": 9371,
      "Science": 9372,
      "ниже": 9373,
      "сем": 9374,
      "паро": 9375,
      "стои": 9376,
      "250": 9377,
      "runs": 9378,
      "moving": 9379,
      "произошло": 9380,
      "Дмитрий": 9381,
      "Ярослав": 9382,
      "оши": 9383,
      "лит": 9384,
      "созна": 9385,
      "сере": 9386,
      "earth": 9387,
      "называют": 9388,
      "Bern": 9389,
      "Тихо": 9390,
      "оппози": 9391,
      "figure": 9392,
      "четыре": 9393,
      "огром": 9394,
      "угле": 9395,
      "Праздники": 9396,
      "Time": 9397,
      "дириж": 9398,
      "constant": 9399,
      "одер": 9400,
      "крови": 9401,
      "олог": 9402,
      "bear": 9403,
      "humans": 9404,
      "большеви": 9405,
      "экономики": 9406,
      "EC": 9407,
      "соору": 9408,
      "мыс": 9409,
      "рование": 9410,
      "основы": 9411,
      "памяти": 9412,
      "remaining": 9413,
      "pattern": 9414,
      "moment": 9415,
      "Jes": 9416,
      "atre": 9417,
      "чета": 9418,
      "изуча": 9419,
      "comment": 9420,
      "worth": 9421,
      "Hebrew": 9422,
      "сена": 9423,
      "Москва": 9424,
      "hydrogen": 9425,
      "поверхности": 9426,
      "money": 9427,
      "wing": 9428,
      "юге": 9429,
      "тип": 9430,
      "терро": 9431,
      "началось": 9432,
      "1890": 9433,
      "XIV": 9434,
      "тренер": 9435,
      "участво": 9436,
      "hot": 9437,
      "данные": 9438,
      "1889": 9439,
      "Because": 9440,
      "Columb": 9441,
      "pression": 9442,
      "Polish": 9443,
      "площадь": 9444,
      "отношении": 9445,
      "Bank": 9446,
      "mut": 9447,
      "tu": 9448,
      "Стра": 9449,
      "потом": 9450,
      "сед": 9451,
      "предоста": 9452,
      "языки": 9453,
      "argued": 9454,
      "Dist": 9455,
      "ас": 9456,
      "эми": 9457,
      "heart": 9458,
      "люби": 9459,
      "deaths": 9460,
      "initially": 9461,
      "aught": 9462,
      "cum": 9463,
      "шан": 9464,
      "льном": 9465,
      "stic": 9466,
      "month": 9467,
      "военного": 9468,
      "теория": 9469,
      "Prime": 9470,
      "члены": 9471,
      "Oxford": 9472,
      "FC": 9473,
      "fast": 9474,
      "slow": 9475,
      "лка": 9476,
      "рона": 9477,
      "подви": 9478,
      "гене": 9479,
      "directed": 9480,
      "soldiers": 9481,
      "respectively": 9482,
      "молеку": 9483,
      "native": 9484,
      "Мно": 9485,
      "вступи": 9486,
      "зис": 9487,
      "понен": 9488,
      "тино": 9489,
      "Greece": 9490,
      "magnit": 9491,
      "Балтий": 9492,
      "насчиты": 9493,
      "Government": 9494,
      "financial": 9495,
      "MP": 9496,
      "mill": 9497,
      "winning": 9498,
      "нат": 9499,
      "линей": 9500,
      "amine": 9501,
      "территориаль": 9502,
      "operating": 9503,
      "industrial": 9504,
      "религии": 9505,
      "aus": 9506,
      "spl": 9507,
      "reve": 9508,
      "рома": 9509,
      "toms": 9510,
      "Their": 9511,
      "разо": 9512,
      "effective": 9513,
      "Королев": 9514,
      "AA": 9515,
      "Mill": 9516,
      "Net": 9517,
      "rates": 9518,
      "vary": 9519,
      "нён": 9520,
      "advert": 9521,
      "боже": 9522,
      "объя": 9523,
      "versions": 9524,
      "Библи": 9525,
      "Луи": 9526,
      "thodox": 9527,
      "священномучени": 9528,
      "rine": 9529,
      "гора": 9530,
      "positions": 9531,
      "Коми": 9532,
      "medical": 9533,
      "Джо": 9534,
      "миллионов": 9535,
      "Фридрих": 9536,
      "Hor": 9537,
      "Sur": 9538,
      "wa": 9539,
      "Тре": 9540,
      "лица": 9541,
      "iron": 9542,
      "бывший": 9543,
      "mann": 9544,
      "персона": 9545,
      "глава": 9546,
      "global": 9547,
      "скри": 9548,
      "чена": 9549,
      "values": 9550,
      "позже": 9551,
      "takes": 9552,
      "океан": 9553,
      "Jean": 9554,
      "big": 9555,
      "nine": 9556,
      "tun": 9557,
      "АО": 9558,
      "ъек": 9559,
      "isions": 9560,
      "советских": 9561,
      "создание": 9562,
      "musical": 9563,
      "Bibl": 9564,
      "Hel": 9565,
      "Tim": 9566,
      "бол": 9567,
      "прежде": 9568,
      "операции": 9569,
      "property": 9570,
      "метрополи": 9571,
      "Президент": 9572,
      "symbol": 9573,
      "87": 9574,
      "Rob": 9575,
      "тела": 9576,
      "дого": 9577,
      "forts": 9578,
      "illustr": 9579,
      "CP": 9580,
      "NAS": 9581,
      "tend": 9582,
      "uni": 9583,
      "folk": 9584,
      "bank": 9585,
      "Alexandria": 9586,
      "всю": 9587,
      "вопрос": 9588,
      "оказыва": 9589,
      "attract": 9590,
      "entered": 9591,
      "ляции": 9592,
      "ested": 9593,
      "ials": 9594,
      "Мак": 9595,
      "ternet": 9596,
      "1880": 9597,
      "allowing": 9598,
      "дирижёр": 9599,
      "Ep": 9600,
      "bring": 9601,
      "possess": 9602,
      "удалось": 9603,
      "Scotland": 9604,
      "middle": 9605,
      "герцог": 9606,
      "rupt": 9607,
      "va": 9608,
      "Шу": 9609,
      "лём": 9610,
      "inem": 9611,
      "такой": 9612,
      "reser": 9613,
      "authority": 9614,
      "концеп": 9615,
      "advant": 9616,
      "ensus": 9617,
      "Confeder": 9618,
      "swana": 9619,
      "Ак": 9620,
      "Она": 9621,
      "igation": 9622,
      "сев": 9623,
      "перемен": 9624,
      "архитектор": 9625,
      "individuals": 9626,
      "scholar": 9627,
      "полномо": 9628,
      "народов": 9629,
      "Hell": 9630,
      "ij": 9631,
      "von": 9632,
      "incorpor": 9633,
      "secret": 9634,
      "приобре": 9635,
      "illa": 9636,
      "upper": 9637,
      "ronic": 9638,
      "государственных": 9639,
      "cript": 9640,
      "Mark": 9641,
      "процесс": 9642,
      "calcul": 9643,
      "instrument": 9644,
      "records": 9645,
      "соль": 9646,
      "стане": 9647,
      "семей": 9648,
      "инстру": 9649,
      "тивных": 9650,
      "despite": 9651,
      "succeed": 9652,
      "использовать": 9653,
      "животных": 9654,
      "emphas": 9655,
      "Sum": 9656,
      "жению": 9657,
      "тт": 9658,
      "дио": 9659,
      "consists": 9660,
      "главным": 9661,
      "candid": 9662,
      "93": 9663,
      "Den": 9664,
      "Ах": 9665,
      "зад": 9666,
      "Архи": 9667,
      "относятся": 9668,
      "SI": 9669,
      "ii": 9670,
      "стен": 9671,
      "atal": 9672,
      "покры": 9673,
      "измер": 9674,
      "compl": 9675,
      "share": 9676,
      "ansas": 9677,
      "высоко": 9678,
      "ordered": 9679,
      "Германия": 9680,
      "глубо": 9681,
      "Victor": 9682,
      "нена": 9683,
      "ada": 9684,
      "dex": 9685,
      "province": 9686,
      "Новосибир": 9687,
      "Швеции": 9688,
      "Public": 9689,
      "Aar": 9690,
      "Эконо": 9691,
      "потреб": 9692,
      "языках": 9693,
      "земель": 9694,
      "apparent": 9695,
      "techniques": 9696,
      "синте": 9697,
      "models": 9698,
      "faith": 9699,
      "Ireland": 9700,
      "Over": 9701,
      "направления": 9702,
      "acity": 9703,
      "becomes": 9704,
      "ector": 9705,
      "1891": 9706,
      "legisl": 9707,
      "командова": 9708,
      "giving": 9709,
      "геро": 9710,
      "1892": 9711,
      "Organ": 9712,
      "Hungarian": 9713,
      "Gen": 9714,
      "Sir": 9715,
      "iber": 9716,
      "til": 9717,
      "нё": 9718,
      "orb": 9719,
      "aded": 9720,
      "мость": 9721,
      "dead": 9722,
      "гина": 9723,
      "contro": 9724,
      "фести": 9725,
      "kingdom": 9726,
      "churches": 9727,
      "hundred": 9728,
      "мм": 9729,
      "постеп": 9730,
      "Современ": 9731,
      "Bulgaria": 9732,
      "кну": 9733,
      "сах": 9734,
      "составил": 9735,
      "осново": 9736,
      "birds": 9737,
      "favor": 9738,
      "ders": 9739,
      "звание": 9740,
      "эпи": 9741,
      "рост": 9742,
      "sole": 9743,
      "ровал": 9744,
      "commiss": 9745,
      "Parliament": 9746,
      "включает": 9747,
      "federal": 9748,
      "impact": 9749,
      "oxygen": 9750,
      "Аф": 9751,
      "умень": 9752,
      "online": 9753,
      "Stre": 9754,
      "Восто": 9755,
      "Петербурге": 9756,
      "лингви": 9757,
      "Cast": 9758,
      "Pak": 9759,
      "edy": 9760,
      "нина": 9761,
      "ava": 9762,
      "igned": 9763,
      "allows": 9764,
      "союза": 9765,
      "activities": 9766,
      "offered": 9767,
      "рабочих": 9768,
      "Pet": 9769,
      "Ура": 9770,
      "тная": 9771,
      "ул": 9772,
      "iga": 9773,
      "известный": 9774,
      "распространён": 9775,
      "responsible": 9776,
      "94": 9777,
      "hop": 9778,
      "Дэ": 9779,
      "Мор": 9780,
      "зме": 9781,
      "reaction": 9782,
      "alone": 9783,
      "rod": 9784,
      "мотря": 9785,
      "евре": 9786,
      "Ancient": 9787,
      "здание": 9788,
      "normal": 9789,
      "составляют": 9790,
      "прямо": 9791,
      "knowledge": 9792,
      "Октябрь": 9793,
      "controvers": 9794,
      "Ара": 9795,
      "жерт": 9796,
      "chall": 9797,
      "просты": 9798,
      "фир": 9799,
      "Thus": 9800,
      "студен": 9801,
      "1882": 9802,
      "1887": 9803,
      "decision": 9804,
      "figures": 9805,
      "Mad": 9806,
      "dess": 9807,
      "iated": 9808,
      "mouth": 9809,
      "щу": 9810,
      "насле": 9811,
      "цин": 9812,
      "прода": 9813,
      "ниях": 9814,
      "французская": 9815,
      "последние": 9816,
      "programs": 9817,
      "продолжи": 9818,
      "Несмотря": 9819,
      "84": 9820,
      "VIII": 9821,
      "иско": 9822,
      "progress": 9823,
      "simple": 9824,
      "ведена": 9825,
      "Egyptian": 9826,
      "frequently": 9827,
      "Греции": 9828,
      "Nap": 9829,
      "смен": 9830,
      "liber": 9831,
      "desc": 9832,
      "speech": 9833,
      "1893": 9834,
      "Николая": 9835,
      "представитель": 9836,
      "existence": 9837,
      "станавли": 9838,
      "центром": 9839,
      "аресто": 9840,
      "регуляр": 9841,
      "Бразили": 9842,
      "cot": 9843,
      "Бру": 9844,
      "Елиза": 9845,
      "Француз": 9846,
      "арль": 9847,
      "kept": 9848,
      "назван": 9849,
      "featured": 9850,
      "mix": 9851,
      "ils": 9852,
      "artist": 9853,
      "зона": 9854,
      "creation": 9855,
      "symp": 9856,
      "positive": 9857,
      "действий": 9858,
      "animal": 9859,
      "Tom": 9860,
      "pun": 9861,
      "anarch": 9862,
      "подо": 9863,
      "жид": 9864,
      "uded": 9865,
      "всем": 9866,
      "render": 9867,
      "территорию": 9868,
      "Ломоно": 9869,
      "осуществля": 9870,
      "Super": 9871,
      "компьютер": 9872,
      "91": 9873,
      "pack": 9874,
      "урав": 9875,
      "пом": 9876,
      "estic": 9877,
      "anger": 9878,
      "городах": 9879,
      "equival": 9880,
      "usalem": 9881,
      "Alaska": 9882,
      "Эта": 9883,
      "света": 9884,
      "iments": 9885,
      "рованные": 9886,
      "constitution": 9887,
      "Mel": 9888,
      "fran": 9889,
      "mess": 9890,
      "yd": 9891,
      "ллей": 9892,
      "гах": 9893,
      "энциклопе": 9894,
      "81": 9895,
      "800": 9896,
      "Ale": 9897,
      "гори": 9898,
      "compounds": 9899,
      "Ali": 9900,
      "firm": 9901,
      "программирова": 9902,
      "муниципа": 9903,
      "следствие": 9904,
      "пят": 9905,
      "забо": 9906,
      "agreed": 9907,
      "Edward": 9908,
      "Jerusalem": 9909,
      "2nd": 9910,
      "Kore": 9911,
      "Langu": 9912,
      "Времен": 9913,
      "латин": 9914,
      "патри": 9915,
      "евского": 9916,
      "serve": 9917,
      "Моло": 9918,
      "Досто": 9919,
      "логических": 9920,
      "enna": 9921,
      "письмен": 9922,
      "interpret": 9923,
      "Open": 9924,
      "says": 9925,
      "arc": 9926,
      "18th": 9927,
      "ходы": 9928,
      "plane": 9929,
      "люди": 9930,
      "spent": 9931,
      "1885": 9932,
      "относится": 9933,
      "Импера": 9934,
      "использования": 9935,
      "сотрудниче": 9936,
      "agreement": 9937,
      "Венгрии": 9938,
      "ray": 9939,
      "Чёр": 9940,
      "ари": 9941,
      "чности": 9942,
      "repe": 9943,
      "рией": 9944,
      "кален": 9945,
      "oured": 9946,
      "москов": 9947,
      "string": 9948,
      "предме": 9949,
      "самый": 9950,
      "Belarus": 9951,
      "Armenia": 9952,
      "spoken": 9953,
      "Duke": 9954,
      "изобретатель": 9955,
      "Free": 9956,
      "internal": 9957,
      "чество": 9958,
      "ideas": 9959,
      "учени": 9960,
      "состава": 9961,
      "национального": 9962,
      "Польши": 9963,
      "ethnic": 9964,
      "wear": 9965,
      "Кер": 9966,
      "НА": 9967,
      "этно": 9968,
      "pron": 9969,
      "izes": 9970,
      "связыва": 9971,
      "1881": 9972,
      "врач": 9973,
      "управление": 9974,
      "quickly": 9975,
      "ani": 9976,
      "rev": 9977,
      "told": 9978,
      "миру": 9979,
      "подня": 9980,
      "basket": 9981,
      "Послед": 9982,
      "asked": 9983,
      "Василь": 9984,
      "субъек": 9985,
      "Bahá": 9986,
      "978": 9987,
      "топо": 9988,
      "extended": 9989,
      "отношение": 9990,
      "тонн": 9991,
      "объектов": 9992,
      "Pop": 9993,
      "cock": 9994,
      "emperor": 9995,
      "osis": 9996,
      "Also": 9997,
      "examples": 9998,
      "Off": 9999,
      "RO": 10000,
      "paren": 10001,
      "чка": 10002,
      "дил": 10003,
      "создании": 10004,
      "услов": 10005,
      "connect": 10006,
      "ML": 10007,
      "bass": 10008,
      "sun": 10009,
      "Зи": 10010,
      "социалистиче": 10011,
      "governor": 10012,
      "литературе": 10013,
      "architecture": 10014,
      "battles": 10015,
      "Hill": 10016,
      "slight": 10017,
      "Эд": 10018,
      "шель": 10019,
      "Add": 10020,
      "природы": 10021,
      "Columbia": 10022,
      "Tem": 10023,
      "sports": 10024,
      "ano": 10025,
      "тации": 10026,
      "phone": 10027,
      "monarch": 10028,
      "последу": 10029,
      "политических": 10030,
      "объявил": 10031,
      "Found": 10032,
      "Лин": 10033,
      "Эле": 10034,
      "ано": 10035,
      "коали": 10036,
      "amber": 10037,
      "дены": 10038,
      "общество": 10039,
      "direction": 10040,
      "политической": 10041,
      "purpose": 10042,
[...]
