{
  "version": "1.0",
  "truncation": null,
  "padding": null,
  "added_tokens": [
    {
      "id": 0,
      "content": "[PAD]",
      "single_word": false,
      "lstrip": false,
      "rstrip": false,
      "normalized": false,
      "special": true
    },
    {
      "id": 1,
      "content": "[UNK]",
      "single_word": false,
      "lstrip": false,
      "rstrip": false,
      "normalized": false,
      "special": true
    },
    {
      "id": 2,
      "content": "[CLS]",
      "single_word": false,
      "lstrip": false,
      "rstrip": false,
      "normalized": false,
      "special": true
    },
    {
      "id": 3,
      "content": "[SEP]",
      "single_word": false,
      "lstrip": false,
      "rstrip": false,
      "normalized": false,
      "special": true
    },
    {
      "id": 4,
      "content": "[MASK]",
      "single_word": false,
      "lstrip": false,
      "rstrip": false,
      "normalized": false,
      "special": true
    }
  ],
  "normalizer": null,
  "pre_tokenizer": {
    "type": "BertPreTokenizer"
  },
  "post_processor": null,
  "decoder": null,
  "model": {
    "type": "BPE",
    "dropout": null,
    "unk_token": null,
    "continuing_subword_prefix": null,
    "end_of_word_suffix": null,
    "fuse_unk": false,
    "byte_fallback": false,
    "ignore_merges": false,
    "vocab": {
      "[PAD]": 0,
      "[UNK]": 1,
      "[CLS]": 2,
      "[SEP]": 3,
      "[MASK]": 4,
      "!": 5,
      "\"": 6,
      "#": 7,
      "$": 8,
      "%": 9,
      "&": 10,
      "'": 11,
      "(": 12,
      ")": 13,
      "*": 14,
      "+": 15,
      ",": 16,
      "-": 17,
      ".": 18,
      "/": 19,
      "0": 20,
      "1": 21,
      "2": 22,
      "3": 23,
      "4": 24,
      "5": 25,
      "6": 26,
      "7": 27,
      "8": 28,
      "9": 29,
      ":": 30,
      ";": 31,
      "<": 32,
      "=": 33,
      ">": 34,
      "?": 35,
      "@": 36,
      "A": 37,
      "B": 38,
      "C": 39,
      "D": 40,
      "E": 41,
      "F": 42,
      "G": 43,
      "H": 44,
      "I": 45,
      "J": 46,
      "K": 47,
      "L": 48,
      "M": 49,
      "N": 50,
      "O": 51,
      "P": 52,
      "Q": 53,
      "R": 54,
      "S": 55,
      "T": 56,
      "U": 57,
      "V": 58,
      "W": 59,
      "X": 60,
      "Y": 61,
      "Z": 62,
      "[": 63,
      "\\": 64,
      "]": 65,
      "^": 66,
      "_": 67,
      "`": 68,
      "a": 69,
      "b": 70,
      "c": 71,
      "d": 72,
      "e": 73,
      "f": 74,
      "g": 75,
      "h": 76,
      "i": 77,
      "j": 78,
      "k": 79,
      "l": 80,
      "m": 81,
      "n": 82,
      "o": 83,
      "p": 84,
      "q": 85,
      "r": 86,
      "s": 87,
      "t": 88,
      "u": 89,
      "v": 90,
      "w": 91,
      "x": 92,
      "y": 93,
      "z": 94,
      "{": 95,
      "|": 96,
      "}": 97,
      "~": 98,
      "¢": 99,
      "£": 100,
      "¥": 101,
      "§": 102,
      "©": 103,
      "ª": 104,
      "«": 105,
      "¬": 106,
      "­": 107,
      "¯": 108,
      "°": 109,
      "±": 110,
      "²": 111,
      "³": 112,
      "µ": 113,
      "·": 114,
      "¹": 115,
      "»": 116,
      "¼": 117,
      "½": 118,
      "¾": 119,
      "À": 120,
      "Á": 121,
      "Â": 122,
      "Ã": 123,
      "Ä": 124,
      "Å": 125,
      "Æ": 126,
      "Ç": 127,
      "É": 128,
      "Ò": 129,
      "Õ": 130,
      "Ö": 131,
      "×": 132,
      "Ø": 133,
      "Ú": 134,
      "Ü": 135,
      "Þ": 136,
      "ß": 137,
      "à": 138,
      "á": 139,
      "â": 140,
      "ã": 141,
      "ä": 142,
      "å": 143,
      "æ": 144,
      "ç": 145,
      "è": 146,
      "é": 147,
      "ê": 148,
      "ë": 149,
      "ì": 150,
      "í": 151,
      "î": 152,
      "ï": 153,
      "ð": 154,
      "ñ": 155,
      "ò": 156,
      "ó": 157,
      "ô": 158,
      "õ": 159,
      "ö": 160,
      "ø": 161,
      "ù": 162,
      "ú": 163,
      "û": 164,
      "ü": 165,
      "þ": 166,
      "Ā": 167,
      "ā": 168,
      "Ă": 169,
      "ă": 170,
      "Ą": 171,
      "ą": 172,
      "ć": 173,
      "Ĉ": 174,
      "ĉ": 175,
      "Č": 176,
      "č": 177,
      "đ": 178,
      "ē": 179,
      "Ĕ": 180,
      "ė": 181,
      "ę": 182,
      "ě": 183,
      "Ĝ": 184,
      "ĝ": 185,
      "ğ": 186,
      "ġ": 187,
      "Ĥ": 188,
      "ĥ": 189,
      "Ħ": 190,
      "ĩ": 191,
      "ī": 192,
      "ĭ": 193,
      "İ": 194,
      "ı": 195,
      "Ĵ": 196,
      "ĵ": 197,
      "ļ": 198,
      "Ł": 199,
      "ł": 200,
      "ń": 201,
      "ň": 202,
      "Ō": 203,
      "ō": 204,
      "ő": 205,
      "ř": 206,
      "Ś": 207,
      "ś": 208,
      "Ŝ": 209,
      "ŝ": 210,
      "Ş": 211,
      "ş": 212,
      "Š": 213,
      "š": 214,
      "ū": 215,
      "Ŭ": 216,
      "ŭ": 217,
      "ų": 218,
      "Ż": 219,
      "ż": 220,
      "Ž": 221,
      "ž": 222,
      "Ǎ": 223,
      "ǎ": 224,
      "ǝ": 225,
      "Ǟ": 226,
      "ǟ": 227,
      "Ǡ": 228,
      "ǡ": 229,
      "ǧ": 230,
      "Ǻ": 231,
      "ǻ": 232,
      "Ȁ": 233,
      "ȁ": 234,
      "Ȃ": 235,
      "ȃ": 236,
      "ș": 237,
      "Ȣ": 238,
      "Ȧ": 239,
      "ȧ": 240,
      "Ⱥ": 241,
      "ɐ": 242,
      "ɑ": 243,
      "ɒ": 244,
      "ə": 245,
      "ʃ": 246,
      "ʌ": 247,
      "ʎ": 248,
      "ʒ": 249,
      "ʔ": 250,
      "ʷ": 251,
      "ʻ": 252,
      "ʼ": 253,
      "ʾ": 254,
      "ʿ": 255,
      "ˈ": 256,
      "˘": 257,
      "̀": 258,
      "́": 259,
      "̃": 260,
      "̄": 261,
      "̊": 262,
      "̯": 263,
      "̲": 264,
      "Ά": 265,
      "Α": 266,
      "Β": 267,
      "Γ": 268,
      "Δ": 269,
      "Ε": 270,
      "Ζ": 271,
      "Η": 272,
      "Ι": 273,
      "Κ": 274,
      "Λ": 275,
      "Μ": 276,
      "Ν": 277,
      "Ξ": 278,
      "Ο": 279,
      "Π": 280,
      "Ρ": 281,
      "Σ": 282,
      "Τ": 283,
      "Υ": 284,
      "Χ": 285,
      "Ψ": 286,
      "Ω": 287,
      "Ϊ": 288,
      "ά": 289,
      "έ": 290,
      "ή": 291,
      "ί": 292,
      "α": 293,
      "β": 294,
      "γ": 295,
      "δ": 296,
      "ε": 297,
      "ζ": 298,
      "η": 299,
      "θ": 300,
      "ι": 301,
      "κ": 302,
      "λ": 303,
      "μ": 304,
      "ν": 305,
      "ξ": 306,
      "ο": 307,
      "π": 308,
      "ρ": 309,
      "ς": 310,
      "σ": 311,
      "τ": 312,
      "υ": 313,
      "φ": 314,
      "χ": 315,
      "ω": 316,
      "ϊ": 317,
      "ό": 318,
      "ύ": 319,
      "ώ": 320,
      "ϰ": 321,
      "Ё": 322,
      "І": 323,
      "А": 324,
      "Б": 325,
      "В": 326,
      "Г": 327,
      "Д": 328,
      "Е": 329,
      "Ж": 330,
      "З": 331,
      "И": 332,
      "Й": 333,
      "К": 334,
      "Л": 335,
      "М": 336,
      "Н": 337,
      "О": 338,
      "П": 339,
      "Р": 340,
      "С": 341,
      "Т": 342,
      "У": 343,
      "Ф": 344,
      "Х": 345,
      "Ц": 346,
      "Ч": 347,
      "Ш": 348,
      "Щ": 349,
      "Ъ": 350,
      "Ы": 351,
      "Ь": 352,
      "Э": 353,
      "Ю": 354,
      "Я": 355,
      "а": 356,
      "б": 357,
      "в": 358,
      "г": 359,
      "д": 360,
      "е": 361,
      "ж": 362,
      "з": 363,
      "и": 364,
      "й": 365,
      "к": 366,
      "л": 367,
      "м": 368,
      "н": 369,
      "о": 370,
      "п": 371,
      "р": 372,
      "с": 373,
      "т": 374,
      "у": 375,
      "ф": 376,
      "х": 377,
      "ц": 378,
      "ч": 379,
      "ш": 380,
      "щ": 381,
      "ъ": 382,
      "ы": 383,
      "ь": 384,
      "э": 385,
      "ю": 386,
      "я": 387,
      "ё": 388,
      "і": 389,
      "ї": 390,
      "ў": 391,
      "ѣ": 392,
      "ѧ": 393,
      "ѩ": 394,
      "Ա": 395,
      "ա": 396,
      "ء": 397,
      "أ": 398,
      "ا": 399,
      "ب": 400,
      "ة": 401,
      "ت": 402,
      "ج": 403,
      "ح": 404,
      "د": 405,
      "ذ": 406,
      "ر": 407,
      "ز": 408,
      "س": 409,
      "ع": 410,
      "ف": 411,
      "ق": 412,
      "ك": 413,
      "ل": 414,
      "م": 415,
      "ن": 416,
      "ه": 417,
      "و": 418,
      "ي": 419,
      "ً": 420,
      "َ": 421,
      "ُ": 422,
      "ِ": 423,
      "ّ": 424,
      "ْ": 425,
      "ژ": 426,
      "۝": 427,
      "ܐ": 428,
      "ܓ": 429,
      "ܕ": 430,
      "ܗ": 431,
      "ܙ": 432,
      "ܝ": 433,
      "ܠ": 434,
      "ܡ": 435,
      "ܢ": 436,
      "ܪ": 437,
      "ܬ": 438,
      "ܲ": 439,
      "ܵ": 440,
      "ܼ": 441,
      "݂": 442,
      "݇": 443,
      "अ": 444,
      "थ": 445,
      "द": 446,
      "र": 447,
      "व": 448,
      "स": 449,
      "ा": 450,
      "ि": 451,
      "े": 452,
      "्": 453,
      "บ": 454,
      "ย": 455,
      "ร": 456,
      "ี": 457,
      "เ": 458,
      "์": 459,
      "ᅀ": 460,
      "ᴀ": 461,
      "ᵄ": 462,
      "ᶏ": 463,
      "ᶐ": 464,
      "ᶛ": 465,
      "Ḁ": 466,
      "ḁ": 467,
      "ḇ": 468,
      "Ḍ": 469,
      "ḍ": 470,
      "ḏ": 471,
      "ḗ": 472,
      "Ḥ": 473,
      "ḥ": 474,
      "ṅ": 475,
      "ṇ": 476,
      "ṓ": 477,
      "Ṣ": 478,
      "ṣ": 479,
      "ṭ": 480,
      "ṯ": 481,
      "ẓ": 482,
      "ẚ": 483,
      "Ạ": 484,
      "ạ": 485,
      "Ả": 486,
      "ả": 487,
      "Ấ": 488,
      "ấ": 489,
      "Ầ": 490,
      "ầ": 491,
      "Ẩ": 492,
      "ẩ": 493,
      "Ẫ": 494,
      "ẫ": 495,
      "Ậ": 496,
      "ậ": 497,
      "Ắ": 498,
      "ắ": 499,
      "Ằ": 500,
      "ằ": 501,
      "Ẳ": 502,
      "ẳ": 503,
      "Ẵ": 504,
      "ẵ": 505,
      "Ặ": 506,
      "ặ": 507,
      "ữ": 508,
      "ἀ": 509,
      "ἄ": 510,
      "Ἀ": 511,
      "Ἄ": 512,
      "ἐ": 513,
      "Ἐ": 514,
      "ἤ": 515,
      "ἰ": 516,
      "ἱ": 517,
      "Ἱ": 518,
      "ὰ": 519,
      "ὴ": 520,
      "ᾶ": 521,
      "ῃ": 522,
      "ῆ": 523,
      "ῖ": 524,
      "Ῥ": 525,
      "ῶ": 526,
      "ῷ": 527,
      "​": 528,
      "‎": 529,
      "‐": 530,
      "‑": 531,
      "‒": 532,
      "–": 533,
      "—": 534,
      "―": 535,
      "‘": 536,
      "’": 537,
      "“": 538,
      "”": 539,
      "„": 540,
      "†": 541,
      "•": 542,
      "…": 543,
      "‰": 544,
      "′": 545,
      "⁂": 546,
      "⁰": 547,
      "₁": 548,
      "₂": 549,
      "₩": 550,
      "€": 551,
      "₳": 552,
      "№": 553,
      "⅓": 554,
      "⅔": 555,
      "⅛": 556,
      "←": 557,
      "→": 558,
      "↔": 559,
      "⇌": 560,
      "∀": 561,
      "−": 562,
      "∙": 563,
      "∞": 564,
      "≈": 565,
      "≡": 566,
      "≤": 567,
      "≥": 568,
      "⊖": 569,
      "⋅": 570,
      "Ⓐ": 571,
      "▼": 572,
      "☫": 573,
      "♈": 574,
      "♒": 575,
      "⩽": 576,
      "ⱥ": 577,
      "Ɑ": 578,
      "Ɐ": 579,
      "Ɒ": 580,
      "ⲃ": 581,
      "ⲉ": 582,
      "ⲧ": 583,
      "ⲱ": 584,
      "さ": 585,
      "な": 586,
      "ア": 587,
      "イ": 588,
      "ェ": 589,
      "キ": 590,
      "グ": 591,
      "ケ": 592,
      "ス": 593,
      "ッ": 594,
      "テ": 595,
      "ト": 596,
      "ナ": 597,
      "ニ": 598,
      "バ": 599,
      "ビ": 600,
      "フ": 601,
      "ロ": 602,
      "ン": 603,
      "ㄌ": 604,
      "ㄢ": 605,
      "ㄨ": 606,
      "三": 607,
      "亜": 608,
      "君": 609,
      "垒": 610,
      "堂": 611,
      "壁": 612,
      "天": 613,
      "婁": 614,
      "対": 615,
      "小": 616,
      "島": 617,
      "左": 618,
      "戦": 619,
      "更": 620,
      "林": 621,
      "獣": 622,
      "盘": 623,
      "盤": 624,
      "算": 625,
      "細": 626,
      "絶": 627,
      "線": 628,
      "羽": 629,
      "胃": 630,
      "藻": 631,
      "鑒": 632,
      "阵": 633,
      "陰": 634,
      "魔": 635,
      "Ꞻ": 636,
      "ꞻ": 637,
      "ꬱ": 638,
      "산": 639,
      "수": 640,
      "주": 641,
      "판": 642,
      "︎": 643,
      "／": 644,
      "𐌀": 645,
      "𐤀": 646,
      "𓅓": 647,
      "𓆎": 648,
      "𓊖": 649,
      "𓏏": 650,
      "🇦": 651,
      "🇫": 652,
      "🇮": 653,
      "🇶": 654,
      "🇷": 655,
      "🇸": 656,
      "🇺": 657,
      "🇿": 658,
      "th": 659,
      "in": 660,
      "an": 661,
      "ст": 662,
      "er": 663,
      "the": 664,
      "on": 665,
      "ен": 666,
      "ра": 667,
      "но": 668,
      "ро": 669,
      "re": 670,
      "at": 671,
      "ко": 672,
      "на": 673,
      "al": 674,
      "en": 675,
      "ed": 676,
      "го": 677,
      "or": 678,
      "st": 679,
      "ре": 680,
      "ar": 681,
      "of": 682,
      "по": 683,
      "ли": 684,
      "во": 685,
      "and": 686,
      "ны": 687,
      "es": 688,
      "ни": 689,
      "is": 690,
      "ль": 691,
      "то": 692,
      "ic": 693,
      "as": 694,
      "ва": 695,
      "it": 696,
      "ри": 697,
      "ion": 698,
      "ка": 699,
      "to": 700,
      "ing": 701,
      "ло": 702,
      "ки": 703,
      "те": 704,
      "ro": 705,
      "да": 706,
      "ла": 707,
      "ени": 708,
      "ми": 709,
      "le": 710,
      "со": 711,
      "ве": 712,
      "не": 713,
      "та": 714,
      "ou": 715,
      "ле": 716,
      "ти": 717,
      "ent": 718,
      "за": 719,
      "ци": 720,
      "ско": 721,
      "до": 722,
      "he": 723,
      "де": 724,
      "il": 725,
      "ме": 726,
      "че": 727,
      "ac": 728,
      "ви": 729,
      "ol": 730,
      "19": 731,
      "om": 732,
      "ма": 733,
      "ру": 734,
      "el": 735,
      "ски": 736,
      "ся": 737,
      "ди": 738,
      "мо": 739,
      "ch": 740,
      "си": 741,
      "de": 742,
      "пе": 743,
      "am": 744,
      "про": 745,
      "об": 746,
      "ля": 747,
      "se": 748,
      "ста": 749,
      "вы": 750,
      "ly": 751,
      "be": 752,
      "ation": 753,
      "бо": 754,
      "im": 755,
      "ur": 756,
      "for": 757,
      "ет": 758,
      "iv": 759,
      "ad": 760,
      "се": 761,
      "сти": 762,
      "ча": 763,
      "сто": 764,
      "ct": 765,
      "при": 766,
      "от": 767,
      "The": 768,
      "из": 769,
      "20": 770,
      "ных": 771,
      "ду": 772,
      "con": 773,
      "us": 774,
      "ной": 775,
      "бы": 776,
      "ter": 777,
      "id": 778,
      "ig": 779,
      "ce": 780,
      "па": 781,
      "wh": 782,
      "un": 783,
      "ith": 784,
      "ения": 785,
      "ab": 786,
      "ir": 787,
      "ги": 788,
      "ist": 789,
      "ul": 790,
      "чи": 791,
      "ow": 792,
      "ос": 793,
      "раз": 794,
      "ть": 795,
      "ver": 796,
      "ные": 797,
      "ag": 798,
      "ры": 799,
      "mo": 800,
      "was": 801,
      "ение": 802,
      "пре": 803,
      "op": 804,
      "are": 805,
      "га": 806,
      "ств": 807,
      "хо": 808,
      "ut": 809,
      "by": 810,
      "са": 811,
      "with": 812,
      "ers": 813,
      "pro": 814,
      "сь": 815,
      "et": 816,
      "em": 817,
      "ap": 818,
      "ного": 819,
      "же": 820,
      "um": 821,
      "that": 822,
      "мен": 823,
      "res": 824,
      "тель": 825,
      "ot": 826,
      "ер": 827,
      "сть": 828,
      "ку": 829,
      "ши": 830,
      "ный": 831,
      "ту": 832,
      "com": 833,
      "av": 834,
      "ты": 835,
      "su": 836,
      "ther": 837,
      "ще": 838,
      "ской": 839,
      "tr": 840,
      "му": 841,
      "су": 842,
      "ay": 843,
      "ex": 844,
      "est": 845,
      "ies": 846,
      "In": 847,
      "года": 848,
      "pe": 849,
      "ска": 850,
      "ство": 851,
      "lo": 852,
      "oun": 853,
      "ор": 854,
      "if": 855,
      "ain": 856,
      "rom": 857,
      "ate": 858,
      "ции": 859,
      "his": 860,
      "ian": 861,
      "ря": 862,
      "ран": 863,
      "ют": 864,
      "ем": 865,
      "вой": 866,
      "ну": 867,
      "пи": 868,
      "ния": 869,
      "from": 870,
      "all": 871,
      "ная": 872,
      "ere": 873,
      "щи": 874,
      "so": 875,
      "18": 876,
      "ский": 877,
      "ского": 878,
      "гра": 879,
      "os": 880,
      "лу": 881,
      "00": 882,
      "pl": 883,
      "cl": 884,
      "ей": 885,
      "ant": 886,
      "ity": 887,
      "ня": 888,
      "art": 889,
      "кото": 890,
      "спо": 891,
      "ast": 892,
      "qu": 893,
      "ical": 894,
      "ар": 895,
      "ci": 896,
      "ин": 897,
      "он": 898,
      "лен": 899,
      "od": 900,
      "нов": 901,
      "пра": 902,
      "ствен": 903,
      "жи": 904,
      "ia": 905,
      "ется": 906,
      "ich": 907,
      "ства": 908,
      "сле": 909,
      "ud": 910,
      "Al": 911,
      "бе": 912,
      "пу": 913,
      "per": 914,
      "вер": 915,
      "ке": 916,
      "ph": 917,
      "ров": 918,
      "лю": 919,
      "og": 920,
      "ort": 921,
      "горо": 922,
      "ated": 923,
      "мы": 924,
      "ive": 925,
      "ear": 926,
      "ба": 927,
      "году": 928,
      "An": 929,
      "кон": 930,
      "тер": 931,
      "под": 932,
      "du": 933,
      "ld": 934,
      "фи": 935,
      "ских": 936,
      "ным": 937,
      "зо": 938,
      "ess": 939,
      "ment": 940,
      "рова": 941,
      "ill": 942,
      "ние": 943,
      "act": 944,
      "der": 945,
      "ri": 946,
      "gh": 947,
      "вля": 948,
      "igh": 949,
      "ish": 950,
      "зи": 951,
      "ская": 952,
      "sh": 953,
      "te": 954,
      "which": 955,
      "ан": 956,
      "ak": 957,
      "По": 958,
      "СС": 959,
      "ное": 960,
      "ше": 961,
      "man": 962,
      "ne": 963,
      "би": 964,
      "ber": 965,
      "Ar": 966,
      "ard": 967,
      "ские": 968,
      "ell": 969,
      "зы": 970,
      "wor": 971,
      "ure": 972,
      "ary": 973,
      "тов": 974,
      "ass": 975,
      "ков": 976,
      "pt": 977,
      "ave": 978,
      "ong": 979,
      "це": 980,
      "пере": 981,
      "ды": 982,
      "ang": 983,
      "pr": 984,
      "201": 985,
      "our": 986,
      "not": 987,
      "end": 988,
      "аль": 989,
      "over": 990,
      "бу": 991,
      "ous": 992,
      "что": 993,
      "вре": 994,
      "ions": 995,
      "ности": 996,
      "were": 997,
      "Со": 998,
      "так": 999,
      "one": 1000,
      "ность": 1001,
      "ён": 1002,
      "str": 1003,
      "form": 1004,
      "af": 1005,
      "ally": 1006,
      "its": 1007,
      "200": 1008,
      "рас": 1009,
      "стра": 1010,
      "сло": 1011,
      "вет": 1012,
      "rit": 1013,
      "стро": 1014,
      "зна": 1015,
      "дар": 1016,
      "ления": 1017,
      "ult": 1018,
      "для": 1019,
      "up": 1020,
      "это": 1021,
      "comp": 1022,
      "кт": 1023,
      "пер": 1024,
      "17": 1025,
      "жа": 1026,
      "которы": 1027,
      "ev": 1028,
      "ire": 1029,
      "ком": 1030,
      "iz": 1031,
      "как": 1032,
      "ция": 1033,
      "На": 1034,
      "out": 1035,
      "пред": 1036,
      "ент": 1037,
      "have": 1038,
      "tw": 1039,
      "pol": 1040,
      "but": 1041,
      "ans": 1042,
      "Рос": 1043,
      "ine": 1044,
      "ном": 1045,
      "воз": 1046,
      "Am": 1047,
      "од": 1048,
      "Росси": 1049,
      "нии": 1050,
      "cent": 1051,
      "она": 1052,
      "au": 1053,
      "тиче": 1054,
      "ющи": 1055,
      "ect": 1056,
      "ame": 1057,
      "ge": 1058,
      "oc": 1059,
      "ts": 1060,
      "гла": 1061,
      "ial": 1062,
      "ence": 1063,
      "им": 1064,
      "II": 1065,
      "also": 1066,
      "лись": 1067,
      "age": 1068,
      "тив": 1069,
      "has": 1070,
      "port": 1071,
      "ip": 1072,
      "ак": 1073,
      "сси": 1074,
      "cre": 1075,
      "ates": 1076,
      "ore": 1077,
      "me": 1078,
      "ub": 1079,
      "had": 1080,
      "спе": 1081,
      "мя": 1082,
      "other": 1083,
      "ис": 1084,
      "cont": 1085,
      "вя": 1086,
      "все": 1087,
      "рии": 1088,
      "Un": 1089,
      "ша": 1090,
      "ound": 1091,
      "вод": 1092,
      "ome": 1093,
      "199": 1094,
      "или": 1095,
      "фор": 1096,
      "сте": 1097,
      "ater": 1098,
      "ace": 1099,
      "ев": 1100,
      "fer": 1101,
      "ib": 1102,
      "гу": 1103,
      "Во": 1104,
      "ща": 1105,
      "pre": 1106,
      "pres": 1107,
      "дру": 1108,
      "their": 1109,
      "боль": 1110,
      "aw": 1111,
      "дов": 1112,
      "ней": 1113,
      "ление": 1114,
      "логи": 1115,
      "ходи": 1116,
      "нача": 1117,
      "сво": 1118,
      "ations": 1119,
      "ца": 1120,
      "ew": 1121,
      "ks": 1122,
      "part": 1123,
      "ную": 1124,
      "ree": 1125,
      "кра": 1126,
      "ide": 1127,
      "сту": 1128,
      "ory": 1129,
      "St": 1130,
      "ными": 1131,
      "хи": 1132,
      "образ": 1133,
      "ely": 1134,
      "ха": 1135,
      "зу": 1136,
      "ред": 1137,
      "ould": 1138,
      "ach": 1139,
      "госу": 1140,
      "рабо": 1141,
      "ign": 1142,
      "own": 1143,
      "incl": 1144,
      "государ": 1145,
      "том": 1146,
      "лы": 1147,
      "соста": 1148,
      "ются": 1149,
      "также": 1150,
      "bo": 1151,
      "gr": 1152,
      "used": 1153,
      "li": 1154,
      "дан": 1155,
      "ден": 1156,
      "sp": 1157,
      "col": 1158,
      "dis": 1159,
      "fir": 1160,
      "ight": 1161,
      "мер": 1162,
      "был": 1163,
      "most": 1164,
      "ov": 1165,
      "ple": 1166,
      "Ка": 1167,
      "явля": 1168,
      "ition": 1169,
      "кре": 1170,
      "ma": 1171,
      "руп": 1172,
      "стви": 1173,
      "ction": 1174,
      "sy": 1175,
      "стоя": 1176,
      "поли": 1177,
      "после": 1178,
      "вши": 1179,
      "land": 1180,
      "can": 1181,
      "comm": 1182,
      "Ch": 1183,
      "able": 1184,
      "лось": 1185,
      "бли": 1186,
      "ime": 1187,
      "ob": 1188,
      "жен": 1189,
      "дей": 1190,
      "род": 1191,
      "ское": 1192,
      "тся": 1193,
      "ении": 1194,
      "соб": 1195,
      "pos": 1196,
      "лее": 1197,
      "ces": 1198,
      "лся": 1199,
      "first": 1200,
      "ству": 1201,
      "Th": 1202,
      "gen": 1203,
      "дер": 1204,
      "его": 1205,
      "еди": 1206,
      "ef": 1207,
      "who": 1208,
      "СР": 1209,
      "10": 1210,
      "ile": 1211,
      "ced": 1212,
      "ra": 1213,
      "this": 1214,
      "ser": 1215,
      "ran": 1216,
      "ге": 1217,
      "eric": 1218,
      "были": 1219,
      "low": 1220,
      "int": 1221,
      "ilm": 1222,
      "194": 1223,
      "ack": 1224,
      "spe": 1225,
      "вто": 1226,
      "ke": 1227,
      "зда": 1228,
      "coun": 1229,
      "лей": 1230,
      "сы": 1231,
      "вания": 1232,
      "such": 1233,
      "ром": 1234,
      "198": 1235,
      "po": 1236,
      "ений": 1237,
      "ind": 1238,
      "more": 1239,
      "обще": 1240,
      "gro": 1241,
      "три": 1242,
      "been": 1243,
      "als": 1244,
      "лась": 1245,
      "ren": 1246,
      "year": 1247,
      "пар": 1248,
      "than": 1249,
      "города": 1250,
      "Americ": 1251,
      "He": 1252,
      "Af": 1253,
      "cor": 1254,
      "hy": 1255,
      "орга": 1256,
      "att": 1257,
      "уч": 1258,
      "produ": 1259,
      "ok": 1260,
      "ten": 1261,
      "пол": 1262,
      "ric": 1263,
      "ele": 1264,
      "мож": 1265,
      "ational": 1266,
      "более": 1267,
      "пла": 1268,
      "их": 1269,
      "lar": 1270,
      "rel": 1271,
      "ough": 1272,
      "fl": 1273,
      "При": 1274,
      "ism": 1275,
      "15": 1276,
      "жду": 1277,
      "uring": 1278,
      "было": 1279,
      "cons": 1280,
      "СССР": 1281,
      "co": 1282,
      "ву": 1283,
      "фе": 1284,
      "циаль": 1285,
      "ust": 1286,
      "ever": 1287,
      "За": 1288,
      "вые": 1289,
      "As": 1290,
      "ск": 1291,
      "inter": 1292,
      "вых": 1293,
      "olog": 1294,
      "зе": 1295,
      "film": 1296,
      "вед": 1297,
      "испо": 1298,
      "into": 1299,
      "any": 1300,
      "России": 1301,
      "пы": 1302,
      "раль": 1303,
      "вла": 1304,
      "ents": 1305,
      "ман": 1306,
      "исто": 1307,
      "коно": 1308,
      "ty": 1309,
      "they": 1310,
      "ход": 1311,
      "ited": 1312,
      "лове": 1313,
      "тро": 1314,
      "тор": 1315,
      "ice": 1316,
      "ян": 1317,
      "стран": 1318,
      "зем": 1319,
      "It": 1320,
      "des": 1321,
      "thro": 1322,
      "произ": 1323,
      "рито": 1324,
      "была": 1325,
      "ском": 1326,
      "angu": 1327,
      "зыва": 1328,
      "лько": 1329,
      "196": 1330,
      "arch": 1331,
      "слу": 1332,
      "cess": 1333,
      "объ": 1334,
      "яб": 1335,
      "вание": 1336,
      "ics": 1337,
      "рус": 1338,
      "ors": 1339,
      "насе": 1340,
      "includ": 1341,
      "some": 1342,
      "свя": 1343,
      "прави": 1344,
      "fin": 1345,
      "ance": 1346,
      "ari": 1347,
      "челове": 1348,
      "жд": 1349,
      "сла": 1350,
      "Con": 1351,
      "min": 1352,
      "дол": 1353,
      "her": 1354,
      "my": 1355,
      "тра": 1356,
      "террито": 1357,
      "cr": 1358,
      "вро": 1359,
      "цент": 1360,
      "ван": 1361,
      "ict": 1362,
      "коло": 1363,
      "ению": 1364,
      "между": 1365,
      "ern": 1366,
      "город": 1367,
      "use": 1368,
      "полу": 1369,
      "прав": 1370,
      "reg": 1371,
      "тия": 1372,
      "име": 1373,
      "ied": 1374,
      "ark": 1375,
      "ским": 1376,
      "пад": 1377,
      "образо": 1378,
      "рь": 1379,
      "ron": 1380,
      "время": 1381,
      "bec": 1382,
      "ubl": 1383,
      "ite": 1384,
      "лек": 1385,
      "Ве": 1386,
      "каза": 1387,
      "жение": 1388,
      "main": 1389,
      "год": 1390,
      "ний": 1391,
      "ugh": 1392,
      "нд": 1393,
      "only": 1394,
      "кой": 1395,
      "sub": 1396,
      "пера": 1397,
      "them": 1398,
      "ists": 1399,
      "War": 1400,
      "миче": 1401,
      "Ко": 1402,
      "ена": 1403,
      "bas": 1404,
      "vi": 1405,
      "нима": 1406,
      "kn": 1407,
      "ular": 1408,
      "ens": 1409,
      "цион": 1410,
      "16": 1411,
      "ve": 1412,
      "two": 1413,
      "фа": 1414,
      "ury": 1415,
      "vel": 1416,
      "ium": 1417,
      "клю": 1418,
      "ep": 1419,
      "000": 1420,
      "кла": 1421,
      "langu": 1422,
      "други": 1423,
      "after": 1424,
      "ску": 1425,
      "sc": 1426,
      "ta": 1427,
      "пло": 1428,
      "work": 1429,
      "many": 1430,
      "12": 1431,
      "een": 1432,
      "цы": 1433,
      "ific": 1434,
      "Ли": 1435,
      "uro": 1436,
      "вать": 1437,
      "бур": 1438,
      "und": 1439,
      "At": 1440,
      "num": 1441,
      "Евро": 1442,
      "ника": 1443,
      "сов": 1444,
      "емы": 1445,
      "old": 1446,
      "197": 1447,
      "вая": 1448,
      "les": 1449,
      "тре": 1450,
      "would": 1451,
      "mon": 1452,
      "Бо": 1453,
      "time": 1454,
      "ject": 1455,
      "Се": 1456,
      "14": 1457,
      "обла": 1458,
      "исполь": 1459,
      "prov": 1460,
      "лет": 1461,
      "air": 1462,
      "органи": 1463,
      "восто": 1464,
      "lex": 1465,
      "ings": 1466,
      "рон": 1467,
      "кры": 1468,
      "поло": 1469,
      "reat": 1470,
      "реди": 1471,
      "преде": 1472,
      "которо": 1473,
      "част": 1474,
      "Se": 1475,
      "ue": 1476,
      "воен": 1477,
      "iss": 1478,
      "outh": 1479,
      "ade": 1480,
      "br": 1481,
      "30": 1482,
      "Пе": 1483,
      "рия": 1484,
      "ily": 1485,
      "met": 1486,
      "части": 1487,
      "gy": 1488,
      "ities": 1489,
      "American": 1490,
      "жения": 1491,
      "тр": 1492,
      "med": 1493,
      "192": 1494,
      "ages": 1495,
      "Apol": 1496,
      "ince": 1497,
      "ood": 1498,
      "loc": 1499,
      "Ки": 1500,
      "тали": 1501,
      "отно": 1502,
      "чен": 1503,
      "under": 1504,
      "разви": 1505,
      "является": 1506,
      "циона": 1507,
      "led": 1508,
      "ual": 1509,
      "pop": 1510,
      "though": 1511,
      "him": 1512,
      "ене": 1513,
      "no": 1514,
      "Гер": 1515,
      "сред": 1516,
      "stem": 1517,
      "dif": 1518,
      "ese": 1519,
      "betw": 1520,
      "мини": 1521,
      "between": 1522,
      "Ма": 1523,
      "века": 1524,
      "ural": 1525,
      "осно": 1526,
      "This": 1527,
      "ry": 1528,
      "we": 1529,
      "Apollo": 1530,
      "ath": 1531,
      "fore": 1532,
      "лов": 1533,
      "тий": 1534,
      "gan": 1535,
      "ок": 1536,
      "cur": 1537,
      "ae": 1538,
      "рез": 1539,
      "али": 1540,
      "Не": 1541,
      "tain": 1542,
      "совет": 1543,
      "soci": 1544,
      "язы": 1545,
      "red": 1546,
      "ём": 1547,
      "ress": 1548,
      "state": 1549,
      "публи": 1550,
      "century": 1551,
      "зя": 1552,
      "которые": 1553,
      "50": 1554,
      "ted": 1555,
      "ered": 1556,
      "new": 1557,
      "orth": 1558,
      "13": 1559,
      "ative": 1560,
      "вос": 1561,
      "мар": 1562,
      "when": 1563,
      "Бе": 1564,
      "них": 1565,
      "Ре": 1566,
      "стве": 1567,
      "countr": 1568,
      "лич": 1569,
      "эконо": 1570,
      "may": 1571,
      "sl": 1572,
      "тем": 1573,
      "времен": 1574,
      "ана": 1575,
      "off": 1576,
      "eral": 1577,
      "about": 1578,
      "char": 1579,
      "ник": 1580,
      "ians": 1581,
      "stru": 1582,
      "do": 1583,
      "ution": 1584,
      "ton": 1585,
      "car": 1586,
      "where": 1587,
      "юще": 1588,
      "стан": 1589,
      "ору": 1590,
      "Но": 1591,
      "ating": 1592,
      "war": 1593,
      "тери": 1594,
      "цию": 1595,
      "cond": 1596,
      "вор": 1597,
      "writ": 1598,
      "поль": 1599,
      "190": 1600,
      "ext": 1601,
      "serv": 1602,
      "ond": 1603,
      "ban": 1604,
      "fe": 1605,
      "ude": 1606,
      "che": 1607,
      "дом": 1608,
      "предста": 1609,
      "ал": 1610,
      "set": 1611,
      "known": 1612,
      "found": 1613,
      "urn": 1614,
      "они": 1615,
      "cted": 1616,
      "води": 1617,
      "тур": 1618,
      "тера": 1619,
      "well": 1620,
      "Па": 1621,
      "ться": 1622,
      "суще": 1623,
      "inv": 1624,
      "грани": 1625,
      "ms": 1626,
      "графи": 1627,
      "Ми": 1628,
      "бри": 1629,
      "present": 1630,
      "during": 1631,
      "гда": 1632,
      "sur": 1633,
      "dr": 1634,
      "ys": 1635,
      "тельно": 1636,
      "ivers": 1637,
      "скую": 1638,
      "осу": 1639,
      "ized": 1640,
      "ase": 1641,
      "круп": 1642,
      "созда": 1643,
      "Вели": 1644,
      "high": 1645,
      "ек": 1646,
      "народ": 1647,
      "пор": 1648,
      "through": 1649,
      "ures": 1650,
      "ann": 1651,
      "населения": 1652,
      "вый": 1653,
      "years": 1654,
      "рав": 1655,
      "cord": 1656,
      "доро": 1657,
      "един": 1658,
      "vis": 1659,
      "Лени": 1660,
      "нако": 1661,
      "куль": 1662,
      "которых": 1663,
      "De": 1664,
      "войны": 1665,
      "system": 1666,
      "ября": 1667,
      "11": 1668,
      "ward": 1669,
      "ople": 1670,
      "волю": 1671,
      "overn": 1672,
      "way": 1673,
      "чение": 1674,
      "ологи": 1675,
      "inst": 1676,
      "lish": 1677,
      "193": 1678,
      "спор": 1679,
      "oh": 1680,
      "мл": 1681,
      "писа": 1682,
      "Герма": 1683,
      "Wh": 1684,
      "fect": 1685,
      "ander": 1686,
      "fam": 1687,
      "ose": 1688,
      "авто": 1689,
      "ause": 1690,
      "dire": 1691,
      "national": 1692,
      "сты": 1693,
      "распо": 1694,
      "правитель": 1695,
      "Re": 1696,
      "лан": 1697,
      "while": 1698,
      "call": 1699,
      "Мос": 1700,
      "ено": 1701,
      "ческих": 1702,
      "ically": 1703,
      "ublic": 1704,
      "ild": 1705,
      "Arab": 1706,
      "действи": 1707,
      "lin": 1708,
      "ких": 1709,
      "ake": 1710,
      "group": 1711,
      "приня": 1712,
      "ью": 1713,
      "then": 1714,
      "including": 1715,
      "вого": 1716,
      "станов": 1717,
      "вали": 1718,
      "ию": 1719,
      "dep": 1720,
      "тру": 1721,
      "тек": 1722,
      "ix": 1723,
      "Ра": 1724,
      "velop": 1725,
      "тан": 1726,
      "cy": 1727,
      "Ни": 1728,
      "ссий": 1729,
      "gest": 1730,
      "vari": 1731,
      "лли": 1732,
      "рай": 1733,
      "ollow": 1734,
      "мас": 1735,
      "ology": 1736,
      "ai": 1737,
      "эк": 1738,
      "atic": 1739,
      "тура": 1740,
      "En": 1741,
      "само": 1742,
      "ющих": 1743,
      "Моск": 1744,
      "эле": 1745,
      "государствен": 1746,
      "ций": 1747,
      "Alex": 1748,
      "ah": 1749,
      "рован": 1750,
      "дви": 1751,
      "develop": 1752,
      "stud": 1753,
      "peri": 1754,
      "world": 1755,
      "лия": 1756,
      "there": 1757,
      "trans": 1758,
      "стре": 1759,
      "ters": 1760,
      "ёт": 1761,
      "счи": 1762,
      "alk": 1763,
      "ger": 1764,
      "sup": 1765,
      "cho": 1766,
      "ids": 1767,
      "ступ": 1768,
      "её": 1769,
      "chn": 1770,
      "ug": 1771,
      "того": 1772,
      "leg": 1773,
      "вели": 1774,
      "пери": 1775,
      "dist": 1776,
      "часть": 1777,
      "цу": 1778,
      "телей": 1779,
      "Ap": 1780,
      "только": 1781,
      "эти": 1782,
      "обо": 1783,
      "около": 1784,
      "ship": 1785,
      "sk": 1786,
      "rap": 1787,
      "территории": 1788,
      "owever": 1789,
      "ят": 1790,
      "ature": 1791,
      "ife": 1792,
      "сса": 1793,
      "льно": 1794,
      "льта": 1795,
      "Euro": 1796,
      "ually": 1797,
      "рев": 1798,
      "cept": 1799,
      "пример": 1800,
      "россий": 1801,
      "United": 1802,
      "these": 1803,
      "лиги": 1804,
      "стру": 1805,
      "нию": 1806,
      "наз": 1807,
      "ident": 1808,
      "21": 1809,
      "состоя": 1810,
      "Brit": 1811,
      "par": 1812,
      "anim": 1813,
      "нее": 1814,
      "Ру": 1815,
      "арми": 1816,
      "ster": 1817,
      "дова": 1818,
      "early": 1819,
      "ons": 1820,
      "тех": 1821,
      "Фран": 1822,
      "мор": 1823,
      "22": 1824,
      "оста": 1825,
      "cap": 1826,
      "later": 1827,
      "day": 1828,
      "ie": 1829,
      "основ": 1830,
      "человек": 1831,
      "составля": 1832,
      "ческие": 1833,
      "Ang": 1834,
      "зации": 1835,
      "both": 1836,
      "For": 1837,
      "Pro": 1838,
      "til": 1839,
      "govern": 1840,
      "ful": 1841,
      "него": 1842,
      "appe": 1843,
      "Ac": 1844,
      "hist": 1845,
      "Ви": 1846,
      "кан": 1847,
      "Gree": 1848,
      "спубли": 1849,
      "чно": 1850,
      "над": 1851,
      "ников": 1852,
      "play": 1853,
      "On": 1854,
      "pers": 1855,
      "uc": 1856,
      "Вла": 1857,
      "гре": 1858,
      "ost": 1859,
      "груп": 1860,
      "форма": 1861,
      "States": 1862,
      "мени": 1863,
      "eng": 1864,
      "мира": 1865,
      "Europe": 1866,
      "bel": 1867,
      "cover": 1868,
      "шо": 1869,
      "рак": 1870,
      "против": 1871,
      "igin": 1872,
      "illion": 1873,
      "ством": 1874,
      "amp": 1875,
      "mov": 1876,
      "ments": 1877,
      "зульта": 1878,
      "follow": 1879,
      "шей": 1880,
      "And": 1881,
      "револю": 1882,
      "мир": 1883,
      "соци": 1884,
      "195": 1885,
      "тран": 1886,
      "sim": 1887,
      "rol": 1888,
      "ностью": 1889,
      "шая": 1890,
      "exam": 1891,
      "Com": 1892,
      "фу": 1893,
      "New": 1894,
      "nam": 1895,
      "нк": 1896,
      "социаль": 1897,
      "people": 1898,
      "ческой": 1899,
      "186": 1900,
      "ники": 1901,
      "differ": 1902,
      "Ph": 1903,
      "мыш": 1904,
      "льных": 1905,
      "место": 1906,
      "dom": 1907,
      "being": 1908,
      "cient": 1909,
      "three": 1910,
      "became": 1911,
      "number": 1912,
      "Мо": 1913,
      "лез": 1914,
      "very": 1915,
      "км": 1916,
      "Пос": 1917,
      "результа": 1918,
      "ющие": 1919,
      "cer": 1920,
      "лин": 1921,
      "Lin": 1922,
      "мно": 1923,
      "цен": 1924,
      "thern": 1925,
      "Влади": 1926,
      "бер": 1927,
      "держа": 1928,
      "опреде": 1929,
      "ask": 1930,
      "udi": 1931,
      "contin": 1932,
      "больши": 1933,
      "ise": 1934,
      "let": 1935,
      "ars": 1936,
      "вест": 1937,
      "made": 1938,
      "Or": 1939,
      "ёр": 1940,
      "ulation": 1941,
      "Поль": 1942,
      "значи": 1943,
      "sm": 1944,
      "вра": 1945,
      "ложен": 1946,
      "сою": 1947,
      "ement": 1948,
      "туры": 1949,
      "called": 1950,
      "ail": 1951,
      "cour": 1952,
      "stit": 1953,
      "зави": 1954,
      "теле": 1955,
      "imes": 1956,
      "sol": 1957,
      "cult": 1958,
      "ост": 1959,
      "bit": 1960,
      "собо": 1961,
      "Совет": 1962,
      "Joh": 1963,
      "bu": 1964,
      "origin": 1965,
      "Le": 1966,
      "личе": 1967,
      "iver": 1968,
      "techn": 1969,
      "jor": 1970,
      "Са": 1971,
      "жда": 1972,
      "spec": 1973,
      "Алек": 1974,
      "кро": 1975,
      "сно": 1976,
      "страны": 1977,
      "ss": 1978,
      "истори": 1979,
      "яви": 1980,
      "ур": 1981,
      "теля": 1982,
      "высо": 1983,
      "ived": 1984,
      "тербур": 1985,
      "религи": 1986,
      "add": 1987,
      "тыс": 1988,
      "hum": 1989,
      "рой": 1990,
      "вое": 1991,
      "ответ": 1992,
      "Alexander": 1993,
      "ад": 1994,
      "consid": 1995,
      "шения": 1996,
      "III": 1997,
      "Пет": 1998,
      "тин": 1999,
      "based": 2000,
      "Пер": 2001,
      "мест": 2002,
      "sign": 2003,
      "нием": 2004,
      "политиче": 2005,
      "зма": 2006,
      "обра": 2007,
      "charac": 2008,
      "less": 2009,
      "шение": 2010,
      "cri": 2011,
      "chang": 2012,
      "йской": 2013,
      "сли": 2014,
      "чем": 2015,
      "бере": 2016,
      "мышлен": 2017,
      "del": 2018,
      "фо": 2019,
      "ях": 2020,
      "ены": 2021,
      "often": 2022,
      "long": 2023,
      "uch": 2024,
      "25": 2025,
      "order": 2026,
      "поз": 2027,
      "cial": 2028,
      "iel": 2029,
      "гли": 2030,
      "зова": 2031,
      "direct": 2032,
      "ат": 2033,
      "лом": 2034,
      "уни": 2035,
      "ins": 2036,
      "elf": 2037,
      "тыся": 2038,
      "войска": 2039,
      "ible": 2040,
      "fact": 2041,
      "pow": 2042,
      "ali": 2043,
      "country": 2044,
      "Arabic": 2045,
      "ral": 2046,
      "кого": 2047,
      "ences": 2048,
      "каб": 2049,
      "ilos": 2050,
      "вым": 2051,
      "откры": 2052,
      "partic": 2053,
      "ds": 2054,
      "Си": 2055,
      "больше": 2056,
      "depend": 2057,
      "зависи": 2058,
      "строй": 2059,
      "Петербур": 2060,
      "Sp": 2061,
      "емо": 2062,
      "чения": 2063,
      "ock": 2064,
      "гер": 2065,
      "ilosop": 2066,
      "Sh": 2067,
      "languages": 2068,
      "dam": 2069,
      "Об": 2070,
      "кня": 2071,
      "лага": 2072,
      "hol": 2073,
      "open": 2074,
      "bed": 2075,
      "bro": 2076,
      "лён": 2077,
      "ilit": 2078,
      "like": 2079,
      "млн": 2080,
      "aster": 2081,
      "верси": 2082,
      "После": 2083,
      "city": 2084,
      "Итали": 2085,
      "ую": 2086,
      "arm": 2087,
      "систе": 2088,
      "coln": 2089,
      "Север": 2090,
      "Lincoln": 2091,
      "хра": 2092,
      "струк": 2093,
      "water": 2094,
      "До": 2095,
      "реги": 2096,
      "sever": 2097,
      "uss": 2098,
      "flu": 2099,
      "por": 2100,
      "оке": 2101,
      "уров": 2102,
      "разде": 2103,
      "тора": 2104,
      "через": 2105,
      "простран": 2106,
      "ember": 2107,
      "west": 2108,
      "гово": 2109,
      "John": 2110,
      "Сан": 2111,
      "чной": 2112,
      "ants": 2113,
      "major": 2114,
      "ble": 2115,
      "ale": 2116,
      "гов": 2117,
      "льные": 2118,
      "dec": 2119,
      "обе": 2120,
      "строи": 2121,
      "ному": 2122,
      "кола": 2123,
      "hel": 2124,
      "град": 2125,
      "turn": 2126,
      "называ": 2127,
      "ститу": 2128,
      "извест": 2129,
      "цев": 2130,
      "иссле": 2131,
      "bers": 2132,
      "Ме": 2133,
      "зм": 2134,
      "ствова": 2135,
      "BC": 2136,
      "North": 2137,
      "iev": 2138,
      "нови": 2139,
      "кор": 2140,
      "мая": 2141,
      "промышлен": 2142,
      "стов": 2143,
      "хов": 2144,
      "мента": 2145,
      "послед": 2146,
      "Egy": 2147,
      "нейши": 2148,
      "тя": 2149,
      "four": 2150,
      "Го": 2151,
      "неско": 2152,
      "second": 2153,
      "экономиче": 2154,
      "Про": 2155,
      "requ": 2156,
      "миро": 2157,
      "elect": 2158,
      "British": 2159,
      "вклю": 2160,
      "alg": 2161,
      "mer": 2162,
      "Та": 2163,
      "национа": 2164,
      "ca": 2165,
      "language": 2166,
      "fed": 2167,
      "inn": 2168,
      "Ин": 2169,
      "лё": 2170,
      "ives": 2171,
      "again": 2172,
      "Egypt": 2173,
      "could": 2174,
      "lect": 2175,
      "Ан": 2176,
      "находи": 2177,
      "arg": 2178,
      "кие": 2179,
      "view": 2180,
      "iter": 2181,
      "moder": 2182,
      "ктро": 2183,
      "lim": 2184,
      "incre": 2185,
      "той": 2186,
      "тии": 2187,
      "ческий": 2188,
      "хозя": 2189,
      "Apple": 2190,
      "зан": 2191,
      "Восто": 2192,
      "conom": 2193,
      "23": 2194,
      "vent": 2195,
      "ash": 2196,
      "ках": 2197,
      "ility": 2198,
      "сист": 2199,
      "ru": 2200,
      "class": 2201,
      "счита": 2202,
      "aid": 2203,
      "result": 2204,
      "который": 2205,
      "effect": 2206,
      "Wor": 2207,
      "zer": 2208,
      "влен": 2209,
      "ety": 2210,
      "право": 2211,
      "iversity": 2212,
      "Ар": 2213,
      "Ленин": 2214,
      "24": 2215,
      "include": 2216,
      "now": 2217,
      "Од": 2218,
      "неме": 2219,
      "архи": 2220,
      "возмож": 2221,
      "Ear": 2222,
      "oth": 2223,
      "ждан": 2224,
      "мон": 2225,
      "before": 2226,
      "производ": 2227,
      "mot": 2228,
      "щё": 2229,
      "этом": 2230,
      "XI": 2231,
      "each": 2232,
      "скими": 2233,
      "tern": 2234,
      "площа": 2235,
      "government": 2236,
      "remain": 2237,
      "вших": 2238,
      "других": 2239,
      "back": 2240,
      "stand": 2241,
      "ared": 2242,
      "exp": 2243,
      "кресть": 2244,
      "Atl": 2245,
      "app": 2246,
      "Col": 2247,
      "оди": 2248,
      "suc": 2249,
      "ively": 2250,
      "40": 2251,
      "since": 2252,
      "слен": 2253,
      "aced": 2254,
      "ряд": 2255,
      "может": 2256,
      "Алекса": 2257,
      "az": 2258,
      "современ": 2259,
      "Ind": 2260,
      "смо": 2261,
      "енно": 2262,
      "согла": 2263,
      "Так": 2264,
      "глав": 2265,
      "small": 2266,
      "член": 2267,
      "ization": 2268,
      "хозяй": 2269,
      "bl": 2270,
      "ting": 2271,
      "тен": 2272,
      "million": 2273,
      "tem": 2274,
      "цо": 2275,
      "запад": 2276,
      "ax": 2277,
      "son": 2278,
      "жиз": 2279,
      "способ": 2280,
      "control": 2281,
      "льный": 2282,
      "ley": 2283,
      "come": 2284,
      "aking": 2285,
      "Union": 2286,
      "large": 2287,
      "точ": 2288,
      "ute": 2289,
      "получи": 2290,
      "population": 2291,
      "example": 2292,
      "read": 2293,
      "кисло": 2294,
      "тели": 2295,
      "ствует": 2296,
      "because": 2297,
      "name": 2298,
      "ходит": 2299,
      "государства": 2300,
      "jan": 2301,
      "mark": 2302,
      "дея": 2303,
      "ograp": 2304,
      "several": 2305,
      "ides": 2306,
      "equ": 2307,
      "много": 2308,
      "льной": 2309,
      "ляр": 2310,
      "ished": 2311,
      "власти": 2312,
      "Велико": 2313,
      "modern": 2314,
      "дву": 2315,
      "ческого": 2316,
      "Александ": 2317,
      "Cl": 2318,
      "non": 2319,
      "ick": 2320,
      "vers": 2321,
      "всех": 2322,
      "дия": 2323,
      "ama": 2324,
      "ional": 2325,
      "сель": 2326,
      "mp": 2327,
      "indu": 2328,
      "ord": 2329,
      "life": 2330,
      "оне": 2331,
      "ёл": 2332,
      "lead": 2333,
      "Eng": 2334,
      "Ger": 2335,
      "io": 2336,
      "кри": 2337,
      "количе": 2338,
      "годах": 2339,
      "aft": 2340,
      "ital": 2341,
      "resp": 2342,
      "этого": 2343,
      "Европе": 2344,
      "cording": 2345,
      "inste": 2346,
      "Greek": 2347,
      "Ag": 2348,
      "go": 2349,
      "наи": 2350,
      "ним": 2351,
      "polit": 2352,
      "сторо": 2353,
      "харак": 2354,
      "men": 2355,
      "ез": 2356,
      "ablish": 2357,
      "вета": 2358,
      "мери": 2359,
      "among": 2360,
      "They": 2361,
      "форми": 2362,
      "ious": 2363,
      "states": 2364,
      "рей": 2365,
      "Angol": 2366,
      "жён": 2367,
      "тие": 2368,
      "import": 2369,
      "However": 2370,
      "усло": 2371,
      "нин": 2372,
      "каче": 2373,
      "ществ": 2374,
      "trad": 2375,
      "Alban": 2376,
      "Боль": 2377,
      "окру": 2378,
      "Все": 2379,
      "гене": 2380,
      "establish": 2381,
      "щая": 2382,
      "Да": 2383,
      "around": 2384,
      "gener": 2385,
      "different": 2386,
      "меня": 2387,
      "struct": 2388,
      "organ": 2389,
      "комп": 2390,
      "iqu": 2391,
      "нами": 2392,
      "ivil": 2393,
      "person": 2394,
      "офи": 2395,
      "без": 2396,
      "clo": 2397,
      "val": 2398,
      "ased": 2399,
      "period": 2400,
      "Jap": 2401,
      "нем": 2402,
      "using": 2403,
      "ided": 2404,
      "Ex": 2405,
      "рома": 2406,
      "line": 2407,
      "годов": 2408,
      "кий": 2409,
      "мет": 2410,
      "ственно": 2411,
      "транспор": 2412,
      "dro": 2413,
      "ven": 2414,
      "Ку": 2415,
      "уже": 2416,
      "oper": 2417,
      "вший": 2418,
      "XV": 2419,
      "использу": 2420,
      "шта": 2421,
      "цией": 2422,
      "ждения": 2423,
      "результате": 2424,
      "aim": 2425,
      "econom": 2426,
      "онов": 2427,
      "кол": 2428,
      "тей": 2429,
      "проис": 2430,
      "will": 2431,
      "ав": 2432,
      "глу": 2433,
      "oman": 2434,
      "стал": 2435,
      "Госу": 2436,
      "itch": 2437,
      "вшие": 2438,
      "вается": 2439,
      "poss": 2440,
      "support": 2441,
      "жной": 2442,
      "There": 2443,
      "Санкт": 2444,
      "bod": 2445,
      "бра": 2446,
      "мето": 2447,
      "отде": 2448,
      "немец": 2449,
      "saw": 2450,
      "Су": 2451,
      "помо": 2452,
      "ким": 2453,
      "descri": 2454,
      "брита": 2455,
      "Великобрита": 2456,
      "Japan": 2457,
      "rad": 2458,
      "human": 2459,
      "тысяч": 2460,
      "вар": 2461,
      "contr": 2462,
      "atom": 2463,
      "веро": 2464,
      "числен": 2465,
      "Afric": 2466,
      "Германии": 2467,
      "public": 2468,
      "same": 2469,
      "вает": 2470,
      "ками": 2471,
      "нет": 2472,
      "chool": 2473,
      "Кон": 2474,
      "ради": 2475,
      "ref": 2476,
      "alt": 2477,
      "мент": 2478,
      "мень": 2479,
      "press": 2480,
      "West": 2481,
      "дь": 2482,
      "поч": 2483,
      "кар": 2484,
      "бор": 2485,
      "istic": 2486,
      "US": 2487,
      "скому": 2488,
      "призна": 2489,
      "philosop": 2490,
      "Вол": 2491,
      "министра": 2492,
      "fic": 2493,
      "дости": 2494,
      "until": 2495,
      "2010": 2496,
      "ired": 2497,
      "ющий": 2498,
      "полити": 2499,
      "sterdam": 2500,
      "South": 2501,
      "декаб": 2502,
      "желез": 2503,
      "многи": 2504,
      "success": 2505,
      "нах": 2506,
      "Amsterdam": 2507,
      "space": 2508,
      "Warhol": 2509,
      "сс": 2510,
      "ху": 2511,
      "различ": 2512,
      "расположен": 2513,
      "ik": 2514,
      "nor": 2515,
      "Из": 2516,
      "influ": 2517,
      "литера": 2518,
      "тами": 2519,
      "considered": 2520,
      "Государ": 2521,
      "aut": 2522,
      "вал": 2523,
      "even": 2524,
      "Sch": 2525,
      "кси": 2526,
      "соответ": 2527,
      "числе": 2528,
      "включа": 2529,
      "Azer": 2530,
      "ier": 2531,
      "death": 2532,
      "term": 2533,
      "Audi": 2534,
      "Fran": 2535,
      "bor": 2536,
      "где": 2537,
      "those": 2538,
      "рая": 2539,
      "ilar": 2540,
      "University": 2541,
      "largest": 2542,
      "feder": 2543,
      "фрон": 2544,
      "например": 2545,
      "stat": 2546,
      "мире": 2547,
      "меча": 2548,
      "gram": 2549,
      "World": 2550,
      "уча": 2551,
      "ival": 2552,
      "ended": 2553,
      "Gen": 2554,
      "mb": 2555,
      "Ва": 2556,
      "Мин": 2557,
      "вне": 2558,
      "занима": 2559,
      "период": 2560,
      "Де": 2561,
      "allow": 2562,
      "ступа": 2563,
      "80": 2564,
      "дии": 2565,
      "янва": 2566,
      "Ro": 2567,
      "enn": 2568,
      "другие": 2569,
      "189": 2570,
      "городе": 2571,
      "family": 2572,
      "character": 2573,
      "26": 2574,
      "bai": 2575,
      "div": 2576,
      "ещё": 2577,
      "шего": 2578,
      "mar": 2579,
      "прия": 2580,
      "point": 2581,
      "Azerbai": 2582,
      "Azerbaijan": 2583,
      "вс": 2584,
      "formed": 2585,
      "much": 2586,
      "опера": 2587,
      "ane": 2588,
      "коми": 2589,
      "ческая": 2590,
      "ственной": 2591,
      "являются": 2592,
      "ходя": 2593,
      "строитель": 2594,
      "имо": 2595,
      "рий": 2596,
      "milit": 2597,
      "ья": 2598,
      "милли": 2599,
      "miss": 2600,
      "Га": 2601,
      "коман": 2602,
      "iving": 2603,
      "грам": 2604,
      "due": 2605,
      "common": 2606,
      "100": 2607,
      "di": 2608,
      "фер": 2609,
      "дук": 2610,
      "product": 2611,
      "king": 2612,
      "la": 2613,
      "Это": 2614,
      "коро": 2615,
      "нау": 2616,
      "направ": 2617,
      "республи": 2618,
      "arr": 2619,
      "ental": 2620,
      "вич": 2621,
      "виде": 2622,
      "Alask": 2623,
      "Запад": 2624,
      "crit": 2625,
      "vol": 2626,
      "есть": 2627,
      "Afgh": 2628,
      "power": 2629,
      "самы": 2630,
      "After": 2631,
      "Ad": 2632,
      "Tur": 2633,
      "ately": 2634,
      "head": 2635,
      "abort": 2636,
      "lands": 2637,
      "commun": 2638,
      "typ": 2639,
      "Bell": 2640,
      "мов": 2641,
      "широ": 2642,
      "2011": 2643,
      "did": 2644,
      "СШ": 2645,
      "зей": 2646,
      "refer": 2647,
      "against": 2648,
      "распростран": 2649,
      "Be": 2650,
      "Ги": 2651,
      "окт": 2652,
      "хва": 2653,
      "хран": 2654,
      "row": 2655,
      "США": 2656,
      "уда": 2657,
      "Ach": 2658,
      "mus": 2659,
      "цер": 2660,
      "льного": 2661,
      "месте": 2662,
      "27": 2663,
      "els": 2664,
      "action": 2665,
      "Confeder": 2666,
      "craft": 2667,
      "острова": 2668,
      "By": 2669,
      "side": 2670,
      "тон": 2671,
      "проце": 2672,
      "общи": 2673,
      "Inter": 2674,
      "оз": 2675,
      "ремен": 2676,
      "ведения": 2677,
      "represent": 2678,
      "ices": 2679,
      "сков": 2680,
      "работ": 2681,
      "шли": 2682,
      "метро": 2683,
      "defin": 2684,
      "области": 2685,
      "ox": 2686,
      "лении": 2687,
      "случа": 2688,
      "щения": 2689,
      "вом": 2690,
      "aving": 2691,
      "твер": 2692,
      "ье": 2693,
      "пара": 2694,
      "каз": 2695,
      "mean": 2696,
      "международ": 2697,
      "которой": 2698,
      "версите": 2699,
      "вну": 2700,
      "когда": 2701,
      "Gr": 2702,
      "mem": 2703,
      "Гре": 2704,
      "зация": 2705,
      "astron": 2706,
      "зависимо": 2707,
      "tic": 2708,
      "бле": 2709,
      "istan": 2710,
      "союз": 2711,
      "Mar": 2712,
      "law": 2713,
      "чу": 2714,
      "оборо": 2715,
      "similar": 2716,
      "uary": 2717,
      "столи": 2718,
      "60": 2719,
      "Вы": 2720,
      "нитель": 2721,
      "itions": 2722,
      "сперан": 2723,
      "28": 2724,
      "yl": 2725,
      "ories": 2726,
      "доста": 2727,
      "анали": 2728,
      "astero": 2729,
      "Afghan": 2730,
      "фран": 2731,
      "ases": 2732,
      "продол": 2733,
      "bre": 2734,
      "управ": 2735,
      "эта": 2736,
      "выше": 2737,
      "area": 2738,
      "2012": 2739,
      "услови": 2740,
      "oil": 2741,
      "стей": 2742,
      "pect": 2743,
      "всего": 2744,
      "Can": 2745,
      "Some": 2746,
      "rest": 2747,
      "along": 2748,
      "omet": 2749,
      "within": 2750,
      "Alber": 2751,
      "работа": 2752,
      "ющей": 2753,
      "Никола": 2754,
      "continu": 2755,
      "несколько": 2756,
      "влия": 2757,
      "ality": 2758,
      "bi": 2759,
      "ck": 2760,
      "хот": 2761,
      "годы": 2762,
      "лиш": 2763,
      "strong": 2764,
      "attle": 2765,
      "production": 2766,
      "alth": 2767,
      "acy": 2768,
      "свобо": 2769,
      "Лит": 2770,
      "den": 2771,
      "great": 2772,
      "put": 2773,
      "Бу": 2774,
      "ген": 2775,
      "ением": 2776,
      "show": 2777,
      "ize": 2778,
      "состав": 2779,
      "Asia": 2780,
      "море": 2781,
      "2009": 2782,
      "auth": 2783,
      "Владивосто": 2784,
      "Петро": 2785,
      "Pe": 2786,
      "gre": 2787,
      "Цент": 2788,
      "ино": 2789,
      "sequ": 2790,
      "конце": 2791,
      "tele": 2792,
      "ield": 2793,
      "Alaska": 2794,
      "тных": 2795,
      "ень": 2796,
      "ised": 2797,
      "сей": 2798,
      "быть": 2799,
      "1990": 2800,
      "можно": 2801,
      "cle": 2802,
      "sing": 2803,
      "Фе": 2804,
      "апре": 2805,
      "1917": 2806,
      "мона": 2807,
      "интер": 2808,
      "импе": 2809,
      "Бело": 2810,
      "mat": 2811,
      "tro": 2812,
      "ina": 2813,
      "науч": 2814,
      "граждан": 2815,
      "импера": 2816,
      "архитек": 2817,
      "AS": 2818,
      "iet": 2819,
      "низ": 2820,
      "кая": 2821,
      "таль": 2822,
      "кам": 2823,
      "ified": 2824,
      "зии": 2825,
      "contain": 2826,
      "долж": 2827,
      "армии": 2828,
      "Бал": 2829,
      "сент": 2830,
      "вопро": 2831,
      "see": 2832,
      "образова": 2833,
      "деятель": 2834,
      "нения": 2835,
      "стали": 2836,
      "ards": 2837,
      "первые": 2838,
      "лением": 2839,
      "70": 2840,
      "датель": 2841,
      "дели": 2842,
      "began": 2843,
      "начале": 2844,
      "29": 2845,
      "Бер": 2846,
      "бла": 2847,
      "руко": 2848,
      "appro": 2849,
      "polog": 2850,
      "Ге": 2851,
      "olv": 2852,
      "what": 2853,
      "offic": 2854,
      "функ": 2855,
      "Ба": 2856,
      "фак": 2857,
      "orith": 2858,
      "дела": 2859,
      "pha": 2860,
      "Arist": 2861,
      "однако": 2862,
      "евро": 2863,
      "These": 2864,
      "Однако": 2865,
      "Car": 2866,
      "Ge": 2867,
      "His": 2868,
      "Лон": 2869,
      "thod": 2870,
      "пас": 2871,
      "wards": 2872,
      "Earth": 2873,
      "ather": 2874,
      "pat": 2875,
      "яв": 2876,
      "стри": 2877,
      "нан": 2878,
      "rench": 2879,
      "цуз": 2880,
      "Крас": 2881,
      "гло": 2882,
      "два": 2883,
      "ню": 2884,
      "чных": 2885,
      "гор": 2886,
      "ross": 2887,
      "обы": 2888,
      "iven": 2889,
      "сут": 2890,
      "2014": 2891,
      "grap": 2892,
      "Her": 2893,
      "двор": 2894,
      "чь": 2895,
      "тео": 2896,
      "ets": 2897,
      "Сою": 2898,
      "экономи": 2899,
      "Ново": 2900,
      "значитель": 2901,
      "Cent": 2902,
      "mag": 2903,
      "self": 2904,
      "tle": 2905,
      "ске": 2906,
      "среди": 2907,
      "ales": 2908,
      "льная": 2909,
      "pract": 2910,
      "1991": 2911,
      "posed": 2912,
      "крестьян": 2913,
      "face": 2914,
      "test": 2915,
      "Ста": 2916,
      "заня": 2917,
      "доб": 2918,
      "ссии": 2919,
      "Италии": 2920,
      "bal": 2921,
      "emp": 2922,
      "particular": 2923,
      "last": 2924,
      "дро": 2925,
      "мой": 2926,
      "сер": 2927,
      "relig": 2928,
      "Angola": 2929,
      "sch": 2930,
      "личи": 2931,
      "omen": 2932,
      "которая": 2933,
      "верх": 2934,
      "National": 2935,
      "fun": 2936,
      "tal": 2937,
      "Пре": 2938,
      "ara": 2939,
      "продук": 2940,
      "antic": 2941,
      "book": 2942,
      "scri": 2943,
      "Ne": 2944,
      "Pr": 2945,
      "Russ": 2946,
      "Roman": 2947,
      "ones": 2948,
      "short": 2949,
      "вза": 2950,
      "outhern": 2951,
      "ently": 2952,
      "2000": 2953,
      "собствен": 2954,
      "various": 2955,
      "ially": 2956,
      "Ти": 2957,
      "гру": 2958,
      "др": 2959,
      "участ": 2960,
      "вов": 2961,
      "матери": 2962,
      "Alab": 2963,
      "grow": 2964,
      "Br": 2965,
      "French": 2966,
      "особ": 2967,
      "эсперан": 2968,
      "моря": 2969,
      "большо": 2970,
      "films": 2971,
      "design": 2972,
      "Aristot": 2973,
      "East": 2974,
      "she": 2975,
      "Ле": 2976,
      "нер": 2977,
      "bet": 2978,
      "general": 2979,
      "чер": 2980,
      "инте": 2981,
      "формирова": 2982,
      "авгу": 2983,
      "Cong": 2984,
      "hal": 2985,
      "стер": 2986,
      "Российской": 2987,
      "восста": 2988,
      "название": 2989,
      "системы": 2990,
      "fr": 2991,
      "independ": 2992,
      "сом": 2993,
      "изи": 2994,
      "claim": 2995,
      "следу": 2996,
      "переда": 2997,
      "2008": 2998,
      "object": 2999,
      "rist": 3000,
      "мина": 3001,
      "щих": 3002,
      "instein": 3003,
      "Лондо": 3004,
      "eth": 3005,
      "раство": 3006,
      "chem": 3007,
      "университе": 3008,
      "один": 3009,
      "Alabama": 3010,
      "Par": 3011,
      "bur": 3012,
      "lat": 3013,
      "матри": 3014,
      "мене": 3015,
      "2013": 3016,
      "2016": 3017,
      "thropolog": 3018,
      "культур": 3019,
      "ling": 3020,
      "nat": 3021,
      "ness": 3022,
      "ines": 3023,
      "обходи": 3024,
      "имеет": 3025,
      "Bo": 3026,
      "Hist": 3027,
      "light": 3028,
      "publ": 3029,
      "бал": 3030,
      "компа": 3031,
      "начала": 3032,
      "химиче": 3033,
      "Кали": 3034,
      "Einstein": 3035,
      "cock": 3036,
      "Вер": 3037,
      "дво": 3038,
      "sky": 3039,
      "following": 3040,
      "German": 3041,
      "мета": 3042,
      "process": 3043,
      "кур": 3044,
      "prim": 3045,
      "степ": 3046,
      "court": 3047,
      "Tr": 3048,
      "рам": 3049,
      "model": 3050,
      "plic": 3051,
      "works": 3052,
      "времени": 3053,
      "связи": 3054,
      "Европы": 3055,
      "school": 3056,
      "acid": 3057,
      "program": 3058,
      "Alger": 3059,
      "власть": 3060,
      "English": 3061,
      "hau": 3062,
      "нь": 3063,
      "ями": 3064,
      "ony": 3065,
      "2007": 3066,
      "company": 3067,
      "developed": 3068,
      "позво": 3069,
      "important": 3070,
      "декабря": 3071,
      "Mo": 3072,
      "east": 3073,
      "van": 3074,
      "воды": 3075,
      "urther": 3076,
      "мят": 3077,
      "Acade": 3078,
      "species": 3079,
      "Rep": 3080,
      "муни": 3081,
      "ological": 3082,
      "few": 3083,
      "phys": 3084,
      "European": 3085,
      "жизни": 3086,
      "Hitch": 3087,
      "сре": 3088,
      "report": 3089,
      "arian": 3090,
      "кус": 3091,
      "Россия": 3092,
      "тически": 3093,
      "Франции": 3094,
      "signific": 3095,
      "body": 3096,
      "hand": 3097,
      "lab": 3098,
      "дра": 3099,
      "постро": 3100,
      "ason": 3101,
      "plan": 3102,
      "Anim": 3103,
      "бира": 3104,
      "occur": 3105,
      "состави": 3106,
      "пон": 3107,
      "тографи": 3108,
      "uses": 3109,
      "empt": 3110,
      "every": 3111,
      "составляет": 3112,
      "качестве": 3113,
      "ibut": 3114,
      "имен": 3115,
      "рода": 3116,
      "assi": 3117,
      "двух": 3118,
      "military": 3119,
      "Emp": 3120,
      "Go": 3121,
      "ues": 3122,
      "сме": 3123,
      "still": 3124,
      "сол": 3125,
      "1918": 3126,
      "ходе": 3127,
      "центра": 3128,
      "history": 3129,
      "north": 3130,
      "сни": 3131,
      "пут": 3132,
      "forms": 3133,
      "change": 3134,
      "jo": 3135,
      "вен": 3136,
      "хе": 3137,
      "ata": 3138,
      "демо": 3139,
      "cially": 3140,
      "шее": 3141,
      "большеви": 3142,
      "наиболее": 3143,
      "стороны": 3144,
      "официаль": 3145,
      "Hitchcock": 3146,
      "cop": 3147,
      "ped": 3148,
      "Исто": 3149,
      "Ос": 3150,
      "erv": 3151,
      "потре": 3152,
      "2020": 3153,
      "series": 3154,
      "использо": 3155,
      "popular": 3156,
      "труд": 3157,
      "система": 3158,
      "января": 3159,
      "35": 3160,
      "Au": 3161,
      "just": 3162,
      "Для": 3163,
      "Ро": 3164,
      "ined": 3165,
      "issu": 3166,
      "собы": 3167,
      "веке": 3168,
      "вид": 3169,
      "ably": 3170,
      "illes": 3171,
      "ступи": 3172,
      "discover": 3173,
      "political": 3174,
      "Ber": 3175,
      "спи": 3176,
      "необходи": 3177,
      "usually": 3178,
      "ability": 3179,
      "ights": 3180,
      "человека": 3181,
      "When": 3182,
      "генера": 3183,
      "древ": 3184,
      "rece": 3185,
      "попу": 3186,
      "ристи": 3187,
      "rote": 3188,
      "тар": 3189,
      "объек": 3190,
      "июня": 3191,
      "XIX": 3192,
      "Agassi": 3193,
      "nov": 3194,
      "Мар": 3195,
      "кру": 3196,
      "нам": 3197,
      "каж": 3198,
      "слав": 3199,
      "которого": 3200,
      "study": 3201,
      "tradition": 3202,
      "pass": 3203,
      "То": 3204,
      "шен": 3205,
      "дина": 3206,
      "territ": 3207,
      "proble": 3208,
      "loy": 3209,
      "электро": 3210,
      "XX": 3211,
      "пря": 3212,
      "сматри": 3213,
      "фев": 3214,
      "although": 3215,
      "важ": 3216,
      "child": 3217,
      "dest": 3218,
      "ument": 3219,
      "контро": 3220,
      "curren": 3221,
      "During": 3222,
      "Kuro": 3223,
      "cul": 3224,
      "itic": 3225,
      "top": 3226,
      "став": 3227,
      "ples": 3228,
      "word": 3229,
      "2015": 3230,
      "держи": 3231,
      "едини": 3232,
      "Sea": 3233,
      "countries": 3234,
      "исследова": 3235,
      "pur": 3236,
      "лки": 3237,
      "хрома": 3238,
      "шу": 3239,
      "либо": 3240,
      "деся": 3241,
      "ames": 3242,
      "хода": 3243,
      "ranch": 3244,
      "histor": 3245,
      "большин": 3246,
      "лишь": 3247,
      "script": 3248,
      "Aristotle": 3249,
      "make": 3250,
      "Ла": 3251,
      "Те": 3252,
      "дера": 3253,
      "могу": 3254,
      "2017": 3255,
      "Christ": 3256,
      "обеспе": 3257,
      "империи": 3258,
      "Republic": 3259,
      "Kurosaw": 3260,
      "Med": 3261,
      "нци": 3262,
      "ork": 3263,
      "проек": 3264,
      "север": 3265,
      "place": 3266,
      "прак": 3267,
      "одно": 3268,
      "Congress": 3269,
      "Kurosawa": 3270,
      "ged": 3271,
      "ниче": 3272,
      "представи": 3273,
      "algorith": 3274,
      "Ab": 3275,
      "Is": 3276,
      "pot": 3277,
      "ouse": 3278,
      "ither": 3279,
      "1941": 3280,
      "зер": 3281,
      "кое": 3282,
      "веще": 3283,
      "принима": 3284,
      "няя": 3285,
      "America": 3286,
      "мировой": 3287,
      "Academy": 3288,
      "остро": 3289,
      "казыва": 3290,
      "дования": 3291,
      "часто": 3292,
      "щее": 3293,
      "данным": 3294,
      "революции": 3295,
      "said": 3296,
      "rese": 3297,
      "пада": 3298,
      "method": 3299,
      "собой": 3300,
      "abortion": 3301,
      "Empire": 3302,
      "ографи": 3303,
      "ших": 3304,
      "анти": 3305,
      "актив": 3306,
      "искус": 3307,
      "established": 3308,
      "near": 3309,
      "south": 3310,
      "щение": 3311,
      "return": 3312,
      "пози": 3313,
      "измен": 3314,
      "ственных": 3315,
      "ствии": 3316,
      "included": 3317,
      "care": 3318,
      "wrote": 3319,
      "цар": 3320,
      "там": 3321,
      "def": 3322,
      "этому": 3323,
      "осуществ": 3324,
      "openhau": 3325,
      "mit": 3326,
      "гро": 3327,
      "дди": 3328,
      "чёт": 3329,
      "anarch": 3330,
      "капи": 3331,
      "мин": 3332,
      "зов": 3333,
      "groups": 3334,
      "Andor": 3335,
      "Также": 3336,
      "Schopenhau": 3337,
      "Калинин": 3338,
      "начи": 3339,
      "лав": 3340,
      "содержа": 3341,
      "prof": 3342,
      "одной": 3343,
      "земе": 3344,
      "француз": 3345,
      "late": 3346,
      "кана": 3347,
      "стала": 3348,
      "ots": 3349,
      "hydro": 3350,
      "author": 3351,
      "кологи": 3352,
      "пода": 3353,
      "ung": 3354,
      "полови": 3355,
      "social": 3356,
      "alkali": 3357,
      "администра": 3358,
      "Coun": 3359,
      "cing": 3360,
      "mass": 3361,
      "vir": 3362,
      "yn": 3363,
      "водо": 3364,
      "took": 3365,
      "мия": 3366,
      "соз": 3367,
      "ivity": 3368,
      "разме": 3369,
      "сам": 3370,
      "ogn": 3371,
      "краи": 3372,
      "марта": 3373,
      "герман": 3374,
      "Schopenhauer": 3375,
      "pri": 3376,
      "мь": 3377,
      "agric": 3378,
      "ственного": 3379,
      "истории": 3380,
      "region": 3381,
      "According": 3382,
      "Achilles": 3383,
      "ft": 3384,
      "oto": 3385,
      "установ": 3386,
      "голо": 3387,
      "моби": 3388,
      "ird": 3389,
      "2006": 3390,
      "observ": 3391,
      "written": 3392,
      "храни": 3393,
      "Alberta": 3394,
      "agricult": 3395,
      "Pol": 3396,
      "tit": 3397,
      "Среди": 3398,
      "ули": 3399,
      "start": 3400,
      "нес": 3401,
      "2018": 3402,
      "comb": 3403,
      "крепо": 3404,
      "named": 3405,
      "build": 3406,
      "ometimes": 3407,
      "0s": 3408,
      "sen": 3409,
      "treat": 3410,
      "xim": 3411,
      "бя": 3412,
      "inci": 3413,
      "cience": 3414,
      "информа": 3415,
      "источ": 3416,
      "cut": 3417,
      "mater": 3418,
      "дж": 3419,
      "нией": 3420,
      "associ": 3421,
      "proper": 3422,
      "ственный": 3423,
      "ogle": 3424,
      "Albania": 3425,
      "five": 3426,
      "ius": 3427,
      "mult": 3428,
      "rang": 3429,
      "кви": 3430,
      "тно": 3431,
      "готов": 3432,
      "2005": 3433,
      "губер": 3434,
      "развития": 3435,
      "Республи": 3436,
      "ways": 3437,
      "массо": 3438,
      "взаимо": 3439,
      "King": 3440,
      "lack": 3441,
      "роль": 3442,
      "rele": 3443,
      "настоя": 3444,
      "соедин": 3445,
      "пей": 3446,
      "formation": 3447,
      "York": 3448,
      "pen": 3449,
      "theory": 3450,
      "веден": 3451,
      "Петербург": 3452,
      "Canad": 3453,
      "significant": 3454,
      "case": 3455,
      "god": 3456,
      "liter": 3457,
      "times": 3458,
      "фло": 3459,
      "цей": 3460,
      "ноября": 3461,
      "sty": 3462,
      "espe": 3463,
      "руб": 3464,
      "выс": 3465,
      "туре": 3466,
      "sug": 3467,
      "войск": 3468,
      "этот": 3469,
      "ствуют": 3470,
      "правительства": 3471,
      "июля": 3472,
      "величи": 3473,
      "So": 3474,
      "cal": 3475,
      "camp": 3476,
      "ёх": 3477,
      "наб": 3478,
      "level": 3479,
      "вести": 3480,
      "188": 3481,
      "ured": 3482,
      "lower": 3483,
      "этих": 3484,
      "International": 3485,
      "down": 3486,
      "чный": 3487,
      "ision": 3488,
      "olution": 3489,
      "become": 3490,
      "position": 3491,
      "key": 3492,
      "feat": 3493,
      "75": 3494,
      "cogn": 3495,
      "fish": 3496,
      "sour": 3497,
      "anal": 3498,
      "мии": 3499,
      "beg": 3500,
      "действия": 3501,
      "оказа": 3502,
      "ination": 3503,
      "ancient": 3504,
      "rodu": 3505,
      "тах": 3506,
      "2021": 3507,
      "une": 3508,
      "емых": 3509,
      "использова": 3510,
      "cause": 3511,
      "field": 3512,
      "lor": 3513,
      "СН": 3514,
      "Свя": 3515,
      "назна": 3516,
      "диа": 3517,
      "проти": 3518,
      "себя": 3519,
      "without": 3520,
      "placed": 3521,
      "All": 3522,
      "introdu": 3523,
      "могут": 3524,
      "чё": 3525,
      "anthropolog": 3526,
      "посе": 3527,
      "areas": 3528,
      "друго": 3529,
      "общества": 3530,
      "облада": 3531,
      "февра": 3532,
      "mic": 3533,
      "бло": 3534,
      "реки": 3535,
      "показа": 3536,
      "даль": 3537,
      "тики": 3538,
      "ential": 3539,
      "выде": 3540,
      "produced": 3541,
      "образования": 3542,
      "graph": 3543,
      "Ju": 3544,
      "sometimes": 3545,
      "another": 3546,
      "нологи": 3547,
      "тай": 3548,
      "дет": 3549,
      "програм": 3550,
      "ads": 3551,
      "vision": 3552,
      "One": 3553,
      "home": 3554,
      "вол": 3555,
      "aces": 3556,
      "amb": 3557,
      "возгла": 3558,
      "related": 3559,
      "трен": 3560,
      "представля": 3561,
      "Afghanistan": 3562,
      "Централь": 3563,
      "33": 3564,
      "ze": 3565,
      "лений": 3566,
      "force": 3567,
      "umen": 3568,
      "формы": 3569,
      "образом": 3570,
      "оружён": 3571,
      "октября": 3572,
      "сентября": 3573,
      "Google": 3574,
      "90": 3575,
      "wn": 3576,
      "Че": 3577,
      "окон": 3578,
      "появи": 3579,
      "ток": 3580,
      "left": 3581,
      "син": 3582,
      "городов": 3583,
      "основа": 3584,
      "Москве": 3585,
      "mission": 3586,
      "Новороссий": 3587,
      "sal": 3588,
      "Би": 3589,
      "рд": 3590,
      "reach": 3591,
      "ush": 3592,
      "idence": 3593,
      "suf": 3594,
      "exist": 3595,
      "лена": 3596,
      "фици": 3597,
      "believ": 3598,
      "Other": 3599,
      "bon": 3600,
      "having": 3601,
      "жении": 3602,
      "кли": 3603,
      "record": 3604,
      "заклю": 3605,
      "чей": 3606,
      "изда": 3607,
      "2019": 3608,
      "ops": 3609,
      "ствие": 3610,
      "учре": 3611,
      "Africa": 3612,
      "gu": 3613,
      "шко": 3614,
      "пов": 3615,
      "защи": 3616,
      "Anat": 3617,
      "этой": 3618,
      "ющим": 3619,
      "партии": 3620,
      "относи": 3621,
      "development": 3622,
      "находится": 3623,
      "менее": 3624,
      "cot": 3625,
      "given": 3626,
      "tak": 3627,
      "пя": 3628,
      "свой": 3629,
      "ivid": 3630,
      "тых": 3631,
      "ried": 3632,
      "need": 3633,
      "предприя": 3634,
      "type": 3635,
      "служи": 3636,
      "отнош": 3637,
      "почти": 3638,
      "however": 3639,
      "пои": 3640,
      "вода": 3641,
      "вобо": 3642,
      "лон": 3643,
      "1920": 3644,
      "Великобритании": 3645,
      "especially": 3646,
      "Anatol": 3647,
      "Mon": 3648,
      "Will": 3649,
      "rul": 3650,
      "ston": 3651,
      "ites": 3652,
      "микро": 3653,
      "веща": 3654,
      "Рус": 3655,
      "iatic": 3656,
      "десь": 3657,
      "мамон": 3658,
      "след": 3659,
      "рабочи": 3660,
      "земли": 3661,
      "iction": 3662,
      "правительство": 3663,
      "Atlantic": 3664,
      "эсперанто": 3665,
      "Mus": 3666,
      "nal": 3667,
      "Му": 3668,
      "init": 3669,
      "лев": 3670,
      "стату": 3671,
      "ously": 3672,
      "вян": 3673,
      "стоян": 3674,
      "земле": 3675,
      "крупнейши": 3676,
      "stitution": 3677,
      "stitute": 3678,
      "океана": 3679,
      "противо": 3680,
      "Ed": 3681,
      "cil": 3682,
      "ps": 3683,
      "°C": 3684,
      "Аф": 3685,
      "ene": 3686,
      "вают": 3687,
      "вались": 3688,
      "основе": 3689,
      "others": 3690,
      "площади": 3691,
      "ham": 3692,
      "sent": 3693,
      "кни": 3694,
      "льное": 3695,
      "ington": 3696,
      "ланд": 3697,
      "зако": 3698,
      "щие": 3699,
      "words": 3700,
      "тради": 3701,
      "tax": 3702,
      "addition": 3703,
      "natural": 3704,
      "Основ": 3705,
      "Pers": 3706,
      "жная": 3707,
      "нению": 3708,
      "сня": 3709,
      "decl": 3710,
      "Согла": 3711,
      "ification": 3712,
      "members": 3713,
      "suggest": 3714,
      "Apr": 3715,
      "sold": 3716,
      "wide": 3717,
      "сор": 3718,
      "диви": 3719,
      "борь": 3720,
      "termin": 3721,
      "exper": 3722,
      "useum": 3723,
      "ography": 3724,
      "апреля": 3725,
      "published": 3726,
      "April": 3727,
      "Me": 3728,
      "Per": 3729,
      "thus": 3730,
      "reed": 3731,
      "ats": 3732,
      "imp": 3733,
      "unch": 3734,
      "180": 3735,
      "former": 3736,
      "ждение": 3737,
      "религиоз": 3738,
      "Japanese": 3739,
      "встре": 3740,
      "ющая": 3741,
      "redu": 3742,
      "ator": 3743,
      "вари": 3744,
      "ilt": 3745,
      "лян": 3746,
      "свою": 3747,
      "ground": 3748,
      "minist": 3749,
      "августа": 3750,
      "far": 3751,
      "enced": 3752,
      "шин": 3753,
      "будди": 3754,
      "aceae": 3755,
      "центр": 3756,
      "ваться": 3757,
      "local": 3758,
      "While": 3759,
      "группы": 3760,
      "material": 3761,
      "Кро": 3762,
      "вшая": 3763,
      "ergy": 3764,
      "real": 3765,
      "рек": 3766,
      "реаль": 3767,
      "зали": 3768,
      "середи": 3769,
      "idd": 3770,
      "estim": 3771,
      "день": 3772,
      "собра": 3773,
      "attempt": 3774,
      "48": 3775,
      "Sov": 3776,
      "bir": 3777,
      "free": 3778,
      "get": 3779,
      "uter": 3780,
      "Ду": 3781,
      "ths": 3782,
      "воль": 3783,
      "ison": 3784,
      "2022": 3785,
      "aged": 3786,
      "aff": 3787,
      "1945": 3788,
      "final": 3789,
      "systems": 3790,
      "Many": 3791,
      "Ри": 3792,
      "вшей": 3793,
      "оче": 3794,
      "era": 3795,
      "alpha": 3796,
      "реб": 3797,
      "held": 3798,
      "чего": 3799,
      "сил": 3800,
      "бора": 3801,
      "чтобы": 3802,
      "evolution": 3803,
      "relat": 3804,
      "music": 3805,
      "Soviet": 3806,
      "500": 3807,
      "Aug": 3808,
      "making": 3809,
      "РС": 3810,
      "пли": 3811,
      "физи": 3812,
      "вин": 3813,
      "central": 3814,
      "metals": 3815,
      "темпера": 3816,
      "techniqu": 3817,
      "хроматографи": 3818,
      "Nov": 3819,
      "Pat": 3820,
      "oot": 3821,
      "ограни": 3822,
      "устрой": 3823,
      "чная": 3824,
      "нару": 3825,
      "лича": 3826,
      "даже": 3827,
      "руется": 3828,
      "проводи": 3829,
      "ляет": 3830,
      "ountain": 3831,
      "187": 3832,
      "ственные": 3833,
      "earli": 3834,
      "creen": 3835,
      "uba": 3836,
      "объедин": 3837,
      "ющего": 3838,
      "animation": 3839,
      "either": 3840,
      "ner": 3841,
      "aries": 3842,
      "побе": 3843,
      "лами": 3844,
      "пробле": 3845,
      "живо": 3846,
      "May": 3847,
      "Pl": 3848,
      "civil": 3849,
      "ris": 3850,
      "утвер": 3851,
      "шую": 3852,
      "лирова": 3853,
      "закон": 3854,
      "затем": 3855,
      "separ": 3856,
      "станови": 3857,
      "государств": 3858,
      "производи": 3859,
      "Москов": 3860,
      "помощ": 3861,
      "радио": 3862,
      "Сред": 3863,
      "шла": 3864,
      "законо": 3865,
      "цин": 3866,
      "чин": 3867,
      "фика": 3868,
      "spok": 3869,
      "individ": 3870,
      "вую": 3871,
      "организации": 3872,
      "Виль": 3873,
      "Egyptian": 3874,
      "демокра": 3875,
      "whe": 3876,
      "От": 3877,
      "оны": 3878,
      "тика": 3879,
      "comple": 3880,
      "специаль": 3881,
      "relation": 3882,
      "территори": 3883,
      "involv": 3884,
      "moved": 3885,
      "July": 3886,
      "farm": 3887,
      "чные": 3888,
      "educ": 3889,
      "вала": 3890,
      "век": 3891,
      "мом": 3892,
      "dev": 3893,
      "права": 3894,
      "подписа": 3895,
      "езд": 3896,
      "Turk": 3897,
      "fall": 3898,
      "run": 3899,
      "лле": 3900,
      "решение": 3901,
      "захва": 3902,
      "чеб": 3903,
      "ческое": 3904,
      "памят": 3905,
      "пута": 3906,
      "произо": 3907,
      "located": 3908,
      "алисти": 3909,
      "мерикан": 3910,
      "ферен": 3911,
      "Geor": 3912,
      "ties": 3913,
      "Пи": 3914,
      "Украи": 3915,
      "thes": 3916,
      "жества": 3917,
      "лены": 3918,
      "Although": 3919,
      "178": 3920,
      "event": 3921,
      "interest": 3922,
      "tail": 3923,
      "количество": 3924,
      "branch": 3925,
      "ief": 3926,
      "ux": 3927,
      "иде": 3928,
      "участи": 3929,
      "эро": 3930,
      "торов": 3931,
      "itive": 3932,
      "ements": 3933,
      "ays": 3934,
      "crew": 3935,
      "coast": 3936,
      "struction": 3937,
      "surface": 3938,
      "certain": 3939,
      "иностран": 3940,
      "August": 3941,
      "Фин": 3942,
      "orn": 3943,
      "means": 3944,
      "colon": 3945,
      "торго": 3946,
      "тальян": 3947,
      "Браз": 3948,
      "atin": 3949,
      "stre": 3950,
      "ССР": 3951,
      "испол": 3952,
      "Миха": 3953,
      "culture": 3954,
      "respond": 3955,
      "СНГ": 3956,
      "36": 3957,
      "ming": 3958,
      "ration": 3959,
      "вёр": 3960,
      "orbit": 3961,
      "воро": 3962,
      "roas": 3963,
      "heav": 3964,
      "terms": 3965,
      "прези": 3966,
      "185": 3967,
      "should": 3968,
      "своей": 3969,
      "ходят": 3970,
      "appear": 3971,
      "original": 3972,
      "Atlas": 3973,
      "General": 3974,
      "Греции": 3975,
      "ему": 3976,
      "жден": 3977,
      "нор": 3978,
      "кора": 3979,
      "поме": 3980,
      "теа": 3981,
      "течение": 3982,
      "некоторых": 3983,
      "сили": 3984,
      "возник": 3985,
      "образу": 3986,
      "capital": 3987,
      "domin": 3988,
      "current": 3989,
      "spoken": 3990,
      "31": 3991,
      "Ma": 3992,
      "бел": 3993,
      "2004": 3994,
      "inning": 3995,
      "транспорт": 3996,
      "внеш": 3997,
      "roasiatic": 3998,
      "Civil": 3999,
      "data": 4000,
      "six": 4001,
      "Гра": 4002,
      "Пра": 4003,
      "новых": 4004,
      "пора": 4005,
      "2002": 4006,
      "Ленина": 4007,
      "western": 4008,
      "research": 4009,
      "оконча": 4010,
      "experim": 4011,
      "39": 4012,
      "Fe": 4013,
      "aign": 4014,
      "iam": 4015,
      "зь": 4016,
      "total": 4017,
      "запа": 4018,
      "сим": 4019,
      "применя": 4020,
      "ption": 4021,
      "ending": 4022,
      "работы": 4023,
      "rather": 4024,
      "учё": 4025,
      "possible": 4026,
      "создан": 4027,
      "45": 4028,
      "Co": 4029,
      "Port": 4030,
      "Rand": 4031,
      "aver": 4032,
      "yal": 4033,
      "щен": 4034,
      "регу": 4035,
      "asing": 4036,
      "кино": 4037,
      "независимо": 4038,
      "обя": 4039,
      "princi": 4040,
      "ternal": 4041,
      "Большо": 4042,
      "Western": 4043,
      "продолжа": 4044,
      "mouth": 4045,
      "реш": 4046,
      "вок": 4047,
      "рин": 4048,
      "role": 4049,
      "выми": 4050,
      "освобо": 4051,
      "стране": 4052,
      "occ": 4053,
      "consist": 4054,
      "lit": 4055,
      "rate": 4056,
      "крас": 4057,
      "смер": 4058,
      "чного": 4059,
      "forces": 4060,
      "жество": 4061,
      "experi": 4062,
      "Art": 4063,
      "meas": 4064,
      "parts": 4065,
      "Andorra": 4066,
      "With": 4067,
      "how": 4068,
      "must": 4069,
      "oks": 4070,
      "щён": 4071,
      "Совета": 4072,
      "первый": 4073,
      "1999": 4074,
      "креп": 4075,
      "трия": 4076,
      "бург": 4077,
      "built": 4078,
      "руковод": 4079,
      "37": 4080,
      "Nor": 4081,
      "sum": 4082,
      "yr": 4083,
      "жных": 4084,
      "см": 4085,
      "сфе": 4086,
      "фон": 4087,
      "льга": 4088,
      "дель": 4089,
      "1919": 4090,
      "силы": 4091,
      "tra": 4092,
      "tru": 4093,
      "stry": 4094,
      "возду": 4095,
      "свои": 4096,
      "special": 4097,
      "окку": 4098,
      "региона": 4099,
      "внутрен": 4100,
      "Кроме": 4101,
      "came": 4102,
      "vow": 4103,
      "успе": 4104,
      "thing": 4105,
      "round": 4106,
      "дат": 4107,
      "ляется": 4108,
      "компью": 4109,
      "described": 4110,
      "Na": 4111,
      "Te": 4112,
      "We": 4113,
      "wood": 4114,
      "гром": 4115,
      "ов": 4116,
      "stri": 4117,
      "лина": 4118,
      "торы": 4119,
      "least": 4120,
      "compos": 4121,
      "created": 4122,
      "фек": 4123,
      "частности": 4124,
      "существо": 4125,
      "элект": 4126,
      "земель": 4127,
      "Согласно": 4128,
      "AN": 4129,
      "Pres": 4130,
      "River": 4131,
      "hold": 4132,
      "recogn": 4133,
      "наступ": 4134,
      "режи": 4135,
      "arily": 4136,
      "кин": 4137,
      "неф": 4138,
      "clim": 4139,
      "бан": 4140,
      "177": 4141,
      "ябрь": 4142,
      "metal": 4143,
      "does": 4144,
      "carbon": 4145,
      "mbol": 4146,
      "хотя": 4147,
      "Балтий": 4148,
      "Oc": 4149,
      "sat": 4150,
      "won": 4151,
      "Ор": 4152,
      "Ха": 4153,
      "оп": 4154,
      "theast": 4155,
      "музы": 4156,
      "война": 4157,
      "рассматри": 4158,
      "numbers": 4159,
      "многие": 4160,
      "France": 4161,
      "всё": 4162,
      "Aber": 4163,
      "Kh": 4164,
      "To": 4165,
      "mak": 4166,
      "sil": 4167,
      "Времен": 4168,
      "тлан": 4169,
      "шло": 4170,
      "ётся": 4171,
      "itude": 4172,
      "лежа": 4173,
      "виа": 4174,
      "ctor": 4175,
      "менты": 4176,
      "слова": 4177,
      "которое": 4178,
      "bitumen": 4179,
      "комплек": 4180,
      "astronom": 4181,
      "Algeria": 4182,
      "вещества": 4183,
      "iddle": 4184,
      "Sw": 4185,
      "food": 4186,
      "ked": 4187,
      "take": 4188,
      "Ав": 4189,
      "Бри": 4190,
      "рения": 4191,
      "рост": 4192,
      "lear": 4193,
      "стало": 4194,
      "utch": 4195,
      "филь": 4196,
      "assist": 4197,
      "своих": 4198,
      "ovsky": 4199,
      "полностью": 4200,
      "1905": 4201,
      "характер": 4202,
      "свобод": 4203,
      "ior": 4204,
      "wid": 4205,
      "ert": 4206,
      "вало": 4207,
      "каде": 4208,
      "тирова": 4209,
      "депута": 4210,
      "меди": 4211,
      "aren": 4212,
      "ify": 4213,
      "Char": 4214,
      "отношения": 4215,
      "располага": 4216,
      "экс": 4217,
      "Северной": 4218,
      "generally": 4219,
      "function": 4220,
      "Jan": 4221,
      "Latin": 4222,
      "Глав": 4223,
      "Пред": 4224,
      "лению": 4225,
      "inal": 4226,
      "гом": 4227,
      "тая": 4228,
      "дой": 4229,
      "deen": 4230,
      "гии": 4231,
      "log": 4232,
      "ports": 4233,
      "engine": 4234,
      "Phil": 4235,
      "популяр": 4236,
      "Aberdeen": 4237,
      "Ste": 4238,
      "bus": 4239,
      "hib": 4240,
      "next": 4241,
      "жений": 4242,
      "ste": 4243,
      "сами": 4244,
      "etic": 4245,
      "aves": 4246,
      "except": 4247,
      "пись": 4248,
      "котором": 4249,
      "ove": 4250,
      "Comp": 4251,
      "комите": 4252,
      "Isl": 4253,
      "Min": 4254,
      "Wash": 4255,
      "father": 4256,
      "Пу": 4257,
      "ами": 4258,
      "жу": 4259,
      "йский": 4260,
      "хло": 4261,
      "anes": 4262,
      "кова": 4263,
      "phib": 4264,
      "compan": 4265,
      "одним": 4266,
      "1989": 4267,
      "elements": 4268,
      "чень": 4269,
      "промышленности": 4270,
      "electron": 4271,
      "худо": 4272,
      "потреб": 4273,
      "38": 4274,
      "Tark": 4275,
      "fem": 4276,
      "fix": 4277,
      "sel": 4278,
      "энер": 4279,
      "army": 4280,
      "поле": 4281,
      "полага": 4282,
      "дав": 4283,
      "across": 4284,
      "музе": 4285,
      "держ": 4286,
      "1940": 4287,
      "организа": 4288,
      "technology": 4289,
      "launch": 4290,
      "особенно": 4291,
      "Moon": 4292,
      "Washington": 4293,
      "fig": 4294,
      "screen": 4295,
      "бю": 4296,
      "эпо": 4297,
      "energy": 4298,
      "постоян": 4299,
      "сохран": 4300,
      "ille": 4301,
      "обре": 4302,
      "beh": 4303,
      "ментов": 4304,
      "людей": 4305,
      "Aruba": 4306,
      "исклю": 4307,
      "класси": 4308,
      "himself": 4309,
      "районе": 4310,
      "техни": 4311,
      "continued": 4312,
      "Del": 4313,
      "Great": 4314,
      "Lond": 4315,
      "right": 4316,
      "ит": 4317,
      "inct": 4318,
      "igu": 4319,
      "число": 4320,
      "avel": 4321,
      "quest": 4322,
      "bert": 4323,
      "2003": 4324,
      "speak": 4325,
      "tens": 4326,
      "aircraft": 4327,
      "Sept": 4328,
      "береж": 4329,
      "asteroids": 4330,
      "schol": 4331,
      "London": 4332,
      "49": 4333,
      "cell": 4334,
      "kill": 4335,
      "шёл": 4336,
      "эф": 4337,
      "экологи": 4338,
      "erous": 4339,
      "раст": 4340,
      "attr": 4341,
      "лой": 4342,
      "стой": 4343,
      "ган": 4344,
      "ounced": 4345,
      "ift": 4346,
      "луч": 4347,
      "throughout": 4348,
      "Раз": 4349,
      "интере": 4350,
      "Film": 4351,
      "Man": 4352,
      "March": 4353,
      "Tro": 4354,
      "good": 4355,
      "nom": 4356,
      "scient": 4357,
      "срав": 4358,
      "учи": 4359,
      "нодоро": 4360,
      "ands": 4361,
      "матиче": 4362,
      "стана": 4363,
      "Содру": 4364,
      "получа": 4365,
      "Indian": 4366,
      "ograph": 4367,
      "economic": 4368,
      "chemical": 4369,
      "необходимо": 4370,
      "September": 4371,
      "El": 4372,
      "mber": 4373,
      "ам": 4374,
      "бро": 4375,
      "anime": 4376,
      "ност": 4377,
      "сокра": 4378,
      "рует": 4379,
      "train": 4380,
      "augh": 4381,
      "парла": 4382,
      "ябре": 4383,
      "famil": 4384,
      "meaning": 4385,
      "official": 4386,
      "европей": 4387,
      "employ": 4388,
      "bs": 4389,
      "fail": 4390,
      "iers": 4391,
      "КП": 4392,
      "американ": 4393,
      "иму": 4394,
      "anish": 4395,
      "лод": 4396,
      "lection": 4397,
      "моле": 4398,
      "принци": 4399,
      "conne": 4400,
      "ateg": 4401,
      "мых": 4402,
      "1980": 4403,
      "пыт": 4404,
      "телем": 4405,
      "broad": 4406,
      "различных": 4407,
      "Tarkovsky": 4408,
      "cir": 4409,
      "list": 4410,
      "вшего": 4411,
      "езда": 4412,
      "рами": 4413,
      "ency": 4414,
      "лова": 4415,
      "ape": 4416,
      "бес": 4417,
      "Кав": 4418,
      "symbol": 4419,
      "commer": 4420,
      "Dece": 4421,
      "ологии": 4422,
      "animals": 4423,
      "определён": 4424,
      "метрополи": 4425,
      "half": 4426,
      "настоящее": 4427,
      "Islam": 4428,
      "Dutch": 4429,
      "No": 4430,
      "cern": 4431,
      "gas": 4432,
      "Гор": 4433,
      "ента": 4434,
      "посред": 4435,
      "валось": 4436,
      "моно": 4437,
      "20th": 4438,
      "utes": 4439,
      "тельных": 4440,
      "trade": 4441,
      "финан": 4442,
      "предло": 4443,
      "требо": 4444,
      "ships": 4445,
      "followed": 4446,
      "Confederate": 4447,
      "December": 4448,
      "har": 4449,
      "mor": 4450,
      "ves": 4451,
      "win": 4452,
      "women": 4453,
      "Кар": 4454,
      "гви": 4455,
      "уби": 4456,
      "third": 4457,
      "стров": 4458,
      "сколь": 4459,
      "health": 4460,
      "меся": 4461,
      "протя": 4462,
      "второй": 4463,
      "ysis": 4464,
      "Москва": 4465,
      "Польши": 4466,
      "производства": 4467,
      "History": 4468,
      "февраля": 4469,
      "очеред": 4470,
      "Aust": 4471,
      "Cour": 4472,
      "avery": 4473,
      "youn": 4474,
      "кс": 4475,
      "кта": 4476,
      "вело": 4477,
      "дого": 4478,
      "concept": 4479,
      "тельные": 4480,
      "куп": 4481,
      "институ": 4482,
      "пути": 4483,
      "Army": 4484,
      "syn": 4485,
      "slavery": 4486,
      "draw": 4487,
      "млрд": 4488,
      "движение": 4489,
      "choice": 4490,
      "управления": 4491,
      "IS": 4492,
      "iom": 4493,
      "Нев": 4494,
      "ФСР": 4495,
      "нение": 4496,
      "нев": 4497,
      "силь": 4498,
      "ades": 4499,
      "седа": 4500,
      "прекра": 4501,
      "prote": 4502,
      "Ank": 4503,
      "ours": 4504,
      "ends": 4505,
      "president": 4506,
      "объя": 4507,
      "thought": 4508,
      "масс": 4509,
      "XVIII": 4510,
      "single": 4511,
      "Animal": 4512,
      "viron": 4513,
      "льгаме": 4514,
      "ned": 4515,
      "юж": 4516,
      "eles": 4517,
      "пуска": 4518,
      "связан": 4519,
      "никами": 4520,
      "культуры": 4521,
      "движения": 4522,
      "Бразили": 4523,
      "47": 4524,
      "Air": 4525,
      "Miss": 4526,
      "ey": 4527,
      "gl": 4528,
      "ient": 4529,
      "rich": 4530,
      "Вто": 4531,
      "оцен": 4532,
      "ссо": 4533,
      "фра": 4534,
      "рок": 4535,
      "project": 4536,
      "войне": 4537,
      "2001": 4538,
      "China": 4539,
      "емые": 4540,
      "трёх": 4541,
      "Москвы": 4542,
      "технологи": 4543,
      "согласно": 4544,
      "случае": 4545,
      "campaign": 4546,
      "Dav": 4547,
      "Вар": 4548,
      "итальян": 4549,
      "iness": 4550,
      "recent": 4551,
      "almost": 4552,
      "това": 4553,
      "seen": 4554,
      "отсут": 4555,
      "aper": 4556,
      "previ": 4557,
      "Литера": 4558,
      "temper": 4559,
      "economy": 4560,
      "Russian": 4561,
      "Калининград": 4562,
      "административ": 4563,
      "CO": 4564,
      "June": 4565,
      "Sem": 4566,
      "ring": 4567,
      "Атлан": 4568,
      "лья": 4569,
      "icated": 4570,
      "дераль": 4571,
      "стави": 4572,
      "adv": 4573,
      "преж": 4574,
      "писи": 4575,
      "photo": 4576,
      "evidence": 4577,
      "цами": 4578,
      "Ital": 4579,
      "subject": 4580,
      "1939": 4581,
      "Германия": 4582,
      "version": 4583,
      "Гильгаме": 4584,
      "Верхов": 4585,
      "Anatolia": 4586,
      "43": 4587,
      "pain": 4588,
      "Лю": 4589,
      "Он": 4590,
      "аэро": 4591,
      "бар": 4592,
      "йского": 4593,
      "поверх": 4594,
      "бое": 4595,
      "изо": 4596,
      "unar": 4597,
      "ulf": 4598,
      "express": 4599,
      "ционные": 4600,
      "Киров": 4601,
      "основном": 4602,
      "Петербурга": 4603,
      "religious": 4604,
      "Austr": 4605,
      "discovered": 4606,
      "anthropology": 4607,
      "Battle": 4608,
      "Des": 4609,
      "ler": 4610,
      "sound": 4611,
      "Тем": 4612,
      "ата": 4613,
      "поля": 4614,
      "ником": 4615,
      "соору": 4616,
      "сохрани": 4617,
      "acc": 4618,
      "бой": 4619,
      "ceed": 4620,
      "istics": 4621,
      "Institute": 4622,
      "international": 4623,
      "capt": 4624,
      "cultural": 4625,
      "характери": 4626,
      "successful": 4627,
      "мечания": 4628,
      "наблю": 4629,
      "имуще": 4630,
      "Mac": 4631,
      "Scot": 4632,
      "find": 4633,
      "live": 4634,
      "mal": 4635,
      "uk": 4636,
      "Как": 4637,
      "ances": 4638,
      "находя": 4639,
      "тить": 4640,
      "видов": 4641,
      "ula": 4642,
      "правля": 4643,
      "pron": 4644,
      "post": 4645,
      "standard": 4646,
      "novel": 4647,
      "42": 4648,
      "pet": 4649,
      "ект": 4650,
      "оте": 4651,
      "тные": 4652,
      "увеличи": 4653,
      "ank": 4654,
      "atch": 4655,
      "поте": 4656,
      "вооружён": 4657,
      "стать": 4658,
      "музей": 4659,
      "имени": 4660,
      "mostly": 4661,
      "command": 4662,
      "ведение": 4663,
      "метров": 4664,
      "contribut": 4665,
      "многих": 4666,
      "northern": 4667,
      "РСФСР": 4668,
      "fri": 4669,
      "vict": 4670,
      "ЕС": 4671,
      "гна": 4672,
      "кло": 4673,
      "съ": 4674,
      "учеб": 4675,
      "совер": 4676,
      "доку": 4677,
      "urch": 4678,
      "cean": 4679,
      "never": 4680,
      "Примечания": 4681,
      "born": 4682,
      "обеспечи": 4683,
      "молеку": 4684,
      "32": 4685,
      "cast": 4686,
      "dial": 4687,
      "fac": 4688,
      "uel": 4689,
      "нен": 4690,
      "фли": 4691,
      "нова": 4692,
      "stant": 4693,
      "uries": 4694,
      "тельное": 4695,
      "actions": 4696,
      "бир": 4697,
      "ored": 4698,
      "составе": 4699,
      "сылки": 4700,
      "attack": 4701,
      "развитие": 4702,
      "ющее": 4703,
      "британ": 4704,
      "help": 4705,
      "philosoph": 4706,
      "скольку": 4707,
      "doc": 4708,
      "ning": 4709,
      "гг": 4710,
      "тому": 4711,
      "ingu": 4712,
      "ческим": 4713,
      "accoun": 4714,
      "вии": 4715,
      "мат": 4716,
      "выпол": 4717,
      "зия": 4718,
      "Наи": 4719,
      "characters": 4720,
      "позд": 4721,
      "received": 4722,
      "Kingdom": 4723,
      "Ankara": 4724,
      "Most": 4725,
      "mis": 4726,
      "взя": 4727,
      "рен": 4728,
      "star": 4729,
      "offer": 4730,
      "дами": 4731,
      "мало": 4732,
      "сек": 4733,
      "северо": 4734,
      "concern": 4735,
      "шие": 4736,
      "туа": 4737,
      "ibr": 4738,
      "начало": 4739,
      "государство": 4740,
      "русской": 4741,
      "themat": 4742,
      "medi": 4743,
      "относя": 4744,
      "diffic": 4745,
      "Court": 4746,
      "difficult": 4747,
      "From": 4748,
      "Press": 4749,
      "Res": 4750,
      "pite": 4751,
      "ВИ": 4752,
      "Лу": 4753,
      "Эти": 4754,
      "очень": 4755,
      "некоторые": 4756,
      "лега": 4757,
      "sets": 4758,
      "принад": 4759,
      "ago": 4760,
      "mocr": 4761,
      "active": 4762,
      "спектро": 4763,
      "население": 4764,
      "городской": 4765,
      "существова": 4766,
      "higher": 4767,
      "дороги": 4768,
      "История": 4769,
      "William": 4770,
      "Gre": 4771,
      "Since": 4772,
      "science": 4773,
      "Вене": 4774,
      "Сто": 4775,
      "Чер": 4776,
      "дли": 4777,
      "если": 4778,
      "уг": 4779,
      "ранее": 4780,
      "догово": 4781,
      "olic": 4782,
      "19th": 4783,
      "plain": 4784,
      "коммуни": 4785,
      "ждён": 4786,
      "порт": 4787,
      "legal": 4788,
      "philosophy": 4789,
      "influence": 4790,
      "процес": 4791,
      "Федера": 4792,
      "magn": 4793,
      "range": 4794,
      "style": 4795,
      "cro": 4796,
      "cities": 4797,
      "further": 4798,
      "lay": 4799,
      "went": 4800,
      "Дж": 4801,
      "Юж": 4802,
      "town": 4803,
      "mother": 4804,
      "plant": 4805,
      "тического": 4806,
      "полно": 4807,
      "Cont": 4808,
      "района": 4809,
      "market": 4810,
      "industry": 4811,
      "миллионов": 4812,
      "церков": 4813,
      "troops": 4814,
      "January": 4815,
      "families": 4816,
      "Mod": 4817,
      "glo": 4818,
      "nation": 4819,
      "squ": 4820,
      "vo": 4821,
      "Бы": 4822,
      "Эр": 4823,
      "ators": 4824,
      "такие": 4825,
      "тили": 4826,
      "adop": 4827,
      "стоит": 4828,
      "перед": 4829,
      "своего": 4830,
      "1922": 4831,
      "основан": 4832,
      "остров": 4833,
      "reported": 4834,
      "taken": 4835,
      "God": 4836,
      "Sy": 4837,
      "ball": 4838,
      "dig": 4839,
      "mi": 4840,
      "mix": 4841,
      "Азии": 4842,
      "вз": 4843,
      "игра": 4844,
      "йская": 4845,
      "щую": 4846,
      "юго": 4847,
      "лью": 4848,
      "таких": 4849,
      "зада": 4850,
      "допол": 4851,
      "accept": 4852,
      "вича": 4853,
      "ляют": 4854,
      "поддерж": 4855,
      "neg": 4856,
      "computer": 4857,
      "pread": 4858,
      "ведён": 4859,
      "имеют": 4860,
      "know": 4861,
      "proved": 4862,
      "военно": 4863,
      "язык": 4864,
      "группа": 4865,
      "Johnston": 4866,
      "ambigu": 4867,
      "Литература": 4868,
      "65": 4869,
      "97": 4870,
      "Hy": 4871,
      "Hol": 4872,
      "Southern": 4873,
      "died": 4874,
      "fund": 4875,
      "sw": 4876,
      "Кре": 4877,
      "Япо": 4878,
      "шем": 4879,
      "ery": 4880,
      "носи": 4881,
      "рец": 4882,
      "лим": 4883,
      "лях": 4884,
      "above": 4885,
      "гидро": 4886,
      "ipp": 4887,
      "1995": 4888,
      "форм": 4889,
      "lik": 4890,
      "base": 4891,
      "клад": 4892,
      "1970": 4893,
      "ология": 4894,
      "days": 4895,
      "letter": 4896,
      "director": 4897,
      "используется": 4898,
      "products": 4899,
      "asteroid": 4900,
      "личие": 4901,
      "associated": 4902,
      "believed": 4903,
      "AF": 4904,
      "foc": 4905,
      "Пар": 4906,
      "впервые": 4907,
      "дент": 4908,
      "четы": 4909,
      "ford": 4910,
      "avail": 4911,
      "буду": 4912,
      "flight": 4913,
      "служ": 4914,
      "территория": 4915,
      "African": 4916,
      "включая": 4917,
      "анализа": 4918,
      "approxim": 4919,
      "Тихо": 4920,
      "dialect": 4921,
      "ВИЧ": 4922,
      "41": 4923,
      "gg": 4924,
      "пле": 4925,
      "ям": 4926,
      "льным": 4927,
      "tober": 4928,
      "road": 4929,
      "зал": 4930,
      "hest": 4931,
      "выз": 4932,
      "выра": 4933,
      "emer": 4934,
      "туаль": 4935,
      "тый": 4936,
      "первой": 4937,
      "away": 4938,
      "ссажи": 4939,
      "примерно": 4940,
      "astronaut": 4941,
      "поиско": 4942,
      "October": 4943,
      "vironment": 4944,
      "Vol": 4945,
      "Ча": 4946,
      "здесь": 4947,
      "ваются": 4948,
      "док": 4949,
      "дел": 4950,
      "чески": 4951,
      "руссии": 4952,
      "sure": 4953,
      "англи": 4954,
      "всей": 4955,
      "invent": 4956,
      "рованных": 4957,
      "исследования": 4958,
      "remained": 4959,
      "Владивосток": 4960,
      "labor": 4961,
      "Portug": 4962,
      "She": 4963,
      "gold": 4964,
      "Сер": 4965,
      "пен": 4966,
      "счёт": 4967,
      "тря": 4968,
      "побереж": 4969,
      "дам": 4970,
      "entire": 4971,
      "тельного": 4972,
      "ственная": 4973,
      "специ": 4974,
      "Воз": 4975,
      "grad": 4976,
      "1986": 4977,
      "связа": 4978,
      "автомоби": 4979,
      "Spanish": 4980,
      "несколь": 4981,
      "Литвы": 4982,
      "метал": 4983,
      "ристиан": 4984,
      "гвисти": 4985,
      "Not": 4986,
      "southern": 4987,
      "ufact": 4988,
      "Зим": 4989,
      "тный": 4990,
      "наро": 4991,
      "lected": 4992,
      "оби": 4993,
      "best": 4994,
      "бога": 4995,
      "причи": 4996,
      "тельный": 4997,
      "lost": 4998,
      "бело": 4999,
      "мые": 5000,
      "arded": 5001,
      "тическая": 5002,
      "ferences": 5003,
      "русского": 5004,
      "положение": 5005,
      "lock": 5006,
      "представлен": 5007,
      "площадь": 5008,
      "typically": 5009,
      "благо": 5010,
      "territory": 5011,
      "Canada": 5012,
      "55": 5013,
      "Li": 5014,
      "ff": 5015,
      "ky": 5016,
      "past": 5017,
      "вли": 5018,
      "най": 5019,
      "тором": 5020,
      "дование": 5021,
      "прожи": 5022,
      "гие": 5023,
      "рования": 5024,
      "itself": 5025,
      "polic": 5026,
      "плани": 5027,
      "1960": 5028,
      "восстанов": 5029,
      "appeal": 5030,
      "религии": 5031,
      "Италия": 5032,
      "India": 5033,
      "close": 5034,
      "коллек": 5035,
      "железнодоро": 5036,
      "Второй": 5037,
      "List": 5038,
      "aqu": 5039,
      "hon": 5040,
      "Древ": 5041,
      "оц": 5042,
      "ори": 5043,
      "пси": 5044,
      "новой": 5045,
      "циа": 5046,
      "рубе": 5047,
      "отлича": 5048,
      "разру": 5049,
      "гар": 5050,
      "acts": 5051,
      "complex": 5052,
      "1998": 5053,
      "pred": 5054,
      "includes": 5055,
      "станции": 5056,
      "Интер": 5057,
      "increased": 5058,
      "происходит": 5059,
      "children": 5060,
      "Christian": 5061,
      "analysis": 5062,
      "Варша": 5063,
      "Bar": 5064,
      "IV": 5065,
      "Its": 5066,
      "mun": 5067,
      "nic": 5068,
      "rights": 5069,
      "song": 5070,
      "Им": 5071,
      "гни": 5072,
      "две": 5073,
      "тного": 5074,
      "новые": 5075,
      "tour": 5076,
      "кими": 5077,
      "веществ": 5078,
      "according": 5079,
      "профе": 5080,
      "sea": 5081,
      "отмеча": 5082,
      "газ": 5083,
      "годаря": 5084,
      "жителей": 5085,
      "подви": 5086,
      "team": 5087,
      "priv": 5088,
      "значение": 5089,
      "conson": 5090,
      "пыта": 5091,
      "ront": 5092,
      "языка": 5093,
      "writing": 5094,
      "played": 5095,
      "majority": 5096,
      "Волга": 5097,
      "types": 5098,
      "defined": 5099,
      "деятельности": 5100,
      "independence": 5101,
      "climate": 5102,
      "size": 5103,
      "жё": 5104,
      "ил": 5105,
      "сен": 5106,
      "сет": 5107,
      "atory": 5108,
      "повы": 5109,
      "сооб": 5110,
      "acks": 5111,
      "1930": 5112,
      "amphib": 5113,
      "adap": 5114,
      "разд": 5115,
      "aps": 5116,
      "лено": 5117,
      "Под": 5118,
      "1997": 5119,
      "лых": 5120,
      "produce": 5121,
      "Ком": 5122,
      "военных": 5123,
      "языке": 5124,
      "chemy": 5125,
      "links": 5126,
      "революцион": 5127,
      "фронта": 5128,
      "critic": 5129,
      "ean": 5130,
      "fav": 5131,
      "ито": 5132,
      "оло": 5133,
      "ятся": 5134,
      "провозгла": 5135,
      "prob": 5136,
      "prop": 5137,
      "ший": 5138,
      "конструк": 5139,
      "compet": 5140,
      "емый": 5141,
      "уровень": 5142,
      "корпу": 5143,
      "крестья": 5144,
      "algorithm": 5145,
      "начина": 5146,
      "individual": 5147,
      "Febr": 5148,
      "average": 5149,
      "34": 5150,
      "hig": 5151,
      "iform": 5152,
      "tre": 5153,
      "Ди": 5154,
      "Ио": 5155,
      "вле": 5156,
      "ид": 5157,
      "коне": 5158,
      "рит": 5159,
      "тию": 5160,
      "ament": 5161,
      "ull": 5162,
      "газо": 5163,
      "uments": 5164,
      "щий": 5165,
      "artic": 5166,
      "единя": 5167,
      "ought": 5168,
      "maintain": 5169,
      "пользова": 5170,
      "referred": 5171,
      "traditional": 5172,
      "рабочих": 5173,
      "законодатель": 5174,
      "February": 5175,
      "billion": 5176,
      "ios": 5177,
      "living": 5178,
      "Амери": 5179,
      "review": 5180,
      "ними": 5181,
      "лосо": 5182,
      "1950": 5183,
      "проте": 5184,
      "избира": 5185,
      "пассажи": 5186,
      "ствия": 5187,
      "общего": 5188,
      "централь": 5189,
      "See": 5190,
      "problems": 5191,
      "introduced": 5192,
      "little": 5193,
      "highest": 5194,
      "Har": 5195,
      "cit": 5196,
      "gave": 5197,
      "ll": 5198,
      "mig": 5199,
      "rat": 5200,
      "Ад": 5201,
      "ened": 5202,
      "rog": 5203,
      "тельной": 5204,
      "града": 5205,
      "конститу": 5206,
      "общей": 5207,
      "Киев": 5208,
      "foreign": 5209,
      "consider": 5210,
      "Город": 5211,
      "дворца": 5212,
      "Афри": 5213,
      "середине": 5214,
      "education": 5215,
      "Act": 5216,
      "Cor": 5217,
      "Hux": 5218,
      "hip": 5219,
      "еже": 5220,
      "жные": 5221,
      "тной": 5222,
      "ностей": 5223,
      "reason": 5224,
      "aring": 5225,
      "toge": 5226,
      "access": 5227,
      "мах": 5228,
      "respect": 5229,
      "quar": 5230,
      "cip": 5231,
      "бай": 5232,
      "тической": 5233,
      "тических": 5234,
      "element": 5235,
      "связыва": 5236,
      "invest": 5237,
      "действие": 5238,
      "Руси": 5239,
      "систем": 5240,
      "условиях": 5241,
      "экономики": 5242,
      "художе": 5243,
      "44": 5244,
      "99": 5245,
      "Revolution": 5246,
      "hab": 5247,
      "jud": 5248,
      "member": 5249,
      "Ло": 5250,
      "Тур": 5251,
      "гря": 5252,
      "иг": 5253,
      "amoun": 5254,
      "white": 5255,
      "конфли": 5256,
      "знача": 5257,
      "ющими": 5258,
      "ideo": 5259,
      "State": 5260,
      "лый": 5261,
      "партий": 5262,
      "larger": 5263,
      "торгов": 5264,
      "regions": 5265,
      "перио": 5266,
      "Восточной": 5267,
      "обычно": 5268,
      "большой": 5269,
      "Soci": 5270,
      "features": 5271,
      "Huxley": 5272,
      "Sam": 5273,
      "hard": 5274,
      "oid": 5275,
      "вместе": 5276,
      "уз": 5277,
      "роди": 5278,
      "реали": 5279,
      "тике": 5280,
      "запре": 5281,
      "chan": 5282,
      "concent": 5283,
      "upon": 5284,
      "Национа": 5285,
      "одного": 5286,
      "спек": 5287,
      "форму": 5288,
      "1943": 5289,
      "Прибал": 5290,
      "экспе": 5291,
      "состоянию": 5292,
      "Между": 5293,
      "television": 5294,
      "particularly": 5295,
      "objects": 5296,
      "alphabet": 5297,
      "President": 5298,
      "dy": 5299,
      "fight": 5300,
      "nia": 5301,
      "rain": 5302,
      "table": 5303,
      "пан": 5304,
      "super": 5305,
      "рование": 5306,
      "manufact": 5307,
      "effor": 5308,
      "1944": 5309,
      "область": 5310,
      "считы": 5311,
      "motion": 5312,
      "structure": 5313,
      "Central": 5314,
      "другой": 5315,
      "estimated": 5316,
      "November": 5317,
      "Граждан": 5318,
      "депутатов": 5319,
      "Semitic": 5320,
      "High": 5321,
      "Nob": 5322,
      "tation": 5323,
      "vot": 5324,
      "мнению": 5325,
      "юри": 5326,
      "inem": 5327,
      "реак": 5328,
      "маги": 5329,
      "construction": 5330,
      "proposed": 5331,
      "тельность": 5332,
      "суб": 5333,
      "ственным": 5334,
      "зован": 5335,
      "образование": 5336,
      "крупных": 5337,
      "movement": 5338,
      "Class": 5339,
      "leading": 5340,
      "together": 5341,
      "Ива": 5342,
      "жур": 5343,
      "зон": 5344,
      "ints": 5345,
      "насле": 5346,
      "рель": 5347,
      "island": 5348,
      "dem": 5349,
      "севе": 5350,
      "чай": 5351,
      "utions": 5352,
      "новремен": 5353,
      "ровать": 5354,
      "ribut": 5355,
      "расши": 5356,
      "1992": 5357,
      "spir": 5358,
      "indic": 5359,
      "партия": 5360,
      "влад": 5361,
      "советской": 5362,
      "советских": 5363,
      "марш": 5364,
      "океан": 5365,
      "членов": 5366,
      "Лондон": 5367,
      "Вильню": 5368,
      "selves": 5369,
      "young": 5370,
      "300": 5371,
      "La": 5372,
      "bes": 5373,
      "ply": 5374,
      "text": 5375,
      "уве": 5376,
      "указа": 5377,
      "albed": 5378,
      "ising": 5379,
      "мита": 5380,
      "ctions": 5381,
      "ственное": 5382,
      "странах": 5383,
      "1987": 5384,
      "province": 5385,
      "famous": 5386,
      "References": 5387,
      "район": 5388,
      "уровня": 5389,
      "agricultural": 5390,
      "обяза": 5391,
      "widely": 5392,
      "available": 5393,
      "Bur": 5394,
      "male": 5395,
      "аб": 5396,
      "цкий": 5397,
      "onom": 5398,
      "веду": 5399,
      "типа": 5400,
      "доволь": 5401,
      "ister": 5402,
      "разу": 5403,
      "гам": 5404,
      "перво": 5405,
      "auto": 5406,
      "1996": 5407,
      "spect": 5408,
      "втор": 5409,
      "славян": 5410,
      "1921": 5411,
      "1906": 5412,
      "армия": 5413,
      "Франция": 5414,
      "океа": 5415,
      "axiom": 5416,
      "большинство": 5417,
      "H2": 5418,
      "net": 5419,
      "бран": 5420,
      "празд": 5421,
      "чён": 5422,
      "дерев": 5423,
      "administ": 5424,
      "loss": 5425,
      "граде": 5426,
      "activ": 5427,
      "состава": 5428,
      "efore": 5429,
      "чены": 5430,
      "wee": 5431,
      "particip": 5432,
      "limited": 5433,
      "вшихся": 5434,
      "explo": 5435,
      "clear": 5436,
      "Союза": 5437,
      "profess": 5438,
      "46": 5439,
      "Ae": 5440,
      "ges": 5441,
      "host": 5442,
      "house": 5443,
      "Зем": 5444,
      "рор": 5445,
      "isation": 5446,
      "вался": 5447,
      "сок": 5448,
      "outheast": 5449,
      "мей": 5450,
      "мел": 5451,
      "ческом": 5452,
      "acids": 5453,
      "дис": 5454,
      "confl": 5455,
      "cele": 5456,
      "oph": 5457,
      "eties": 5458,
      "emph": 5459,
      "anted": 5460,
      "жил": 5461,
      "спект": 5462,
      "край": 5463,
      "correspond": 5464,
      "cost": 5465,
      "alkanes": 5466,
      "increasing": 5467,
      "влияние": 5468,
      "Trans": 5469,
      "путём": 5470,
      "встреча": 5471,
      "birth": 5472,
      "Best": 5473,
      "Gu": 5474,
      "If": 5475,
      "bot": 5476,
      "sit": 5477,
      "saf": 5478,
      "авиа": 5479,
      "уго": 5480,
      "ana": 5481,
      "поскольку": 5482,
      "литов": 5483,
      "дин": 5484,
      "приро": 5485,
      "шим": 5486,
      "ствовали": 5487,
      "1993": 5488,
      "whose": 5489,
      "действий": 5490,
      "государственной": 5491,
      "Britain": 5492,
      "changes": 5493,
      "required": 5494,
      "хозяйства": 5495,
      "orders": 5496,
      "Albanian": 5497,
      "вшиеся": 5498,
      "Союз": 5499,
      "thesis": 5500,
      "очередь": 5501,
      "Further": 5502,
      "cases": 5503,
      "lunar": 5504,
      "Даль": 5505,
      "есте": 5506,
      "фин": 5507,
      "рах": 5508,
      "места": 5509,
      "determin": 5510,
      "выступа": 5511,
      "convent": 5512,
      "разно": 5513,
      "тури": 5514,
      "Alta": 5515,
      "Соци": 5516,
      "cret": 5517,
      "1988": 5518,
      "ждений": 5519,
      "themselves": 5520,
      "media": 5521,
      "Order": 5522,
      "емого": 5523,
      "Западной": 5524,
      "широко": 5525,
      "claimed": 5526,
      "помощью": 5527,
      "whether": 5528,
      "eventually": 5529,
      "маршру": 5530,
      "85": 5531,
      "Em": 5532,
      "Hum": 5533,
      "audi": 5534,
      "ben": 5535,
      "categ": 5536,
      "gress": 5537,
      "hom": 5538,
      "ued": 5539,
      "Ис": 5540,
      "вления": 5541,
      "эн": 5542,
      "ink": 5543,
      "revol": 5544,
      "ithium": 5545,
      "рази": 5546,
      "разных": 5547,
      "applic": 5548,
      "щей": 5549,
      "necess": 5550,
      "formal": 5551,
      "176": 5552,
      "которым": 5553,
      "achiev": 5554,
      "viol": 5555,
      "working": 5556,
      "sett": 5557,
      "variety": 5558,
      "instead": 5559,
      "External": 5560,
      "рамках": 5561,
      "released": 5562,
      "Persian": 5563,
      "Nobel": 5564,
      "новременно": 5565,
      "foot": 5566,
      "mid": 5567,
      "Круп": 5568,
      "ом": 5569,
      "школа": 5570,
      "понима": 5571,
      "вес": 5572,
      "дома": 5573,
      "1914": 5574,
      "ситуа": 5575,
      "сторон": 5576,
      "mole": 5577,
      "ходов": 5578,
      "тельство": 5579,
      "coming": 5580,
      "arts": 5581,
      "1994": 5582,
      "disc": 5583,
      "географи": 5584,
      "1985": 5585,
      "км²": 5586,
      "союза": 5587,
      "effects": 5588,
      "black": 5589,
      "синте": 5590,
      "techniques": 5591,
      "театр": 5592,
      "Il": 5593,
      "Mor": 5594,
      "ech": 5595,
      "iation": 5596,
      "Ир": 5597,
      "гну": 5598,
      "зрения": 5599,
      "нки": 5600,
      "огром": 5601,
      "рхи": 5602,
      "altru": 5603,
      "валась": 5604,
      "лах": 5605,
      "вей": 5606,
      "мощ": 5607,
      "превра": 5608,
      "жили": 5609,
      "бас": 5610,
      "derived": 5611,
      "ney": 5612,
      "страте": 5613,
      "слов": 5614,
      "ounds": 5615,
      "русских": 5616,
      "долго": 5617,
      "Early": 5618,
      "многочислен": 5619,
      "ASA": 5620,
      "problem": 5621,
      "школы": 5622,
      "earlier": 5623,
      "Fir": 5624,
      "Middle": 5625,
      "ded": 5626,
      "sof": 5627,
      "Аль": 5628,
      "вдо": 5629,
      "пти": 5630,
      "atal": 5631,
      "завер": 5632,
      "стар": 5633,
      "пита": 5634,
      "plied": 5635,
      "assum": 5636,
      "forest": 5637,
      "feature": 5638,
      "names": 5639,
      "лингвисти": 5640,
      "Space": 5641,
      "происхо": 5642,
      "Гам": 5643,
      "title": 5644,
      "occup": 5645,
      "Museum": 5646,
      "Pri": 5647,
      "ole": 5648,
      "нём": 5649,
      "све": 5650,
      "христиан": 5651,
      "environment": 5652,
      "ныне": 5653,
      "isl": 5654,
      "циони": 5655,
      "сети": 5656,
      "стом": 5657,
      "природ": 5658,
      "idge": 5659,
      "тельства": 5660,
      "суд": 5661,
      "баты": 5662,
      "зом": 5663,
      "страни": 5664,
      "треть": 5665,
      "instit": 5666,
      "transl": 5667,
      "Philosop": 5668,
      "телями": 5669,
      "кризи": 5670,
      "personal": 5671,
      "clos": 5672,
      "value": 5673,
      "Конститу": 5674,
      "influenced": 5675,
      "монасты": 5676,
      "front": 5677,
      "евре": 5678,
      "квар": 5679,
      "тле": 5680,
      "stage": 5681,
      "лизации": 5682,
      "веков": 5683,
      "изобра": 5684,
      "сказа": 5685,
      "phone": 5686,
      "золо": 5687,
      "главе": 5688,
      "Каза": 5689,
      "последова": 5690,
      "федераль": 5691,
      "Литов": 5692,
      "област": 5693,
      "смотря": 5694,
      "growth": 5695,
      "генерал": 5696,
      "дальней": 5697,
      "George": 5698,
      "Эрмита": 5699,
      "нескольких": 5700,
      "Ak": 5701,
      "City": 5702,
      "TV": 5703,
      "hood": 5704,
      "nuc": 5705,
      "Лат": 5706,
      "НК": 5707,
      "Юго": 5708,
      "озе": 5709,
      "тни": 5710,
      "тка": 5711,
      "умер": 5712,
      "натрия": 5713,
      "esium": 5714,
      "сотруд": 5715,
      "стол": 5716,
      "гия": 5717,
      "сад": 5718,
      "comes": 5719,
      "clus": 5720,
      "распреде": 5721,
      "outside": 5722,
      "mathemat": 5723,
      "учения": 5724,
      "Пере": 5725,
      "weak": 5726,
      "частью": 5727,
      "specific": 5728,
      "directly": 5729,
      "кабба": 5730,
      "increase": 5731,
      "православ": 5732,
      "самых": 5733,
      "внутри": 5734,
      "университет": 5735,
      "issues": 5736,
      "симво": 5737,
      "Наиболее": 5738,
      "approximately": 5739,
      "albedo": 5740,
      "Awards": 5741,
      "Gro": 5742,
      "Vir": 5743,
      "eas": 5744,
      "give": 5745,
      "ha": 5746,
      "Ссылки": 5747,
      "ото": 5748,
      "описа": 5749,
      "ering": 5750,
      "ret": 5751,
      "тот": 5752,
      "itation": 5753,
      "ляции": 5754,
      "час": 5755,
      "суль": 5756,
      "percent": 5757,
      "будет": 5758,
      "1968": 5759,
      "icted": 5760,
      "Северо": 5761,
      "военного": 5762,
      "производство": 5763,
      "помощи": 5764,
      "занимает": 5765,
      "hydrogen": 5766,
      "scholars": 5767,
      "журна": 5768,
      "Cali": 5769,
      "TA": 5770,
      "wall": 5771,
      "кле": 5772,
      "чную": 5773,
      "ресу": 5774,
      "поги": 5775,
      "ica": 5776,
      "деб": 5777,
      "метра": 5778,
      "бом": 5779,
      "отказа": 5780,
      "пала": 5781,
      "ague": 5782,
      "рыв": 5783,
      "тые": 5784,
      "щего": 5785,
      "lood": 5786,
      "anti": 5787,
      "ources": 5788,
      "Сове": 5789,
      "краин": 5790,
      "larg": 5791,
      "provided": 5792,
      "distribut": 5793,
      "letters": 5794,
      "значительно": 5795,
      "уничто": 5796,
      "Ленинград": 5797,
      "remains": 5798,
      "smaller": 5799,
      "кислоты": 5800,
      "глуби": 5801,
      "primary": 5802,
      "started": 5803,
      "Muslim": 5804,
      "Содружества": 5805,
      "Islamic": 5806,
      "Hun": 5807,
      "Jew": 5808,
      "gin": 5809,
      "gain": 5810,
      "nature": 5811,
      "ВВ": 5812,
      "Нор": 5813,
      "Ту": 5814,
      "дня": 5815,
      "оно": 5816,
      "тки": 5817,
      "твор": 5818,
      "поэ": 5819,
      "вай": 5820,
      "като": 5821,
      "лег": 5822,
      "тием": 5823,
      "дон": 5824,
      "выну": 5825,
      "отра": 5826,
      "изуча": 5827,
      "umb": 5828,
      "extens": 5829,
      "шед": 5830,
      "Thom": 5831,
      "pose": 5832,
      "150": 5833,
      "interpre": 5834,
      "ught": 5835,
      "numerous": 5836,
      "1907": 5837,
      "Мини": 5838,
      "directed": 5839,
      "distinct": 5840,
      "Andre": 5841,
      "algae": 5842,
      "Англи": 5843,
      "крепости": 5844,
      "building": 5845,
      "статус": 5846,
      "эффек": 5847,
      "circ": 5848,
      "метрополит": 5849,
      "largely": 5850,
      "tend": 5851,
      "днев": 5852,
      "ново": 5853,
      "насчиты": 5854,
      "alchemy": 5855,
      "реши": 5856,
      "нераль": 5857,
      "тиви": 5858,
      "чел": 5859,
      "рую": 5860,
      "примен": 5861,
      "appoint": 5862,
      "тельности": 5863,
      "туру": 5864,
      "quant": 5865,
      "целом": 5866,
      "centuries": 5867,
      "тические": 5868,
      "своё": 5869,
      "counter": 5870,
      "subsequ": 5871,
      "положи": 5872,
      "принято": 5873,
      "ющихся": 5874,
      "Владимир": 5875,
      "возможность": 5876,
      "цов": 5877,
      "ready": 5878,
      "меньше": 5879,
      "independent": 5880,
      "рублей": 5881,
      "relatively": 5882,
      "complete": 5883,
      "companies": 5884,
      "бассей": 5885,
      "Met": 5886,
      "Part": 5887,
      "Park": 5888,
      "bound": 5889,
      "Гу": 5890,
      "гей": 5891,
      "жан": 5892,
      "упо": 5893,
      "чении": 5894,
      "inc": 5895,
      "reme": 5896,
      "edition": 5897,
      "orial": 5898,
      "поня": 5899,
      "постеп": 5900,
      "линии": 5901,
      "ioned": 5902,
      "тил": 5903,
      "скоре": 5904,
      "мост": 5905,
      "defe": 5906,
      "провод": 5907,
      "ado": 5908,
      "семь": 5909,
      "abil": 5910,
      "писы": 5911,
      "пусти": 5912,
      "библи": 5913,
      "assium": 5914,
      "corpor": 5915,
      "учение": 5916,
      "жением": 5917,
      "highly": 5918,
      "Democr": 5919,
      "porary": 5920,
      "различные": 5921,
      "Николая": 5922,
      "составил": 5923,
      "methods": 5924,
      "reached": 5925,
      "battle": 5926,
      "river": 5927,
      "video": 5928,
      "Ека": 5929,
      "охран": 5930,
      "свыше": 5931,
      "чное": 5932,
      "поро": 5933,
      "тече": 5934,
      "меха": 5935,
      "ulated": 5936,
      "phalt": 5937,
      "конца": 5938,
      "teen": 5939,
      "affect": 5940,
      "iple": 5941,
      "1942": 5942,
      "1962": 5943,
      "writers": 5944,
      "труда": 5945,
      "transport": 5946,
      "социальных": 5947,
      "Великобритания": 5948,
      "divided": 5949,
      "Eastern": 5950,
      "agriculture": 5951,
      "sources": 5952,
      "ibrary": 5953,
      "Society": 5954,
      "95": 5955,
      "Maced": 5956,
      "mach": 5957,
      "аре": 5958,
      "вшее": 5959,
      "смы": 5960,
      "чном": 5961,
      "юр": 5962,
      "step": 5963,
      "пой": 5964,
      "подоб": 5965,
      "точно": 5966,
      "лета": 5967,
      "сид": 5968,
      "ems": 5969,
      "стью": 5970,
      "exe": 5971,
      "Alg": 5972,
      "верну": 5973,
      "Ancient": 5974,
      "подготов": 5975,
      "зоны": 5976,
      "Поли": 5977,
      "значения": 5978,
      "первых": 5979,
      "лые": 5980,
      "креди": 5981,
      "sych": 5982,
      "months": 5983,
      "provide": 5984,
      "ledge": 5985,
      "советские": 5986,
      "served": 5987,
      "Пари": 5988,
      "принял": 5989,
      "назва": 5990,
      "политической": 5991,
      "contrast": 5992,
      "удалось": 5993,
      "eastern": 5994,
      "острове": 5995,
      "relationship": 5996,
      "Финлян": 5997,
      "Екатери": 5998,
      "Macedon": 5999,
      "Open": 6000,
      "Val": 6001,
      "hor": 6002,
      "ires": 6003,
      "ping": 6004,
      "uals": 6005,
      "always": 6006,
      "rock": 6007,
      "нему": 6008,
      "мере": 6009,
      "sec": 6010,
      "сем": 6011,
      "look": 6012,
      "acted": 6013,
      "170": 6014,
      "events": 6015,
      "компон": 6016,
      "Chin": 6017,
      "rail": 6018,
      "городах": 6019,
      "lines": 6020,
      "studies": 6021,
      "социальной": 6022,
      "емой": 6023,
      "Александр": 6024,
      "Суще": 6025,
      "communic": 6026,
      "approach": 6027,
      "schools": 6028,
      "практически": 6029,
      "returned": 6030,
      "career": 6031,
      "literature": 6032,
      "предприятий": 6033,
      "Modern": 6034,
      "global": 6035,
      "Altaic": 6036,
      "First": 6037,
      "Ham": 6038,
      "Langu": 6039,
      "MP": 6040,
      "leng": 6041,
      "pal": 6042,
      "Анд": 6043,
      "жный": 6044,
      "умень": 6045,
      "лиза": 6046,
      "миф": 6047,
      "chlor": 6048,
      "выбо": 6049,
      "wash": 6050,
      "кую": 6051,
      "try": 6052,
      "sod": 6053,
      "начали": 6054,
      "центром": 6055,
      "ensive": 6056,
      "surv": 6057,
      "порта": 6058,
      "announced": 6059,
      "appeared": 6060,
      "caused": 6061,
      "Всемир": 6062,
      "Дании": 6063,
      "atomic": 6064,
      "physical": 6065,
      "построен": 6066,
      "Республики": 6067,
      "вексе": 6068,
      "наблюда": 6069,
      "Федерации": 6070,
      "probably": 6071,
      "увелич": 6072,
      "Award": 6073,
      "Pa": 6074,
      "Su": 6075,
      "Ter": 6076,
      "ОО": 6077,
      "ёз": 6078,
      "information": 6079,
      "коле": 6080,
      "написа": 6081,
      "asion": 6082,
      "момент": 6083,
      "прото": 6084,
      "conf": 6085,
      "предоста": 6086,
      "филосо": 6087,
      "зона": 6088,
      "ills": 6089,
      "share": 6090,
      "целью": 6091,
      "пересе": 6092,
      "ссия": 6093,
      "mechan": 6094,
      "логия": 6095,
      "Stand": 6096,
      "dise": 6097,
      "Americans": 6098,
      "Коро": 6099,
      "1924": 6100,
      "государственных": 6101,
      "фут": 6102,
      "Польша": 6103,
      "brought": 6104,
      "округа": 6105,
      "республики": 6106,
      "островов": 6107,
      "президен": 6108,
      "commercial": 6109,
      "специали": 6110,
      "Aege": 6111,
      "Mag": 6112,
      "VI": 6113,
      "kind": 6114,
      "Кры": 6115,
      "Отече": 6116,
      "акаде": 6117,
      "коль": 6118,
      "ковых": 6119,
      "реформы": 6120,
      "rough": 6121,
      "deb": 6122,
      "обору": 6123,
      "abs": 6124,
      "преду": 6125,
      "exhib": 6126,
      "ряда": 6127,
      "Ant": 6128,
      "Arch": 6129,
      "commonly": 6130,
      "points": 6131,
      "организация": 6132,
      "военной": 6133,
      "service": 6134,
      "Германией": 6135,
      "Рас": 6136,
      "основных": 6137,
      "spacecraft": 6138,
      "команду": 6139,
      "император": 6140,
      "большевиков": 6141,
      "algorithms": 6142,
      "source": 6143,
      "территорию": 6144,
      "оккупа": 6145,
      "наступление": 6146,
      "магистра": 6147,
      "Mer": 6148,
      "bond": 6149,
      "cod": 6150,
      "hours": 6151,
      "mel": 6152,
      "wo": 6153,
      "Ал": 6154,
      "Дру": 6155,
      "Тро": 6156,
      "Тран": 6157,
      "once": 6158,
      "story": 6159,
      "пост": 6160,
      "доба": 6161,
      "руют": 6162,
      "constitution": 6163,
      "сай": 6164,
      "войну": 6165,
      "жид": 6166,
      "Ali": 6167,
      "phon": 6168,
      "teach": 6169,
      "бит": 6170,
      "ulture": 6171,
      "комму": 6172,
      "books": 6173,
      "1969": 6174,
      "mainly": 6175,
      "visit": 6176,
      "названия": 6177,
      "морской": 6178,
      "стройки": 6179,
      "достига": 6180,
      "allowed": 6181,
      "деятельность": 6182,
      "Большой": 6183,
      "96": 6184,
      "Cath": 6185,
      "жению": 6186,
      "клу": 6187,
      "чным": 6188,
      "поряд": 6189,
      "too": 6190,
      "лам": 6191,
      "весь": 6192,
      "непосред": 6193,
      "ческую": 6194,
      "abac": 6195,
      "гим": 6196,
      "сан": 6197,
      "pected": 6198,
      "рян": 6199,
      "концу": 6200,
      "oney": 6201,
      "возвра": 6202,
      "create": 6203,
      "логии": 6204,
      "board": 6205,
      "вшим": 6206,
      "obs": 6207,
      "жены": 6208,
      "действу": 6209,
      "объяви": 6210,
      "долла": 6211,
      "medical": 6212,
      "founded": 6213,
      "существует": 6214,
      "чением": 6215,
      "социалисти": 6216,
      "added": 6217,
      "ields": 6218,
      "Александра": 6219,
      "штаб": 6220,
      "possib": 6221,
      "Robert": 6222,
      "Международ": 6223,
      "ресур": 6224,
      "Aegean": 6225,
      "Cur": 6226,
      "Fort": 6227,
      "James": 6228,
      "My": 6229,
      "San": 6230,
      "Ze": 6231,
      "bell": 6232,
      "fut": 6233,
      "na": 6234,
      "pon": 6235,
      "pair": 6236,
      "Окт": 6237,
      "ЦК": 6238,
      "твёр": 6239,
      "ука": 6240,
      "поэтому": 6241,
      "лии": 6242,
      "ниже": 6243,
      "льп": 6244,
      "today": 6245,
      "towards": 6246,
      "лед": 6247,
      "мера": 6248,
      "проли": 6249,
      "обнару": 6250,
      "advan": 6251,
      "приходи": 6252,
      "condu": 6253,
      "концентра": 6254,
      "плат": 6255,
      "городского": 6256,
      "скульп": 6257,
      "средства": 6258,
      "государственный": 6259,
      "animal": 6260,
      "cerem": 6261,
      "регистри": 6262,
      "rule": 6263,
      "reading": 6264,
      "ique": 6265,
      "строительство": 6266,
      "наук": 6267,
      "Histor": 6268,
      "beginning": 6269,
      "микроско": 6270,
      "музыка": 6271,
      "стратеги": 6272,
      "Aster": 6273,
      "Bl": 6274,
      "Black": 6275,
      "Cam": 6276,
      "Lo": 6277,
      "eight": 6278,
      "game": 6279,
      "spread": 6280,
      "нало": 6281,
      "ention": 6282,
      "season": 6283,
      "whom": 6284,
      "travel": 6285,
      "osp": 6286,
      "индиви": 6287,
      "performed": 6288,
      "зопас": 6289,
      "print": 6290,
      "cannot": 6291,
      "commit": 6292,
      "Asian": 6293,
      "объё": 6294,
      "трам": 6295,
      "ционных": 6296,
      "станция": 6297,
      "ландии": 6298,
      "Greece": 6299,
      "solution": 6300,
      "humans": 6301,
      "последствии": 6302,
      "глубо": 6303,
      "соответствии": 6304,
      "primarily": 6305,
      "anarchism": 6306,
      "вариан": 6307,
      "Прави": 6308,
      "speakers": 6309,
      "находятся": 6310,
      "document": 6311,
      "likely": 6312,
      "Thomas": 6313,
      "sodium": 6314,
      "67": 6315,
      "AD": 6316,
      "Asp": 6317,
      "Hen": 6318,
      "Ot": 6319,
      "Spe": 6320,
      "Tele": 6321,
      "dou": 6322,
      "varian": 6323,
      "Эсто": 6324,
      "inte": 6325,
      "err": 6326,
      "рос": 6327,
      "кос": 6328,
      "гото": 6329,
      "речи": 6330,
      "поста": 6331,
      "ница": 6332,
      "isions": 6333,
      "ico": 6334,
      "мимо": 6335,
      "соли": 6336,
      "oul": 6337,
      "магни": 6338,
      "печа": 6339,
      "sex": 6340,
      "быстро": 6341,
      "vert": 6342,
      "преимуще": 6343,
      "ope": 6344,
      "antine": 6345,
      "Another": 6346,
      "meet": 6347,
      "prevent": 6348,
      "ходили": 6349,
      "гель": 6350,
      "здания": 6351,
      "русский": 6352,
      "правило": 6353,
      "regular": 6354,
      "standing": 6355,
      "транспорта": 6356,
      "материа": 6357,
      "раствори": 6358,
      "burg": 6359,
      "latter": 6360,
      "позволяет": 6361,
      "Британ": 6362,
      "business": 6363,
      "организаций": 6364,
      "private": 6365,
      "iformes": 6366,
      "1000": 6367,
      "Dr": 6368,
      "Mc": 6369,
      "Tex": 6370,
      "frequ": 6371,
      "frog": 6372,
      "might": 6373,
      "sam": 6374,
      "say": 6375,
      "сдела": 6376,
      "anatom": 6377,
      "reject": 6378,
      "atives": 6379,
      "рея": 6380,
      "решения": 6381,
      "пос": 6382,
      "меры": 6383,
      "приобре": 6384,
      "Their": 6385,
      "духов": 6386,
      "units": 6387,
      "мена": 6388,
      "тельная": 6389,
      "plants": 6390,
      "clud": 6391,
      "compar": 6392,
      "возра": 6393,
      "тический": 6394,
      "party": 6395,
      "ideas": 6396,
      "Attil": 6397,
      "политики": 6398,
      "литератур": 6399,
      "операции": 6400,
      "Paris": 6401,
      "models": 6402,
      "древне": 6403,
      "изменения": 6404,
      "observed": 6405,
      "killed": 6406,
      "friend": 6407,
      "policy": 6408,
      "Iran": 6409,
      "Nav": 6410,
      "Qu": 6411,
      "Sup": 6412,
      "bar": 6413,
      "diver": 6414,
      "gn": 6415,
      "pay": 6416,
      "uese": 6417,
      "Бар": 6418,
      "плу": 6419,
      "сбор": 6420,
      "ёв": 6421,
      "inary": 6422,
      "onic": 6423,
      "eds": 6424,
      "stars": 6425,
      "ises": 6426,
      "тол": 6427,
      "состоит": 6428,
      "лес": 6429,
      "лето": 6430,
      "макси": 6431,
      "demon": 6432,
      "iding": 6433,
      "превы": 6434,
      "жей": 6435,
      "estival": 6436,
      "поддержи": 6437,
      "зоне": 6438,
      "данных": 6439,
      "ционный": 6440,
      "другими": 6441,
      "moving": 6442,
      "определя": 6443,
      "возможно": 6444,
      "самым": 6445,
      "greater": 6446,
      "ASC": 6447,
      "Красной": 6448,
      "Прези": 6449,
      "ведены": 6450,
      "пяти": 6451,
      "сорб": 6452,
      "Techn": 6453,
      "arent": 6454,
      "David": 6455,
      "dialects": 6456,
      "Portuguese": 6457,
      "Attila": 6458,
      "CD": 6459,
      "Sm": 6460,
      "Ser": 6461,
      "aard": 6462,
      "gal": 6463,
      "wife": 6464,
      "См": 6465,
      "ква": 6466,
      "рю": 6467,
      "яр": 6468,
      "replaced": 6469,
      "попыт": 6470,
      "тогда": 6471,
      "сона": 6472,
      "соедини": 6473,
      "летия": 6474,
      "доступ": 6475,
      "дий": 6476,
      "lying": 6477,
      "сток": 6478,
      "ido": 6479,
      "mos": 6480,
      "prom": 6481,
      "менго": 6482,
      "ciences": 6483,
      "udd": 6484,
      "Artic": 6485,
      "forming": 6486,
      "первым": 6487,
      "Stud": 6488,
      "collect": 6489,
      "weight": 6490,
      "society": 6491,
      "full": 6492,
      "кроме": 6493,
      "Петра": 6494,
      "Объ": 6495,
      "князя": 6496,
      "окружа": 6497,
      "направления": 6498,
      "represented": 6499,
      "благодаря": 6500,
      "явления": 6501,
      "calcul": 6502,
      "involved": 6503,
      "Turkish": 6504,
      "компьютер": 6505,
      "discuss": 6506,
      "Chinese": 6507,
      "54": 6508,
      "But": 6509,
      "CE": 6510,
      "House": 6511,
      "Sun": 6512,
      "ging": 6513,
      "Вен": 6514,
      "Если": 6515,
      "РФ": 6516,
      "ас": 6517,
      "ртуаль": 6518,
      "укреп": 6519,
      "реша": 6520,
      "тет": 6521,
      "зад": 6522,
      "мани": 6523,
      "detail": 6524,
      "fornia": 6525,
      "2023": 6526,
      "abul": 6527,
      "opt": 6528,
      "ходы": 6529,
      "путь": 6530,
      "Arm": 6531,
      "цеп": 6532,
      "presence": 6533,
      "здание": 6534,
      "1984": 6535,
      "спорт": 6536,
      "appears": 6537,
      "Сиби": 6538,
      "систему": 6539,
      "expand": 6540,
      "Минск": 6541,
      "break": 6542,
      "зербай": 6543,
      "ynast": 6544,
      "мьер": 6545,
      "multiple": 6546,
      "ountains": 6547,
      "California": 6548,
      "87": 6549,
      "Kore": 6550,
      "NASA": 6551,
      "Гру": 6552,
      "Хи": 6553,
      "мён": 6554,
      "охра": 6555,
      "decre": 6556,
      "проект": 6557,
      "seven": 6558,
      "move": 6559,
      "жит": 6560,
      "earth": 6561,
      "earch": 6562,
      "перевод": 6563,
      "izing": 6564,
      "contem": 6565,
      "началось": 6566,
      "idea": 6567,
      "speech": 6568,
      "Afroasiatic": 6569,
      "Заменго": 6570,
      "ensus": 6571,
      "Нов": 6572,
      "крупные": 6573,
      "covered": 6574,
      "княже": 6575,
      "уровне": 6576,
      "require": 6577,
      "считается": 6578,
      "effective": 6579,
      "supported": 6580,
      "численности": 6581,
      "reflect": 6582,
      "Turkey": 6583,
      "contains": 6584,
      "Берлин": 6585,
      "компании": 6586,
      "дворец": 6587,
      "солдат": 6588,
      "Northern": 6589,
      "vowel": 6590,
      "Contin": 6591,
      "сеть": 6592,
      "conflict": 6593,
      "Aqu": 6594,
      "band": 6595,
      "cos": 6596,
      "don": 6597,
      "hic": 6598,
      "ias": 6599,
      "ns": 6600,
      "ny": 6601,
      "night": 6602,
      "nearly": 6603,
      "rise": 6604,
      "Мор": 6605,
      "гено": 6606,
      "сформирова": 6607,
      "цкого": 6608,
      "thous": 6609,
      "ense": 6610,
      "enough": 6611,
      "stop": 6612,
      "iles": 6613,
      "1916": 6614,
      "руются": 6615,
      "uls": 6616,
      "преступ": 6617,
      "жела": 6618,
      "тельным": 6619,
      "пиона": 6620,
      "конферен": 6621,
      "keep": 6622,
      "общество": 6623,
      "hypo": 6624,
      "ведений": 6625,
      "плоть": 6626,
      "worked": 6627,
      "совмест": 6628,
      "этим": 6629,
      "appell": 6630,
      "литература": 6631,
      "тонн": 6632,
      "Петроград": 6633,
      "mitted": 6634,
      "информации": 6635,
      "separate": 6636,
      "парламент": 6637,
      "ВВП": 6638,
      "Октябрь": 6639,
      "Agr": 6640,
      "Mary": 6641,
      "XII": 6642,
      "da": 6643,
      "mill": 6644,
      "Кор": 6645,
      "Эконо": 6646,
      "вступи": 6647,
      "пят": 6648,
      "ядер": 6649,
      "новый": 6650,
      "пото": 6651,
      "мигра": 6652,
      "закры": 6653,
      "ципа": 6654,
      "дор": 6655,
      "дере": 6656,
      "acqu": 6657,
      "моло": 6658,
      "прода": 6659,
      "инду": 6660,
      "acting": 6661,
      "ссиона": 6662,
      "началась": 6663,
      "whole": 6664,
      "Associ": 6665,
      "minor": 6666,
      "1975": 6667,
      "востоке": 6668,
      "частично": 6669,
      "writer": 6670,
      "respons": 6671,
      "Николай": 6672,
      "вопрос": 6673,
      "potassium": 6674,
      "капитали": 6675,
      "половине": 6676,
      "предприятия": 6677,
      "фикации": 6678,
      "Austroasiatic": 6679,
      "принадлежа": 6680,
      "situ": 6681,
      "Otto": 6682,
      "400": 6683,
      "cross": 6684,
      "happ": 6685,
      "бин": 6686,
      "нового": 6687,
      "rem": 6688,
      "наде": 6689,
      "alle": 6690,
      "маши": 6691,
      "chain": 6692,
      "сия": 6693,
      "сильно": 6694,
      "ume": 6695,
      "тым": 6696,
      "ateur": 6697,
      "places": 6698,
      "конкур": 6699,
      "подвер": 6700,
      "ultural": 6701,
      "complet": 6702,
      "тивных": 6703,
      "Constitution": 6704,
      "военные": 6705,
      "1923": 6706,
      "чено": 6707,
      "оружи": 6708,
      "conditions": 6709,
      "Великой": 6710,
      "равно": 6711,
      "самостоя": 6712,
      "1861": 6713,
      "ющиеся": 6714,
      "originally": 6715,
      "крови": 6716,
      "Spain": 6717,
      "Shah": 6718,
      "структуры": 6719,
      "temple": 6720,
      "соответству": 6721,
      "Royal": 6722,
      "церкви": 6723,
      "Byz": 6724,
      "People": 6725,
      "руководи": 6726,
      "функции": 6727,
      "имено": 6728,
      "properties": 6729,
      "мамонтов": 6730,
      "смерти": 6731,
      "гряз": 6732,
      "emphas": 6733,
      "Aspar": 6734,
      "demonstr": 6735,
      "Kar": 6736,
      "Rich": 6737,
      "psych": 6738,
      "Его": 6739,
      "ПК": 6740,
      "Фи": 6741,
      "сра": 6742,
      "asphalt": 6743,
      "кате": 6744,
      "нео": 6745,
      "вия": 6746,
      "выда": 6747,
      "отве": 6748,
      "agre": 6749,
      "био": 6750,
      "pring": 6751,
      "слож": 6752,
      "первую": 6753,
      "одна": 6754,
      "hys": 6755,
      "рье": 6756,
      "office": 6757,
      "большие": 6758,
      "Советской": 6759,
      "расположены": 6760,
      "status": 6761,
      "lingu": 6762,
      "planet": 6763,
      "западе": 6764,
      "амино": 6765,
      "training": 6766,
      "дополнитель": 6767,
      "amphibians": 6768,
      "разнообраз": 6769,
      "ASCII": 6770,
      "64": 6771,
      "Govern": 6772,
      "Ocean": 6773,
      "fell": 6774,
      "rated": 6775,
      "winter": 6776,
      "Кри": 6777,
      "зме": 6778,
      "зву": 6779,
      "указыва": 6780,
      "щена": 6781,
      "ancy": 6782,
      "stated": 6783,
      "asons": 6784,
      "дах": 6785,
      "сив": 6786,
      "deep": 6787,
      "forced": 6788,
      "курор": 6789,
      "exts": 6790,
      "plann": 6791,
      "Например": 6792,
      "тивные": 6793,
      "цам": 6794,
      "химия": 6795,
      "render": 6796,
      "charge": 6797,
      "Reg": 6798,
      "match": 6799,
      "круг": 6800,
      "adopted": 6801,
      "вынужден": 6802,
      "length": 6803,
      "88": 6804,
      "Ben": 6805,
      "Edu": 6806,
      "SI": 6807,
      "School": 6808,
      "Tenn": 6809,
      "museum": 6810,
      "nav": 6811,
      "paper": 6812,
      "rub": 6813,
      "МВ": 6814,
      "Они": 6815,
      "дней": 6816,
      "кса": 6817,
      "цвет": 6818,
      "ковой": 6819,
      "stor": 6820,
      "itor": 6821,
      "ложения": 6822,
      "сон": 6823,
      "привело": 6824,
      "istry": 6825,
      "числа": 6826,
      "хоро": 6827,
      "peace": 6828,
      "neigh": 6829,
      "compounds": 6830,
      "предполага": 6831,
      "box": 6832,
      "последу": 6833,
      "1964": 6834,
      "Коми": 6835,
      "границы": 6836,
      "ampion": 6837,
      "получил": 6838,
      "equip": 6839,
      "equival": 6840,
      "политика": 6841,
      "Этот": 6842,
      "должны": 6843,
      "осуществля": 6844,
      "salam": 6845,
      "отношений": 6846,
      "следствие": 6847,
      "крупнейших": 6848,
      "experience": 6849,
      "договор": 6850,
      "captured": 6851,
      "угле": 6852,
      "Virgin": 6853,
      "future": 6854,
      "AT": 6855,
      "Dis": 6856,
      "ДР": 6857,
      "ини": 6858,
      "шки": 6859,
      "thetic": 6860,
      "stable": 6861,
      "валь": 6862,
      "itect": 6863,
      "зарегистри": 6864,
      "чества": 6865,
      "bey": 6866,
      "forman": 6867,
      "грар": 6868,
      "инжен": 6869,
      "пунк": 6870,
      "Современ": 6871,
      "первая": 6872,
      "center": 6873,
      "Church": 6874,
      "земля": 6875,
      "ictions": 6876,
      "cycl": 6877,
      "distingu": 6878,
      "courts": 6879,
      "войсками": 6880,
      "decision": 6881,
      "точки": 6882,
      "получили": 6883,
      "кислота": 6884,
      "Angolan": 6885,
      "XVII": 6886,
      "науки": 6887,
      "critical": 6888,
      "Белоруссии": 6889,
      "фактически": 6890,
      "контроль": 6891,
      "branches": 6892,
      "previous": 6893,
      "magnitude": 6894,
      "лимпи": 6895,
      "defeated": 6896,
      "Asparag": 6897,
      "Bet": 6898,
      "Gulf": 6899,
      "Pal": 6900,
      "UN": 6901,
      "lithium": 6902,
      "mad": 6903,
      "ois": 6904,
      "taking": 6905,
      "Мно": 6906,
      "Она": 6907,
      "ато": 6908,
      "кто": 6909,
      "ющую": 6910,
      "стр": 6911,
      "univers": 6912,
      "пище": 6913,
      "строен": 6914,
      "pregn": 6915,
      "большая": 6916,
      "collection": 6917,
      "hero": 6918,
      "колон": 6919,
      "частей": 6920,
      "slaves": 6921,
      "annual": 6922,
      "государственного": 6923,
      "legisl": 6924,
      "below": 6925,
      "decided": 6926,
      "Таким": 6927,
      "литературы": 6928,
      "greatest": 6929,
      "religion": 6930,
      "Russia": 6931,
      "большое": 6932,
      "issue": 6933,
      "sense": 6934,
      "представляет": 6935,
      "свойства": 6936,
      "soldiers": 6937,
      "impact": 6938,
      "Company": 6939,
      "astronauts": 6940,
      "профессиона": 6941,
      "celebr": 6942,
      "библиоте": 6943,
      "execut": 6944,
      "Lu": 6945,
      "bum": 6946,
      "cu": 6947,
      "gian": 6948,
      "rid": 6949,
      "АТ": 6950,
      "сро": 6951,
      "хар": 6952,
      "чёр": 6953,
      "ковые": 6954,
      "камен": 6955,
      "сове": 6956,
      "созна": 6957,
      "неу": 6958,
      "лем": 6959,
      "завод": 6960,
      "меро": 6961,
      "еты": 6962,
      "отре": 6963,
      "преоблада": 6964,
      "extr": 6965,
      "новь": 6966,
      "новения": 6967,
      "activity": 6968,
      "shown": 6969,
      "первого": 6970,
      "тивной": 6971,
      "ranean": 6972,
      "парта": 6973,
      "1966": 6974,
      "1967": 6975,
      "minutes": 6976,
      "имели": 6977,
      "ционного": 6978,
      "министров": 6979,
      "feed": 6980,
      "рованные": 6981,
      "plays": 6982,
      "turned": 6983,
      "BCE": 6984,
      "caesium": 6985,
      "resulting": 6986,
      "marked": 6987,
      "values": 6988,
      "Confederacy": 6989,
      "Владивостока": 6990,
      "better": 6991,
      "именно": 6992,
      "strial": 6993,
      "female": 6994,
      "launched": 6995,
      "behind": 6996,
      "Кавказ": 6997,
      "Classical": 6998,
      "Group": 6999,
      "Athen": 7000,
      "Bor": 7001,
      "Fed": 7002,
      "Over": 7003,
      "games": 7004,
      "Пла": 7005,
      "Рей": 7006,
      "вся": 7007,
      "вёл": 7008,
      "вплоть": 7009,
      "емая": 7010,
      "угро": 7011,
      "япон": 7012,
      "onse": 7013,
      "космо": 7014,
      "назад": 7015,
      "already": 7016,
      "ликви": 7017,
      "лад": 7018,
      "enter": 7019,
      "agg": 7020,
      "resist": 7021,
      "true": 7022,
      "ested": 7023,
      "контин": 7024,
      "berg": 7025,
      "ённых": 7026,
      "coll": 7027,
      "парк": 7028,
      "план": 7029,
      "произведения": 7030,
      "provin": 7031,
      "которому": 7032,
      "трудо": 7033,
      "последние": 7034,
      "equal": 7035,
      "leaders": 7036,
      "response": 7037,
      "всю": 7038,
      "Because": 7039,
      "среды": 7040,
      "кажды": 7041,
      "Council": 7042,
      "Canadian": 7043,
      "dominant": 7044,
      "mouthwash": 7045,
      "Philip": 7046,
      "Mississ": 7047,
      "ippi": 7048,
      "оцени": 7049,
      "Human": 7050,
      "abacus": 7051,
      "Texas": 7052,
      "Articles": 7053,
      "Both": 7054,
      "Cr": 7055,
      "Sel": 7056,
      "aur": 7057,
      "border": 7058,
      "lif": 7059,
      "sens": 7060,
      "Дон": 7061,
      "опубли": 7062,
      "restr": 7063,
      "reaction": 7064,
      "stone": 7065,
      "islands": 7066,
      "скоро": 7067,
      "1900": 7068,
      "просто": 7069,
      "проходит": 7070,
      "секре": 7071,
      "изм": 7072,
      "aband": 7073,
      "чита": 7074,
      "estic": 7075,
      "plies": 7076,
      "quick": 7077,
      "басти": 7078,
      "подзем": 7079,
      "друг": 7080,
      "начально": 7081,
      "plement": 7082,
      "obtain": 7083,
      "tons": 7084,
      "services": 7085,
      "settle": 7086,
      "Andy": 7087,
      "iterranean": 7088,
      "вшийся": 7089,
      "possess": 7090,
      "миллиона": 7091,
      "community": 7092,
      "чув": 7093,
      "Лондона": 7094,
      "Mediterranean": 7095,
      "treatment": 7096,
      "шинство": 7097,
      "становится": 7098,
      "Украины": 7099,
      "электри": 7100,
      "финансо": 7101,
      "относятся": 7102,
      "Green": 7103,
      "торговли": 7104,
      "weeks": 7105,
      "Англии": 7106,
      "66": 7107,
      "AP": 7108,
      "Mal": 7109,
      "Mass": 7110,
      "VA": 7111,
      "bri": 7112,
      "cel": 7113,
      "cation": 7114,
      "hous": 7115,
      "jour": 7116,
      "vary": 7117,
      "Ев": 7118,
      "Же": 7119,
      "жного": 7120,
      "жды": 7121,
      "ум": 7122,
      "уси": 7123,
      "thr": 7124,
      "раза": 7125,
      "atures": 7126,
      "воде": 7127,
      "кад": 7128,
      "таким": 7129,
      "мед": 7130,
      "acade": 7131,
      "chief": 7132,
      "продоволь": 7133,
      "mob": 7134,
      "гами": 7135,
      "trial": 7136,
      "ствовать": 7137,
      "love": 7138,
      "performan": 7139,
      "бани": 7140,
      "portion": 7141,
      "женщи": 7142,
      "rict": 7143,
      "election": 7144,
      "класса": 7145,
      "1973": 7146,
      "Невы": 7147,
      "ski": 7148,
      "fully": 7149,
      "политических": 7150,
      "ieval": 7151,
      "экономического": 7152,
      "electric": 7153,
      "включает": 7154,
      "practice": 7155,
      "Nether": 7156,
      "муниципа": 7157,
      "губерна": 7158,
      "хроматографии": 7159,
      "устройства": 7160,
      "территориаль": 7161,
      "президент": 7162,
      "эксплу": 7163,
      "elescop": 7164,
      "прежде": 7165,
      "Scott": 7166,
      "victory": 7167,
      "amount": 7168,
      "наследия": 7169,
      "Catholic": 7170,
      "Continental": 7171,
      "Lou": 7172,
      "Library": 7173,
      "Old": 7174,
      "Osc": 7175,
      "Rom": 7176,
      "flow": 7177,
      "lived": 7178,
      "oe": 7179,
      "rig": 7180,
      "via": 7181,
      "wing": 7182,
      "zo": 7183,
      "аграр": 7184,
      "влов": 7185,
      "клет": 7186,
      "свет": 7187,
      "ентов": 7188,
      "ora": 7189,
      "линия": 7190,
      "тина": 7191,
      "тива": 7192,
      "загряз": 7193,
      "добы": 7194,
      "демон": 7195,
      "виртуаль": 7196,
      "olf": 7197,
      "chall": 7198,
      "urban": 7199,
      "приводи": 7200,
      "присут": 7201,
      "mod": 7202,
      "гражда": 7203,
      "которую": 7204,
      "grav": 7205,
      "corre": 7206,
      "основные": 7207,
      "называют": 7208,
      "argued": 7209,
      "Александро": 7210,
      "международных": 7211,
      "зависимости": 7212,
      "Center": 7213,
      "компания": 7214,
      "объектов": 7215,
      "potential": 7216,
      "искусства": 7217,
      "suffer": 7218,
      "reedom": 7219,
      "участие": 7220,
      "иностранных": 7221,
      "stream": 7222,
      "composed": 7223,
      "КПСС": 7224,
      "citiz": 7225,
      "долларов": 7226,
      "AA": 7227,
      "Budd": 7228,
      "Farm": 7229,
      "cas": 7230,
      "hund": 7231,
      "ka": 7232,
      "ram": 7233,
      "Вят": 7234,
      "Рим": 7235,
      "Ши": 7236,
      "Южной": 7237,
      "опас": 7238,
      "усили": 7239,
      "фы": 7240,
      "кост": 7241,
      "рид": 7242,
      "рица": 7243,
      "ката": 7244,
      "забо": 7245,
      "заяви": 7246,
      "сигна": 7247,
      "седатель": 7248,
      "igen": 7249,
      "ulations": 7250,
      "гани": 7251,
      "resources": 7252,
      "муж": 7253,
      "судо": 7254,
      "upper": 7255,
      "cred": 7256,
      "ference": 7257,
      "данные": 7258,
      "raham": 7259,
      "1983": 7260,
      "органы": 7261,
      "code": 7262,
      "1961": 7263,
      "1963": 7264,
      "1960s": 7265,
      "basis": 7266,
      "ционной": 7267,
      "wealth": 7268,
      "carried": 7269,
      "students": 7270,
      "signed": 7271,
      "inner": 7272,
      "современной": 7273,
      "фронт": 7274,
      "Grant": 7275,
      "growing": 7276,
      "designed": 7277,
      "учреждения": 7278,
      "technique": 7279,
      "earliest": 7280,
      "experiment": 7281,
      "makes": 7282,
      "комплекс": 7283,
      "Mississippi": 7284,
      "600": 7285,
      "Los": 7286,
      "Two": 7287,
      "native": 7288,
      "sac": 7289,
      "tes": 7290,
      "yet": 7291,
      "Кур": 7292,
      "Тер": 7293,
      "йских": 7294,
      "плен": 7295,
      "свиде": 7296,
      "нина": 7297,
      "доли": 7298,
      "acing": 7299,
      "oldest": 7300,
      "прово": 7301,
      "immedi": 7302,
      "премьер": 7303,
      "quality": 7304,
      "мым": 7305,
      "бачё": 7306,
      "notes": 7307,
      "compared": 7308,
      "одновременно": 7309,
      "всегда": 7310,
      "государством": 7311,
      "liament": 7312,
      "платы": 7313,
      "стандар": 7314,
      "drin": 7315,
      "1937": 7316,
      "революция": 7317,
      "социали": 7318,
      "simple": 7319,
      "множество": 7320,
      "asked": 7321,
      "высоко": 7322,
      "открыт": 7323,
      "opened": 7324,
      "лёг": 7325,
      "classical": 7326,
      "возможности": 7327,
      "главным": 7328,
      "England": 7329,
      "operations": 7330,
      "численность": 7331,
      "Констан": 7332,
      "явление": 7333,
      "historical": 7334,
      "levels": 7335,
      "белков": 7336,
      "vowels": 7337,
      "Бразилии": 7338,
      "фраг": 7339,
      "Вильнюс": 7340,
      "benef": 7341,
      "Armstrong": 7342,
      "Virginia": 7343,
      "Eth": 7344,
      "Life": 7345,
      "Milit": 7346,
      "burn": 7347,
      "pie": 7348,
      "you": 7349,
      "Двор": 7350,
      "Цар": 7351,
      "впоследствии": 7352,
      "гран": 7353,
      "нок": 7354,
      "рого": 7355,
      "коали": 7356,
      "enes": 7357,
      "iting": 7358,
      "кило": 7359,
      "тип": 7360,
      "бов": 7361,
      "приме": 7362,
      "promin": 7363,
      "trib": 7364,
      "безопас": 7365,
      "phen": 7366,
      "подчи": 7367,
      "elling": 7368,
      "Соедин": 7369,
      "Народ": 7370,
      "дене": 7371,
      "serve": 7372,
      "intel": 7373,
      "1982": 7374,
      "пласти": 7375,
      "русские": 7376,
      "basic": 7377,
      "1977": 7378,
      "1979": 7379,
      "location": 7380,
      "distance": 7381,
      "Proto": 7382,
      "1958": 7383,
      "собор": 7384,
      "longer": 7385,
      "Северного": 7386,
      "современных": 7387,
      "сельского": 7388,
      "отдельных": 7389,
      "немецких": 7390,
      "ficient": 7391,
      "definition": 7392,
      "щихся": 7393,
      "Book": 7394,
      "степени": 7395,
      "joined": 7396,
      "territories": 7397,
      "температура": 7398,
      "независимость": 7399,
      "сохраня": 7400,
      "scientific": 7401,
      "Ottoman": 7402,
      "Многие": 7403,
      "Bel": 7404,
      "Hom": 7405,
      "Mich": 7406,
      "Nap": 7407,
      "Sl": 7408,
      "Science": 7409,
      "daugh": 7410,
      "egg": 7411,
      "gar": 7412,
      "ij": 7413,
      "mes": 7414,
      "noun": 7415,
      "rival": 7416,
      "Мон": 7417,
      "нена": 7418,
      "хреб": 7419,
      "щении": 7420,
      "theore": 7421,
      "номор": 7422,
      "нар": 7423,
      "aspect": 7424,
      "мика": 7425,
      "дело": 7426,
      "меж": 7427,
      "apers": 7428,
      "therefore": 7429,
      "expected": 7430,
      "ряду": 7431,
      "artist": 7432,
      "арти": 7433,
      "phy": 7434,
      "денти": 7435,
      "syl": 7436,
      "близ": 7437,
      "действует": 7438,
      "образован": 7439,
      "scale": 7440,
      "1862": 7441,
      "address": 7442,
      "changed": 7443,
      "жизнь": 7444,
      "Germany": 7445,
      "atoms": 7446,
      "управление": 7447,
      "sequence": 7448,
      "императора": 7449,
      "Island": 7450,
      "активно": 7451,
      "defend": 7452,
      "property": 7453,
      "флот": 7454,
      "needed": 7455,
      "животных": 7456,
      "утвержда": 7457,
      "стойчи": 7458,
      "Despite": 7459,
      "полномо": 7460,
      "square": 7461,
      "knowledge": 7462,
      "игры": 7463,
      "периода": 7464,
      "экспери": 7465,
      "Норве": 7466,
      "Agric": 7467,
      "56": 7468,
      "Follow": 7469,
      "Mic": 7470,
      "Of": 7471,
      "Rel": 7472,
      "nel": 7473,
      "rates": 7474,
      "slow": 7475,
      "shel": 7476,
      "Стали": 7477,
      "Хо": 7478,
      "жно": 7479,
      "йские": 7480,
      "услу": 7481,
      "inated": 7482,
      "рождения": 7483,
      "album": 7484,
      "enic": 7485,
      "постанов": 7486,
      "воло": 7487,
      "anda": 7488,
      "вато": 7489,
      "roy": 7490,
      "соединя": 7491,
      "нета": 7492,
      "детей": 7493,
      "честь": 7494,
      "виру": 7495,
      "могли": 7496,
      "imal": 7497,
      "iff": 7498,
      "soil": 7499,
      "рованы": 7500,
      "izations": 7501,
      "циях": 7502,
      "тивная": 7503,
      "мян": 7504,
      "всем": 7505,
      "igned": 7506,
      "reng": 7507,
      "consum": 7508,
      "internal": 7509,
      "vey": 7510,
      "Second": 7511,
      "Китай": 7512,
      "surround": 7513,
      "Польше": 7514,
      "Первой": 7515,
      "системе": 7516,
      "resulted": 7517,
      "structures": 7518,
      "столицей": 7519,
      "достаточно": 7520,
      "иногда": 7521,
      "теории": 7522,
      "восстания": 7523,
      "официально": 7524,
      "десяти": 7525,
      "prior": 7526,
      "флота": 7527,
      "отношении": 7528,
      "Patri": 7529,
      "электрон": 7530,
      "behav": 7531,
      "failed": 7532,
      "Research": 7533,
      "munic": 7534,
      "consonants": 7535,
      "favor": 7536,
      "habit": 7537,
      "вдоль": 7538,
      "метрополитена": 7539,
      "Association": 7540,
      "катего": 7541,
      "Netherlands": 7542,
      "MS": 7543,
      "Mot": 7544,
      "Pac": 7545,
      "Str": 7546,
      "bra": 7547,
      "woman": 7548,
      "Бла": 7549,
      "Эта": 7550,
      "вместо": 7551,
      "дже": 7552,
      "ие": 7553,
      "мм": 7554,
      "reli": 7555,
      "reven": 7556,
      "ena": 7557,
      "выбора": 7558,
      "отличие": 7559,
      "ira": 7560,
      "artists": 7561,
      "que": 7562,
      "stra": 7563,
      "rick": 7564,
      "elected": 7565,
      "isms": 7566,
      "среднем": 7567,
      "граница": 7568,
      "varieties": 7569,
      "двину": 7570,
      "Петербурге": 7571,
      "получила": 7572,
      "количества": 7573,
      "Большинство": 7574,
      "офице": 7575,
      "radio": 7576,
      "железной": 7577,
      "deaths": 7578,
      "строительства": 7579,
      "столица": 7580,
      "особен": 7581,
      "восстание": 7582,
      "события": 7583,
      "прямо": 7584,
      "относительно": 7585,
      "воздуш": 7586,
      "успеш": 7587,
      "протяжении": 7588,
      "ежегод": 7589,
      "respectively": 7590,
      "ООН": 7591,
      "Zeus": 7592,
      "anatomy": 7593,
      "abandon": 7594,
      "Don": 7595,
      "Sim": 7596,
      "cinem": 7597,
      "fif": 7598,
      "ved": 7599,
      "wind": 7600,
      "КА": 7601,
      "КО": 7602,
      "Тре": 7603,
      "атом": 7604,
      "евич": 7605,
      "оказыва": 7606,
      "уро": 7607,
      "сово": 7608,
      "соль": 7609,
      "сопротив": 7610,
      "ческими": 7611,
      "виды": 7612,
      "1913": 7613,
      "дио": 7614,
      "селение": 7615,
      "idents": 7616,
      "осад": 7617,
      "explain": 7618,
      "ciation": 7619,
      "Нача": 7620,
      "Under": 7621,
      "poor": 7622,
      "architect": 7623,
      "правления": 7624,
      "regard": 7625,
      "vie": 7626,
      "metic": 7627,
      "средне": 7628,
      "structed": 7629,
      "presented": 7630,
      "двига": 7631,
      "мирал": 7632,
      "больших": 7633,
      "фото": 7634,
      "Города": 7635,
      "federal": 7636,
      "results": 7637,
      "немецкие": 7638,
      "containing": 7639,
      "событий": 7640,
      "появились": 7641,
      "recorded": 7642,
      "initially": 7643,
      "хроматография": 7644,
      "норма": 7645,
      "account": 7646,
      "efforts": 7647,
      "altruism": 7648,
      "integr": 7649,
      "68": 7650,
      "98": 7651,
      "Bir": 7652,
      "Er": 7653,
      "Ly": 7654,
      "Oly": 7655,
      "Pre": 7656,
      "Tal": 7657,
      "dre": 7658,
      "Улья": 7659,
      "внима": 7660,
      "гля": 7661,
      "утра": 7662,
      "употреб": 7663,
      "нос": 7664,
      "росла": 7665,
      "altern": 7666,
      "oral": 7667,
      "streng": 7668,
      "anders": 7669,
      "рию": 7670,
      "лаг": 7671,
      "тику": 7672,
      "semb": 7673,
      "conqu": 7674,
      "разо": 7675,
      "газа": 7676,
      "propos": 7677,
      "prove": 7678,
      "etc": 7679,
      "aint": 7680,
      "терро": 7681,
      "подня": 7682,
      "ishing": 7683,
      "Armen": 7684,
      "началь": 7685,
      "царя": 7686,
      "края": 7687,
      "ranked": 7688,
      "intended": 7689,
      "1946": 7690,
      "рьёз": 7691,
      "основы": 7692,
      "пользу": 7693,
      "районы": 7694,
      "worldwide": 7695,
      "Советского": 7696,
      "Lee": 7697,
      "decades": 7698,
      "ствовало": 7699,
      "нейших": 7700,
      "члены": 7701,
      "западной": 7702,
      "bodies": 7703,
      "процесс": 7704,
      "продолжи": 7705,
      "patent": 7706,
      "нюю": 7707,
      "использовать": 7708,
      "Святого": 7709,
      "suggested": 7710,
      "реальности": 7711,
      "summer": 7712,
      "Charles": 7713,
      "Italy": 7714,
      "activities": 7715,
      "постепенно": 7716,
      "мероприя": 7717,
      "Following": 7718,
      "77": 7719,
      "Cy": 7720,
      "Camp": 7721,
      "Di": 7722,
      "Rad": 7723,
      "cies": 7724,
      "gment": 7725,
      "jur": 7726,
      "site": 7727,
      "ya": 7728,
      "Ген": 7729,
      "Зе": 7730,
      "Крон": 7731,
      "Фу": 7732,
      "Цер": 7733,
      "Чёр": 7734,
      "ап": 7735,
      "пр": 7736,
      "тным": 7737,
      "шан": 7738,
      "ьер": 7739,
      "ino": 7740,
      "atter": 7741,
      "alter": 7742,
      "реке": 7743,
      "arrow": 7744,
      "льными": 7745,
      "рим": 7746,
      "далее": 7747,
      "циф": 7748,
      "1915": 7749,
      "usion": 7750,
      "мены": 7751,
      "akh": 7752,
      "страна": 7753,
      "ultim": 7754,
      "irect": 7755,
      "creation": 7756,
      "awards": 7757,
      "вшись": 7758,
      "орган": 7759,
      "Европа": 7760,
      "1972": 7761,
      "1976": 7762,
      "Религи": 7763,
      "slave": 7764,
      "народных": 7765,
      "дорога": 7766,
      "1938": 7767,
      "insula": 7768,
      "ствовала": 7769,
      "motor": 7770,
      "standards": 7771,
      "industrial": 7772,
      "Минске": 7773,
      "самый": 7774,
      "распространён": 7775,
      "green": 7776,
      "собственности": 7777,
      "Berber": 7778,
      "passed": 7779,
      "установлен": 7780,
      "Горбачё": 7781,
      "temperature": 7782,
      "philosophers": 7783,
      "четыре": 7784,
      "Импера": 7785,
      "appointed": 7786,
      "Navy": 7787,
      "hundred": 7788,
      "Bu": 7789,
      "Dev": 7790,
      "ael": 7791,
      "blood": 7792,
      "km": 7793,
      "money": 7794,
      "tor": 7795,
      "vill": 7796,
      "вновь": 7797,
      "иденти": 7798,
      "означа": 7799,
      "ссы": 7800,
      "управля": 7801,
      "чём": 7802,
      "новая": 7803,
      "река": 7804,
      "теат": 7805,
      "lege": 7806,
      "тивы": 7807,
      "титу": 7808,
      "доля": 7809,
      "вить": 7810,
      "depos": 7811,
      "amateur": 7812,
      "ctic": 7813,
      "приз": 7814,
      "отме": 7815,
      "aging": 7816,
      "agreed": 7817,
      "городом": 7818,
      "lie": 7819,
      "kept": 7820,
      "relations": 7821,
      "центре": 7822,
      "городских": 7823,
      "падения": 7824,
      "vehic": 7825,
      "condition": 7826,
      "равни": 7827,
      "1933": 7828,
      "стреми": 7829,
      "российской": 7830,
      "групп": 7831,
      "социони": 7832,
      "телевид": 7833,
      "экономической": 7834,
      "operation": 7835,
      "Algerian": 7836,
      "Republican": 7837,
      "gods": 7838,
      "вещание": 7839,
      "ворота": 7840,
      "оккупи": 7841,
      "фильм": 7842,
      "H2O": 7843,
      "dedicated": 7844,
      "Party": 7845,
      "превыша": 7846,
      "Pacific": 7847,
      "Olymp": 7848,
      "58": 7849,
      "59": 7850,
      "Ari": 7851,
      "Mong": 7852,
      "Sil": 7853,
      "Sub": 7854,
      "Ur": 7855,
      "fa": 7856,
      "mut": 7857,
      "Испо": 7858,
      "ясь": 7859,
      "ining": 7860,
      "стя": 7861,
      "роста": 7862,
      "поко": 7863,
      "поса": 7864,
      "лиц": 7865,
      "лизи": 7866,
      "лай": 7867,
      "мину": 7868,
      "заседа": 7869,
      "дово": 7870,
      "деля": 7871,
      "ili": 7872,
      "acter": 7873,
      "вирус": 7874,
      "дить": 7875,
      "section": 7876,
      "выпу": 7877,
      "серьёз": 7878,
      "construct": 7879,
      "оса": 7880,
      "movie": 7881,
      "сум": 7882,
      "сухо": 7883,
      "суды": 7884,
      "soon": 7885,
      "qual": 7886,
      "ears": 7887,
      "подвод": 7888,
      "Поз": 7889,
      "бух": 7890,
      "strate": 7891,
      "персона": 7892,
      "ibility": 7893,
      "liqu": 7894,
      "фести": 7895,
      "тропи": 7896,
      "служа": 7897,
      "населён": 7898,
      "finan": 7899,
      "1971": 7900,
      "medic": 7901,
      "1925": 7902,
      "1926": 7903,
      "1928": 7904,
      "марте": 7905,
      "Памят": 7906,
      "создании": 7907,
      "rapid": 7908,
      "continental": 7909,
      "версии": 7910,
      "Egyptians": 7911,
      "метод": 7912,
      "matter": 7913,
      "Геор": 7914,
      "проекту": 7915,
      "County": 7916,
      "combined": 7917,
      "источника": 7918,
      "проблемы": 7919,
      "devices": 7920,
      "произошло": 7921,
      "heavy": 7922,
      "помещи": 7923,
      "recognized": 7924,
      "astronomers": 7925,
      "broadcast": 7926,
      "позднее": 7927,
      "обита": 7928,
      "Америки": 7929,
      "Гражданской": 7930,
      "closely": 7931,
      "Казах": 7932,
      "упомина": 7933,
      "Отечественной": 7934,
      "Henry": 7935,
      "78": 7936,
      "AR": 7937,
      "BN": 7938,
      "Dan": 7939,
      "Fore": 7940,
      "Im": 7941,
      "Mem": 7942,
      "Ros": 7943,
      "ga": 7944,
      "telescop": 7945,
      "uge": 7946,
      "wa": 7947,
      "Ана": 7948,
      "Пор": 7949,
      "гвар": 7950,
      "джа": 7951,
      "лло": 7952,
      "чки": 7953,
      "шению": 7954,
      "thers": 7955,
      "рово": 7956,
      "рожда": 7957,
      "наци": 7958,
      "stell": 7959,
      "ols": 7960,
      "omb": 7961,
      "лянд": 7962,
      "себе": 7963,
      "часов": 7964,
      "conv": 7965,
      "abol": 7966,
      "рын": 7967,
      "мено": 7968,
      "люди": 7969,
      "akes": 7970,
      "Поло": 7971,
      "переход": 7972,
      "Вой": 7973,
      "preserv": 7974,
      "spent": 7975,
      "ландия": 7976,
      "армий": 7977,
      "1860": 7978,
      "Алексе": 7979,
      "Columb": 7980,
      "organization": 7981,
      "XVI": 7982,
      "используются": 7983,
      "Azerbaijani": 7984,
      "abortions": 7985,
      "communities": 7986,
      "Grand": 7987,
      "Albert": 7988,
      "Петрограде": 7989,
      "frame": 7990,
      "occurred": 7991,
      "Истори": 7992,
      "destroy": 7993,
      "половины": 7994,
      "ведена": 7995,
      "additional": 7996,
      "materials": 7997,
      "независимости": 7998,
      "энергии": 7999,
      "ographic": 8000,
      "accepted": 8001,
      "necessary": 8002,
      "Королев": 8003,
      "igenous": 8004,
      "Do": 8005,
      "Hell": 8006,
      "Jose": 8007,
      "Jobs": 8008,
      "Later": 8009,
      "Ob": 8010,
      "Red": 8011,
      "UK": 8012,
      "ao": 8013,
      "cam": 8014,
      "fill": 8015,
      "fred": 8016,
      "hot": 8017,
      "Смо": 8018,
      "ева": 8019,
      "зин": 8020,
      "чена": 8021,
      "школ": 8022,
      "onto": 8023,
      "aters": 8024,
      "наступа": 8025,
      "пове": 8026,
      "тисти": 8027,
      "defeat": 8028,
      "стаби": 8029,
      "lywood": 8030,
      "сереб": 8031,
      "присоедини": 8032,
      "ida": 8033,
      "idium": 8034,
      "agement": 8035,
      "подъ": 8036,
      "ровали": 8037,
      "noted": 8038,
      "compon": 8039,
      "tware": 8040,
      "форме": 8041,
      "работе": 8042,
      "serious": 8043,
      "1981": 8044,
      "consists": 8045,
      "finally": 8046,
      "1974": 8047,
      "1929": 8048,
      "создания": 8049,
      "создание": 8050,
      "самой": 8051,
      "Москву": 8052,
      "рованной": 8053,
      "studied": 8054,
      "дованием": 8055,
      "составляют": 8056,
      "directors": 8057,
      "тысячи": 8058,
      "структура": 8059,
      "leader": 8060,
      "соответственно": 8061,
      "laws": 8062,
      "обороны": 8063,
      "столицы": 8064,
      "позволи": 8065,
      "authority": 8066,
      "голосо": 8067,
      "micro": 8068,
      "сфере": 8069,
      "crops": 8070,
      "Тихого": 8071,
      "народов": 8072,
      "Paul": 8073,
      "Standard": 8074,
      "преимущественно": 8075,
      "Byzantine": 8076,
      "quickly": 8077,
      "ES": 8078,
      "Kent": 8079,
      "LA": 8080,
      "Mex": 8081,
      "Py": 8082,
      "Sat": 8083,
      "cand": 8084,
      "cular": 8085,
      "fire": 8086,
      "fiction": 8087,
      "rare": 8088,
      "sus": 8089,
      "wan": 8090,
      "Три": 8091,
      "Шве": 8092,
      "иони": 8093,
      "особо": 8094,
      "тю": 8095,
      "incorpor": 8096,
      "ald": 8097,
      "alchemical": 8098,
      "arms": 8099,
      "лить": 8100,
      "рина": 8101,
      "room": 8102,
      "минераль": 8103,
      "леса": 8104,
      "заме": 8105,
      "домо": 8106,
      "мами": 8107,
      "маха": 8108,
      "дирек": 8109,
      "обслужи": 8110,
      "ower": 8111,
      "agen": 8112,
      "шир": 8113,
      "судеб": 8114,
      "ests": 8115,
      "бед": 8116,
      "термин": 8117,
      "riage": 8118,
      "neut": 8119,
      "своим": 8120,
      "despite": 8121,
      "должен": 8122,
      "министер": 8123,
      "равен": 8124,
      "Angeles": 8125,
      "belong": 8126,
      "1863": 8127,
      "большим": 8128,
      "Leg": 8129,
      "cript": 8130,
      "remaining": 8131,
      "штаба": 8132,
      "refers": 8133,
      "Минска": 8134,
      "Гитле": 8135,
      "октябре": 8136,
      "physic": 8137,
      "средо": 8138,
      "представителей": 8139,
      "Средизем": 8140,
      "Республика": 8141,
      "вшейся": 8142,
      "completed": 8143,
      "colonial": 8144,
      "Михаил": 8145,
      "регулирова": 8146,
      "measure": 8147,
      "Временного": 8148,
      "previously": 8149,
      "Austral": 8150,
      "Aquari": 8151,
      "beyond": 8152,
      "intellect": 8153,
      "120": 8154,
      "57": 8155,
      "Bak": 8156,
      "Sal": 8157,
      "Sever": 8158,
      "haps": 8159,
      "mur": 8160,
      "mort": 8161,
      "ni": 8162,
      "nes": 8163,
      "spl": 8164,
      "salt": 8165,
      "zy": 8166,
      "Здесь": 8167,
      "НАТ": 8168,
      "Эль": 8169,
      "охва": 8170,
      "тная": 8171,
      "тков": 8172,
      "расти": 8173,
      "роли": 8174,
      "роман": 8175,
      "reasons": 8176,
      "госпо": 8177,
      "потери": 8178,
      "isd": 8179,
      "товой": 8180,
      "кис": 8181,
      "дали": 8182,
      "дания": 8183,
      "мата": 8184,
      "силу": 8185,
      "думы": 8186,
      "unit": 8187,
      "modif": 8188,
      "promo": 8189,
      "судов": 8190,
      "Intern": 8191,
      "plom": 8192,
      "интен": 8193,
      "следова": 8194,
      "бус": 8195,
      "перь": 8196,
      "предме": 8197,
      "возника": 8198,
      "Россию": 8199,
      "ferred": 8200,
      "рья": 8201,
      "ционно": 8202,
      "bring": 8203,
      "curity": 8204,
      "советского": 8205,
      "whereas": 8206,
      "дорог": 8207,
      "White": 8208,
      "мирного": 8209,
      "социальные": 8210,
      "Organ": 8211,
      "classification": 8212,
      "azine": 8213,
      "Волги": 8214,
      "Государственной": 8215,
      "Василь": 8216,
      "Add": 8217,
      "shows": 8218,
      "научных": 8219,
      "Берлина": 8220,
      "продукции": 8221,
      "смеси": 8222,
      "династи": 8223,
      "anarchist": 8224,
      "Основные": 8225,
      "declared": 8226,
      "кораб": 8227,
      "протяжён": 8228,
      "Верховного": 8229,
      "характеристи": 8230,
      "церковь": 8231,
      "fighting": 8232,
      "релье": 8233,
      "ceremony": 8234,
      "окружающей": 8235,
      "appellate": 8236,
      "equipment": 8237,
      "инициа": 8238,
      "brief": 8239,
      "Дворцо": 8240,
      "НАТО": 8241,
      "53": 8242,
      "92": 8243,
      "Fre": 8244,
      "Ha": 8245,
      "Mos": 8246,
      "OS": 8247,
      "Sto": 8248,
      "core": 8249,
      "date": 8250,
      "fast": 8251,
      "giving": 8252,
      "oids": 8253,
      "pH": 8254,
      "texts": 8255,
      "Азербай": 8256,
      "МИ": 8257,
      "Олимпи": 8258,
      "Чи": 8259,
      "ллей": 8260,
      "рёх": 8261,
      "хле": 8262,
      "щены": 8263,
      "эпи": 8264,
      "элю": 8265,
      "threat": 8266,
      "стской": 8267,
      "нас": 8268,
      "aling": 8269,
      "ницы": 8270,
      "кину": 8271,
      "содержи": 8272,
      "типов": 8273,
      "entered": 8274,
      "дови": 8275,
      "hex": 8276,
      "chor": 8277,
      "semi": 8278,
      "вызыва": 8279,
      "iminal": 8280,
      "присоедин": 8281,
      "constit": 8282,
      "ows": 8283,
      "proced": 8284,
      "applied": 8285,
      "суда": 8286,
      "ayed": 8287,
      "Alfred": 8288,
      "верхов": 8289,
      "баш": 8290,
      "биологи": 8291,
      "первое": 8292,
      "poll": 8293,
      "poly": 8294,
      "partment": 8295,
      "студен": 8296,
      "liber": 8297,
      "органов": 8298,
      "myth": 8299,
      "cru": 8300,
      "icture": 8301,
      "airs": 8302,
      "bridge": 8303,
      "Великого": 8304,
      "распоря": 8305,
      "Ниж": 8306,
      "ступления": 8307,
      "российских": 8308,
      "техники": 8309,
      "Greeks": 8310,
      "ucky": 8311,
      "берг": 8312,
      "Первая": 8313,
      "чемпиона": 8314,
      "разделя": 8315,
      "elections": 8316,
      "drop": 8317,
      "декабре": 8318,
      "division": 8319,
      "концеп": 8320,
      "следует": 8321,
      "балтий": 8322,
      "позиции": 8323,
      "Центральной": 8324,
      "Turkic": 8325,
      "Georg": 8326,
      "регуляр": 8327,
      "Delph": 8328,
      "attribut": 8329,
      "станавли": 8330,
      "ISBN": 8331,
      "сооружения": 8332,
      "System": 8333,
      "Notes": 8334,
      "влека": 8335,
      "Министер": 8336,
      "Supreme": 8337,
      "ynasty": 8338,
      "деревян": 8339,
      "jurisd": 8340,
      "Hindu": 8341,
      "Po": 8342,
      "Pop": 8343,
      "bul": 8344,
      "cis": 8345,
      "ville": 8346,
      "wanted": 8347,
      "Дан": 8348,
      "Сей": 8349,
      "кров": 8350,
      "лга": 8351,
      "нда": 8352,
      "хро": 8353,
      "хан": 8354,
      "юге": 8355,
      "раб": 8356,
      "говор": 8357,
      "stood": 8358,
      "референ": 8359,
      "потер": 8360,
      "воин": 8361,
      "вами": 8362,
      "мог": 8363,
      "боро": 8364,
      "image": 8365,
      "стиле": 8366,
      "дума": 8367,
      "предо": 8368,
      "proceed": 8369,
      "рядом": 8370,
      "беспо": 8371,
      "ange": 8372,
      "сложи": 8373,
      "персид": 8374,
      "циями": 8375,
      "работан": 8376,
      "owned": 8377,
      "1948": 8378,
      "1949": 8379,
      "1980s": 8380,
      "ведении": 8381,
      "1965": 8382,
      "объём": 8383,
      "территорий": 8384,
      "резко": 8385,
      "правительством": 8386,
      "элементов": 8387,
      "animated": 8388,
      "1957": 8389,
      "examples": 8390,
      "continue": 8391,
      "позже": 8392,
      "brother": 8393,
      "secondary": 8394,
      "современного": 8395,
      "смотр": 8396,
      "двумя": 8397,
      "Frank": 8398,
      "процесса": 8399,
      "oxy": 8400,
      "Буд": 8401,
      "монархи": 8402,
      "интернет": 8403,
      "ethnic": 8404,
      "исследователь": 8405,
      "капиту": 8406,
      "Polit": 8407,
      "улицы": 8408,
      "назнача": 8409,
      "reduced": 8410,
      "помощь": 8411,
      "исполнитель": 8412,
      "компьюте": 8413,
      "бюро": 8414,
      "учили": 8415,
      "севере": 8416,
      "дисци": 8417,
      "possibly": 8418,
      "трамвай": 8419,
      "Military": 8420,
      "Napole": 8421,
      "Columbia": 8422,
      "Several": 8423,
      "Age": 8424,
      "Bi": 8425,
      "Cer": 8426,
      "Chad": 8427,
      "Found": 8428,
      "Mu": 8429,
      "Southeast": 8430,
      "XIII": 8431,
      "dog": 8432,
      "done": 8433,
      "fields": 8434,
      "pp": 8435,
      "pig": 8436,
      "ria": 8437,
      "Вос": 8438,
      "Гене": 8439,
      "Дей": 8440,
      "Фев": 8441,
      "бре": 8442,
      "рт": 8443,
      "свер": 8444,
      "установи": 8445,
      "устанавли": 8446,
      "theless": 8447,
      "ona": 8448,
      "ening": 8449,
      "гон": 8450,
      "orb": 8451,
      "поляр": 8452,
      "asp": 8453,
      "совета": 8454,
      "собира": 8455,
      "леги": 8456,
      "скохозяй": 8457,
      "дож": 8458,
      "older": 8459,
      "проведения": 8460,
      "обмен": 8461,
      "becoming": 8462,
      "избе": 8463,
      "conquest": 8464,
      "ables": 8465,
      "гах": 8466,
      "гале": 8467,
      "umin": 8468,
      "compr": 8469,
      "ровая": 8470,
      "ровано": 8471,
      "зий": 8472,
      "возвы": 8473,
      "presents": 8474,
      "стояние": 8475,
      "landing": 8476,
      "Кол": 8477,
      "веках": 8478,
      "окси": 8479,
      "visual": 8480,
      "Нидер": 8481,
      "1956": 8482,
      "говори": 8483,
      "направлен": 8484,
      "работки": 8485,
      "оборот": 8486,
      "Литва": 8487,
      "Владивостоке": 8488,
      "Carol": 8489,
      "pattern": 8490,
      "occurs": 8491,
      "солют": 8492,
      "rules": 8493,
      "initial": 8494,
      "руководством": 8495,
      "offered": 8496,
      "focus": 8497,
      "honor": 8498,
      "spirit": 8499,
      "determined": 8500,
      "forests": 8501,
      "distribution": 8502,
      "эффектив": 8503,
      "Valley": 8504,
      "rejected": 8505,
      "contemporary": 8506,
      "completely": 8507,
      "correct": 8508,
      "municip": 8509,
      "91": 8510,
      "Land": 8511,
      "Mob": 8512,
      "ii": 8513,
      "rical": 8514,
      "sper": 8515,
      "ГУ": 8516,
      "Шот": 8517,
      "звание": 8518,
      "лла": 8519,
      "очи": 8520,
      "ожи": 8521,
      "сной": 8522,
      "упразд": 8523,
      "income": 8524,
      "ont": 8525,
      "новое": 8526,
      "гой": 8527,
      "essee": 8528,
      "told": 8529,
      "соби": 8530,
      "вида": 8531,
      "amed": 8532,
      "seem": 8533,
      "aded": 8534,
      "proof": 8535,
      "архе": 8536,
      "банк": 8537,
      "ровал": 8538,
      "illu": 8539,
      "shot": 8540,
      "shared": 8541,
      "elled": 8542,
      "перево": 8543,
      "Российская": 8544,
      "ссив": 8545,
      "друга": 8546,
      "большей": 8547,
      "disci": 8548,
      "федера": 8549,
      "subst": 8550,
      "организ": 8551,
      "восточной": 8552,
      "средств": 8553,
      "Бела": 8554,
      "временем": 8555,
      "write": 8556,
      "социологии": 8557,
      "1955": 8558,
      "ствовал": 8559,
      "нейшие": 8560,
      "Александров": 8561,
      "Государственный": 8562,
      "январе": 8563,
      "направлении": 8564,
      "республик": 8565,
      "распространение": 8566,
      "Peter": 8567,
      "участников": 8568,
      "использования": 8569,
      "назначен": 8570,
      "собрания": 8571,
      "appearance": 8572,
      "stead": 8573,
      "комитет": 8574,
      "symbols": 8575,
      "Italian": 8576,
      "philosophical": 8577,
      "Hollywood": 8578,
      "побережье": 8579,
      "professional": 8580,
      "mathematics": 8581,
      "индивиду": 8582,
      "aardv": 8583,
      "Korean": 8584,
      "Tennessee": 8585,
      "daughter": 8586,
      "господ": 8587,
      "800": 8588,
      "DP": 8589,
      "Econom": 8590,
      "Mountains": 8591,
      "Rev": 8592,
      "Sol": 8593,
      "aes": 8594,
      "fit": 8595,
      "fle": 8596,
      "fil": 8597,
      "gives": 8598,
      "nine": 8599,
      "voc": 8600,
      "Авто": 8601,
      "Ман": 8602,
      "Мак": 8603,
      "Пру": 8604,
      "РК": 8605,
      "Хар": 8606,
      "ЮН": 8607,
      "гри": 8608,
      "иско": 8609,
      "убе": 8610,
      "эм": 8611,
      "inj": 8612,
      "retain": 8613,
      "покры": 8614,
      "вошли": 8615,
      "такой": 8616,
      "домини": 8617,
      "метр": 8618,
      "implement": 8619,
      "igation": 8620,
      "тельную": 8621,
      "Aries": 8622,
      "ellig": 8623,
      "notable": 8624,
      "председа": 8625,
      "contro": 8626,
      "content": 8627,
      "Воен": 8628,
      "нейро": 8629,
      "крае": 8630,
      "Star": 8631,
      "редко": 8632,
      "работу": 8633,
      "color": 8634,
      "producing": 8635,
      "русском": 8636,
      "ждении": 8637,
      "Некоторые": 8638,
      "языков": 8639,
      "1936": 8640,
      "районов": 8641,
      "Послед": 8642,
      "разделения": 8643,
      "называется": 8644,
      "fourth": 8645,
      "национальных": 8646,
      "Арм": 8647,
      "controlled": 8648,
      "используют": 8649,
      "радика": 8650,
      "diplom": 8651,
      "arrang": 8652,
      "общин": 8653,
      "случаях": 8654,
      "Выс": 8655,
      "Литве": 8656,
      "кампа": 8657,
      "представители": 8658,
      "джан": 8659,
      "multi": 8660,
      "Новороссийска": 8661,
      "окончательно": 8662,
      "principle": 8663,
      "лодё": 8664,
      "protect": 8665,
      "объявлен": 8666,
      "Бразилия": 8667,
      "Гильгамеш": 8668,
      "аэропор": 8669,
      "pronun": 8670,
      "Иоан": 8671,
      "кварти": 8672,
      "эксплуата": 8673,
      "артилле": 8674,
      "Kentucky": 8675,
      "52": 8676,
      "700": 8677,
      "Dig": 8678,
      "Hel": 8679,
      "IX": 8680,
      "OVA": 8681,
      "Wil": 8682,
      "Water": 8683,
      "big": 8684,
      "cou": 8685,
      "hun": 8686,
      "mountain": 8687,
      "nd": 8688,
      "pun": 8689,
      "rian": 8690,
      "race": 8691,
      "sales": 8692,
      "Фор": 8693,
      "Це": 8694,
      "чности": 8695,
      "чность": 8696,
      "щено": 8697,
      "стры": 8698,
      "reve": 8699,
      "гости": 8700,
      "резо": 8701,
      "посвя": 8702,
      "либе": 8703,
      "ниж": 8704,
      "мае": 8705,
      "sector": 8706,
      "improv": 8707,
      "семей": 8708,
      "отда": 8709,
      "отрица": 8710,
      "opposed": 8711,
      "хом": 8712,
      "reserv": 8713,
      "пин": 8714,
      "cium": 8715,
      "phal": 8716,
      "phere": 8717,
      "слово": 8718,
      "коммер": 8719,
      "fertil": 8720,
      "большую": 8721,
      "геро": 8722,
      "poet": 8723,
      "центри": 8724,
      "ционная": 8725,
      "положения": 8726,
      "представления": 8727,
      "существуют": 8728,
      "1935": 8729,
      "linois": 8730,
      "aik": 8731,
      "государственные": 8732,
      "морских": 8733,
      "1954": 8734,
      "транс": 8735,
      "Orwell": 8736,
      "Первый": 8737,
      "политические": 8738,
      "powers": 8739,
      "powered": 8740,
      "organized": 8741,
      "штад": 8742,
      "методы": 8743,
      "республика": 8744,
      "olved": 8745,
      "следующие": 8746,
      "Books": 8747,
      "генерала": 8748,
      "проекта": 8749,
      "относится": 8750,
      "борьбы": 8751,
      "середины": 8752,
      "ограничен": 8753,
      "Михаи": 8754,
      "внутренних": 8755,
      "Австра": 8756,
      "figure": 8757,
      "cells": 8758,
      "moral": 8759,
      "eyes": 8760,
      "Верховный": 8761,
      "выполня": 8762,
      "найден": 8763,
      "quarter": 8764,
      "dynam": 8765,
      "Illinois": 8766,
      "католи": 8767,
      "Сибири": 8768,
      "полномочи": 8769,
      "abandoned": 8770,
      "интенсив": 8771,
      "Napoleon": 8772,
      "Нидерлан": 8773,
      "51": 8774,
      "63": 8775,
      "Bro": 8776,
      "Bay": 8777,
      "Bra": 8778,
      "Dur": 8779,
      "Gold": 8780,
      "Time": 8781,
      "cust": 8782,
      "dry": 8783,
      "fel": 8784,
      "iber": 8785,
      "ients": 8786,
      "sun": 8787,
      "Дне": 8788,
      "Пя": 8789,
      "Эле": 8790,
      "одо": 8791,
      "опро": 8792,
      "украин": 8793,
      "устойчи": 8794,
      "чению": 8795,
      "эль": 8796,
      "енью": 8797,
      "пока": 8798,
      "пожа": 8799,
      "льти": 8800,
      "варя": 8801,
      "леко": 8802,
      "зацию": 8803,
      "дефици": 8804,
      "москов": 8805,
      "проходи": 8806,
      "обсу": 8807,
      "измер": 8808,
      "ulate": 8809,
      "agon": 8810,
      "proto": 8811,
      "avoid": 8812,
      "suit": 8813,
      "astic": 8814,
      "duction": 8815,
      "фикси": 8816,
      "ённые": 8817,
      "вшими": 8818,
      "землю": 8819,
      "военный": 8820,
      "1927": 8821,
      "польской": 8822,
      "1904": 8823,
      "extrem": 8824,
      "стые": 8825,
      "июле": 8826,
      "identified": 8827,
      "определения": 8828,
      "solar": 8829,
      "атмо": 8830,
      "factors": 8831,
      "causes": 8832,
      "сельскохозяй": 8833,
      "going": 8834,
      "рейтин": 8835,
      "pression": 8836,
      "philosopher": 8837,
      "allows": 8838,
      "officially": 8839,
      "эсперанти": 8840,
      "химических": 8841,
      "использование": 8842,
      "блока": 8843,
      "защиты": 8844,
      "медицин": 8845,
      "scientists": 8846,
      "сравнению": 8847,
      "поверхности": 8848,
      "ЕСКО": 8849,
      "побережья": 8850,
      "психо": 8851,
      "Социалисти": 8852,
      "сотрудниче": 8853,
      "столк": 8854,
      "футбо": 8855,
      "гимна": 8856,
      "конференции": 8857,
      "equivalent": 8858,
      "performance": 8859,
      "свидетель": 8860,
      "Joseph": 8861,
      "Internet": 8862,
      "ЮНЕСКО": 8863,
      "Cush": 8864,
      "Hor": 8865,
      "OH": 8866,
      "Plat": 8867,
      "Sur": 8868,
      "Sum": 8869,
      "ZF": 8870,
      "aer": 8871,
      "fran": 8872,
      "ken": 8873,
      "ocean": 8874,
      "uters": 8875,
      "Фа": 8876,
      "Ша": 8877,
      "исти": 8878,
      "things": 8879,
      "inf": 8880,
      "стен": 8881,
      "thet": 8882,
      "гори": 8883,
      "воду": 8884,
      "вокруг": 8885,
      "льном": 8886,
      "мигран": 8887,
      "нера": 8888,
      "типо": 8889,
      "ционе": 8890,
      "доби": 8891,
      "метри": 8892,
      "выбор": 8893,
      "constructed": 8894,
      "tery": 8895,
      "чинов": 8896,
      "uted": 8897,
      "ains": 8898,
      "писко": 8899,
      "ниях": 8900,
      "щим": 8901,
      "tee": 8902,
      "англо": 8903,
      "centre": 8904,
      "щается": 8905,
      "award": 8906,
      "данный": 8907,
      "genetic": 8908,
      "Примор": 8909,
      "ologies": 8910,
      "троллей": 8911,
      "cession": 8912,
      "пределах": 8913,
      "medieval": 8914,
      "среднего": 8915,
      "carry": 8916,
      "крупней": 8917,
      "социального": 8918,
      "историю": 8919,
      "религия": 8920,
      "тяжё": 8921,
      "increases": 8922,
      "apparent": 8923,
      "методов": 8924,
      "Петропа": 8925,
      "significantly": 8926,
      "пять": 8927,
      "Music": 8928,
      "ограничи": 8929,
      "device": 8930,
      "режим": 8931,
      "Японии": 8932,
      "корпуса": 8933,
      "application": 8934,
      "дальнейшем": 8935,
      "Латвии": 8936,
      "механи": 8937,
      "Финляндии": 8938,
      "disease": 8939,
      "максима": 8940,
      "индустри": 8941,
      "planned": 8942,
      "Asparagales": 8943,
      "безопасности": 8944,
      "аппара": 8945,
      "Февраль": 8946,
      "AC": 8947,
      "Lev": 8948,
      "Saf": 8949,
      "mir": 8950,
      "ores": 8951,
      "sn": 8952,
      "Ры": 8953,
      "входят": 8954,
      "иль": 8955,
      "лка": 8956,
      "лени": 8957,
      "тности": 8958,
      "чными": 8959,
      "эту": 8960,
      "ani": 8961,
      "кот": 8962,
      "edy": 8963,
      "org": 8964,
      "orph": 8965,
      "icts": 8966,
      "itt": 8967,
      "сосредо": 8968,
      "лежит": 8969,
      "виду": 8970,
      "1910": 8971,
      "1912": 8972,
      "elop": 8973,
      "модели": 8974,
      "молодё": 8975,
      "ada": 8976,
      "превос": 8977,
      "erson": 8978,
      "progress": 8979,
      "тыми": 8980,
      "мый": 8981,
      "конкре": 8982,
      "рована": 8983,
      "shire": 8984,
      "neur": 8985,
      "meant": 8986,
      "близи": 8987,
      "жено": 8988,
      "gency": 8989,
      "speaking": 8990,
      "населением": 8991,
      "Несмотря": 8992,
      "slight": 8993,
      "bank": 8994,
      "создана": 8995,
      "созданы": 8996,
      "ahar": 8997,
      "skin": 8998,
      "Русь": 8999,
      "course": 9000,
      "местных": 9001,
      "ordered": 9002,
      "argument": 9003,
      "площад": 9004,
      "Куль": 9005,
      "происходи": 9006,
      "операция": 9007,
      "командованием": 9008,
      "королев": 9009,
      "условия": 9010,
      "1990s": 9011,
      "научно": 9012,
      "архитектур": 9013,
      "продуктов": 9014,
      "грузо": 9015,
      "claims": 9016,
      "Лондоне": 9017,
      "список": 9018,
      "капита": 9019,
      "канал": 9020,
      "Allah": 9021,
      "учреждений": 9022,
      "вшаяся": 9023,
      "Московский": 9024,
      "существования": 9025,
      "нефте": 9026,
      "Swed": 9027,
      "письмен": 9028,
      "electrons": 9029,
      "постоянно": 9030,
      "aught": 9031,
      "убий": 9032,
      "барди": 9033,
      "потеря": 9034,
      "mixed": 9035,
      "Интернет": 9036,
      "article": 9037,
      "конфлик": 9038,
      "revolution": 9039,
      "Languages": 9040,
      "advanced": 9041,
      "expanded": 9042,
      "каждый": 9043,
      "challeng": 9044,
      "immediately": 9045,
      "совокуп": 9046,
      "Петропавлов": 9047,
      "250": 9048,
      "74": 9049,
      "Bas": 9050,
      "Eu": 9051,
      "Festival": 9052,
      "How": 9053,
      "Jul": 9054,
      "Ox": 9055,
      "Ver": 9056,
      "ls": 9057,
      "spring": 9058,
      "День": 9059,
      "Хот": 9060,
      "гс": 9061,
      "нений": 9062,
      "цена": 9063,
      "чений": 9064,
      "шка": 9065,
      "эволю": 9066,
      "inations": 9067,
      "роз": 9068,
      "кости": 9069,
      "комен": 9070,
      "набере": 9071,
      "aled": 9072,
      "реформа": 9073,
      "нико": 9074,
      "чета": 9075,
      "пет": 9076,
      "обнов": 9077,
      "статисти": 9078,
      "images": 9079,
      "forward": 9080,
      "verte": 9081,
      "ходом": 9082,
      "Indo": 9083,
      "сказыва": 9084,
      "граф": 9085,
      "osis": 9086,
      "aste": 9087,
      "ственную": 9088,
      "Aldrin": 9089,
      "путей": 9090,
      "perform": 9091,
      "поддержа": 9092,
      "Arth": 9093,
      "времён": 9094,
      "ector": 9095,
      "creating": 9096,
      "contact": 9097,
      "началу": 9098,
      "лым": 9099,
      "Кана": 9100,
      "1947": 9101,
      "regarded": 9102,
      "substant": 9103,
      "160": 9104,
      "другим": 9105,
      "1908": 9106,
      "vised": 9107,
      "спорта": 9108,
      "писал": 9109,
      "стых": 9110,
      "самого": 9111,
      "Румы": 9112,
      "емости": 9113,
      "промышленность": 9114,
      "генераль": 9115,
      "признан": 9116,
      "allowing": 9117,
      "оборонитель": 9118,
      "telephone": 9119,
      "должна": 9120,
      "Красная": 9121,
      "functions": 9122,
      "университета": 9123,
      "purpose": 9124,
      "крепость": 9125,
      "губернии": 9126,
      "existence": 9127,
      "takes": 9128,
      "собрание": 9129,
      "поражение": 9130,
      "Балтийского": 9131,
      "ifying": 9132,
      "exception": 9133,
      "европейских": 9134,
      "temperatures": 9135,
      "photograph": 9136,
      "paint": 9137,
      "коммунисти": 9138,
      "районах": 9139,
      "institutions": 9140,
      "Richard": 9141,
      "neighb": 9142,
      "Желез": 9143,
      "Michael": 9144,
      "Император": 9145,
      "oxygen": 9146,
      "Dou": 9147,
      "Fl": 9148,
      "Ir": 9149,
      "Kabul": 9150,
      "NA": 9151,
      "Nations": 9152,
      "Post": 9153,
      "Ty": 9154,
      "Tri": 9155,
      "here": 9156,
      "mology": 9157,
      "Офи": 9158,
      "Осно": 9159,
      "СП": 9160,
      "Уни": 9161,
      "входит": 9162,
      "жо": 9163,
      "нё": 9164,
      "ощ": 9165,
      "рение": 9166,
      "света": 9167,
      "снаб": 9168,
      "thor": 9169,
      "нокоманду": 9170,
      "кость": 9171,
      "льную": 9172,
      "ваний": 9173,
      "toward": 9174,
      "лог": 9175,
      "robot": 9176,
      "дак": 9177,
      "leep": 9178,
      "нец": 9179,
      "замет": 9180,
      "закреп": 9181,
      "досто": 9182,
      "доров": 9183,
      "acity": 9184,
      "май": 9185,
      "модер": 9186,
      "старей": 9187,
      "выдели": 9188,
      "сед": 9189,
      "cts": 9190,
      "привели": 9191,
      "измени": 9192,
      "орден": 9193,
      "peror": 9194,
      "perhaps": 9195,
      "переписи": 9196,
      "страи": 9197,
      "жай": 9198,
      "izes": 9199,
      "Население": 9200,
      "awarded": 9201,
      "своём": 9202,
      "Stat": 9203,
      "maxim": 9204,
      "жена": 9205,
      "positive": 9206,
      "русско": 9207,
      "связь": 9208,
      "станций": 9209,
      "пользо": 9210,
      "массы": 9211,
      "основной": 9212,
      "Визан": 9213,
      "местного": 9214,
      "factor": 9215,
      "зависимых": 9216,
      "князь": 9217,
      "vention": 9218,
      "College": 9219,
      "importance": 9220,
      "карбо": 9221,
      "fici": 9222,
      "наука": 9223,
      "critics": 9224,
      "breed": 9225,
      "функциона": 9226,
      "серви": 9227,
      "дворян": 9228,
      "Berlin": 9229,
      "исследований": 9230,
      "attempted": 9231,
      "colonies": 9232,
      "ANOVA": 9233,
      "медици": 9234,
      "договора": 9235,
      "consonant": 9236,
      "пассажир": 9237,
      "предусматри": 9238,
      "приходится": 9239,
      "frogs": 9240,
      "diverse": 9241,
      "Education": 9242,
      "офицеров": 9243,
      "sembly": 9244,
      "цифро": 9245,
      "Chadic": 9246,
      "Arthur": 9247,
      "72": 9248,
      "76": 9249,
      "Ep": 9250,
      "IP": 9251,
      "Lab": 9252,
      "Law": 9253,
      "Liter": 9254,
      "Net": 9255,
      "Pen": 9256,
      "gree": 9257,
      "middle": 9258,
      "nit": 9259,
      "winning": 9260,
      "Гла": 9261,
      "Кра": 9262,
      "Ря": 9263,
      "Фо": 9264,
      "Эн": 9265,
      "вшую": 9266,
      "ими": 9267,
      "лёт": 9268,
      "нского": 9269,
      "чка": 9270,
      "юн": 9271,
      "thir": 9272,
      "рабаты": 9273,
      "народа": 9274,
      "рецеп": 9275,
      "arith": 9276,
      "нительно": 9277,
      "ita": 9278,
      "теперь": 9279,
      "root": 9280,
      "мили": 9281,
      "неё": 9282,
      "зар": 9283,
      "вил": 9284,
      "1911": 9285,
      "amation": 9286,
      "прочи": 9287,
      "бого": 9288,
      "adult": 9289,
      "сегод": 9290,
      "constell": 9291,
      "ophy": 9292,
      "холод": 9293,
      "exact": 9294,
      "ifically": 9295,
      "iance": 9296,
      "подход": 9297,
      "цели": 9298,
      "дыха": 9299,
      "страной": 9300,
      "Россией": 9301,
      "импери": 9302,
      "тивно": 9303,
      "данной": 9304,
      "speed": 9305,
      "indigenous": 9306,
      "обществе": 9307,
      "имел": 9308,
      "subs": 9309,
      "фаза": 9310,
      "workers": 9311,
      "direction": 9312,
      "составляла": 9313,
      "1865": 9314,
      "высокой": 9315,
      "известные": 9316,
      "экономических": 9317,
      "rupt": 9318,
      "меняется": 9319,
      "arrived": 9320,
      "rown": 9321,
      "authors": 9322,
      "апреле": 9323,
      "теоре": 9324,
      "practices": 9325,
      "позволя": 9326,
      "joy": 9327,
      "содержание": 9328,
      "улица": 9329,
      "buildings": 9330,
      "Музей": 9331,
      "традиции": 9332,
      "risk": 9333,
      "идеи": 9334,
      "assistive": 9335,
      "fixed": 9336,
      "музея": 9337,
      "figures": 9338,
      "характеризу": 9339,
      "AFI": 9340,
      "manufactur": 9341,
      "demand": 9342,
      "абсолют": 9343,
      "soft": 9344,
      "nuclear": 9345,
      "Советов": 9346,
      "subsequent": 9347,
      "Studies": 9348,
      "hypothesis": 9349,
      "salamanders": 9350,
      "prominent": 9351,
      "eggs": 9352,
      "Micro": 9353,
      "ultimately": 9354,
      "Ariet": 9355,
      "pronunciation": 9356,
      "custom": 9357,
      "Хотя": 9358,
      "сегодня": 9359,
      "73": 9360,
      "Due": 9361,
      "Fact": 9362,
      "LM": 9363,
      "Mart": 9364,
      "Rock": 9365,
      "VII": 9366,
      "bad": 9367,
      "mind": 9368,
      "nut": 9369,
      "pure": 9370,
      "rural": 9371,
      "sites": 9372,
      "southeast": 9373,
      "targ": 9374,
      "von": 9375,
      "vast": 9376,
      "walk": 9377,
      "Бре": 9378,
      "Сло": 9379,
      "азо": 9380,
      "вскоре": 9381,
      "фей": 9382,
      "instr": 9383,
      "alleg": 9384,
      "stain": 9385,
      "постави": 9386,
      "лица": 9387,
      "казе": 9388,
      "миру": 9389,
      "leaving": 9390,
      "недоста": 9391,
      "мато": 9392,
      "мати": 9393,
      "дию": 9394,
      "силами": 9395,
      "degree": 9396,
      "amm": 9397,
      "старо": 9398,
      "етро": 9399,
      "прито": 9400,
      "причин": 9401,
      "conver": 9402,
      "iron": 9403,
      "различи": 9404,
      "турой": 9405,
      "aved": 9406,
      "artistic": 9407,
      "Also": 9408,
      "бель": 9409,
      "ровки": 9410,
      "подчин": 9411,
      "mentioned": 9412,
      "шему": 9413,
      "pras": 9414,
      "prison": 9415,
      "альной": 9416,
      "бума": 9417,
      "странами": 9418,
      "начал": 9419,
      "гео": 9420,
      "центров": 9421,
      "month": 9422,
      "understanding": 9423,
      "министр": 9424,
      "extended": 9425,
      "1934": 9426,
      "текста": 9427,
      "legs": 9428,
      "ception": 9429,
      "1959": 9430,
      "cultures": 9431,
      "урбани": 9432,
      "соглашение": 9433,
      "Дания": 9434,
      "organic": 9435,
      "вероят": 9436,
      "borrow": 9437,
      "married": 9438,
      "powerful": 9439,
      "grew": 9440,
      "европе": 9441,
      "magazine": 9442,
      "tests": 9443,
      "формирования": 9444,
      "Animals": 9445,
      "Auto": 9446,
      "нцикло": 9447,
      "поиска": 9448,
      "наступления": 9449,
      "хлори": 9450,
      "исключи": 9451,
      "сократи": 9452,
      "connected": 9453,
      "требования": 9454,
      "месяцев": 9455,
      "документа": 9456,
      "службы": 9457,
      "migr": 9458,
      "Sampras": 9459,
      "происхождения": 9460,
      "Philosoph": 9461,
      "nucle": 9462,
      "adobe": 9463,
      "семьи": 9464,
      "Democratic": 9465,
      "machine": 9466,
      "Трансси": 9467,
      "Alien": 9468,
      "коммуника": 9469,
      "непосредственно": 9470,
      "agreement": 9471,
      "resistance": 9472,
      "опублико": 9473,
      "приводит": 9474,
      "Cushitic": 9475,
      "нциклопе": 9476,
      "71": 9477,
      "Astr": 9478,
      "Cle": 9479,
      "Cap": 9480,
      "Gl": 9481,
      "Ka": 9482,
      "Rog": 9483,
      "TO": 9484,
      "VIII": 9485,
      "dark": 9486,
      "dens": 9487,
      "pan": 9488,
      "path": 9489,
      "ror": 9490,
      "ti": 9491,
      "tu": 9492,
      "Ль": 9493,
      "НР": 9494,
      "Ура": 9495,
      "длин": 9496,
      "лда": 9497,
      "этни": 9498,
      "erals": 9499,
      "новым": 9500,
      "atre": 9501,
      "нат": 9502,
      "напря": 9503,
      "encour": 9504,
      "потен": 9505,
      "лиде": 9506,
      "воору": 9507,
      "воохран": 9508,
      "iced": 9509,
      "ione": 9510,
      "тета": 9511,
      "вела": 9512,
      "entially": 9513,
      "ilities": 9514,
      "church": 9515,
      "обли": 9516,
      "search": 9517,
      "agle": 9518,
      "газе": 9519,
      "стья": 9520,
      "ленно": 9521,
      "жить": 9522,
      "Anarch": 9523,
      "Помимо": 9524,
      "worth": 9525,
      "предлага": 9526,
      "context": 9527,
      "iban": 9528,
      "хими": 9529,
      "Champion": 9530,
      "That": 9531,
      "Health": 9532,
      "колони": 9533,
      "бурга": 9534,
      "1978": 9535,
      "требу": 9536,
      "curs": 9537,
      "Бель": 9538,
      "существу": 9539,
      "армию": 9540,
      "составляли": 9541,
      "movements": 9542,
      "стройка": 9543,
      "емое": 9544,
      "структур": 9545,
      "helped": 9546,
      "известны": 9547,
      "нович": 9548,
      "считал": 9549,
      "цом": 9550,
      "западных": 9551,
      "goal": 9552,
      "traditions": 9553,
      "Ada": 9554,
      "showed": 9555,
      "экономике": 9556,
      "practical": 9557,
      "продукты": 9558,
      "августе": 9559,
      "раствор": 9560,
      "дравоохран": 9561,
      "discovery": 9562,
      "контроля": 9563,
      "шумер": 9564,
      "северной": 9565,
      "появился": 9566,
      "борьбе": 9567,
      "залива": 9568,
      "farming": 9569,
      "coastal": 9570,
      "currently": 9571,
      "воздуха": 9572,
      "composition": 9573,
      "ANSI": 9574,
      "нефти": 9575,
      "femin": 9576,
      "employed": 9577,
      "институт": 9578,
      "projects": 9579,
      "Атлантического": 9580,
      "digital": 9581,
      "ambiguity": 9582,
      "четырёх": 9583,
      "Адмирал": 9584,
      "software": 9585,
      "заверши": 9586,
      "easily": 9587,
      "Technology": 9588,
      "houses": 9589,
      "клетки": 9590,
      "tribes": 9591,
      "aspects": 9592,
      "выборах": 9593,
      "modified": 9594,
      "Mobile": 9595,
      "discipl": 9596,
      "aikido": 9597,
      "94": 9598,
      "Late": 9599,
      "Mes": 9600,
      "More": 9601,
      "Pak": 9602,
      "TC": 9603,
      "ek": 9604,
      "ees": 9605,
      "gent": 9606,
      "hop": 9607,
      "mom": 9608,
      "paren": 9609,
      "tar": 9610,
      "tur": 9611,
      "ym": 9612,
      "́ль": 9613,
      "Вместе": 9614,
      "Ещё": 9615,
      "Кё": 9616,
      "Пло": 9617,
      "Стра": 9618,
      "акт": 9619,
      "вский": 9620,
      "еха": 9621,
      "особы": 9622,
      "тность": 9623,
      "улуч": 9624,
      "чрез": 9625,
      "infr": 9626,
      "eration": 9627,
      "stay": 9628,
      "поя": 9629,
      "iso": 9630,
      "вании": 9631,
      "какой": 9632,
      "непре": 9633,
      "тари": 9634,
      "выход": 9635,
      "вычай": 9636,
      "iment": 9637,
      "imens": 9638,
      "advert": 9639,
      "verb": 9640,
      "рых": 9641,
      "comment": 9642,
      "сувер": 9643,
      "Independ": 9644,
      "clamation": 9645,
      "люд": 9646,
      "фили": 9647,
      "фигу": 9648,
      "жает": 9649,
      "председатель": 9650,
      "тивное": 9651,
      "prep": 9652,
      "disput": 9653,
      "raised": 9654,
      "filmmak": 9655,
      "desc": 9656,
      "городская": 9657,
      "1970s": 9658,
      "newsp": 9659,
      "границе": 9660,
      "границу": 9661,
      "surrender": 9662,
      "автоном": 9663,
      "приняли": 9664,
      "Prov": 9665,
      "belief": 9666,
      "continent": 9667,
      "expans": 9668,
      "ordin": 9669,
      "ездов": 9670,
      "литературе": 9671,
      "комисса": 9672,
      "volun": 9673,
      "Высо": 9674,
      "анализи": 9675,
[...]
