{
  "version": "1.0",
  "truncation": null,
  "padding": null,
  "added_tokens": [
    {
      "id": 0,
      "content": "[UNK]",
      "single_word": false,
      "lstrip": false,
      "rstrip": false,
      "normalized": false,
      "special": true
    },
    {
      "id": 1,
      "content": "[EOS]",
      "single_word": false,
      "lstrip": false,
      "rstrip": false,
      "normalized": false,
      "special": true
    }
  ],
  "normalizer": {
    "type": "Sequence",
    "normalizers": [
      {
        "type": "NFKC"
      }
    ]
  },
  "pre_tokenizer": {
    "type": "BertPreTokenizer"
  },
  "post_processor": null,
  "decoder": null,
  "model": {
    "type": "BPE",
    "dropout": null,
    "unk_token": "[UNK]",
    "continuing_subword_prefix": null,
    "end_of_word_suffix": null,
    "fuse_unk": false,
    "byte_fallback": false,
    "ignore_merges": false,
    "vocab": {
      "[UNK]": 0,
      "[EOS]": 1,
      "!": 2,
      "\"": 3,
      "#": 4,
      "$": 5,
      "%": 6,
      "&": 7,
      "'": 8,
      "(": 9,
      ")": 10,
      "*": 11,
      "+": 12,
      ",": 13,
      "-": 14,
      ".": 15,
      "/": 16,
      "0": 17,
      "1": 18,
      "2": 19,
      "3": 20,
      "4": 21,
      "5": 22,
      "6": 23,
      "7": 24,
      "8": 25,
      "9": 26,
      ":": 27,
      ";": 28,
      "<": 29,
      "=": 30,
      ">": 31,
      "?": 32,
      "@": 33,
      "A": 34,
      "B": 35,
      "C": 36,
      "D": 37,
      "E": 38,
      "F": 39,
      "G": 40,
      "H": 41,
      "I": 42,
      "J": 43,
      "K": 44,
      "L": 45,
      "M": 46,
      "N": 47,
      "O": 48,
      "P": 49,
      "Q": 50,
      "R": 51,
      "S": 52,
      "T": 53,
      "U": 54,
      "V": 55,
      "W": 56,
      "X": 57,
      "Y": 58,
      "Z": 59,
      "[": 60,
      "\\": 61,
      "]": 62,
      "^": 63,
      "_": 64,
      "`": 65,
      "a": 66,
      "b": 67,
      "c": 68,
      "d": 69,
      "e": 70,
      "f": 71,
      "g": 72,
      "h": 73,
      "i": 74,
      "j": 75,
      "k": 76,
      "l": 77,
      "m": 78,
      "n": 79,
      "o": 80,
      "p": 81,
      "q": 82,
      "r": 83,
      "s": 84,
      "t": 85,
      "u": 86,
      "v": 87,
      "w": 88,
      "x": 89,
      "y": 90,
      "z": 91,
      "{": 92,
      "|": 93,
      "}": 94,
      "~": 95,
      "": 96,
      "¡": 97,
      "¢": 98,
      "£": 99,
      "¥": 100,
      "§": 101,
      "©": 102,
      "«": 103,
      "¬": 104,
      "­": 105,
      "®": 106,
      "°": 107,
      "±": 108,
      "¶": 109,
      "·": 110,
      "»": 111,
      "¿": 112,
      "À": 113,
      "Á": 114,
      "Â": 115,
      "Ã": 116,
      "Ä": 117,
      "Å": 118,
      "Æ": 119,
      "Ç": 120,
      "È": 121,
      "É": 122,
      "Ê": 123,
      "Í": 124,
      "Î": 125,
      "Ñ": 126,
      "Ò": 127,
      "Ó": 128,
      "Ô": 129,
      "Õ": 130,
      "Ö": 131,
      "×": 132,
      "Ø": 133,
      "Ú": 134,
      "Ü": 135,
      "Ý": 136,
      "Þ": 137,
      "ß": 138,
      "à": 139,
      "á": 140,
      "â": 141,
      "ã": 142,
      "ä": 143,
      "å": 144,
      "æ": 145,
      "ç": 146,
      "è": 147,
      "é": 148,
      "ê": 149,
      "ë": 150,
      "ì": 151,
      "í": 152,
      "î": 153,
      "ï": 154,
      "ð": 155,
      "ñ": 156,
      "ò": 157,
      "ó": 158,
      "ô": 159,
      "õ": 160,
      "ö": 161,
      "÷": 162,
      "ø": 163,
      "ù": 164,
      "ú": 165,
      "û": 166,
      "ü": 167,
      "ý": 168,
      "þ": 169,
      "ÿ": 170,
      "Ā": 171,
      "ā": 172,
      "ă": 173,
      "ą": 174,
      "Ć": 175,
      "ć": 176,
      "Ċ": 177,
      "Č": 178,
      "č": 179,
      "ď": 180,
      "Đ": 181,
      "đ": 182,
      "Ē": 183,
      "ē": 184,
      "ĕ": 185,
      "ė": 186,
      "ę": 187,
      "ě": 188,
      "ĝ": 189,
      "Ğ": 190,
      "ğ": 191,
      "ġ": 192,
      "ģ": 193,
      "ħ": 194,
      "Ĩ": 195,
      "ĩ": 196,
      "Ī": 197,
      "ī": 198,
      "ĭ": 199,
      "į": 200,
      "İ": 201,
      "ı": 202,
      "ķ": 203,
      "Ļ": 204,
      "ļ": 205,
      "Ľ": 206,
      "ľ": 207,
      "Ł": 208,
      "ł": 209,
      "ń": 210,
      "ņ": 211,
      "ň": 212,
      "ŋ": 213,
      "Ō": 214,
      "ō": 215,
      "ŏ": 216,
      "Ő": 217,
      "ő": 218,
      "Œ": 219,
      "œ": 220,
      "ŕ": 221,
      "ŗ": 222,
      "Ř": 223,
      "ř": 224,
      "Ś": 225,
      "ś": 226,
      "ŝ": 227,
      "Ş": 228,
      "ş": 229,
      "Š": 230,
      "š": 231,
      "Ţ": 232,
      "ţ": 233,
      "ť": 234,
      "Ũ": 235,
      "ũ": 236,
      "Ū": 237,
      "ū": 238,
      "ŭ": 239,
      "ů": 240,
      "ű": 241,
      "ų": 242,
      "ŵ": 243,
      "ŷ": 244,
      "Ź": 245,
      "ź": 246,
      "Ż": 247,
      "ż": 248,
      "Ž": 249,
      "ž": 250,
      "Ɔ": 251,
      "Ə": 252,
      "ƒ": 253,
      "Ɨ": 254,
      "ƛ": 255,
      "ơ": 256,
      "ư": 257,
      "ǎ": 258,
      "ǐ": 259,
      "ǒ": 260,
      "ǔ": 261,
      "ǣ": 262,
      "ǧ": 263,
      "ǫ": 264,
      "ǭ": 265,
      "ǯ": 266,
      "Ș": 267,
      "ș": 268,
      "Ț": 269,
      "ț": 270,
      "ȝ": 271,
      "Ɂ": 272,
      "ɐ": 273,
      "ɑ": 274,
      "ɒ": 275,
      "ɔ": 276,
      "ɕ": 277,
      "ɗ": 278,
      "ə": 279,
      "ɛ": 280,
      "ɡ": 281,
      "ɣ": 282,
      "ɦ": 283,
      "ɨ": 284,
      "ɪ": 285,
      "ɬ": 286,
      "ɲ": 287,
      "ɸ": 288,
      "ɹ": 289,
      "ɻ": 290,
      "ʀ": 291,
      "ʂ": 292,
      "ʃ": 293,
      "ʈ": 294,
      "ʊ": 295,
      "ʌ": 296,
      "ʐ": 297,
      "ʑ": 298,
      "ʒ": 299,
      "ʔ": 300,
      "ʕ": 301,
      "ʹ": 302,
      "ʻ": 303,
      "ʼ": 304,
      "ʽ": 305,
      "ʾ": 306,
      "ʿ": 307,
      "ˁ": 308,
      "ˆ": 309,
      "ˇ": 310,
      "ˈ": 311,
      "ˌ": 312,
      "ː": 313,
      "̀": 314,
      "́": 315,
      "̃": 316,
      "̄": 317,
      "̆": 318,
      "̈": 319,
      "̊": 320,
      "̑": 321,
      "̓": 322,
      "̣": 323,
      "̤": 324,
      "̧": 325,
      "̪": 326,
      "̭": 327,
      "̯": 328,
      "̱": 329,
      "̲": 330,
      "͍": 331,
      "͡": 332,
      "Ά": 333,
      "Έ": 334,
      "Ί": 335,
      "Ό": 336,
      "ΐ": 337,
      "Α": 338,
      "Β": 339,
      "Γ": 340,
      "Δ": 341,
      "Ε": 342,
      "Ζ": 343,
      "Η": 344,
      "Θ": 345,
      "Ι": 346,
      "Κ": 347,
      "Λ": 348,
      "Μ": 349,
      "Ν": 350,
      "Ξ": 351,
      "Ο": 352,
      "Π": 353,
      "Ρ": 354,
      "Σ": 355,
      "Τ": 356,
      "Υ": 357,
      "Φ": 358,
      "Χ": 359,
      "Ψ": 360,
      "Ω": 361,
      "Ϊ": 362,
      "ά": 363,
      "έ": 364,
      "ή": 365,
      "ί": 366,
      "α": 367,
      "β": 368,
      "γ": 369,
      "δ": 370,
      "ε": 371,
      "ζ": 372,
      "η": 373,
      "θ": 374,
      "ι": 375,
      "κ": 376,
      "λ": 377,
      "μ": 378,
      "ν": 379,
      "ξ": 380,
      "ο": 381,
      "π": 382,
      "ρ": 383,
      "ς": 384,
      "σ": 385,
      "τ": 386,
      "υ": 387,
      "φ": 388,
      "χ": 389,
      "ψ": 390,
      "ω": 391,
      "ϊ": 392,
      "ό": 393,
      "ύ": 394,
      "ώ": 395,
      "ϛ": 396,
      "ϝ": 397,
      "ϟ": 398,
      "Ϡ": 399,
      "ϡ": 400,
      "Ё": 401,
      "Ђ": 402,
      "Ѓ": 403,
      "Є": 404,
      "Ѕ": 405,
      "І": 406,
      "Ї": 407,
      "Ј": 408,
      "Љ": 409,
      "Ў": 410,
      "А": 411,
      "Б": 412,
      "В": 413,
      "Г": 414,
      "Д": 415,
      "Е": 416,
      "Ж": 417,
      "З": 418,
      "И": 419,
      "Й": 420,
      "К": 421,
      "Л": 422,
      "М": 423,
      "Н": 424,
      "О": 425,
      "П": 426,
      "Р": 427,
      "С": 428,
      "Т": 429,
      "У": 430,
      "Ф": 431,
      "Х": 432,
      "Ц": 433,
      "Ч": 434,
      "Ш": 435,
      "Щ": 436,
      "Ъ": 437,
      "Ы": 438,
      "Ь": 439,
      "Э": 440,
      "Ю": 441,
      "Я": 442,
      "а": 443,
      "б": 444,
      "в": 445,
      "г": 446,
      "д": 447,
      "е": 448,
      "ж": 449,
      "з": 450,
      "и": 451,
      "й": 452,
      "к": 453,
      "л": 454,
      "м": 455,
      "н": 456,
      "о": 457,
      "п": 458,
      "р": 459,
      "с": 460,
      "т": 461,
      "у": 462,
      "ф": 463,
      "х": 464,
      "ц": 465,
      "ч": 466,
      "ш": 467,
      "щ": 468,
      "ъ": 469,
      "ы": 470,
      "ь": 471,
      "э": 472,
      "ю": 473,
      "я": 474,
      "ѐ": 475,
      "ё": 476,
      "ђ": 477,
      "ѓ": 478,
      "є": 479,
      "ѕ": 480,
      "і": 481,
      "ї": 482,
      "ј": 483,
      "љ": 484,
      "њ": 485,
      "ћ": 486,
      "ќ": 487,
      "ѝ": 488,
      "ў": 489,
      "џ": 490,
      "ѡ": 491,
      "Ѣ": 492,
      "ѣ": 493,
      "ѧ": 494,
      "Ѫ": 495,
      "ѫ": 496,
      "ѱ": 497,
      "ѳ": 498,
      "ѵ": 499,
      "ѷ": 500,
      "Ѹ": 501,
      "ѹ": 502,
      "ѻ": 503,
      "ѿ": 504,
      "ҁ": 505,
      "҂": 506,
      "҃": 507,
      "ґ": 508,
      "Ғ": 509,
      "ғ": 510,
      "җ": 511,
      "ҙ": 512,
      "Қ": 513,
      "қ": 514,
      "Ҡ": 515,
      "ҡ": 516,
      "ң": 517,
      "ҧ": 518,
      "Ҫ": 519,
      "ҫ": 520,
      "Ү": 521,
      "ү": 522,
      "Ұ": 523,
      "ұ": 524,
      "Ҳ": 525,
      "ҳ": 526,
      "Ҷ": 527,
      "һ": 528,
      "ӄ": 529,
      "ӈ": 530,
      "ӏ": 531,
      "ӑ": 532,
      "ӕ": 533,
      "ӗ": 534,
      "Ә": 535,
      "ә": 536,
      "Ө": 537,
      "ө": 538,
      "ӯ": 539,
      "ӱ": 540,
      "ӳ": 541,
      "ӷ": 542,
      "Ӹ": 543,
      "ӹ": 544,
      "ӽ": 545,
      "Ա": 546,
      "Գ": 547,
      "Դ": 548,
      "Ե": 549,
      "Թ": 550,
      "Լ": 551,
      "Խ": 552,
      "Ծ": 553,
      "Կ": 554,
      "Հ": 555,
      "Ղ": 556,
      "Ճ": 557,
      "Մ": 558,
      "Յ": 559,
      "Ն": 560,
      "Ո": 561,
      "Չ": 562,
      "Պ": 563,
      "Ռ": 564,
      "Ս": 565,
      "Վ": 566,
      "Տ": 567,
      "Ց": 568,
      "Ֆ": 569,
      "՝": 570,
      "ա": 571,
      "բ": 572,
      "գ": 573,
      "դ": 574,
      "ե": 575,
      "զ": 576,
      "է": 577,
      "ը": 578,
      "թ": 579,
      "ժ": 580,
      "ի": 581,
      "լ": 582,
      "խ": 583,
      "ծ": 584,
      "կ": 585,
      "հ": 586,
      "ղ": 587,
      "ճ": 588,
      "մ": 589,
      "յ": 590,
      "ն": 591,
      "շ": 592,
      "ո": 593,
      "չ": 594,
      "պ": 595,
      "ջ": 596,
      "ռ": 597,
      "ս": 598,
      "վ": 599,
      "տ": 600,
      "ր": 601,
      "ց": 602,
      "ւ": 603,
      "փ": 604,
      "ք": 605,
      "ֆ": 606,
      "ְ": 607,
      "ֲ": 608,
      "ִ": 609,
      "ֵ": 610,
      "ֶ": 611,
      "ַ": 612,
      "ָ": 613,
      "ֹ": 614,
      "ּ": 615,
      "ׁ": 616,
      "א": 617,
      "ב": 618,
      "ג": 619,
      "ד": 620,
      "ה": 621,
      "ו": 622,
      "ז": 623,
      "ח": 624,
      "ט": 625,
      "י": 626,
      "ך": 627,
      "כ": 628,
      "ל": 629,
      "ם": 630,
      "מ": 631,
      "ן": 632,
      "נ": 633,
      "ס": 634,
      "ע": 635,
      "ף": 636,
      "פ": 637,
      "ץ": 638,
      "צ": 639,
      "ק": 640,
      "ר": 641,
      "ש": 642,
      "ת": 643,
      "،": 644,
      "؟": 645,
      "ء": 646,
      "آ": 647,
      "أ": 648,
      "ؤ": 649,
      "إ": 650,
      "ئ": 651,
      "ا": 652,
      "ب": 653,
      "ة": 654,
      "ت": 655,
      "ث": 656,
      "ج": 657,
      "ح": 658,
      "خ": 659,
      "د": 660,
      "ذ": 661,
      "ر": 662,
      "ز": 663,
      "س": 664,
      "ش": 665,
      "ص": 666,
      "ض": 667,
      "ط": 668,
      "ظ": 669,
      "ع": 670,
      "غ": 671,
      "ـ": 672,
      "ف": 673,
      "ق": 674,
      "ك": 675,
      "ل": 676,
      "م": 677,
      "ن": 678,
      "ه": 679,
      "و": 680,
      "ى": 681,
      "ي": 682,
      "ٌ": 683,
      "َ": 684,
      "ُ": 685,
      "ِ": 686,
      "ّ": 687,
      "ْ": 688,
      "ٔ": 689,
      "١": 690,
      "٢": 691,
      "٣": 692,
      "٤": 693,
      "٦": 694,
      "٨": 695,
      "٩": 696,
      "٭": 697,
      "ٴ": 698,
      "ٹ": 699,
      "پ": 700,
      "چ": 701,
      "ڈ": 702,
      "ڌ": 703,
      "ړ": 704,
      "ږ": 705,
      "ژ": 706,
      "ښ": 707,
      "ڠ": 708,
      "ڤ": 709,
      "ک": 710,
      "گ": 711,
      "ھ": 712,
      "ۀ": 713,
      "ہ": 714,
      "ۃ": 715,
      "ی": 716,
      "ې": 717,
      "ے": 718,
      "ە": 719,
      "۱": 720,
      "۵": 721,
      "ހ": 722,
      "ނ": 723,
      "ރ": 724,
      "ބ": 725,
      "ކ": 726,
      "އ": 727,
      "ވ": 728,
      "މ": 729,
      "ދ": 730,
      "ލ": 731,
      "ސ": 732,
      "ޖ": 733,
      "ޠ": 734,
      "ަ": 735,
      "ާ": 736,
      "ި": 737,
      "ީ": 738,
      "ު": 739,
      "ޫ": 740,
      "ް": 741,
      "ँ": 742,
      "ं": 743,
      "ः": 744,
      "अ": 745,
      "आ": 746,
      "इ": 747,
      "ई": 748,
      "उ": 749,
      "ऊ": 750,
      "ए": 751,
      "ऐ": 752,
      "ओ": 753,
      "औ": 754,
      "क": 755,
      "ग": 756,
      "घ": 757,
      "च": 758,
      "ज": 759,
      "ञ": 760,
      "ट": 761,
      "ठ": 762,
      "ड": 763,
      "ण": 764,
      "त": 765,
      "थ": 766,
      "द": 767,
      "ध": 768,
      "न": 769,
      "प": 770,
      "फ": 771,
      "ब": 772,
      "भ": 773,
      "म": 774,
      "य": 775,
      "र": 776,
      "ऱ": 777,
      "ल": 778,
      "व": 779,
      "श": 780,
      "ष": 781,
      "स": 782,
      "ह": 783,
      "ऽ": 784,
      "ा": 785,
      "ि": 786,
      "ी": 787,
      "ु": 788,
      "ू": 789,
      "ृ": 790,
      "े": 791,
      "ै": 792,
      "ो": 793,
      "ौ": 794,
      "्": 795,
      "ঁ": 796,
      "ং": 797,
      "অ": 798,
      "আ": 799,
      "ই": 800,
      "ঈ": 801,
      "উ": 802,
      "এ": 803,
      "ঐ": 804,
      "ও": 805,
      "ক": 806,
      "খ": 807,
      "গ": 808,
      "ঘ": 809,
      "ঙ": 810,
      "চ": 811,
      "ছ": 812,
      "জ": 813,
      "ঝ": 814,
      "ঞ": 815,
      "ট": 816,
      "ঠ": 817,
      "ড": 818,
      "ঢ": 819,
      "ণ": 820,
      "ত": 821,
      "থ": 822,
      "দ": 823,
      "ধ": 824,
      "ন": 825,
      "প": 826,
      "ফ": 827,
      "ব": 828,
      "ভ": 829,
      "ম": 830,
      "য": 831,
      "র": 832,
      "ল": 833,
      "শ": 834,
      "ষ": 835,
      "স": 836,
      "হ": 837,
      "়": 838,
      "া": 839,
      "ি": 840,
      "ী": 841,
      "ু": 842,
      "ূ": 843,
      "ৃ": 844,
      "ে": 845,
      "ৈ": 846,
      "ো": 847,
      "ৌ": 848,
      "্": 849,
      "ৰ": 850,
      "ৱ": 851,
      "ਆ": 852,
      "ਇ": 853,
      "ਮ": 854,
      "ਾ": 855,
      "જ": 856,
      "ટ": 857,
      "ણ": 858,
      "ત": 859,
      "પ": 860,
      "ફ": 861,
      "ર": 862,
      "લ": 863,
      "વ": 864,
      "સ": 865,
      "ા": 866,
      "ી": 867,
      "ુ": 868,
      "ે": 869,
      "ଁ": 870,
      "ଆ": 871,
      "ଇ": 872,
      "ଉ": 873,
      "ଏ": 874,
      "କ": 875,
      "ଗ": 876,
      "ଚ": 877,
      "ଠ": 878,
      "ଡ": 879,
      "ଣ": 880,
      "ତ": 881,
      "ଦ": 882,
      "ନ": 883,
      "ପ": 884,
      "ବ": 885,
      "ମ": 886,
      "ର": 887,
      "ଳ": 888,
      "ସ": 889,
      "଼": 890,
      "ା": 891,
      "ି": 892,
      "ୁ": 893,
      "ୋ": 894,
      "୍": 895,
      "அ": 896,
      "ஆ": 897,
      "இ": 898,
      "ஓ": 899,
      "க": 900,
      "ங": 901,
      "ச": 902,
      "ட": 903,
      "த": 904,
      "ந": 905,
      "ன": 906,
      "ப": 907,
      "ம": 908,
      "ய": 909,
      "ர": 910,
      "ற": 911,
      "ல": 912,
      "ள": 913,
      "ழ": 914,
      "வ": 915,
      "ா": 916,
      "ி": 917,
      "ு": 918,
      "ூ": 919,
      "ே": 920,
      "ை": 921,
      "ொ": 922,
      "ோ": 923,
      "்": 924,
      "డ": 925,
      "ా": 926,
      "ి": 927,
      "ీ": 928,
      "ు": 929,
      "ూ": 930,
      "ృ": 931,
      "ె": 932,
      "ే": 933,
      "ై": 934,
      "ొ": 935,
      "ో": 936,
      "ౌ": 937,
      "్": 938,
      "ಗ": 939,
      "ತ": 940,
      "ಬ": 941,
      "ಮ": 942,
      "ಯ": 943,
      "ಲ": 944,
      "ಸ": 945,
      "ಹ": 946,
      "ಾ": 947,
      "ಿ": 948,
      "ು": 949,
      "ೇ": 950,
      "ം": 951,
      "അ": 952,
      "ആ": 953,
      "ക": 954,
      "ഗ": 955,
      "ങ": 956,
      "ട": 957,
      "ത": 958,
      "ഥ": 959,
      "ദ": 960,
      "ന": 961,
      "പ": 962,
      "ബ": 963,
      "ഭ": 964,
      "മ": 965,
      "യ": 966,
      "ര": 967,
      "റ": 968,
      "ല": 969,
      "ള": 970,
      "വ": 971,
      "ശ": 972,
      "ഷ": 973,
      "സ": 974,
      "ഹ": 975,
      "ാ": 976,
      "ി": 977,
      "ീ": 978,
      "ു": 979,
      "ൂ": 980,
      "ൃ": 981,
      "െ": 982,
      "േ": 983,
      "ൈ": 984,
      "ൊ": 985,
      "ോ": 986,
      "ൌ": 987,
      "്": 988,
      "ൻ": 989,
      "ർ": 990,
      "ൽ": 991,
      "ൾ": 992,
      "ං": 993,
      "අ": 994,
      "ආ": 995,
      "ඇ": 996,
      "උ": 997,
      "එ": 998,
      "ඔ": 999,
      "ක": 1000,
      "ග": 1001,
      "ඟ": 1002,
      "ච": 1003,
      "ජ": 1004,
      "ට": 1005,
      "ණ": 1006,
      "ත": 1007,
      "ද": 1008,
      "ධ": 1009,
      "න": 1010,
      "ඳ": 1011,
      "ප": 1012,
      "බ": 1013,
      "භ": 1014,
      "ම": 1015,
      "ඹ": 1016,
      "ය": 1017,
      "ර": 1018,
      "ල": 1019,
      "ව": 1020,
      "ශ": 1021,
      "ෂ": 1022,
      "ස": 1023,
      "හ": 1024,
      "ළ": 1025,
      "්": 1026,
      "ා": 1027,
      "ැ": 1028,
      "ෑ": 1029,
      "ි": 1030,
      "ී": 1031,
      "ු": 1032,
      "ූ": 1033,
      "ෙ": 1034,
      "ේ": 1035,
      "ෛ": 1036,
      "ො": 1037,
      "ෝ": 1038,
      "ก": 1039,
      "ข": 1040,
      "ค": 1041,
      "ง": 1042,
      "จ": 1043,
      "ช": 1044,
      "ญ": 1045,
      "ด": 1046,
      "ต": 1047,
      "ถ": 1048,
      "ท": 1049,
      "ธ": 1050,
      "น": 1051,
      "บ": 1052,
      "ป": 1053,
      "พ": 1054,
      "ฟ": 1055,
      "ภ": 1056,
      "ม": 1057,
      "ย": 1058,
      "ร": 1059,
      "ล": 1060,
      "ว": 1061,
      "ศ": 1062,
      "ส": 1063,
      "ห": 1064,
      "อ": 1065,
      "ะ": 1066,
      "ั": 1067,
      "า": 1068,
      "ิ": 1069,
      "ี": 1070,
      "ื": 1071,
      "ุ": 1072,
      "ู": 1073,
      "ฺ": 1074,
      "฿": 1075,
      "เ": 1076,
      "แ": 1077,
      "โ": 1078,
      "ใ": 1079,
      "็": 1080,
      "่": 1081,
      "้": 1082,
      "์": 1083,
      "ํ": 1084,
      "་": 1085,
      "ག": 1086,
      "ང": 1087,
      "བ": 1088,
      "ས": 1089,
      "ེ": 1090,
      "ྟ": 1091,
      "ྲ": 1092,
      "࿕": 1093,
      "࿖": 1094,
      "࿗": 1095,
      "࿘": 1096,
      "ခ": 1097,
      "ည": 1098,
      "တ": 1099,
      "ဒ": 1100,
      "န": 1101,
      "ပ": 1102,
      "မ": 1103,
      "ယ": 1104,
      "ရ": 1105,
      "လ": 1106,
      "သ": 1107,
      "ာ": 1108,
      "ိ": 1109,
      "ီ": 1110,
      "ု": 1111,
      "ေ": 1112,
      "္": 1113,
      "်": 1114,
      "ြ": 1115,
      "ა": 1116,
      "ბ": 1117,
      "გ": 1118,
      "დ": 1119,
      "ე": 1120,
      "ვ": 1121,
      "ზ": 1122,
      "თ": 1123,
      "ი": 1124,
      "კ": 1125,
      "ლ": 1126,
      "მ": 1127,
      "ნ": 1128,
      "ო": 1129,
      "პ": 1130,
      "ჟ": 1131,
      "რ": 1132,
      "ს": 1133,
      "ტ": 1134,
      "უ": 1135,
      "ფ": 1136,
      "ქ": 1137,
      "ღ": 1138,
      "ყ": 1139,
      "შ": 1140,
      "ჩ": 1141,
      "ც": 1142,
      "ძ": 1143,
      "წ": 1144,
      "ჭ": 1145,
      "ხ": 1146,
      "ჯ": 1147,
      "ჰ": 1148,
      "ᅳ": 1149,
      "ለ": 1150,
      "ማ": 1151,
      "ቀ": 1152,
      "ቱ": 1153,
      "ታ": 1154,
      "ት": 1155,
      "ች": 1156,
      "ን": 1157,
      "አ": 1158,
      "ወ": 1159,
      "ይ": 1160,
      "ጋ": 1161,
      "ጌ": 1162,
      "ጤ": 1163,
      "ፈ": 1164,
      "Ꮭ": 1165,
      "Ꮮ": 1166,
      "Ꮯ": 1167,
      "Ꮰ": 1168,
      "Ꮱ": 1169,
      "Ꮲ": 1170,
      "ᐊ": 1171,
      "ᐋ": 1172,
      "ᐎ": 1173,
      "ᐏ": 1174,
      "ᐗ": 1175,
      "ᐙ": 1176,
      "ᐠ": 1177,
      "ᐣ": 1178,
      "ᐦ": 1179,
      "ᐱ": 1180,
      "ᐲ": 1181,
      "ᑌ": 1182,
      "ᑐ": 1183,
      "ᑕ": 1184,
      "ᑯ": 1185,
      "ᒋ": 1186,
      "ᒧ": 1187,
      "ᓇ": 1188,
      "ᛞ": 1189,
      "ḍ": 1190,
      "ḏ": 1191,
      "ḡ": 1192,
      "Ḥ": 1193,
      "ḥ": 1194,
      "Ḩ": 1195,
      "ḩ": 1196,
      "Ḫ": 1197,
      "ḫ": 1198,
      "Ḳ": 1199,
      "ḳ": 1200,
      "Ḵ": 1201,
      "ḷ": 1202,
      "ṃ": 1203,
      "ṇ": 1204,
      "ṉ": 1205,
      "ṗ": 1206,
      "ṛ": 1207,
      "ṡ": 1208,
      "Ṣ": 1209,
      "ṣ": 1210,
      "Ṭ": 1211,
      "ṭ": 1212,
      "Ṯ": 1213,
      "ṯ": 1214,
      "ṷ": 1215,
      "Ẓ": 1216,
      "ẓ": 1217,
      "ẕ": 1218,
      "ẖ": 1219,
      "ạ": 1220,
      "ả": 1221,
      "ấ": 1222,
      "ầ": 1223,
      "ẩ": 1224,
      "ậ": 1225,
      "ắ": 1226,
      "ặ": 1227,
      "Ẻ": 1228,
      "Ẽ": 1229,
      "ẽ": 1230,
      "ế": 1231,
      "ề": 1232,
      "ể": 1233,
      "ễ": 1234,
      "ệ": 1235,
      "ỉ": 1236,
      "ị": 1237,
      "Ọ": 1238,
      "ọ": 1239,
      "Ố": 1240,
      "ố": 1241,
      "Ồ": 1242,
      "ồ": 1243,
      "Ổ": 1244,
      "ổ": 1245,
      "Ỗ": 1246,
      "ỗ": 1247,
      "Ộ": 1248,
      "ộ": 1249,
      "ớ": 1250,
      "ờ": 1251,
      "ợ": 1252,
      "ụ": 1253,
      "ủ": 1254,
      "ứ": 1255,
      "ừ": 1256,
      "ử": 1257,
      "ữ": 1258,
      "ự": 1259,
      "ỳ": 1260,
      "ỹ": 1261,
      "ἀ": 1262,
      "ἁ": 1263,
      "Ἀ": 1264,
      "Ἅ": 1265,
      "ἐ": 1266,
      "Ἐ": 1267,
      "Ἑ": 1268,
      "ἡ": 1269,
      "Ἠ": 1270,
      "ἰ": 1271,
      "ἱ": 1272,
      "ἴ": 1273,
      "Ἴ": 1274,
      "ὀ": 1275,
      "ὁ": 1276,
      "Ὀ": 1277,
      "ὐ": 1278,
      "ὑ": 1279,
      "ὰ": 1280,
      "ὲ": 1281,
      "ὴ": 1282,
      "ὶ": 1283,
      "ὸ": 1284,
      "ὺ": 1285,
      "ᾶ": 1286,
      "Ὰ": 1287,
      "ῆ": 1288,
      "ῦ": 1289,
      "ῶ": 1290,
      "​": 1291,
      "‌": 1292,
      "‍": 1293,
      "‎": 1294,
      "‏": 1295,
      "‐": 1296,
      "‒": 1297,
      "–": 1298,
      "—": 1299,
      "―": 1300,
      "‘": 1301,
      "’": 1302,
      "‚": 1303,
      "‛": 1304,
      "“": 1305,
      "”": 1306,
      "„": 1307,
      "†": 1308,
      "‡": 1309,
      "•": 1310,
      "‪": 1311,
      "‬": 1312,
      "‭": 1313,
      "‰": 1314,
      "′": 1315,
      "›": 1316,
      "※": 1317,
      "⁄": 1318,
      "⁠": 1319,
      "₩": 1320,
      "€": 1321,
      "₱": 1322,
      "₴": 1323,
      "₸": 1324,
      "₹": 1325,
      "₽": 1326,
      "←": 1327,
      "↑": 1328,
      "→": 1329,
      "↓": 1330,
      "↔": 1331,
      "↦": 1332,
      "⇒": 1333,
      "∂": 1334,
      "∆": 1335,
      "∈": 1336,
      "∎": 1337,
      "−": 1338,
      "∖": 1339,
      "∙": 1340,
      "√": 1341,
      "∞": 1342,
      "∠": 1343,
      "∥": 1344,
      "∧": 1345,
      "∨": 1346,
      "∩": 1347,
      "∪": 1348,
      "∼": 1349,
      "∽": 1350,
      "≈": 1351,
      "≠": 1352,
      "≡": 1353,
      "≤": 1354,
      "≥": 1355,
      "⊂": 1356,
      "⊇": 1357,
      "⊕": 1358,
      "⊻": 1359,
      "⊼": 1360,
      "⊽": 1361,
      "⋅": 1362,
      "─": 1363,
      "│": 1364,
      "┌": 1365,
      "┐": 1366,
      "└": 1367,
      "┘": 1368,
      "├": 1369,
      "┤": 1370,
      "█": 1371,
      "▫": 1372,
      "△": 1373,
      "▽": 1374,
      "◇": 1375,
      "●": 1376,
      "◦": 1377,
      "★": 1378,
      "☆": 1379,
      "☉": 1380,
      "☞": 1381,
      "☦": 1382,
      "☼": 1383,
      "☽": 1384,
      "☿": 1385,
      "♀": 1386,
      "♂": 1387,
      "♃": 1388,
      "♄": 1389,
      "♆": 1390,
      "♡": 1391,
      "♥": 1392,
      "♦": 1393,
      "♪": 1394,
      "♬": 1395,
      "♭": 1396,
      "♯": 1397,
      "❬": 1398,
      "❭": 1399,
      "➧": 1400,
      "⟨": 1401,
      "⟩": 1402,
      "⩾": 1403,
      "、": 1404,
      "。": 1405,
      "々": 1406,
      "《": 1407,
      "》": 1408,
      "「": 1409,
      "」": 1410,
      "『": 1411,
      "』": 1412,
      "【": 1413,
      "】": 1414,
      "〔": 1415,
      "〕": 1416,
      "〖": 1417,
      "〗": 1418,
      "〜": 1419,
      "あ": 1420,
      "い": 1421,
      "う": 1422,
      "え": 1423,
      "お": 1424,
      "か": 1425,
      "が": 1426,
      "き": 1427,
      "け": 1428,
      "げ": 1429,
      "こ": 1430,
      "ご": 1431,
      "さ": 1432,
      "ざ": 1433,
      "し": 1434,
      "じ": 1435,
      "す": 1436,
      "せ": 1437,
      "そ": 1438,
      "ぞ": 1439,
      "た": 1440,
      "ち": 1441,
      "っ": 1442,
      "つ": 1443,
      "て": 1444,
      "で": 1445,
      "と": 1446,
      "ど": 1447,
      "な": 1448,
      "に": 1449,
      "ぬ": 1450,
      "の": 1451,
      "は": 1452,
      "ば": 1453,
      "ひ": 1454,
      "ぶ": 1455,
      "へ": 1456,
      "ほ": 1457,
      "ま": 1458,
      "み": 1459,
      "め": 1460,
      "も": 1461,
      "ゃ": 1462,
      "ゅ": 1463,
      "ゆ": 1464,
      "よ": 1465,
      "ら": 1466,
      "り": 1467,
      "る": 1468,
      "れ": 1469,
      "ろ": 1470,
      "を": 1471,
      "ん": 1472,
      "ァ": 1473,
      "ア": 1474,
      "ィ": 1475,
      "イ": 1476,
      "ウ": 1477,
      "ェ": 1478,
      "エ": 1479,
      "オ": 1480,
      "カ": 1481,
      "ガ": 1482,
      "キ": 1483,
      "ク": 1484,
      "グ": 1485,
      "ケ": 1486,
      "コ": 1487,
      "ゴ": 1488,
      "サ": 1489,
      "ザ": 1490,
      "シ": 1491,
      "ジ": 1492,
      "ス": 1493,
      "ズ": 1494,
      "ゼ": 1495,
      "ソ": 1496,
      "ゾ": 1497,
      "タ": 1498,
      "チ": 1499,
      "ッ": 1500,
      "ツ": 1501,
      "テ": 1502,
      "デ": 1503,
      "ト": 1504,
      "ド": 1505,
      "ナ": 1506,
      "ニ": 1507,
      "ネ": 1508,
      "ノ": 1509,
      "ハ": 1510,
      "バ": 1511,
      "パ": 1512,
      "ビ": 1513,
      "ピ": 1514,
      "フ": 1515,
      "ブ": 1516,
      "プ": 1517,
      "ベ": 1518,
      "ペ": 1519,
      "ホ": 1520,
      "ボ": 1521,
      "ポ": 1522,
      "マ": 1523,
      "ミ": 1524,
      "ム": 1525,
      "メ": 1526,
      "モ": 1527,
      "ャ": 1528,
      "ヤ": 1529,
      "ュ": 1530,
      "ユ": 1531,
      "ョ": 1532,
      "ヨ": 1533,
      "ラ": 1534,
      "リ": 1535,
      "ル": 1536,
      "レ": 1537,
      "ロ": 1538,
      "ワ": 1539,
      "ン": 1540,
      "・": 1541,
      "ー": 1542,
      "一": 1543,
      "丁": 1544,
      "七": 1545,
      "万": 1546,
      "三": 1547,
      "上": 1548,
      "下": 1549,
      "不": 1550,
      "与": 1551,
      "专": 1552,
      "世": 1553,
      "丘": 1554,
      "丙": 1555,
      "业": 1556,
      "东": 1557,
      "両": 1558,
      "並": 1559,
      "个": 1560,
      "中": 1561,
      "丰": 1562,
      "串": 1563,
      "临": 1564,
      "丸": 1565,
      "丹": 1566,
      "为": 1567,
      "主": 1568,
      "丼": 1569,
      "乃": 1570,
      "久": 1571,
      "么": 1572,
      "义": 1573,
      "之": 1574,
      "乌": 1575,
      "乐": 1576,
      "乙": 1577,
      "九": 1578,
      "也": 1579,
      "乡": 1580,
      "书": 1581,
      "乾": 1582,
      "亀": 1583,
      "亂": 1584,
      "了": 1585,
      "争": 1586,
      "事": 1587,
      "二": 1588,
      "于": 1589,
      "云": 1590,
      "五": 1591,
      "井": 1592,
      "亘": 1593,
      "亚": 1594,
      "亜": 1595,
      "亞": 1596,
      "交": 1597,
      "产": 1598,
      "亨": 1599,
      "京": 1600,
      "亭": 1601,
      "亮": 1602,
      "亲": 1603,
      "人": 1604,
      "什": 1605,
      "仁": 1606,
      "仇": 1607,
      "今": 1608,
      "介": 1609,
      "从": 1610,
      "他": 1611,
      "仙": 1612,
      "代": 1613,
      "令": 1614,
      "以": 1615,
      "们": 1616,
      "仲": 1617,
      "件": 1618,
      "任": 1619,
      "份": 1620,
      "伉": 1621,
      "伊": 1622,
      "伍": 1623,
      "休": 1624,
      "众": 1625,
      "伙": 1626,
      "会": 1627,
      "伝": 1628,
      "伟": 1629,
      "传": 1630,
      "伦": 1631,
      "伯": 1632,
      "伴": 1633,
      "伸": 1634,
      "位": 1635,
      "住": 1636,
      "佐": 1637,
      "体": 1638,
      "何": 1639,
      "余": 1640,
      "作": 1641,
      "佟": 1642,
      "你": 1643,
      "佳": 1644,
      "使": 1645,
      "侁": 1646,
      "侂": 1647,
      "侃": 1648,
      "來": 1649,
      "例": 1650,
      "侗": 1651,
      "依": 1652,
      "侯": 1653,
      "便": 1654,
      "俄": 1655,
      "俊": 1656,
      "保": 1657,
      "信": 1658,
      "修": 1659,
      "俱": 1660,
      "俵": 1661,
      "倉": 1662,
      "倍": 1663,
      "們": 1664,
      "倘": 1665,
      "候": 1666,
      "倣": 1667,
      "倫": 1668,
      "倭": 1669,
      "偉": 1670,
      "健": 1671,
      "偵": 1672,
      "傑": 1673,
      "備": 1674,
      "傳": 1675,
      "僉": 1676,
      "僑": 1677,
      "僕": 1678,
      "僚": 1679,
      "優": 1680,
      "儿": 1681,
      "兀": 1682,
      "元": 1683,
      "充": 1684,
      "兆": 1685,
      "先": 1686,
      "光": 1687,
      "克": 1688,
      "免": 1689,
      "児": 1690,
      "兒": 1691,
      "党": 1692,
      "入": 1693,
      "內": 1694,
      "全": 1695,
      "兩": 1696,
      "兪": 1697,
      "八": 1698,
      "公": 1699,
      "六": 1700,
      "兰": 1701,
      "共": 1702,
      "关": 1703,
      "兴": 1704,
      "兵": 1705,
      "其": 1706,
      "典": 1707,
      "兼": 1708,
      "内": 1709,
      "再": 1710,
      "冒": 1711,
      "写": 1712,
      "军": 1713,
      "冠": 1714,
      "冬": 1715,
      "冯": 1716,
      "冲": 1717,
      "冶": 1718,
      "冷": 1719,
      "凉": 1720,
      "凛": 1721,
      "凡": 1722,
      "凤": 1723,
      "凯": 1724,
      "凱": 1725,
      "出": 1726,
      "函": 1727,
      "刀": 1728,
      "分": 1729,
      "刊": 1730,
      "刑": 1731,
      "列": 1732,
      "刘": 1733,
      "创": 1734,
      "初": 1735,
      "別": 1736,
      "利": 1737,
      "别": 1738,
      "到": 1739,
      "制": 1740,
      "刺": 1741,
      "則": 1742,
      "前": 1743,
      "剑": 1744,
      "剛": 1745,
      "剪": 1746,
      "創": 1747,
      "劇": 1748,
      "劉": 1749,
      "劍": 1750,
      "力": 1751,
      "办": 1752,
      "加": 1753,
      "务": 1754,
      "动": 1755,
      "助": 1756,
      "劳": 1757,
      "勁": 1758,
      "勇": 1759,
      "勉": 1760,
      "勒": 1761,
      "動": 1762,
      "勘": 1763,
      "勝": 1764,
      "勢": 1765,
      "勤": 1766,
      "勲": 1767,
      "包": 1768,
      "化": 1769,
      "北": 1770,
      "匠": 1771,
      "匡": 1772,
      "匹": 1773,
      "区": 1774,
      "医": 1775,
      "十": 1776,
      "千": 1777,
      "卅": 1778,
      "升": 1779,
      "午": 1780,
      "半": 1781,
      "卍": 1782,
      "华": 1783,
      "协": 1784,
      "卐": 1785,
      "卓": 1786,
      "協": 1787,
      "单": 1788,
      "南": 1789,
      "博": 1790,
      "占": 1791,
      "卡": 1792,
      "卫": 1793,
      "卯": 1794,
      "印": 1795,
      "危": 1796,
      "卿": 1797,
      "厂": 1798,
      "厅": 1799,
      "原": 1800,
      "去": 1801,
      "县": 1802,
      "又": 1803,
      "及": 1804,
      "友": 1805,
      "双": 1806,
      "反": 1807,
      "发": 1808,
      "叔": 1809,
      "受": 1810,
      "叛": 1811,
      "口": 1812,
      "古": 1813,
      "只": 1814,
      "台": 1815,
      "史": 1816,
      "右": 1817,
      "叶": 1818,
      "号": 1819,
      "司": 1820,
      "吃": 1821,
      "合": 1822,
      "吉": 1823,
      "同": 1824,
      "名": 1825,
      "后": 1826,
      "吏": 1827,
      "吕": 1828,
      "君": 1829,
      "含": 1830,
      "启": 1831,
      "吳": 1832,
      "吴": 1833,
      "吸": 1834,
      "吹": 1835,
      "吻": 1836,
      "吾": 1837,
      "呂": 1838,
      "员": 1839,
      "周": 1840,
      "味": 1841,
      "呼": 1842,
      "命": 1843,
      "和": 1844,
      "咏": 1845,
      "咸": 1846,
      "哀": 1847,
      "品": 1848,
      "哉": 1849,
      "哥": 1850,
      "哭": 1851,
      "哲": 1852,
      "唐": 1853,
      "唱": 1854,
      "商": 1855,
      "啓": 1856,
      "啜": 1857,
      "啟": 1858,
      "善": 1859,
      "喆": 1860,
      "喊": 1861,
      "喜": 1862,
      "喣": 1863,
      "喬": 1864,
      "嗣": 1865,
      "嘉": 1866,
      "嚳": 1867,
      "四": 1868,
      "回": 1869,
      "因": 1870,
      "団": 1871,
      "园": 1872,
      "固": 1873,
      "国": 1874,
      "圆": 1875,
      "國": 1876,
      "園": 1877,
      "圓": 1878,
      "土": 1879,
      "圣": 1880,
      "在": 1881,
      "圩": 1882,
      "圭": 1883,
      "地": 1884,
      "场": 1885,
      "址": 1886,
      "坂": 1887,
      "坊": 1888,
      "坎": 1889,
      "坚": 1890,
      "坝": 1891,
      "坞": 1892,
      "坡": 1893,
      "坤": 1894,
      "坦": 1895,
      "坪": 1896,
      "型": 1897,
      "垣": 1898,
      "埃": 1899,
      "城": 1900,
      "域": 1901,
      "埴": 1902,
      "培": 1903,
      "基": 1904,
      "堂": 1905,
      "堅": 1906,
      "堡": 1907,
      "堯": 1908,
      "報": 1909,
      "場": 1910,
      "塔": 1911,
      "塗": 1912,
      "塘": 1913,
      "塚": 1914,
      "塢": 1915,
      "塩": 1916,
      "墓": 1917,
      "増": 1918,
      "增": 1919,
      "士": 1920,
      "壬": 1921,
      "声": 1922,
      "壽": 1923,
      "处": 1924,
      "夏": 1925,
      "夕": 1926,
      "外": 1927,
      "多": 1928,
      "夜": 1929,
      "夢": 1930,
      "大": 1931,
      "天": 1932,
      "太": 1933,
      "夫": 1934,
      "头": 1935,
      "奇": 1936,
      "奈": 1937,
      "奉": 1938,
      "奏": 1939,
      "奐": 1940,
      "奥": 1941,
      "奮": 1942,
      "女": 1943,
      "奴": 1944,
      "她": 1945,
      "好": 1946,
      "如": 1947,
      "妃": 1948,
      "妖": 1949,
      "妙": 1950,
      "妻": 1951,
      "始": 1952,
      "姜": 1953,
      "姫": 1954,
      "威": 1955,
      "娄": 1956,
      "娘": 1957,
      "娟": 1958,
      "婆": 1959,
      "婉": 1960,
      "婚": 1961,
      "婷": 1962,
      "媚": 1963,
      "嫂": 1964,
      "嫖": 1965,
      "嫻": 1966,
      "嬸": 1967,
      "子": 1968,
      "孔": 1969,
      "字": 1970,
      "存": 1971,
      "孙": 1972,
      "孚": 1973,
      "孜": 1974,
      "孝": 1975,
      "孟": 1976,
      "季": 1977,
      "孤": 1978,
      "学": 1979,
      "孩": 1980,
      "孫": 1981,
      "學": 1982,
      "宁": 1983,
      "宅": 1984,
      "宇": 1985,
      "守": 1986,
      "安": 1987,
      "完": 1988,
      "宏": 1989,
      "宗": 1990,
      "官": 1991,
      "定": 1992,
      "宜": 1993,
      "宝": 1994,
      "実": 1995,
      "宣": 1996,
      "室": 1997,
      "宫": 1998,
      "宮": 1999,
      "宴": 2000,
      "家": 2001,
      "宸": 2002,
      "寂": 2003,
      "寅": 2004,
      "密": 2005,
      "富": 2006,
      "寒": 2007,
      "寝": 2008,
      "察": 2009,
      "寡": 2010,
      "實": 2011,
      "寧": 2012,
      "寨": 2013,
      "寫": 2014,
      "寰": 2015,
      "寶": 2016,
      "对": 2017,
      "寺": 2018,
      "寿": 2019,
      "封": 2020,
      "將": 2021,
      "對": 2022,
      "導": 2023,
      "小": 2024,
      "少": 2025,
      "尔": 2026,
      "尚": 2027,
      "尤": 2028,
      "尧": 2029,
      "就": 2030,
      "尹": 2031,
      "尺": 2032,
      "尻": 2033,
      "尼": 2034,
      "尾": 2035,
      "局": 2036,
      "层": 2037,
      "居": 2038,
      "屈": 2039,
      "届": 2040,
      "屋": 2041,
      "屏": 2042,
      "展": 2043,
      "屠": 2044,
      "履": 2045,
      "屯": 2046,
      "山": 2047,
      "岐": 2048,
      "岔": 2049,
      "岡": 2050,
      "岩": 2051,
      "岭": 2052,
      "岳": 2053,
      "岷": 2054,
      "岸": 2055,
      "峒": 2056,
      "峰": 2057,
      "島": 2058,
      "崇": 2059,
      "崎": 2060,
      "崩": 2061,
      "嵌": 2062,
      "嵐": 2063,
      "嶋": 2064,
      "嶠": 2065,
      "嶺": 2066,
      "巂": 2067,
      "巌": 2068,
      "川": 2069,
      "州": 2070,
      "巢": 2071,
      "工": 2072,
      "左": 2073,
      "巧": 2074,
      "己": 2075,
      "已": 2076,
      "巳": 2077,
      "巴": 2078,
      "巽": 2079,
      "币": 2080,
      "市": 2081,
      "布": 2082,
      "帆": 2083,
      "师": 2084,
      "希": 2085,
      "帝": 2086,
      "带": 2087,
      "師": 2088,
      "帶": 2089,
      "幕": 2090,
      "平": 2091,
      "年": 2092,
      "幸": 2093,
      "幹": 2094,
      "幻": 2095,
      "幽": 2096,
      "广": 2097,
      "広": 2098,
      "庄": 2099,
      "庆": 2100,
      "库": 2101,
      "应": 2102,
      "店": 2103,
      "庙": 2104,
      "府": 2105,
      "度": 2106,
      "庭": 2107,
      "庵": 2108,
      "庶": 2109,
      "康": 2110,
      "廉": 2111,
      "廖": 2112,
      "廟": 2113,
      "廣": 2114,
      "延": 2115,
      "建": 2116,
      "廻": 2117,
      "开": 2118,
      "异": 2119,
      "式": 2120,
      "引": 2121,
      "弘": 2122,
      "张": 2123,
      "弥": 2124,
      "弧": 2125,
      "張": 2126,
      "強": 2127,
      "强": 2128,
      "弼": 2129,
      "彌": 2130,
      "归": 2131,
      "当": 2132,
      "录": 2133,
      "彘": 2134,
      "形": 2135,
      "彦": 2136,
      "彩": 2137,
      "彪": 2138,
      "彬": 2139,
      "彰": 2140,
      "影": 2141,
      "彼": 2142,
      "征": 2143,
      "待": 2144,
      "律": 2145,
      "後": 2146,
      "徐": 2147,
      "徒": 2148,
      "得": 2149,
      "從": 2150,
      "復": 2151,
      "微": 2152,
      "徳": 2153,
      "德": 2154,
      "徹": 2155,
      "徽": 2156,
      "心": 2157,
      "必": 2158,
      "忍": 2159,
      "忏": 2160,
      "志": 2161,
      "応": 2162,
      "忠": 2163,
      "念": 2164,
      "忻": 2165,
      "思": 2166,
      "怪": 2167,
      "总": 2168,
      "恋": 2169,
      "恒": 2170,
      "恩": 2171,
      "恭": 2172,
      "息": 2173,
      "恰": 2174,
      "悅": 2175,
      "悔": 2176,
      "悟": 2177,
      "悦": 2178,
      "悪": 2179,
      "情": 2180,
      "惊": 2181,
      "惟": 2182,
      "惠": 2183,
      "想": 2184,
      "意": 2185,
      "愛": 2186,
      "感": 2187,
      "慈": 2188,
      "慧": 2189,
      "慶": 2190,
      "憙": 2191,
      "憲": 2192,
      "憶": 2193,
      "應": 2194,
      "懲": 2195,
      "懷": 2196,
      "懿": 2197,
      "戀": 2198,
      "戎": 2199,
      "成": 2200,
      "我": 2201,
      "战": 2202,
      "戦": 2203,
      "戴": 2204,
      "戸": 2205,
      "房": 2206,
      "所": 2207,
      "扉": 2208,
      "手": 2209,
      "才": 2210,
      "托": 2211,
      "扫": 2212,
      "扬": 2213,
      "承": 2214,
      "技": 2215,
      "抄": 2216,
      "把": 2217,
      "投": 2218,
      "折": 2219,
      "抚": 2220,
      "护": 2221,
      "报": 2222,
      "押": 2223,
      "拉": 2224,
      "拓": 2225,
      "拜": 2226,
      "拯": 2227,
      "持": 2228,
      "指": 2229,
      "挫": 2230,
      "振": 2231,
      "捜": 2232,
      "捨": 2233,
      "授": 2234,
      "掌": 2235,
      "排": 2236,
      "探": 2237,
      "推": 2238,
      "揆": 2239,
      "提": 2240,
      "揚": 2241,
      "揮": 2242,
      "援": 2243,
      "揺": 2244,
      "摩": 2245,
      "撃": 2246,
      "播": 2247,
      "支": 2248,
      "改": 2249,
      "放": 2250,
      "政": 2251,
      "故": 2252,
      "敏": 2253,
      "救": 2254,
      "敕": 2255,
      "教": 2256,
      "敞": 2257,
      "敦": 2258,
      "敬": 2259,
      "数": 2260,
      "整": 2261,
      "敵": 2262,
      "文": 2263,
      "斉": 2264,
      "斌": 2265,
      "斎": 2266,
      "料": 2267,
      "斜": 2268,
      "斡": 2269,
      "断": 2270,
      "新": 2271,
      "方": 2272,
      "於": 2273,
      "旋": 2274,
      "族": 2275,
      "旗": 2276,
      "无": 2277,
      "日": 2278,
      "旦": 2279,
      "旧": 2280,
      "旭": 2281,
      "时": 2282,
      "旺": 2283,
      "昀": 2284,
      "昆": 2285,
      "昇": 2286,
      "昊": 2287,
      "昌": 2288,
      "明": 2289,
      "昐": 2290,
      "星": 2291,
      "映": 2292,
      "春": 2293,
      "昧": 2294,
      "昭": 2295,
      "是": 2296,
      "時": 2297,
      "晃": 2298,
      "晉": 2299,
      "晋": 2300,
      "晓": 2301,
      "晝": 2302,
      "晨": 2303,
      "普": 2304,
      "景": 2305,
      "晴": 2306,
      "晶": 2307,
      "智": 2308,
      "暁": 2309,
      "暉": 2310,
      "暑": 2311,
      "暢": 2312,
      "暹": 2313,
      "曆": 2314,
      "曜": 2315,
      "曲": 2316,
      "更": 2317,
      "書": 2318,
      "曹": 2319,
      "曽": 2320,
      "曾": 2321,
      "最": 2322,
      "會": 2323,
      "月": 2324,
      "有": 2325,
      "服": 2326,
      "朔": 2327,
      "朗": 2328,
      "期": 2329,
      "木": 2330,
      "未": 2331,
      "末": 2332,
      "本": 2333,
      "术": 2334,
      "朱": 2335,
      "朴": 2336,
      "朵": 2337,
      "机": 2338,
      "权": 2339,
      "杉": 2340,
      "李": 2341,
      "村": 2342,
      "杜": 2343,
      "杞": 2344,
      "条": 2345,
      "来": 2346,
      "杨": 2347,
      "杭": 2348,
      "杰": 2349,
      "東": 2350,
      "松": 2351,
      "板": 2352,
      "林": 2353,
      "果": 2354,
      "枝": 2355,
      "枧": 2356,
      "枯": 2357,
      "柏": 2358,
      "柔": 2359,
      "柞": 2360,
      "柯": 2361,
      "柱": 2362,
      "柳": 2363,
      "栄": 2364,
      "标": 2365,
      "栋": 2366,
      "树": 2367,
      "栖": 2368,
      "栗": 2369,
      "校": 2370,
      "根": 2371,
      "格": 2372,
      "桂": 2373,
      "桃": 2374,
      "案": 2375,
      "桑": 2376,
      "桓": 2377,
      "桝": 2378,
      "档": 2379,
      "桥": 2380,
      "梁": 2381,
      "梅": 2382,
      "條": 2383,
      "梦": 2384,
      "梨": 2385,
      "检": 2386,
      "棚": 2387,
      "森": 2388,
      "椎": 2389,
      "椿": 2390,
      "楊": 2391,
      "楚": 2392,
      "楞": 2393,
      "楠": 2394,
      "楫": 2395,
      "業": 2396,
      "楷": 2397,
      "楼": 2398,
      "楽": 2399,
      "概": 2400,
      "榊": 2401,
      "榕": 2402,
      "榮": 2403,
      "樂": 2404,
      "樊": 2405,
      "樋": 2406,
      "樟": 2407,
      "模": 2408,
      "横": 2409,
      "樹": 2410,
      "橋": 2411,
      "機": 2412,
      "橫": 2413,
      "檢": 2414,
      "權": 2415,
      "欒": 2416,
      "次": 2417,
      "欣": 2418,
      "欽": 2419,
      "款": 2420,
      "歌": 2421,
      "歐": 2422,
      "歓": 2423,
      "止": 2424,
      "正": 2425,
      "步": 2426,
      "武": 2427,
      "歲": 2428,
      "歷": 2429,
      "歸": 2430,
      "死": 2431,
      "殇": 2432,
      "殊": 2433,
      "段": 2434,
      "殷": 2435,
      "殺": 2436,
      "毋": 2437,
      "母": 2438,
      "毒": 2439,
      "毓": 2440,
      "毛": 2441,
      "氏": 2442,
      "氐": 2443,
      "民": 2444,
      "気": 2445,
      "水": 2446,
      "永": 2447,
      "汉": 2448,
      "汐": 2449,
      "汝": 2450,
      "江": 2451,
      "池": 2452,
      "汪": 2453,
      "汶": 2454,
      "決": 2455,
      "汾": 2456,
      "沈": 2457,
      "沉": 2458,
      "沙": 2459,
      "沛": 2460,
      "沟": 2461,
      "沢": 2462,
      "沧": 2463,
      "河": 2464,
      "油": 2465,
      "治": 2466,
      "沿": 2467,
      "況": 2468,
      "泉": 2469,
      "法": 2470,
      "泡": 2471,
      "波": 2472,
      "注": 2473,
      "泰": 2474,
      "泷": 2475,
      "泽": 2476,
      "洋": 2477,
      "洛": 2478,
      "洞": 2479,
      "津": 2480,
      "洪": 2481,
      "洮": 2482,
      "洲": 2483,
      "活": 2484,
      "洼": 2485,
      "派": 2486,
      "流": 2487,
      "浅": 2488,
      "浍": 2489,
      "济": 2490,
      "浦": 2491,
      "浩": 2492,
      "浪": 2493,
      "浮": 2494,
      "海": 2495,
      "涂": 2496,
      "涅": 2497,
      "涌": 2498,
      "涤": 2499,
      "涪": 2500,
      "淀": 2501,
      "淑": 2502,
      "淦": 2503,
      "淨": 2504,
      "淳": 2505,
      "淵": 2506,
      "清": 2507,
      "渉": 2508,
      "渔": 2509,
      "渡": 2510,
      "温": 2511,
      "港": 2512,
      "渾": 2513,
      "湖": 2514,
      "湘": 2515,
      "湛": 2516,
      "湾": 2517,
      "満": 2518,
      "源": 2519,
      "溪": 2520,
      "溫": 2521,
      "溶": 2522,
      "滇": 2523,
      "滔": 2524,
      "滨": 2525,
      "滿": 2526,
      "漁": 2527,
      "漏": 2528,
      "演": 2529,
      "漠": 2530,
      "漢": 2531,
      "漫": 2532,
      "漱": 2533,
      "潍": 2534,
      "潔": 2535,
      "潘": 2536,
      "潢": 2537,
      "潤": 2538,
      "潮": 2539,
      "潼": 2540,
      "澤": 2541,
      "濕": 2542,
      "濱": 2543,
      "瀬": 2544,
      "灌": 2545,
      "灘": 2546,
      "灣": 2547,
      "火": 2548,
      "灯": 2549,
      "灵": 2550,
      "炊": 2551,
      "炎": 2552,
      "炯": 2553,
      "為": 2554,
      "烈": 2555,
      "烏": 2556,
      "烟": 2557,
      "烦": 2558,
      "热": 2559,
      "無": 2560,
      "然": 2561,
      "煊": 2562,
      "煕": 2563,
      "煤": 2564,
      "熙": 2565,
      "熟": 2566,
      "燊": 2567,
      "爱": 2568,
      "片": 2569,
      "版": 2570,
      "牌": 2571,
      "牒": 2572,
      "牙": 2573,
      "牛": 2574,
      "牡": 2575,
      "物": 2576,
      "特": 2577,
      "犁": 2578,
      "犍": 2579,
      "犛": 2580,
      "狀": 2581,
      "狂": 2582,
      "狠": 2583,
      "狩": 2584,
      "独": 2585,
      "猪": 2586,
      "献": 2587,
      "獄": 2588,
      "獎": 2589,
      "獣": 2590,
      "獨": 2591,
      "獲": 2592,
      "獸": 2593,
      "獻": 2594,
      "玉": 2595,
      "王": 2596,
      "现": 2597,
      "珀": 2598,
      "珊": 2599,
      "珍": 2600,
      "珮": 2601,
      "球": 2602,
      "琄": 2603,
      "理": 2604,
      "琛": 2605,
      "琢": 2606,
      "琥": 2607,
      "琮": 2608,
      "琳": 2609,
      "瑋": 2610,
      "瑜": 2611,
      "瑞": 2612,
      "瑶": 2613,
      "瓊": 2614,
      "瓶": 2615,
      "甄": 2616,
      "甘": 2617,
      "生": 2618,
      "用": 2619,
      "甫": 2620,
      "田": 2621,
      "由": 2622,
      "甲": 2623,
      "电": 2624,
      "男": 2625,
      "町": 2626,
      "画": 2627,
      "界": 2628,
      "畑": 2629,
      "畢": 2630,
      "番": 2631,
      "異": 2632,
      "畿": 2633,
      "疁": 2634,
      "疆": 2635,
      "疋": 2636,
      "疱": 2637,
      "疼": 2638,
      "病": 2639,
      "症": 2640,
      "瘡": 2641,
      "発": 2642,
      "登": 2643,
      "白": 2644,
      "百": 2645,
      "的": 2646,
      "皇": 2647,
      "皖": 2648,
      "皮": 2649,
      "盐": 2650,
      "盘": 2651,
      "盛": 2652,
      "盟": 2653,
      "監": 2654,
      "目": 2655,
      "直": 2656,
      "相": 2657,
      "省": 2658,
      "看": 2659,
      "眜": 2660,
      "真": 2661,
      "眠": 2662,
      "督": 2663,
      "睦": 2664,
      "睿": 2665,
      "瞳": 2666,
      "瞻": 2667,
      "瞿": 2668,
      "矗": 2669,
      "矢": 2670,
      "知": 2671,
      "矩": 2672,
      "石": 2673,
      "矸": 2674,
      "矿": 2675,
      "砂": 2676,
      "研": 2677,
      "破": 2678,
      "碑": 2679,
      "碣": 2680,
      "磨": 2681,
      "社": 2682,
      "祐": 2683,
      "祖": 2684,
      "神": 2685,
      "祥": 2686,
      "祭": 2687,
      "祿": 2688,
      "禁": 2689,
      "禅": 2690,
      "福": 2691,
      "禦": 2692,
      "禪": 2693,
      "禮": 2694,
      "禹": 2695,
      "禺": 2696,
      "离": 2697,
      "禾": 2698,
      "秀": 2699,
      "私": 2700,
      "秉": 2701,
      "秋": 2702,
      "科": 2703,
      "秘": 2704,
      "秦": 2705,
      "程": 2706,
      "稔": 2707,
      "種": 2708,
      "稲": 2709,
      "穆": 2710,
      "穗": 2711,
      "穰": 2712,
      "穴": 2713,
      "究": 2714,
      "空": 2715,
      "突": 2716,
      "窗": 2717,
      "窝": 2718,
      "窪": 2719,
      "立": 2720,
      "站": 2721,
      "竜": 2722,
      "竞": 2723,
      "章": 2724,
      "竤": 2725,
      "童": 2726,
      "競": 2727,
      "竹": 2728,
      "笑": 2729,
      "笙": 2730,
      "符": 2731,
      "第": 2732,
      "等": 2733,
      "筒": 2734,
      "筠": 2735,
      "筰": 2736,
      "箐": 2737,
      "管": 2738,
      "箬": 2739,
      "箱": 2740,
      "節": 2741,
      "範": 2742,
      "築": 2743,
      "篠": 2744,
      "篤": 2745,
      "籌": 2746,
      "籍": 2747,
      "米": 2748,
      "粉": 2749,
      "粟": 2750,
      "粲": 2751,
      "精": 2752,
      "糊": 2753,
      "糕": 2754,
      "糸": 2755,
      "系": 2756,
      "紀": 2757,
      "約": 2758,
      "純": 2759,
      "紙": 2760,
      "素": 2761,
      "索": 2762,
      "紫": 2763,
      "細": 2764,
      "紹": 2765,
      "経": 2766,
      "結": 2767,
      "絞": 2768,
      "經": 2769,
      "続": 2770,
      "維": 2771,
      "綰": 2772,
      "綱": 2773,
      "網": 2774,
      "綴": 2775,
      "綺": 2776,
      "総": 2777,
      "緘": 2778,
      "線": 2779,
      "編": 2780,
      "緯": 2781,
      "縣": 2782,
      "縦": 2783,
      "縮": 2784,
      "總": 2785,
      "繁": 2786,
      "繆": 2787,
      "繼": 2788,
      "红": 2789,
      "级": 2790,
      "纪": 2791,
      "纲": 2792,
      "纸": 2793,
      "绍": 2794,
      "经": 2795,
      "统": 2796,
      "继": 2797,
      "绳": 2798,
      "维": 2799,
      "绿": 2800,
      "编": 2801,
      "罗": 2802,
      "罠": 2803,
      "罪": 2804,
      "署": 2805,
      "罴": 2806,
      "罷": 2807,
      "羅": 2808,
      "羊": 2809,
      "美": 2810,
      "羞": 2811,
      "羡": 2812,
      "羣": 2813,
      "群": 2814,
      "義": 2815,
      "羽": 2816,
      "翅": 2817,
      "習": 2818,
      "翔": 2819,
      "翰": 2820,
      "翼": 2821,
      "耀": 2822,
      "老": 2823,
      "考": 2824,
      "者": 2825,
      "而": 2826,
      "耕": 2827,
      "耿": 2828,
      "聊": 2829,
      "职": 2830,
      "联": 2831,
      "聖": 2832,
      "聚": 2833,
      "聞": 2834,
      "聯": 2835,
      "聰": 2836,
      "聲": 2837,
      "肇": 2838,
      "股": 2839,
      "肥": 2840,
      "肩": 2841,
      "肯": 2842,
      "育": 2843,
      "胄": 2844,
      "背": 2845,
      "胜": 2846,
      "胡": 2847,
      "胤": 2848,
      "胴": 2849,
      "胶": 2850,
      "能": 2851,
      "脇": 2852,
      "脚": 2853,
      "脩": 2854,
      "腊": 2855,
      "腋": 2856,
      "腕": 2857,
      "腰": 2858,
      "腸": 2859,
      "腹": 2860,
      "膀": 2861,
      "膝": 2862,
      "膳": 2863,
      "臣": 2864,
      "臥": 2865,
      "臧": 2866,
      "自": 2867,
      "至": 2868,
      "臺": 2869,
      "與": 2870,
      "興": 2871,
      "舉": 2872,
      "舘": 2873,
      "舜": 2874,
      "舞": 2875,
      "舟": 2876,
      "航": 2877,
      "舰": 2878,
      "良": 2879,
      "色": 2880,
      "艺": 2881,
      "艾": 2882,
      "节": 2883,
      "芜": 2884,
      "芦": 2885,
      "芬": 2886,
      "花": 2887,
      "芳": 2888,
      "芷": 2889,
      "苍": 2890,
      "苏": 2891,
      "苗": 2892,
      "若": 2893,
      "苦": 2894,
      "英": 2895,
      "苹": 2896,
      "茂": 2897,
      "范": 2898,
      "茨": 2899,
      "草": 2900,
      "荐": 2901,
      "荒": 2902,
      "荣": 2903,
      "荷": 2904,
      "荼": 2905,
      "莊": 2906,
      "莫": 2907,
      "莱": 2908,
      "莲": 2909,
      "莽": 2910,
      "菇": 2911,
      "菊": 2912,
      "菜": 2913,
      "菠": 2914,
      "華": 2915,
      "菴": 2916,
      "萊": 2917,
      "萍": 2918,
      "营": 2919,
      "萨": 2920,
      "萬": 2921,
      "落": 2922,
      "葉": 2923,
      "著": 2924,
      "葛": 2925,
      "董": 2926,
      "蒋": 2927,
      "蒙": 2928,
      "蒨": 2929,
      "蒲": 2930,
      "蒼": 2931,
      "蓑": 2932,
      "蓝": 2933,
      "蓬": 2934,
      "蓼": 2935,
      "蔀": 2936,
      "蔘": 2937,
      "蔡": 2938,
      "蔵": 2939,
      "蕨": 2940,
      "蕭": 2941,
      "蕴": 2942,
      "薄": 2943,
      "薇": 2944,
      "薩": 2945,
      "薬": 2946,
      "藏": 2947,
      "藤": 2948,
      "藥": 2949,
      "蘇": 2950,
      "蘊": 2951,
      "蘑": 2952,
      "蘭": 2953,
      "蘿": 2954,
      "虎": 2955,
      "虞": 2956,
      "虫": 2957,
      "虹": 2958,
      "虾": 2959,
      "蚡": 2960,
      "蚣": 2961,
      "蛇": 2962,
      "蛭": 2963,
      "蜈": 2964,
      "蜜": 2965,
      "蝉": 2966,
      "蝴": 2967,
      "蝶": 2968,
      "融": 2969,
      "螺": 2970,
      "行": 2971,
      "術": 2972,
      "街": 2973,
      "衛": 2974,
      "衡": 2975,
      "衣": 2976,
      "表": 2977,
      "袁": 2978,
      "袈": 2979,
      "袖": 2980,
      "裁": 2981,
      "裏": 2982,
      "裕": 2983,
      "裘": 2984,
      "補": 2985,
      "裟": 2986,
      "裴": 2987,
      "裸": 2988,
      "製": 2989,
      "複": 2990,
      "褚": 2991,
      "襄": 2992,
      "襟": 2993,
      "西": 2994,
      "要": 2995,
      "見": 2996,
      "視": 2997,
      "覚": 2998,
      "覧": 2999,
      "親": 3000,
      "観": 3001,
      "覺": 3002,
      "觀": 3003,
      "观": 3004,
      "视": 3005,
      "览": 3006,
      "角": 3007,
      "解": 3008,
      "言": 3009,
      "計": 3010,
      "訊": 3011,
      "記": 3012,
      "許": 3013,
      "訳": 3014,
      "訶": 3015,
      "証": 3016,
      "詔": 3017,
      "詠": 3018,
      "試": 3019,
      "詩": 3020,
      "話": 3021,
      "誉": 3022,
      "誌": 3023,
      "語": 3024,
      "誠": 3025,
      "誨": 3026,
      "課": 3027,
      "談": 3028,
      "論": 3029,
      "諱": 3030,
      "諸": 3031,
      "謌": 3032,
      "謙": 3033,
      "講": 3034,
      "謝": 3035,
      "譚": 3036,
      "警": 3037,
      "譽": 3038,
      "记": 3039,
      "许": 3040,
      "设": 3041,
      "语": 3042,
      "谁": 3043,
      "谷": 3044,
      "豚": 3045,
      "豪": 3046,
      "貝": 3047,
      "貞": 3048,
      "財": 3049,
      "貧": 3050,
      "貫": 3051,
      "貴": 3052,
      "賀": 3053,
      "資": 3054,
      "賈": 3055,
      "賜": 3056,
      "賢": 3057,
      "賣": 3058,
      "賦": 3059,
      "賴": 3060,
      "财": 3061,
      "购": 3062,
      "贯": 3063,
      "贵": 3064,
      "贺": 3065,
      "资": 3066,
      "赢": 3067,
      "赫": 3068,
      "赵": 3069,
      "起": 3070,
      "超": 3071,
      "越": 3072,
      "趙": 3073,
      "足": 3074,
      "跨": 3075,
      "路": 3076,
      "跳": 3077,
      "践": 3078,
      "蹴": 3079,
      "身": 3080,
      "車": 3081,
      "軍": 3082,
      "軒": 3083,
      "較": 3084,
      "輝": 3085,
      "輿": 3086,
      "车": 3087,
      "轻": 3088,
      "辉": 3089,
      "辰": 3090,
      "農": 3091,
      "辺": 3092,
      "辻": 3093,
      "込": 3094,
      "达": 3095,
      "迄": 3096,
      "过": 3097,
      "迈": 3098,
      "迎": 3099,
      "运": 3100,
      "近": 3101,
      "进": 3102,
      "远": 3103,
      "迷": 3104,
      "退": 3105,
      "送": 3106,
      "逆": 3107,
      "选": 3108,
      "途": 3109,
      "這": 3110,
      "通": 3111,
      "逝": 3112,
      "速": 3113,
      "連": 3114,
      "進": 3115,
      "逸": 3116,
      "遂": 3117,
      "運": 3118,
      "過": 3119,
      "道": 3120,
      "達": 3121,
      "遠": 3122,
      "遵": 3123,
      "選": 3124,
      "遼": 3125,
      "邑": 3126,
      "邓": 3127,
      "邢": 3128,
      "那": 3129,
      "邦": 3130,
      "邪": 3131,
      "邵": 3132,
      "郊": 3133,
      "郎": 3134,
      "郑": 3135,
      "郝": 3136,
      "郡": 3137,
      "部": 3138,
      "郭": 3139,
      "郷": 3140,
      "都": 3141,
      "鄣": 3142,
      "鄭": 3143,
      "鄯": 3144,
      "酏": 3145,
      "酒": 3146,
      "醒": 3147,
      "醫": 3148,
      "醴": 3149,
      "采": 3150,
      "釉": 3151,
      "里": 3152,
      "重": 3153,
      "野": 3154,
      "金": 3155,
      "釗": 3156,
      "鈍": 3157,
      "鈞": 3158,
      "鈴": 3159,
      "銀": 3160,
      "銘": 3161,
      "錄": 3162,
      "錢": 3163,
      "錦": 3164,
      "錫": 3165,
      "鍈": 3166,
      "鍵": 3167,
      "鎌": 3168,
      "鎖": 3169,
      "鎬": 3170,
      "鎮": 3171,
      "鏈": 3172,
      "鐵": 3173,
      "钢": 3174,
      "钧": 3175,
      "钱": 3176,
      "铁": 3177,
      "铭": 3178,
      "银": 3179,
      "铺": 3180,
      "铿": 3181,
      "锅": 3182,
      "锦": 3183,
      "镇": 3184,
      "镕": 3185,
      "長": 3186,
      "长": 3187,
      "門": 3188,
      "開": 3189,
      "間": 3190,
      "関": 3191,
      "閥": 3192,
      "關": 3193,
      "闞": 3194,
      "门": 3195,
      "闯": 3196,
      "间": 3197,
      "阎": 3198,
      "阪": 3199,
      "阮": 3200,
      "防": 3201,
      "阳": 3202,
      "阶": 3203,
      "阿": 3204,
      "附": 3205,
      "际": 3206,
      "陆": 3207,
      "陇": 3208,
      "陈": 3209,
      "降": 3210,
      "限": 3211,
      "陕": 3212,
      "陛": 3213,
      "院": 3214,
      "陰": 3215,
      "陳": 3216,
      "陵": 3217,
      "陶": 3218,
      "険": 3219,
      "陽": 3220,
      "隆": 3221,
      "隊": 3222,
      "隍": 3223,
      "階": 3224,
      "際": 3225,
      "隠": 3226,
      "隧": 3227,
      "隶": 3228,
      "隻": 3229,
      "难": 3230,
      "雁": 3231,
      "雄": 3232,
      "雅": 3233,
      "集": 3234,
      "雌": 3235,
      "雍": 3236,
      "雜": 3237,
      "雞": 3238,
      "雨": 3239,
      "雪": 3240,
      "雯": 3241,
      "雲": 3242,
      "雷": 3243,
      "電": 3244,
      "霆": 3245,
      "震": 3246,
      "霊": 3247,
      "霜": 3248,
      "青": 3249,
      "靖": 3250,
      "静": 3251,
      "非": 3252,
      "面": 3253,
      "革": 3254,
      "靳": 3255,
      "韋": 3256,
      "韓": 3257,
      "韩": 3258,
      "音": 3259,
      "韵": 3260,
      "韶": 3261,
      "響": 3262,
      "順": 3263,
      "頊": 3264,
      "預": 3265,
      "頒": 3266,
      "頭": 3267,
      "頻": 3268,
      "顓": 3269,
      "顕": 3270,
      "類": 3271,
      "顯": 3272,
      "页": 3273,
      "顺": 3274,
      "顾": 3275,
      "领": 3276,
      "频": 3277,
      "额": 3278,
      "風": 3279,
      "风": 3280,
      "飛": 3281,
      "飞": 3282,
      "食": 3283,
      "飯": 3284,
      "餘": 3285,
      "館": 3286,
      "饼": 3287,
      "馆": 3288,
      "首": 3289,
      "香": 3290,
      "馥": 3291,
      "馨": 3292,
      "馬": 3293,
      "馮": 3294,
      "駅": 3295,
      "駕": 3296,
      "駿": 3297,
      "騙": 3298,
      "马": 3299,
      "骅": 3300,
      "骆": 3301,
      "骏": 3302,
      "高": 3303,
      "髙": 3304,
      "鬥": 3305,
      "魁": 3306,
      "魔": 3307,
      "魚": 3308,
      "魯": 3309,
      "鱼": 3310,
      "鲁": 3311,
      "鳀": 3312,
      "鵬": 3313,
      "鶴": 3314,
      "鷲": 3315,
      "鸡": 3316,
      "鸣": 3317,
      "鹃": 3318,
      "鹏": 3319,
      "鹤": 3320,
      "鹰": 3321,
      "鹿": 3322,
      "麗": 3323,
      "麟": 3324,
      "麦": 3325,
      "麻": 3326,
      "麿": 3327,
      "黃": 3328,
      "黄": 3329,
      "黎": 3330,
      "黑": 3331,
      "黒": 3332,
      "鼎": 3333,
      "鼐": 3334,
      "鼓": 3335,
      "鼠": 3336,
      "齊": 3337,
      "齡": 3338,
      "龍": 3339,
      "龙": 3340,
      "龚": 3341,
      "龜": 3342,
      "Ꙑ": 3343,
      "ꙑ": 3344,
      "Ꚅ": 3345,
      "ꚅ": 3346,
      "ꞌ": 3347,
      "가": 3348,
      "각": 3349,
      "간": 3350,
      "갈": 3351,
      "감": 3352,
      "갔": 3353,
      "강": 3354,
      "같": 3355,
      "개": 3356,
      "거": 3357,
      "건": 3358,
      "걸": 3359,
      "검": 3360,
      "게": 3361,
      "겨": 3362,
      "격": 3363,
      "견": 3364,
      "결": 3365,
      "경": 3366,
      "계": 3367,
      "고": 3368,
      "곡": 3369,
      "곤": 3370,
      "골": 3371,
      "곱": 3372,
      "공": 3373,
      "과": 3374,
      "곽": 3375,
      "관": 3376,
      "광": 3377,
      "괴": 3378,
      "교": 3379,
      "구": 3380,
      "국": 3381,
      "군": 3382,
      "굴": 3383,
      "굿": 3384,
      "권": 3385,
      "귀": 3386,
      "규": 3387,
      "그": 3388,
      "극": 3389,
      "근": 3390,
      "금": 3391,
      "기": 3392,
      "긷": 3393,
      "길": 3394,
      "김": 3395,
      "까": 3396,
      "깨": 3397,
      "꽃": 3398,
      "꿈": 3399,
      "끄": 3400,
      "끈": 3401,
      "끓": 3402,
      "끼": 3403,
      "낀": 3404,
      "나": 3405,
      "낙": 3406,
      "날": 3407,
      "남": 3408,
      "내": 3409,
      "냉": 3410,
      "너": 3411,
      "널": 3412,
      "넘": 3413,
      "넛": 3414,
      "네": 3415,
      "녀": 3416,
      "년": 3417,
      "노": 3418,
      "논": 3419,
      "누": 3420,
      "뉴": 3421,
      "느": 3422,
      "늑": 3423,
      "는": 3424,
      "늘": 3425,
      "능": 3426,
      "니": 3427,
      "다": 3428,
      "단": 3429,
      "달": 3430,
      "닷": 3431,
      "당": 3432,
      "대": 3433,
      "댕": 3434,
      "더": 3435,
      "덕": 3436,
      "데": 3437,
      "도": 3438,
      "독": 3439,
      "돈": 3440,
      "돌": 3441,
      "동": 3442,
      "되": 3443,
      "두": 3444,
      "둥": 3445,
      "드": 3446,
      "들": 3447,
      "등": 3448,
      "디": 3449,
      "딸": 3450,
      "땅": 3451,
      "떻": 3452,
      "뜻": 3453,
      "라": 3454,
      "락": 3455,
      "람": 3456,
      "랑": 3457,
      "래": 3458,
      "랙": 3459,
      "랜": 3460,
      "랩": 3461,
      "량": 3462,
      "러": 3463,
      "런": 3464,
      "레": 3465,
      "려": 3466,
      "력": 3467,
      "로": 3468,
      "록": 3469,
      "론": 3470,
      "룡": 3471,
      "루": 3472,
      "를": 3473,
      "름": 3474,
      "리": 3475,
      "린": 3476,
      "림": 3477,
      "립": 3478,
      "마": 3479,
      "막": 3480,
      "만": 3481,
      "말": 3482,
      "맙": 3483,
      "맛": 3484,
      "망": 3485,
      "맞": 3486,
      "매": 3487,
      "머": 3488,
      "먼": 3489,
      "멍": 3490,
      "메": 3491,
      "며": 3492,
      "면": 3493,
      "명": 3494,
      "모": 3495,
      "목": 3496,
      "몬": 3497,
      "못": 3498,
      "무": 3499,
      "문": 3500,
      "물": 3501,
      "미": 3502,
      "민": 3503,
      "믿": 3504,
      "밀": 3505,
      "바": 3506,
      "박": 3507,
      "반": 3508,
      "방": 3509,
      "배": 3510,
      "백": 3511,
      "버": 3512,
      "번": 3513,
      "범": 3514,
      "법": 3515,
      "베": 3516,
      "벤": 3517,
      "변": 3518,
      "별": 3519,
      "병": 3520,
      "보": 3521,
      "복": 3522,
      "본": 3523,
      "봉": 3524,
      "부": 3525,
      "북": 3526,
      "분": 3527,
      "불": 3528,
      "브": 3529,
      "블": 3530,
      "비": 3531,
      "빈": 3532,
      "빔": 3533,
      "빛": 3534,
      "뽕": 3535,
      "뿌": 3536,
      "뿔": 3537,
      "쁘": 3538,
      "사": 3539,
      "삭": 3540,
      "산": 3541,
      "살": 3542,
      "삶": 3543,
      "삼": 3544,
      "상": 3545,
      "새": 3546,
      "색": 3547,
      "생": 3548,
      "샤": 3549,
      "서": 3550,
      "석": 3551,
      "선": 3552,
      "설": 3553,
      "섬": 3554,
      "섭": 3555,
      "섯": 3556,
      "성": 3557,
      "세": 3558,
      "섹": 3559,
      "션": 3560,
      "소": 3561,
      "속": 3562,
      "손": 3563,
      "송": 3564,
      "쇼": 3565,
      "수": 3566,
      "숙": 3567,
      "순": 3568,
      "술": 3569,
      "숲": 3570,
      "슈": 3571,
      "스": 3572,
      "습": 3573,
      "승": 3574,
      "시": 3575,
      "식": 3576,
      "신": 3577,
      "실": 3578,
      "싸": 3579,
      "쌍": 3580,
      "쓰": 3581,
      "씨": 3582,
      "아": 3583,
      "악": 3584,
      "안": 3585,
      "앉": 3586,
      "않": 3587,
      "알": 3588,
      "압": 3589,
      "앙": 3590,
      "앞": 3591,
      "애": 3592,
      "앤": 3593,
      "야": 3594,
      "양": 3595,
      "어": 3596,
      "억": 3597,
      "언": 3598,
      "얼": 3599,
      "엄": 3600,
      "업": 3601,
      "었": 3602,
      "에": 3603,
      "엔": 3604,
      "엘": 3605,
      "여": 3606,
      "역": 3607,
      "연": 3608,
      "열": 3609,
      "영": 3610,
      "예": 3611,
      "오": 3612,
      "옥": 3613,
      "와": 3614,
      "왕": 3615,
      "외": 3616,
      "요": 3617,
      "용": 3618,
      "우": 3619,
      "욱": 3620,
      "운": 3621,
      "울": 3622,
      "움": 3623,
      "웅": 3624,
      "워": 3625,
      "원": 3626,
      "월": 3627,
      "웠": 3628,
      "위": 3629,
      "유": 3630,
      "육": 3631,
      "윤": 3632,
      "은": 3633,
      "을": 3634,
      "음": 3635,
      "응": 3636,
      "의": 3637,
      "이": 3638,
      "인": 3639,
      "일": 3640,
      "임": 3641,
      "잇": 3642,
      "있": 3643,
      "자": 3644,
      "작": 3645,
      "잔": 3646,
      "잠": 3647,
      "잡": 3648,
      "잣": 3649,
      "장": 3650,
      "재": 3651,
      "쟁": 3652,
      "저": 3653,
      "적": 3654,
      "전": 3655,
      "절": 3656,
      "젊": 3657,
      "점": 3658,
      "정": 3659,
      "제": 3660,
      "조": 3661,
      "족": 3662,
      "존": 3663,
      "종": 3664,
      "죄": 3665,
      "죠": 3666,
      "주": 3667,
      "죽": 3668,
      "준": 3669,
      "줍": 3670,
      "중": 3671,
      "쥬": 3672,
      "즈": 3673,
      "즘": 3674,
      "증": 3675,
      "지": 3676,
      "진": 3677,
      "집": 3678,
      "짓": 3679,
      "짬": 3680,
      "쪽": 3681,
      "쫄": 3682,
      "차": 3683,
      "참": 3684,
      "창": 3685,
      "찾": 3686,
      "채": 3687,
      "천": 3688,
      "철": 3689,
      "첨": 3690,
      "첩": 3691,
      "청": 3692,
      "초": 3693,
      "촌": 3694,
      "총": 3695,
      "최": 3696,
      "추": 3697,
      "축": 3698,
      "출": 3699,
      "충": 3700,
      "춰": 3701,
      "치": 3702,
      "친": 3703,
      "카": 3704,
      "칼": 3705,
      "커": 3706,
      "케": 3707,
      "콧": 3708,
      "쿨": 3709,
      "퀴": 3710,
      "클": 3711,
      "타": 3712,
      "탐": 3713,
      "탑": 3714,
      "태": 3715,
      "터": 3716,
      "털": 3717,
      "테": 3718,
      "토": 3719,
      "통": 3720,
      "퇴": 3721,
      "투": 3722,
      "트": 3723,
      "티": 3724,
      "파": 3725,
      "판": 3726,
      "패": 3727,
      "퍼": 3728,
      "페": 3729,
      "편": 3730,
      "평": 3731,
      "포": 3732,
      "폭": 3733,
      "표": 3734,
      "풀": 3735,
      "품": 3736,
      "풍": 3737,
      "프": 3738,
      "피": 3739,
      "필": 3740,
      "하": 3741,
      "학": 3742,
      "한": 3743,
      "할": 3744,
      "합": 3745,
      "항": 3746,
      "해": 3747,
      "행": 3748,
      "향": 3749,
      "허": 3750,
      "헌": 3751,
      "헤": 3752,
      "혁": 3753,
      "현": 3754,
      "협": 3755,
      "형": 3756,
      "호": 3757,
      "혹": 3758,
      "혼": 3759,
      "홀": 3760,
      "홍": 3761,
      "화": 3762,
      "활": 3763,
      "황": 3764,
      "회": 3765,
      "효": 3766,
      "후": 3767,
      "훈": 3768,
      "휵": 3769,
      "흐": 3770,
      "흥": 3771,
      "희": 3772,
      "﨑": 3773,
      "︠": 3774,
      "︡": 3775,
      "﻿": 3776,
      "�": 3777,
      "𐎣": 3778,
      "𐎼": 3779,
      "𐏁": 3780,
      "🜨": 3781,
      "🦜": 3782,
      "he": 3783,
      "in": 3784,
      "an": 3785,
      "er": 3786,
      "ст": 3787,
      "on": 3788,
      "the": 3789,
      "ра": 3790,
      "ни": 3791,
      "ко": 3792,
      "на": 3793,
      "or": 3794,
      "но": 3795,
      "at": 3796,
      "en": 3797,
      "ar": 3798,
      "es": 3799,
      "al": 3800,
      "ро": 3801,
      "го": 3802,
      "ed": 3803,
      "is": 3804,
      "ре": 3805,
      "as": 3806,
      "it": 3807,
      "по": 3808,
      "of": 3809,
      "and": 3810,
      "ли": 3811,
      "ль": 3812,
      "то": 3813,
      "ри": 3814,
      "ны": 3815,
      "ic": 3816,
      "ле": 3817,
      "во": 3818,
      "ва": 3819,
      "re": 3820,
      "19": 3821,
      "ка": 3822,
      "ing": 3823,
      "ки": 3824,
      "те": 3825,
      "ou": 3826,
      "да": 3827,
      "ion": 3828,
      "ла": 3829,
      "не": 3830,
      "to": 3831,
      "ве": 3832,
      "та": 3833,
      "le": 3834,
      "ло": 3835,
      "ме": 3836,
      "де": 3837,
      "om": 3838,
      "st": 3839,
      "20": 3840,
      "th": 3841,
      "il": 3842,
      "ско": 3843,
      "со": 3844,
      "ми": 3845,
      "ent": 3846,
      "че": 3847,
      "am": 3848,
      "за": 3849,
      "ти": 3850,
      "до": 3851,
      "ol": 3852,
      "ac": 3853,
      "ма": 3854,
      "el": 3855,
      "ди": 3856,
      "ви": 3857,
      "се": 3858,
      "ad": 3859,
      "ro": 3860,
      "бо": 3861,
      "пе": 3862,
      "ch": 3863,
      "ци": 3864,
      "ру": 3865,
      "ur": 3866,
      "for": 3867,
      "же": 3868,
      "ски": 3869,
      "ста": 3870,
      "se": 3871,
      "мо": 3872,
      "ter": 3873,
      "ся": 3874,
      "ния": 3875,
      "The": 3876,
      "iv": 3877,
      "вы": 3878,
      "си": 3879,
      "ча": 3880,
      "ir": 3881,
      "ля": 3882,
      "про": 3883,
      "ation": 3884,
      "ig": 3885,
      "was": 3886,
      "id": 3887,
      "un": 3888,
      "бы": 3889,
      "ние": 3890,
      "ay": 3891,
      "ду": 3892,
      "ers": 3893,
      "об": 3894,
      "из": 3895,
      "па": 3896,
      "сти": 3897,
      "ec": 3898,
      "от": 3899,
      "em": 3900,
      "us": 3901,
      "ет": 3902,
      "et": 3903,
      "im": 3904,
      "ag": 3905,
      "сто": 3906,
      "ly": 3907,
      "са": 3908,
      "ist": 3909,
      "ow": 3910,
      "при": 3911,
      "ер": 3912,
      "ной": 3913,
      "200": 3914,
      "ть": 3915,
      "чи": 3916,
      "ot": 3917,
      "нны": 3918,
      "18": 3919,
      "op": 3920,
      "ith": 3921,
      "пи": 3922,
      "хо": 3923,
      "га": 3924,
      "ры": 3925,
      "ul": 3926,
      "by": 3927,
      "ce": 3928,
      "ap": 3929,
      "ги": 3930,
      "201": 3931,
      "года": 3932,
      "tr": 3933,
      "fr": 3934,
      "with": 3935,
      "In": 3936,
      "um": 3937,
      "ку": 3938,
      "ov": 3939,
      "pl": 3940,
      "ного": 3941,
      "ut": 3942,
      "му": 3943,
      "oun": 3944,
      "ab": 3945,
      "de": 3946,
      "пре": 3947,
      "con": 3948,
      "est": 3949,
      "ту": 3950,
      "all": 3951,
      "ос": 3952,
      "be": 3953,
      "ского": 3954,
      "раз": 3955,
      "ен": 3956,
      "ши": 3957,
      "лу": 3958,
      "ской": 3959,
      "av": 3960,
      "oc": 3961,
      "ian": 3962,
      "ain": 3963,
      "тель": 3964,
      "ский": 3965,
      "ct": 3966,
      "он": 3967,
      "pr": 3968,
      "ты": 3969,
      "ор": 3970,
      "ар": 3971,
      "гра": 3972,
      "ia": 3973,
      "com": 3974,
      "сь": 3975,
      "ше": 3976,
      "wh": 3977,
      "art": 3978,
      "фи": 3979,
      "ря": 3980,
      "os": 3981,
      "from": 3982,
      "ще": 3983,
      "ies": 3984,
      "ill": 3985,
      "ber": 3986,
      "ну": 3987,
      "ess": 3988,
      "te": 3989,
      "ity": 3990,
      "ня": 3991,
      "жи": 3992,
      "199": 3993,
      "сть": 3994,
      "his": 3995,
      "пу": 3996,
      "ear": 3997,
      "ан": 3998,
      "ных": 3999,
      "щи": 4000,
      "ip": 4001,
      "ts": 4002,
      "ard": 4003,
      "sh": 4004,
      "ска": 4005,
      "ный": 4006,
      "that": 4007,
      "are": 4008,
      "ther": 4009,
      "ate": 4010,
      "году": 4011,
      "pro": 4012,
      "od": 4013,
      "Ch": 4014,
      "ew": 4015,
      "ak": 4016,
      "би": 4017,
      "if": 4018,
      "Re": 4019,
      "зи": 4020,
      "gr": 4021,
      "бе": 4022,
      "St": 4023,
      "сле": 4024,
      "су": 4025,
      "00": 4026,
      "igh": 4027,
      "вер": 4028,
      "cl": 4029,
      "ex": 4030,
      "ции": 4031,
      "our": 4032,
      "als": 4033,
      "стве": 4034,
      "ные": 4035,
      "ary": 4036,
      "кото": 4037,
      "ба": 4038,
      "вой": 4039,
      "su": 4040,
      "ная": 4041,
      "man": 4042,
      "она": 4043,
      "це": 4044,
      "qu": 4045,
      "мы": 4046,
      "спо": 4047,
      "ud": 4048,
      "ich": 4049,
      "ке": 4050,
      "нии": 4051,
      "нов": 4052,
      "По": 4053,
      "На": 4054,
      "ство": 4055,
      "mer": 4056,
      "ge": 4057,
      "ish": 4058,
      "ment": 4059,
      "ated": 4060,
      "ков": 4061,
      "ev": 4062,
      "ин": 4063,
      "fer": 4064,
      "ды": 4065,
      "198": 4066,
      "sp": 4067,
      "кон": 4068,
      "ге": 4069,
      "ров": 4070,
      "сте": 4071,
      "пра": 4072,
      "ine": 4073,
      "что": 4074,
      "ld": 4075,
      "per": 4076,
      "ial": 4077,
      "пере": 4078,
      "лю": 4079,
      "под": 4080,
      "ant": 4081,
      "ong": 4082,
      "зо": 4083,
      "ive": 4084,
      "Un": 4085,
      "ком": 4086,
      "end": 4087,
      "ell": 4088,
      "ces": 4089,
      "194": 4090,
      "ks": 4091,
      "ют": 4092,
      "ется": 4093,
      "ere": 4094,
      "ном": 4095,
      "str": 4096,
      "мен": 4097,
      "ort": 4098,
      "He": 4099,
      "ub": 4100,
      "17": 4101,
      "197": 4102,
      "ib": 4103,
      "зы": 4104,
      "ound": 4105,
      "ass": 4106,
      "рова": 4107,
      "был": 4108,
      "ран": 4109,
      "gh": 4110,
      "ву": 4111,
      "ord": 4112,
      "Ка": 4113,
      "гу": 4114,
      "af": 4115,
      "ast": 4116,
      "сы": 4117,
      "du": 4118,
      "вля": 4119,
      "ie": 4120,
      "Ar": 4121,
      "her": 4122,
      "one": 4123,
      "жа": 4124,
      "ame": 4125,
      "age": 4126,
      "лся": 4127,
      "were": 4128,
      "род": 4129,
      "ских": 4130,
      "tern": 4131,
      "так": 4132,
      "play": 4133,
      "аль": 4134,
      "196": 4135,
      "пер": 4136,
      "ack": 4137,
      "10": 4138,
      "ха": 4139,
      "res": 4140,
      "ская": 4141,
      "ical": 4142,
      "pe": 4143,
      "мя": 4144,
      "over": 4145,
      "act": 4146,
      "aw": 4147,
      "ign": 4148,
      "его": 4149,
      "бу": 4150,
      "это": 4151,
      "ное": 4152,
      "кра": 4153,
      "ran": 4154,
      "вле": 4155,
      "ства": 4156,
      "ца": 4157,
      "og": 4158,
      "вре": 4159,
      "16": 4160,
      "15": 4161,
      "out": 4162,
      "rit": 4163,
      "ак": 4164,
      "Со": 4165,
      "для": 4166,
      "фе": 4167,
      "12": 4168,
      "ost": 4169,
      "тер": 4170,
      "од": 4171,
      "An": 4172,
      "also": 4173,
      "При": 4174,
      "стра": 4175,
      "up": 4176,
      "Al": 4177,
      "which": 4178,
      "зна": 4179,
      "ей": 4180,
      "ire": 4181,
      "land": 4182,
      "comp": 4183,
      "ect": 4184,
      "ний": 4185,
      "ser": 4186,
      "195": 4187,
      "der": 4188,
      "ne": 4189,
      "ican": 4190,
      "au": 4191,
      "тра": 4192,
      "Ко": 4193,
      "ight": 4194,
      "feren": 4195,
      "iz": 4196,
      "тив": 4197,
      "ман": 4198,
      "we": 4199,
      "стро": 4200,
      "ice": 4201,
      "its": 4202,
      "рабо": 4203,
      "тов": 4204,
      "own": 4205,
      "193": 4206,
      "сво": 4207,
      "It": 4208,
      "нные": 4209,
      "которы": 4210,
      "вет": 4211,
      "wor": 4212,
      "ем": 4213,
      "ure": 4214,
      "cent": 4215,
      "как": 4216,
      "ис": 4217,
      "ember": 4218,
      "ous": 4219,
      "пред": 4220,
      "bo": 4221,
      "ore": 4222,
      "ep": 4223,
      "had": 4224,
      "сту": 4225,
      "ang": 4226,
      "ходи": 4227,
      "fir": 4228,
      "II": 4229,
      "рии": 4230,
      "ue": 4231,
      "Ма": 4232,
      "ша": 4233,
      "лы": 4234,
      "cr": 4235,
      "нных": 4236,
      "лек": 4237,
      "ational": 4238,
      "ke": 4239,
      "ions": 4240,
      "рас": 4241,
      "ствен": 4242,
      "ide": 4243,
      "СС": 4244,
      "dr": 4245,
      "тор": 4246,
      "has": 4247,
      "Mar": 4248,
      "ности": 4249,
      "ок": 4250,
      "воз": 4251,
      "ность": 4252,
      "lin": 4253,
      "ав": 4254,
      "том": 4255,
      "ным": 4256,
      "ough": 4257,
      "ty": 4258,
      "нный": 4259,
      "Amer": 4260,
      "ach": 4261,
      "соста": 4262,
      "br": 4263,
      "ferences": 4264,
      "рай": 4265,
      "ские": 4266,
      "вя": 4267,
      "нь": 4268,
      "гла": 4269,
      "Com": 4270,
      "ory": 4271,
      "ict": 4272,
      "wo": 4273,
      "hed": 4274,
      "ром": 4275,
      "ском": 4276,
      "ющи": 4277,
      "ник": 4278,
      "References": 4279,
      "14": 4280,
      "arr": 4281,
      "пол": 4282,
      "бря": 4283,
      "тя": 4284,
      "13": 4285,
      "ilm": 4286,
      "not": 4287,
      "ver": 4288,
      "io": 4289,
      "ens": 4290,
      "нд": 4291,
      "part": 4292,
      "хи": 4293,
      "ome": 4294,
      "ok": 4295,
      "За": 4296,
      "amp": 4297,
      "ations": 4298,
      "first": 4299,
      "ave": 4300,
      "Во": 4301,
      "тре": 4302,
      "whe": 4303,
      "нача": 4304,
      "ater": 4305,
      "old": 4306,
      "также": 4307,
      "ция": 4308,
      "лей": 4309,
      "Le": 4310,
      "other": 4311,
      "после": 4312,
      "ace": 4313,
      "бли": 4314,
      "ath": 4315,
      "sc": 4316,
      "лё": 4317,
      "New": 4318,
      "ied": 4319,
      "име": 4320,
      "ща": 4321,
      "En": 4322,
      "сси": 4323,
      "att": 4324,
      "who": 4325,
      "but": 4326,
      "ra": 4327,
      "oll": 4328,
      "ball": 4329,
      "form": 4330,
      "American": 4331,
      "им": 4332,
      "три": 4333,
      "Ro": 4334,
      "co": 4335,
      "Рос": 4336,
      "вич": 4337,
      "ев": 4338,
      "ans": 4339,
      "спе": 4340,
      "Pr": 4341,
      "ition": 4342,
      "ited": 4343,
      "ree": 4344,
      "cho": 4345,
      "ople": 4346,
      "Au": 4347,
      "меча": 4348,
      "year": 4349,
      "обла": 4350,
      "ction": 4351,
      "сло": 4352,
      "ates": 4353,
      "фор": 4354,
      "селе": 4355,
      "Росси": 4356,
      "мер": 4357,
      "зда": 4358,
      "ult": 4359,
      "вод": 4360,
      "Ex": 4361,
      "ную": 4362,
      "ph": 4363,
      "или": 4364,
      "ск": 4365,
      "192": 4366,
      "ime": 4367,
      "стоя": 4368,
      "ust": 4369,
      "ind": 4370,
      "зу": 4371,
      "ton": 4372,
      "вание": 4373,
      "orn": 4374,
      "все": 4375,
      "ivers": 4376,
      "Jo": 4377,
      "рь": 4378,
      "ence": 4379,
      "вши": 4380,
      "ubl": 4381,
      "руп": 4382,
      "боль": 4383,
      "ite": 4384,
      "their": 4385,
      "лись": 4386,
      "ред": 4387,
      "port": 4388,
      "int": 4389,
      "слу": 4390,
      "ней": 4391,
      "рия": 4392,
      "istr": 4393,
      "iss": 4394,
      "образ": 4395,
      "des": 4396,
      "No": 4397,
      "off": 4398,
      "пы": 4399,
      "тся": 4400,
      "serv": 4401,
      "As": 4402,
      "les": 4403,
      "нию": 4404,
      "me": 4405,
      "дер": 4406,
      "вания": 4407,
      "ден": 4408,
      "ann": 4409,
      "Ли": 4410,
      "ents": 4411,
      "дру": 4412,
      "дов": 4413,
      "тиче": 4414,
      "Ра": 4415,
      "incl": 4416,
      "ile": 4417,
      "comm": 4418,
      "Примеча": 4419,
      "11": 4420,
      "chool": 4421,
      "ics": 4422,
      "кой": 4423,
      "air": 4424,
      "ade": 4425,
      "зе": 4426,
      "Con": 4427,
      "лки": 4428,
      "oot": 4429,
      "Примечания": 4430,
      "фа": 4431,
      "uc": 4432,
      "ors": 4433,
      "дар": 4434,
      "Бо": 4435,
      "ail": 4436,
      "ён": 4437,
      "лен": 4438,
      "были": 4439,
      "ob": 4440,
      "col": 4441,
      "two": 4442,
      "son": 4443,
      "Th": 4444,
      "ника": 4445,
      "Ми": 4446,
      "21": 4447,
      "ret": 4448,
      "film": 4449,
      "лет": 4450,
      "ased": 4451,
      "графи": 4452,
      "che": 4453,
      "ick": 4454,
      "bec": 4455,
      "ff": 4456,
      "ould": 4457,
      "полу": 4458,
      "пар": 4459,
      "loc": 4460,
      "Ве": 4461,
      "Sh": 4462,
      "была": 4463,
      "outh": 4464,
      "able": 4465,
      "ings": 4466,
      "inal": 4467,
      "лась": 4468,
      "ah": 4469,
      "25": 4470,
      "цы": 4471,
      "ship": 4472,
      "год": 4473,
      "уча": 4474,
      "Са": 4475,
      "цен": 4476,
      "rec": 4477,
      "тро": 4478,
      "dis": 4479,
      "Br": 4480,
      "app": 4481,
      "ele": 4482,
      "испо": 4483,
      "any": 4484,
      "кан": 4485,
      "Се": 4486,
      "ark": 4487,
      "Ре": 4488,
      "ское": 4489,
      "логи": 4490,
      "стви": 4491,
      "people": 4492,
      "uring": 4493,
      "Па": 4494,
      "Ку": 4495,
      "ван": 4496,
      "work": 4497,
      "fe": 4498,
      "сла": 4499,
      "uil": 4500,
      "have": 4501,
      "лов": 4502,
      "30": 4503,
      "publ": 4504,
      "this": 4505,
      "жде": 4506,
      "190": 4507,
      "писа": 4508,
      "vi": 4509,
      "Col": 4510,
      "рой": 4511,
      "min": 4512,
      "было": 4513,
      "вра": 4514,
      "дол": 4515,
      "22": 4516,
      "время": 4517,
      "Ме": 4518,
      "tain": 4519,
      "дей": 4520,
      "ury": 4521,
      "li": 4522,
      "ники": 4523,
      "ual": 4524,
      "ond": 4525,
      "пла": 4526,
      "нима": 4527,
      "вые": 4528,
      "их": 4529,
      "Fr": 4530,
      "рев": 4531,
      "горо": 4532,
      "Мо": 4533,
      "por": 4534,
      "ason": 4535,
      "бра": 4536,
      "pres": 4537,
      "fl": 4538,
      "pos": 4539,
      "ase": 4540,
      "вал": 4541,
      "Coun": 4542,
      "явля": 4543,
      "ward": 4544,
      "ely": 4545,
      "стре": 4546,
      "кла": 4547,
      "ются": 4548,
      "Se": 4549,
      "коман": 4550,
      "after": 4551,
      "лове": 4552,
      "мпи": 4553,
      "been": 4554,
      "way": 4555,
      "ever": 4556,
      "ished": 4557,
      "чё": 4558,
      "iversity": 4559,
      "urn": 4560,
      "Gr": 4561,
      "Ба": 4562,
      "ames": 4563,
      "боле": 4564,
      "gan": 4565,
      "Ни": 4566,
      "reg": 4567,
      "On": 4568,
      "sy": 4569,
      "вых": 4570,
      "еди": 4571,
      "лько": 4572,
      "ложе": 4573,
      "сылки": 4574,
      "тера": 4575,
      "ced": 4576,
      "For": 4577,
      "свя": 4578,
      "Ле": 4579,
      "вый": 4580,
      "нием": 4581,
      "ale": 4582,
      "каза": 4583,
      "кры": 4584,
      "Бе": 4585,
      "лось": 4586,
      "ход": 4587,
      "гда": 4588,
      "Ссылки": 4589,
      "ян": 4590,
      "med": 4591,
      "ootball": 4592,
      "2010": 4593,
      "ener": 4594,
      "исто": 4595,
      "ance": 4596,
      "Eng": 4597,
      "Wor": 4598,
      "ters": 4599,
      "тан": 4600,
      "United": 4601,
      "Пе": 4602,
      "ision": 4603,
      "Tr": 4604,
      "she": 4605,
      "стан": 4606,
      "клю": 4607,
      "pol": 4608,
      "ию": 4609,
      "Pro": 4610,
      "23": 4611,
      "челове": 4612,
      "includ": 4613,
      "ternal": 4614,
      "мар": 4615,
      "ik": 4616,
      "ур": 4617,
      "ake": 4618,
      "amil": 4619,
      "Nor": 4620,
      "rem": 4621,
      "Но": 4622,
      "az": 4623,
      "Не": 4624,
      "Ind": 4625,
      "po": 4626,
      "сты": 4627,
      "kn": 4628,
      "ry": 4629,
      "Joh": 4630,
      "University": 4631,
      "ству": 4632,
      "ix": 4633,
      "uary": 4634,
      "бор": 4635,
      "вое": 4636,
      "тур": 4637,
      "сов": 4638,
      "ve": 4639,
      "Cl": 4640,
      "iel": 4641,
      "olog": 4642,
      "time": 4643,
      "области": 4644,
      "cer": 4645,
      "into": 4646,
      "жду": 4647,
      "ood": 4648,
      "ists": 4649,
      "ться": 4650,
      "row": 4651,
      "кре": 4652,
      "vel": 4653,
      "hy": 4654,
      "нова": 4655,
      "Та": 4656,
      "Sc": 4657,
      "оне": 4658,
      "aj": 4659,
      "new": 4660,
      "произ": 4661,
      "ёр": 4662,
      "Sp": 4663,
      "Ар": 4664,
      "can": 4665,
      "ten": 4666,
      "пло": 4667,
      "let": 4668,
      "inc": 4669,
      "players": 4670,
      "24": 4671,
      "buil": 4672,
      "coun": 4673,
      "ince": 4674,
      "links": 4675,
      "under": 4676,
      "pt": 4677,
      "Ви": 4678,
      "Ва": 4679,
      "they": 4680,
      "Ро": 4681,
      "России": 4682,
      "eng": 4683,
      "ife": 4684,
      "ску": 4685,
      "External": 4686,
      "2008": 4687,
      "образо": 4688,
      "бер": 4689,
      "ек": 4690,
      "иг": 4691,
      "груп": 4692,
      "СР": 4693,
      "usic": 4694,
      "oci": 4695,
      "веде": 4696,
      "John": 4697,
      "Comm": 4698,
      "Bo": 4699,
      "того": 4700,
      "Pl": 4701,
      "циаль": 4702,
      "team": 4703,
      "189": 4704,
      "верси": 4705,
      "ут": 4706,
      "inter": 4707,
      "use": 4708,
      "born": 4709,
      "ским": 4710,
      "ug": 4711,
      "ouse": 4712,
      "над": 4713,
      "2011": 4714,
      "Пер": 4715,
      "обще": 4716,
      "ins": 4717,
      "зыва": 4718,
      "inn": 4719,
      "вого": 4720,
      "2012": 4721,
      "нным": 4722,
      "сен": 4723,
      "ниче": 4724,
      "irect": 4725,
      "ier": 4726,
      "ina": 4727,
      "Ки": 4728,
      "bum": 4729,
      "ными": 4730,
      "Ге": 4731,
      "produ": 4732,
      "ональ": 4733,
      "oup": 4734,
      "used": 4735,
      "мини": 4736,
      "филь": 4737,
      "них": 4738,
      "Про": 4739,
      "пера": 4740,
      "cond": 4741,
      "him": 4742,
      "ью": 4743,
      "более": 4744,
      "season": 4745,
      "поли": 4746,
      "теле": 4747,
      "нк": 4748,
      "мии": 4749,
      "Алек": 4750,
      "rel": 4751,
      "sing": 4752,
      "2009": 4753,
      "000": 4754,
      "Пос": 4755,
      "удо": 4756,
      "grap": 4757,
      "соб": 4758,
      "She": 4759,
      "ley": 4760,
      "Is": 4761,
      "нее": 4762,
      "дом": 4763,
      "правле": 4764,
      "century": 4765,
      "жен": 4766,
      "bet": 4767,
      "spec": 4768,
      "Fran": 4769,
      "Pe": 4770,
      "тия": 4771,
      "уни": 4772,
      "Де": 4773,
      "тября": 4774,
      "ёл": 4775,
      "город": 4776,
      "тем": 4777,
      "thr": 4778,
      "2006": 4779,
      "De": 4780,
      "Го": 4781,
      "тура": 4782,
      "writ": 4783,
      "нг": 4784,
      "2013": 4785,
      "ities": 4786,
      "more": 4787,
      "км": 4788,
      "prov": 4789,
      "ников": 4790,
      "вест": 4791,
      "тр": 4792,
      "years": 4793,
      "До": 4794,
      "Ge": 4795,
      "my": 4796,
      "2007": 4797,
      "where": 4798,
      "ографи": 4799,
      "орга": 4800,
      "исполь": 4801,
      "вая": 4802,
      "совет": 4803,
      "50": 4804,
      "abl": 4805,
      "26": 4806,
      "рон": 4807,
      "football": 4808,
      "наз": 4809,
      "рус": 4810,
      "То": 4811,
      "води": 4812,
      "ident": 4813,
      "rele": 4814,
      "reat": 4815,
      "nam": 4816,
      "cont": 4817,
      "бри": 4818,
      "28": 4819,
      "par": 4820,
      "сель": 4821,
      "bir": 4822,
      "iver": 4823,
      "рез": 4824,
      "mon": 4825,
      "again": 4826,
      "This": 4827,
      "ash": 4828,
      "27": 4829,
      "объ": 4830,
      "ths": 4831,
      "Ser": 4832,
      "Or": 4833,
      "World": 4834,
      "фо": 4835,
      "nor": 4836,
      "публи": 4837,
      "работа": 4838,
      "day": 4839,
      "Bl": 4840,
      "СССР": 4841,
      "cess": 4842,
      "iving": 4843,
      "only": 4844,
      "found": 4845,
      "2014": 4846,
      "телей": 4847,
      "само": 4848,
      "После": 4849,
      "cons": 4850,
      "ween": 4851,
      "ollow": 4852,
      "рен": 4853,
      "други": 4854,
      "деле": 4855,
      "тели": 4856,
      "нау": 4857,
      "most": 4858,
      "ros": 4859,
      "enn": 4860,
      "пле": 4861,
      "Be": 4862,
      "National": 4863,
      "when": 4864,
      "188": 4865,
      "ative": 4866,
      "её": 4867,
      "ae": 4868,
      "sub": 4869,
      "Си": 4870,
      "вто": 4871,
      "хра": 4872,
      "States": 4873,
      "album": 4874,
      "istory": 4875,
      "Би": 4876,
      "созда": 4877,
      "Brit": 4878,
      "ific": 4879,
      "ica": 4880,
      "нера": 4881,
      "no": 4882,
      "Car": 4883,
      "famil": 4884,
      "кто": 4885,
      "stud": 4886,
      "тру": 4887,
      "ement": 4888,
      "Ph": 4889,
      "чно": 4890,
      "during": 4891,
      "set": 4892,
      "opul": 4893,
      "теля": 4894,
      "War": 4895,
      "жда": 4896,
      "would": 4897,
      "оста": 4898,
      "bl": 4899,
      "At": 4900,
      "предста": 4901,
      "Co": 4902,
      "go": 4903,
      "Can": 4904,
      "шо": 4905,
      "Austr": 4906,
      "Ad": 4907,
      "cur": 4908,
      "Ger": 4909,
      "юще": 4910,
      "2000": 4911,
      "пор": 4912,
      "known": 4913,
      "прави": 4914,
      "ept": 4915,
      "fore": 4916,
      "обо": 4917,
      "авто": 4918,
      "ai": 4919,
      "эк": 4920,
      "men": 4921,
      "2016": 4922,
      "рий": 4923,
      "pre": 4924,
      "present": 4925,
      "many": 4926,
      "ague": 4927,
      "Вы": 4928,
      "ield": 4929,
      "госу": 4930,
      "then": 4931,
      "зя": 4932,
      "une": 4933,
      "cy": 4934,
      "Га": 4935,
      "ional": 4936,
      "ье": 4937,
      "2015": 4938,
      "dec": 4939,
      "back": 4940,
      "жения": 4941,
      "где": 4942,
      "Исто": 4943,
      "Af": 4944,
      "through": 4945,
      "кар": 4946,
      "чемпи": 4947,
      "ari": 4948,
      "unt": 4949,
      "29": 4950,
      "County": 4951,
      "мери": 4952,
      "fin": 4953,
      "school": 4954,
      "oy": 4955,
      "получи": 4956,
      "рито": 4957,
      "между": 4958,
      "between": 4959,
      "about": 4960,
      "окру": 4961,
      "нако": 4962,
      "Фран": 4963,
      "государ": 4964,
      "которые": 4965,
      "ax": 4966,
      "three": 4967,
      "oper": 4968,
      "so": 4969,
      "кор": 4970,
      "тери": 4971,
      "ём": 4972,
      "ating": 4973,
      "цо": 4974,
      "well": 4975,
      "establ": 4976,
      "sk": 4977,
      "района": 4978,
      "язы": 4979,
      "дви": 4980,
      "ork": 4981,
      "made": 4982,
      "тех": 4983,
      "коло": 4984,
      "сса": 4985,
      "Wh": 4986,
      "СШ": 4987,
      "Ac": 4988,
      "ior": 4989,
      "Jan": 4990,
      "ful": 4991,
      "istrict": 4992,
      "lar": 4993,
      "2005": 4994,
      "May": 4995,
      "second": 4996,
      "цер": 4997,
      "США": 4998,
      "дела": 4999,
      "игра": 5000,
      "ья": 5001,
      "доро": 5002,
      "tow": 5003,
      "мож": 5004,
      "South": 5005,
      "вать": 5006,
      "реди": 5007,
      "Ла": 5008,
      "который": 5009,
      "erson": 5010,
      "ures": 5011,
      "Ин": 5012,
      "hen": 5013,
      "бур": 5014,
      "40": 5015,
      "them": 5016,
      "Дж": 5017,
      "led": 5018,
      "станов": 5019,
      "red": 5020,
      "uss": 5021,
      "mp": 5022,
      "2004": 5023,
      "record": 5024,
      "later": 5025,
      "сс": 5026,
      "цу": 5027,
      "eneral": 5028,
      "186": 5029,
      "emb": 5030,
      "omen": 5031,
      "они": 5032,
      "ived": 5033,
      "стал": 5034,
      "личе": 5035,
      "ese": 5036,
      "распо": 5037,
      "187": 5038,
      "Ру": 5039,
      "таль": 5040,
      "является": 5041,
      "ссо": 5042,
      "следо": 5043,
      "мени": 5044,
      "скую": 5045,
      "мира": 5046,
      "mov": 5047,
      "лия": 5048,
      "куль": 5049,
      "ower": 5050,
      "дель": 5051,
      "место": 5052,
      "direct": 5053,
      "вета": 5054,
      "Су": 5055,
      "террито": 5056,
      "коро": 5057,
      "Укра": 5058,
      "und": 5059,
      "Par": 5060,
      "вар": 5061,
      "Man": 5062,
      "Те": 5063,
      "отно": 5064,
      "дин": 5065,
      "лле": 5066,
      "follow": 5067,
      "Да": 5068,
      "song": 5069,
      "there": 5070,
      "шко": 5071,
      "Nov": 5072,
      "вым": 5073,
      "вали": 5074,
      "лан": 5075,
      "вед": 5076,
      "gu": 5077,
      "ister": 5078,
      "School": 5079,
      "сред": 5080,
      "ext": 5081,
      "some": 5082,
      "народ": 5083,
      "Из": 5084,
      "ходит": 5085,
      "версите": 5086,
      "num": 5087,
      "Reg": 5088,
      "него": 5089,
      "Пре": 5090,
      "извест": 5091,
      "2001": 5092,
      "цию": 5093,
      "гро": 5094,
      "человек": 5095,
      "ise": 5096,
      "войны": 5097,
      "систе": 5098,
      "Ста": 5099,
      "ternational": 5100,
      "Me": 5101,
      "лин": 5102,
      "рей": 5103,
      "нер": 5104,
      "than": 5105,
      "лом": 5106,
      "Вели": 5107,
      "stit": 5108,
      "contr": 5109,
      "2017": 5110,
      "Алекса": 5111,
      "мат": 5112,
      "стру": 5113,
      "overn": 5114,
      "public": 5115,
      "мина": 5116,
      "aid": 5117,
      "ons": 5118,
      "Ju": 5119,
      "циональ": 5120,
      "British": 5121,
      "тельно": 5122,
      "Dec": 5123,
      "inv": 5124,
      "Austral": 5125,
      "char": 5126,
      "кий": 5127,
      "iam": 5128,
      "сли": 5129,
      "Ed": 5130,
      "города": 5131,
      "мест": 5132,
      "спор": 5133,
      "stru": 5134,
      "рак": 5135,
      "leg": 5136,
      "значе": 5137,
      "той": 5138,
      "ments": 5139,
      "stem": 5140,
      "ted": 5141,
      "ural": 5142,
      "cap": 5143,
      "вла": 5144,
      "ampion": 5145,
      "York": 5146,
      "line": 5147,
      "ys": 5148,
      "ose": 5149,
      "состоя": 5150,
      "urch": 5151,
      "нения": 5152,
      "сер": 5153,
      "Ев": 5154,
      "Fe": 5155,
      "Александ": 5156,
      "sup": 5157,
      "против": 5158,
      "йской": 5159,
      "Pol": 5160,
      "дерев": 5161,
      "органи": 5162,
      "дея": 5163,
      "lead": 5164,
      "road": 5165,
      "селение": 5166,
      "которо": 5167,
      "Will": 5168,
      "popul": 5169,
      "view": 5170,
      "визи": 5171,
      "Oc": 5172,
      "align": 5173,
      "сков": 5174,
      "such": 5175,
      "music": 5176,
      "atr": 5177,
      "2002": 5178,
      "uro": 5179,
      "lect": 5180,
      "ven": 5181,
      "do": 5182,
      "call": 5183,
      "including": 5184,
      "лии": 5185,
      "ices": 5186,
      "селения": 5187,
      "ним": 5188,
      "polit": 5189,
      "became": 5190,
      "four": 5191,
      "числе": 5192,
      "town": 5193,
      "мая": 5194,
      "try": 5195,
      "составля": 5196,
      "зд": 5197,
      "льта": 5198,
      "тече": 5199,
      "нем": 5200,
      "All": 5201,
      "sur": 5202,
      "istor": 5203,
      "Об": 5204,
      "чной": 5205,
      "Gu": 5206,
      "дии": 5207,
      "March": 5208,
      "els": 5209,
      "только": 5210,
      "кого": 5211,
      "ору": 5212,
      "Sept": 5213,
      "add": 5214,
      "нского": 5215,
      "ism": 5216,
      "ких": 5217,
      "виде": 5218,
      "ственной": 5219,
      "build": 5220,
      "gust": 5221,
      "вше": 5222,
      "Мос": 5223,
      "гово": 5224,
      "100": 5225,
      "состав": 5226,
      "Am": 5227,
      "хов": 5228,
      "la": 5229,
      "Мар": 5230,
      "bert": 5231,
      "ография": 5232,
      "Cent": 5233,
      "ад": 5234,
      "series": 5235,
      "шта": 5236,
      "дека": 5237,
      "Cal": 5238,
      "family": 5239,
      "дву": 5240,
      "Фи": 5241,
      "Rec": 5242,
      "September": 5243,
      "Air": 5244,
      "Кар": 5245,
      "against": 5246,
      "2003": 5247,
      "lo": 5248,
      "кт": 5249,
      "миче": 5250,
      "ather": 5251,
      "ят": 5252,
      "запа": 5253,
      "части": 5254,
      "trans": 5255,
      "вос": 5256,
      "али": 5257,
      "дь": 5258,
      "Ан": 5259,
      "King": 5260,
      "чных": 5261,
      "Кон": 5262,
      "August": 5263,
      "Ди": 5264,
      "top": 5265,
      "ution": 5266,
      "Украи": 5267,
      "ung": 5268,
      "ians": 5269,
      "Chr": 5270,
      "находи": 5271,
      "льно": 5272,
      "Geor": 5273,
      "ck": 5274,
      "высо": 5275,
      "plac": 5276,
      "цев": 5277,
      "зем": 5278,
      "смо": 5279,
      "обра": 5280,
      "Му": 5281,
      "We": 5282,
      "ank": 5283,
      "appear": 5284,
      "organ": 5285,
      "After": 5286,
      "ули": 5287,
      "areer": 5288,
      "ives": 5289,
      "June": 5290,
      "Her": 5291,
      "жет": 5292,
      "being": 5293,
      "ноя": 5294,
      "поль": 5295,
      "ask": 5296,
      "Моск": 5297,
      "лли": 5298,
      "ont": 5299,
      "while": 5300,
      "уче": 5301,
      "которых": 5302,
      "стер": 5303,
      "авгу": 5304,
      "sign": 5305,
      "arch": 5306,
      "tober": 5307,
      "North": 5308,
      "devel": 5309,
      "death": 5310,
      "янва": 5311,
      "October": 5312,
      "ств": 5313,
      "нский": 5314,
      "ститу": 5315,
      "зульта": 5316,
      "feat": 5317,
      "oman": 5318,
      "rece": 5319,
      "Te": 5320,
      "hel": 5321,
      "played": 5322,
      "lish": 5323,
      "bur": 5324,
      "нской": 5325,
      "неско": 5326,
      "state": 5327,
      "университе": 5328,
      "Лу": 5329,
      "ющий": 5330,
      "ft": 5331,
      "ital": 5332,
      "2018": 5333,
      "Бу": 5334,
      "сбор": 5335,
      "щё": 5336,
      "министра": 5337,
      "orig": 5338,
      "group": 5339,
      "high": 5340,
      "ках": 5341,
      "мир": 5342,
      "обе": 5343,
      "births": 5344,
      "жиз": 5345,
      "1990": 5346,
      "рав": 5347,
      "cre": 5348,
      "Char": 5349,
      "mat": 5350,
      "послед": 5351,
      "восто": 5352,
      "field": 5353,
      "ал": 5354,
      "част": 5355,
      "El": 5356,
      "English": 5357,
      "overnment": 5358,
      "компа": 5359,
      "лий": 5360,
      "area": 5361,
      "released": 5362,
      "See": 5363,
      "develop": 5364,
      "клу": 5365,
      "head": 5366,
      "list": 5367,
      "ery": 5368,
      "Dr": 5369,
      "Off": 5370,
      "60": 5371,
      "чита": 5372,
      "ium": 5373,
      "July": 5374,
      "ций": 5375,
      "lege": 5376,
      "before": 5377,
      "сай": 5378,
      "band": 5379,
      "бой": 5380,
      "January": 5381,
      "former": 5382,
      "ized": 5383,
      "show": 5384,
      "использо": 5385,
      "Нико": 5386,
      "часть": 5387,
      "Sy": 5388,
      "Apr": 5389,
      "31": 5390,
      "Min": 5391,
      "open": 5392,
      "работ": 5393,
      "Euro": 5394,
      "поло": 5395,
      "until": 5396,
      "ссе": 5397,
      "пунк": 5398,
      "эн": 5399,
      "стов": 5400,
      "месте": 5401,
      "ular": 5402,
      "ene": 5403,
      "дера": 5404,
      "ove": 5405,
      "Canad": 5406,
      "Fl": 5407,
      "ology": 5408,
      "City": 5409,
      "ock": 5410,
      "April": 5411,
      "помо": 5412,
      "Гер": 5413,
      "яви": 5414,
      "ajor": 5415,
      "ject": 5416,
      "1999": 5417,
      "November": 5418,
      "сем": 5419,
      "III": 5420,
      "sm": 5421,
      "побе": 5422,
      "районе": 5423,
      "League": 5424,
      "house": 5425,
      "ission": 5426,
      "ern": 5427,
      "State": 5428,
      "aff": 5429,
      "коно": 5430,
      "мерикан": 5431,
      "ages": 5432,
      "offic": 5433,
      "gram": 5434,
      "press": 5435,
      "Литера": 5436,
      "ющие": 5437,
      "Cor": 5438,
      "December": 5439,
      "based": 5440,
      "main": 5441,
      "Med": 5442,
      "bel": 5443,
      "ars": 5444,
      "История": 5445,
      "два": 5446,
      "Art": 5447,
      "Вер": 5448,
      "основ": 5449,
      "кро": 5450,
      "туры": 5451,
      "сно": 5452,
      "ief": 5453,
      "thern": 5454,
      "ях": 5455,
      "ales": 5456,
      "Roy": 5457,
      "life": 5458,
      "приня": 5459,
      "ampionship": 5460,
      "US": 5461,
      "глав": 5462,
      "цион": 5463,
      "жение": 5464,
      "ross": 5465,
      "вом": 5466,
      "Comp": 5467,
      "эти": 5468,
      "both": 5469,
      "Вла": 5470,
      "elf": 5471,
      "films": 5472,
      "Award": 5473,
      "ient": 5474,
      "ofess": 5475,
      "бле": 5476,
      "гре": 5477,
      "рая": 5478,
      "музы": 5479,
      "ground": 5480,
      "Сан": 5481,
      "худо": 5482,
      "даль": 5483,
      "may": 5484,
      "vis": 5485,
      "ктор": 5486,
      "arm": 5487,
      "name": 5488,
      "тен": 5489,
      "этого": 5490,
      "site": 5491,
      "ety": 5492,
      "vision": 5493,
      "Ха": 5494,
      "ered": 5495,
      "alth": 5496,
      "commun": 5497,
      "run": 5498,
      "anc": 5499,
      "став": 5500,
      "века": 5501,
      "откры": 5502,
      "апре": 5503,
      "этом": 5504,
      "William": 5505,
      "Фе": 5506,
      "разви": 5507,
      "бре": 5508,
      "тий": 5509,
      "чу": 5510,
      "35": 5511,
      "West": 5512,
      "icip": 5513,
      "мов": 5514,
      "изда": 5515,
      "пози": 5516,
      "ham": 5517,
      "когда": 5518,
      "суще": 5519,
      "действи": 5520,
      "много": 5521,
      "грам": 5522,
      "февра": 5523,
      "ott": 5524,
      "embers": 5525,
      "нен": 5526,
      "чемпиона": 5527,
      "шая": 5528,
      "early": 5529,
      "Сер": 5530,
      "ством": 5531,
      "now": 5532,
      "185": 5533,
      "шу": 5534,
      "вин": 5535,
      "Ор": 5536,
      "высту": 5537,
      "тей": 5538,
      "ница": 5539,
      "тии": 5540,
      "Од": 5541,
      "стиче": 5542,
      "apan": 5543,
      "number": 5544,
      "Че": 5545,
      "ute": 5546,
      "строи": 5547,
      "itt": 5548,
      "ps": 5549,
      "chil": 5550,
      "логиче": 5551,
      "vers": 5552,
      "Ste": 5553,
      "росси": 5554,
      "owever": 5555,
      "dep": 5556,
      "ony": 5557,
      "результа": 5558,
      "exp": 5559,
      "ended": 5560,
      "мно": 5561,
      "Su": 5562,
      "vill": 5563,
      "jo": 5564,
      "Крас": 5565,
      "His": 5566,
      "вший": 5567,
      "yle": 5568,
      "спубли": 5569,
      "won": 5570,
      "city": 5571,
      "каде": 5572,
      "емы": 5573,
      "вклю": 5574,
      "личи": 5575,
      "льной": 5576,
      "thor": 5577,
      "80": 5578,
      "ench": 5579,
      "right": 5580,
      "ющих": 5581,
      "gen": 5582,
      "кни": 5583,
      "mod": 5584,
      "дра": 5585,
      "пери": 5586,
      "bus": 5587,
      "От": 5588,
      "1998": 5589,
      "design": 5590,
      "виа": 5591,
      "read": 5592,
      "деятель": 5593,
      "long": 5594,
      "ets": 5595,
      "left": 5596,
      "game": 5597,
      "нение": 5598,
      "Japan": 5599,
      "Литература": 5600,
      "Bar": 5601,
      "chn": 5602,
      "руко": 5603,
      "imes": 5604,
      "нин": 5605,
      "вен": 5606,
      "гер": 5607,
      "выпу": 5608,
      "sever": 5609,
      "осу": 5610,
      "форма": 5611,
      "цио": 5612,
      "place": 5613,
      "Ne": 5614,
      "1980": 5615,
      "проек": 5616,
      "годах": 5617,
      "сё": 5618,
      "History": 5619,
      "ший": 5620,
      "ford": 5621,
      "ному": 5622,
      "system": 5623,
      "вает": 5624,
      "ками": 5625,
      "Так": 5626,
      "Film": 5627,
      "45": 5628,
      "Пи": 5629,
      "Никола": 5630,
      "держа": 5631,
      "нови": 5632,
      "Ass": 5633,
      "Febr": 5634,
      "And": 5635,
      "ностью": 5636,
      "February": 5637,
      "урна": 5638,
      "бро": 5639,
      "ille": 5640,
      "1992": 5641,
      "graphy": 5642,
      "селё": 5643,
      "Indian": 5644,
      "лез": 5645,
      "ген": 5646,
      "Cr": 5647,
      "американ": 5648,
      "1991": 5649,
      "уда": 5650,
      "ama": 5651,
      "iev": 5652,
      "1996": 5653,
      "тин": 5654,
      "class": 5655,
      "Res": 5656,
      "спи": 5657,
      "фициаль": 5658,
      "ilit": 5659,
      "кри": 5660,
      "расположе": 5661,
      "start": 5662,
      "eder": 5663,
      "шения": 5664,
      "2019": 5665,
      "Europe": 5666,
      "Sw": 5667,
      "мет": 5668,
      "лага": 5669,
      "descr": 5670,
      "Mo": 5671,
      "stand": 5672,
      "октября": 5673,
      "2020": 5674,
      "ёт": 5675,
      "ington": 5676,
      "car": 5677,
      "1997": 5678,
      "aster": 5679,
      "ility": 5680,
      "ших": 5681,
      "que": 5682,
      "ун": 5683,
      "called": 5684,
      "теа": 5685,
      "lex": 5686,
      "декабря": 5687,
      "ata": 5688,
      "ek": 5689,
      "зации": 5690,
      "Sec": 5691,
      "дивизи": 5692,
      "реки": 5693,
      "1995": 5694,
      "фут": 5695,
      "Влади": 5696,
      "ана": 5697,
      "льного": 5698,
      "oss": 5699,
      "без": 5700,
      "мой": 5701,
      "Евро": 5702,
      "established": 5703,
      "resp": 5704,
      "Russ": 5705,
      "января": 5706,
      "ude": 5707,
      "следу": 5708,
      "вор": 5709,
      "Royal": 5710,
      "ally": 5711,
      "льный": 5712,
      "лла": 5713,
      "ible": 5714,
      "several": 5715,
      "архи": 5716,
      "original": 5717,
      "mar": 5718,
      "named": 5719,
      "годы": 5720,
      "тирова": 5721,
      "каче": 5722,
      "ired": 5723,
      "пара": 5724,
      "dom": 5725,
      "пода": 5726,
      "ряд": 5727,
      "кова": 5728,
      "ently": 5729,
      "aking": 5730,
      "return": 5731,
      "Mc": 5732,
      "ird": 5733,
      "ney": 5734,
      "долж": 5735,
      "хот": 5736,
      "Lond": 5737,
      "ants": 5738,
      "чь": 5739,
      "участи": 5740,
      "реги": 5741,
      "генера": 5742,
      "ival": 5743,
      "скому": 5744,
      "августа": 5745,
      "London": 5746,
      "Украины": 5747,
      "IS": 5748,
      "uk": 5749,
      "оче": 5750,
      "ему": 5751,
      "истори": 5752,
      "ator": 5753,
      "contin": 5754,
      "Dav": 5755,
      "cover": 5756,
      "поз": 5757,
      "дия": 5758,
      "название": 5759,
      "tit": 5760,
      "angu": 5761,
      "located": 5762,
      "составе": 5763,
      "ger": 5764,
      "ience": 5765,
      "war": 5766,
      "мента": 5767,
      "фина": 5768,
      "career": 5769,
      "июля": 5770,
      "dif": 5771,
      "met": 5772,
      "ause": 5773,
      "шёл": 5774,
      "кино": 5775,
      "веро": 5776,
      "телем": 5777,
      "исследо": 5778,
      "можно": 5779,
      "осно": 5780,
      "ards": 5781,
      "степе": 5782,
      "окон": 5783,
      "suc": 5784,
      "чные": 5785,
      "70": 5786,
      "Он": 5787,
      "side": 5788,
      "ana": 5789,
      "They": 5790,
      "ste": 5791,
      "La": 5792,
      "vent": 5793,
      "1994": 5794,
      "зиден": 5795,
      "final": 5796,
      "vol": 5797,
      "сентября": 5798,
      "Ри": 5799,
      "ner": 5800,
      "йский": 5801,
      "воен": 5802,
      "down": 5803,
      "ious": 5804,
      "мор": 5805,
      "чтобы": 5806,
      "will": 5807,
      "ien": 5808,
      "роди": 5809,
      "бом": 5810,
      "марта": 5811,
      "1970": 5812,
      "gl": 5813,
      "center": 5814,
      "French": 5815,
      "евич": 5816,
      "Oly": 5817,
      "1945": 5818,
      "Пет": 5819,
      "iness": 5820,
      "право": 5821,
      "мент": 5822,
      "90": 5823,
      "ches": 5824,
      "Игро": 5825,
      "key": 5826,
      "following": 5827,
      "augh": 5828,
      "ственный": 5829,
      "тек": 5830,
      "июня": 5831,
      "ander": 5832,
      "уже": 5833,
      "van": 5834,
      "reen": 5835,
      "ждения": 5836,
      "cted": 5837,
      "ral": 5838,
      "кие": 5839,
      "кус": 5840,
      "cour": 5841,
      "women": 5842,
      "Olymp": 5843,
      "вид": 5844,
      "чный": 5845,
      "шей": 5846,
      "International": 5847,
      "ответ": 5848,
      "same": 5849,
      "1993": 5850,
      "через": 5851,
      "aft": 5852,
      "чёт": 5853,
      "мон": 5854,
      "compet": 5855,
      "sl": 5856,
      "ped": 5857,
      "ble": 5858,
      "йских": 5859,
      "San": 5860,
      "pass": 5861,
      "дет": 5862,
      "since": 5863,
      "нами": 5864,
      "Per": 5865,
      "Phil": 5866,
      "33": 5867,
      "шин": 5868,
      "Har": 5869,
      "District": 5870,
      "cle": 5871,
      "Аль": 5872,
      "adem": 5873,
      "тон": 5874,
      "There": 5875,
      "около": 5876,
      "chan": 5877,
      "кру": 5878,
      "Part": 5879,
      "ines": 5880,
      "di": 5881,
      "ality": 5882,
      "club": 5883,
      "ким": 5884,
      "Mich": 5885,
      "испол": 5886,
      "зах": 5887,
      "сторо": 5888,
      "ually": 5889,
      "along": 5890,
      "requ": 5891,
      "person": 5892,
      "1944": 5893,
      "луч": 5894,
      "1989": 5895,
      "стей": 5896,
      "company": 5897,
      "двух": 5898,
      "ster": 5899,
      "idge": 5900,
      "Население": 5901,
      "tele": 5902,
      "Ital": 5903,
      "бург": 5904,
      "ison": 5905,
      "мей": 5906,
      "ially": 5907,
      "стар": 5908,
      "уби": 5909,
      "льных": 5910,
      "Act": 5911,
      "ещё": 5912,
      "лимпи": 5913,
      "территории": 5914,
      "учи": 5915,
      "High": 5916,
      "Championship": 5917,
      "опера": 5918,
      "ноября": 5919,
      "дан": 5920,
      "занима": 5921,
      "ivision": 5922,
      "авиа": 5923,
      "вшие": 5924,
      "апреля": 5925,
      "aul": 5926,
      "ником": 5927,
      "Ти": 5928,
      "сона": 5929,
      "these": 5930,
      "acks": 5931,
      "муж": 5932,
      "hes": 5933,
      "Совет": 5934,
      "струк": 5935,
      "хоро": 5936,
      "ociation": 5937,
      "ided": 5938,
      "щая": 5939,
      "один": 5940,
      "хозя": 5941,
      "сом": 5942,
      "ize": 5943,
      "served": 5944,
      "Christ": 5945,
      "ords": 5946,
      "General": 5947,
      "Not": 5948,
      "ained": 5949,
      "Игроки": 5950,
      "несколько": 5951,
      "пример": 5952,
      "ca": 5953,
      "mill": 5954,
      "uck": 5955,
      "коми": 5956,
      "built": 5957,
      "College": 5958,
      "held": 5959,
      "mark": 5960,
      "Dep": 5961,
      "кур": 5962,
      "эта": 5963,
      "program": 5964,
      "estern": 5965,
      "population": 5966,
      "nia": 5967,
      "member": 5968,
      "элек": 5969,
      "ately": 5970,
      "round": 5971,
      "Ав": 5972,
      "шение": 5973,
      "law": 5974,
      "режи": 5975,
      "одно": 5976,
      "Afr": 5977,
      "water": 5978,
      "гор": 5979,
      "льные": 5980,
      "вари": 5981,
      "группы": 5982,
      "Биография": 5983,
      "дели": 5984,
      "members": 5985,
      "тие": 5986,
      "февраля": 5987,
      "formed": 5988,
      "Ab": 5989,
      "журна": 5990,
      "чем": 5991,
      "участ": 5992,
      "fac": 5993,
      "near": 5994,
      "dren": 5995,
      "began": 5996,
      "ведения": 5997,
      "сни": 5998,
      "центра": 5999,
      "Это": 6000,
      "может": 6001,
      "gy": 6002,
      "строе": 6003,
      "строй": 6004,
      "65": 6005,
      "хе": 6006,
      "ляр": 6007,
      "home": 6008,
      "слав": 6009,
      "там": 6010,
      "species": 6011,
      "34": 6012,
      "38": 6013,
      "Army": 6014,
      "style": 6015,
      "government": 6016,
      "1960": 6017,
      "published": 6018,
      "station": 6019,
      "rad": 6020,
      "ane": 6021,
      "ats": 6022,
      "гов": 6023,
      "describ": 6024,
      "защи": 6025,
      "bro": 6026,
      "ects": 6027,
      "профе": 6028,
      "кол": 6029,
      "BC": 6030,
      "писи": 6031,
      "фу": 6032,
      "Ber": 6033,
      "tem": 6034,
      "2021": 6035,
      "hold": 6036,
      "ple": 6037,
      "bor": 6038,
      "кам": 6039,
      "37": 6040,
      "счита": 6041,
      "manag": 6042,
      "book": 6043,
      "ones": 6044,
      "Все": 6045,
      "ights": 6046,
      "1943": 6047,
      "Str": 6048,
      "did": 6049,
      "world": 6050,
      "площа": 6051,
      "искус": 6052,
      "ат": 6053,
      "sim": 6054,
      "См": 6055,
      "ature": 6056,
      "нными": 6057,
      "German": 6058,
      "George": 6059,
      "cil": 6060,
      "rew": 6061,
      "ref": 6062,
      "скими": 6063,
      "support": 6064,
      "которой": 6065,
      "tal": 6066,
      "ил": 6067,
      "itions": 6068,
      "44": 6069,
      "правления": 6070,
      "бла": 6071,
      "жд": 6072,
      "шен": 6073,
      "явле": 6074,
      "Хо": 6075,
      "жил": 6076,
      "актив": 6077,
      "продол": 6078,
      "опре": 6079,
      "мирова": 6080,
      "yn": 6081,
      "круп": 6082,
      "Москов": 6083,
      "Living": 6084,
      "west": 6085,
      "ald": 6086,
      "других": 6087,
      "ides": 6088,
      "тора": 6089,
      "ett": 6090,
      "vari": 6091,
      "ственного": 6092,
      "Des": 6093,
      "ms": 6094,
      "1941": 6095,
      "Лю": 6096,
      "order": 6097,
      "мец": 6098,
      "prom": 6099,
      "People": 6100,
      "small": 6101,
      "изи": 6102,
      "aim": 6103,
      "ron": 6104,
      "tour": 6105,
      "доста": 6106,
      "пя": 6107,
      "Ива": 6108,
      "кси": 6109,
      "которая": 6110,
      "ured": 6111,
      "north": 6112,
      "List": 6113,
      "бере": 6114,
      "hal": 6115,
      "ined": 6116,
      "програм": 6117,
      "нет": 6118,
      "село": 6119,
      "1988": 6120,
      "vice": 6121,
      "мия": 6122,
      "смер": 6123,
      "36": 6124,
      "Mon": 6125,
      "rest": 6126,
      "шие": 6127,
      "ёх": 6128,
      "village": 6129,
      "ступи": 6130,
      "cast": 6131,
      "называ": 6132,
      "каз": 6133,
      "моло": 6134,
      "profess": 6135,
      "like": 6136,
      "ull": 6137,
      "ган": 6138,
      "Миха": 6139,
      "took": 6140,
      "муни": 6141,
      "министратив": 6142,
      "сня": 6143,
      "хозяй": 6144,
      "aint": 6145,
      "marr": 6146,
      "iter": 6147,
      "Offic": 6148,
      "uch": 6149,
      "заня": 6150,
      "curr": 6151,
      "ought": 6152,
      "langu": 6153,
      "James": 6154,
      "дли": 6155,
      "тно": 6156,
      "River": 6157,
      "XI": 6158,
      "гру": 6159,
      "fact": 6160,
      "cept": 6161,
      "Cup": 6162,
      "national": 6163,
      "встре": 6164,
      "бое": 6165,
      "чен": 6166,
      "спа": 6167,
      "тами": 6168,
      "анг": 6169,
      "своей": 6170,
      "чер": 6171,
      "180": 6172,
      "диа": 6173,
      "большо": 6174,
      "Cap": 6175,
      "точ": 6176,
      "зер": 6177,
      "населения": 6178,
      "ilitary": 6179,
      "ni": 6180,
      "educ": 6181,
      "щен": 6182,
      "1985": 6183,
      "кло": 6184,
      "район": 6185,
      "комп": 6186,
      "ummer": 6187,
      "48": 6188,
      "Roman": 6189,
      "становле": 6190,
      "single": 6191,
      "труд": 6192,
      "TV": 6193,
      "games": 6194,
      "стран": 6195,
      "gest": 6196,
      "дж": 6197,
      "oks": 6198,
      "фран": 6199,
      "success": 6200,
      "Ear": 6201,
      "player": 6202,
      "получил": 6203,
      "чле": 6204,
      "My": 6205,
      "вала": 6206,
      "град": 6207,
      "случа": 6208,
      "шки": 6209,
      "1942": 6210,
      "died": 6211,
      "building": 6212,
      "charac": 6213,
      "XV": 6214,
      "cord": 6215,
      "разли": 6216,
      "def": 6217,
      "верх": 6218,
      "39": 6219,
      "south": 6220,
      "local": 6221,
      "ling": 6222,
      "чил": 6223,
      "received": 6224,
      "32": 6225,
      "Music": 6226,
      "вил": 6227,
      "выше": 6228,
      "чения": 6229,
      "Ком": 6230,
      "each": 6231,
      "ideo": 6232,
      "ходя": 6233,
      "iet": 6234,
      "бя": 6235,
      "деревня": 6236,
      "Pres": 6237,
      "Qu": 6238,
      "Республи": 6239,
      "тельство": 6240,
      "вших": 6241,
      "lands": 6242,
      "губер": 6243,
      "earch": 6244,
      "RA": 6245,
      "мона": 6246,
      "around": 6247,
      "тах": 6248,
      "aining": 6249,
      "дина": 6250,
      "wood": 6251,
      "House": 6252,
      "ised": 6253,
      "2022": 6254,
      "eff": 6255,
      "rop": 6256,
      "назначе": 6257,
      "sw": 6258,
      "went": 6259,
      "рода": 6260,
      "ципа": 6261,
      "ically": 6262,
      "Бер": 6263,
      "Герма": 6264,
      "Gl": 6265,
      "na": 6266,
      "няя": 6267,
      "первые": 6268,
      "graph": 6269,
      "Дже": 6270,
      "грани": 6271,
      "институ": 6272,
      "1987": 6273,
      "вается": 6274,
      "Australia": 6275,
      "Wil": 6276,
      "could": 6277,
      "ues": 6278,
      "тай": 6279,
      "Ang": 6280,
      "Sch": 6281,
      "kill": 6282,
      "ified": 6283,
      "ored": 6284,
      "литера": 6285,
      "Сою": 6286,
      "сам": 6287,
      "тран": 6288,
      "Thom": 6289,
      "вну": 6290,
      "reet": 6291,
      "тельства": 6292,
      "конце": 6293,
      "Анд": 6294,
      "качестве": 6295,
      "лев": 6296,
      "history": 6297,
      "attle": 6298,
      "den": 6299,
      "ze": 6300,
      "началь": 6301,
      "ius": 6302,
      "производ": 6303,
      "major": 6304,
      "Ло": 6305,
      "проис": 6306,
      "By": 6307,
      "памя": 6308,
      "переда": 6309,
      "футбо": 6310,
      "имени": 6311,
      "лист": 6312,
      "времен": 6313,
      "ports": 6314,
      "hip": 6315,
      "зан": 6316,
      "allow": 6317,
      "Петер": 6318,
      "Однако": 6319,
      "Мак": 6320,
      "кви": 6321,
      "aving": 6322,
      "всех": 6323,
      "ifor": 6324,
      "циали": 6325,
      "sport": 6326,
      "Park": 6327,
      "националь": 6328,
      "заме": 6329,
      "ФК": 6330,
      "голо": 6331,
      "шла": 6332,
      "кая": 6333,
      "мыш": 6334,
      "television": 6335,
      "1986": 6336,
      "six": 6337,
      "бан": 6338,
      "есть": 6339,
      "жной": 6340,
      "said": 6341,
      "rown": 6342,
      "due": 6343,
      "Пу": 6344,
      "osp": 6345,
      "среди": 6346,
      "1950": 6347,
      "Sm": 6348,
      "ctr": 6349,
      "миро": 6350,
      "цией": 6351,
      "ha": 6352,
      "Олимпи": 6353,
      "tex": 6354,
      "power": 6355,
      "уе": 6356,
      "клад": 6357,
      "described": 6358,
      "useum": 6359,
      "вз": 6360,
      "сут": 6361,
      "Califor": 6362,
      "75": 6363,
      "ma": 6364,
      "1940": 6365,
      "которого": 6366,
      "val": 6367,
      "web": 6368,
      "ges": 6369,
      "78": 6370,
      "Франции": 6371,
      "nov": 6372,
      "1984": 6373,
      "ourn": 6374,
      "event": 6375,
      "Ша": 6376,
      "ric": 6377,
      "ll": 6378,
      "значи": 6379,
      "1930": 6380,
      "aud": 6381,
      "level": 6382,
      "использу": 6383,
      "ville": 6384,
      "воло": 6385,
      "зави": 6386,
      "California": 6387,
      "рок": 6388,
      "университета": 6389,
      "поч": 6390,
      "del": 6391,
      "less": 6392,
      "приме": 6393,
      "bre": 6394,
      "dem": 6395,
      "last": 6396,
      "носи": 6397,
      "district": 6398,
      "затем": 6399,
      "ственно": 6400,
      "составляет": 6401,
      "self": 6402,
      "tt": 6403,
      "нару": 6404,
      "дой": 6405,
      "sem": 6406,
      "чного": 6407,
      "вместе": 6408,
      "dustr": 6409,
      "ban": 6410,
      "совер": 6411,
      "зов": 6412,
      "Российской": 6413,
      "дро": 6414,
      "histor": 6415,
      "ске": 6416,
      "быть": 6417,
      "сон": 6418,
      "1982": 6419,
      "oto": 6420,
      "aver": 6421,
      "very": 6422,
      "five": 6423,
      "ради": 6424,
      "немец": 6425,
      "орде": 6426,
      "children": 6427,
      "жды": 6428,
      "сме": 6429,
      "ink": 6430,
      "short": 6431,
      "olv": 6432,
      "зова": 6433,
      "однако": 6434,
      "обы": 6435,
      "issu": 6436,
      "general": 6437,
      "Ду": 6438,
      "рам": 6439,
      "четы": 6440,
      "жизни": 6441,
      "ays": 6442,
      "large": 6443,
      "within": 6444,
      "camp": 6445,
      "сок": 6446,
      "ico": 6447,
      "худож": 6448,
      "жё": 6449,
      "ected": 6450,
      "проце": 6451,
      "Свя": 6452,
      "49": 6453,
      "годов": 6454,
      "шли": 6455,
      "женщи": 6456,
      "just": 6457,
      "India": 6458,
      "тар": 6459,
      "Гу": 6460,
      "успе": 6461,
      "способ": 6462,
      "father": 6463,
      "iment": 6464,
      "кора": 6465,
      "Bel": 6466,
      "track": 6467,
      "ference": 6468,
      "author": 6469,
      "желез": 6470,
      "hand": 6471,
      "gar": 6472,
      "win": 6473,
      "эконо": 6474,
      "истории": 6475,
      "находится": 6476,
      "седа": 6477,
      "пада": 6478,
      "нович": 6479,
      "akes": 6480,
      "акаде": 6481,
      "struct": 6482,
      "Val": 6483,
      "лина": 6484,
      "зии": 6485,
      "цуз": 6486,
      "included": 6487,
      "начала": 6488,
      "One": 6489,
      "To": 6490,
      "cor": 6491,
      "вне": 6492,
      "ост": 6493,
      "mid": 6494,
      "works": 6495,
      "этой": 6496,
      "East": 6497,
      "Hen": 6498,
      "voc": 6499,
      "общи": 6500,
      "стя": 6501,
      "46": 6502,
      "принима": 6503,
      "47": 6504,
      "represent": 6505,
      "complet": 6506,
      "дво": 6507,
      "rac": 6508,
      "цар": 6509,
      "вели": 6510,
      "Mal": 6511,
      "ara": 6512,
      "соеди": 6513,
      "depend": 6514,
      "However": 6515,
      "вода": 6516,
      "ociety": 6517,
      "нной": 6518,
      "самы": 6519,
      "CA": 6520,
      "Васи": 6521,
      "матери": 6522,
      "iod": 6523,
      "non": 6524,
      "oint": 6525,
      "шь": 6526,
      "тал": 6527,
      "Best": 6528,
      "йн": 6529,
      "мом": 6530,
      "основа": 6531,
      "деля": 6532,
      "post": 6533,
      "third": 6534,
      "iate": 6535,
      "логии": 6536,
      "Боль": 6537,
      "армии": 6538,
      "grad": 6539,
      "You": 6540,
      "ocial": 6541,
      "верну": 6542,
      "слова": 6543,
      "Li": 6544,
      "ческой": 6545,
      "idae": 6546,
      "ody": 6547,
      "чина": 6548,
      "себя": 6549,
      "работы": 6550,
      "iven": 6551,
      "ческих": 6552,
      "Australian": 6553,
      "ri": 6554,
      "лко": 6555,
      "England": 6556,
      "тных": 6557,
      "день": 6558,
      "дости": 6559,
      "1976": 6560,
      "ww": 6561,
      "городе": 6562,
      "включа": 6563,
      "gin": 6564,
      "Em": 6565,
      "atic": 6566,
      "начале": 6567,
      "ствует": 6568,
      "hum": 6569,
      "лья": 6570,
      "пря": 6571,
      "ivil": 6572,
      "фика": 6573,
      "арти": 6574,
      "formation": 6575,
      "сайте": 6576,
      "электро": 6577,
      "волю": 6578,
      "include": 6579,
      "Que": 6580,
      "quad": 6581,
      "ged": 6582,
      "фон": 6583,
      "Go": 6584,
      "1968": 6585,
      "language": 6586,
      "призна": 6587,
      "service": 6588,
      "sold": 6589,
      "mag": 6590,
      "ru": 6591,
      "test": 6592,
      "роль": 6593,
      "количе": 6594,
      "1979": 6595,
      "business": 6596,
      "Red": 6597,
      "ватель": 6598,
      "ument": 6599,
      "rail": 6600,
      "position": 6601,
      "tom": 6602,
      "согла": 6603,
      "male": 6604,
      "1983": 6605,
      "ток": 6606,
      "ческий": 6607,
      "urther": 6608,
      "During": 6609,
      "участие": 6610,
      "onom": 6611,
      "ush": 6612,
      "тики": 6613,
      "рье": 6614,
      "пыта": 6615,
      "шим": 6616,
      "ning": 6617,
      "Publ": 6618,
      "color": 6619,
      "низ": 6620,
      "ense": 6621,
      "изме": 6622,
      "1972": 6623,
      "зависи": 6624,
      "хода": 6625,
      "ino": 6626,
      "харак": 6627,
      "матиче": 6628,
      "oung": 6629,
      "activ": 6630,
      "ization": 6631,
      "Отече": 6632,
      "Cour": 6633,
      "lim": 6634,
      "ipt": 6635,
      "board": 6636,
      "cas": 6637,
      "нах": 6638,
      "кс": 6639,
      "многи": 6640,
      "avy": 6641,
      "establish": 6642,
      "нец": 6643,
      "пункты": 6644,
      "чей": 6645,
      "1975": 6646,
      "Year": 6647,
      "deaths": 6648,
      "Histor": 6649,
      "1973": 6650,
      "ler": 6651,
      "свою": 6652,
      "ament": 6653,
      "проти": 6654,
      "get": 6655,
      "burg": 6656,
      "stat": 6657,
      "менно": 6658,
      "announ": 6659,
      "cording": 6660,
      "1978": 6661,
      "porary": 6662,
      "Charles": 6663,
      "Wal": 6664,
      "времени": 6665,
      "вей": 6666,
      "команди": 6667,
      "пов": 6668,
      "нитель": 6669,
      "amb": 6670,
      "omb": 6671,
      "соответ": 6672,
      "1920": 6673,
      "гар": 6674,
      "ploy": 6675,
      "gress": 6676,
      "Arch": 6677,
      "сим": 6678,
      "Pal": 6679,
      "Canadian": 6680,
      "чет": 6681,
      "всего": 6682,
      "David": 6683,
      "фильм": 6684,
      "Don": 6685,
      "iend": 6686,
      "1967": 6687,
      "позво": 6688,
      "Group": 6689,
      "сез": 6690,
      "ministr": 6691,
      "because": 6692,
      "moved": 6693,
      "эй": 6694,
      "unicip": 6695,
      "vious": 6696,
      "оло": 6697,
      "дел": 6698,
      "рин": 6699,
      "Александр": 6700,
      "связи": 6701,
      "using": 6702,
      "стана": 6703,
      "Под": 6704,
      "сей": 6705,
      "Федера": 6706,
      "85": 6707,
      "гг": 6708,
      "настоя": 6709,
      "мин": 6710,
      "запад": 6711,
      "Гла": 6712,
      "vir": 6713,
      "Dan": 6714,
      "report": 6715,
      "Ap": 6716,
      "Ke": 6717,
      "techn": 6718,
      "Филь": 6719,
      "ню": 6720,
      "ness": 6721,
      "служ": 6722,
      "вов": 6723,
      "ipp": 6724,
      "Север": 6725,
      "представи": 6726,
      "ains": 6727,
      "лок": 6728,
      "artment": 6729,
      "Sing": 6730,
      "расте": 6731,
      "services": 6732,
      "see": 6733,
      "стала": 6734,
      "Чем": 6735,
      "1981": 6736,
      "кана": 6737,
      "1974": 6738,
      "Rich": 6739,
      "France": 6740,
      "continu": 6741,
      "Hol": 6742,
      "fem": 6743,
      "Бы": 6744,
      "выпол": 6745,
      "1939": 6746,
      "нё": 6747,
      "дома": 6748,
      "1971": 6749,
      "64": 6750,
      "ael": 6751,
      "прия": 6752,
      "even": 6753,
      "ily": 6754,
      "помощ": 6755,
      "туре": 6756,
      "99": 6757,
      "тая": 6758,
      "человека": 6759,
      "свой": 6760,
      "km": 6761,
      "физи": 6762,
      "бора": 6763,
      "поддер": 6764,
      "Также": 6765,
      "сою": 6766,
      "станови": 6767,
      "text": 6768,
      "Tur": 6769,
      "своего": 6770,
      "sit": 6771,
      "sequ": 6772,
      "Ma": 6773,
      "miss": 6774,
      "ху": 6775,
      "Восто": 6776,
      "Кри": 6777,
      "кли": 6778,
      "селённые": 6779,
      "Dem": 6780,
      "имеет": 6781,
      "dist": 6782,
      "ино": 6783,
      "still": 6784,
      "возмож": 6785,
      "две": 6786,
      "When": 6787,
      "Paul": 6788,
      "ит": 6789,
      "crit": 6790,
      "har": 6791,
      "Ту": 6792,
      "округа": 6793,
      "чная": 6794,
      "ona": 6795,
      "оборо": 6796,
      "живо": 6797,
      "million": 6798,
      "Ele": 6799,
      "differ": 6800,
      "20th": 6801,
      "ibut": 6802,
      "чего": 6803,
      "бира": 6804,
      "Road": 6805,
      "astern": 6806,
      "ched": 6807,
      "Ча": 6808,
      "ствии": 6809,
      "wards": 6810,
      "пас": 6811,
      "1977": 6812,
      "equ": 6813,
      "первый": 6814,
      "Records": 6815,
      "addition": 6816,
      "Чемпи": 6817,
      "FC": 6818,
      "Бело": 6819,
      "советский": 6820,
      "appro": 6821,
      "ctions": 6822,
      "ктора": 6823,
      "выступа": 6824,
      "формирова": 6825,
      "Dis": 6826,
      "пута": 6827,
      "комму": 6828,
      "граф": 6829,
      "пита": 6830,
      "Robert": 6831,
      "ющей": 6832,
      "placed": 6833,
      "late": 6834,
      "Stud": 6835,
      "result": 6836,
      "net": 6837,
      "риа": 6838,
      "ново": 6839,
      "ountain": 6840,
      "winn": 6841,
      "1969": 6842,
      "президен": 6843,
      "разд": 6844,
      "щих": 6845,
      "written": 6846,
      "country": 6847,
      "Tran": 6848,
      "Чер": 6849,
      "усло": 6850,
      "though": 6851,
      "Mag": 6852,
      "тика": 6853,
      "ops": 6854,
      "come": 6855,
      "Fir": 6856,
      "Lou": 6857,
      "Пра": 6858,
      "sett": 6859,
      "Ter": 6860,
      "doc": 6861,
      "tar": 6862,
      "бю": 6863,
      "станции": 6864,
      "Vir": 6865,
      "best": 6866,
      "тья": 6867,
      "politic": 6868,
      "42": 6869,
      "йского": 6870,
      "сце": 6871,
      "itar": 6872,
      "инте": 6873,
      "Lu": 6874,
      "рю": 6875,
      "itor": 6876,
      "Council": 6877,
      "льная": 6878,
      "community": 6879,
      "Division": 6880,
      "относи": 6881,
      "those": 6882,
      "Port": 6883,
      "spe": 6884,
      "iction": 6885,
      "uel": 6886,
      "щения": 6887,
      "ческого": 6888,
      "Club": 6889,
      "Association": 6890,
      "оте": 6891,
      "umb": 6892,
      "второй": 6893,
      "debut": 6894,
      "sol": 6895,
      "outhern": 6896,
      "работал": 6897,
      "Super": 6898,
      "55": 6899,
      "ineer": 6900,
      "джа": 6901,
      "време": 6902,
      "мень": 6903,
      "сю": 6904,
      "Серге": 6905,
      "put": 6906,
      "подо": 6907,
      "omin": 6908,
      "пуск": 6909,
      "приз": 6910,
      "1966": 6911,
      "iers": 6912,
      "бов": 6913,
      "политиче": 6914,
      "пись": 6915,
      "claim": 6916,
      "consid": 6917,
      "француз": 6918,
      "Football": 6919,
      "pur": 6920,
      "BN": 6921,
      "Dev": 6922,
      "Вто": 6923,
      "ibr": 6924,
      "Ново": 6925,
      "упо": 6926,
      "sec": 6927,
      "этому": 6928,
      "храни": 6929,
      "host": 6930,
      "ren": 6931,
      "турни": 6932,
      "моби": 6933,
      "нан": 6934,
      "director": 6935,
      "писко": 6936,
      "казыва": 6937,
      "1964": 6938,
      "Thomas": 6939,
      "exper": 6940,
      "ходе": 6941,
      "Отечественной": 6942,
      "turn": 6943,
      "ournal": 6944,
      "another": 6945,
      "данным": 6946,
      "trad": 6947,
      "refer": 6948,
      "период": 6949,
      "forman": 6950,
      "ую": 6951,
      "chang": 6952,
      "award": 6953,
      "European": 6954,
      "вую": 6955,
      "orts": 6956,
      "показа": 6957,
      "ум": 6958,
      "international": 6959,
      "period": 6960,
      "Academ": 6961,
      "спорт": 6962,
      "king": 6963,
      "irl": 6964,
      "Play": 6965,
      "режисс": 6966,
      "ream": 6967,
      "Lie": 6968,
      "term": 6969,
      "expl": 6970,
      "Department": 6971,
      "ческие": 6972,
      "clos": 6973,
      "compos": 6974,
      "Mac": 6975,
      "ago": 6976,
      "ствовал": 6977,
      "poss": 6978,
      "Germany": 6979,
      "1918": 6980,
      "incre": 6981,
      "Ос": 6982,
      "itte": 6983,
      "Company": 6984,
      "уров": 6985,
      "Mor": 6986,
      "ij": 6987,
      "cult": 6988,
      "married": 6989,
      "produced": 6990,
      "акт": 6991,
      "China": 6992,
      "игры": 6993,
      "Black": 6994,
      "Рус": 6995,
      "вшего": 6996,
      "half": 6997,
      "atter": 6998,
      "гии": 6999,
      "бай": 7000,
      "Party": 7001,
      "перед": 7002,
      "Prov": 7003,
      "вести": 7004,
      "1965": 7005,
      "Street": 7006,
      "Mex": 7007,
      "ida": 7008,
      "чин": 7009,
      "тео": 7010,
      "пад": 7011,
      "вол": 7012,
      "With": 7013,
      "Church": 7014,
      "ensus": 7015,
      "Law": 7016,
      "contain": 7017,
      "video": 7018,
      "Кро": 7019,
      "этот": 7020,
      "1957": 7021,
      "ющего": 7022,
      "Town": 7023,
      "празд": 7024,
      "шего": 7025,
      "Великой": 7026,
      "yl": 7027,
      "Цен": 7028,
      "Men": 7029,
      "era": 7030,
      "Rail": 7031,
      "ya": 7032,
      "constru": 7033,
      "America": 7034,
      "импе": 7035,
      "представля": 7036,
      "кня": 7037,
      "могу": 7038,
      "ictor": 7039,
      "другие": 7040,
      "Союза": 7041,
      "Bro": 7042,
      "Cam": 7043,
      "cis": 7044,
      "Спи": 7045,
      "зде": 7046,
      "степени": 7047,
      "88": 7048,
      "щее": 7049,
      "рован": 7050,
      "гражда": 7051,
      "Его": 7052,
      "жении": 7053,
      "duc": 7054,
      "Хар": 7055,
      "ively": 7056,
      "point": 7057,
      "образом": 7058,
      "tw": 7059,
      "shire": 7060,
      "previous": 7061,
      "гото": 7062,
      "Che": 7063,
      "ox": 7064,
      "ena": 7065,
      "Press": 7066,
      "театра": 7067,
      "ivid": 7068,
      "Scott": 7069,
      "Роди": 7070,
      "Alex": 7071,
      "май": 7072,
      "Националь": 7073,
      "объек": 7074,
      "муниципа": 7075,
      "сдела": 7076,
      "1963": 7077,
      "результате": 7078,
      "different": 7079,
      "фрон": 7080,
      "стр": 7081,
      "наук": 7082,
      "istan": 7083,
      "импера": 7084,
      "собой": 7085,
      "attack": 7086,
      "Vol": 7087,
      "fun": 7088,
      "поле": 7089,
      "sen": 7090,
      "Flor": 7091,
      "свои": 7092,
      "make": 7093,
      "нев": 7094,
      "1938": 7095,
      "друго": 7096,
      "Между": 7097,
      "special": 7098,
      "1959": 7099,
      "Bur": 7100,
      "написа": 7101,
      "what": 7102,
      "title": 7103,
      "role": 7104,
      "ственных": 7105,
      "asket": 7106,
      "development": 7107,
      "announced": 7108,
      "east": 7109,
      "административ": 7110,
      "Ал": 7111,
      "Гри": 7112,
      "тю": 7113,
      "тил": 7114,
      "мости": 7115,
      "arry": 7116,
      "real": 7117,
      "lection": 7118,
      "Mart": 7119,
      "Ад": 7120,
      "43": 7121,
      "ата": 7122,
      "95": 7123,
      "Sal": 7124,
      "компози": 7125,
      "специаль": 7126,
      "тый": 7127,
      "стри": 7128,
      "church": 7129,
      "распро": 7130,
      "ющим": 7131,
      "opened": 7132,
      "комплек": 7133,
      "character": 7134,
      "сол": 7135,
      "compan": 7136,
      "группа": 7137,
      "Rad": 7138,
      "ode": 7139,
      "совета": 7140,
      "First": 7141,
      "pen": 7142,
      "Met": 7143,
      "зей": 7144,
      "онов": 7145,
      "olic": 7146,
      "отдель": 7147,
      "Service": 7148,
      "reek": 7149,
      "генерал": 7150,
      "oo": 7151,
      "альбо": 7152,
      "ждение": 7153,
      "Hill": 7154,
      "корпу": 7155,
      "Mary": 7156,
      "version": 7157,
      "Canada": 7158,
      "tor": 7159,
      "ached": 7160,
      "68": 7161,
      "Совета": 7162,
      "наи": 7163,
      "abor": 7164,
      "щий": 7165,
      "aged": 7166,
      "bridge": 7167,
      "музыка": 7168,
      "ницы": 7169,
      "международ": 7170,
      "stitute": 7171,
      "AS": 7172,
      "лишь": 7173,
      "1956": 7174,
      "cus": 7175,
      "thing": 7176,
      "500": 7177,
      "1948": 7178,
      "ссии": 7179,
      "ope": 7180,
      "every": 7181,
      "собен": 7182,
      "ta": 7183,
      "прак": 7184,
      "Cath": 7185,
      "дий": 7186,
      "Санкт": 7187,
      "mit": 7188,
      "story": 7189,
      "заклю": 7190,
      "Sam": 7191,
      "vo": 7192,
      "1962": 7193,
      "From": 7194,
      "официаль": 7195,
      "положе": 7196,
      "among": 7197,
      "КП": 7198,
      "сборной": 7199,
      "ждён": 7200,
      "поселения": 7201,
      "уве": 7202,
      "деся": 7203,
      "награ": 7204,
      "action": 7205,
      "living": 7206,
      "семей": 7207,
      "quar": 7208,
      "цов": 7209,
      "Зе": 7210,
      "ection": 7211,
      "Ze": 7212,
      "функ": 7213,
      "Wash": 7214,
      "кин": 7215,
      "appoint": 7216,
      "Ver": 7217,
      "det": 7218,
      "един": 7219,
      "разме": 7220,
      "ISBN": 7221,
      "41": 7222,
      "Mid": 7223,
      "bas": 7224,
      "Er": 7225,
      "stor": 7226,
      "albums": 7227,
      "оконча": 7228,
      "лова": 7229,
      "Республики": 7230,
      "itect": 7231,
      "started": 7232,
      "osa": 7233,
      "writer": 7234,
      "1946": 7235,
      "организа": 7236,
      "жива": 7237,
      "sent": 7238,
      "тный": 7239,
      "light": 7240,
      "1937": 7241,
      "67": 7242,
      "собы": 7243,
      "гвар": 7244,
      "Поль": 7245,
      "Commun": 7246,
      "интер": 7247,
      "посе": 7248,
      "given": 7249,
      "ева": 7250,
      "еписко": 7251,
      "hon": 7252,
      "озе": 7253,
      "больше": 7254,
      "Sen": 7255,
      "cher": 7256,
      "1917": 7257,
      "songs": 7258,
      "Mad": 7259,
      "lear": 7260,
      "Direct": 7261,
      "км2": 7262,
      "обеспе": 7263,
      "шую": 7264,
      "пен": 7265,
      "Henry": 7266,
      "Для": 7267,
      "направле": 7268,
      "Mer": 7269,
      "cell": 7270,
      "total": 7271,
      "umni": 7272,
      "буду": 7273,
      "ways": 7274,
      "Ги": 7275,
      "Gold": 7276,
      "компании": 7277,
      "ог": 7278,
      "кое": 7279,
      "ittle": 7280,
      "hib": 7281,
      "мето": 7282,
      "1936": 7283,
      "партии": 7284,
      "которое": 7285,
      "ул": 7286,
      "nd": 7287,
      "ССР": 7288,
      "Ir": 7289,
      "ниц": 7290,
      "вобо": 7291,
      "friend": 7292,
      "зву": 7293,
      "стали": 7294,
      "спек": 7295,
      "образования": 7296,
      "Германии": 7297,
      "Japanese": 7298,
      "Italian": 7299,
      "Games": 7300,
      "Mill": 7301,
      "нина": 7302,
      "собра": 7303,
      "одной": 7304,
      "возду": 7305,
      "XX": 7306,
      "rote": 7307,
      "Grand": 7308,
      "Michael": 7309,
      "uten": 7310,
      "игро": 7311,
      "Mil": 7312,
      "нам": 7313,
      "появи": 7314,
      "often": 7315,
      "самолё": 7316,
      "Пред": 7317,
      "блю": 7318,
      "лад": 7319,
      "sch": 7320,
      "бит": 7321,
      "President": 7322,
      "Sun": 7323,
      "pat": 7324,
      "рами": 7325,
      "прин": 7326,
      "являются": 7327,
      "1958": 7328,
      "dle": 7329,
      "ote": 7330,
      "даже": 7331,
      "Госу": 7332,
      "ффе": 7333,
      "водо": 7334,
      "церков": 7335,
      "AR": 7336,
      "Tex": 7337,
      "Официаль": 7338,
      "eds": 7339,
      "оказа": 7340,
      "init": 7341,
      "реда": 7342,
      "Francis": 7343,
      "жан": 7344,
      "Union": 7345,
      "Society": 7346,
      "сотруд": 7347,
      "своих": 7348,
      "cript": 7349,
      "ьер": 7350,
      "тельной": 7351,
      "Jer": 7352,
      "тые": 7353,
      "Leg": 7354,
      "ступа": 7355,
      "election": 7356,
      "asketball": 7357,
      "укра": 7358,
      "тет": 7359,
      "жу": 7360,
      "ittee": 7361,
      "Peter": 7362,
      "трен": 7363,
      "Women": 7364,
      "came": 7365,
      "flu": 7366,
      "Джон": 7367,
      "joined": 7368,
      "ступле": 7369,
      "двига": 7370,
      "White": 7371,
      "ellow": 7372,
      "скоре": 7373,
      "ours": 7374,
      "Russian": 7375,
      "деления": 7376,
      "Кор": 7377,
      "roy": 7378,
      "культуры": 7379,
      "ka": 7380,
      "хан": 7381,
      "ults": 7382,
      "performan": 7383,
      "import": 7384,
      "aper": 7385,
      "Summer": 7386,
      "daugh": 7387,
      "типа": 7388,
      "проду": 7389,
      "1961": 7390,
      "сельского": 7391,
      "ency": 7392,
      "ker": 7393,
      "могут": 7394,
      "циа": 7395,
      "коллек": 7396,
      "Po": 7397,
      "ints": 7398,
      "race": 7399,
      "представле": 7400,
      "ials": 7401,
      "дат": 7402,
      "ston": 7403,
      "веду": 7404,
      "craft": 7405,
      "область": 7406,
      "Awards": 7407,
      "Court": 7408,
      "wife": 7409,
      "ability": 7410,
      "зом": 7411,
      "эт": 7412,
      "центр": 7413,
      "posed": 7414,
      "Мон": 7415,
      "ned": 7416,
      "ois": 7417,
      "фер": 7418,
      "tra": 7419,
      "правля": 7420,
      "котором": 7421,
      "1947": 7422,
      "техниче": 7423,
      "hol": 7424,
      "1955": 7425,
      "Олимпийских": 7426,
      "footballers": 7427,
      "Museum": 7428,
      "professional": 7429,
      "wrote": 7430,
      "бар": 7431,
      "worked": 7432,
      "системы": 7433,
      "57": 7434,
      "ссы": 7435,
      "ots": 7436,
      "тета": 7437,
      "room": 7438,
      "estival": 7439,
      "Государ": 7440,
      "Educ": 7441,
      "Велико": 7442,
      "much": 7443,
      "воро": 7444,
      "Kingdom": 7445,
      "Bill": 7446,
      "Раз": 7447,
      "Выпуск": 7448,
      "military": 7449,
      "войска": 7450,
      "created": 7451,
      "Sl": 7452,
      "ming": 7453,
      "Washington": 7454,
      "Im": 7455,
      "ades": 7456,
      "тыся": 7457,
      "след": 7458,
      "существо": 7459,
      "Владимир": 7460,
      "various": 7461,
      "take": 7462,
      "гли": 7463,
      "вопро": 7464,
      "acy": 7465,
      "най": 7466,
      "лой": 7467,
      "prim": 7468,
      "involv": 7469,
      "Chin": 7470,
      "трёх": 7471,
      "брь": 7472,
      "метров": 7473,
      "золо": 7474,
      "Ана": 7475,
      "описа": 7476,
      "ological": 7477,
      "профессо": 7478,
      "utenant": 7479,
      "пли": 7480,
      "1919": 7481,
      "change": 7482,
      "Western": 7483,
      "ources": 7484,
      "Бар": 7485,
      "Jose": 7486,
      "Sim": 7487,
      "ike": 7488,
      "дя": 7489,
      "информа": 7490,
      "ending": 7491,
      "coach": 7492,
      "руковод": 7493,
      "returned": 7494,
      "58": 7495,
      "bar": 7496,
      "эле": 7497,
      "меха": 7498,
      "одним": 7499,
      "ванием": 7500,
      "gener": 7501,
      "тельный": 7502,
      "CD": 7503,
      "Victor": 7504,
      "тные": 7505,
      "itz": 7506,
      "Верхов": 7507,
      "глу": 7508,
      "фри": 7509,
      "oute": 7510,
      "необ": 7511,
      "провин": 7512,
      "Гра": 7513,
      "Miss": 7514,
      "учё": 7515,
      "эр": 7516,
      "стой": 7517,
      "лиги": 7518,
      "меди": 7519,
      "process": 7520,
      "Запад": 7521,
      "очень": 7522,
      "мл": 7523,
      "industr": 7524,
      "Up": 7525,
      "conn": 7526,
      "логия": 7527,
      "66": 7528,
      "попу": 7529,
      "дире": 7530,
      "Kar": 7531,
      "полков": 7532,
      "NE": 7533,
      "han": 7534,
      "Эн": 7535,
      "вале": 7536,
      "Love": 7537,
      "aves": 7538,
      "первой": 7539,
      "юго": 7540,
      "ланд": 7541,
      "сил": 7542,
      "production": 7543,
      "elected": 7544,
      "Европы": 7545,
      "дри": 7546,
      "нению": 7547,
      "завер": 7548,
      "Населённые": 7549,
      "семь": 7550,
      "лл": 7551,
      "вался": 7552,
      "смерти": 7553,
      "аре": 7554,
      "1949": 7555,
      "full": 7556,
      "Du": 7557,
      "Ита": 7558,
      "hab": 7559,
      "mo": 7560,
      "yr": 7561,
      "enc": 7562,
      "рию": 7563,
      "iography": 7564,
      "проводи": 7565,
      "бассе": 7566,
      "возгла": 7567,
      "Other": 7568,
      "Tour": 7569,
      "бка": 7570,
      "ula": 7571,
      "тых": 7572,
      "arts": 7573,
      "нок": 7574,
      "reed": 7575,
      "жена": 7576,
      "меся": 7577,
      "ishing": 7578,
      "1952": 7579,
      "Hall": 7580,
      "мм": 7581,
      "часто": 7582,
      "Ген": 7583,
      "ilar": 7584,
      "фло": 7585,
      "1954": 7586,
      "few": 7587,
      "широ": 7588,
      "Ке": 7589,
      "atch": 7590,
      "179": 7591,
      "Inter": 7592,
      "completed": 7593,
      "бло": 7594,
      "ющая": 7595,
      "aces": 7596,
      "Chief": 7597,
      "Del": 7598,
      "Гор": 7599,
      "sports": 7600,
      "aval": 7601,
      "bg": 7602,
      "rodu": 7603,
      "Федерации": 7604,
      "щие": 7605,
      "Colon": 7606,
      "энер": 7607,
      "acqu": 7608,
      "gether": 7609,
      "Международ": 7610,
      "Cast": 7611,
      "вича": 7612,
      "страны": 7613,
      "печа": 7614,
      "клуб": 7615,
      "Life": 7616,
      "priv": 7617,
      "ogn": 7618,
      "услови": 7619,
      "Mus": 7620,
      "Tom": 7621,
      "син": 7622,
      "ini": 7623,
      "съ": 7624,
      "льное": 7625,
      "aken": 7626,
      "schools": 7627,
      "base": 7628,
      "next": 7629,
      "зь": 7630,
      "поста": 7631,
      "тник": 7632,
      "bgcolor": 7633,
      "Island": 7634,
      "ising": 7635,
      "револю": 7636,
      "Frank": 7637,
      "01": 7638,
      "знача": 7639,
      "IV": 7640,
      "выс": 7641,
      "president": 7642,
      "low": 7643,
      "These": 7644,
      "become": 7645,
      "Great": 7646,
      "berg": 7647,
      "Under": 7648,
      "Olympics": 7649,
      "hi": 7650,
      "ators": 7651,
      "77": 7652,
      "например": 7653,
      "рения": 7654,
      "карье": 7655,
      "prot": 7656,
      "ствие": 7657,
      "recorded": 7658,
      "Ио": 7659,
      "Москва": 7660,
      "Song": 7661,
      "review": 7662,
      "1st": 7663,
      "мана": 7664,
      "риаль": 7665,
      "рд": 7666,
      "tress": 7667,
      "современ": 7668,
      "igan": 7669,
      "epis": 7670,
      "stitut": 7671,
      "ори": 7672,
      "directed": 7673,
      "mult": 7674,
      "чение": 7675,
      "ura": 7676,
      "African": 7677,
      "1953": 7678,
      "69": 7679,
      "UK": 7680,
      "distr": 7681,
      "founded": 7682,
      "Bay": 7683,
      "vict": 7684,
      "воды": 7685,
      "Angel": 7686,
      "broad": 7687,
      "find": 7688,
      "Тур": 7689,
      "фак": 7690,
      "Ленин": 7691,
      "face": 7692,
      "фило": 7693,
      "Texas": 7694,
      "зма": 7695,
      "сан": 7696,
      "Over": 7697,
      "лях": 7698,
      "political": 7699,
      "rain": 7700,
      "если": 7701,
      "outs": 7702,
      "анти": 7703,
      "1951": 7704,
      "1935": 7705,
      "appeared": 7706,
      "Corps": 7707,
      "готов": 7708,
      "честь": 7709,
      "Мини": 7710,
      "Catholic": 7711,
      "body": 7712,
      "da": 7713,
      "Virgin": 7714,
      "eth": 7715,
      "дор": 7716,
      "ecut": 7717,
      "uses": 7718,
      "лых": 7719,
      "Central": 7720,
      "teams": 7721,
      "течение": 7722,
      "назначен": 7723,
      "ныне": 7724,
      "фильма": 7725,
      "Sk": 7726,
      "пора": 7727,
      "тки": 7728,
      "зада": 7729,
      "щение": 7730,
      "северо": 7731,
      "dam": 7732,
      "ala": 7733,
      "сказа": 7734,
      "Ben": 7735,
      "htt": 7736,
      "льский": 7737,
      "художе": 7738,
      "continued": 7739,
      "оны": 7740,
      "away": 7741,
      "1929": 7742,
      "противо": 7743,
      "employ": 7744,
      "students": 7745,
      "Major": 7746,
      "aland": 7747,
      "gian": 7748,
      "sey": 7749,
      "треть": 7750,
      "brother": 7751,
      "depart": 7752,
      "Mark": 7753,
      "Кур": 7754,
      "промыш": 7755,
      "invest": 7756,
      "брига": 7757,
      "gradu": 7758,
      "тря": 7759,
      "thod": 7760,
      "обре": 7761,
      "ples": 7762,
      "Kore": 7763,
      "тной": 7764,
      "rock": 7765,
      "Пере": 7766,
      "Фа": 7767,
      "website": 7768,
      "fire": 7769,
      "hor": 7770,
      "церкви": 7771,
      "Chinese": 7772,
      "Star": 7773,
      "guitar": 7774,
      "night": 7775,
      "зве": 7776,
      "Коро": 7777,
      "облада": 7778,
      "Center": 7779,
      "nat": 7780,
      "ито": 7781,
      "рит": 7782,
      "сад": 7783,
      "служи": 7784,
      "comb": 7785,
      "переписи": 7786,
      "match": 7787,
      "дова": 7788,
      "idence": 7789,
      "events": 7790,
      "div": 7791,
      "древ": 7792,
      "особен": 7793,
      "права": 7794,
      "Secret": 7795,
      "полка": 7796,
      "lected": 7797,
      "империи": 7798,
      "hig": 7799,
      "lock": 7800,
      "region": 7801,
      "radio": 7802,
      "Mel": 7803,
      "шло": 7804,
      "тельного": 7805,
      "возвра": 7806,
      "individ": 7807,
      "захва": 7808,
      "необходи": 7809,
      "56": 7810,
      "ola": 7811,
      "утвер": 7812,
      "education": 7813,
      "Ag": 7814,
      "уч": 7815,
      "тябре": 7816,
      "надле": 7817,
      "days": 7818,
      "Тре": 7819,
      "лиза": 7820,
      "север": 7821,
      "источ": 7822,
      "Louis": 7823,
      "управления": 7824,
      "novel": 7825,
      "Награ": 7826,
      "продолжа": 7827,
      "ваний": 7828,
      "ification": 7829,
      "нор": 7830,
      "ique": 7831,
      "ances": 7832,
      "построе": 7833,
      "proper": 7834,
      "Май": 7835,
      "Class": 7836,
      "signed": 7837,
      "Vill": 7838,
      "свобо": 7839,
      "electr": 7840,
      "release": 7841,
      "places": 7842,
      "fan": 7843,
      "aker": 7844,
      "having": 7845,
      "mother": 7846,
      "тот": 7847,
      "09": 7848,
      "89": 7849,
      "ves": 7850,
      "concer": 7851,
      "Нью": 7852,
      "стороны": 7853,
      "фото": 7854,
      "beh": 7855,
      "books": 7856,
      "background": 7857,
      "Же": 7858,
      "Сте": 7859,
      "вёл": 7860,
      "сын": 7861,
      "Spec": 7862,
      "cop": 7863,
      "league": 7864,
      "ospital": 7865,
      "59": 7866,
      "Sur": 7867,
      "span": 7868,
      "Sir": 7869,
      "содержа": 7870,
      "Officer": 7871,
      "нного": 7872,
      "pract": 7873,
      "iles": 7874,
      "municip": 7875,
      "тельных": 7876,
      "тельные": 7877,
      "medal": 7878,
      "live": 7879,
      "твор": 7880,
      "range": 7881,
      "объеди": 7882,
      "making": 7883,
      "Анг": 7884,
      "Richard": 7885,
      "коле": 7886,
      "тому": 7887,
      "count": 7888,
      "англий": 7889,
      "establishments": 7890,
      "without": 7891,
      "particip": 7892,
      "Петро": 7893,
      "companies": 7894,
      "Выпускники": 7895,
      "ying": 7896,
      "ката": 7897,
      "тради": 7898,
      "встреча": 7899,
      "alumni": 7900,
      "anim": 7901,
      "рес": 7902,
      "стом": 7903,
      "начина": 7904,
      "места": 7905,
      "official": 7906,
      "ga": 7907,
      "Дми": 7908,
      "уго": 7909,
      "поме": 7910,
      "зоне": 7911,
      "however": 7912,
      "Force": 7913,
      "Smith": 7914,
      "great": 7915,
      "уре": 7916,
      "areas": 7917,
      "Lieutenant": 7918,
      "08": 7919,
      "Il": 7920,
      "рово": 7921,
      "ications": 7922,
      "менее": 7923,
      "цей": 7924,
      "ani": 7925,
      "ender": 7926,
      "команды": 7927,
      "впервые": 7928,
      "рои": 7929,
      "oul": 7930,
      "1928": 7931,
      "300": 7932,
      "research": 7933,
      "introdu": 7934,
      "гло": 7935,
      "бир": 7936,
      "этих": 7937,
      "ступил": 7938,
      "05": 7939,
      "times": 7940,
      "interest": 7941,
      "деление": 7942,
      "average": 7943,
      "case": 7944,
      "za": 7945,
      "прав": 7946,
      "daughter": 7947,
      "Land": 7948,
      "odes": 7949,
      "According": 7950,
      "вшей": 7951,
      "seven": 7952,
      "офи": 7953,
      "дали": 7954,
      "техно": 7955,
      "Глав": 7956,
      "имя": 7957,
      "организации": 7958,
      "ibrary": 7959,
      "sex": 7960,
      "выми": 7961,
      "пробле": 7962,
      "1931": 7963,
      "сезона": 7964,
      "гом": 7965,
      "гон": 7966,
      "одного": 7967,
      "Рас": 7968,
      "парта": 7969,
      "omet": 7970,
      "draw": 7971,
      "mission": 7972,
      "осуще": 7973,
      "Camp": 7974,
      "1934": 7975,
      "appointed": 7976,
      "освобо": 7977,
      "ото": 7978,
      "ota": 7979,
      "1933": 7980,
      "экспе": 7981,
      "чемпионата": 7982,
      "цкий": 7983,
      "нове": 7984,
      "1932": 7985,
      "Christian": 7986,
      "юри": 7987,
      "anish": 7988,
      "либо": 7989,
      "лем": 7990,
      "вают": 7991,
      "ряда": 7992,
      "XIX": 7993,
      "don": 7994,
      "све": 7995,
      "связа": 7996,
      "popular": 7997,
      "Some": 7998,
      "human": 7999,
      "onic": 8000,
      "itch": 8001,
      "стало": 8002,
      "цами": 8003,
      "project": 8004,
      "класси": 8005,
      "social": 8006,
      "воору": 8007,
      "liament": 8008,
      "российский": 8009,
      "Films": 8010,
      "fall": 8011,
      "эро": 8012,
      "мость": 8013,
      "жизнь": 8014,
      "пти": 8015,
      "еты": 8016,
      "щего": 8017,
      "контро": 8018,
      "будет": 8019,
      "ступ": 8020,
      "cup": 8021,
      "взя": 8022,
      "нес": 8023,
      "ugby": 8024,
      "стрелко": 8025,
      "lost": 8026,
      "nel": 8027,
      "fort": 8028,
      "отличи": 8029,
      "дивизии": 8030,
      "actor": 8031,
      "E9": 8032,
      "Пари": 8033,
      "Gall": 8034,
      "нная": 8035,
      "Пар": 8036,
      "начал": 8037,
      "bour": 8038,
      "спу": 8039,
      "борь": 8040,
      "ount": 8041,
      "игр": 8042,
      "dest": 8043,
      "hous": 8044,
      "stations": 8045,
      "urr": 8046,
      "брита": 8047,
      "tim": 8048,
      "закон": 8049,
      "дорож": 8050,
      "Early": 8051,
      "Je": 8052,
      "ape": 8053,
      "playing": 8054,
      "руководи": 8055,
      "wide": 8056,
      "см": 8057,
      "председа": 8058,
      "Minister": 8059,
      "Кроме": 8060,
      "распростра": 8061,
      "Sol": 8062,
      "ination": 8063,
      "Москве": 8064,
      "поги": 8065,
      "qual": 8066,
      "Pan": 8067,
      "isl": 8068,
      "merc": 8069,
      "oney": 8070,
      "ailed": 8071,
      "Academy": 8072,
      "office": 8073,
      "ships": 8074,
      "lete": 8075,
      "дения": 8076,
      "2023": 8077,
      "uty": 8078,
      "Петербург": 8079,
      "Historic": 8080,
      "Великобрита": 8081,
      "active": 8082,
      "автор": 8083,
      "Kr": 8084,
      "iting": 8085,
      "Institute": 8086,
      "Zealand": 8087,
      "тка": 8088,
      "successful": 8089,
      "внутрен": 8090,
      "Director": 8091,
      "ственные": 8092,
      "большой": 8093,
      "Hon": 8094,
      "oph": 8095,
      "assist": 8096,
      "03": 8097,
      "ye": 8098,
      "together": 8099,
      "79": 8100,
      "реши": 8101,
      "istic": 8102,
      "week": 8103,
      "Вол": 8104,
      "школы": 8105,
      "control": 8106,
      "similar": 8107,
      "Tele": 8108,
      "Гре": 8109,
      "титу": 8110,
      "Paris": 8111,
      "мировой": 8112,
      "британ": 8113,
      "Mont": 8114,
      "Роб": 8115,
      "Mr": 8116,
      "politician": 8117,
      "04": 8118,
      "Sports": 8119,
      "вёр": 8120,
      "изобра": 8121,
      "това": 8122,
      "детей": 8123,
      "emor": 8124,
      "Воз": 8125,
      "тически": 8126,
      "Province": 8127,
      "cal": 8128,
      "еха": 8129,
      "offer": 8130,
      "Ши": 8131,
      "1914": 8132,
      "скоро": 8133,
      "сколь": 8134,
      "ume": 8135,
      "avail": 8136,
      "команду": 8137,
      "Carol": 8138,
      "hu": 8139,
      "ows": 8140,
      "raz": 8141,
      "1926": 8142,
      "21st": 8143,
      "Jew": 8144,
      "western": 8145,
      "Кры": 8146,
      "умер": 8147,
      "действия": 8148,
      "52": 8149,
      "FA": 8150,
      "разработ": 8151,
      "федера": 8152,
      "aign": 8153,
      "CO": 8154,
      "Order": 8155,
      "rd": 8156,
      "уз": 8157,
      "beg": 8158,
      "новых": 8159,
      "принадле": 8160,
      "76": 8161,
      "econom": 8162,
      "продук": 8163,
      "льным": 8164,
      "white": 8165,
      "Tor": 8166,
      "завод": 8167,
      "Spanish": 8168,
      "help": 8169,
      "Rock": 8170,
      "член": 8171,
      "ips": 8172,
      "Япо": 8173,
      "вшая": 8174,
      "лены": 8175,
      "тина": 8176,
      "should": 8177,
      "лые": 8178,
      "шка": 8179,
      "разу": 8180,
      "площадь": 8181,
      "хотя": 8182,
      "евре": 8183,
      "автомоби": 8184,
      "Фильмы": 8185,
      "ato": 8186,
      "strong": 8187,
      "Как": 8188,
      "writers": 8189,
      "bi": 8190,
      "ror": 8191,
      "iding": 8192,
      "trav": 8193,
      "жителей": 8194,
      "ample": 8195,
      "сайт": 8196,
      "система": 8197,
      "использова": 8198,
      "АН": 8199,
      "inj": 8200,
      "стать": 8201,
      "liter": 8202,
      "istry": 8203,
      "Ba": 8204,
      "ань": 8205,
      "1922": 8206,
      "laun": 8207,
      "Bu": 8208,
      "Дру": 8209,
      "rey": 8210,
      "командо": 8211,
      "architect": 8212,
      "секре": 8213,
      "groups": 8214,
      "Ann": 8215,
      "победи": 8216,
      "Sup": 8217,
      "cir": 8218,
      "рея": 8219,
      "постоя": 8220,
      "condu": 8221,
      "But": 8222,
      "оди": 8223,
      "cred": 8224,
      "никами": 8225,
      "Мин": 8226,
      "Di": 8227,
      "всё": 8228,
      "инже": 8229,
      "играл": 8230,
      "ордена": 8231,
      "1915": 8232,
      "administr": 8233,
      "производи": 8234,
      "grow": 8235,
      "here": 8236,
      "azine": 8237,
      "families": 8238,
      "buildings": 8239,
      "Education": 8240,
      "дере": 8241,
      "acc": 8242,
      "listed": 8243,
      "Olympic": 8244,
      "tradition": 8245,
      "ki": 8246,
      "тво": 8247,
      "plant": 8248,
      "Los": 8249,
      "ita": 8250,
      "дис": 8251,
      "meet": 8252,
      "Hot": 8253,
      "мию": 8254,
      "rael": 8255,
      "further": 8256,
      "Пор": 8257,
      "влия": 8258,
      "дово": 8259,
      "disc": 8260,
      "радио": 8261,
      "Бра": 8262,
      "86": 8263,
      "ап": 8264,
      "07": 8265,
      "aries": 8266,
      "премии": 8267,
      "смотря": 8268,
      "Penn": 8269,
      "обнару": 8270,
      "Green": 8271,
      "Pet": 8272,
      "coll": 8273,
      "ella": 8274,
      "1921": 8275,
      "1924": 8276,
      "порт": 8277,
      "jects": 8278,
      "ership": 8279,
      "цент": 8280,
      "кораб": 8281,
      "mus": 8282,
      "Хи": 8283,
      "населё": 8284,
      "РС": 8285,
      "дю": 8286,
      "census": 8287,
      "установле": 8288,
      "ano": 8289,
      "icle": 8290,
      "маши": 8291,
      "зирова": 8292,
      "жно": 8293,
      "стики": 8294,
      "working": 8295,
      "новь": 8296,
      "бран": 8297,
      "уро": 8298,
      "02": 8299,
      "число": 8300,
      "рах": 8301,
      "круг": 8302,
      "Центра": 8303,
      "острова": 8304,
      "06": 8305,
      "Основ": 8306,
      "54": 8307,
      "Ev": 8308,
      "Arts": 8309,
      "отли": 8310,
      "imately": 8311,
      "developed": 8312,
      "союз": 8313,
      "Список": 8314,
      "Government": 8315,
      "good": 8316,
      "гия": 8317,
      "щей": 8318,
      "Israel": 8319,
      "чным": 8320,
      "51": 8321,
      "Ham": 8322,
      "Tem": 8323,
      "сма": 8324,
      "рую": 8325,
      "1925": 8326,
      "монасты": 8327,
      "посвя": 8328,
      "points": 8329,
      "Big": 8330,
      "доку": 8331,
      "вида": 8332,
      "ishop": 8333,
      "1923": 8334,
      "relig": 8335,
      "играх": 8336,
      "rights": 8337,
      "джи": 8338,
      "ilities": 8339,
      "uild": 8340,
      "covered": 8341,
      "others": 8342,
      "dependent": 8343,
      "Казах": 8344,
      "крас": 8345,
      "Констан": 8346,
      "рина": 8347,
      "почти": 8348,
      "Out": 8349,
      "Вар": 8350,
      "1927": 8351,
      "второ": 8352,
      "Bal": 8353,
      "специали": 8354,
      "звание": 8355,
      "контра": 8356,
      "языке": 8357,
      "Советского": 8358,
      "Africa": 8359,
      "несколь": 8360,
      "рази": 8361,
      "Dou": 8362,
      "mot": 8363,
      "входит": 8364,
      "birth": 8365,
      "экс": 8366,
      "лег": 8367,
      "Republic": 8368,
      "клуба": 8369,
      "экономиче": 8370,
      "академии": 8371,
      "Civil": 8372,
      "пан": 8373,
      "пархи": 8374,
      "Bul": 8375,
      "data": 8376,
      "др": 8377,
      "forms": 8378,
      "nament": 8379,
      "wid": 8380,
      "Вен": 8381,
      "Swed": 8382,
      "viron": 8383,
      "Lo": 8384,
      "Mass": 8385,
      "сна": 8386,
      "teen": 8387,
      "Sar": 8388,
      "cut": 8389,
      "tries": 8390,
      "Atl": 8391,
      "ходят": 8392,
      "72": 8393,
      "pain": 8394,
      "остро": 8395,
      "рее": 8396,
      "anta": 8397,
      "серии": 8398,
      "basketball": 8399,
      "atriate": 8400,
      "жных": 8401,
      "мель": 8402,
      "photo": 8403,
      "temporary": 8404,
      "edy": 8405,
      "icular": 8406,
      "across": 8407,
      "прода": 8408,
      "тенан": 8409,
      "суд": 8410,
      "atre": 8411,
      "VI": 8412,
      "сыгра": 8413,
      "Hu": 8414,
      "oted": 8415,
      "important": 8416,
      "cu": 8417,
      "линии": 8418,
      "ements": 8419,
      "lines": 8420,
      "While": 8421,
      "вшиеся": 8422,
      "construction": 8423,
      "общества": 8424,
      "Edward": 8425,
      "сорев": 8426,
      "ably": 8427,
      "дней": 8428,
      "стоит": 8429,
      "box": 8430,
      "Virginia": 8431,
      "free": 8432,
      "gold": 8433,
      "ологиче": 8434,
      "сра": 8435,
      "Commission": 8436,
      "stead": 8437,
      "killed": 8438,
      "кладби": 8439,
      "дже": 8440,
      "торов": 8441,
      "ams": 8442,
      "stra": 8443,
      "vocals": 8444,
      "поддерж": 8445,
      "чка": 8446,
      "чик": 8447,
      "exist": 8448,
      "CE": 8449,
      "нос": 8450,
      "полови": 8451,
      "Day": 8452,
      "эль": 8453,
      "eded": 8454,
      "ada": 8455,
      "originally": 8456,
      "available": 8457,
      "Haw": 8458,
      "ris": 8459,
      "развития": 8460,
      "Испа": 8461,
      "ication": 8462,
      "appl": 8463,
      "front": 8464,
      "людей": 8465,
      "tre": 8466,
      "япо": 8467,
      "singer": 8468,
      "Николай": 8469,
      "Sil": 8470,
      "young": 8471,
      "гна": 8472,
      "кате": 8473,
      "recogn": 8474,
      "Joseph": 8475,
      "oor": 8476,
      "sil": 8477,
      "ieved": 8478,
      "Ше": 8479,
      "лый": 8480,
      "метра": 8481,
      "евро": 8482,
      "емых": 8483,
      "села": 8484,
      "настоящее": 8485,
      "Участ": 8486,
      "проте": 8487,
      "Воло": 8488,
      "reported": 8489,
      "пси": 8490,
      "хва": 8491,
      "enter": 8492,
      "сами": 8493,
      "Согла": 8494,
      "Бори": 8495,
      "fig": 8496,
      "acher": 8497,
      "предприя": 8498,
      "власти": 8499,
      "Тру": 8500,
      "мощ": 8501,
      "док": 8502,
      "изо": 8503,
      "performed": 8504,
      "персона": 8505,
      "phys": 8506,
      "Lin": 8507,
      "Пав": 8508,
      "нно": 8509,
      "62": 8510,
      "Saint": 8511,
      "Им": 8512,
      "Чи": 8513,
      "information": 8514,
      "находя": 8515,
      "Soc": 8516,
      "стату": 8517,
      "typ": 8518,
      "ствия": 8519,
      "child": 8520,
      "performance": 8521,
      "87": 8522,
      "Festival": 8523,
      "гие": 8524,
      "bound": 8525,
      "ei": 8526,
      "чай": 8527,
      "Two": 8528,
      "кта": 8529,
      "нирова": 8530,
      "годаря": 8531,
      "RAF": 8532,
      "Feder": 8533,
      "вии": 8534,
      "household": 8535,
      "количество": 8536,
      "considered": 8537,
      "музе": 8538,
      "конструк": 8539,
      "ментов": 8540,
      "вновь": 8541,
      "каж": 8542,
      "Кали": 8543,
      "black": 8544,
      "улица": 8545,
      "modern": 8546,
      "rul": 8547,
      "Зна": 8548,
      "taken": 8549,
      "скольку": 8550,
      "Иван": 8551,
      "дня": 8552,
      "губернии": 8553,
      "Sto": 8554,
      "входи": 8555,
      "ift": 8556,
      "atal": 8557,
      "пое": 8558,
      "1900": 8559,
      "Mexico": 8560,
      "Дмитри": 8561,
      "goal": 8562,
      "lor": 8563,
      "пру": 8564,
      "features": 8565,
      "Techn": 8566,
      "стика": 8567,
      "лейтенан": 8568,
      "Scot": 8569,
      "телями": 8570,
      "Second": 8571,
      "influ": 8572,
      "common": 8573,
      "ength": 8574,
      "icles": 8575,
      "ado": 8576,
      "библи": 8577,
      "фами": 8578,
      "gent": 8579,
      "how": 8580,
      "отме": 8581,
      "super": 8582,
      "позволя": 8583,
      "mater": 8584,
      "ho": 8585,
      "раи": 8586,
      "1912": 8587,
      "attem": 8588,
      "Lat": 8589,
      "установ": 8590,
      "допол": 8591,
      "iple": 8592,
      "Нор": 8593,
      "эффе": 8594,
      "inst": 8595,
      "19th": 8596,
      "большин": 8597,
      "Navy": 8598,
      "VR": 8599,
      "istics": 8600,
      "plan": 8601,
      "туа": 8602,
      "airs": 8603,
      "Второй": 8604,
      "82": 8605,
      "cross": 8606,
      "управле": 8607,
      "убий": 8608,
      "Den": 8609,
      "Fin": 8610,
      "Wales": 8611,
      "позд": 8612,
      "ОО": 8613,
      "wa": 8614,
      "1913": 8615,
      "Patr": 8616,
      "Сред": 8617,
      "оби": 8618,
      "баталь": 8619,
      "ведение": 8620,
      "наиболее": 8621,
      "Ир": 8622,
      "сериа": 8623,
      "ocr": 8624,
      "материа": 8625,
      "foc": 8626,
      "оз": 8627,
      "hood": 8628,
      "tro": 8629,
      "Среди": 8630,
      "deg": 8631,
      "iff": 8632,
      "женщин": 8633,
      "74": 8634,
      "atives": 8635,
      "близ": 8636,
      "получа": 8637,
      "промышлен": 8638,
      "53": 8639,
      "Pak": 8640,
      "мас": 8641,
      "фици": 8642,
      "hard": 8643,
      "wind": 8644,
      "ared": 8645,
      "Committee": 8646,
      "Def": 8647,
      "берегу": 8648,
      "Just": 8649,
      "mix": 8650,
      "вления": 8651,
      "Profess": 8652,
      "includes": 8653,
      "transfer": 8654,
      "Bor": 8655,
      "uter": 8656,
      "вдо": 8657,
      "igned": 8658,
      "finished": 8659,
      "does": 8660,
      "Орден": 8661,
      "Notes": 8662,
      "Официальный": 8663,
      "Йор": 8664,
      "наблю": 8665,
      "няется": 8666,
      "депута": 8667,
      "ends": 8668,
      "професси": 8669,
      "различных": 8670,
      "83": 8671,
      "ateg": 8672,
      "Сем": 8673,
      "ensive": 8674,
      "семье": 8675,
      "осущест": 8676,
      "lie": 8677,
      "муще": 8678,
      "84": 8679,
      "God": 8680,
      "даго": 8681,
      "ческая": 8682,
      "менты": 8683,
      "BA": 8684,
      "тик": 8685,
      "forces": 8686,
      "исклю": 8687,
      "тальян": 8688,
      "ранее": 8689,
      "Поли": 8690,
      "Its": 8691,
      "Pac": 8692,
      "feder": 8693,
      "gun": 8694,
      "ns": 8695,
      "Produ": 8696,
      "private": 8697,
      "Mod": 8698,
      "Кан": 8699,
      "жный": 8700,
      "американский": 8701,
      "court": 8702,
      "медици": 8703,
      "Popul": 8704,
      "ked": 8705,
      "sound": 8706,
      "once": 8707,
      "бок": 8708,
      "момент": 8709,
      "Рабо": 8710,
      "Register": 8711,
      "спорта": 8712,
      "Cross": 8713,
      "Dut": 8714,
      "Lake": 8715,
      "cost": 8716,
      "Фё": 8717,
      "нём": 8718,
      "thur": 8719,
      "Россия": 8720,
      "female": 8721,
      "icated": 8722,
      "access": 8723,
      "ids": 8724,
      "писы": 8725,
      "pan": 8726,
      "Амери": 8727,
      "Дон": 8728,
      "последствии": 8729,
      "owned": 8730,
      "pi": 8731,
      "новой": 8732,
      "полно": 8733,
      "ствуют": 8734,
      "stage": 8735,
      "fund": 8736,
      "Rob": 8737,
      "совмест": 8738,
      "Regiment": 8739,
      "Person": 8740,
      "jud": 8741,
      "oma": 8742,
      "мого": 8743,
      "Пол": 8744,
      "anal": 8745,
      "отсут": 8746,
      "training": 8747,
      "первого": 8748,
      "central": 8749,
      "ny": 8750,
      "льского": 8751,
      "тона": 8752,
      "agon": 8753,
      "препода": 8754,
      "anti": 8755,
      "63": 8756,
      "лес": 8757,
      "associ": 8758,
      "служе": 8759,
      "Championships": 8760,
      "Oper": 8761,
      "Warr": 8762,
      "aching": 8763,
      "требо": 8764,
      "Жи": 8765,
      "тию": 8766,
      "ump": 8767,
      "college": 8768,
      "основном": 8769,
      "Hy": 8770,
      "лица": 8771,
      "популяр": 8772,
      "Sub": 8773,
      "чном": 8774,
      "вел": 8775,
      "olf": 8776,
      "безо": 8777,
      "альбом": 8778,
      "герцо": 8779,
      "Согласно": 8780,
      "Mat": 8781,
      "Лон": 8782,
      "prison": 8783,
      "Кана": 8784,
      "Европе": 8785,
      "Michigan": 8786,
      "Hel": 8787,
      "лод": 8788,
      "мере": 8789,
      "Chic": 8790,
      "Italy": 8791,
      "ili": 8792,
      "becom": 8793,
      "ockey": 8794,
      "overnor": 8795,
      "viol": 8796,
      "квар": 8797,
      "фра": 8798,
      "стров": 8799,
      "Нау": 8800,
      "lab": 8801,
      "шем": 8802,
      "менталь": 8803,
      "своё": 8804,
      "отноше": 8805,
      "независи": 8806,
      "quadron": 8807,
      "Hor": 8808,
      "sel": 8809,
      "ón": 8810,
      "метал": 8811,
      "одна": 8812,
      "effect": 8813,
      "Wood": 8814,
      "lic": 8815,
      "торы": 8816,
      "Science": 8817,
      "Old": 8818,
      "Ur": 8819,
      "сия": 8820,
      "himself": 8821,
      "73": 8822,
      "лер": 8823,
      "Том": 8824,
      "родился": 8825,
      "Railway": 8826,
      "благо": 8827,
      "здесь": 8828,
      "Found": 8829,
      "Mu": 8830,
      "via": 8831,
      "медаль": 8832,
      "particular": 8833,
      "Jun": 8834,
      "So": 8835,
      "mir": 8836,
      "лами": 8837,
      "гам": 8838,
      "pring": 8839,
      "формы": 8840,
      "графия": 8841,
      "КА": 8842,
      "1916": 8843,
      "видов": 8844,
      "гита": 8845,
      "party": 8846,
      "shows": 8847,
      "Captain": 8848,
      "www": 8849,
      "vironment": 8850,
      "never": 8851,
      "Акаде": 8852,
      "лью": 8853,
      "1910": 8854,
      "располага": 8855,
      "ography": 8856,
      "мед": 8857,
      "syn": 8858,
      "Mountain": 8859,
      "нования": 8860,
      "ребря": 8861,
      "лам": 8862,
      "таких": 8863,
      "бина": 8864,
      "ghan": 8865,
      "движения": 8866,
      "йская": 8867,
      "социаль": 8868,
      "ент": 8869,
      "уничто": 8870,
      "mond": 8871,
      "опубли": 8872,
      "войск": 8873,
      "вшись": 8874,
      "Ken": 8875,
      "тить": 8876,
      "писал": 8877,
      "плане": 8878,
      "product": 8879,
      "частности": 8880,
      "украин": 8881,
      "факуль": 8882,
      "erous": 8883,
      "реб": 8884,
      "separ": 8885,
      "iana": 8886,
      "Since": 8887,
      "сохрани": 8888,
      "фести": 8889,
      "annel": 8890,
      "имуще": 8891,
      "моря": 8892,
      "Сергей": 8893,
      "Long": 8894,
      "months": 8895,
      "ведён": 8896,
      "концер": 8897,
      "although": 8898,
      "Ire": 8899,
      "pite": 8900,
      "apt": 8901,
      "chen": 8902,
      "станция": 8903,
      "Georg": 8904,
      "ee": 8905,
      "defe": 8906,
      "ственным": 8907,
      "far": 8908,
      "епархи": 8909,
      "вока": 8910,
      "ece": 8911,
      "бин": 8912,
      "ственная": 8913,
      "market": 8914,
      "четыре": 8915,
      "вариан": 8916,
      "ault": 8917,
      "got": 8918,
      "mal": 8919,
      "Top": 8920,
      "рим": 8921,
      "нены": 8922,
      "мире": 8923,
      "units": 8924,
      "Mic": 8925,
      "эм": 8926,
      "полк": 8927,
      "Series": 8928,
      "eight": 8929,
      "зм": 8930,
      "чки": 8931,
      "regular": 8932,
      "current": 8933,
      "зон": 8934,
      "Коман": 8935,
      "слов": 8936,
      "Do": 8937,
      "Василь": 8938,
      "щую": 8939,
      "зербай": 8940,
      "61": 8941,
      "Main": 8942,
      "aps": 8943,
      "полностью": 8944,
      "size": 8945,
      "рёх": 8946,
      "нений": 8947,
      "staff": 8948,
      "чел": 8949,
      "проходи": 8950,
      "жит": 8951,
      "расска": 8952,
      "contract": 8953,
      "awarded": 8954,
      "Hum": 8955,
      "attr": 8956,
      "Head": 8957,
      "образова": 8958,
      "currently": 8959,
      "Greek": 8960,
      "bon": 8961,
      "ef": 8962,
      "stone": 8963,
      "artists": 8964,
      "стья": 8965,
      "сре": 8966,
      "жество": 8967,
      "тыс": 8968,
      "71": 8969,
      "Кла": 8970,
      "чное": 8971,
      "Ireland": 8972,
      "cel": 8973,
      "Сы": 8974,
      "itive": 8975,
      "рует": 8976,
      "igation": 8977,
      "command": 8978,
      "syl": 8979,
      "bly": 8980,
      "обя": 8981,
      "81": 8982,
      "cul": 8983,
      "цикло": 8984,
      "termin": 8985,
      "государственного": 8986,
      "учеб": 8987,
      "компания": 8988,
      "Secretary": 8989,
      "Oh": 8990,
      "кле": 8991,
      "arian": 8992,
      "ческое": 8993,
      "гель": 8994,
      "Ль": 8995,
      "Уни": 8996,
      "Fer": 8997,
      "сторон": 8998,
      "ulture": 8999,
      "leading": 9000,
      "замести": 9001,
      "Бри": 9002,
      "решение": 9003,
      "ственное": 9004,
      "ski": 9005,
      "Harr": 9006,
      "Sov": 9007,
      "bill": 9008,
      "Afghan": 9009,
      "CI": 9010,
      "uation": 9011,
      "related": 9012,
      "Награды": 9013,
      "нас": 9014,
      "воде": 9015,
      "работу": 9016,
      "Ha": 9017,
      "ios": 9018,
      "новый": 9019,
      "полага": 9020,
      "середи": 9021,
      "2nd": 9022,
      "произо": 9023,
      "Florida": 9024,
      "брон": 9025,
      "1905": 9026,
      "Чемпиона": 9027,
      "Бла": 9028,
      "гим": 9029,
      "Народ": 9030,
      "учили": 9031,
      "campaign": 9032,
      "Vi": 9033,
      "реали": 9034,
      "engineer": 9035,
      "русский": 9036,
      "Ath": 9037,
      "Career": 9038,
      "Final": 9039,
      "past": 9040,
      "ady": 9041,
      "section": 9042,
      "police": 9043,
      "кладбище": 9044,
      "prof": 9045,
      "scored": 9046,
      "AT": 9047,
      "ply": 9048,
      "закры": 9049,
      "стати": 9050,
      "ibution": 9051,
      "von": 9052,
      "Фор": 9053,
      "поэ": 9054,
      "лович": 9055,
      "idents": 9056,
      "принял": 9057,
      "края": 9058,
      "Красно": 9059,
      "Colonel": 9060,
      "Gar": 9061,
      "carr": 9062,
      "Ман": 9063,
      "лета": 9064,
      "aches": 9065,
      "стин": 9066,
      "долго": 9067,
      "loss": 9068,
      "tell": 9069,
      "ctor": 9070,
      "consist": 9071,
      "чемпион": 9072,
      "млн": 9073,
      "Дэ": 9074,
      "Золо": 9075,
      "эп": 9076,
      "ётся": 9077,
      "лог": 9078,
      "тябрь": 9079,
      "География": 9080,
      "saw": 9081,
      "цвет": 9082,
      "edition": 9083,
      "поро": 9084,
      "gave": 9085,
      "устрой": 9086,
      "Кубка": 9087,
      "atory": 9088,
      "нена": 9089,
      "added": 9090,
      "деятельность": 9091,
      "позже": 9092,
      "финан": 9093,
      "катего": 9094,
      "journal": 9095,
      "роли": 9096,
      "force": 9097,
      "tran": 9098,
      "Робер": 9099,
      "SS": 9100,
      "artist": 9101,
      "Arthur": 9102,
      "Build": 9103,
      "bass": 9104,
      "hot": 9105,
      "кими": 9106,
      "делё": 9107,
      "тысяч": 9108,
      "ded": 9109,
      "севе": 9110,
      "Princ": 9111,
      "aircraft": 9112,
      "многих": 9113,
      "режиссёр": 9114,
      "Post": 9115,
      "dou": 9116,
      "you": 9117,
      "лга": 9118,
      "безопас": 9119,
      "wall": 9120,
      "Входит": 9121,
      "Кра": 9122,
      "кафе": 9123,
      "anted": 9124,
      "ционной": 9125,
      "Public": 9126,
      "Ko": 9127,
      "Line": 9128,
      "rap": 9129,
      "щён": 9130,
      "ква": 9131,
      "рабочи": 9132,
      "тного": 9133,
      "хар": 9134,
      "регу": 9135,
      "республи": 9136,
      "1906": 9137,
      "media": 9138,
      "onto": 9139,
      "Military": 9140,
      "health": 9141,
      "выра": 9142,
      "execut": 9143,
      "example": 9144,
      "Acting": 9145,
      "железно": 9146,
      "ested": 9147,
      "бил": 9148,
      "Commander": 9149,
      "Angeles": 9150,
      "120": 9151,
      "Die": 9152,
      "тором": 9153,
      "гина": 9154,
      "incor": 9155,
      "natural": 9156,
      "лая": 9157,
      "Emp": 9158,
      "ёв": 9159,
      "ковой": 9160,
      "колле": 9161,
      "ites": 9162,
      "актри": 9163,
      "студен": 9164,
      "respons": 9165,
      "Михай": 9166,
      "MP": 9167,
      "мах": 9168,
      "1908": 9169,
      "матче": 9170,
      "искусства": 9171,
      "Gre": 9172,
      "мину": 9173,
      "Official": 9174,
      "Gen": 9175,
      "Wind": 9176,
      "вались": 9177,
      "elop": 9178,
      "питан": 9179,
      "своим": 9180,
      "чемпионате": 9181,
      "ti": 9182,
      "зако": 9183,
      "ource": 9184,
      "Джей": 9185,
      "нескольких": 9186,
      "bank": 9187,
      "СП": 9188,
      "Три": 9189,
      "recent": 9190,
      "теря": 9191,
      "score": 9192,
      "dy": 9193,
      "say": 9194,
      "строен": 9195,
      "окончил": 9196,
      "vania": 9197,
      "sembly": 9198,
      "Mot": 9199,
      "Тер": 9200,
      "указа": 9201,
      "дал": 9202,
      "Первый": 9203,
      "prem": 9204,
      "серва": 9205,
      "mur": 9206,
      "реше": 9207,
      "себе": 9208,
      "Кара": 9209,
      "Arab": 9210,
      "featured": 9211,
      "Southern": 9212,
      "mm": 9213,
      "elt": 9214,
      "канди": 9215,
      "филосо": 9216,
      "Bet": 9217,
      "рем": 9218,
      "вия": 9219,
      "igital": 9220,
      "Киев": 9221,
      "Back": 9222,
      "sto": 9223,
      "Син": 9224,
      "одо": 9225,
      "срав": 9226,
      "льном": 9227,
      "ests": 9228,
      "Martin": 9229,
      "мало": 9230,
      "chair": 9231,
      "sug": 9232,
      "случае": 9233,
      "нике": 9234,
      "Извест": 9235,
      "ционных": 9236,
      "remained": 9237,
      "Bus": 9238,
      "Ho": 9239,
      "Les": 9240,
      "тогда": 9241,
      "педаго": 9242,
      "жены": 9243,
      "occur": 9244,
      "которым": 9245,
      "study": 9246,
      "Fort": 9247,
      "льт": 9248,
      "тике": 9249,
      "Stan": 9250,
      "ктором": 9251,
      "Polit": 9252,
      "designed": 9253,
      "http": 9254,
      "река": 9255,
      "1907": 9256,
      "Chris": 9257,
      "Верховного": 9258,
      "вли": 9259,
      "первых": 9260,
      "break": 9261,
      "гвардей": 9262,
      "aut": 9263,
      "фави": 9264,
      "писатель": 9265,
      "largest": 9266,
      "venue": 9267,
      "дальней": 9268,
      "деятельности": 9269,
      "Research": 9270,
      "Члены": 9271,
      "sea": 9272,
      "illery": 9273,
      "1909": 9274,
      "чёр": 9275,
      "Places": 9276,
      "артилле": 9277,
      "версии": 9278,
      "lement": 9279,
      "stated": 9280,
      "type": 9281,
      "Manag": 9282,
      "церковь": 9283,
      "ko": 9284,
      "ФСР": 9285,
      "Герой": 9286,
      "актёр": 9287,
      "нового": 9288,
      "ases": 9289,
      "имеют": 9290,
      "lam": 9291,
      "Democr": 9292,
      "mercial": 9293,
      "sylvania": 9294,
      "Are": 9295,
      "гля": 9296,
      "охра": 9297,
      "тём": 9298,
      "форму": 9299,
      "вё": 9300,
      "ними": 9301,
      "лах": 9302,
      "princ": 9303,
      "оном": 9304,
      "ati": 9305,
      "reached": 9306,
      "upon": 9307,
      "Northern": 9308,
      "inning": 9309,
      "Scottish": 9310,
      "РСФСР": 9311,
      "fight": 9312,
      "кос": 9313,
      "surv": 9314,
      "ties": 9315,
      "ристи": 9316,
      "сезоне": 9317,
      "Corpor": 9318,
      "standing": 9319,
      "Великобритании": 9320,
      "imm": 9321,
      "imp": 9322,
      "войне": 9323,
      "Александра": 9324,
      "упомина": 9325,
      "entire": 9326,
      "Blue": 9327,
      "throughout": 9328,
      "циклопе": 9329,
      "names": 9330,
      "пом": 9331,
      "поки": 9332,
      "seen": 9333,
      "proble": 9334,
      "Ru": 9335,
      "йна": 9336,
      "надца": 9337,
      "Италии": 9338,
      "Good": 9339,
      "rid": 9340,
      "стен": 9341,
      "лее": 9342,
      "grand": 9343,
      "Station": 9344,
      "Зем": 9345,
      "гри": 9346,
      "жо": 9347,
      "некоторых": 9348,
      "Геор": 9349,
      "Большо": 9350,
      "icy": 9351,
      "iano": 9352,
      "singles": 9353,
      "Radio": 9354,
      "Jud": 9355,
      "Rel": 9356,
      "ba": 9357,
      "посё": 9358,
      "replaced": 9359,
      "thus": 9360,
      "association": 9361,
      "очеред": 9362,
      "iences": 9363,
      "Carolina": 9364,
      "Pakistan": 9365,
      "Famil": 9366,
      "Ox": 9367,
      "must": 9368,
      "Chicago": 9369,
      "Times": 9370,
      "pp": 9371,
      "отправи": 9372,
      "spir": 9373,
      "seasons": 9374,
      "основе": 9375,
      "внеш": 9376,
      "suggest": 9377,
      "How": 9378,
      "bot": 9379,
      "cand": 9380,
      "вало": 9381,
      "тива": 9382,
      "400": 9383,
      "AC": 9384,
      "Brown": 9385,
      "посред": 9386,
      "помощью": 9387,
      "winning": 9388,
      "cycl": 9389,
      "followed": 9390,
      "Ministry": 9391,
      "competition": 9392,
      "rich": 9393,
      "пос": 9394,
      "нении": 9395,
      "imate": 9396,
      "стол": 9397,
      "above": 9398,
      "episode": 9399,
      "creat": 9400,
      "earli": 9401,
      "Bas": 9402,
      "свет": 9403,
      "рома": 9404,
      "торго": 9405,
      "icket": 9406,
      "System": 9407,
      "подоб": 9408,
      "казом": 9409,
      "ниях": 9410,
      "producer": 9411,
      "команд": 9412,
      "полковник": 9413,
      "Фут": 9414,
      "огра": 9415,
      "рт": 9416,
      "лон": 9417,
      "вернулся": 9418,
      "Ret": 9419,
      "Dutch": 9420,
      "итальян": 9421,
      "ali": 9422,
      "института": 9423,
      "Electr": 9424,
      "сматри": 9425,
      "мате": 9426,
      "Похоро": 9427,
      "вление": 9428,
      "ems": 9429,
      "городского": 9430,
      "алфави": 9431,
      "коль": 9432,
      "ential": 9433,
      "конкур": 9434,
      "экономи": 9435,
      "газ": 9436,
      "новре": 9437,
      "stitution": 9438,
      "volution": 9439,
      "cit": 9440,
      "plays": 9441,
      "sche": 9442,
      "ificant": 9443,
      "involved": 9444,
      "Они": 9445,
      "зен": 9446,
      "вшим": 9447,
      "Теле": 9448,
      "ients": 9449,
      "присоеди": 9450,
      "uture": 9451,
      "ющее": 9452,
      "пять": 9453,
      "характери": 9454,
      "1911": 9455,
      "рования": 9456,
      "сцена": 9457,
      "Jack": 9458,
      "лка": 9459,
      "actress": 9460,
      "край": 9461,
      "Office": 9462,
      "Петербур": 9463,
      "Родился": 9464,
      "воздуш": 9465,
      "иде": 9466,
      "isher": 9467,
      "amed": 9468,
      "olk": 9469,
      "shot": 9470,
      "Мат": 9471,
      "Parliament": 9472,
      "Ol": 9473,
      "Уи": 9474,
      "мьер": 9475,
      "нией": 9476,
      "relation": 9477,
      "Russia": 9478,
      "военно": 9479,
      "Iran": 9480,
      "fav": 9481,
      "mas": 9482,
      "pay": 9483,
      "Ак": 9484,
      "Она": 9485,
      "уси": 9486,
      "листы": 9487,
      "ograph": 9488,
      "overs": 9489,
      "ultural": 9490,
      "division": 9491,
      "hit": 9492,
      "ert": 9493,
      "print": 9494,
      "государства": 9495,
      "Президен": 9496,
      "Queen": 9497,
      "учре": 9498,
      "AP": 9499,
      "Most": 9500,
      "осо": 9501,
      "worth": 9502,
      "институт": 9503,
      "веке": 9504,
      "библиоте": 9505,
      "важ": 9506,
      "стью": 9507,
      "Congress": 9508,
      "территориаль": 9509,
      "Valley": 9510,
      "incorpor": 9511,
      "kin": 9512,
      "Лин": 9513,
      "Пла": 9514,
      "Фили": 9515,
      "зия": 9516,
      "свое": 9517,
      "collect": 9518,
      "Brig": 9519,
      "русской": 9520,
      "subsequ": 9521,
      "tournament": 9522,
      "civil": 9523,
      "заи": 9524,
      "дон": 9525,
      "collection": 9526,
      "footballer": 9527,
      "цкого": 9528,
      "образование": 9529,
      "Персона": 9530,
      "говор": 9531,
      "iga": 9532,
      "deal": 9533,
      "screen": 9534,
      "дороги": 9535,
      "Team": 9536,
      "OS": 9537,
      "hom": 9538,
      "pot": 9539,
      "Пло": 9540,
      "йт": 9541,
      "суль": 9542,
      "fefe": 9543,
      "lay": 9544,
      "occup": 9545,
      "Pennsylvania": 9546,
      "97": 9547,
      "results": 9548,
      "Lee": 9549,
      "оружи": 9550,
      "отлича": 9551,
      "stop": 9552,
      "песни": 9553,
      "лян": 9554,
      "model": 9555,
      "Soviet": 9556,
      "некоторые": 9557,
      "бого": 9558,
      "ibl": 9559,
      "обычно": 9560,
      "Памя": 9561,
      "month": 9562,
      "округ": 9563,
      "Ленинград": 9564,
      "кило": 9565,
      "vert": 9566,
      "Columb": 9567,
      "fourth": 9568,
      "обороны": 9569,
      "Irish": 9570,
      "drama": 9571,
      "начально": 9572,
      "летних": 9573,
      "studio": 9574,
      "отношения": 9575,
      "92": 9576,
      "ностей": 9577,
      "роя": 9578,
      "дав": 9579,
      "mann": 9580,
      "Когда": 9581,
      "NS": 9582,
      "org": 9583,
      "тины": 9584,
      "exhib": 9585,
      "которую": 9586,
      "neigh": 9587,
      "Board": 9588,
      "говори": 9589,
      "деб": 9590,
      "actions": 9591,
      "Луч": 9592,
      "FL": 9593,
      "Girl": 9594,
      "Ху": 9595,
      "star": 9596,
      "significant": 9597,
      "удалось": 9598,
      "approx": 9599,
      "Bob": 9600,
      "southern": 9601,
      "ild": 9602,
      "прово": 9603,
      "vey": 9604,
      "ьера": 9605,
      "ционного": 9606,
      "Jim": 9607,
      "paint": 9608,
      "пес": 9609,
      "шах": 9610,
      "1904": 9611,
      "четырёх": 9612,
      "Фри": 9613,
      "первым": 9614,
      "исследования": 9615,
      "успеш": 9616,
      "BS": 9617,
      "Young": 9618,
      "ума": 9619,
      "Институ": 9620,
      "EP": 9621,
      "Гар": 9622,
      "оп": 9623,
      "вок": 9624,
      "know": 9625,
      "capt": 9626,
      "вышел": 9627,
      "behind": 9628,
      "Ul": 9629,
      "date": 9630,
      "ux": 9631,
      "Аб": 9632,
      "тории": 9633,
      "тической": 9634,
      "critic": 9635,
      "Van": 9636,
      "Джа": 9637,
      "дре": 9638,
      "ories": 9639,
      "точно": 9640,
      "боро": 9641,
      "спортив": 9642,
      "pec": 9643,
      "Московской": 9644,
      "футболист": 9645,
      "possible": 9646,
      "профессор": 9647,
      "introduced": 9648,
      "96": 9649,
      "Cy": 9650,
      "поля": 9651,
      "возможно": 9652,
      "тельное": 9653,
      "тым": 9654,
      "возра": 9655,
      "contribut": 9656,
      "Athlet": 9657,
      "ffer": 9658,
      "river": 9659,
      "Ры": 9660,
      "многие": 9661,
      "коммуны": 9662,
      "Pacific": 9663,
      "Empire": 9664,
      "Ca": 9665,
      "fif": 9666,
      "фан": 9667,
      "tru": 9668,
      "parts": 9669,
      "названием": 9670,
      "Alexander": 9671,
      "purch": 9672,
      "ufact": 9673,
      "Мари": 9674,
      "художник": 9675,
      "Battle": 9676,
      "коне": 9677,
      "ises": 9678,
      "Ок": 9679,
      "аэро": 9680,
      "proved": 9681,
      "назва": 9682,
      "языка": 9683,
      "RD": 9684,
      "Ty": 9685,
      "поскольку": 9686,
      "люби": 9687,
      "участвовал": 9688,
      "Por": 9689,
      "Мор": 9690,
      "space": 9691,
      "плат": 9692,
      "Philipp": 9693,
      "Batt": 9694,
      "Luc": 9695,
      "bit": 9696,
      "bell": 9697,
      "милли": 9698,
      "отра": 9699,
      "емые": 9700,
      "проект": 9701,
      "previously": 9702,
      "lived": 9703,
      "least": 9704,
      "urt": 9705,
      "выз": 9706,
      "гидро": 9707,
      "transl": 9708,
      "европе": 9709,
      "farm": 9710,
      "ken": 9711,
      "отказа": 9712,
      "кую": 9713,
      "шее": 9714,
      "альбома": 9715,
      "FI": 9716,
      "sal": 9717,
      "льд": 9718,
      "мастер": 9719,
      "Москвы": 9720,
      "Григо": 9721,
      "bed": 9722,
      "asing": 9723,
      "150": 9724,
      "boy": 9725,
      "здание": 9726,
      "Night": 9727,
      "ero": 9728,
      "лого": 9729,
      "духов": 9730,
      "деревни": 9731,
      "командир": 9732,
      "профессиональ": 9733,
      "Dun": 9734,
      "care": 9735,
      "ус": 9736,
      "adv": 9737,
      "opp": 9738,
      "quest": 9739,
      "Anton": 9740,
      "Lead": 9741,
      "Enter": 9742,
      "мужчин": 9743,
      "ьков": 9744,
      "theast": 9745,
      "нику": 9746,
      "подготов": 9747,
      "awa": 9748,
      "provided": 9749,
      "northern": 9750,
      "Raj": 9751,
      "uz": 9752,
      "icts": 9753,
      "нему": 9754,
      "academ": 9755,
      "complete": 9756,
      "Serge": 9757,
      "look": 9758,
      "корпуса": 9759,
      "Bre": 9760,
      "Ly": 9761,
      "hus": 9762,
      "los": 9763,
      "usp": 9764,
      "мых": 9765,
      "Генера": 9766,
      "Asian": 9767,
      "архитек": 9768,
      "document": 9769,
      "Further": 9770,
      "млад": 9771,
      "dress": 9772,
      "azz": 9773,
      "ette": 9774,
      "жить": 9775,
      "Воро": 9776,
      "Medal": 9777,
      "Der": 9778,
      "нская": 9779,
      "демо": 9780,
      "жением": 9781,
      "usually": 9782,
      "осуществля": 9783,
      "Lim": 9784,
      "РФ": 9785,
      "нар": 9786,
      "closed": 9787,
      "жей": 9788,
      "Although": 9789,
      "расши": 9790,
      "goals": 9791,
      "числен": 9792,
      "Mas": 9793,
      "opt": 9794,
      "brand": 9795,
      "матча": 9796,
      "пяти": 9797,
      "литератур": 9798,
      "degree": 9799,
      "сообще": 9800,
      "express": 9801,
      "област": 9802,
      "attempt": 9803,
      "Цер": 9804,
      "пой": 9805,
      "данных": 9806,
      "завое": 9807,
      "acts": 9808,
      "вили": 9809,
      "phil": 9810,
      "iy": 9811,
      "nomin": 9812,
      "seat": 9813,
      "union": 9814,
      "язык": 9815,
      "98": 9816,
      "Four": 9817,
      "Вос": 9818,
      "поэтому": 9819,
      "93": 9820,
      "attended": 9821,
      "команда": 9822,
      "получила": 9823,
      "Braz": 9824,
      "Hung": 9825,
      "iro": 9826,
      "ез": 9827,
      "шру": 9828,
      "рович": 9829,
      "Воен": 9830,
      "Develop": 9831,
      "Hal": 9832,
      "еже": 9833,
      "erve": 9834,
      "реж": 9835,
      "прото": 9836,
      "Каза": 9837,
      "Family": 9838,
      "Стра": 9839,
      "states": 9840,
      "возрасте": 9841,
      "science": 9842,
      "операции": 9843,
      "положение": 9844,
      "E9E9": 9845,
      "Mos": 9846,
      "Sa": 9847,
      "сной": 9848,
      "Field": 9849,
      "LI": 9850,
      "нит": 9851,
      "ционный": 9852,
      "Dor": 9853,
      "fiction": 9854,
      "дочь": 9855,
      "championship": 9856,
      "Ниж": 9857,
      "городской": 9858,
      "посёлок": 9859,
      "неф": 9860,
      "iger": 9861,
      "епископ": 9862,
      "яр": 9863,
      "owers": 9864,
      "ландии": 9865,
      "inated": 9866,
      "Иванович": 9867,
      "Georgia": 9868,
      "присут": 9869,
      "Spain": 9870,
      "уезда": 9871,
      "эффек": 9872,
      "Ve": 9873,
      "ds": 9874,
      "Albert": 9875,
      "capital": 9876,
      "должность": 9877,
      "Груп": 9878,
      "маги": 9879,
      "emp": 9880,
      "ulty": 9881,
      "ровал": 9882,
      "Engineer": 9883,
      "provide": 9884,
      "industry": 9885,
      "girl": 9886,
      "Чу": 9887,
      "пост": 9888,
      "перво": 9889,
      "scient": 9890,
      "Ленина": 9891,
      "organiz": 9892,
      "eventually": 9893,
      "treat": 9894,
      "Шу": 9895,
      "рест": 9896,
      "chief": 9897,
      "location": 9898,
      "Es": 9899,
      "жили": 9900,
      "Алексе": 9901,
      "runs": 9902,
      "новременно": 9903,
      "Bud": 9904,
      "Base": 9905,
      "battle": 9906,
      "Рей": 9907,
      "ссажи": 9908,
      "jun": 9909,
      "Эр": 9910,
      "такие": 9911,
      "конца": 9912,
      "ansas": 9913,
      "colon": 9914,
      "organization": 9915,
      "candid": 9916,
      "ging": 9917,
      "АО": 9918,
      "ваются": 9919,
      "too": 9920,
      "Journal": 9921,
      "Net": 9922,
      "Tim": 9923,
      "defin": 9924,
      "стьян": 9925,
      "Health": 9926,
      "operations": 9927,
      "leader": 9928,
      "reading": 9929,
      "Код": 9930,
      "close": 9931,
      "Худо": 9932,
      "раб": 9933,
      "1903": 9934,
      "decided": 9935,
      "genus": 9936,
      "CC": 9937,
      "гну": 9938,
      "кке": 9939,
      "сове": 9940,
      "tracks": 9941,
      "1890": 9942,
      "writing": 9943,
      "земли": 9944,
      "совершен": 9945,
      "ened": 9946,
      "сток": 9947,
      "lying": 9948,
      "antic": 9949,
      "Album": 9950,
      "темпера": 9951,
      "характер": 9952,
      "Административ": 9953,
      "Victoria": 9954,
      "department": 9955,
      "master": 9956,
      "истре": 9957,
      "нил": 9958,
      "катери": 9959,
      "зад": 9960,
      "commission": 9961,
      "changed": 9962,
      "primary": 9963,
      "habit": 9964,
      "Time": 9965,
      "Авто": 9966,
      "ania": 9967,
      "пове": 9968,
      "ление": 9969,
      "мые": 9970,
      "музыкан": 9971,
      "Hart": 9972,
      "ii": 9973,
      "ВС": 9974,
      "попа": 9975,
      "расположен": 9976,
      "другой": 9977,
      "defeated": 9978,
      "eastern": 9979,
      "wan": 9980,
      "clo": 9981,
      "Ep": 9982,
      "sat": 9983,
      "older": 9984,
      "музей": 9985,
      "missing": 9986,
      "Kir": 9987,
      "метро": 9988,
      "plat": 9989,
      "участво": 9990,
      "явил": 9991,
      "systems": 9992,
      "represented": 9993,
      "Home": 9994,
      "поверх": 9995,
      "Jones": 9996,
      "MA": 9997,
      "Vo": 9998,
      "mass": 9999,
      "zy": 10000,
      "Сю": 10001,
      "Ура": 10002,
      "фильме": 10003,
      "значения": 10004,
      "Middle": 10005,
      "woman": 10006,
      "департа": 10007,
      "igr": 10008,
      "ровать": 10009,
      "культур": 10010,
      "режиссё": 10011,
      "either": 10012,
      "Columbia": 10013,
      "Ros": 10014,
      "Social": 10015,
      "Tenn": 10016,
      "sell": 10017,
      "reve": 10018,
      "arden": 10019,
      "ector": 10020,
      "claimed": 10021,
      "outside": 10022,
      "fantry": 10023,
      "Tal": 10024,
      "log": 10025,
      "length": 10026,
      "опы": 10027,
      "фли": 10028,
      "oft": 10029,
      "ider": 10030,
      "plann": 10031,
      "бежа": 10032,
      "ibility": 10033,
      "certain": 10034,
      "respect": 10035,
      "approximately": 10036,
      "потом": 10037,
      "рист": 10038,
      "руется": 10039,
      "чины": 10040,
      "quare": 10041,
      "Кли": 10042,
      "меня": 10043,
      "выда": 10044,
      "ails": 10045,
      "выступле": 10046,
      "провинции": 10047,
      "Jul": 10048,
      "Wat": 10049,
      "кер": 10050,
      "hest": 10051,
      "обору": 10052,
      "перио": 10053,
      "вай": 10054,
      "keep": 10055,
      "алфавиту": 10056,
      "phen": 10057,
      "yer": 10058,
      "Prince": 10059,
      "Сти": 10060,
      "ваться": 10061,
      "прекра": 10062,
      "должен": 10063,
      "tainment": 10064,
      "школа": 10065,
      "согласно": 10066,
      "Francisco": 10067,
      "Ak": 10068,
      "Open": 10069,
      "SP": 10070,
      "рос": 10071,
      "stant": 10072,
      "Track": 10073,
      "Book": 10074,
      "Михаил": 10075,
      "происхо": 10076,
      "Ray": 10077,
      "ГУ": 10078,
      "дца": 10079,
      "твер": 10080,
      "новые": 10081,
      "ления": 10082,
      "accept": 10083,
      "столи": 10084,
      "acting": 10085,
      "Рай": 10086,
      "That": 10087,
      "ention": 10088,
      "рыв": 10089,
      "whose": 10090,
      "1901": 10091,
      "Cro": 10092,
      "Follow": 10093,
      "mic": 10094,
      "itors": 10095,
      "actors": 10096,
      "Brazil": 10097,
      "94": 10098,
      "простран": 10099,
      "шев": 10100,
      "начальник": 10101,
      "magazine": 10102,
      "Министер": 10103,
      "Jewish": 10104,
      "Mov": 10105,
      "лье": 10106,
      "бога": 10107,
      "secur": 10108,
      "matches": 10109,
      "manager": 10110,
      "Band": 10111,
      "Bang": 10112,
      "Little": 10113,
      "Prem": 10114,
      "ophy": 10115,
      "iang": 10116,
      "щик": 10117,
      "королев": 10118,
      "включая": 10119,
      "railway": 10120,
      "Был": 10121,
      "Jersey": 10122,
      "стры": 10123,
      "Argent": 10124,
      "чув": 10125,
      "происходит": 10126,
      "рамках": 10127,
      "If": 10128,
      "fic": 10129,
      "Екатери": 10130,
      "Тем": 10131,
      "нских": 10132,
      "instead": 10133,
      "erv": 10134,
      "reason": 10135,
      "тельная": 10136,
      "News": 10137,
      "корот": 10138,
      "management": 10139,
      "Gallery": 10140,
      "sum": 10141,
      "инстру": 10142,
      "Кам": 10143,
      "ready": 10144,
      "фикации": 10145,
      "Az": 10146,
      "Сто": 10147,
      "isto": 10148,
      "asy": 10149,
      "Asia": 10150,
      "тировал": 10151,
      "аппара": 10152,
      "Card": 10153,
      "ау": 10154,
      "жён": 10155,
      "просто": 10156,
      "состава": 10157,
      "православ": 10158,
      "Участники": 10159,
      "Bh": 10160,
      "тная": 10161,
      "Republ": 10162,
      "обеспечи": 10163,
      "gas": 10164,
      "нью": 10165,
      "книги": 10166,
      "Andrew": 10167,
      "Lt": 10168,
      "pet": 10169,
      "рождения": 10170,
      "Islands": 10171,
      "Uk": 10172,
      "ковых": 10173,
      "arily": 10174,
      "мое": 10175,
      "Univers": 10176,
      "91": 10177,
      "Game": 10178,
      "голов": 10179,
      "правитель": 10180,
      "legal": 10181,
      "благодаря": 10182,
      "членом": 10183,
      "Gal": 10184,
      "army": 10185,
      "соору": 10186,
      "гани": 10187,
      "образу": 10188,
      "Сара": 10189,
      "countries": 10190,
      "ption": 10191,
      "Рим": 10192,
      "управля": 10193,
      "inf": 10194,
      "население": 10195,
      "compl": 10196,
      "бес": 10197,
      "значение": 10198,
      "Верх": 10199,
      "issue": 10200,
      "Liber": 10201,
      "Loc": 10202,
      "esh": 10203,
      "рец": 10204,
      "протя": 10205,
      "mean": 10206,
      "самых": 10207,
      "Генри": 10208,
      "Special": 10209,
      "uce": 10210,
      "Ай": 10211,
      "Assembly": 10212,
      "Бал": 10213,
      "Анто": 10214,
      "частью": 10215,
      "individual": 10216,
      "destroy": 10217,
      "Sand": 10218,
      "аб": 10219,
      "жного": 10220,
      "ange": 10221,
      "микро": 10222,
      "переиме": 10223,
      "Coast": 10224,
      "schol": 10225,
      "Library": 10226,
      "жные": 10227,
      "хро": 10228,
      "нул": 10229,
      "ranch": 10230,
      "улицы": 10231,
      "производства": 10232,
      "Hong": 10233,
      "Ram": 10234,
      "пуска": 10235,
      "poet": 10236,
      "Джо": 10237,
      "Bow": 10238,
      "дё": 10239,
      "жная": 10240,
      "снова": 10241,
      "anch": 10242,
      "сохра": 10243,
      "доров": 10244,
      "1897": 10245,
      "Bank": 10246,
      "Bern": 10247,
      "nec": 10248,
      "ipal": 10249,
      "Development": 10250,
      "Mur": 10251,
      "Ря": 10252,
      "aka": 10253,
      "RAFVR": 10254,
      "изуче": 10255,
      "usion": 10256,
      "Organ": 10257,
      "внима": 10258,
      "Занима": 10259,
      "XVIII": 10260,
      "Rh": 10261,
      "park": 10262,
      "моно": 10263,
      "phy": 10264,
      "создания": 10265,
      "Poland": 10266,
      "Ohio": 10267,
      "Pre": 10268,
      "yan": 10269,
      "ам": 10270,
      "двор": 10271,
      "aya": 10272,
      "относится": 10273,
      "NA": 10274,
      "frequ": 10275,
      "editor": 10276,
      "пока": 10277,
      "amous": 10278,
      "adium": 10279,
      "шед": 10280,
      "Затем": 10281,
      "sych": 10282,
      "дивизия": 10283,
      "региона": 10284,
      "класса": 10285,
      "Web": 10286,
      "Австра": 10287,
      "майор": 10288,
      "hr": 10289,
      "тского": 10290,
      "выстав": 10291,
      "Centre": 10292,
      "емый": 10293,
      "секрета": 10294,
      "ić": 10295,
      "завода": 10296,
      "Почёт": 10297,
      "особенно": 10298,
      "Of": 10299,
      "рского": 10300,
      "selected": 10301,
      "земле": 10302,
      "Portug": 10303,
      "wing": 10304,
      "Смо": 10305,
      "шан": 10306,
      "мета": 10307,
      "ковский": 10308,
      "берг": 10309,
      "симво": 10310,
      "culture": 10311,
      "принадлежа": 10312,
      "3rd": 10313,
      "жела": 10314,
      "uments": 10315,
      "coast": 10316,
      "чены": 10317,
      "тику": 10318,
      "русского": 10319,
      "opening": 10320,
      "standard": 10321,
      "Scotland": 10322,
      "безопасности": 10323,
      "Max": 10324,
      "ьет": 10325,
      "ences": 10326,
      "пехот": 10327,
      "utes": 10328,
      "Freder": 10329,
      "возможность": 10330,
      "somet": 10331,
      "мера": 10332,
      "москов": 10333,
      "выну": 10334,
      "тельности": 10335,
      "рование": 10336,
      "примерно": 10337,
      "используется": 10338,
      "religious": 10339,
      "Бур": 10340,
      "впоследствии": 10341,
      "reme": 10342,
      "неё": 10343,
      "operation": 10344,
      "Интер": 10345,
      "Lab": 10346,
      "rup": 10347,
      "ustr": 10348,
      "КО": 10349,
      "раба": 10350,
      "вании": 10351,
      "Industr": 10352,
      "фир": 10353,
      "болез": 10354,
      "Books": 10355,
      "Syd": 10356,
      "компью": 10357,
      "руководством": 10358,
      "читы": 10359,
      "возник": 10360,
      "евского": 10361,
      "этим": 10362,
      "развитие": 10363,
      "Members": 10364,
      "anth": 10365,
      "island": 10366,
      "льской": 10367,
      "eme": 10368,
      "маршру": 10369,
      "Writ": 10370,
      "като": 10371,
      "cele": 10372,
      "друг": 10373,
      "lik": 10374,
      "Университе": 10375,
      "Pat": 10376,
      "rough": 10377,
      "ано": 10378,
      "inem": 10379,
      "пути": 10380,
      "Источ": 10381,
      "operated": 10382,
      "железнодорож": 10383,
      "цвета": 10384,
      "рек": 10385,
      "perform": 10386,
      "characters": 10387,
      "Metro": 10388,
      "Far": 10389,
      "ky": 10390,
      "vices": 10391,
      "Сла": 10392,
      "чную": 10393,
      "ores": 10394,
      "train": 10395,
      "предложе": 10396,
      "выступи": 10397,
      "семейства": 10398,
      "истреби": 10399,
      "Mah": 10400,
      "bal": 10401,
      "wal": 10402,
      "án": 10403,
      "Оде": 10404,
      "оке": 10405,
      "кает": 10406,
      "тела": 10407,
      "сек": 10408,
      "циалистиче": 10409,
      "FM": 10410,
      "Lord": 10411,
      "Later": 10412,
      "гры": 10413,
      "соба": 10414,
      "состоит": 10415,
      "проекта": 10416,
      "food": 10417,
      "повы": 10418,
      "цик": 10419,
      "выбо": 10420,
      "провёл": 10421,
      "подраз": 10422,
      "join": 10423,
      "quarters": 10424,
      "Sat": 10425,
      "saf": 10426,
      "ua": 10427,
      "omer": 10428,
      "сена": 10429,
      "brought": 10430,
      "contains": 10431,
      "Following": 10432,
      "Ob": 10433,
      "Ot": 10434,
      "Бен": 10435,
      "плу": 10436,
      "хом": 10437,
      "всей": 10438,
      "сентябре": 10439,
      "province": 10440,
      "Дина": 10441,
      "Англии": 10442,
      "мимо": 10443,
      "интере": 10444,
      "Cambridge": 10445,
      "broadcast": 10446,
[...]
