{
  "version": "1.0",
  "truncation": null,
  "padding": null,
  "added_tokens": [
    {
      "id": 0,
      "content": "[PAD]",
      "single_word": false,
      "lstrip": false,
      "rstrip": false,
      "normalized": false,
      "special": true
    },
    {
      "id": 1,
      "content": "[UNK]",
      "single_word": false,
      "lstrip": false,
      "rstrip": false,
      "normalized": false,
      "special": true
    },
    {
      "id": 2,
      "content": "[CLS]",
      "single_word": false,
      "lstrip": false,
      "rstrip": false,
      "normalized": false,
      "special": true
    },
    {
      "id": 3,
      "content": "[SEP]",
      "single_word": false,
      "lstrip": false,
      "rstrip": false,
      "normalized": false,
      "special": true
    },
    {
      "id": 4,
      "content": "[MASK]",
      "single_word": false,
      "lstrip": false,
      "rstrip": false,
      "normalized": false,
      "special": true
    }
  ],
  "normalizer": null,
  "pre_tokenizer": {
    "type": "BertPreTokenizer"
  },
  "post_processor": null,
  "decoder": null,
  "model": {
    "type": "BPE",
    "dropout": null,
    "unk_token": null,
    "continuing_subword_prefix": null,
    "end_of_word_suffix": null,
    "fuse_unk": false,
    "byte_fallback": false,
    "ignore_merges": false,
    "vocab": {
      "[PAD]": 0,
      "[UNK]": 1,
      "[CLS]": 2,
      "[SEP]": 3,
      "[MASK]": 4,
      "!": 5,
      "\"": 6,
      "#": 7,
      "$": 8,
      "%": 9,
      "&": 10,
      "'": 11,
      "(": 12,
      ")": 13,
      "*": 14,
      "+": 15,
      ",": 16,
      "-": 17,
      ".": 18,
      "/": 19,
      "0": 20,
      "1": 21,
      "2": 22,
      "3": 23,
      "4": 24,
      "5": 25,
      "6": 26,
      "7": 27,
      "8": 28,
      "9": 29,
      ":": 30,
      ";": 31,
      "<": 32,
      "=": 33,
      ">": 34,
      "?": 35,
      "@": 36,
      "A": 37,
      "B": 38,
      "C": 39,
      "D": 40,
      "E": 41,
      "F": 42,
      "G": 43,
      "H": 44,
      "I": 45,
      "J": 46,
      "K": 47,
      "L": 48,
      "M": 49,
      "N": 50,
      "O": 51,
      "P": 52,
      "Q": 53,
      "R": 54,
      "S": 55,
      "T": 56,
      "U": 57,
      "V": 58,
      "W": 59,
      "X": 60,
      "Y": 61,
      "Z": 62,
      "[": 63,
      "\\": 64,
      "]": 65,
      "^": 66,
      "_": 67,
      "`": 68,
      "a": 69,
      "b": 70,
      "c": 71,
      "d": 72,
      "e": 73,
      "f": 74,
      "g": 75,
      "h": 76,
      "i": 77,
      "j": 78,
      "k": 79,
      "l": 80,
      "m": 81,
      "n": 82,
      "o": 83,
      "p": 84,
      "q": 85,
      "r": 86,
      "s": 87,
      "t": 88,
      "u": 89,
      "v": 90,
      "w": 91,
      "x": 92,
      "y": 93,
      "z": 94,
      "{": 95,
      "|": 96,
      "}": 97,
      "~": 98,
      "¡": 99,
      "¢": 100,
      "£": 101,
      "¥": 102,
      "¦": 103,
      "§": 104,
      "¨": 105,
      "©": 106,
      "ª": 107,
      "«": 108,
      "¬": 109,
      "­": 110,
      "®": 111,
      "¯": 112,
      "°": 113,
      "±": 114,
      "²": 115,
      "³": 116,
      "´": 117,
      "µ": 118,
      "¶": 119,
      "·": 120,
      "¹": 121,
      "º": 122,
      "»": 123,
      "¼": 124,
      "½": 125,
      "¿": 126,
      "À": 127,
      "Á": 128,
      "Â": 129,
      "Ã": 130,
      "Ä": 131,
      "Å": 132,
      "Æ": 133,
      "Ç": 134,
      "È": 135,
      "É": 136,
      "Í": 137,
      "Î": 138,
      "Ñ": 139,
      "Ò": 140,
      "Ó": 141,
      "Õ": 142,
      "Ö": 143,
      "×": 144,
      "Ø": 145,
      "Ú": 146,
      "Ü": 147,
      "Þ": 148,
      "ß": 149,
      "à": 150,
      "á": 151,
      "â": 152,
      "ã": 153,
      "ä": 154,
      "å": 155,
      "æ": 156,
      "ç": 157,
      "è": 158,
      "é": 159,
      "ê": 160,
      "ë": 161,
      "ì": 162,
      "í": 163,
      "î": 164,
      "ï": 165,
      "ð": 166,
      "ñ": 167,
      "ò": 168,
      "ó": 169,
      "ô": 170,
      "õ": 171,
      "ö": 172,
      "÷": 173,
      "ø": 174,
      "ù": 175,
      "ú": 176,
      "û": 177,
      "ü": 178,
      "ý": 179,
      "þ": 180,
      "ÿ": 181,
      "Ā": 182,
      "ā": 183,
      "Ă": 184,
      "ă": 185,
      "Ą": 186,
      "ą": 187,
      "Ć": 188,
      "ć": 189,
      "Č": 190,
      "č": 191,
      "ď": 192,
      "Đ": 193,
      "đ": 194,
      "Ē": 195,
      "ē": 196,
      "Ĕ": 197,
      "ĕ": 198,
      "ė": 199,
      "ę": 200,
      "ě": 201,
      "ĝ": 202,
      "Ğ": 203,
      "ğ": 204,
      "ġ": 205,
      "ģ": 206,
      "Ħ": 207,
      "ħ": 208,
      "Ĩ": 209,
      "ĩ": 210,
      "Ī": 211,
      "ī": 212,
      "ĭ": 213,
      "į": 214,
      "İ": 215,
      "ı": 216,
      "ķ": 217,
      "ļ": 218,
      "Ľ": 219,
      "Ł": 220,
      "ł": 221,
      "Ń": 222,
      "ń": 223,
      "ņ": 224,
      "ň": 225,
      "ŉ": 226,
      "Ŋ": 227,
      "ŋ": 228,
      "Ō": 229,
      "ō": 230,
      "ŏ": 231,
      "ő": 232,
      "Œ": 233,
      "œ": 234,
      "ŕ": 235,
      "ŗ": 236,
      "ř": 237,
      "Ś": 238,
      "ś": 239,
      "Ş": 240,
      "ş": 241,
      "Š": 242,
      "š": 243,
      "Ţ": 244,
      "ţ": 245,
      "ť": 246,
      "ū": 247,
      "ŭ": 248,
      "ů": 249,
      "ű": 250,
      "ų": 251,
      "ŵ": 252,
      "ŷ": 253,
      "Ź": 254,
      "ź": 255,
      "Ż": 256,
      "ż": 257,
      "Ž": 258,
      "ž": 259,
      "Ɔ": 260,
      "Ɛ": 261,
      "ƒ": 262,
      "ƙ": 263,
      "Ɯ": 264,
      "Ɲ": 265,
      "ơ": 266,
      "ƥ": 267,
      "ư": 268,
      "Ʒ": 269,
      "Ƹ": 270,
      "ǁ": 271,
      "Ǎ": 272,
      "ǎ": 273,
      "ǐ": 274,
      "ǒ": 275,
      "ǔ": 276,
      "ǝ": 277,
      "Ǟ": 278,
      "ǟ": 279,
      "Ǡ": 280,
      "ǡ": 281,
      "ǣ": 282,
      "ǧ": 283,
      "ǫ": 284,
      "ǰ": 285,
      "ǵ": 286,
      "Ǻ": 287,
      "ǻ": 288,
      "Ȁ": 289,
      "ȁ": 290,
      "Ȃ": 291,
      "ȃ": 292,
      "ȅ": 293,
      "ȉ": 294,
      "ȗ": 295,
      "Ș": 296,
      "ș": 297,
      "Ț": 298,
      "ț": 299,
      "ȡ": 300,
      "Ȣ": 301,
      "Ȧ": 302,
      "ȧ": 303,
      "ȩ": 304,
      "Ⱥ": 305,
      "ɐ": 306,
      "ɑ": 307,
      "ɒ": 308,
      "ɔ": 309,
      "ɗ": 310,
      "ə": 311,
      "ɛ": 312,
      "ɡ": 313,
      "ɣ": 314,
      "ɤ": 315,
      "ɨ": 316,
      "ɪ": 317,
      "ɭ": 318,
      "ɲ": 319,
      "ɳ": 320,
      "ɹ": 321,
      "ʀ": 322,
      "ʃ": 323,
      "ʈ": 324,
      "ʉ": 325,
      "ʊ": 326,
      "ʌ": 327,
      "ʎ": 328,
      "ʏ": 329,
      "ʒ": 330,
      "ʔ": 331,
      "ʰ": 332,
      "ʷ": 333,
      "ʻ": 334,
      "ʼ": 335,
      "ʽ": 336,
      "ʾ": 337,
      "ʿ": 338,
      "ˀ": 339,
      "ˁ": 340,
      "ˈ": 341,
      "ː": 342,
      "ˠ": 343,
      "˭": 344,
      "˹": 345,
      "˺": 346,
      "̀": 347,
      "́": 348,
      "̂": 349,
      "̃": 350,
      "̄": 351,
      "̅": 352,
      "̈": 353,
      "̌": 354,
      "̡": 355,
      "̥": 356,
      "̨": 357,
      "̮": 358,
      "̯": 359,
      "̲": 360,
      "̵": 361,
      "̽": 362,
      "͟": 363,
      "͡": 364,
      "΄": 365,
      "Ά": 366,
      "Έ": 367,
      "ΐ": 368,
      "Α": 369,
      "Β": 370,
      "Γ": 371,
      "Δ": 372,
      "Ε": 373,
      "Ζ": 374,
      "Η": 375,
      "Θ": 376,
      "Ι": 377,
      "Κ": 378,
      "Λ": 379,
      "Μ": 380,
      "Ν": 381,
      "Ξ": 382,
      "Ο": 383,
      "Π": 384,
      "Ρ": 385,
      "Σ": 386,
      "Τ": 387,
      "Φ": 388,
      "Χ": 389,
      "Ψ": 390,
      "Ω": 391,
      "ά": 392,
      "έ": 393,
      "ή": 394,
      "ί": 395,
      "α": 396,
      "β": 397,
      "γ": 398,
      "δ": 399,
      "ε": 400,
      "ζ": 401,
      "η": 402,
      "θ": 403,
      "ι": 404,
      "κ": 405,
      "λ": 406,
      "μ": 407,
      "ν": 408,
      "ξ": 409,
      "ο": 410,
      "π": 411,
      "ρ": 412,
      "ς": 413,
      "σ": 414,
      "τ": 415,
      "υ": 416,
      "φ": 417,
      "χ": 418,
      "ψ": 419,
      "ω": 420,
      "ϊ": 421,
      "ό": 422,
      "ύ": 423,
      "ώ": 424,
      "ϝ": 425,
      "ϵ": 426,
      "А": 427,
      "Б": 428,
      "В": 429,
      "Г": 430,
      "Д": 431,
      "Е": 432,
      "Ж": 433,
      "З": 434,
      "И": 435,
      "Й": 436,
      "К": 437,
      "Л": 438,
      "М": 439,
      "Н": 440,
      "О": 441,
      "П": 442,
      "Р": 443,
      "С": 444,
      "Т": 445,
      "У": 446,
      "Ф": 447,
      "Х": 448,
      "Ч": 449,
      "Щ": 450,
      "Э": 451,
      "Ю": 452,
      "Я": 453,
      "а": 454,
      "б": 455,
      "в": 456,
      "г": 457,
      "д": 458,
      "е": 459,
      "ж": 460,
      "з": 461,
      "и": 462,
      "й": 463,
      "к": 464,
      "л": 465,
      "м": 466,
      "н": 467,
      "о": 468,
      "п": 469,
      "р": 470,
      "с": 471,
      "т": 472,
      "у": 473,
      "ф": 474,
      "х": 475,
      "ц": 476,
      "ч": 477,
      "ш": 478,
      "щ": 479,
      "ъ": 480,
      "ы": 481,
      "ь": 482,
      "э": 483,
      "ю": 484,
      "я": 485,
      "ё": 486,
      "є": 487,
      "і": 488,
      "ї": 489,
      "ј": 490,
      "њ": 491,
      "ћ": 492,
      "Ѣ": 493,
      "ѣ": 494,
      "ѧ": 495,
      "Ѫ": 496,
      "ѫ": 497,
      "҅": 498,
      "ҝ": 499,
      "ә": 500,
      "Ӝ": 501,
      "Ө": 502,
      "ө": 503,
      "Ա": 504,
      "Գ": 505,
      "Դ": 506,
      "Ե": 507,
      "Թ": 508,
      "Ն": 509,
      "Ո": 510,
      "Ս": 511,
      "Վ": 512,
      "Տ": 513,
      "Ւ": 514,
      "Ք": 515,
      "ա": 516,
      "բ": 517,
      "գ": 518,
      "դ": 519,
      "ե": 520,
      "զ": 521,
      "է": 522,
      "թ": 523,
      "ի": 524,
      "լ": 525,
      "խ": 526,
      "ծ": 527,
      "կ": 528,
      "հ": 529,
      "ղ": 530,
      "յ": 531,
      "ն": 532,
      "ո": 533,
      "պ": 534,
      "ջ": 535,
      "ռ": 536,
      "ս": 537,
      "տ": 538,
      "ր": 539,
      "ց": 540,
      "ւ": 541,
      "ք": 542,
      "օ": 543,
      "ֆ": 544,
      "և": 545,
      "ְ": 546,
      "ֲ": 547,
      "ִ": 548,
      "ֵ": 549,
      "ֶ": 550,
      "ַ": 551,
      "ָ": 552,
      "ֹ": 553,
      "ֻ": 554,
      "ּ": 555,
      "־": 556,
      "ׁ": 557,
      "ׂ": 558,
      "א": 559,
      "ב": 560,
      "ג": 561,
      "ד": 562,
      "ה": 563,
      "ו": 564,
      "ז": 565,
      "ח": 566,
      "ט": 567,
      "י": 568,
      "ך": 569,
      "כ": 570,
      "ל": 571,
      "ם": 572,
      "מ": 573,
      "ן": 574,
      "נ": 575,
      "ס": 576,
      "ע": 577,
      "פ": 578,
      "ץ": 579,
      "צ": 580,
      "ק": 581,
      "ר": 582,
      "ש": 583,
      "ת": 584,
      "״": 585,
      "ء": 586,
      "آ": 587,
      "أ": 588,
      "ؤ": 589,
      "إ": 590,
      "ئ": 591,
      "ا": 592,
      "ب": 593,
      "ة": 594,
      "ت": 595,
      "ث": 596,
      "ج": 597,
      "ح": 598,
      "خ": 599,
      "د": 600,
      "ذ": 601,
      "ر": 602,
      "ز": 603,
      "س": 604,
      "ش": 605,
      "ص": 606,
      "ض": 607,
      "ط": 608,
      "ظ": 609,
      "ع": 610,
      "غ": 611,
      "ـ": 612,
      "ف": 613,
      "ق": 614,
      "ك": 615,
      "ل": 616,
      "م": 617,
      "ن": 618,
      "ه": 619,
      "و": 620,
      "ى": 621,
      "ي": 622,
      "ً": 623,
      "َ": 624,
      "ُ": 625,
      "ِ": 626,
      "ّ": 627,
      "ْ": 628,
      "٠": 629,
      "١": 630,
      "٢": 631,
      "٣": 632,
      "٤": 633,
      "٥": 634,
      "٦": 635,
      "٧": 636,
      "٨": 637,
      "٩": 638,
      "ٰ": 639,
      "ٱ": 640,
      "پ": 641,
      "ژ": 642,
      "ک": 643,
      "گ": 644,
      "ی": 645,
      "ۖ": 646,
      "۝": 647,
      "۞": 648,
      "ܐ": 649,
      "ܒ": 650,
      "ܓ": 651,
      "ܕ": 652,
      "ܗ": 653,
      "ܙ": 654,
      "ܝ": 655,
      "ܠ": 656,
      "ܡ": 657,
      "ܢ": 658,
      "ܪ": 659,
      "ܬ": 660,
      "ܲ": 661,
      "ܵ": 662,
      "ܼ": 663,
      "݂": 664,
      "݇": 665,
      "ߊ": 666,
      "ߋ": 667,
      "ߌ": 668,
      "ߍ": 669,
      "ߎ": 670,
      "ߏ": 671,
      "ߐ": 672,
      "ߒ": 673,
      "ߓ": 674,
      "ߔ": 675,
      "ߕ": 676,
      "ߖ": 677,
      "ߗ": 678,
      "ߘ": 679,
      "ߙ": 680,
      "ߚ": 681,
      "ߛ": 682,
      "ߜ": 683,
      "ߝ": 684,
      "ߞ": 685,
      "ߟ": 686,
      "ߡ": 687,
      "ߢ": 688,
      "ߣ": 689,
      "ߤ": 690,
      "ߥ": 691,
      "ߦ": 692,
      "߫": 693,
      "߬": 694,
      "߯": 695,
      "߰": 696,
      "߲": 697,
      "ं": 698,
      "ः": 699,
      "अ": 700,
      "आ": 701,
      "ई": 702,
      "ऋ": 703,
      "क": 704,
      "ख": 705,
      "च": 706,
      "छ": 707,
      "ज": 708,
      "ट": 709,
      "त": 710,
      "द": 711,
      "ध": 712,
      "न": 713,
      "प": 714,
      "ब": 715,
      "म": 716,
      "य": 717,
      "र": 718,
      "ल": 719,
      "व": 720,
      "श": 721,
      "ष": 722,
      "स": 723,
      "ा": 724,
      "ि": 725,
      "ु": 726,
      "े": 727,
      "ो": 728,
      "्": 729,
      "।": 730,
      "আ": 731,
      "ক": 732,
      "গ": 733,
      "জ": 734,
      "ত": 735,
      "দ": 736,
      "ন": 737,
      "প": 738,
      "ব": 739,
      "ভ": 740,
      "য": 741,
      "র": 742,
      "ল": 743,
      "স": 744,
      "়": 745,
      "া": 746,
      "ি": 747,
      "ু": 748,
      "ূ": 749,
      "ে": 750,
      "ো": 751,
      "্": 752,
      "ક": 753,
      "ણ": 754,
      "દ": 755,
      "પ": 756,
      "લ": 757,
      "ષ": 758,
      "સ": 759,
      "ા": 760,
      "્": 761,
      "ஒ": 762,
      "ட": 763,
      "ன": 764,
      "ப": 765,
      "ம": 766,
      "ய": 767,
      "ர": 768,
      "வ": 769,
      "ி": 770,
      "ீ": 771,
      "ு": 772,
      "ை": 773,
      "ொ": 774,
      "்": 775,
      "അ": 776,
      "ഇ": 777,
      "ക": 778,
      "ച": 779,
      "ട": 780,
      "ണ": 781,
      "യ": 782,
      "ര": 783,
      "ല": 784,
      "ള": 785,
      "സ": 786,
      "ാ": 787,
      "ി": 788,
      "ു": 789,
      "ോ": 790,
      "്": 791,
      "ช": 792,
      "บ": 793,
      "ม": 794,
      "ย": 795,
      "ร": 796,
      "อ": 797,
      "ะ": 798,
      "ี": 799,
      "เ": 800,
      "์": 801,
      "ა": 802,
      "დ": 803,
      "ე": 804,
      "ლ": 805,
      "ნ": 806,
      "რ": 807,
      "ს": 808,
      "ქ": 809,
      "ᅀ": 810,
      "ሀ": 811,
      "ሁ": 812,
      "ሂ": 813,
      "ህ": 814,
      "ር": 815,
      "ስ": 816,
      "ን": 817,
      "እ": 818,
      "ክ": 819,
      "ድ": 820,
      "ᐱ": 821,
      "ᐳ": 822,
      "ᐸ": 823,
      "ᑎ": 824,
      "ᑐ": 825,
      "ᑕ": 826,
      "ᚼ": 827,
      "ᛒ": 828,
      "᛭": 829,
      "ᴀ": 830,
      "ᴥ": 831,
      "ᵄ": 832,
      "ᶏ": 833,
      "ᶐ": 834,
      "ᶛ": 835,
      "Ḁ": 836,
      "ḁ": 837,
      "ḇ": 838,
      "Ḍ": 839,
      "ḍ": 840,
      "ḏ": 841,
      "ḑ": 842,
      "ḗ": 843,
      "ḙ": 844,
      "ḡ": 845,
      "Ḥ": 846,
      "ḥ": 847,
      "Ḫ": 848,
      "ḫ": 849,
      "ḯ": 850,
      "ḱ": 851,
      "Ḳ": 852,
      "ḳ": 853,
      "ḵ": 854,
      "ḷ": 855,
      "ṁ": 856,
      "ṃ": 857,
      "ṅ": 858,
      "ṇ": 859,
      "ṓ": 860,
      "ṕ": 861,
      "ṗ": 862,
      "ṙ": 863,
      "ṛ": 864,
      "Ṣ": 865,
      "ṣ": 866,
      "Ṫ": 867,
      "Ṭ": 868,
      "ṭ": 869,
      "ṯ": 870,
      "Ẃ": 871,
      "Ẅ": 872,
      "Ẇ": 873,
      "Ẉ": 874,
      "Ẓ": 875,
      "ẓ": 876,
      "ẚ": 877,
      "Ạ": 878,
      "ạ": 879,
      "Ả": 880,
      "ả": 881,
      "Ấ": 882,
      "ấ": 883,
      "Ầ": 884,
      "ầ": 885,
      "Ẩ": 886,
      "ẩ": 887,
      "Ẫ": 888,
      "ẫ": 889,
      "Ậ": 890,
      "ậ": 891,
      "Ắ": 892,
      "ắ": 893,
      "Ằ": 894,
      "ằ": 895,
      "Ẳ": 896,
      "ẳ": 897,
      "Ẵ": 898,
      "ẵ": 899,
      "Ặ": 900,
      "ặ": 901,
      "ẻ": 902,
      "ẽ": 903,
      "ế": 904,
      "ể": 905,
      "ễ": 906,
      "ệ": 907,
      "ỉ": 908,
      "ị": 909,
      "ọ": 910,
      "ồ": 911,
      "ỗ": 912,
      "ộ": 913,
      "ớ": 914,
      "ờ": 915,
      "ợ": 916,
      "ữ": 917,
      "ỳ": 918,
      "ỷ": 919,
      "ἀ": 920,
      "ἁ": 921,
      "ἄ": 922,
      "ἅ": 923,
      "Ἀ": 924,
      "Ἄ": 925,
      "ἐ": 926,
      "ἔ": 927,
      "ἕ": 928,
      "Ἐ": 929,
      "ἠ": 930,
      "ἡ": 931,
      "ἤ": 932,
      "Ἥ": 933,
      "ἰ": 934,
      "ἱ": 935,
      "ἴ": 936,
      "Ἰ": 937,
      "Ἱ": 938,
      "Ἵ": 939,
      "ὀ": 940,
      "ὁ": 941,
      "Ὀ": 942,
      "Ὁ": 943,
      "ὐ": 944,
      "ὖ": 945,
      "ὗ": 946,
      "Ὑ": 947,
      "ὡ": 948,
      "ὥ": 949,
      "Ὧ": 950,
      "ὰ": 951,
      "ὴ": 952,
      "ὶ": 953,
      "ὸ": 954,
      "ὺ": 955,
      "ᾶ": 956,
      "᾽": 957,
      "ῃ": 958,
      "ῆ": 959,
      "ῖ": 960,
      "ῥ": 961,
      "ῦ": 962,
      "Ῥ": 963,
      "ῶ": 964,
      "ῷ": 965,
      "‌": 966,
      "‍": 967,
      "‎": 968,
      "‐": 969,
      "‑": 970,
      "‒": 971,
      "–": 972,
      "—": 973,
      "―": 974,
      "‘": 975,
      "’": 976,
      "‛": 977,
      "“": 978,
      "”": 979,
      "„": 980,
      "†": 981,
      "‡": 982,
      "•": 983,
      "․": 984,
      "…": 985,
      "‰": 986,
      "′": 987,
      "″": 988,
      "⁂": 989,
      "⁠": 990,
      "⁣": 991,
      "₁": 992,
      "₂": 993,
      "₩": 994,
      "€": 995,
      "₳": 996,
      "₹": 997,
      "ℏ": 998,
      "ℓ": 999,
      "№": 1000,
      "™": 1001,
      "⅔": 1002,
      "←": 1003,
      "↑": 1004,
      "→": 1005,
      "↓": 1006,
      "↔": 1007,
      "⇌": 1008,
      "∀": 1009,
      "∂": 1010,
      "∃": 1011,
      "∅": 1012,
      "∆": 1013,
      "∈": 1014,
      "∊": 1015,
      "∋": 1016,
      "−": 1017,
      "∗": 1018,
      "∘": 1019,
      "∝": 1020,
      "∞": 1021,
      "∧": 1022,
      "∨": 1023,
      "∩": 1024,
      "∪": 1025,
      "∴": 1026,
      "∼": 1027,
      "≈": 1028,
      "≟": 1029,
      "≠": 1030,
      "≡": 1031,
      "≤": 1032,
      "≥": 1033,
      "≫": 1034,
      "≼": 1035,
      "≽": 1036,
      "⊂": 1037,
      "⊃": 1038,
      "⊆": 1039,
      "⊖": 1040,
      "⊗": 1041,
      "⊤": 1042,
      "⊥": 1043,
      "⋅": 1044,
      "⋯": 1045,
      "⌈": 1046,
      "⌊": 1047,
      "⌋": 1048,
      "⌽": 1049,
      "⌿": 1050,
      "⍋": 1051,
      "⍨": 1052,
      "⍳": 1053,
      "⍴": 1054,
      "⍵": 1055,
      "⎧": 1056,
      "⎩": 1057,
      "⏨": 1058,
      "␣": 1059,
      "Ⓐ": 1060,
      "─": 1061,
      "┌": 1062,
      "┐": 1063,
      "╥": 1064,
      "╨": 1065,
      "▀": 1066,
      "▄": 1067,
      "█": 1068,
      "░": 1069,
      "▒": 1070,
      "▓": 1071,
      "□": 1072,
      "◊": 1073,
      "○": 1074,
      "◘": 1075,
      "☉": 1076,
      "☠": 1077,
      "☫": 1078,
      "☺": 1079,
      "♀": 1080,
      "♂": 1081,
      "♈": 1082,
      "♒": 1083,
      "♥": 1084,
      "♦": 1085,
      "♭": 1086,
      "♯": 1087,
      "♾": 1088,
      "⚇": 1089,
      "⚓": 1090,
      "⚥": 1091,
      "⚲": 1092,
      "⟨": 1093,
      "⟩": 1094,
      "⟶": 1095,
      "⠀": 1096,
      "⠁": 1097,
      "⠋": 1098,
      "⠙": 1099,
      "⠟": 1100,
      "⠻": 1101,
      "⠿": 1102,
      "⡈": 1103,
      "⡟": 1104,
      "⡷": 1105,
      "⡿": 1106,
      "⢀": 1107,
      "⢁": 1108,
      "⢻": 1109,
      "⢿": 1110,
      "⣉": 1111,
      "⣌": 1112,
      "⣠": 1113,
      "⣦": 1114,
      "⣧": 1115,
      "⣴": 1116,
      "⣶": 1117,
      "⣷": 1118,
      "⣼": 1119,
      "⣾": 1120,
      "⣿": 1121,
      "ⱥ": 1122,
      "Ɑ": 1123,
      "Ɐ": 1124,
      "Ɒ": 1125,
      "ⱷ": 1126,
      "ⲃ": 1127,
      "ⲇ": 1128,
      "ⲉ": 1129,
      "ⲓ": 1130,
      "ⲡ": 1131,
      "ⲧ": 1132,
      "ⲱ": 1133,
      "。": 1134,
      "《": 1135,
      "》": 1136,
      "か": 1137,
      "き": 1138,
      "く": 1139,
      "け": 1140,
      "こ": 1141,
      "さ": 1142,
      "し": 1143,
      "と": 1144,
      "な": 1145,
      "の": 1146,
      "ら": 1147,
      "り": 1148,
      "る": 1149,
      "れ": 1150,
      "ろ": 1151,
      "わ": 1152,
      "ア": 1153,
      "イ": 1154,
      "ェ": 1155,
      "キ": 1156,
      "グ": 1157,
      "ケ": 1158,
      "サ": 1159,
      "ジ": 1160,
      "タ": 1161,
      "ダ": 1162,
      "ッ": 1163,
      "テ": 1164,
      "デ": 1165,
      "ド": 1166,
      "ニ": 1167,
      "ハ": 1168,
      "バ": 1169,
      "ヒ": 1170,
      "ビ": 1171,
      "ピ": 1172,
      "メ": 1173,
      "リ": 1174,
      "ル": 1175,
      "レ": 1176,
      "ワ": 1177,
      "ン": 1178,
      "・": 1179,
      "ー": 1180,
      "ㄌ": 1181,
      "ㄢ": 1182,
      "ㄨ": 1183,
      "一": 1184,
      "七": 1185,
      "三": 1186,
      "下": 1187,
      "中": 1188,
      "主": 1189,
      "久": 1190,
      "之": 1191,
      "也": 1192,
      "事": 1193,
      "二": 1194,
      "五": 1195,
      "井": 1196,
      "亜": 1197,
      "亦": 1198,
      "京": 1199,
      "人": 1200,
      "仏": 1201,
      "以": 1202,
      "伊": 1203,
      "传": 1204,
      "伽": 1205,
      "但": 1206,
      "佛": 1207,
      "作": 1208,
      "例": 1209,
      "侠": 1210,
      "俟": 1211,
      "偿": 1212,
      "傳": 1213,
      "傷": 1214,
      "僕": 1215,
      "僧": 1216,
      "元": 1217,
      "入": 1218,
      "八": 1219,
      "公": 1220,
      "六": 1221,
      "农": 1222,
      "刑": 1223,
      "利": 1224,
      "务": 1225,
      "務": 1226,
      "北": 1227,
      "十": 1228,
      "千": 1229,
      "南": 1230,
      "卷": 1231,
      "可": 1232,
      "史": 1233,
      "合": 1234,
      "同": 1235,
      "吐": 1236,
      "君": 1237,
      "员": 1238,
      "咄": 1239,
      "和": 1240,
      "品": 1241,
      "啞": 1242,
      "四": 1243,
      "固": 1244,
      "国": 1245,
      "國": 1246,
      "在": 1247,
      "坐": 1248,
      "垒": 1249,
      "垣": 1250,
      "堂": 1251,
      "壁": 1252,
      "士": 1253,
      "处": 1254,
      "复": 1255,
      "大": 1256,
      "天": 1257,
      "夫": 1258,
      "女": 1259,
      "奴": 1260,
      "始": 1261,
      "姦": 1262,
      "婁": 1263,
      "婆": 1264,
      "学": 1265,
      "安": 1266,
      "宗": 1267,
      "家": 1268,
      "宿": 1269,
      "密": 1270,
      "寛": 1271,
      "實": 1272,
      "小": 1273,
      "山": 1274,
      "岁": 1275,
      "島": 1276,
      "崩": 1277,
      "州": 1278,
      "左": 1279,
      "帝": 1280,
      "師": 1281,
      "常": 1282,
      "幼": 1283,
      "庫": 1284,
      "建": 1285,
      "強": 1286,
      "录": 1287,
      "律": 1288,
      "得": 1289,
      "德": 1290,
      "心": 1291,
      "思": 1292,
      "性": 1293,
      "悉": 1294,
      "悟": 1295,
      "情": 1296,
      "惡": 1297,
      "慶": 1298,
      "憲": 1299,
      "懸": 1300,
      "成": 1301,
      "才": 1302,
      "折": 1303,
      "拓": 1304,
      "提": 1305,
      "摩": 1306,
      "政": 1307,
      "故": 1308,
      "文": 1309,
      "斤": 1310,
      "方": 1311,
      "日": 1312,
      "明": 1313,
      "時": 1314,
      "晏": 1315,
      "景": 1316,
      "暂": 1317,
      "曇": 1318,
      "更": 1319,
      "曼": 1320,
      "月": 1321,
      "有": 1322,
      "未": 1323,
      "本": 1324,
      "机": 1325,
      "李": 1326,
      "杜": 1327,
      "条": 1328,
      "東": 1329,
      "杵": 1330,
      "林": 1331,
      "查": 1332,
      "树": 1333,
      "校": 1334,
      "條": 1335,
      "检": 1336,
      "植": 1337,
      "楚": 1338,
      "楞": 1339,
      "樂": 1340,
      "樹": 1341,
      "次": 1342,
      "欲": 1343,
      "歌": 1344,
      "步": 1345,
      "歲": 1346,
      "歴": 1347,
      "殖": 1348,
      "水": 1349,
      "汗": 1350,
      "汝": 1351,
      "沙": 1352,
      "沢": 1353,
      "泉": 1354,
      "法": 1355,
      "泡": 1356,
      "波": 1357,
      "泰": 1358,
      "流": 1359,
      "淨": 1360,
      "漿": 1361,
      "灯": 1362,
      "災": 1363,
      "無": 1364,
      "然": 1365,
      "熊": 1366,
      "燃": 1367,
      "燈": 1368,
      "燕": 1369,
      "爛": 1370,
      "爸": 1371,
      "犯": 1372,
      "珍": 1373,
      "珠": 1374,
      "瑾": 1375,
      "瓜": 1376,
      "用": 1377,
      "略": 1378,
      "百": 1379,
      "皇": 1380,
      "盘": 1381,
      "盤": 1382,
      "盧": 1383,
      "相": 1384,
      "眼": 1385,
      "破": 1386,
      "祖": 1387,
      "神": 1388,
      "福": 1389,
      "禪": 1390,
      "秋": 1391,
      "科": 1392,
      "秦": 1393,
      "種": 1394,
      "竞": 1395,
      "竺": 1396,
      "筒": 1397,
      "算": 1398,
      "節": 1399,
      "糖": 1400,
      "紅": 1401,
      "細": 1402,
      "絞": 1403,
      "經": 1404,
      "線": 1405,
      "續": 1406,
      "罗": 1407,
      "罚": 1408,
      "罪": 1409,
      "羅": 1410,
      "羽": 1411,
      "者": 1412,
      "耳": 1413,
      "胃": 1414,
      "胡": 1415,
      "脈": 1416,
      "自": 1417,
      "至": 1418,
      "节": 1419,
      "芳": 1420,
      "茶": 1421,
      "荒": 1422,
      "荼": 1423,
      "菩": 1424,
      "营": 1425,
      "薩": 1426,
      "藻": 1427,
      "蘆": 1428,
      "蠻": 1429,
      "血": 1430,
      "行": 1431,
      "袈": 1432,
      "裏": 1433,
      "裟": 1434,
      "褥": 1435,
      "西": 1436,
      "覧": 1437,
      "覺": 1438,
      "觀": 1439,
      "解": 1440,
      "記": 1441,
      "訟": 1442,
      "訴": 1443,
      "語": 1444,
      "論": 1445,
      "諸": 1446,
      "諾": 1447,
      "證": 1448,
      "议": 1449,
      "貘": 1450,
      "資": 1451,
      "赔": 1452,
      "趙": 1453,
      "跌": 1454,
      "軍": 1455,
      "轉": 1456,
      "辯": 1457,
      "辰": 1458,
      "農": 1459,
      "适": 1460,
      "連": 1461,
      "道": 1462,
      "達": 1463,
      "遠": 1464,
      "那": 1465,
      "配": 1466,
      "里": 1467,
      "重": 1468,
      "錄": 1469,
      "鍛": 1470,
      "鑒": 1471,
      "锻": 1472,
      "長": 1473,
      "門": 1474,
      "開": 1475,
      "間": 1476,
      "関": 1477,
      "阵": 1478,
      "阿": 1479,
      "陀": 1480,
      "附": 1481,
      "陰": 1482,
      "陳": 1483,
      "陵": 1484,
      "陽": 1485,
      "際": 1486,
      "雄": 1487,
      "集": 1488,
      "雖": 1489,
      "離": 1490,
      "霸": 1491,
      "青": 1492,
      "面": 1493,
      "韓": 1494,
      "順": 1495,
      "頭": 1496,
      "願": 1497,
      "類": 1498,
      "香": 1499,
      "骨": 1500,
      "高": 1501,
      "魏": 1502,
      "魚": 1503,
      "鮑": 1504,
      "鴛": 1505,
      "鴦": 1506,
      "麻": 1507,
      "黄": 1508,
      "黑": 1509,
      "齊": 1510,
      "龍": 1511,
      "龜": 1512,
      "ꙑ": 1513,
      "ꜣ": 1514,
      "Ꜹ": 1515,
      "ꞌ": 1516,
      "Ꞻ": 1517,
      "ꞻ": 1518,
      "ꬱ": 1519,
      "대": 1520,
      "더": 1521,
      "렉": 1522,
      "목": 1523,
      "사": 1524,
      "산": 1525,
      "수": 1526,
      "식": 1527,
      "알": 1528,
      "음": 1529,
      "의": 1530,
      "일": 1531,
      "주": 1532,
      "충": 1533,
      "판": 1534,
      "홍": 1535,
      "︎": 1536,
      "（": 1537,
      "）": 1538,
      "，": 1539,
      "；": 1540,
      "𐀀": 1541,
      "𐀅": 1542,
      "𐀏": 1543,
      "𐀩": 1544,
      "𐀫": 1545,
      "𐀭": 1546,
      "𐌀": 1547,
      "𐤀": 1548,
      "𐤌": 1549,
      "𐤍": 1550,
      "𐤏": 1551,
      "𑀓": 1552,
      "𑀥": 1553,
      "𑀦": 1554,
      "𑀩": 1555,
      "𑀫": 1556,
      "𑀬": 1557,
      "𑀲": 1558,
      "𑀻": 1559,
      "𑀼": 1560,
      "𑁆": 1561,
      "𒀀": 1562,
      "𒂵": 1563,
      "𒆠": 1564,
      "𒉈": 1565,
      "𓅓": 1566,
      "𓆎": 1567,
      "𓊖": 1568,
      "𓏏": 1569,
      "𝘢": 1570,
      "𝘦": 1571,
      "𝘪": 1572,
      "𝘭": 1573,
      "𝘰": 1574,
      "𝘱": 1575,
      "🇦": 1576,
      "🇫": 1577,
      "🇮": 1578,
      "🇶": 1579,
      "🇷": 1580,
      "🇸": 1581,
      "🇺": 1582,
      "🇿": 1583,
      "🚲": 1584,
      "🛈": 1585,
      "𨁂": 1586,
      "th": 1587,
      "in": 1588,
      "an": 1589,
      "er": 1590,
      "the": 1591,
      "on": 1592,
      "re": 1593,
      "at": 1594,
      "en": 1595,
      "al": 1596,
      "ed": 1597,
      "or": 1598,
      "is": 1599,
      "es": 1600,
      "of": 1601,
      "ar": 1602,
      "and": 1603,
      "as": 1604,
      "ic": 1605,
      "it": 1606,
      "to": 1607,
      "ing": 1608,
      "ion": 1609,
      "ro": 1610,
      "st": 1611,
      "le": 1612,
      "ou": 1613,
      "ent": 1614,
      "he": 1615,
      "ac": 1616,
      "om": 1617,
      "il": 1618,
      "el": 1619,
      "ol": 1620,
      "ch": 1621,
      "ad": 1622,
      "am": 1623,
      "se": 1624,
      "be": 1625,
      "ter": 1626,
      "ur": 1627,
      "ly": 1628,
      "for": 1629,
      "ation": 1630,
      "id": 1631,
      "im": 1632,
      "iv": 1633,
      "us": 1634,
      "ct": 1635,
      "The": 1636,
      "ig": 1637,
      "19": 1638,
      "un": 1639,
      "ir": 1640,
      "con": 1641,
      "wh": 1642,
      "ce": 1643,
      "ith": 1644,
      "de": 1645,
      "ul": 1646,
      "ow": 1647,
      "was": 1648,
      "ist": 1649,
      "ag": 1650,
      "ers": 1651,
      "em": 1652,
      "ot": 1653,
      "ay": 1654,
      "ab": 1655,
      "by": 1656,
      "with": 1657,
      "op": 1658,
      "ut": 1659,
      "are": 1660,
      "ap": 1661,
      "ver": 1662,
      "et": 1663,
      "res": 1664,
      "pro": 1665,
      "that": 1666,
      "com": 1667,
      "um": 1668,
      "av": 1669,
      "ian": 1670,
      "tr": 1671,
      "pl": 1672,
      "ther": 1673,
      "all": 1674,
      "mo": 1675,
      "su": 1676,
      "20": 1677,
      "ain": 1678,
      "ex": 1679,
      "In": 1680,
      "est": 1681,
      "pe": 1682,
      "os": 1683,
      "rom": 1684,
      "ies": 1685,
      "his": 1686,
      "if": 1687,
      "ere": 1688,
      "oun": 1689,
      "cl": 1690,
      "ity": 1691,
      "from": 1692,
      "ant": 1693,
      "ish": 1694,
      "so": 1695,
      "ate": 1696,
      "art": 1697,
      "od": 1698,
      "ia": 1699,
      "ne": 1700,
      "ich": 1701,
      "qu": 1702,
      "ess": 1703,
      "igh": 1704,
      "per": 1705,
      "ill": 1706,
      "ial": 1707,
      "man": 1708,
      "ical": 1709,
      "ment": 1710,
      "ld": 1711,
      "ri": 1712,
      "act": 1713,
      "ive": 1714,
      "ud": 1715,
      "te": 1716,
      "sh": 1717,
      "ber": 1718,
      "ated": 1719,
      "ort": 1720,
      "ard": 1721,
      "du": 1722,
      "mer": 1723,
      "oc": 1724,
      "which": 1725,
      "ak": 1726,
      "og": 1727,
      "der": 1728,
      "gh": 1729,
      "str": 1730,
      "ear": 1731,
      "ge": 1732,
      "ip": 1733,
      "ine": 1734,
      "our": 1735,
      "ary": 1736,
      "were": 1737,
      "ell": 1738,
      "ra": 1739,
      "not": 1740,
      "one": 1741,
      "ure": 1742,
      "ave": 1743,
      "rit": 1744,
      "ph": 1745,
      "end": 1746,
      "ts": 1747,
      "comp": 1748,
      "tw": 1749,
      "over": 1750,
      "wor": 1751,
      "up": 1752,
      "ions": 1753,
      "ong": 1754,
      "its": 1755,
      "ame": 1756,
      "ass": 1757,
      "18": 1758,
      "An": 1759,
      "Al": 1760,
      "bl": 1761,
      "ast": 1762,
      "ie": 1763,
      "ous": 1764,
      "pr": 1765,
      "ican": 1766,
      "00": 1767,
      "au": 1768,
      "Ch": 1769,
      "but": 1770,
      "Ar": 1771,
      "out": 1772,
      "ire": 1773,
      "port": 1774,
      "also": 1775,
      "pt": 1776,
      "ack": 1777,
      "age": 1778,
      "ans": 1779,
      "cent": 1780,
      "iz": 1781,
      "ach": 1782,
      "have": 1783,
      "fer": 1784,
      "ect": 1785,
      "form": 1786,
      "ore": 1787,
      "Amer": 1788,
      "had": 1789,
      "ome": 1790,
      "af": 1791,
      "ence": 1792,
      "ign": 1793,
      "part": 1794,
      "has": 1795,
      "ib": 1796,
      "ide": 1797,
      "ang": 1798,
      "bo": 1799,
      "other": 1800,
      "ult": 1801,
      "own": 1802,
      "ight": 1803,
      "ov": 1804,
      "ations": 1805,
      "ke": 1806,
      "cre": 1807,
      "ound": 1808,
      "ev": 1809,
      "fir": 1810,
      "ally": 1811,
      "ory": 1812,
      "their": 1813,
      "American": 1814,
      "pres": 1815,
      "me": 1816,
      "St": 1817,
      "ition": 1818,
      "land": 1819,
      "pre": 1820,
      "po": 1821,
      "ction": 1822,
      "cor": 1823,
      "cont": 1824,
      "ater": 1825,
      "tern": 1826,
      "ould": 1827,
      "200": 1828,
      "Un": 1829,
      "att": 1830,
      "Th": 1831,
      "mon": 1832,
      "dis": 1833,
      "ree": 1834,
      "ci": 1835,
      "ser": 1836,
      "ace": 1837,
      "ates": 1838,
      "ks": 1839,
      "sy": 1840,
      "ces": 1841,
      "first": 1842,
      "gr": 1843,
      "can": 1844,
      "ely": 1845,
      "able": 1846,
      "ran": 1847,
      "pol": 1848,
      "int": 1849,
      "used": 1850,
      "this": 1851,
      "li": 1852,
      "co": 1853,
      "pos": 1854,
      "ren": 1855,
      "who": 1856,
      "201": 1857,
      "fl": 1858,
      "ime": 1859,
      "ob": 1860,
      "incl": 1861,
      "aw": 1862,
      "gen": 1863,
      "been": 1864,
      "des": 1865,
      "most": 1866,
      "play": 1867,
      "ens": 1868,
      "ue": 1869,
      "ile": 1870,
      "spe": 1871,
      "ice": 1872,
      "ind": 1873,
      "It": 1874,
      "ew": 1875,
      "En": 1876,
      "He": 1877,
      "gl": 1878,
      "199": 1879,
      "ced": 1880,
      "year": 1881,
      "low": 1882,
      "ase": 1883,
      "ust": 1884,
      "cess": 1885,
      "such": 1886,
      "ry": 1887,
      "ele": 1888,
      "ational": 1889,
      "ough": 1890,
      "ok": 1891,
      "ath": 1892,
      "sp": 1893,
      "more": 1894,
      "uring": 1895,
      "ents": 1896,
      "gro": 1897,
      "rel": 1898,
      "ite": 1899,
      "ef": 1900,
      "col": 1901,
      "her": 1902,
      "ever": 1903,
      "two": 1904,
      "ict": 1905,
      "arch": 1906,
      "ited": 1907,
      "ding": 1908,
      "min": 1909,
      "ade": 1910,
      "ple": 1911,
      "reg": 1912,
      "ied": 1913,
      "ve": 1914,
      "produ": 1915,
      "br": 1916,
      "coun": 1917,
      "ty": 1918,
      "ma": 1919,
      "arg": 1920,
      "ors": 1921,
      "ance": 1922,
      "they": 1923,
      "into": 1924,
      "ubl": 1925,
      "olog": 1926,
      "cons": 1927,
      "ism": 1928,
      "ics": 1929,
      "Re": 1930,
      "ugh": 1931,
      "kn": 1932,
      "than": 1933,
      "198": 1934,
      "ury": 1935,
      "ular": 1936,
      "use": 1937,
      "any": 1938,
      "vel": 1939,
      "ten": 1940,
      "air": 1941,
      "we": 1942,
      "old": 1943,
      "after": 1944,
      "some": 1945,
      "ved": 1946,
      "Au": 1947,
      "Af": 1948,
      "bec": 1949,
      "les": 1950,
      "inter": 1951,
      "197": 1952,
      "off": 1953,
      "includ": 1954,
      "As": 1955,
      "und": 1956,
      "rough": 1957,
      "red": 1958,
      "Se": 1959,
      "lo": 1960,
      "main": 1961,
      "hy": 1962,
      "time": 1963,
      "mar": 1964,
      "fin": 1965,
      "them": 1966,
      "ood": 1967,
      "publ": 1968,
      "ah": 1969,
      "17": 1970,
      "ased": 1971,
      "sc": 1972,
      "als": 1973,
      "ari": 1974,
      "many": 1975,
      "een": 1976,
      "lin": 1977,
      "work": 1978,
      "ext": 1979,
      "num": 1980,
      "ons": 1981,
      "iss": 1982,
      "writ": 1983,
      "reat": 1984,
      "This": 1985,
      "comm": 1986,
      "sub": 1987,
      "would": 1988,
      "new": 1989,
      "only": 1990,
      "ail": 1991,
      "med": 1992,
      "cial": 1993,
      "196": 1994,
      "stem": 1995,
      "ative": 1996,
      "ific": 1997,
      "no": 1998,
      "century": 1999,
      "ball": 2000,
      "him": 2001,
      "betw": 2002,
      "between": 2003,
      "under": 2004,
      "ose": 2005,
      "ings": 2006,
      "cond": 2007,
      "ters": 2008,
      "gan": 2009,
      "ars": 2010,
      "high": 2011,
      "dr": 2012,
      "ann": 2013,
      "cur": 2014,
      "urn": 2015,
      "when": 2016,
      "then": 2017,
      "Com": 2018,
      "bu": 2019,
      "ual": 2020,
      "ince": 2021,
      "ted": 2022,
      "ese": 2023,
      "ress": 2024,
      "though": 2025,
      "ists": 2026,
      "tain": 2027,
      "do": 2028,
      "known": 2029,
      "ys": 2030,
      "fe": 2031,
      "may": 2032,
      "ject": 2033,
      "cer": 2034,
      "way": 2035,
      "II": 2036,
      "call": 2037,
      "trans": 2038,
      "16": 2039,
      "ins": 2040,
      "dif": 2041,
      "pop": 2042,
      "ric": 2043,
      "ities": 2044,
      "where": 2045,
      "led": 2046,
      "ating": 2047,
      "fore": 2048,
      "ople": 2049,
      "par": 2050,
      "ms": 2051,
      "ron": 2052,
      "hist": 2053,
      "15": 2054,
      "Ger": 2055,
      "De": 2056,
      "bor": 2057,
      "found": 2058,
      "system": 2059,
      "Brit": 2060,
      "Engl": 2061,
      "about": 2062,
      "Con": 2063,
      "overn": 2064,
      "English": 2065,
      "fect": 2066,
      "ivers": 2067,
      "ished": 2068,
      "ds": 2069,
      "sup": 2070,
      "prov": 2071,
      "through": 2072,
      "io": 2073,
      "ful": 2074,
      "set": 2075,
      "during": 2076,
      "car": 2077,
      "Wh": 2078,
      "my": 2079,
      "ident": 2080,
      "years": 2081,
      "gener": 2082,
      "ake": 2083,
      "uc": 2084,
      "fol": 2085,
      "cap": 2086,
      "Bo": 2087,
      "10": 2088,
      "ium": 2089,
      "ix": 2090,
      "cted": 2091,
      "there": 2092,
      "For": 2093,
      "fil": 2094,
      "At": 2095,
      "194": 2096,
      "eng": 2097,
      "Jo": 2098,
      "serv": 2099,
      "day": 2100,
      "inv": 2101,
      "lex": 2102,
      "New": 2103,
      "son": 2104,
      "outh": 2105,
      "velop": 2106,
      "ub": 2107,
      "cy": 2108,
      "well": 2109,
      "ton": 2110,
      "vis": 2111,
      "Is": 2112,
      "ily": 2113,
      "develop": 2114,
      "uro": 2115,
      "ship": 2116,
      "ft": 2117,
      "stru": 2118,
      "sur": 2119,
      "sing": 2120,
      "Le": 2121,
      "loc": 2122,
      "Am": 2123,
      "ause": 2124,
      "uss": 2125,
      "amp": 2126,
      "mem": 2127,
      "angu": 2128,
      "Br": 2129,
      "On": 2130,
      "ep": 2131,
      "ife": 2132,
      "United": 2133,
      "ures": 2134,
      "ax": 2135,
      "called": 2136,
      "ward": 2137,
      "owever": 2138,
      "later": 2139,
      "195": 2140,
      "again": 2141,
      "row": 2142,
      "including": 2143,
      "ians": 2144,
      "present": 2145,
      "these": 2146,
      "rap": 2147,
      "dist": 2148,
      "ious": 2149,
      "ized": 2150,
      "made": 2151,
      "king": 2152,
      "add": 2153,
      "ually": 2154,
      "polit": 2155,
      "iel": 2156,
      "while": 2157,
      "follow": 2158,
      "ature": 2159,
      "number": 2160,
      "ible": 2161,
      "ered": 2162,
      "ically": 2163,
      "being": 2164,
      "oy": 2165,
      "ude": 2166,
      "la": 2167,
      "nor": 2168,
      "nam": 2169,
      "sign": 2170,
      "ret": 2171,
      "ise": 2172,
      "cr": 2173,
      "cri": 2174,
      "bel": 2175,
      "people": 2176,
      "dom": 2177,
      "spec": 2178,
      "ost": 2179,
      "three": 2180,
      "govern": 2181,
      "Wor": 2182,
      "war": 2183,
      "peri": 2184,
      "inn": 2185,
      "ement": 2186,
      "000": 2187,
      "12": 2188,
      "both": 2189,
      "cept": 2190,
      "ural": 2191,
      "city": 2192,
      "group": 2193,
      "cho": 2194,
      "Nor": 2195,
      "leg": 2196,
      "dep": 2197,
      "met": 2198,
      "ale": 2199,
      "ution": 2200,
      "ments": 2201,
      "langu": 2202,
      "vari": 2203,
      "sim": 2204,
      "rol": 2205,
      "char": 2206,
      "War": 2207,
      "countr": 2208,
      "oper": 2209,
      "Ac": 2210,
      "buil": 2211,
      "differ": 2212,
      "unt": 2213,
      "vers": 2214,
      "hel": 2215,
      "dire": 2216,
      "ages": 2217,
      "Euro": 2218,
      "193": 2219,
      "became": 2220,
      "ants": 2221,
      "Pro": 2222,
      "igin": 2223,
      "14": 2224,
      "Ad": 2225,
      "Sh": 2226,
      "ug": 2227,
      "Joh": 2228,
      "ick": 2229,
      "val": 2230,
      "stud": 2231,
      "Austr": 2232,
      "0s": 2233,
      "Mar": 2234,
      "iver": 2235,
      "British": 2236,
      "early": 2237,
      "ences": 2238,
      "Be": 2239,
      "ived": 2240,
      "pers": 2241,
      "urch": 2242,
      "ility": 2243,
      "ond": 2244,
      "Sp": 2245,
      "imes": 2246,
      "ash": 2247,
      "por": 2248,
      "jor": 2249,
      "world": 2250,
      "BC": 2251,
      "ck": 2252,
      "Chr": 2253,
      "let": 2254,
      "ology": 2255,
      "13": 2256,
      "public": 2257,
      "lead": 2258,
      "bers": 2259,
      "requ": 2260,
      "ros": 2261,
      "Fran": 2262,
      "oot": 2263,
      "less": 2264,
      "inst": 2265,
      "Europe": 2266,
      "men": 2267,
      "elf": 2268,
      "gy": 2269,
      "ae": 2270,
      "contin": 2271,
      "suc": 2272,
      "state": 2273,
      "exam": 2274,
      "back": 2275,
      "second": 2276,
      "appe": 2277,
      "uch": 2278,
      "Ex": 2279,
      "long": 2280,
      "German": 2281,
      "like": 2282,
      "John": 2283,
      "ier": 2284,
      "Pr": 2285,
      "oman": 2286,
      "iet": 2287,
      "ower": 2288,
      "Bl": 2289,
      "Ab": 2290,
      "sever": 2291,
      "larg": 2292,
      "fam": 2293,
      "partic": 2294,
      "States": 2295,
      "origin": 2296,
      "thor": 2297,
      "az": 2298,
      "cording": 2299,
      "bi": 2300,
      "rench": 2301,
      "sm": 2302,
      "design": 2303,
      "soci": 2304,
      "ulation": 2305,
      "line": 2306,
      "bre": 2307,
      "lar": 2308,
      "ives": 2309,
      "mus": 2310,
      "bro": 2311,
      "ional": 2312,
      "del": 2313,
      "ban": 2314,
      "often": 2315,
      "iversity": 2316,
      "ina": 2317,
      "arr": 2318,
      "French": 2319,
      "Ph": 2320,
      "iew": 2321,
      "same": 2322,
      "Par": 2323,
      "192": 2324,
      "cover": 2325,
      "miss": 2326,
      "ild": 2327,
      "Christ": 2328,
      "could": 2329,
      "che": 2330,
      "common": 2331,
      "against": 2332,
      "ble": 2333,
      "four": 2334,
      "Alex": 2335,
      "Ind": 2336,
      "name": 2337,
      "based": 2338,
      "ord": 2339,
      "ared": 2340,
      "cient": 2341,
      "elect": 2342,
      "consid": 2343,
      "oth": 2344,
      "illion": 2345,
      "come": 2346,
      "before": 2347,
      "World": 2348,
      "stand": 2349,
      "atic": 2350,
      "point": 2351,
      "ital": 2352,
      "Tr": 2353,
      "ox": 2354,
      "ember": 2355,
      "each": 2356,
      "flu": 2357,
      "fact": 2358,
      "now": 2359,
      "major": 2360,
      "will": 2361,
      "aid": 2362,
      "Or": 2363,
      "gram": 2364,
      "press": 2365,
      "dec": 2366,
      "support": 2367,
      "since": 2368,
      "Col": 2369,
      "order": 2370,
      "vent": 2371,
      "fic": 2372,
      "sol": 2373,
      "chn": 2374,
      "success": 2375,
      "incre": 2376,
      "thern": 2377,
      "small": 2378,
      "read": 2379,
      "ames": 2380,
      "trad": 2381,
      "Can": 2382,
      "because": 2383,
      "remain": 2384,
      "lect": 2385,
      "depend": 2386,
      "law": 2387,
      "Gree": 2388,
      "life": 2389,
      "enn": 2390,
      "ca": 2391,
      "ired": 2392,
      "ting": 2393,
      "several": 2394,
      "ket": 2395,
      "view": 2396,
      "bas": 2397,
      "abl": 2398,
      "alian": 2399,
      "chool": 2400,
      "player": 2401,
      "ven": 2402,
      "aking": 2403,
      "fun": 2404,
      "organ": 2405,
      "ilit": 2406,
      "chan": 2407,
      "tem": 2408,
      "bert": 2409,
      "plac": 2410,
      "author": 2411,
      "government": 2412,
      "ides": 2413,
      "ively": 2414,
      "film": 2415,
      "using": 2416,
      "direct": 2417,
      "aim": 2418,
      "ason": 2419,
      "hum": 2420,
      "Ber": 2421,
      "allow": 2422,
      "acter": 2423,
      "descri": 2424,
      "effect": 2425,
      "ograp": 2426,
      "gu": 2427,
      "non": 2428,
      "fr": 2429,
      "cour": 2430,
      "put": 2431,
      "class": 2432,
      "until": 2433,
      "ley": 2434,
      "There": 2435,
      "very": 2436,
      "lim": 2437,
      "arm": 2438,
      "top": 2439,
      "ices": 2440,
      "different": 2441,
      "ended": 2442,
      "However": 2443,
      "ius": 2444,
      "large": 2445,
      "light": 2446,
      "ouse": 2447,
      "foot": 2448,
      "sk": 2449,
      "she": 2450,
      "attle": 2451,
      "resp": 2452,
      "bed": 2453,
      "ener": 2454,
      "mp": 2455,
      "Car": 2456,
      "death": 2457,
      "equ": 2458,
      "que": 2459,
      "example": 2460,
      "moder": 2461,
      "11": 2462,
      "itions": 2463,
      "ator": 2464,
      "Alexand": 2465,
      "bod": 2466,
      "ped": 2467,
      "uary": 2468,
      "ik": 2469,
      "poss": 2470,
      "And": 2471,
      "yl": 2472,
      "els": 2473,
      "conom": 2474,
      "ica": 2475,
      "stit": 2476,
      "ather": 2477,
      "lit": 2478,
      "ner": 2479,
      "even": 2480,
      "establ": 2481,
      "Russ": 2482,
      "Roman": 2483,
      "import": 2484,
      "University": 2485,
      "cord": 2486,
      "power": 2487,
      "ided": 2488,
      "rad": 2489,
      "cle": 2490,
      "tle": 2491,
      "ield": 2492,
      "include": 2493,
      "head": 2494,
      "commun": 2495,
      "ze": 2496,
      "near": 2497,
      "run": 2498,
      "cas": 2499,
      "result": 2500,
      "ues": 2501,
      "mat": 2502,
      "ternational": 2503,
      "cult": 2504,
      "Bar": 2505,
      "show": 2506,
      "refer": 2507,
      "person": 2508,
      "21": 2509,
      "ute": 2510,
      "Cl": 2511,
      "around": 2512,
      "Pe": 2513,
      "water": 2514,
      "ref": 2515,
      "language": 2516,
      "raft": 2517,
      "contr": 2518,
      "rele": 2519,
      "period": 2520,
      "ician": 2521,
      "vol": 2522,
      "King": 2523,
      "did": 2524,
      "div": 2525,
      "ize": 2526,
      "After": 2527,
      "ister": 2528,
      "South": 2529,
      "pass": 2530,
      "appro": 2531,
      "bus": 2532,
      "Sc": 2533,
      "Aug": 2534,
      "modern": 2535,
      "app": 2536,
      "gg": 2537,
      "mot": 2538,
      "indu": 2539,
      "They": 2540,
      "struct": 2541,
      "mov": 2542,
      "ral": 2543,
      "tal": 2544,
      "those": 2545,
      "team": 2546,
      "ised": 2547,
      "ked": 2548,
      "wn": 2549,
      "Ge": 2550,
      "histor": 2551,
      "190": 2552,
      "ilar": 2553,
      "US": 2554,
      "hol": 2555,
      "offic": 2556,
      "iven": 2557,
      "By": 2558,
      "process": 2559,
      "go": 2560,
      "ival": 2561,
      "among": 2562,
      "arian": 2563,
      "country": 2564,
      "August": 2565,
      "National": 2566,
      "Ap": 2567,
      "ene": 2568,
      "ague": 2569,
      "open": 2570,
      "place": 2571,
      "omet": 2572,
      "bin": 2573,
      "test": 2574,
      "25": 2575,
      "Ear": 2576,
      "bit": 2577,
      "iving": 2578,
      "tic": 2579,
      "Air": 2580,
      "control": 2581,
      "une": 2582,
      "omen": 2583,
      "area": 2584,
      "formed": 2585,
      "program": 2586,
      "expl": 2587,
      "Hist": 2588,
      "Pl": 2589,
      "hand": 2590,
      "series": 2591,
      "born": 2592,
      "Gr": 2593,
      "aving": 2594,
      "cell": 2595,
      "Her": 2596,
      "term": 2597,
      "lands": 2598,
      "di": 2599,
      "techn": 2600,
      "ization": 2601,
      "craft": 2602,
      "ai": 2603,
      "ards": 2604,
      "million": 2605,
      "ately": 2606,
      "ids": 2607,
      "ilitary": 2608,
      "much": 2609,
      "ird": 2610,
      "ified": 2611,
      "rop": 2612,
      "action": 2613,
      "ines": 2614,
      "influ": 2615,
      "econom": 2616,
      "began": 2617,
      "ternal": 2618,
      "due": 2619,
      "ock": 2620,
      "ross": 2621,
      "song": 2622,
      "typ": 2623,
      "yn": 2624,
      "urther": 2625,
      "These": 2626,
      "continu": 2627,
      "ony": 2628,
      "Ag": 2629,
      "book": 2630,
      "population": 2631,
      "North": 2632,
      "inc": 2633,
      "belie": 2634,
      "exp": 2635,
      "thod": 2636,
      "stat": 2637,
      "sequ": 2638,
      "Pol": 2639,
      "base": 2640,
      "hal": 2641,
      "see": 2642,
      "pect": 2643,
      "Greek": 2644,
      "position": 2645,
      "what": 2646,
      "All": 2647,
      "bur": 2648,
      "return": 2649,
      "within": 2650,
      "band": 2651,
      "claim": 2652,
      "football": 2653,
      "contain": 2654,
      "rest": 2655,
      "ali": 2656,
      "following": 2657,
      "ger": 2658,
      "history": 2659,
      "Ne": 2660,
      "22": 2661,
      "den": 2662,
      "popular": 2663,
      "His": 2664,
      "aster": 2665,
      "last": 2666,
      "still": 2667,
      "rece": 2668,
      "Apol": 2669,
      "Cent": 2670,
      "Arab": 2671,
      "pat": 2672,
      "ently": 2673,
      "30": 2674,
      "ison": 2675,
      "Ser": 2676,
      "right": 2677,
      "ork": 2678,
      "ially": 2679,
      "similar": 2680,
      "ability": 2681,
      "general": 2682,
      "AS": 2683,
      "home": 2684,
      "Canad": 2685,
      "gre": 2686,
      "osop": 2687,
      "Bel": 2688,
      "self": 2689,
      "ights": 2690,
      "ness": 2691,
      "Ro": 2692,
      "def": 2693,
      "key": 2694,
      "ane": 2695,
      "report": 2696,
      "ster": 2697,
      "search": 2698,
      "cut": 2699,
      "along": 2700,
      "estern": 2701,
      "ament": 2702,
      "down": 2703,
      "Man": 2704,
      "ove": 2705,
      "ung": 2706,
      "compos": 2707,
      "mag": 2708,
      "ilosop": 2709,
      "Some": 2710,
      "considered": 2711,
      "ones": 2712,
      "iam": 2713,
      "mit": 2714,
      "music": 2715,
      "child": 2716,
      "prote": 2717,
      "ham": 2718,
      "record": 2719,
      "field": 2720,
      "Coun": 2721,
      "ibut": 2722,
      "posed": 2723,
      "school": 2724,
      "ves": 2725,
      "ality": 2726,
      "start": 2727,
      "anim": 2728,
      "great": 2729,
      "adem": 2730,
      "anal": 2731,
      "May": 2732,
      "issu": 2733,
      "defin": 2734,
      "character": 2735,
      "mb": 2736,
      "Will": 2737,
      "former": 2738,
      "Sch": 2739,
      "York": 2740,
      "short": 2741,
      "side": 2742,
      "vir": 2743,
      "alth": 2744,
      "tradition": 2745,
      "level": 2746,
      "attack": 2747,
      "family": 2748,
      "Eng": 2749,
      "189": 2750,
      "ological": 2751,
      "van": 2752,
      "phys": 2753,
      "formation": 2754,
      "important": 2755,
      "50": 2756,
      "ches": 2757,
      "writer": 2758,
      "particular": 2759,
      "crit": 2760,
      "Apollo": 2761,
      "rodu": 2762,
      "plic": 2763,
      "human": 2764,
      "jo": 2765,
      "eder": 2766,
      "just": 2767,
      "sw": 2768,
      "left": 2769,
      "God": 2770,
      "ision": 2771,
      "ried": 2772,
      "addition": 2773,
      "kill": 2774,
      "ways": 2775,
      "members": 2776,
      "23": 2777,
      "sch": 2778,
      "ety": 2779,
      "Church": 2780,
      "product": 2781,
      "published": 2782,
      "ler": 2783,
      "species": 2784,
      "Mon": 2785,
      "various": 2786,
      "zer": 2787,
      "ories": 2788,
      "udd": 2789,
      "aut": 2790,
      "alk": 2791,
      "face": 2792,
      "ably": 2793,
      "ning": 2794,
      "ets": 2795,
      "tit": 2796,
      "sour": 2797,
      "body": 2798,
      "game": 2799,
      "Scot": 2800,
      "activ": 2801,
      "national": 2802,
      "largest": 2803,
      "said": 2804,
      "apt": 2805,
      "sl": 2806,
      "ense": 2807,
      "acy": 2808,
      "ration": 2809,
      "given": 2810,
      "ales": 2811,
      "works": 2812,
      "ff": 2813,
      "pri": 2814,
      "uses": 2815,
      "ays": 2816,
      "represent": 2817,
      "Min": 2818,
      "ument": 2819,
      "oss": 2820,
      "another": 2821,
      "ata": 2822,
      "took": 2823,
      "prof": 2824,
      "iness": 2825,
      "fac": 2826,
      "European": 2827,
      "mission": 2828,
      "Ed": 2829,
      "ground": 2830,
      "military": 2831,
      "bir": 2832,
      "atter": 2833,
      "tak": 2834,
      "According": 2835,
      "ris": 2836,
      "vi": 2837,
      "late": 2838,
      "ites": 2839,
      "ste": 2840,
      "aur": 2841,
      "cal": 2842,
      "eas": 2843,
      "ama": 2844,
      "When": 2845,
      "town": 2846,
      "chang": 2847,
      "introdu": 2848,
      "net": 2849,
      "ither": 2850,
      "istic": 2851,
      "development": 2852,
      "without": 2853,
      "politician": 2854,
      "mean": 2855,
      "developed": 2856,
      "Christian": 2857,
      "Jan": 2858,
      "every": 2859,
      "make": 2860,
      "exist": 2861,
      "camp": 2862,
      "ery": 2863,
      "named": 2864,
      "Gu": 2865,
      "Char": 2866,
      "During": 2867,
      "usually": 2868,
      "feat": 2869,
      "single": 2870,
      "Co": 2871,
      "oks": 2872,
      "rote": 2873,
      "apan": 2874,
      "space": 2875,
      "occur": 2876,
      "beg": 2877,
      "ling": 2878,
      "relig": 2879,
      "ank": 2880,
      "Dav": 2881,
      "pract": 2882,
      "pur": 2883,
      "nat": 2884,
      "states": 2885,
      "held": 2886,
      "prim": 2887,
      "uter": 2888,
      "building": 2889,
      "production": 2890,
      "become": 2891,
      "forms": 2892,
      "pain": 2893,
      "rec": 2894,
      "Ju": 2895,
      "init": 2896,
      "Japan": 2897,
      "Nov": 2898,
      "Sw": 2899,
      "Alexander": 2900,
      "ples": 2901,
      "Jew": 2902,
      "sty": 2903,
      "augh": 2904,
      "rent": 2905,
      "24": 2906,
      "cul": 2907,
      "hip": 2908,
      "wrote": 2909,
      "cop": 2910,
      "aul": 2911,
      "few": 2912,
      "included": 2913,
      "Sy": 2914,
      "rown": 2915,
      "One": 2916,
      "model": 2917,
      "vision": 2918,
      "range": 2919,
      "bar": 2920,
      "tele": 2921,
      "ctor": 2922,
      "associ": 2923,
      "Me": 2924,
      "region": 2925,
      "unch": 2926,
      "Sept": 2927,
      "itch": 2928,
      "188": 2929,
      "established": 2930,
      "mult": 2931,
      "although": 2932,
      "astr": 2933,
      "West": 2934,
      "wards": 2935,
      "case": 2936,
      "mun": 2937,
      "ivil": 2938,
      "We": 2939,
      "mid": 2940,
      "Australian": 2941,
      "186": 2942,
      "Other": 2943,
      "lab": 2944,
      "cing": 2945,
      "need": 2946,
      "treat": 2947,
      "rul": 2948,
      "written": 2949,
      "proper": 2950,
      "Mo": 2951,
      "ths": 2952,
      "five": 2953,
      "cially": 2954,
      "Mus": 2955,
      "reach": 2956,
      "event": 2957,
      "ificant": 2958,
      "built": 2959,
      "change": 2960,
      "Budd": 2961,
      "version": 2962,
      "industr": 2963,
      "season": 2964,
      "Black": 2965,
      "ats": 2966,
      "ha": 2967,
      "Geor": 2968,
      "ferences": 2969,
      "local": 2970,
      "redu": 2971,
      "sold": 2972,
      "times": 2973,
      "xim": 2974,
      "strong": 2975,
      "comple": 2976,
      "Med": 2977,
      "function": 2978,
      "grow": 2979,
      "ient": 2980,
      "political": 2981,
      "real": 2982,
      "sugg": 2983,
      "suggest": 2984,
      "aged": 2985,
      "England": 2986,
      "tra": 2987,
      "played": 2988,
      "produced": 2989,
      "ential": 2990,
      "inning": 2991,
      "William": 2992,
      "turn": 2993,
      "conne": 2994,
      "Ste": 2995,
      "however": 2996,
      "invol": 2997,
      "ru": 2998,
      "Per": 2999,
      "har": 3000,
      "empt": 3001,
      "187": 3002,
      "ops": 3003,
      "significant": 3004,
      "ana": 3005,
      "hic": 3006,
      "grap": 3007,
      "philosop": 3008,
      "word": 3009,
      "educ": 3010,
      "sent": 3011,
      "ured": 3012,
      "nov": 3013,
      "rican": 3014,
      "bum": 3015,
      "mater": 3016,
      "cil": 3017,
      "placed": 3018,
      "Oc": 3019,
      "original": 3020,
      "Li": 3021,
      "Ant": 3022,
      "September": 3023,
      "Apr": 3024,
      "third": 3025,
      "roy": 3026,
      "idence": 3027,
      "ior": 3028,
      "nal": 3029,
      "sto": 3030,
      "object": 3031,
      "command": 3032,
      "six": 3033,
      "bet": 3034,
      "having": 3035,
      "appear": 3036,
      "separ": 3037,
      "Cor": 3038,
      "take": 3039,
      "atom": 3040,
      "aren": 3041,
      "mass": 3042,
      "ston": 3043,
      "ivid": 3044,
      "El": 3045,
      "April": 3046,
      "role": 3047,
      "Bra": 3048,
      "Pres": 3049,
      "aves": 3050,
      "ogn": 3051,
      "Union": 3052,
      "Ma": 3053,
      "ances": 3054,
      "groups": 3055,
      "north": 3056,
      "does": 3057,
      "care": 3058,
      "mber": 3059,
      "ometimes": 3060,
      "Bur": 3061,
      "ption": 3062,
      "countries": 3063,
      "released": 3064,
      "Fe": 3065,
      "acc": 3066,
      "evol": 3067,
      "ploy": 3068,
      "sou": 3069,
      "proble": 3070,
      "Atl": 3071,
      "systems": 3072,
      "type": 3073,
      "ained": 3074,
      "actor": 3075,
      "History": 3076,
      "half": 3077,
      "Act": 3078,
      "house": 3079,
      "served": 3080,
      "iction": 3081,
      "wid": 3082,
      "bon": 3083,
      "vious": 3084,
      "She": 3085,
      "International": 3086,
      "ography": 3087,
      "olic": 3088,
      "independ": 3089,
      "decl": 3090,
      "40": 3091,
      "clos": 3092,
      "company": 3093,
      "onom": 3094,
      "west": 3095,
      "constru": 3096,
      "should": 3097,
      "anish": 3098,
      "AC": 3099,
      "January": 3100,
      "stant": 3101,
      "See": 3102,
      "June": 3103,
      "came": 3104,
      "eth": 3105,
      "log": 3106,
      "force": 3107,
      "idge": 3108,
      "America": 3109,
      "inste": 3110,
      "Lond": 3111,
      "Emp": 3112,
      "Hol": 3113,
      "material": 3114,
      "References": 3115,
      "reed": 3116,
      "post": 3117,
      "London": 3118,
      "possible": 3119,
      "aver": 3120,
      "covered": 3121,
      "July": 3122,
      "mic": 3123,
      "fig": 3124,
      "dev": 3125,
      "rael": 3126,
      "March": 3127,
      "research": 3128,
      "thus": 3129,
      "study": 3130,
      "others": 3131,
      "total": 3132,
      "ctions": 3133,
      "languages": 3134,
      "won": 3135,
      "tober": 3136,
      "described": 3137,
      "Ben": 3138,
      "road": 3139,
      "Dece": 3140,
      "October": 3141,
      "sum": 3142,
      "David": 3143,
      "espe": 3144,
      "cience": 3145,
      "December": 3146,
      "African": 3147,
      "pen": 3148,
      "AD": 3149,
      "wood": 3150,
      "links": 3151,
      "ald": 3152,
      "atin": 3153,
      "certain": 3154,
      "album": 3155,
      "either": 3156,
      "women": 3157,
      "father": 3158,
      "pot": 3159,
      "itive": 3160,
      "chem": 3161,
      "lam": 3162,
      "get": 3163,
      "aircraft": 3164,
      "ification": 3165,
      "theory": 3166,
      "heav": 3167,
      "dra": 3168,
      "City": 3169,
      "cir": 3170,
      "individ": 3171,
      "sal": 3172,
      "ends": 3173,
      "With": 3174,
      "sure": 3175,
      "list": 3176,
      "south": 3177,
      "Empire": 3178,
      "aly": 3179,
      "market": 3180,
      "areas": 3181,
      "free": 3182,
      "dro": 3183,
      "dest": 3184,
      "Comp": 3185,
      "text": 3186,
      "Phil": 3187,
      "church": 3188,
      "sometimes": 3189,
      "ka": 3190,
      "died": 3191,
      "earli": 3192,
      "cause": 3193,
      "method": 3194,
      "Day": 3195,
      "lear": 3196,
      "ined": 3197,
      "current": 3198,
      "hor": 3199,
      "mor": 3200,
      "Spe": 3201,
      "2007": 3202,
      "ged": 3203,
      "termin": 3204,
      "istan": 3205,
      "lines": 3206,
      "thing": 3207,
      "Russian": 3208,
      "ination": 3209,
      "Sov": 3210,
      "scri": 3211,
      "adv": 3212,
      "anti": 3213,
      "iple": 3214,
      "business": 3215,
      "Soviet": 3216,
      "far": 3217,
      "mand": 3218,
      "aries": 3219,
      "2012": 3220,
      "Des": 3221,
      "syn": 3222,
      "2013": 3223,
      "games": 3224,
      "alia": 3225,
      "meas": 3226,
      "service": 3227,
      "useum": 3228,
      "liter": 3229,
      "style": 3230,
      "Gener": 3231,
      "November": 3232,
      "official": 3233,
      "East": 3234,
      "singer": 3235,
      "nia": 3236,
      "ports": 3237,
      "AM": 3238,
      "tro": 3239,
      "Soc": 3240,
      "territ": 3241,
      "Arch": 3242,
      "ades": 3243,
      "Although": 3244,
      "moved": 3245,
      "2014": 3246,
      "black": 3247,
      "continued": 3248,
      "relation": 3249,
      "natural": 3250,
      "dle": 3251,
      "related": 3252,
      "Tur": 3253,
      "ensive": 3254,
      "especially": 3255,
      "26": 3256,
      "making": 3257,
      "Cath": 3258,
      "plan": 3259,
      "forces": 3260,
      "bs": 3261,
      "France": 3262,
      "ency": 3263,
      "2000": 3264,
      "Egy": 3265,
      "hold": 3266,
      "fall": 3267,
      "battle": 3268,
      "ming": 3269,
      "compet": 3270,
      "must": 3271,
      "further": 3272,
      "ford": 3273,
      "host": 3274,
      "neg": 3275,
      "project": 3276,
      "capital": 3277,
      "bra": 3278,
      "ille": 3279,
      "27": 3280,
      "ending": 3281,
      "transl": 3282,
      "launch": 3283,
      "Part": 3284,
      "engine": 3285,
      "Mor": 3286,
      "combin": 3287,
      "Indian": 3288,
      "created": 3289,
      "lection": 3290,
      "Egypt": 3291,
      "try": 3292,
      "Not": 3293,
      "accoun": 3294,
      "100": 3295,
      "Har": 3296,
      "compan": 3297,
      "board": 3298,
      "External": 3299,
      "cu": 3300,
      "ush": 3301,
      "uel": 3302,
      "enced": 3303,
      "parts": 3304,
      "ta": 3305,
      "2008": 3306,
      "hard": 3307,
      "ief": 3308,
      "gar": 3309,
      "dam": 3310,
      "oto": 3311,
      "sex": 3312,
      "ots": 3313,
      "While": 3314,
      "ancient": 3315,
      "least": 3316,
      "2010": 3317,
      "minist": 3318,
      "itect": 3319,
      "2006": 3320,
      "successful": 3321,
      "thes": 3322,
      "2009": 3323,
      "jour": 3324,
      "League": 3325,
      "member": 3326,
      "Port": 3327,
      "ink": 3328,
      "2011": 3329,
      "ships": 3330,
      "hib": 3331,
      "tre": 3332,
      "manag": 3333,
      "ounced": 3334,
      "social": 3335,
      "ains": 3336,
      "mal": 3337,
      "ties": 3338,
      "how": 3339,
      "received": 3340,
      "previous": 3341,
      "generally": 3342,
      "Ang": 3343,
      "2005": 3344,
      "Earth": 3345,
      "good": 3346,
      "lor": 3347,
      "rather": 3348,
      "attr": 3349,
      "beh": 3350,
      "Bi": 3351,
      "era": 3352,
      "Atlant": 3353,
      "final": 3354,
      "wide": 3355,
      "round": 3356,
      "Germany": 3357,
      "ino": 3358,
      "special": 3359,
      "III": 3360,
      "data": 3361,
      "sem": 3362,
      "tom": 3363,
      "avail": 3364,
      "quest": 3365,
      "To": 3366,
      "spir": 3367,
      "food": 3368,
      "oung": 3369,
      "ibr": 3370,
      "domin": 3371,
      "cus": 3372,
      "children": 3373,
      "Great": 3374,
      "vict": 3375,
      "footballer": 3376,
      "Em": 3377,
      "asing": 3378,
      "priv": 3379,
      "consist": 3380,
      "28": 3381,
      "ape": 3382,
      "fire": 3383,
      "attempt": 3384,
      "ern": 3385,
      "lower": 3386,
      "ps": 3387,
      "ark": 3388,
      "temper": 3389,
      "trav": 3390,
      "interest": 3391,
      "vert": 3392,
      "days": 3393,
      "Latin": 3394,
      "vo": 3395,
      "acid": 3396,
      "seen": 3397,
      "ements": 3398,
      "aud": 3399,
      "concer": 3400,
      "next": 3401,
      "schol": 3402,
      "isto": 3403,
      "Bul": 3404,
      "2015": 3405,
      "ront": 3406,
      "Roy": 3407,
      "taken": 3408,
      "Italian": 3409,
      "recogn": 3410,
      "ney": 3411,
      "suf": 3412,
      "ators": 3413,
      "aff": 3414,
      "ply": 3415,
      "ago": 3416,
      "20th": 3417,
      "scient": 3418,
      "rate": 3419,
      "himself": 3420,
      "ara": 3421,
      "hab": 3422,
      "opt": 3423,
      "hem": 3424,
      "ountain": 3425,
      "Kingdom": 3426,
      "Pal": 3427,
      "Su": 3428,
      "party": 3429,
      "whe": 3430,
      "pha": 3431,
      "ned": 3432,
      "cast": 3433,
      "bish": 3434,
      "ising": 3435,
      "Te": 3436,
      "fail": 3437,
      "ope": 3438,
      "2017": 3439,
      "win": 3440,
      "Art": 3441,
      "Canadian": 3442,
      "zil": 3443,
      "utch": 3444,
      "never": 3445,
      "broad": 3446,
      "Bor": 3447,
      "Res": 3448,
      "Many": 3449,
      "experi": 3450,
      "feder": 3451,
      "army": 3452,
      "computer": 3453,
      "Army": 3454,
      "Most": 3455,
      "active": 3456,
      "Western": 3457,
      "rac": 3458,
      "rew": 3459,
      "ours": 3460,
      "regard": 3461,
      "inal": 3462,
      "2001": 3463,
      "akes": 3464,
      "Book": 3465,
      "General": 3466,
      "Paul": 3467,
      "accept": 3468,
      "rica": 3469,
      "books": 3470,
      "ring": 3471,
      "iment": 3472,
      "hydro": 3473,
      "international": 3474,
      "founded": 3475,
      "bes": 3476,
      "lik": 3477,
      "Brazil": 3478,
      "fort": 3479,
      "Sea": 3480,
      "words": 3481,
      "god": 3482,
      "ls": 3483,
      "academ": 3484,
      "mod": 3485,
      "toge": 3486,
      "imate": 3487,
      "standard": 3488,
      "Battle": 3489,
      "If": 3490,
      "express": 3491,
      "Lu": 3492,
      "offer": 3493,
      "AT": 3494,
      "Africa": 3495,
      "emp": 3496,
      "frequ": 3497,
      "story": 3498,
      "prop": 3499,
      "together": 3500,
      "2018": 3501,
      "subject": 3502,
      "President": 3503,
      "fem": 3504,
      "aper": 3505,
      "star": 3506,
      "indic": 3507,
      "court": 3508,
      "Scott": 3509,
      "ify": 3510,
      "ique": 3511,
      "exper": 3512,
      "Australia": 3513,
      "almost": 3514,
      "employ": 3515,
      "respon": 3516,
      "ceed": 3517,
      "Israel": 3518,
      "comes": 3519,
      "outs": 3520,
      "followed": 3521,
      "ek": 3522,
      "ering": 3523,
      "above": 3524,
      "Mc": 3525,
      "Bal": 3526,
      "best": 3527,
      "Catholic": 3528,
      "Sm": 3529,
      "ole": 3530,
      "icy": 3531,
      "iety": 3532,
      "dou": 3533,
      "profess": 3534,
      "pite": 3535,
      "tour": 3536,
      "white": 3537,
      "India": 3538,
      "fri": 3539,
      "oid": 3540,
      "went": 3541,
      "ases": 3542,
      "2020": 3543,
      "means": 3544,
      "iles": 3545,
      "2016": 3546,
      "60": 3547,
      "reported": 3548,
      "available": 3549,
      "higher": 3550,
      "energy": 3551,
      "No": 3552,
      "saw": 3553,
      "stre": 3554,
      "Albert": 3555,
      "ington": 3556,
      "architect": 3557,
      "Apple": 3558,
      "meaning": 3559,
      "Athen": 3560,
      "Mac": 3561,
      "ought": 3562,
      "iers": 3563,
      "Dutch": 3564,
      "upon": 3565,
      "Hen": 3566,
      "according": 3567,
      "State": 3568,
      "numbers": 3569,
      "throughout": 3570,
      "constit": 3571,
      "crew": 3572,
      "List": 3573,
      "mathem": 3574,
      "medi": 3575,
      "complex": 3576,
      "nit": 3577,
      "designed": 3578,
      "introduced": 3579,
      "ges": 3580,
      "across": 3581,
      "Jer": 3582,
      "arily": 3583,
      "Febr": 3584,
      "prob": 3585,
      "February": 3586,
      "culture": 3587,
      "Spanish": 3588,
      "economic": 3589,
      "jan": 3590,
      "rain": 3591,
      "evidence": 3592,
      "television": 3593,
      "House": 3594,
      "mother": 3595,
      "San": 3596,
      "Sou": 3597,
      "terms": 3598,
      "astern": 3599,
      "sof": 3600,
      "actions": 3601,
      "colon": 3602,
      "tail": 3603,
      "president": 3604,
      "viron": 3605,
      "recent": 3606,
      "ishing": 3607,
      "full": 3608,
      "80": 3609,
      "central": 3610,
      "Since": 3611,
      "sel": 3612,
      "19th": 3613,
      "aign": 3614,
      "Angl": 3615,
      "capt": 3616,
      "players": 3617,
      "cup": 3618,
      "entire": 3619,
      "2004": 3620,
      "creen": 3621,
      "thought": 3622,
      "ken": 3623,
      "ints": 3624,
      "invest": 3625,
      "ults": 3626,
      "coming": 3627,
      "fav": 3628,
      "aint": 3629,
      "hon": 3630,
      "poet": 3631,
      "inte": 3632,
      "aining": 3633,
      "grad": 3634,
      "na": 3635,
      "vot": 3636,
      "Afgh": 3637,
      "construction": 3638,
      "elements": 3639,
      "located": 3640,
      "ateg": 3641,
      "ume": 3642,
      "cost": 3643,
      "efore": 3644,
      "religious": 3645,
      "size": 3646,
      "uments": 3647,
      "Cam": 3648,
      "George": 3649,
      "Fir": 3650,
      "Mid": 3651,
      "abs": 3652,
      "cret": 3653,
      "From": 3654,
      "civil": 3655,
      "Thom": 3656,
      "quar": 3657,
      "imp": 3658,
      "except": 3659,
      "doc": 3660,
      "Ru": 3661,
      "Sam": 3662,
      "contribut": 3663,
      "club": 3664,
      "James": 3665,
      "sen": 3666,
      "Japanese": 3667,
      "condu": 3668,
      "instead": 3669,
      "berg": 3670,
      "lost": 3671,
      "Park": 3672,
      "evolution": 3673,
      "Rich": 3674,
      "average": 3675,
      "value": 3676,
      "My": 3677,
      "ula": 3678,
      "2019": 3679,
      "La": 3680,
      "feature": 3681,
      "Lou": 3682,
      "ben": 3683,
      "mach": 3684,
      "altern": 3685,
      "numer": 3686,
      "surface": 3687,
      "hom": 3688,
      "respect": 3689,
      "whose": 3690,
      "Bas": 3691,
      "Press": 3692,
      "associated": 3693,
      "structure": 3694,
      "rich": 3695,
      "1999": 3696,
      "29": 3697,
      "access": 3698,
      "Mod": 3699,
      "find": 3700,
      "ideo": 3701,
      "away": 3702,
      "ram": 3703,
      "High": 3704,
      "hit": 3705,
      "itself": 3706,
      "Pers": 3707,
      "know": 3708,
      "lay": 3709,
      "information": 3710,
      "atively": 3711,
      "Armen": 3712,
      "big": 3713,
      "ioned": 3714,
      "teach": 3715,
      "ounds": 3716,
      "tru": 3717,
      "alg": 3718,
      "anth": 3719,
      "2003": 3720,
      "iter": 3721,
      "Islam": 3722,
      "Pri": 3723,
      "Qu": 3724,
      "gun": 3725,
      "mig": 3726,
      "Govern": 3727,
      "Pat": 3728,
      "River": 3729,
      "Reg": 3730,
      "sat": 3731,
      "Dem": 3732,
      "particularly": 3733,
      "academic": 3734,
      "Po": 3735,
      "ria": 3736,
      "movement": 3737,
      "surv": 3738,
      "bran": 3739,
      "ount": 3740,
      "pread": 3741,
      "clear": 3742,
      "185": 3743,
      "oil": 3744,
      "acqu": 3745,
      "director": 3746,
      "once": 3747,
      "Royal": 3748,
      "likely": 3749,
      "allowed": 3750,
      "commer": 3751,
      "utes": 3752,
      "rock": 3753,
      "ored": 3754,
      "Trans": 3755,
      "ribut": 3756,
      "east": 3757,
      "nic": 3758,
      "Mich": 3759,
      "ean": 3760,
      "Afghan": 3761,
      "disc": 3762,
      "ixed": 3763,
      "screen": 3764,
      "specific": 3765,
      "nuc": 3766,
      "ull": 3767,
      "exe": 3768,
      "Charles": 3769,
      "tained": 3770,
      "peror": 3771,
      "referred": 3772,
      "approxim": 3773,
      "gas": 3774,
      "island": 3775,
      "events": 3776,
      "burg": 3777,
      "han": 3778,
      "tware": 3779,
      "rail": 3780,
      "mark": 3781,
      "inct": 3782,
      "rought": 3783,
      "First": 3784,
      "lack": 3785,
      "2021": 3786,
      "Frank": 3787,
      "campaign": 3788,
      "baseball": 3789,
      "Dis": 3790,
      "rem": 3791,
      "estim": 3792,
      "novel": 3793,
      "mos": 3794,
      "increased": 3795,
      "ns": 3796,
      "Alf": 3797,
      "ysis": 3798,
      "lege": 3799,
      "producer": 3800,
      "sit": 3801,
      "forman": 3802,
      "actress": 3803,
      "names": 3804,
      "influence": 3805,
      "bot": 3806,
      "cit": 3807,
      "gave": 3808,
      "traditional": 3809,
      "help": 3810,
      "announced": 3811,
      "sea": 3812,
      "percent": 3813,
      "regular": 3814,
      "remained": 3815,
      "Nav": 3816,
      "foc": 3817,
      "rights": 3818,
      "seven": 3819,
      "pon": 3820,
      "source": 3821,
      "bal": 3822,
      "nel": 3823,
      "stri": 3824,
      "consider": 3825,
      "uries": 3826,
      "viol": 3827,
      "ving": 3828,
      "election": 3829,
      "films": 3830,
      "site": 3831,
      "2002": 3832,
      "uck": 3833,
      "ficult": 3834,
      "tax": 3835,
      "includes": 3836,
      "Further": 3837,
      "agon": 3838,
      "umb": 3839,
      "35": 3840,
      "aps": 3841,
      "Ot": 3842,
      "journal": 3843,
      "Cong": 3844,
      "School": 3845,
      "flow": 3846,
      "features": 3847,
      "mir": 3848,
      "writing": 3849,
      "Bu": 3850,
      "community": 3851,
      "jud": 3852,
      "critic": 3853,
      "instr": 3854,
      "Mart": 3855,
      "Red": 3856,
      "achie": 3857,
      "atch": 3858,
      "difficult": 3859,
      "vironment": 3860,
      "resist": 3861,
      "ention": 3862,
      "plied": 3863,
      "anted": 3864,
      "title": 3865,
      "osp": 3866,
      "flight": 3867,
      "Jewish": 3868,
      "front": 3869,
      "atory": 3870,
      "killed": 3871,
      "young": 3872,
      "Britain": 3873,
      "leading": 3874,
      "graph": 3875,
      "uation": 3876,
      "ibility": 3877,
      "omb": 3878,
      "close": 3879,
      "Asia": 3880,
      "Museum": 3881,
      "gress": 3882,
      "Robert": 3883,
      "industry": 3884,
      "zo": 3885,
      "services": 3886,
      "ert": 3887,
      "ulf": 3888,
      "Arabic": 3889,
      "1998": 3890,
      "believed": 3891,
      "acts": 3892,
      "184": 3893,
      "sych": 3894,
      "types": 3895,
      "ael": 3896,
      "ufact": 3897,
      "Im": 3898,
      "daugh": 3899,
      "birth": 3900,
      "inese": 3901,
      "might": 3902,
      "coast": 3903,
      "effects": 3904,
      "Bah": 3905,
      "western": 3906,
      "northern": 3907,
      "sources": 3908,
      "Fol": 3909,
      "Vol": 3910,
      "leng": 3911,
      "trade": 3912,
      "symb": 3913,
      "Ir": 3914,
      "spect": 3915,
      "plement": 3916,
      "Ze": 3917,
      "phen": 3918,
      "oney": 3919,
      "larger": 3920,
      "OS": 3921,
      "pp": 3922,
      "auto": 3923,
      "appeared": 3924,
      "eventually": 3925,
      "Gro": 3926,
      "Tw": 3927,
      "gian": 3928,
      "commonly": 3929,
      "70": 3930,
      "Berlin": 3931,
      "typically": 3932,
      "draw": 3933,
      "ready": 3934,
      "cel": 3935,
      "pair": 3936,
      "ogy": 3937,
      "31": 3938,
      "Mal": 3939,
      "1996": 3940,
      "cases": 3941,
      "approach": 3942,
      "fle": 3943,
      "Canada": 3944,
      "Gl": 3945,
      "Old": 3946,
      "yer": 3947,
      "oph": 3948,
      "standing": 3949,
      "Hung": 3950,
      "fight": 3951,
      "ulated": 3952,
      "started": 3953,
      "Dr": 3954,
      "cities": 3955,
      "past": 3956,
      "ilities": 3957,
      "administ": 3958,
      "cords": 3959,
      "Dan": 3960,
      "ym": 3961,
      "rot": 3962,
      "performan": 3963,
      "Portug": 3964,
      "za": 3965,
      "err": 3966,
      "meet": 3967,
      "squ": 3968,
      "ires": 3969,
      "spo": 3970,
      "respons": 3971,
      "rule": 3972,
      "Cour": 3973,
      "princ": 3974,
      "aj": 3975,
      "ios": 3976,
      "produce": 3977,
      "interpre": 3978,
      "pred": 3979,
      "returned": 3980,
      "Party": 3981,
      "provide": 3982,
      "code": 3983,
      "targ": 3984,
      "health": 3985,
      "ulture": 3986,
      "growth": 3987,
      "necess": 3988,
      "mostly": 3989,
      "claimed": 3990,
      "nature": 3991,
      "iqu": 3992,
      "istics": 3993,
      "Instit": 3994,
      "leaders": 3995,
      "little": 3996,
      "Gre": 3997,
      "say": 3998,
      "ico": 3999,
      "dig": 4000,
      "atives": 4001,
      "1997": 4002,
      "appoint": 4003,
      "elling": 4004,
      "provided": 4005,
      "required": 4006,
      "dial": 4007,
      "live": 4008,
      "corpor": 4009,
      "counter": 4010,
      "recorded": 4011,
      "Jack": 4012,
      "Sim": 4013,
      "brought": 4014,
      "Alban": 4015,
      "transport": 4016,
      "super": 4017,
      "liament": 4018,
      "added": 4019,
      "batt": 4020,
      "applic": 4021,
      "highest": 4022,
      "lected": 4023,
      "ems": 4024,
      "occup": 4025,
      "artic": 4026,
      "manufact": 4027,
      "ibrary": 4028,
      "Bos": 4029,
      "don": 4030,
      "ey": 4031,
      "distribut": 4032,
      "omin": 4033,
      "unar": 4034,
      "soon": 4035,
      "increase": 4036,
      "1992": 4037,
      "widely": 4038,
      "uture": 4039,
      "increasing": 4040,
      "science": 4041,
      "points": 4042,
      "break": 4043,
      "Eastern": 4044,
      "Ash": 4045,
      "hi": 4046,
      "But": 4047,
      "iding": 4048,
      "bey": 4049,
      "bridge": 4050,
      "subsequ": 4051,
      "emer": 4052,
      "living": 4053,
      "Chinese": 4054,
      "individual": 4055,
      "prom": 4056,
      "Academ": 4057,
      "changes": 4058,
      "Henry": 4059,
      "Bat": 4060,
      "China": 4061,
      "UK": 4062,
      "box": 4063,
      "1994": 4064,
      "caused": 4065,
      "ened": 4066,
      "education": 4067,
      "sound": 4068,
      "affect": 4069,
      "southern": 4070,
      "via": 4071,
      "concept": 4072,
      "mechan": 4073,
      "mas": 4074,
      "ampion": 4075,
      "defined": 4076,
      "utions": 4077,
      "observ": 4078,
      "vehic": 4079,
      "communic": 4080,
      "conditions": 4081,
      "Histor": 4082,
      "songwriter": 4083,
      "discovered": 4084,
      "outside": 4085,
      "bell": 4086,
      "issue": 4087,
      "companies": 4088,
      "fish": 4089,
      "male": 4090,
      "Louis": 4091,
      "Of": 4092,
      "ola": 4093,
      "cru": 4094,
      "months": 4095,
      "speed": 4096,
      "remains": 4097,
      "Sal": 4098,
      "ously": 4099,
      "print": 4100,
      "speak": 4101,
      "fa": 4102,
      "Cap": 4103,
      "Minister": 4104,
      "Republic": 4105,
      "cycl": 4106,
      "instit": 4107,
      "75": 4108,
      "historical": 4109,
      "products": 4110,
      "Lin": 4111,
      "itor": 4112,
      "ills": 4113,
      "writers": 4114,
      "iverse": 4115,
      "gin": 4116,
      "video": 4117,
      "working": 4118,
      "Commun": 4119,
      "Early": 4120,
      "Russia": 4121,
      "enc": 4122,
      "plant": 4123,
      "AF": 4124,
      "1990": 4125,
      "blood": 4126,
      "icted": 4127,
      "2022": 4128,
      "establish": 4129,
      "Peter": 4130,
      "Swed": 4131,
      "AP": 4132,
      "1995": 4133,
      "sett": 4134,
      "Richard": 4135,
      "Bay": 4136,
      "radio": 4137,
      "Du": 4138,
      "cular": 4139,
      "complete": 4140,
      "lif": 4141,
      "Its": 4142,
      "AI": 4143,
      "pose": 4144,
      "Otto": 4145,
      "Azer": 4146,
      "lic": 4147,
      "promot": 4148,
      "software": 4149,
      "script": 4150,
      "usion": 4151,
      "primary": 4152,
      "billion": 4153,
      "sil": 4154,
      "concent": 4155,
      "destroy": 4156,
      "Bro": 4157,
      "uals": 4158,
      "earlier": 4159,
      "private": 4160,
      "eight": 4161,
      "fund": 4162,
      "bishop": 4163,
      "Fil": 4164,
      "assist": 4165,
      "iting": 4166,
      "ference": 4167,
      "reading": 4168,
      "longer": 4169,
      "Council": 4170,
      "Lab": 4171,
      "always": 4172,
      "loss": 4173,
      "itar": 4174,
      "center": 4175,
      "1991": 4176,
      "ograph": 4177,
      "limited": 4178,
      "Bell": 4179,
      "Val": 4180,
      "pow": 4181,
      "istry": 4182,
      "whether": 4183,
      "legal": 4184,
      "Vir": 4185,
      "replaced": 4186,
      "element": 4187,
      "bai": 4188,
      "results": 4189,
      "brew": 4190,
      "majority": 4191,
      "personal": 4192,
      "arent": 4193,
      "selves": 4194,
      "nation": 4195,
      "wall": 4196,
      "reason": 4197,
      "towards": 4198,
      "prevent": 4199,
      "Italy": 4200,
      "wind": 4201,
      "territory": 4202,
      "ini": 4203,
      "ipp": 4204,
      "bound": 4205,
      "cele": 4206,
      "determin": 4207,
      "36": 4208,
      "analysis": 4209,
      "rict": 4210,
      "themselves": 4211,
      "Azerbai": 4212,
      "Azerbaijan": 4213,
      "ued": 4214,
      "32": 4215,
      "rat": 4216,
      "stated": 4217,
      "variety": 4218,
      "electron": 4219,
      "length": 4220,
      "rup": 4221,
      "ordin": 4222,
      "IC": 4223,
      "too": 4224,
      "office": 4225,
      "leader": 4226,
      "chemical": 4227,
      "night": 4228,
      "concl": 4229,
      "step": 4230,
      "particip": 4231,
      "quant": 4232,
      "Thomas": 4233,
      "Cal": 4234,
      "Big": 4235,
      "bat": 4236,
      "Bab": 4237,
      "symbol": 4238,
      "39": 4239,
      "Miss": 4240,
      "cross": 4241,
      "mad": 4242,
      "troops": 4243,
      "foreign": 4244,
      "porary": 4245,
      "TV": 4246,
      "People": 4247,
      "Str": 4248,
      "today": 4249,
      "Another": 4250,
      "cohol": 4251,
      "award": 4252,
      "pie": 4253,
      "path": 4254,
      "wife": 4255,
      "photo": 4256,
      "Award": 4257,
      "ded": 4258,
      "uk": 4259,
      "acted": 4260,
      "etic": 4261,
      "beginning": 4262,
      "iation": 4263,
      "commercial": 4264,
      "stop": 4265,
      "problems": 4266,
      "Court": 4267,
      "Publ": 4268,
      "ises": 4269,
      "adop": 4270,
      "whom": 4271,
      "career": 4272,
      "Middle": 4273,
      "alge": 4274,
      "Central": 4275,
      "integr": 4276,
      "NA": 4277,
      "Inter": 4278,
      "teen": 4279,
      "labor": 4280,
      "Mag": 4281,
      "Mass": 4282,
      "restr": 4283,
      "station": 4284,
      "Associ": 4285,
      "below": 4286,
      "Ter": 4287,
      "animals": 4288,
      "Paris": 4289,
      "Aber": 4290,
      "icip": 4291,
      "regions": 4292,
      "conf": 4293,
      "1989": 4294,
      "ll": 4295,
      "river": 4296,
      "forced": 4297,
      "agre": 4298,
      "coach": 4299,
      "brother": 4300,
      "astronom": 4301,
      "stor": 4302,
      "obal": 4303,
      "1980": 4304,
      "supported": 4305,
      "odes": 4306,
      "married": 4307,
      "treatment": 4308,
      "Smith": 4309,
      "aring": 4310,
      "independent": 4311,
      "antib": 4312,
      "lav": 4313,
      "latter": 4314,
      "fell": 4315,
      "originally": 4316,
      "daughter": 4317,
      "38": 4318,
      "umin": 4319,
      "letter": 4320,
      "alifor": 4321,
      "Wall": 4322,
      "ona": 4323,
      "proved": 4324,
      "acters": 4325,
      "1993": 4326,
      "elected": 4327,
      "stone": 4328,
      "Muslim": 4329,
      "thesis": 4330,
      "reached": 4331,
      "nav": 4332,
      "league": 4333,
      "ares": 4334,
      "1986": 4335,
      "physical": 4336,
      "celebr": 4337,
      "bour": 4338,
      "prison": 4339,
      "Def": 4340,
      "future": 4341,
      "ows": 4342,
      "performed": 4343,
      "problem": 4344,
      "ads": 4345,
      "Americans": 4346,
      "Wil": 4347,
      "reme": 4348,
      "move": 4349,
      "Mic": 4350,
      "give": 4351,
      "directly": 4352,
      "habit": 4353,
      "vill": 4354,
      "schools": 4355,
      "deal": 4356,
      "Bak": 4357,
      "Dev": 4358,
      "Rad": 4359,
      "pay": 4360,
      "pitch": 4361,
      "temperature": 4362,
      "het": 4363,
      "mole": 4364,
      "IV": 4365,
      "ech": 4366,
      "stage": 4367,
      "probably": 4368,
      "Don": 4369,
      "pan": 4370,
      "spr": 4371,
      "commit": 4372,
      "Society": 4373,
      "cou": 4374,
      "you": 4375,
      "smaller": 4376,
      "units": 4377,
      "carbon": 4378,
      "pected": 4379,
      "Congress": 4380,
      "dy": 4381,
      "proposed": 4382,
      "1969": 4383,
      "90": 4384,
      "centuries": 4385,
      "1988": 4386,
      "inner": 4387,
      "account": 4388,
      "execut": 4389,
      "bad": 4390,
      "deb": 4391,
      "economy": 4392,
      "micro": 4393,
      "34": 4394,
      "look": 4395,
      "Scottish": 4396,
      "Jud": 4397,
      "More": 4398,
      "Hall": 4399,
      "gold": 4400,
      "ension": 4401,
      "Jews": 4402,
      "finan": 4403,
      "onso": 4404,
      "ingu": 4405,
      "greater": 4406,
      "cells": 4407,
      "37": 4408,
      "Califor": 4409,
      "BM": 4410,
      "pet": 4411,
      "sac": 4412,
      "guitar": 4413,
      "involved": 4414,
      "Liber": 4415,
      "Del": 4416,
      "mountain": 4417,
      "Michael": 4418,
      "environment": 4419,
      "practice": 4420,
      "manager": 4421,
      "yr": 4422,
      "ands": 4423,
      "better": 4424,
      "Buddha": 4425,
      "track": 4426,
      "color": 4427,
      "Aust": 4428,
      "Mer": 4429,
      "ias": 4430,
      "operation": 4431,
      "require": 4432,
      "pts": 4433,
      "500": 4434,
      "1972": 4435,
      "medic": 4436,
      "ledge": 4437,
      "approximately": 4438,
      "estimated": 4439,
      "characters": 4440,
      "California": 4441,
      "imal": 4442,
      "suit": 4443,
      "180": 4444,
      "keep": 4445,
      "1985": 4446,
      "Blue": 4447,
      "travel": 4448,
      "ustr": 4449,
      "separate": 4450,
      "Fore": 4451,
      "Sol": 4452,
      "burn": 4453,
      "otic": 4454,
      "Stud": 4455,
      "1981": 4456,
      "metal": 4457,
      "technology": 4458,
      "changed": 4459,
      "enes": 4460,
      "nearly": 4461,
      "cultural": 4462,
      "Rom": 4463,
      "defe": 4464,
      "distinct": 4465,
      "zz": 4466,
      "ources": 4467,
      "Ann": 4468,
      "divided": 4469,
      "verse": 4470,
      "fully": 4471,
      "address": 4472,
      "Bol": 4473,
      "Island": 4474,
      "Institute": 4475,
      "Elect": 4476,
      "Jose": 4477,
      "Wash": 4478,
      "ping": 4479,
      "Ach": 4480,
      "Sup": 4481,
      "revol": 4482,
      "isation": 4483,
      "Second": 4484,
      "friend": 4485,
      "algebra": 4486,
      "nd": 4487,
      "studies": 4488,
      "famil": 4489,
      "Academy": 4490,
      "Aj": 4491,
      "anned": 4492,
      "dialect": 4493,
      "Sun": 4494,
      "cat": 4495,
      "cis": 4496,
      "lived": 4497,
      "amed": 4498,
      "relatively": 4499,
      "1984": 4500,
      "operations": 4501,
      "composer": 4502,
      "activity": 4503,
      "media": 4504,
      "Base": 4505,
      "card": 4506,
      "threat": 4507,
      "enter": 4508,
      "White": 4509,
      "properties": 4510,
      "Mex": 4511,
      "Que": 4512,
      "ider": 4513,
      "exts": 4514,
      "isms": 4515,
      "highly": 4516,
      "dim": 4517,
      "shel": 4518,
      "aces": 4519,
      "Feder": 4520,
      "ivity": 4521,
      "riage": 4522,
      "Cr": 4523,
      "fan": 4524,
      "maz": 4525,
      "adopted": 4526,
      "already": 4527,
      "appears": 4528,
      "date": 4529,
      "saf": 4530,
      "alcohol": 4531,
      "hous": 4532,
      "agric": 4533,
      "derived": 4534,
      "Class": 4535,
      "alpha": 4536,
      "target": 4537,
      "Bon": 4538,
      "lying": 4539,
      "cred": 4540,
      "curity": 4541,
      "unit": 4542,
      "mainly": 4543,
      "issues": 4544,
      "ux": 4545,
      "review": 4546,
      "drug": 4547,
      "Moon": 4548,
      "Ca": 4549,
      "1983": 4550,
      "Mos": 4551,
      "multiple": 4552,
      "ental": 4553,
      "College": 4554,
      "document": 4555,
      "numerous": 4556,
      "race": 4557,
      "orith": 4558,
      "plants": 4559,
      "mob": 4560,
      "1975": 4561,
      "largely": 4562,
      "Washington": 4563,
      "76": 4564,
      "izing": 4565,
      "Mu": 4566,
      "1970": 4567,
      "Di": 4568,
      "tree": 4569,
      "therefore": 4570,
      "Irish": 4571,
      "performance": 4572,
      "Bill": 4573,
      "hood": 4574,
      "neigh": 4575,
      "1976": 4576,
      "kind": 4577,
      "section": 4578,
      "1987": 4579,
      "famous": 4580,
      "mathemat": 4581,
      "rare": 4582,
      "rise": 4583,
      "45": 4584,
      "alle": 4585,
      "Southern": 4586,
      "sam": 4587,
      "create": 4588,
      "release": 4589,
      "Fl": 4590,
      "asons": 4591,
      "sets": 4592,
      "contains": 4593,
      "Wal": 4594,
      "minor": 4595,
      "complet": 4596,
      "1979": 4597,
      "demon": 4598,
      "journalist": 4599,
      "Law": 4600,
      "implement": 4601,
      "Fin": 4602,
      "SM": 4603,
      "sec": 4604,
      "65": 4605,
      "compared": 4606,
      "System": 4607,
      "measure": 4608,
      "mis": 4609,
      "1974": 4610,
      "respond": 4611,
      "convent": 4612,
      "ocr": 4613,
      "idea": 4614,
      "policy": 4615,
      "prior": 4616,
      "Turk": 4617,
      "thr": 4618,
      "plays": 4619,
      "opened": 4620,
      "Civil": 4621,
      "Mah": 4622,
      "cos": 4623,
      "Kar": 4624,
      "wise": 4625,
      "icated": 4626,
      "1920": 4627,
      "estival": 4628,
      "1982": 4629,
      "178": 4630,
      "forming": 4631,
      "electr": 4632,
      "course": 4633,
      "ulpt": 4634,
      "female": 4635,
      "Amaz": 4636,
      "Grand": 4637,
      "initial": 4638,
      "Rome": 4639,
      "ody": 4640,
      "collection": 4641,
      "chief": 4642,
      "ficient": 4643,
      "ients": 4644,
      "alleg": 4645,
      "decre": 4646,
      "detail": 4647,
      "emit": 4648,
      "network": 4649,
      "professional": 4650,
      "CO": 4651,
      "DP": 4652,
      "vin": 4653,
      "corre": 4654,
      "Saint": 4655,
      "ode": 4656,
      "compon": 4657,
      "Mil": 4658,
      "immedi": 4659,
      "elled": 4660,
      "collect": 4661,
      "additional": 4662,
      "suggested": 4663,
      "bacter": 4664,
      "mom": 4665,
      "1977": 4666,
      "Pre": 4667,
      "true": 4668,
      "partment": 4669,
      "settle": 4670,
      "carry": 4671,
      "Atari": 4672,
      "places": 4673,
      "AN": 4674,
      "AR": 4675,
      "ya": 4676,
      "thous": 4677,
      "orbit": 4678,
      "Ottoman": 4679,
      "ti": 4680,
      "scholars": 4681,
      "33": 4682,
      "ease": 4683,
      "gent": 4684,
      "iance": 4685,
      "pal": 4686,
      "igned": 4687,
      "tes": 4688,
      "distance": 4689,
      "tas": 4690,
      "playing": 4691,
      "expand": 4692,
      "potential": 4693,
      "ni": 4694,
      "isl": 4695,
      "Force": 4696,
      "oxy": 4697,
      "influenced": 4698,
      "response": 4699,
      "64": 4700,
      "hers": 4701,
      "lunar": 4702,
      "anda": 4703,
      "amount": 4704,
      "heavy": 4705,
      "Tor": 4706,
      "Spain": 4707,
      "Martin": 4708,
      "enough": 4709,
      "idents": 4710,
      "whole": 4711,
      "Met": 4712,
      "bul": 4713,
      "table": 4714,
      "minister": 4715,
      "ields": 4716,
      "passed": 4717,
      "Two": 4718,
      "makes": 4719,
      "onic": 4720,
      "students": 4721,
      "orial": 4722,
      "aled": 4723,
      "isions": 4724,
      "astic": 4725,
      "1968": 4726,
      "transfer": 4727,
      "300": 4728,
      "Bron": 4729,
      "Brown": 4730,
      "hu": 4731,
      "hus": 4732,
      "taking": 4733,
      "worked": 4734,
      "stars": 4735,
      "spirit": 4736,
      "Mary": 4737,
      "rd": 4738,
      "ultural": 4739,
      "contem": 4740,
      "consum": 4741,
      "basis": 4742,
      "Atlantic": 4743,
      "Best": 4744,
      "room": 4745,
      "igen": 4746,
      "shows": 4747,
      "risk": 4748,
      "discuss": 4749,
      "Div": 4750,
      "ift": 4751,
      "eastern": 4752,
      "inj": 4753,
      "ables": 4754,
      "poor": 4755,
      "epis": 4756,
      "alternative": 4757,
      "Bot": 4758,
      "victory": 4759,
      "pir": 4760,
      "excl": 4761,
      "equip": 4762,
      "lowing": 4763,
      "Modern": 4764,
      "1945": 4765,
      "Prince": 4766,
      "poly": 4767,
      "weap": 4768,
      "completed": 4769,
      "Ham": 4770,
      "spread": 4771,
      "onaut": 4772,
      "iah": 4773,
      "preser": 4774,
      "pressure": 4775,
      "historian": 4776,
      "Adr": 4777,
      "Er": 4778,
      "sus": 4779,
      "Ark": 4780,
      "letters": 4781,
      "sport": 4782,
      "1971": 4783,
      "border": 4784,
      "experiment": 4785,
      "promin": 4786,
      "Mont": 4787,
      "ayed": 4788,
      "compar": 4789,
      "resulting": 4790,
      "atures": 4791,
      "phere": 4792,
      "centre": 4793,
      "weak": 4794,
      "orders": 4795,
      "functions": 4796,
      "match": 4797,
      "expans": 4798,
      "mitted": 4799,
      "literature": 4800,
      "Mem": 4801,
      "rian": 4802,
      "conver": 4803,
      "ultan": 4804,
      "rier": 4805,
      "shown": 4806,
      "ibly": 4807,
      "cannot": 4808,
      "Leg": 4809,
      "voc": 4810,
      "Mur": 4811,
      "Vict": 4812,
      "drop": 4813,
      "1978": 4814,
      "sculpt": 4815,
      "philosophy": 4816,
      "relationship": 4817,
      "sens": 4818,
      "univers": 4819,
      "1973": 4820,
      "Revolution": 4821,
      "pil": 4822,
      "psych": 4823,
      "weight": 4824,
      "division": 4825,
      "joined": 4826,
      "Association": 4827,
      "PC": 4828,
      "Rel": 4829,
      "confl": 4830,
      "trib": 4831,
      "quick": 4832,
      "noted": 4833,
      "behind": 4834,
      "suffer": 4835,
      "earch": 4836,
      "covery": 4837,
      "sky": 4838,
      "algorith": 4839,
      "1st": 4840,
      "IS": 4841,
      "ners": 4842,
      "ena": 4843,
      "99": 4844,
      "olf": 4845,
      "Johnson": 4846,
      "Test": 4847,
      "blue": 4848,
      "Byz": 4849,
      "fel": 4850,
      "carried": 4851,
      "primarily": 4852,
      "launched": 4853,
      "benef": 4854,
      "dete": 4855,
      "Cont": 4856,
      "Center": 4857,
      "behav": 4858,
      "appointed": 4859,
      "climate": 4860,
      "identified": 4861,
      "iques": 4862,
      "teams": 4863,
      "double": 4864,
      "migr": 4865,
      "Cur": 4866,
      "arts": 4867,
      "attribut": 4868,
      "Afghanistan": 4869,
      "Lord": 4870,
      "levels": 4871,
      "scientific": 4872,
      "och": 4873,
      "ams": 4874,
      "Int": 4875,
      "1967": 4876,
      "invent": 4877,
      "memory": 4878,
      "Byzant": 4879,
      "itors": 4880,
      "wealth": 4881,
      "citiz": 4882,
      "rid": 4883,
      "scale": 4884,
      "forest": 4885,
      "done": 4886,
      "mud": 4887,
      "tim": 4888,
      "hys": 4889,
      "Despite": 4890,
      "ware": 4891,
      "demand": 4892,
      "represented": 4893,
      "buildings": 4894,
      "Joseph": 4895,
      "usal": 4896,
      "lawyer": 4897,
      "demonstr": 4898,
      "cand": 4899,
      "ging": 4900,
      "semb": 4901,
      "aging": 4902,
      "formal": 4903,
      "Library": 4904,
      "arrow": 4905,
      "ips": 4906,
      "ulations": 4907,
      "training": 4908,
      "charge": 4909,
      "ba": 4910,
      "categ": 4911,
      "cture": 4912,
      "osaur": 4913,
      "regional": 4914,
      "vey": 4915,
      "ologist": 4916,
      "sembly": 4917,
      "48": 4918,
      "Rail": 4919,
      "week": 4920,
      "sexual": 4921,
      "woman": 4922,
      "urban": 4923,
      "reng": 4924,
      "earliest": 4925,
      "Ox": 4926,
      "mur": 4927,
      "oe": 4928,
      "theore": 4929,
      "1990s": 4930,
      "signed": 4931,
      "cip": 4932,
      "charg": 4933,
      "artists": 4934,
      "pher": 4935,
      "presence": 4936,
      "1966": 4937,
      "bass": 4938,
      "intended": 4939,
      "arrang": 4940,
      "Series": 4941,
      "multi": 4942,
      "Following": 4943,
      "electric": 4944,
      "methods": 4945,
      "fair": 4946,
      "itz": 4947,
      "omer": 4948,
      "assum": 4949,
      "sembl": 4950,
      "cean": 4951,
      "marked": 4952,
      "Northern": 4953,
      "rules": 4954,
      "Navy": 4955,
      "bri": 4956,
      "tor": 4957,
      "Under": 4958,
      "condition": 4959,
      "ES": 4960,
      "Fre": 4961,
      "emph": 4962,
      "inton": 4963,
      "belief": 4964,
      "Ur": 4965,
      "ault": 4966,
      "varian": 4967,
      "aling": 4968,
      "portion": 4969,
      "location": 4970,
      "machine": 4971,
      "defeated": 4972,
      "Rev": 4973,
      "sense": 4974,
      "tos": 4975,
      "iff": 4976,
      "Both": 4977,
      "Sto": 4978,
      "hours": 4979,
      "da": 4980,
      "Aristo": 4981,
      "Democr": 4982,
      "Life": 4983,
      "happ": 4984,
      "thers": 4985,
      "ellig": 4986,
      "needed": 4987,
      "mel": 4988,
      "ois": 4989,
      "deg": 4990,
      "relations": 4991,
      "Ah": 4992,
      "yet": 4993,
      "theast": 4994,
      "erson": 4995,
      "ela": 4996,
      "peace": 4997,
      "grand": 4998,
      "Notes": 4999,
      "ropol": 5000,
      "reduced": 5001,
      "Athens": 5002,
      "Virgin": 5003,
      "Dou": 5004,
      "society": 5005,
      "status": 5006,
      "Company": 5007,
      "Adrian": 5008,
      "Ae": 5009,
      "perial": 5010,
      "acting": 5011,
      "Abd": 5012,
      "Music": 5013,
      "fif": 5014,
      "ita": 5015,
      "maintain": 5016,
      "laws": 5017,
      "composed": 5018,
      "failed": 5019,
      "experience": 5020,
      "undred": 5021,
      "Jul": 5022,
      "Oper": 5023,
      "bank": 5024,
      "AL": 5025,
      "oll": 5026,
      "resol": 5027,
      "occas": 5028,
      "streng": 5029,
      "Ruth": 5030,
      "Iran": 5031,
      "owned": 5032,
      "Shah": 5033,
      "BB": 5034,
      "annual": 5035,
      "objects": 5036,
      "Bible": 5037,
      "Later": 5038,
      "Year": 5039,
      "fill": 5040,
      "Ak": 5041,
      "paper": 5042,
      "closed": 5043,
      "1970s": 5044,
      "marriage": 5045,
      "classical": 5046,
      "turned": 5047,
      "47": 5048,
      "Major": 5049,
      "Group": 5050,
      "Batman": 5051,
      "Treat": 5052,
      "eds": 5053,
      "advan": 5054,
      "amin": 5055,
      "ests": 5056,
      "containing": 5057,
      "farm": 5058,
      "winter": 5059,
      "ieval": 5060,
      "2nd": 5061,
      "mentioned": 5062,
      "1960s": 5063,
      "azine": 5064,
      "independence": 5065,
      "ga": 5066,
      "cles": 5067,
      "Alas": 5068,
      "Islamic": 5069,
      "Just": 5070,
      "Oly": 5071,
      "itation": 5072,
      "Alfred": 5073,
      "Ev": 5074,
      "Ty": 5075,
      "ato": 5076,
      "image": 5077,
      "Anglican": 5078,
      "bapt": 5079,
      "chap": 5080,
      "sect": 5081,
      "Common": 5082,
      "decided": 5083,
      "Es": 5084,
      "Ire": 5085,
      "vice": 5086,
      "oud": 5087,
      "BCE": 5088,
      "Nob": 5089,
      "tee": 5090,
      "observed": 5091,
      "myth": 5092,
      "fourth": 5093,
      "summer": 5094,
      "Bulgar": 5095,
      "islands": 5096,
      "matter": 5097,
      "binary": 5098,
      "dominant": 5099,
      "rang": 5100,
      "eles": 5101,
      "exhib": 5102,
      "Anton": 5103,
      "accepted": 5104,
      "Aud": 5105,
      "reject": 5106,
      "becoming": 5107,
      "quality": 5108,
      "rapid": 5109,
      "materials": 5110,
      "combined": 5111,
      "Sen": 5112,
      "raised": 5113,
      "notes": 5114,
      "contrast": 5115,
      "protect": 5116,
      "attacks": 5117,
      "expansion": 5118,
      "cry": 5119,
      "expected": 5120,
      "previously": 5121,
      "degree": 5122,
      "texts": 5123,
      "disease": 5124,
      "brain": 5125,
      "resistance": 5126,
      "appearance": 5127,
      "Bet": 5128,
      "Cy": 5129,
      "Tex": 5130,
      "ike": 5131,
      "religion": 5132,
      "Techn": 5133,
      "dens": 5134,
      "vow": 5135,
      "older": 5136,
      "izations": 5137,
      "1980s": 5138,
      "Assy": 5139,
      "equal": 5140,
      "songs": 5141,
      "Do": 5142,
      "Vi": 5143,
      "lov": 5144,
      "oral": 5145,
      "deep": 5146,
      "oted": 5147,
      "basic": 5148,
      "Prize": 5149,
      "Portugu": 5150,
      "necessary": 5151,
      "Olymp": 5152,
      "Portuguese": 5153,
      "provides": 5154,
      "runs": 5155,
      "moving": 5156,
      "audi": 5157,
      "Ban": 5158,
      "Bapt": 5159,
      "Hum": 5160,
      "Boston": 5161,
      "onto": 5162,
      "Austrian": 5163,
      "Carol": 5164,
      "figure": 5165,
      "Lincol": 5166,
      "Gold": 5167,
      "alo": 5168,
      "constant": 5169,
      "That": 5170,
      "coll": 5171,
      "humans": 5172,
      "Bang": 5173,
      "edon": 5174,
      "infect": 5175,
      "arus": 5176,
      "ump": 5177,
      "Lincoln": 5178,
      "money": 5179,
      "earth": 5180,
      "reedom": 5181,
      "moment": 5182,
      "55": 5183,
      "Land": 5184,
      "hot": 5185,
      "Because": 5186,
      "pattern": 5187,
      "Pan": 5188,
      "wing": 5189,
      "ials": 5190,
      "Francis": 5191,
      "hydrogen": 5192,
      "Jes": 5193,
      "Sever": 5194,
      "cav": 5195,
      "heart": 5196,
      "bear": 5197,
      "remaining": 5198,
      "deaths": 5199,
      "78": 5200,
      "Hy": 5201,
      "reign": 5202,
      "Polish": 5203,
      "aught": 5204,
      "1964": 5205,
      "soldiers": 5206,
      "argued": 5207,
      "Islands": 5208,
      "Bern": 5209,
      "initially": 5210,
      "respectively": 5211,
      "ror": 5212,
      "winning": 5213,
      "Hebrew": 5214,
      "pression": 5215,
      "industrial": 5216,
      "financial": 5217,
      "los": 5218,
      "amine": 5219,
      "ida": 5220,
      "month": 5221,
      "operating": 5222,
      "directed": 5223,
      "magnit": 5224,
      "disput": 5225,
      "1965": 5226,
      "versions": 5227,
      "Sub": 5228,
      "native": 5229,
      "atre": 5230,
      "stic": 5231,
      "advert": 5232,
      "Their": 5233,
      "worth": 5234,
      "Government": 5235,
      "spl": 5236,
      "vary": 5237,
      "iron": 5238,
      "1962": 5239,
      "1944": 5240,
      "values": 5241,
      "effective": 5242,
      "fast": 5243,
      "lie": 5244,
      "reve": 5245,
      "elop": 5246,
      "medical": 5247,
      "150": 5248,
      "Greece": 5249,
      "takes": 5250,
      "nine": 5251,
      "slow": 5252,
      "uters": 5253,
      "positions": 5254,
      "musical": 5255,
      "bow": 5256,
      "toms": 5257,
      "1900": 5258,
      "Prime": 5259,
      "thodox": 5260,
      "enic": 5261,
      "comment": 5262,
      "ested": 5263,
      "global": 5264,
      "1960": 5265,
      "sequence": 5266,
      "mill": 5267,
      "illustr": 5268,
      "folk": 5269,
      "Columb": 5270,
      "Bir": 5271,
      "cum": 5272,
      "mut": 5273,
      "enem": 5274,
      "entered": 5275,
      "authority": 5276,
      "allowing": 5277,
      "swana": 5278,
      "Scotland": 5279,
      "tend": 5280,
      "reser": 5281,
      "possess": 5282,
      "advant": 5283,
      "rupt": 5284,
      "179": 5285,
      "1963": 5286,
      "forts": 5287,
      "Confeder": 5288,
      "instrument": 5289,
      "nes": 5290,
      "tun": 5291,
      "records": 5292,
      "upper": 5293,
      "middle": 5294,
      "individuals": 5295,
      "emphas": 5296,
      "CE": 5297,
      "ny": 5298,
      "igation": 5299,
      "bring": 5300,
      "calcul": 5301,
      "scholar": 5302,
      "incorpor": 5303,
      "consists": 5304,
      "succeed": 5305,
      "Research": 5306,
      "candid": 5307,
      "Rob": 5308,
      "ensus": 5309,
      "Av": 5310,
      "ky": 5311,
      "ansas": 5312,
      "Dist": 5313,
      "uni": 5314,
      "share": 5315,
      "despite": 5316,
      "province": 5317,
      "property": 5318,
      "Aar": 5319,
      "edition": 5320,
      "ols": 5321,
      "secret": 5322,
      "becomes": 5323,
      "compl": 5324,
      "ella": 5325,
      "models": 5326,
      "Ireland": 5327,
      "Jean": 5328,
      "acity": 5329,
      "extr": 5330,
      "legisl": 5331,
      "apparent": 5332,
      "Hungarian": 5333,
      "Mill": 5334,
      "giving": 5335,
      "basket": 5336,
      "faith": 5337,
      "Hor": 5338,
      "ST": 5339,
      "die": 5340,
      "mi": 5341,
      "rovers": 5342,
      "techniques": 5343,
      "hundred": 5344,
      "rine": 5345,
      "aded": 5346,
      "kingdom": 5347,
      "royal": 5348,
      "churches": 5349,
      "federal": 5350,
      "favor": 5351,
      "oxygen": 5352,
      "Bulgaria": 5353,
      "Sur": 5354,
      "commiss": 5355,
      "Victor": 5356,
      "Sat": 5357,
      "ders": 5358,
      "rates": 5359,
      "defeat": 5360,
      "allows": 5361,
      "44": 5362,
      "til": 5363,
      "ronic": 5364,
      "offered": 5365,
      "BBC": 5366,
      "Tele": 5367,
      "controvers": 5368,
      "normal": 5369,
      "Parliament": 5370,
      "decision": 5371,
      "birds": 5372,
      "knowledge": 5373,
      "reaction": 5374,
      "chall": 5375,
      "dead": 5376,
      "Thus": 5377,
      "programs": 5378,
      "activities": 5379,
      "Den": 5380,
      "Sir": 5381,
      "iated": 5382,
      "wear": 5383,
      "atal": 5384,
      "Organ": 5385,
      "figures": 5386,
      "responsible": 5387,
      "speech": 5388,
      "ordered": 5389,
      "Over": 5390,
      "hop": 5391,
      "featured": 5392,
      "alone": 5393,
      "progress": 5394,
      "desc": 5395,
      "existence": 5396,
      "frequently": 5397,
      "AA": 5398,
      "dess": 5399,
      "mix": 5400,
      "wa": 5401,
      "artist": 5402,
      "creation": 5403,
      "symp": 5404,
      "simple": 5405,
      "Alexandria": 5406,
      "Tim": 5407,
      "iber": 5408,
      "tu": 5409,
      "anarch": 5410,
      "sole": 5411,
      "constitution": 5412,
      "Pak": 5413,
      "2023": 5414,
      "Egyptian": 5415,
      "Alaska": 5416,
      "Hel": 5417,
      "Sum": 5418,
      "cot": 5419,
      "pun": 5420,
      "inem": 5421,
      "uded": 5422,
      "equival": 5423,
      "mouth": 5424,
      "rod": 5425,
      "agreed": 5426,
      "firm": 5427,
      "positive": 5428,
      "Bank": 5429,
      "pack": 5430,
      "online": 5431,
      "edy": 5432,
      "ils": 5433,
      "compounds": 5434,
      "serve": 5435,
      "iments": 5436,
      "18th": 5437,
      "Science": 5438,
      "animal": 5439,
      "spoken": 5440,
      "ker": 5441,
      "kept": 5442,
      "Belarus": 5443,
      "Mad": 5444,
      "internal": 5445,
      "oured": 5446,
      "pron": 5447,
      "ector": 5448,
      "ideas": 5449,
      "liber": 5450,
      "spent": 5451,
      "cript": 5452,
      "enna": 5453,
      "ethnic": 5454,
      "Bibl": 5455,
      "agreement": 5456,
      "Cast": 5457,
      "bing": 5458,
      "Ali": 5459,
      "izes": 5460,
      "Bahá": 5461,
      "quickly": 5462,
      "Ep": 5463,
      "1947": 5464,
      "interpret": 5465,
      "Ale": 5466,
      "NAS": 5467,
      "Tom": 5468,
      "Armenia": 5469,
      "Gen": 5470,
      "aus": 5471,
      "fran": 5472,
      "repe": 5473,
      "estic": 5474,
      "Ancient": 5475,
      "Kore": 5476,
      "examples": 5477,
      "slight": 5478,
      "emperor": 5479,
      "mann": 5480,
      "Also": 5481,
      "render": 5482,
      "Edward": 5483,
      "connect": 5484,
      "battles": 5485,
      "Duke": 5486,
      "usalem": 5487,
      "sun": 5488,
      "ada": 5489,
      "plane": 5490,
      "osis": 5491,
      "anger": 5492,
      "governor": 5493,
      "sports": 5494,
      "told": 5495,
      "Radio": 5496,
      "rev": 5497,
      "monarch": 5498,
      "direction": 5499,
      "Mark": 5500,
      "49": 5501,
      "cock": 5502,
      "va": 5503,
      "eral": 5504,
      "purpose": 5505,
      "architecture": 5506,
      "Jerusalem": 5507,
      "says": 5508,
      "prove": 5509,
      "illa": 5510,
      "phone": 5511,
      "organization": 5512,
      "definition": 5513,
      "paren": 5514,
      "County": 5515,
      "Persian": 5516,
      "Hill": 5517,
      "thetic": 5518,
      "iga": 5519,
      "deen": 5520,
      "applied": 5521,
      "avoid": 5522,
      "extended": 5523,
      "families": 5524,
      "Mel": 5525,
      "Public": 5526,
      "claims": 5527,
      "nuclear": 5528,
      "Nap": 5529,
      "uls": 5530,
      "block": 5531,
      "views": 5532,
      "refers": 5533,
      "nucle": 5534,
      "Stre": 5535,
      "160": 5536,
      "Order": 5537,
      "Tem": 5538,
      "amber": 5539,
      "hypo": 5540,
      "1961": 5541,
      "pian": 5542,
      "ray": 5543,
      "arc": 5544,
      "unding": 5545,
      "Andrew": 5546,
      "occurred": 5547,
      "declared": 5548,
      "vation": 5549,
      "recording": 5550,
      "beaut": 5551,
      "presented": 5552,
      "Emperor": 5553,
      "Ly": 5554,
      "reflect": 5555,
      "Columbia": 5556,
      "alus": 5557,
      "ambig": 5558,
      "hism": 5559,
      "occurs": 5560,
      "connected": 5561,
      "magnitude": 5562,
      "kin": 5563,
      "rative": 5564,
      "plom": 5565,
      "Add": 5566,
      "continue": 5567,
      "structures": 5568,
      "ii": 5569,
      "acids": 5570,
      "sector": 5571,
      "ynast": 5572,
      "astronaut": 5573,
      "mess": 5574,
      "dex": 5575,
      "simply": 5576,
      "possibly": 5577,
      "fighting": 5578,
      "Aberdeen": 5579,
      "improv": 5580,
      "notable": 5581,
      "solution": 5582,
      "Georg": 5583,
      "trees": 5584,
      "Sultan": 5585,
      "ictions": 5586,
      "stream": 5587,
      "68": 5588,
      "ani": 5589,
      "ammon": 5590,
      "sey": 5591,
      "dem": 5592,
      "1943": 5593,
      "distingu": 5594,
      "Texas": 5595,
      "comput": 5596,
      "flo": 5597,
      "hero": 5598,
      "resulted": 5599,
      "broadcast": 5600,
      "Pet": 5601,
      "motion": 5602,
      "municip": 5603,
      "Super": 5604,
      "Nobel": 5605,
      "Pop": 5606,
      "tur": 5607,
      "von": 5608,
      "leaving": 5609,
      "Constant": 5610,
      "Swedish": 5611,
      "Byzantine": 5612,
      "Oxford": 5613,
      "UN": 5614,
      "auth": 5615,
      "1942": 5616,
      "1948": 5617,
      "atoms": 5618,
      "Jackson": 5619,
      "brief": 5620,
      "SI": 5621,
      "regarded": 5622,
      "fleet": 5623,
      "Rh": 5624,
      "batter": 5625,
      "Bosnia": 5626,
      "Pakistan": 5627,
      "joy": 5628,
      "crim": 5629,
      "Austin": 5630,
      "oles": 5631,
      "opposed": 5632,
      "painter": 5633,
      "conserv": 5634,
      "landing": 5635,
      "council": 5636,
      "orb": 5637,
      "Orthodox": 5638,
      "ij": 5639,
      "aland": 5640,
      "neut": 5641,
      "parties": 5642,
      "Atlanta": 5643,
      "question": 5644,
      "Baseball": 5645,
      "correct": 5646,
      "lives": 5647,
      "ening": 5648,
      "oration": 5649,
      "syl": 5650,
      "maxim": 5651,
      "oldest": 5652,
      "officially": 5653,
      "Several": 5654,
      "aspect": 5655,
      "computers": 5656,
      "spired": 5657,
      "belong": 5658,
      "Ke": 5659,
      "stable": 5660,
      "negative": 5661,
      "contemporary": 5662,
      "So": 5663,
      "purch": 5664,
      "ady": 5665,
      "ante": 5666,
      "actually": 5667,
      "ternet": 5668,
      "running": 5669,
      "sterdam": 5670,
      "captured": 5671,
      "distribution": 5672,
      "nis": 5673,
      "things": 5674,
      "oft": 5675,
      "speaking": 5676,
      "Cup": 5677,
      "fit": 5678,
      "fixed": 5679,
      "gency": 5680,
      "Amsterdam": 5681,
      "impact": 5682,
      "Out": 5683,
      "fiction": 5684,
      "stories": 5685,
      "plies": 5686,
      "Botswana": 5687,
      "aer": 5688,
      "display": 5689,
      "Department": 5690,
      "prominent": 5691,
      "gives": 5692,
      "ries": 5693,
      "ctic": 5694,
      "awarded": 5695,
      "reference": 5696,
      "Pope": 5697,
      "eks": 5698,
      "accur": 5699,
      "expressed": 5700,
      "Bre": 5701,
      "Haw": 5702,
      "Lit": 5703,
      "ote": 5704,
      "illery": 5705,
      "finally": 5706,
      "write": 5707,
      "critical": 5708,
      "combination": 5709,
      "ospital": 5710,
      "Green": 5711,
      "determined": 5712,
      "Abu": 5713,
      "How": 5714,
      "km": 5715,
      "ville": 5716,
      "district": 5717,
      "58": 5718,
      "DNA": 5719,
      "love": 5720,
      "arms": 5721,
      "conce": 5722,
      "escap": 5723,
      "abb": 5724,
      "VI": 5725,
      "kes": 5726,
      "anc": 5727,
      "udes": 5728,
      "prefer": 5729,
      "serious": 5730,
      "minutes": 5731,
      "generation": 5732,
      "volume": 5733,
      "growing": 5734,
      "Langu": 5735,
      "Pac": 5736,
      "bip": 5737,
      "tons": 5738,
      "Space": 5739,
      "Philosop": 5740,
      "frag": 5741,
      "translated": 5742,
      "Four": 5743,
      "Found": 5744,
      "sites": 5745,
      "Nether": 5746,
      "currently": 5747,
      "princip": 5748,
      "Ver": 5749,
      "removed": 5750,
      "Clinton": 5751,
      "green": 5752,
      "Off": 5753,
      "seem": 5754,
      "qual": 5755,
      "showed": 5756,
      "medicine": 5757,
      "Queen": 5758,
      "NASA": 5759,
      "LU": 5760,
      "mind": 5761,
      "rounding": 5762,
      "security": 5763,
      "ifically": 5764,
      "Armenian": 5765,
      "article": 5766,
      "Econom": 5767,
      "theless": 5768,
      "aters": 5769,
      "follows": 5770,
      "background": 5771,
      "BN": 5772,
      "Go": 5773,
      "oids": 5774,
      "oppos": 5775,
      "stitution": 5776,
      "murder": 5777,
      "BI": 5778,
      "LM": 5779,
      "ining": 5780,
      "modif": 5781,
      "efforts": 5782,
      "killing": 5783,
      "translation": 5784,
      "Nic": 5785,
      "jack": 5786,
      "museum": 5787,
      "inking": 5788,
      "enz": 5789,
      "adapt": 5790,
      "newsp": 5791,
      "branch": 5792,
      "ishes": 5793,
      "1958": 5794,
      "immediately": 5795,
      "Eu": 5796,
      "string": 5797,
      "1940": 5798,
      "elections": 5799,
      "Ven": 5800,
      "exact": 5801,
      "Artem": 5802,
      "glass": 5803,
      "Buddhist": 5804,
      "Zealand": 5805,
      "spring": 5806,
      "Military": 5807,
      "eda": 5808,
      "abul": 5809,
      "Chic": 5810,
      "goddess": 5811,
      "Time": 5812,
      "dark": 5813,
      "abol": 5814,
      "etc": 5815,
      "aux": 5816,
      "overs": 5817,
      "content": 5818,
      "supply": 5819,
      "communities": 5820,
      "Brazilian": 5821,
      "ABC": 5822,
      "Fr": 5823,
      "osen": 5824,
      "Labor": 5825,
      "66": 5826,
      "Sax": 5827,
      "planned": 5828,
      "raham": 5829,
      "Arth": 5830,
      "Death": 5831,
      "applications": 5832,
      "Sel": 5833,
      "gal": 5834,
      "arbit": 5835,
      "asked": 5836,
      "meant": 5837,
      "analy": 5838,
      "beyond": 5839,
      "cric": 5840,
      "intellig": 5841,
      "extrem": 5842,
      "controlled": 5843,
      "Belg": 5844,
      "conflict": 5845,
      "Ari": 5846,
      "OL": 5847,
      "bury": 5848,
      "adium": 5849,
      "shot": 5850,
      "instein": 5851,
      "subsequently": 5852,
      "EC": 5853,
      "here": 5854,
      "nob": 5855,
      "ores": 5856,
      "inu": 5857,
      "doct": 5858,
      "equipment": 5859,
      "kh": 5860,
      "Anth": 5861,
      "provin": 5862,
      "device": 5863,
      "devices": 5864,
      "Bulg": 5865,
      "Netherlands": 5866,
      "ont": 5867,
      "aria": 5868,
      "1939": 5869,
      "going": 5870,
      "diplom": 5871,
      "Each": 5872,
      "fre": 5873,
      "rum": 5874,
      "tery": 5875,
      "choice": 5876,
      "portr": 5877,
      "Augustine": 5878,
      "mort": 5879,
      "mixed": 5880,
      "Asian": 5881,
      "screenwriter": 5882,
      "square": 5883,
      "basketball": 5884,
      "54": 5885,
      "bomb": 5886,
      "wer": 5887,
      "asts": 5888,
      "proto": 5889,
      "publican": 5890,
      "1956": 5891,
      "completely": 5892,
      "Ul": 5893,
      "fields": 5894,
      "stell": 5895,
      "inside": 5896,
      "fici": 5897,
      "issued": 5898,
      "vote": 5899,
      "Nations": 5900,
      "Sing": 5901,
      "rog": 5902,
      "amm": 5903,
      "plate": 5904,
      "Stand": 5905,
      "bone": 5906,
      "university": 5907,
      "apart": 5908,
      "prin": 5909,
      "instance": 5910,
      "contract": 5911,
      "passeng": 5912,
      "greatest": 5913,
      "holds": 5914,
      "Develop": 5915,
      "Dire": 5916,
      "Rod": 5917,
      "wave": 5918,
      "angle": 5919,
      "ussels": 5920,
      "ACLU": 5921,
      "Holly": 5922,
      "mathematic": 5923,
      "Naz": 5924,
      "Viet": 5925,
      "eding": 5926,
      "ockey": 5927,
      "grav": 5928,
      "Artemis": 5929,
      "iom": 5930,
      "alt": 5931,
      "demo": 5932,
      "invas": 5933,
      "surrounding": 5934,
      "signal": 5935,
      "Turkish": 5936,
      "77": 5937,
      "Tri": 5938,
      "haps": 5939,
      "rug": 5940,
      "wanted": 5941,
      "1959": 5942,
      "norm": 5943,
      "amaic": 5944,
      "ynasty": 5945,
      "Camp": 5946,
      "presents": 5947,
      "ciences": 5948,
      "archae": 5949,
      "1946": 5950,
      "helped": 5951,
      "defense": 5952,
      "administration": 5953,
      "inspired": 5954,
      "ano": 5955,
      "unknown": 5956,
      "Champion": 5957,
      "correspon": 5958,
      "paralle": 5959,
      "Khan": 5960,
      "Tal": 5961,
      "Tod": 5962,
      "abe": 5963,
      "kins": 5964,
      "asy": 5965,
      "Aramaic": 5966,
      "difference": 5967,
      "Airport": 5968,
      "vehicle": 5969,
      "Chicago": 5970,
      "Net": 5971,
      "anes": 5972,
      "icts": 5973,
      "eties": 5974,
      "umn": 5975,
      "overall": 5976,
      "1955": 5977,
      "Holy": 5978,
      "quarter": 5979,
      "Edu": 5980,
      "Rock": 5981,
      "core": 5982,
      "capacity": 5983,
      "advantage": 5984,
      "Os": 5985,
      "bud": 5986,
      "rival": 5987,
      "tell": 5988,
      "itude": 5989,
      "1918": 5990,
      "union": 5991,
      "apers": 5992,
      "Among": 5993,
      "believe": 5994,
      "significantly": 5995,
      "engineer": 5996,
      "Bulgarian": 5997,
      "Aph": 5998,
      "án": 5999,
      "chain": 6000,
      "bears": 6001,
      "exchange": 6002,
      "Play": 6003,
      "Polit": 6004,
      "joint": 6005,
      "constructed": 6006,
      "listed": 6007,
      "Franklin": 6008,
      "Jesus": 6009,
      "Foot": 6010,
      "Kh": 6011,
      "shared": 6012,
      "whereas": 6013,
      "refused": 6014,
      "protection": 6015,
      "recognized": 6016,
      "6th": 6017,
      "BAS": 6018,
      "conqu": 6019,
      "stra": 6020,
      "liqu": 6021,
      "1952": 6022,
      "particles": 6023,
      "destroyed": 6024,
      "RO": 6025,
      "entially": 6026,
      "1914": 6027,
      "frame": 6028,
      "ski": 6029,
      "importance": 6030,
      "grew": 6031,
      "Fle": 6032,
      "Mat": 6033,
      "weeks": 6034,
      "Fer": 6035,
      "gained": 6036,
      "asc": 6037,
      "tox": 6038,
      "prep": 6039,
      "disorder": 6040,
      "something": 6041,
      "Secret": 6042,
      "magazine": 6043,
      "Einstein": 6044,
      "Sil": 6045,
      "tank": 6046,
      "opposition": 6047,
      "powerful": 6048,
      "Arthur": 6049,
      "Max": 6050,
      "NF": 6051,
      "inet": 6052,
      "anch": 6053,
      "toward": 6054,
      "perfect": 6055,
      "shap": 6056,
      "unders": 6057,
      "decades": 6058,
      "88": 6059,
      "crop": 6060,
      "rated": 6061,
      "geomet": 6062,
      "attention": 6063,
      "cycle": 6064,
      "install": 6065,
      "physic": 6066,
      "mobile": 6067,
      "3rd": 6068,
      "Age": 6069,
      "Ira": 6070,
      "nom": 6071,
      "encour": 6072,
      "iced": 6073,
      "otics": 6074,
      "suggests": 6075,
      "atomic": 6076,
      "quarters": 6077,
      "andon": 6078,
      "Hell": 6079,
      "PS": 6080,
      "uce": 6081,
      "twent": 6082,
      "loy": 6083,
      "linear": 6084,
      "1950": 6085,
      "1930": 6086,
      "principle": 6087,
      "master": 6088,
      "thir": 6089,
      "champion": 6090,
      "Argent": 6091,
      "portun": 6092,
      "poses": 6093,
      "relative": 6094,
      "170": 6095,
      "Brussels": 6096,
      "vention": 6097,
      "universe": 6098,
      "manus": 6099,
      "brand": 6100,
      "factors": 6101,
      "describes": 6102,
      "1901": 6103,
      "philosopher": 6104,
      "subsequent": 6105,
      "encies": 6106,
      "spiritual": 6107,
      "Jim": 6108,
      "1954": 6109,
      "1957": 6110,
      "temple": 6111,
      "instruments": 6112,
      "Lam": 6113,
      "Ol": 6114,
      "iography": 6115,
      "owners": 6116,
      "subst": 6117,
      "vised": 6118,
      "virt": 6119,
      "Alberta": 6120,
      "4th": 6121,
      "Jour": 6122,
      "cation": 6123,
      "dog": 6124,
      "Health": 6125,
      "anning": 6126,
      "Command": 6127,
      "dependent": 6128,
      "dedicated": 6129,
      "95": 6130,
      "Sar": 6131,
      "sister": 6132,
      "sought": 6133,
      "income": 6134,
      "heat": 6135,
      "oppon": 6136,
      "1950s": 6137,
      "secondary": 6138,
      "conduct": 6139,
      "vehicles": 6140,
      "antibi": 6141,
      "tribes": 6142,
      "400": 6143,
      "Bob": 6144,
      "wild": 6145,
      "ür": 6146,
      "stress": 6147,
      "Andr": 6148,
      "starting": 6149,
      "lingu": 6150,
      "paint": 6151,
      "Bav": 6152,
      "Fort": 6153,
      "unique": 6154,
      "arrived": 6155,
      "empire": 6156,
      "focus": 6157,
      "Film": 6158,
      "Mir": 6159,
      "Writ": 6160,
      "din": 6161,
      "orph": 6162,
      "isters": 6163,
      "competition": 6164,
      "equivalent": 6165,
      "uated": 6166,
      "perform": 6167,
      "prime": 6168,
      "Philip": 6169,
      "Bronx": 6170,
      "Jos": 6171,
      "iger": 6172,
      "akh": 6173,
      "aily": 6174,
      "describe": 6175,
      "Like": 6176,
      "closely": 6177,
      "sons": 6178,
      "isol": 6179,
      "itzer": 6180,
      "absol": 6181,
      "venue": 6182,
      "hands": 6183,
      "territories": 6184,
      "Division": 6185,
      "Vietnam": 6186,
      "lat": 6187,
      "tical": 6188,
      "ala": 6189,
      "resh": 6190,
      "Cambridge": 6191,
      "leadership": 6192,
      "powers": 6193,
      "village": 6194,
      "split": 6195,
      "producing": 6196,
      "studied": 6197,
      "causing": 6198,
      "hammad": 6199,
      "Spears": 6200,
      "management": 6201,
      "attempted": 6202,
      "Nat": 6203,
      "Wales": 6204,
      "ero": 6205,
      "ulate": 6206,
      "resources": 6207,
      "ighter": 6208,
      "institutions": 6209,
      "Aristotle": 6210,
      "Street": 6211,
      "iy": 6212,
      "atmos": 6213,
      "abort": 6214,
      "ached": 6215,
      "Star": 6216,
      "Alexandra": 6217,
      "Los": 6218,
      "ado": 6219,
      "plat": 6220,
      "output": 6221,
      "1949": 6222,
      "Austria": 6223,
      "easily": 6224,
      "businessman": 6225,
      "Anglo": 6226,
      "Mexico": 6227,
      "expanded": 6228,
      "got": 6229,
      "notably": 6230,
      "differences": 6231,
      "1929": 6232,
      "causes": 6233,
      "composition": 6234,
      "Social": 6235,
      "Macedon": 6236,
      "slightly": 6237,
      "79": 6238,
      "recomm": 6239,
      "perman": 6240,
      "phase": 6241,
      "ylon": 6242,
      "cules": 6243,
      "colonies": 6244,
      "Open": 6245,
      "Alger": 6246,
      "dram": 6247,
      "annel": 6248,
      "tests": 6249,
      "custom": 6250,
      "settled": 6251,
      "guitarist": 6252,
      "Pacific": 6253,
      "ciples": 6254,
      "drive": 6255,
      "cerem": 6256,
      "specifically": 6257,
      "Christians": 6258,
      "honor": 6259,
      "sacr": 6260,
      "Supreme": 6261,
      "Iraq": 6262,
      "Eth": 6263,
      "Lake": 6264,
      "inhabit": 6265,
      "combat": 6266,
      "coal": 6267,
      "opening": 6268,
      "Il": 6269,
      "uan": 6270,
      "iled": 6271,
      "firmed": 6272,
      "1941": 6273,
      "Russell": 6274,
      "programming": 6275,
      "houses": 6276,
      "ko": 6277,
      "san": 6278,
      "ione": 6279,
      "finished": 6280,
      "visited": 6281,
      "empts": 6282,
      "meeting": 6283,
      "Gi": 6284,
      "Tour": 6285,
      "narr": 6286,
      "ander": 6287,
      "agh": 6288,
      "anta": 6289,
      "phon": 6290,
      "Commission": 6291,
      "goal": 6292,
      "cks": 6293,
      "oul": 6294,
      "ounder": 6295,
      "format": 6296,
      "lock": 6297,
      "build": 6298,
      "receive": 6299,
      "Christianity": 6300,
      "ruled": 6301,
      "settlement": 6302,
      "Belgium": 6303,
      "armed": 6304,
      "forward": 6305,
      "user": 6306,
      "bles": 6307,
      "attempts": 6308,
      "1928": 6309,
      "introduction": 6310,
      "hunt": 6311,
      "ule": 6312,
      "throw": 6313,
      "staff": 6314,
      "else": 6315,
      "agan": 6316,
      "Alab": 6317,
      "ranean": 6318,
      "bodies": 6319,
      "commander": 6320,
      "weapons": 6321,
      "Che": 6322,
      "Up": 6323,
      "shape": 6324,
      "oxid": 6325,
      "Rog": 6326,
      "gment": 6327,
      "tried": 6328,
      "understanding": 6329,
      "Amiga": 6330,
      "existing": 6331,
      "density": 6332,
      "Ha": 6333,
      "Jon": 6334,
      "lers": 6335,
      "opportun": 6336,
      "brid": 6337,
      "writings": 6338,
      "ception": 6339,
      "1926": 6340,
      "piece": 6341,
      "Lev": 6342,
      "hau": 6343,
      "enant": 6344,
      "count": 6345,
      "Human": 6346,
      "5th": 6347,
      "Cro": 6348,
      "paid": 6349,
      "alumin": 6350,
      "uted": 6351,
      "tribut": 6352,
      "contact": 6353,
      "strength": 6354,
      "Card": 6355,
      "Gall": 6356,
      "jur": 6357,
      "py": 6358,
      "seat": 6359,
      "achieved": 6360,
      "stan": 6361,
      "substant": 6362,
      "medieval": 6363,
      "operated": 6364,
      "recently": 6365,
      "entirely": 6366,
      "AG": 6367,
      "ati": 6368,
      "finite": 6369,
      "capable": 6370,
      "missions": 6371,
      "motor": 6372,
      "authors": 6373,
      "Post": 6374,
      "Van": 6375,
      "olar": 6376,
      "illes": 6377,
      "extensive": 6378,
      "biological": 6379,
      "reduce": 6380,
      "Uk": 6381,
      "abandon": 6382,
      "ogue": 6383,
      "16th": 6384,
      "Flor": 6385,
      "Mountain": 6386,
      "Ve": 6387,
      "ho": 6388,
      "mes": 6389,
      "inary": 6390,
      "anx": 6391,
      "tooth": 6392,
      "organized": 6393,
      "defend": 6394,
      "Development": 6395,
      "Tro": 6396,
      "Wel": 6397,
      "itage": 6398,
      "metals": 6399,
      "Protest": 6400,
      "worldwide": 6401,
      "saying": 6402,
      "56": 6403,
      "inus": 6404,
      "arrest": 6405,
      "assault": 6406,
      "oka": 6407,
      "effort": 6408,
      "17th": 6409,
      "Project": 6410,
      "Mediter": 6411,
      "Before": 6412,
      "Hon": 6413,
      "fix": 6414,
      "hen": 6415,
      "chlor": 6416,
      "proced": 6417,
      "artillery": 6418,
      "webs": 6419,
      "depending": 6420,
      "holding": 6421,
      "eag": 6422,
      "hr": 6423,
      "leave": 6424,
      "adap": 6425,
      "Andalus": 6426,
      "igenous": 6427,
      "Addition": 6428,
      "Even": 6429,
      "icks": 6430,
      "aints": 6431,
      "ellow": 6432,
      "poem": 6433,
      "historic": 6434,
      "technique": 6435,
      "contained": 6436,
      "popularity": 6437,
      "heavily": 6438,
      "literary": 6439,
      "Books": 6440,
      "throne": 6441,
      "Mot": 6442,
      "greg": 6443,
      "nut": 6444,
      "pure": 6445,
      "1919": 6446,
      "Daniel": 6447,
      "Mediterranean": 6448,
      "police": 6449,
      "Carl": 6450,
      "protein": 6451,
      "zero": 6452,
      "faces": 6453,
      "situation": 6454,
      "phenomen": 6455,
      "Alabama": 6456,
      "Ukrain": 6457,
      "Az": 6458,
      "ionally": 6459,
      "context": 6460,
      "hell": 6461,
      "1933": 6462,
      "1937": 6463,
      "1938": 6464,
      "typical": 6465,
      "scientists": 6466,
      "You": 6467,
      "train": 6468,
      "clo": 6469,
      "mond": 6470,
      "polar": 6471,
      "1925": 6472,
      "stead": 6473,
      "advanced": 6474,
      "tan": 6475,
      "oples": 6476,
      "adesh": 6477,
      "citizens": 6478,
      "CP": 6479,
      "Native": 6480,
      "Pen": 6481,
      "replac": 6482,
      "Arts": 6483,
      "influential": 6484,
      "Governor": 6485,
      "Assyrian": 6486,
      "Dar": 6487,
      "uration": 6488,
      "oren": 6489,
      "Arkansas": 6490,
      "fuel": 6491,
      "note": 6492,
      "airs": 6493,
      "lavery": 6494,
      "limit": 6495,
      "Buff": 6496,
      "behavior": 6497,
      "dry": 6498,
      "mak": 6499,
      "clim": 6500,
      "blues": 6501,
      "Three": 6502,
      "gene": 6503,
      "Turkey": 6504,
      "kings": 6505,
      "lon": 6506,
      "sides": 6507,
      "alty": 6508,
      "users": 6509,
      "Ages": 6510,
      "occupied": 6511,
      "affected": 6512,
      "components": 6513,
      "Treaty": 6514,
      "59": 6515,
      "gov": 6516,
      "hockey": 6517,
      "erc": 6518,
      "usual": 6519,
      "abilities": 6520,
      "peak": 6521,
      "antic": 6522,
      "shire": 6523,
      "obtained": 6524,
      "Philipp": 6525,
      "guns": 6526,
      "dialects": 6527,
      "Far": 6528,
      "Jef": 6529,
      "Ob": 6530,
      "inth": 6531,
      "genetic": 6532,
      "setting": 6533,
      "absor": 6534,
      "conducted": 6535,
      "manufactur": 6536,
      "Amazon": 6537,
      "42": 6538,
      "43": 6539,
      "46": 6540,
      "52": 6541,
      "Long": 6542,
      "Wind": 6543,
      "dated": 6544,
      "tact": 6545,
      "obs": 6546,
      "21st": 6547,
      "buried": 6548,
      "stock": 6549,
      "damage": 6550,
      "digital": 6551,
      "Wallace": 6552,
      "fantry": 6553,
      "Aal": 6554,
      "Dig": 6555,
      "nomin": 6556,
      "strate": 6557,
      "Conserv": 6558,
      "1922": 6559,
      "rising": 6560,
      "employed": 6561,
      "increasingly": 6562,
      "Flight": 6563,
      "orient": 6564,
      "secut": 6565,
      "Internet": 6566,
      "perhaps": 6567,
      "worship": 6568,
      "Awards": 6569,
      "Danish": 6570,
      "ki": 6571,
      "pict": 6572,
      "apy": 6573,
      "sym": 6574,
      "1936": 6575,
      "student": 6576,
      "infr": 6577,
      "aspir": 6578,
      "ett": 6579,
      "plans": 6580,
      "ultim": 6581,
      "ranked": 6582,
      "1953": 6583,
      "Ajax": 6584,
      "dimens": 6585,
      "Bed": 6586,
      "Gal": 6587,
      "Greg": 6588,
      "Penn": 6589,
      "sed": 6590,
      "ying": 6591,
      "ange": 6592,
      "stations": 6593,
      "rome": 6594,
      "useful": 6595,
      "1927": 6596,
      "speakers": 6597,
      "algorithm": 6598,
      "enemy": 6599,
      "Ray": 6600,
      "aqu": 6601,
      "dates": 6602,
      "pa": 6603,
      "org": 6604,
      "creating": 6605,
      "Service": 6606,
      "advance": 6607,
      "ifying": 6608,
      "brown": 6609,
      "bean": 6610,
      "Auto": 6611,
      "1921": 6612,
      "Serb": 6613,
      "Baltic": 6614,
      "administrative": 6615,
      "cruis": 6616,
      "41": 6617,
      "taught": 6618,
      "compat": 6619,
      "conson": 6620,
      "skin": 6621,
      "temperatures": 6622,
      "Alfonso": 6623,
      "fifth": 6624,
      "Mas": 6625,
      "Women": 6626,
      "lot": 6627,
      "var": 6628,
      "decor": 6629,
      "ogical": 6630,
      "Arm": 6631,
      "Program": 6632,
      "births": 6633,
      "converted": 6634,
      "felt": 6635,
      "baptism": 6636,
      "Mun": 6637,
      "isine": 6638,
      "ellect": 6639,
      "iph": 6640,
      "providing": 6641,
      "Angeles": 6642,
      "friends": 6643,
      "Aster": 6644,
      "Top": 6645,
      "bill": 6646,
      "vess": 6647,
      "Prov": 6648,
      "traditions": 6649,
      "idespread": 6650,
      "Club": 6651,
      "processes": 6652,
      "voice": 6653,
      "51": 6654,
      "GDP": 6655,
      "identity": 6656,
      "neighbor": 6657,
      "succeeded": 6658,
      "Ocean": 6659,
      "Way": 6660,
      "bid": 6661,
      "inher": 6662,
      "eler": 6663,
      "beer": 6664,
      "raf": 6665,
      "workers": 6666,
      "developing": 6667,
      "Lee": 6668,
      "factor": 6669,
      "connection": 6670,
      "bishops": 6671,
      "elaide": 6672,
      "chosen": 6673,
      "seems": 6674,
      "medium": 6675,
      "parliament": 6676,
      "domestic": 6677,
      "practices": 6678,
      "sufficient": 6679,
      "revolution": 6680,
      "iary": 6681,
      "nest": 6682,
      "depart": 6683,
      "shoot": 6684,
      "assass": 6685,
      "testing": 6686,
      "reports": 6687,
      "BS": 6688,
      "swe": 6689,
      "1910": 6690,
      "inners": 6691,
      "roll": 6692,
      "aeus": 6693,
      "switch": 6694,
      "Ken": 6695,
      "ses": 6696,
      "sail": 6697,
      "Adelaide": 6698,
      "valid": 6699,
      "successfully": 6700,
      "experienced": 6701,
      "Free": 6702,
      "fly": 6703,
      "gir": 6704,
      "hical": 6705,
      "newly": 6706,
      "1932": 6707,
      "1924": 6708,
      "soldier": 6709,
      "regarding": 6710,
      "Democratic": 6711,
      "SS": 6712,
      "iro": 6713,
      "ón": 6714,
      "reasons": 6715,
      "alter": 6716,
      "conv": 6717,
      "issance": 6718,
      "Commit": 6719,
      "spacecraft": 6720,
      "acquired": 6721,
      "72": 6722,
      "feel": 6723,
      "amental": 6724,
      "inhabitants": 6725,
      "Cle": 6726,
      "Fam": 6727,
      "smo": 6728,
      "orn": 6729,
      "preced": 6730,
      "politics": 6731,
      "Barcel": 6732,
      "Corpor": 6733,
      "theorem": 6734,
      "Ram": 6735,
      "jun": 6736,
      "sales": 6737,
      "yan": 6738,
      "inian": 6739,
      "rob": 6740,
      "elve": 6741,
      "aved": 6742,
      "Alpha": 6743,
      "Stan": 6744,
      "aware": 6745,
      "moral": 6746,
      "hardware": 6747,
      "option": 6748,
      "failure": 6749,
      "Bus": 6750,
      "Water": 6751,
      "inf": 6752,
      "seud": 6753,
      "phr": 6754,
      "cipl": 6755,
      "Republican": 6756,
      "carrier": 6757,
      "1951": 6758,
      "Shar": 6759,
      "requires": 6760,
      "formerly": 6761,
      "husband": 6762,
      "attributed": 6763,
      "push": 6764,
      "ancy": 6765,
      "quite": 6766,
      "calls": 6767,
      "organizations": 6768,
      "negot": 6769,
      "semi": 6770,
      "agricultural": 6771,
      "rejected": 6772,
      "maximum": 6773,
      "Squ": 6774,
      "Vis": 6775,
      "cam": 6776,
      "phe": 6777,
      "iling": 6778,
      "ounger": 6779,
      "cool": 6780,
      "extreme": 6781,
      "standards": 6782,
      "Similar": 6783,
      "walls": 6784,
      "Cas": 6785,
      "map": 6786,
      "zone": 6787,
      "statement": 6788,
      "planet": 6789,
      "parents": 6790,
      "Napole": 6791,
      "Are": 6792,
      "Ainu": 6793,
      "CS": 6794,
      "heim": 6795,
      "price": 6796,
      "Through": 6797,
      "1931": 6798,
      "application": 6799,
      "Virginia": 6800,
      "Aphrod": 6801,
      "98": 6802,
      "Times": 6803,
      "bond": 6804,
      "fare": 6805,
      "freedom": 6806,
      "ja": 6807,
      "wan": 6808,
      "widespread": 6809,
      "inhib": 6810,
      "height": 6811,
      "ading": 6812,
      "iana": 6813,
      "traf": 6814,
      "descent": 6815,
      "destru": 6816,
      "interview": 6817,
      "Herze": 6818,
      "Hungary": 6819,
      "Little": 6820,
      "Bad": 6821,
      "Due": 6822,
      "Hindu": 6823,
      "IBM": 6824,
      "Let": 6825,
      "rein": 6826,
      "elim": 6827,
      "iring": 6828,
      "colour": 6829,
      "bright": 6830,
      "visit": 6831,
      "1923": 6832,
      "solid": 6833,
      "continuous": 6834,
      "Swiss": 6835,
      "drawn": 6836,
      "consisting": 6837,
      "satis": 6838,
      "railway": 6839,
      "founder": 6840,
      "adel": 6841,
      "mode": 6842,
      "Constitution": 6843,
      "iox": 6844,
      "axiom": 6845,
      "dependence": 6846,
      "classified": 6847,
      "Belgian": 6848,
      "advoc": 6849,
      "Ky": 6850,
      "route": 6851,
      "exped": 6852,
      "strateg": 6853,
      "aceae": 6854,
      "publish": 6855,
      "Pruss": 6856,
      "steel": 6857,
      "capture": 6858,
      "investig": 6859,
      "osaurus": 6860,
      "Aqu": 6861,
      "Ball": 6862,
      "bind": 6863,
      "amoun": 6864,
      "ivals": 6865,
      "granted": 6866,
      "flag": 6867,
      "Brand": 6868,
      "circum": 6869,
      "AMD": 6870,
      "Babylon": 6871,
      "absolute": 6872,
      "Herzegov": 6873,
      "Gar": 6874,
      "MS": 6875,
      "gn": 6876,
      "itt": 6877,
      "1934": 6878,
      "Poland": 6879,
      "Liberal": 6880,
      "Federal": 6881,
      "Aphrodite": 6882,
      "harm": 6883,
      "ua": 6884,
      "edge": 6885,
      "imm": 6886,
      "images": 6887,
      "igins": 6888,
      "residents": 6889,
      "Chap": 6890,
      "Arian": 6891,
      "zech": 6892,
      "unei": 6893,
      "projects": 6894,
      "colonial": 6895,
      "favour": 6896,
      "agriculture": 6897,
      "alphabet": 6898,
      "invasion": 6899,
      "sa": 6900,
      "snow": 6901,
      "ture": 6902,
      "aka": 6903,
      "nearby": 6904,
      "begins": 6905,
      "Transport": 6906,
      "communication": 6907,
      "extremely": 6908,
      "Cons": 6909,
      "onal": 6910,
      "angel": 6911,
      "Warhol": 6912,
      "Exam": 6913,
      "ographic": 6914,
      "Bangl": 6915,
      "120": 6916,
      "Phys": 6917,
      "cars": 6918,
      "fear": 6919,
      "gers": 6920,
      "conquest": 6921,
      "discovery": 6922,
      "tennis": 6923,
      "uba": 6924,
      "Bruce": 6925,
      "Bermud": 6926,
      "Carib": 6927,
      "analog": 6928,
      "Samuel": 6929,
      "Baptist": 6930,
      "challeng": 6931,
      "franch": 6932,
      "astronauts": 6933,
      "Georgia": 6934,
      "modified": 6935,
      "Committee": 6936,
      "Herzegovina": 6937,
      "53": 6938,
      "Czech": 6939,
      "gom": 6940,
      "reli": 6941,
      "enjoy": 6942,
      "select": 6943,
      "essential": 6944,
      "begin": 6945,
      "error": 6946,
      "exclus": 6947,
      "ultimately": 6948,
      "CD": 6949,
      "Festival": 6950,
      "dynasty": 6951,
      "hall": 6952,
      "ora": 6953,
      "1917": 6954,
      "populations": 6955,
      "Forces": 6956,
      "1935": 6957,
      "Portugal": 6958,
      "ographical": 6959,
      "principal": 6960,
      "Yan": 6961,
      "vas": 6962,
      "cancer": 6963,
      "publication": 6964,
      "traditionally": 6965,
      "slaves": 6966,
      "Athena": 6967,
      "pieces": 6968,
      "Audi": 6969,
      "District": 6970,
      "nations": 6971,
      "wal": 6972,
      "edia": 6973,
      "tood": 6974,
      "ideal": 6975,
      "Stat": 6976,
      "curs": 6977,
      "transition": 6978,
      "gods": 6979,
      "Sweden": 6980,
      "Football": 6981,
      "understood": 6982,
      "Lyn": 6983,
      "haz": 6984,
      "input": 6985,
      "ergy": 6986,
      "rebell": 6987,
      "severe": 6988,
      "electro": 6989,
      "Benj": 6990,
      "Albanian": 6991,
      "mathematics": 6992,
      "mathematician": 6993,
      "construct": 6994,
      "deploy": 6995,
      "Inc": 6996,
      "peoples": 6997,
      "prepar": 6998,
      "Records": 6999,
      "news": 7000,
      "driver": 7001,
      "struction": 7002,
      "officer": 7003,
      "pilot": 7004,
      "parallel": 7005,
      "Bish": 7006,
      "Cit": 7007,
      "pul": 7008,
      "proceed": 7009,
      "exists": 7010,
      "antim": 7011,
      "ologies": 7012,
      "ween": 7013,
      "roughly": 7014,
      "park": 7015,
      "organic": 7016,
      "Patri": 7017,
      "Ashoka": 7018,
      "printed": 7019,
      "Band": 7020,
      "Les": 7021,
      "phy": 7022,
      "angular": 7023,
      "concluded": 7024,
      "electrons": 7025,
      "Journal": 7026,
      "Num": 7027,
      "iod": 7028,
      "think": 7029,
      "towns": 7030,
      "migration": 7031,
      "traffic": 7032,
      "gest": 7033,
      "iar": 7034,
      "stro": 7035,
      "confirmed": 7036,
      "buzz": 7037,
      "successor": 7038,
      "frequency": 7039,
      "Valley": 7040,
      "advertising": 7041,
      "rugby": 7042,
      "Der": 7043,
      "Mes": 7044,
      "Son": 7045,
      "usage": 7046,
      "1916": 7047,
      "attend": 7048,
      "variable": 7049,
      "Albania": 7050,
      "executive": 7051,
      "Baháʼ": 7052,
      "Pas": 7053,
      "Tenn": 7054,
      "vector": 7055,
      "Chief": 7056,
      "succession": 7057,
      "accounts": 7058,
      "suffered": 7059,
      "charged": 7060,
      "liquid": 7061,
      "ER": 7062,
      "Game": 7063,
      "Pier": 7064,
      "festival": 7065,
      "sle": 7066,
      "uge": 7067,
      "seats": 7068,
      "improved": 7069,
      "score": 7070,
      "Computer": 7071,
      "Luther": 7072,
      "bacteria": 7073,
      "Between": 7074,
      "Love": 7075,
      "infl": 7076,
      "assembl": 7077,
      "maintained": 7078,
      "130": 7079,
      "particle": 7080,
      "broke": 7081,
      "Airlines": 7082,
      "diag": 7083,
      "treated": 7084,
      "Ho": 7085,
      "cited": 7086,
      "itness": 7087,
      "canon": 7088,
      "lium": 7089,
      "marine": 7090,
      "Prof": 7091,
      "approved": 7092,
      "priest": 7093,
      "expression": 7094,
      "thousands": 7095,
      "descend": 7096,
      "Rand": 7097,
      "gather": 7098,
      "len": 7099,
      "mn": 7100,
      "mology": 7101,
      "inger": 7102,
      "external": 7103,
      "neur": 7104,
      "actors": 7105,
      "Alg": 7106,
      "veget": 7107,
      "Brian": 7108,
      "Maria": 7109,
      "aluminium": 7110,
      "Benjamin": 7111,
      "FA": 7112,
      "cab": 7113,
      "fought": 7114,
      "uate": 7115,
      "vast": 7116,
      "rie": 7117,
      "Anat": 7118,
      "prec": 7119,
      "bron": 7120,
      "proteins": 7121,
      "separated": 7122,
      "website": 7123,
      "Ba": 7124,
      "Sk": 7125,
      "mm": 7126,
      "inated": 7127,
      "Indu": 7128,
      "guard": 7129,
      "Stephen": 7130,
      "horse": 7131,
      "algebraic": 7132,
      "drugs": 7133,
      "Muhammad": 7134,
      "Ori": 7135,
      "urg": 7136,
      "borough": 7137,
      "supporting": 7138,
      "Cre": 7139,
      "Crow": 7140,
      "hes": 7141,
      "milit": 7142,
      "rub": 7143,
      "tar": 7144,
      "accord": 7145,
      "eless": 7146,
      "plus": 7147,
      "modu": 7148,
      "antip": 7149,
      "designs": 7150,
      "designated": 7151,
      "Origin": 7152,
      "raeli": 7153,
      "Disraeli": 7154,
      "concentration": 7155,
      "quantum": 7156,
      "repeated": 7157,
      "module": 7158,
      "86": 7159,
      "narrow": 7160,
      "imperial": 7161,
      "ateur": 7162,
      "spaces": 7163,
      "collabor": 7164,
      "minim": 7165,
      "studio": 7166,
      "biography": 7167,
      "missile": 7168,
      "organisms": 7169,
      "Andre": 7170,
      "radiation": 7171,
      "teaching": 7172,
      "momentum": 7173,
      "57": 7174,
      "MP": 7175,
      "crown": 7176,
      "gam": 7177,
      "inity": 7178,
      "leaves": 7179,
      "amph": 7180,
      "ota": 7181,
      "extra": 7182,
      "managed": 7183,
      "actual": 7184,
      "discipl": 7185,
      "intellect": 7186,
      "rick": 7187,
      "Augustus": 7188,
      "revealed": 7189,
      "Hay": 7190,
      "Song": 7191,
      "prem": 7192,
      "bases": 7193,
      "Antar": 7194,
      "clubs": 7195,
      "Loc": 7196,
      "Well": 7197,
      "ec": 7198,
      "iate": 7199,
      "ibn": 7200,
      "flat": 7201,
      "authorities": 7202,
      "municipal": 7203,
      "Constantin": 7204,
      "Hop": 7205,
      "Men": 7206,
      "Wars": 7207,
      "cod": 7208,
      "page": 7209,
      "asi": 7210,
      "engineering": 7211,
      "Foreign": 7212,
      "susp": 7213,
      "Ele": 7214,
      "dan": 7215,
      "obl": 7216,
      "selected": 7217,
      "1913": 7218,
      "arden": 7219,
      "formally": 7220,
      "Boys": 7221,
      "mathematical": 7222,
      "Montgom": 7223,
      "uniform": 7224,
      "democr": 7225,
      "Caribbean": 7226,
      "Montgomery": 7227,
      "rivers": 7228,
      "slavery": 7229,
      "align": 7230,
      "1912": 7231,
      "unable": 7232,
      "correspond": 7233,
      "crash": 7234,
      "temporary": 7235,
      "alongside": 7236,
      "battleship": 7237,
      "Education": 7238,
      "Corporation": 7239,
      "ML": 7240,
      "Qa": 7241,
      "drew": 7242,
      "sell": 7243,
      "adding": 7244,
      "veloc": 7245,
      "visual": 7246,
      "stein": 7247,
      "naval": 7248,
      "molecules": 7249,
      "thousand": 7250,
      "Miller": 7251,
      "Office": 7252,
      "Bow": 7253,
      "Mit": 7254,
      "bom": 7255,
      "dut": 7256,
      "fash": 7257,
      "proof": 7258,
      "uset": 7259,
      "personnel": 7260,
      "attacked": 7261,
      "Bened": 7262,
      "learning": 7263,
      "bottom": 7264,
      "violence": 7265,
      "Bluetooth": 7266,
      "shell": 7267,
      "Cau": 7268,
      "onia": 7269,
      "root": 7270,
      "Theatre": 7271,
      "ayer": 7272,
      "Brunei": 7273,
      "cuisine": 7274,
      "silver": 7275,
      "Today": 7276,
      "lan": 7277,
      "umes": 7278,
      "iful": 7279,
      "twice": 7280,
      "cious": 7281,
      "Abraham": 7282,
      "classes": 7283,
      "historians": 7284,
      "Forest": 7285,
      "67": 7286,
      "Cross": 7287,
      "ee": 7288,
      "rig": 7289,
      "inction": 7290,
      "icit": 7291,
      "entry": 7292,
      "acle": 7293,
      "Artic": 7294,
      "Though": 7295,
      "pressed": 7296,
      "episode": 7297,
      "Senate": 7298,
      "corresponding": 7299,
      "tz": 7300,
      "terror": 7301,
      "uran": 7302,
      "assigned": 7303,
      "Bernard": 7304,
      "61": 7305,
      "gain": 7306,
      "ache": 7307,
      "cher": 7308,
      "partners": 7309,
      "prey": 7310,
      "extent": 7311,
      "door": 7312,
      "appropri": 7313,
      "technical": 7314,
      "Williams": 7315,
      "emerged": 7316,
      "communications": 7317,
      "environmental": 7318,
      "normally": 7319,
      "Anatol": 7320,
      "Main": 7321,
      "1911": 7322,
      "propos": 7323,
      "tri": 7324,
      "ogen": 7325,
      "playw": 7326,
      "description": 7327,
      "profit": 7328,
      "roads": 7329,
      "anthropol": 7330,
      "Protestant": 7331,
      "Wood": 7332,
      "hed": 7333,
      "rons": 7334,
      "trial": 7335,
      "clin": 7336,
      "Child": 7337,
      "perior": 7338,
      "Germanic": 7339,
      "Caes": 7340,
      "Ath": 7341,
      "Beng": 7342,
      "CI": 7343,
      "Dam": 7344,
      "dos": 7345,
      "rogen": 7346,
      "improve": 7347,
      "ira": 7348,
      "riers": 7349,
      "marks": 7350,
      "increases": 7351,
      "netic": 7352,
      "evolved": 7353,
      "experiments": 7354,
      "cryst": 7355,
      "Agr": 7356,
      "vard": 7357,
      "reput": 7358,
      "urally": 7359,
      "sust": 7360,
      "obtain": 7361,
      "argument": 7362,
      "somewhat": 7363,
      "Assembly": 7364,
      "Only": 7365,
      "warz": 7366,
      "apping": 7367,
      "movie": 7368,
      "alleged": 7369,
      "Freder": 7370,
      "Foundation": 7371,
      "Buffalo": 7372,
      "Bod": 7373,
      "Crit": 7374,
      "bic": 7375,
      "moun": 7376,
      "sort": 7377,
      "represents": 7378,
      "ims": 7379,
      "raw": 7380,
      "izon": 7381,
      "colony": 7382,
      "Barcelona": 7383,
      "Yanke": 7384,
      "Anne": 7385,
      "boy": 7386,
      "scene": 7387,
      "synthesis": 7388,
      "considerable": 7389,
      "vowel": 7390,
      "audience": 7391,
      "Balk": 7392,
      "Young": 7393,
      "vest": 7394,
      "achuset": 7395,
      "nothing": 7396,
      "greatly": 7397,
      "contributed": 7398,
      "Massachuset": 7399,
      "conventional": 7400,
      "Op": 7401,
      "Sund": 7402,
      "lies": 7403,
      "assembly": 7404,
      "neuro": 7405,
      "bloc": 7406,
      "register": 7407,
      "cris": 7408,
      "officials": 7409,
      "detect": 7410,
      "BASIC": 7411,
      "Massachusetts": 7412,
      "Cla": 7413,
      "Games": 7414,
      "dance": 7415,
      "iner": 7416,
      "otherwise": 7417,
      "legend": 7418,
      "Produ": 7419,
      "officers": 7420,
      "slave": 7421,
      "pursu": 7422,
      "strongly": 7423,
      "indicate": 7424,
      "Community": 7425,
      "DS": 7426,
      "Rem": 7427,
      "danger": 7428,
      "ees": 7429,
      "amino": 7430,
      "Alan": 7431,
      "iege": 7432,
      "rence": 7433,
      "array": 7434,
      "focused": 7435,
      "twenty": 7436,
      "anxiety": 7437,
      "Constantinople": 7438,
      "69": 7439,
      "7th": 7440,
      "89": 7441,
      "Gulf": 7442,
      "Lew": 7443,
      "theories": 7444,
      "ila": 7445,
      "agement": 7446,
      "ova": 7447,
      "athers": 7448,
      "fru": 7449,
      "1908": 7450,
      "Road": 7451,
      "Schwarz": 7452,
      "swim": 7453,
      "involving": 7454,
      "62": 7455,
      "85": 7456,
      "Ald": 7457,
      "march": 7458,
      "orus": 7459,
      "consequ": 7460,
      "lowest": 7461,
      "titled": 7462,
      "copper": 7463,
      "reaching": 7464,
      "negie": 7465,
      "Offic": 7466,
      "interpretation": 7467,
      "straight": 7468,
      "adapted": 7469,
      "BD": 7470,
      "Je": 7471,
      "foss": 7472,
      "chair": 7473,
      "avel": 7474,
      "survey": 7475,
      "innov": 7476,
      "burgh": 7477,
      "plication": 7478,
      "harmon": 7479,
      "Archae": 7480,
      "Broad": 7481,
      "leads": 7482,
      "expensive": 7483,
      "ruler": 7484,
      "circu": 7485,
      "abeth": 7486,
      "AOL": 7487,
      "Han": 7488,
      "Mr": 7489,
      "hour": 7490,
      "irs": 7491,
      "emic": 7492,
      "porters": 7493,
      "Carnegie": 7494,
      "vania": 7495,
      "titles": 7496,
      "facilities": 7497,
      "educator": 7498,
      "Eliz": 7499,
      "dominated": 7500,
      "debate": 7501,
      "credited": 7502,
      "newspaper": 7503,
      "cricke": 7504,
      "prepared": 7505,
      "strategy": 7506,
      "63": 7507,
      "Kn": 7508,
      "Run": 7509,
      "selling": 7510,
      "agents": 7511,
      "opol": 7512,
      "continues": 7513,
      "ratio": 7514,
      "safe": 7515,
      "Back": 7516,
      "Cel": 7517,
      "cinem": 7518,
      "debut": 7519,
      "comed": 7520,
      "1930s": 7521,
      "effectively": 7522,
      "philosophers": 7523,
      "Special": 7524,
      "Testament": 7525,
      "incorporated": 7526,
      "symptoms": 7527,
      "Fried": 7528,
      "resto": 7529,
      "link": 7530,
      "Proto": 7531,
      "azz": 7532,
      "deliver": 7533,
      "ika": 7534,
      "sched": 7535,
      "invented": 7536,
      "Bagh": 7537,
      "Pash": 7538,
      "Tit": 7539,
      "mil": 7540,
      "oque": 7541,
      "rand": 7542,
      "immigr": 7543,
      "Theod": 7544,
      "1915": 7545,
      "abstr": 7546,
      "Form": 7547,
      "Bermuda": 7548,
      "Fres": 7549,
      "vement": 7550,
      "agent": 7551,
      "aven": 7552,
      "shall": 7553,
      "athan": 7554,
      "sche": 7555,
      "copy": 7556,
      "rounded": 7557,
      "Mexican": 7558,
      "component": 7559,
      "Additionally": 7560,
      "Vari": 7561,
      "cogn": 7562,
      "kil": 7563,
      "mist": 7564,
      "waters": 7565,
      "intr": 7566,
      "stay": 7567,
      "agues": 7568,
      "abil": 7569,
      "rix": 7570,
      "ifications": 7571,
      "laure": 7572,
      "operate": 7573,
      "beauty": 7574,
      "aspects": 7575,
      "provinces": 7576,
      "BA": 7577,
      "hur": 7578,
      "mac": 7579,
      "ules": 7580,
      "agu": 7581,
      "renamed": 7582,
      "proval": 7583,
      "brevi": 7584,
      "showing": 7585,
      "practical": 7586,
      "Buddhism": 7587,
      "measures": 7588,
      "comparison": 7589,
      "Language": 7590,
      "Qaeda": 7591,
      "cow": 7592,
      "pes": 7593,
      "crete": 7594,
      "Board": 7595,
      "covering": 7596,
      "physics": 7597,
      "exception": 7598,
      "articles": 7599,
      "Historical": 7600,
      "celebrated": 7601,
      "Walter": 7602,
      "Temple": 7603,
      "Roger": 7604,
      "Welsh": 7605,
      "daily": 7606,
      "rics": 7607,
      "sn": 7608,
      "zy": 7609,
      "igan": 7610,
      "antis": 7611,
      "formula": 7612,
      "axis": 7613,
      "onomy": 7614,
      "physicist": 7615,
      "permanent": 7616,
      "Napoleon": 7617,
      "cave": 7618,
      "cards": 7619,
      "hid": 7620,
      "ador": 7621,
      "mention": 7622,
      "compound": 7623,
      "Beach": 7624,
      "decade": 7625,
      "termine": 7626,
      "Ministry": 7627,
      "featuring": 7628,
      "styles": 7629,
      "Angola": 7630,
      "Standard": 7631,
      "hunting": 7632,
      "600": 7633,
      "Turing": 7634,
      "mous": 7635,
      "tens": 7636,
      "younger": 7637,
      "determine": 7638,
      "abo": 7639,
      "exerc": 7640,
      "monaster": 7641,
      "subs": 7642,
      "Adam": 7643,
      "association": 7644,
      "employment": 7645,
      "Golden": 7646,
      "Secretary": 7647,
      "trop": 7648,
      "eries": 7649,
      "stim": 7650,
      "polic": 7651,
      "Ass": 7652,
      "insula": 7653,
      "Isa": 7654,
      "critics": 7655,
      "chemistry": 7656,
      "goods": 7657,
      "anthrop": 7658,
      "balance": 7659,
      "Muslims": 7660,
      "candidate": 7661,
      "74": 7662,
      "Batt": 7663,
      "Clar": 7664,
      "Capp": 7665,
      "theme": 7666,
      "arith": 7667,
      "acet": 7668,
      "eman": 7669,
      "ario": 7670,
      "boron": 7671,
      "Spino": 7672,
      "13th": 7673,
      "statistics": 7674,
      "characteristics": 7675,
      "Achilles": 7676,
      "Relig": 7677,
      "Technology": 7678,
      "Industr": 7679,
      "orf": 7680,
      "beat": 7681,
      "serving": 7682,
      "metic": 7683,
      "movements": 7684,
      "Burg": 7685,
      "branches": 7686,
      "filled": 7687,
      "raise": 7688,
      "Christie": 7689,
      "explo": 7690,
      "consistent": 7691,
      "Bibliography": 7692,
      "arbitr": 7693,
      "Dur": 7694,
      "Rah": 7695,
      "Sa": 7696,
      "pine": 7697,
      "instruct": 7698,
      "opin": 7699,
      "feed": 7700,
      "founding": 7701,
      "Online": 7702,
      "passing": 7703,
      "processing": 7704,
      "faced": 7705,
      "Coast": 7706,
      "needs": 7707,
      "involves": 7708,
      "Palace": 7709,
      "strike": 7710,
      "Territ": 7711,
      "cricketer": 7712,
      "census": 7713,
      "dating": 7714,
      "wound": 7715,
      "alry": 7716,
      "selection": 7717,
      "istical": 7718,
      "solar": 7719,
      "pairs": 7720,
      "Boliv": 7721,
      "safety": 7722,
      "Sand": 7723,
      "infantry": 7724,
      "thet": 7725,
      "linked": 7726,
      "laid": 7727,
      "armies": 7728,
      "carrying": 7729,
      "Justice": 7730,
      "rapidly": 7731,
      "Bangladesh": 7732,
      "Good": 7733,
      "Goth": 7734,
      "IN": 7735,
      "Sox": 7736,
      "jum": 7737,
      "oes": 7738,
      "sand": 7739,
      "ched": 7740,
      "osph": 7741,
      "hisatt": 7742,
      "drum": 7743,
      "simpl": 7744,
      "continent": 7745,
      "Prim": 7746,
      "decline": 7747,
      "prophe": 7748,
      "fundamental": 7749,
      "Studies": 7750,
      "paintings": 7751,
      "abandoned": 7752,
      "Fresnel": 7753,
      "ET": 7754,
      "Jac": 7755,
      "RAM": 7756,
      "hun": 7757,
      "touch": 7758,
      "coordin": 7759,
      "identify": 7760,
      "surrender": 7761,
      "Bridge": 7762,
      "courts": 7763,
      "runner": 7764,
      "label": 7765,
      "eyes": 7766,
      "Classical": 7767,
      "Denmark": 7768,
      "adelph": 7769,
      "velocity": 7770,
      "Blo": 7771,
      "trian": 7772,
      "cultures": 7773,
      "Agass": 7774,
      "purposes": 7775,
      "gradually": 7776,
      "storage": 7777,
      "Hot": 7778,
      "Spr": 7779,
      "dys": 7780,
      "hair": 7781,
      "imag": 7782,
      "Third": 7783,
      "indigenous": 7784,
      "persons": 7785,
      "audio": 7786,
      "principles": 7787,
      "Spinoza": 7788,
      "73": 7789,
      "Jr": 7790,
      "pent": 7791,
      "produces": 7792,
      "ificial": 7793,
      "references": 7794,
      "protected": 7795,
      "activist": 7796,
      "astru": 7797,
      "measured": 7798,
      "racing": 7799,
      "ROM": 7800,
      "atmosphere": 7801,
      "destruction": 7802,
      "Benedict": 7803,
      "Hitch": 7804,
      "Kabul": 7805,
      "bird": 7806,
      "editor": 7807,
      "depos": 7808,
      "withdraw": 7809,
      "ipel": 7810,
      "astrol": 7811,
      "12th": 7812,
      "depicted": 7813,
      "Spider": 7814,
      "ographer": 7815,
      "Burk": 7816,
      "layer": 7817,
      "category": 7818,
      "intelligence": 7819,
      "toxic": 7820,
      "Pennsyl": 7821,
      "Such": 7822,
      "Tre": 7823,
      "pig": 7824,
      "watch": 7825,
      "weather": 7826,
      "Newton": 7827,
      "varieties": 7828,
      "explained": 7829,
      "join": 7830,
      "dynam": 7831,
      "Organization": 7832,
      "crisis": 7833,
      "Never": 7834,
      "Seven": 7835,
      "parent": 7836,
      "tourn": 7837,
      "heard": 7838,
      "feet": 7839,
      "Victoria": 7840,
      "opposite": 7841,
      "Town": 7842,
      "agree": 7843,
      "soil": 7844,
      "corn": 7845,
      "Univers": 7846,
      "Johann": 7847,
      "divisions": 7848,
      "gger": 7849,
      "treaty": 7850,
      "graphic": 7851,
      "documents": 7852,
      "rarely": 7853,
      "Aur": 7854,
      "Jones": 7855,
      "Sciences": 7856,
      "fresh": 7857,
      "hospital": 7858,
      "winners": 7859,
      "isd": 7860,
      "seasons": 7861,
      "why": 7862,
      "abled": 7863,
      "End": 7864,
      "college": 7865,
      "doing": 7866,
      "What": 7867,
      "goes": 7868,
      "establishment": 7869,
      "ordinary": 7870,
      "Wilson": 7871,
      "Pennsylvania": 7872,
      "Fame": 7873,
      "Kenn": 7874,
      "Lo": 7875,
      "RS": 7876,
      "bn": 7877,
      "ropolit": 7878,
      "roots": 7879,
      "expect": 7880,
      "writes": 7881,
      "headquarters": 7882,
      "physician": 7883,
      "Philadelph": 7884,
      "Micros": 7885,
      "details": 7886,
      "transferred": 7887,
      "mart": 7888,
      "sulf": 7889,
      "avian": 7890,
      "explan": 7891,
      "patients": 7892,
      "companied": 7893,
      "assumed": 7894,
      "Korean": 7895,
      "Microsoft": 7896,
      "Kr": 7897,
      "Pass": 7898,
      "sin": 7899,
      "ampl": 7900,
      "fled": 7901,
      "visible": 7902,
      "1903": 7903,
      "Plan": 7904,
      "Imperial": 7905,
      "Romans": 7906,
      "vocal": 7907,
      "fashion": 7908,
      "Hal": 7909,
      "Kent": 7910,
      "Mike": 7911,
      "pione": 7912,
      "reform": 7913,
      "iso": 7914,
      "aya": 7915,
      "disk": 7916,
      "disambig": 7917,
      "ASC": 7918,
      "shortly": 7919,
      "survived": 7920,
      "variant": 7921,
      "Carolina": 7922,
      "NFL": 7923,
      "Florida": 7924,
      "Gates": 7925,
      "Power": 7926,
      "Wat": 7927,
      "diverse": 7928,
      "rical": 7929,
      "ishment": 7930,
      "ession": 7931,
      "attached": 7932,
      "Germans": 7933,
      "incident": 7934,
      "Count": 7935,
      "reducing": 7936,
      "morph": 7937,
      "Control": 7938,
      "BNP": 7939,
      "aes": 7940,
      "fine": 7941,
      "gate": 7942,
      "aman": 7943,
      "agar": 7944,
      "mental": 7945,
      "ameter": 7946,
      "attended": 7947,
      "biology": 7948,
      "banks": 7949,
      "check": 7950,
      "Indones": 7951,
      "Colon": 7952,
      "Allen": 7953,
      "concerns": 7954,
      "satell": 7955,
      "Francisco": 7956,
      "Baghd": 7957,
      "disambiguation": 7958,
      "Cros": 7959,
      "Dor": 7960,
      "Mount": 7961,
      "ette": 7962,
      "genus": 7963,
      "Works": 7964,
      "Christo": 7965,
      "Romanian": 7966,
      "Barbad": 7967,
      "1905": 7968,
      "eye": 7969,
      "preserved": 7970,
      "platform": 7971,
      "Fas": 7972,
      "Sof": 7973,
      "eigh": 7974,
      "fans": 7975,
      "ée": 7976,
      "accompanied": 7977,
      "ura": 7978,
      "prohib": 7979,
      "affil": 7980,
      "generated": 7981,
      "Beg": 7982,
      "missiles": 7983,
      "classification": 7984,
      "alkali": 7985,
      "copies": 7986,
      "graphics": 7987,
      "geometry": 7988,
      "Mov": 7989,
      "Sources": 7990,
      "egg": 7991,
      "gel": 7992,
      "tools": 7993,
      "adult": 7994,
      "deed": 7995,
      "apse": 7996,
      "comb": 7997,
      "overty": 7998,
      "Arsen": 7999,
      "15th": 8000,
      "locations": 8001,
      "Administ": 8002,
      "Admir": 8003,
      "bibl": 8004,
      "viewed": 8005,
      "accident": 8006,
      "declined": 8007,
      "dropped": 8008,
      "abortion": 8009,
      "Catal": 8010,
      "IT": 8011,
      "rational": 8012,
      "enburg": 8013,
      "amer": 8014,
      "uncertain": 8015,
      "upun": 8016,
      "acknow": 8017,
      "eval": 8018,
      "retired": 8019,
      "trait": 8020,
      "novels": 8021,
      "Baku": 8022,
      "71": 8023,
      "Fal": 8024,
      "cen": 8025,
      "library": 8026,
      "perce": 8027,
      "cold": 8028,
      "ictional": 8029,
      "periods": 8030,
      "characterized": 8031,
      "surviving": 8032,
      "Defense": 8033,
      "chapter": 8034,
      "Philadelphia": 8035,
      "Bach": 8036,
      "Eston": 8037,
      "vac": 8038,
      "zen": 8039,
      "origins": 8040,
      "chip": 8041,
      "emen": 8042,
      "commod": 8043,
      "ripp": 8044,
      "partly": 8045,
      "ciation": 8046,
      "brothers": 8047,
      "Belize": 8048,
      "emitic": 8049,
      "losing": 8050,
      "Examples": 8051,
      "astructure": 8052,
      "Cu": 8053,
      "Hu": 8054,
      "Na": 8055,
      "rey": 8056,
      "reactions": 8057,
      "acre": 8058,
      "chart": 8059,
      "aga": 8060,
      "strict": 8061,
      "owner": 8062,
      "appeal": 8063,
      "existed": 8064,
      "sample": 8065,
      "ammonia": 8066,
      "ropolitan": 8067,
      "8th": 8068,
      "Cer": 8069,
      "DC": 8070,
      "bones": 8071,
      "uous": 8072,
      "retain": 8073,
      "proportion": 8074,
      "Head": 8075,
      "argues": 8076,
      "supposed": 8077,
      "Country": 8078,
      "Steve": 8079,
      "street": 8080,
      "preferred": 8081,
      "Hit": 8082,
      "Slav": 8083,
      "wrest": 8084,
      "icians": 8085,
      "emot": 8086,
      "ongo": 8087,
      "server": 8088,
      "poll": 8089,
      "tainment": 8090,
      "matches": 8091,
      "acceler": 8092,
      "cavalry": 8093,
      "Crowley": 8094,
      "Cop": 8095,
      "revers": 8096,
      "plot": 8097,
      "therapy": 8098,
      "neither": 8099,
      "earned": 8100,
      "signs": 8101,
      "originated": 8102,
      "possibility": 8103,
      "Basque": 8104,
      "achieve": 8105,
      "fellow": 8106,
      "universal": 8107,
      "Frederick": 8108,
      "Hitchcock": 8109,
      "Hun": 8110,
      "Liter": 8111,
      "encounter": 8112,
      "amb": 8113,
      "continental": 8114,
      "armour": 8115,
      "reduction": 8116,
      "width": 8117,
      "researchers": 8118,
      "coastal": 8119,
      "mountains": 8120,
      "noble": 8121,
      "jurisd": 8122,
      "Digital": 8123,
      "Lewis": 8124,
      "gence": 8125,
      "leagues": 8126,
      "aced": 8127,
      "verte": 8128,
      "superior": 8129,
      "clar": 8130,
      "sover": 8131,
      "Greeks": 8132,
      "aurus": 8133,
      "soul": 8134,
      "1920s": 8135,
      "escape": 8136,
      "Chem": 8137,
      "Dun": 8138,
      "Mand": 8139,
      "Sports": 8140,
      "thedr": 8141,
      "umen": 8142,
      "manner": 8143,
      "Unlike": 8144,
      "Then": 8145,
      "extension": 8146,
      "foundation": 8147,
      "painting": 8148,
      "massive": 8149,
      "forests": 8150,
      "substance": 8151,
      "random": 8152,
      "Det": 8153,
      "Ga": 8154,
      "Ku": 8155,
      "cers": 8156,
      "fired": 8157,
      "insect": 8158,
      "icial": 8159,
      "chron": 8160,
      "scop": 8161,
      "ricts": 8162,
      "legit": 8163,
      "Spir": 8164,
      "Nazi": 8165,
      "amounts": 8166,
      "Elizabeth": 8167,
      "ASCII": 8168,
      "Ful": 8169,
      "Scient": 8170,
      "lu": 8171,
      "none": 8172,
      "tall": 8173,
      "youth": 8174,
      "config": 8175,
      "abbrevi": 8176,
      "deriv": 8177,
      "cession": 8178,
      "Joe": 8179,
      "opera": 8180,
      "explos": 8181,
      "consisted": 8182,
      "criticism": 8183,
      "symbols": 8184,
      "hypothesis": 8185,
      "expedition": 8186,
      "Every": 8187,
      "Lan": 8188,
      "yle": 8189,
      "conversion": 8190,
      "merch": 8191,
      "worn": 8192,
      "asser": 8193,
      "variation": 8194,
      "Ada": 8195,
      "recognition": 8196,
      "resolution": 8197,
      "doctrine": 8198,
      "Baháʼí": 8199,
      "bronze": 8200,
      "cort": 8201,
      "hence": 8202,
      "males": 8203,
      "walk": 8204,
      "adi": 8205,
      "sections": 8206,
      "enses": 8207,
      "offers": 8208,
      "refuge": 8209,
      "1904": 8210,
      "explicit": 8211,
      "electronic": 8212,
      "dimensional": 8213,
      "Pu": 8214,
      "fest": 8215,
      "esh": 8216,
      "utenant": 8217,
      "shore": 8218,
      "load": 8219,
      "Peace": 8220,
      "historically": 8221,
      "representing": 8222,
      "hosted": 8223,
      "Croat": 8224,
      "Die": 8225,
      "Hugh": 8226,
      "Marg": 8227,
      "Non": 8228,
      "Ret": 8229,
      "oh": 8230,
      "wick": 8231,
      "seconds": 8232,
      "designer": 8233,
      "1909": 8234,
      "changing": 8235,
      "prisoners": 8236,
      "hetamine": 8237,
      "Confederate": 8238,
      "Tennes": 8239,
      "playwright": 8240,
      "Saf": 8241,
      "nanda": 8242,
      "ube": 8243,
      "Instead": 8244,
      "collected": 8245,
      "crime": 8246,
      "Phill": 8247,
      "solved": 8248,
      "restaur": 8249,
      "grees": 8250,
      "accused": 8251,
      "learned": 8252,
      "Harvard": 8253,
      "Federation": 8254,
      "commission": 8255,
      "ancest": 8256,
      "shaped": 8257,
      "crops": 8258,
      "Jeff": 8259,
      "Burkina": 8260,
      "sight": 8261,
      "Ānanda": 8262,
      "recept": 8263,
      "constell": 8264,
      "otes": 8265,
      "shop": 8266,
      "understand": 8267,
      "News": 8268,
      "Short": 8269,
      "1906": 8270,
      "explain": 8271,
      "musicians": 8272,
      "functional": 8273,
      "percentage": 8274,
      "Buil": 8275,
      "Rena": 8276,
      "Syn": 8277,
      "Tan": 8278,
      "hang": 8279,
      "rural": 8280,
      "ão": 8281,
      "thin": 8282,
      "ented": 8283,
      "acles": 8284,
      "olas": 8285,
      "verb": 8286,
      "neo": 8287,
      "compass": 8288,
      "twelve": 8289,
      "tourism": 8290,
      "poetry": 8291,
      "electrical": 8292,
      "Bavaria": 8293,
      "Ay": 8294,
      "Lov": 8295,
      "brom": 8296,
      "winner": 8297,
      "zona": 8298,
      "ifies": 8299,
      "Agripp": 8300,
      "philosophical": 8301,
      "Tennessee": 8302,
      "tt": 8303,
      "items": 8304,
      "stret": 8305,
      "degrees": 8306,
      "phil": 8307,
      "arsenic": 8308,
      "cert": 8309,
      "specim": 8310,
      "Engine": 8311,
      "Championship": 8312,
      "compatible": 8313,
      "policies": 8314,
      "Home": 8315,
      "wr": 8316,
      "ivered": 8317,
      "shar": 8318,
      "rank": 8319,
      "efficient": 8320,
      "serves": 8321,
      "variations": 8322,
      "senior": 8323,
      "committed": 8324,
      "consumption": 8325,
      "universities": 8326,
      "BIOS": 8327,
      "Anthony": 8328,
      "conquered": 8329,
      "Natural": 8330,
      "symmet": 8331,
      "Has": 8332,
      "Tony": 8333,
      "las": 8334,
      "iny": 8335,
      "inser": 8336,
      "icon": 8337,
      "amateur": 8338,
      "emiss": 8339,
      "boot": 8340,
      "curren": 8341,
      "inson": 8342,
      "uble": 8343,
      "musician": 8344,
      "skill": 8345,
      "eases": 8346,
      "soft": 8347,
      "opportunity": 8348,
      "800": 8349,
      "Lith": 8350,
      "thal": 8351,
      "tomb": 8352,
      "exceed": 8353,
      "shif": 8354,
      "grade": 8355,
      "driven": 8356,
      "Once": 8357,
      "warm": 8358,
      "classic": 8359,
      "headed": 8360,
      "manufacturing": 8361,
      "benefit": 8362,
      "mixture": 8363,
      "budget": 8364,
      "Kir": 8365,
      "Low": 8366,
      "noun": 8367,
      "dual": 8368,
      "grown": 8369,
      "domain": 8370,
      "statue": 8371,
      "representation": 8372,
      "promoted": 8373,
      "weapon": 8374,
      "controversial": 8375,
      "Algeria": 8376,
      "tanks": 8377,
      "eign": 8378,
      "varies": 8379,
      "brick": 8380,
      "ologists": 8381,
      "identical": 8382,
      "Brig": 8383,
      "14th": 8384,
      "oxide": 8385,
      "1902": 8386,
      "Web": 8387,
      "sixth": 8388,
      "femin": 8389,
      "Zeus": 8390,
      "institution": 8391,
      "emitism": 8392,
      "floor": 8393,
      "manuscript": 8394,
      "phrase": 8395,
      "Faso": 8396,
      "Mach": 8397,
      "crow": 8398,
      "ili": 8399,
      "adic": 8400,
      "seus": 8401,
      "abor": 8402,
      "diseases": 8403,
      "colors": 8404,
      "interior": 8405,
      "Prin": 8406,
      "Pho": 8407,
      "enegger": 8408,
      "arranged": 8409,
      "Agric": 8410,
      "Schwarzenegger": 8411,
      "upuncture": 8412,
      "Astr": 8413,
      "Rights": 8414,
      "ez": 8415,
      "eing": 8416,
      "want": 8417,
      "your": 8418,
      "reality": 8419,
      "tole": 8420,
      "accompl": 8421,
      "chronic": 8422,
      "agen": 8423,
      "boards": 8424,
      "interface": 8425,
      "extens": 8426,
      "Ambro": 8427,
      "Grant": 8428,
      "aneous": 8429,
      "indicated": 8430,
      "pitcher": 8431,
      "Yankees": 8432,
      "Dom": 8433,
      "fal": 8434,
      "atus": 8435,
      "stack": 8436,
      "pled": 8437,
      "excess": 8438,
      "ource": 8439,
      "Station": 8440,
      "broken": 8441,
      "Trad": 8442,
      "investment": 8443,
      "absence": 8444,
      "machines": 8445,
      "Baham": 8446,
      "Defence": 8447,
      "Members": 8448,
      "tells": 8449,
      "substantial": 8450,
      "Hou": 8451,
      "Hind": 8452,
      "Ron": 8453,
      "ju": 8454,
      "poverty": 8455,
      "compress": 8456,
      "spot": 8457,
      "delivered": 8458,
      "equation": 8459,
      "orbital": 8460,
      "Rahman": 8461,
      "EP": 8462,
      "Ros": 8463,
      "pit": 8464,
      "outer": 8465,
      "advent": 8466,
      "etime": 8467,
      "engaged": 8468,
      "Christmas": 8469,
      "membership": 8470,
      "Mormon": 8471,
      "contributions": 8472,
      "interpreted": 8473,
      "molecular": 8474,
      "Olympic": 8475,
      "antibiotics": 8476,
      "83": 8477,
      "Kal": 8478,
      "Kuro": 8479,
      "Lar": 8480,
      "Lim": 8481,
      "Tun": 8482,
      "ais": 8483,
      "iat": 8484,
      "ocean": 8485,
      "vant": 8486,
      "wire": 8487,
      "resembl": 8488,
      "phal": 8489,
      "awa": 8490,
      "carriers": 8491,
      "cultiv": 8492,
      "markets": 8493,
      "nitrogen": 8494,
      "costs": 8495,
      "observations": 8496,
      "powered": 8497,
      "algorithms": 8498,
      "citizen": 8499,
      "Profess": 8500,
      "reputation": 8501,
      "mounted": 8502,
      "Domin": 8503,
      "sper": 8504,
      "wart": 8505,
      "cha": 8506,
      "channel": 8507,
      "ager": 8508,
      "pregn": 8509,
      "request": 8510,
      "Method": 8511,
      "horizon": 8512,
      "Israeli": 8513,
      "Baltim": 8514,
      "constitu": 8515,
      "regularly": 8516,
      "Aarhus": 8517,
      "Bede": 8518,
      "Agassi": 8519,
      "Spirit": 8520,
      "1000": 8521,
      "Fair": 8522,
      "oo": 8523,
      "thy": 8524,
      "ask": 8525,
      "shut": 8526,
      "bled": 8527,
      "posure": 8528,
      "scar": 8529,
      "scape": 8530,
      "commem": 8531,
      "iversary": 8532,
      "Centre": 8533,
      "auri": 8534,
      "Media": 8535,
      "concerned": 8536,
      "rotation": 8537,
      "neighbour": 8538,
      "secure": 8539,
      "criminal": 8540,
      "concepts": 8541,
      "Pierre": 8542,
      "Sign": 8543,
      "Vill": 8544,
      "dress": 8545,
      "pseud": 8546,
      "replace": 8547,
      "rika": 8548,
      "astro": 8549,
      "balls": 8550,
      "Leon": 8551,
      "districts": 8552,
      "decay": 8553,
      "radical": 8554,
      "1907": 8555,
      "chester": 8556,
      "Spec": 8557,
      "judge": 8558,
      "promise": 8559,
      "mechanical": 8560,
      "AIM": 8561,
      "executed": 8562,
      "Stock": 8563,
      "Renaissance": 8564,
      "Baltimore": 8565,
      "Luc": 8566,
      "Rav": 8567,
      "cattle": 8568,
      "diet": 8569,
      "fur": 8570,
      "routes": 8571,
      "aret": 8572,
      "boat": 8573,
      "Security": 8574,
      "fraction": 8575,
      "clean": 8576,
      "heads": 8577,
      "Earl": 8578,
      "campus": 8579,
      "demonstrated": 8580,
      "BBA": 8581,
      "Mountains": 8582,
      "Caesar": 8583,
      "Baghdad": 8584,
      "Pot": 8585,
      "tolic": 8586,
      "stances": 8587,
      "abund": 8588,
      "odies": 8589,
      "actin": 8590,
      "prices": 8591,
      "Arc": 8592,
      "Stadium": 8593,
      "pool": 8594,
      "pleas": 8595,
      "airline": 8596,
      "signals": 8597,
      "enny": 8598,
      "Andor": 8599,
      "characteristic": 8600,
      "Mean": 8601,
      "Atlas": 8602,
      "logic": 8603,
      "Bonds": 8604,
      "Family": 8605,
      "Gord": 8606,
      "Ibn": 8607,
      "Oh": 8608,
      "eat": 8609,
      "compil": 8610,
      "intent": 8611,
      "hydr": 8612,
      "Braves": 8613,
      "passage": 8614,
      "animation": 8615,
      "albums": 8616,
      "exec": 8617,
      "promote": 8618,
      "behavi": 8619,
      "Current": 8620,
      "BDSM": 8621,
      "Field": 8622,
      "GB": 8623,
      "Late": 8624,
      "oon": 8625,
      "sop": 8626,
      "ensure": 8627,
      "valley": 8628,
      "About": 8629,
      "Therefore": 8630,
      "divine": 8631,
      "bonds": 8632,
      "salt": 8633,
      "conductor": 8634,
      "pick": 8635,
      "renew": 8636,
      "itic": 8637,
      "elian": 8638,
      "chose": 8639,
      "approval": 8640,
      "iant": 8641,
      "cloth": 8642,
      "oven": 8643,
      "poison": 8644,
      "lied": 8645,
      "referring": 8646,
      "logical": 8647,
      "prompt": 8648,
      "astronomy": 8649,
      "767": 8650,
      "patterns": 8651,
      "passenger": 8652,
      "satisf": 8653,
      "96": 8654,
      "Bart": 8655,
      "Line": 8656,
      "Mi": 8657,
      "pup": 8658,
      "send": 8659,
      "vul": 8660,
      "anthem": 8661,
      "retained": 8662,
      "orter": 8663,
      "roles": 8664,
      "comic": 8665,
      "suff": 8666,
      "bling": 8667,
      "intention": 8668,
      "cook": 8669,
      "mineral": 8670,
      "returning": 8671,
      "closer": 8672,
      "vertical": 8673,
      "affairs": 8674,
      "assistance": 8675,
      "photograph": 8676,
      "looking": 8677,
      "ceremony": 8678,
      "Jord": 8679,
      "Py": 8680,
      "culation": 8681,
      "file": 8682,
      "jug": 8683,
      "°C": 8684,
      "aked": 8685,
      "membran": 8686,
      "Minor": 8687,
      "stored": 8688,
      "sawa": 8689,
      "presidential": 8690,
      "finding": 8691,
      "criticized": 8692,
      "Arizona": 8693,
      "Hollywood": 8694,
      "Tar": 8695,
      "bil": 8696,
      "bits": 8697,
      "yah": 8698,
      "theastern": 8699,
      "enge": 8700,
      "ifican": 8701,
      "partial": 8702,
      "anything": 8703,
      "Prote": 8704,
      "factory": 8705,
      "funding": 8706,
      "Baroque": 8707,
      "Furthermore": 8708,
      "establishments": 8709,
      "huge": 8710,
      "occasionally": 8711,
      "pronounced": 8712,
      "neutral": 8713,
      "ficiency": 8714,
      "Nevertheless": 8715,
      "Crosby": 8716,
      "Kurosawa": 8717,
      "ificance": 8718,
      "Front": 8719,
      "H2": 8720,
      "Us": 8721,
      "kid": 8722,
      "lad": 8723,
      "tissue": 8724,
      "inscri": 8725,
      "aber": 8726,
      "sod": 8727,
      "performing": 8728,
      "aug": 8729,
      "partner": 8730,
      "Ther": 8731,
      "insur": 8732,
      "11th": 8733,
      "openhau": 8734,
      "justice": 8735,
      "wheel": 8736,
      "cyclop": 8737,
      "Operation": 8738,
      "thedral": 8739,
      "ABBA": 8740,
      "Hard": 8741,
      "Ren": 8742,
      "hill": 8743,
      "ozo": 8744,
      "stating": 8745,
      "oty": 8746,
      "appre": 8747,
      "scored": 8748,
      "announ": 8749,
      "Ammon": 8750,
      "distinction": 8751,
      "Show": 8752,
      "claiming": 8753,
      "Schopenhau": 8754,
      "Palest": 8755,
      "nickn": 8756,
      "Labour": 8757,
      "implemented": 8758,
      "Vienna": 8759,
      "Mult": 8760,
      "Ptole": 8761,
      "catch": 8762,
      "mers": 8763,
      "rations": 8764,
      "uz": 8765,
      "inch": 8766,
      "ingly": 8767,
      "stages": 8768,
      "contest": 8769,
      "cription": 8770,
      "arrival": 8771,
      "solutions": 8772,
      "guil": 8773,
      "connections": 8774,
      "keeping": 8775,
      "Finland": 8776,
      "Aege": 8777,
      "message": 8778,
      "appropriate": 8779,
      "Gins": 8780,
      "Had": 8781,
      "Harr": 8782,
      "Sid": 8783,
      "icide": 8784,
      "ott": 8785,
      "Arn": 8786,
      "limits": 8787,
      "ictionary": 8788,
      "complexity": 8789,
      "Austro": 8790,
      "Commonwealth": 8791,
      "opponent": 8792,
      "narrative": 8793,
      "tropical": 8794,
      "Fred": 8795,
      "hits": 8796,
      "nik": 8797,
      "Indo": 8798,
      "Americ": 8799,
      "yllium": 8800,
      "Guard": 8801,
      "educational": 8802,
      "appearances": 8803,
      "Laure": 8804,
      "strip": 8805,
      "Massoud": 8806,
      "charges": 8807,
      "commissioned": 8808,
      "Political": 8809,
      "acknowled": 8810,
      "Cave": 8811,
      "Culture": 8812,
      "FI": 8813,
      "SC": 8814,
      "orches": 8815,
      "asius": 8816,
      "advis": 8817,
      "illness": 8818,
      "meat": 8819,
      "predominant": 8820,
      "minute": 8821,
      "Convention": 8822,
      "Work": 8823,
      "warfare": 8824,
      "Arabs": 8825,
      "defence": 8826,
      "relationships": 8827,
      "concentrated": 8828,
      "ranging": 8829,
      "portrayed": 8830,
      "Schopenhauer": 8831,
      "Rud": 8832,
      "ativity": 8833,
      "rout": 8834,
      "stad": 8835,
      "elite": 8836,
      "phosph": 8837,
      "column": 8838,
      "themes": 8839,
      "substit": 8840,
      "Again": 8841,
      "isolated": 8842,
      "Ambrose": 8843,
      "Hans": 8844,
      "cm": 8845,
      "irot": 8846,
      "rose": 8847,
      "ava": 8848,
      "illin": 8849,
      "idepress": 8850,
      "annually": 8851,
      "borders": 8852,
      "buses": 8853,
      "Corps": 8854,
      "propag": 8855,
      "truth": 8856,
      "samples": 8857,
      "experimental": 8858,
      "Review": 8859,
      "hundreds": 8860,
      "bipolar": 8861,
      "franchise": 8862,
      "Barbados": 8863,
      "Around": 8864,
      "Hz": 8865,
      "Lie": 8866,
      "Set": 8867,
      "Upon": 8868,
      "faster": 8869,
      "oys": 8870,
      "vit": 8871,
      "thyl": 8872,
      "export": 8873,
      "Anim": 8874,
      "Altern": 8875,
      "flood": 8876,
      "Afonso": 8877,
      "captain": 8878,
      "simult": 8879,
      "professor": 8880,
      "transportation": 8881,
      "Mission": 8882,
      "cruisers": 8883,
      "circuit": 8884,
      "Ginsberg": 8885,
      "93": 8886,
      "Lady": 8887,
      "Orange": 8888,
      "intern": 8889,
      "arter": 8890,
      "administer": 8891,
      "struck": 8892,
      "radar": 8893,
      "caster": 8894,
      "subjects": 8895,
      "indicates": 8896,
      "doub": 8897,
      "Global": 8898,
      "documentary": 8899,
      "liberal": 8900,
      "Saxon": 8901,
      "bach": 8902,
      "cros": 8903,
      "kara": 8904,
      "lists": 8905,
      "theolog": 8906,
      "unless": 8907,
      "etary": 8908,
      "Environment": 8909,
      "cripts": 8910,
      "breaking": 8911,
      "begun": 8912,
      "mechanism": 8913,
      "AFL": 8914,
      "committee": 8915,
      "task": 8916,
      "cott": 8917,
      "installed": 8918,
      "Sunday": 8919,
      "Ety": 8920,
      "Fish": 8921,
      "Kel": 8922,
      "Santa": 8923,
      "Tay": 8924,
      "nie": 8925,
      "alliance": 8926,
      "shift": 8927,
      "glas": 8928,
      "explor": 8929,
      "Neo": 8930,
      "initi": 8931,
      "Medic": 8932,
      "pianist": 8933,
      "Athan": 8934,
      "covers": 8935,
      "vous": 8936,
      "ensu": 8937,
      "alum": 8938,
      "altit": 8939,
      "aph": 8940,
      "exposed": 8941,
      "artificial": 8942,
      "essay": 8943,
      "Stone": 8944,
      "1600": 8945,
      "breast": 8946,
      "bodhisatt": 8947,
      "questions": 8948,
      "restricted": 8949,
      "suitable": 8950,
      "Karl": 8951,
      "Economic": 8952,
      "dramat": 8953,
      "Crown": 8954,
      "Six": 8955,
      "eu": 8956,
      "fold": 8957,
      "theatre": 8958,
      "edited": 8959,
      "Independence": 8960,
      "mentary": 8961,
      "nostic": 8962,
      "Whit": 8963,
      "establishing": 8964,
      "influences": 8965,
      "clearly": 8966,
      "ruption": 8967,
      "candidates": 8968,
      "purchased": 8969,
      "Similarly": 8970,
      "Call": 8971,
      "EE": 8972,
      "Food": 8973,
      "Ker": 8974,
      "Mars": 8975,
      "iop": 8976,
      "lob": 8977,
      "tren": 8978,
      "itis": 8979,
      "unlike": 8980,
      "trig": 8981,
      "mentions": 8982,
      "conscious": 8983,
      "offensive": 8984,
      "Conference": 8985,
      "supporters": 8986,
      "Anderson": 8987,
      "easy": 8988,
      "networks": 8989,
      "Antig": 8990,
      "Simon": 8991,
      "integrated": 8992,
      "Direct": 8993,
      "Philippines": 8994,
      "Windows": 8995,
      "binding": 8996,
      "sovereign": 8997,
      "97": 8998,
      "Father": 8999,
      "MA": 9000,
      "Say": 9001,
      "VA": 9002,
      "mamm": 9003,
      "vacc": 9004,
      "recru": 9005,
      "unk": 9006,
      "waste": 9007,
      "drinking": 9008,
      "transmission": 9009,
      "legacy": 9010,
      "lasted": 9011,
      "patri": 9012,
      "detailed": 9013,
      "Network": 9014,
      "infrastructure": 9015,
      "Rol": 9016,
      "Sab": 9017,
      "bay": 9018,
      "bio": 9019,
      "rhy": 9020,
      "reh": 9021,
      "apped": 9022,
      "exposure": 9023,
      "artistic": 9024,
      "awards": 9025,
      "Author": 9026,
      "intermedi": 9027,
      "lose": 9028,
      "describing": 9029,
      "Syria": 9030,
      "accum": 9031,
      "offering": 9032,
      "females": 9033,
      "teacher": 9034,
      "Region": 9035,
      "hijack": 9036,
      "scriptions": 9037,
      "palace": 9038,
      "Douglas": 9039,
      "Bishop": 9040,
      "Mitc": 9041,
      "TC": 9042,
      "cous": 9043,
      "waves": 9044,
      "plas": 9045,
      "Init": 9046,
      "genes": 9047,
      "Encyclop": 9048,
      "airport": 9049,
      "web": 9050,
      "longest": 9051,
      "Poly": 9052,
      "patron": 9053,
      "1895": 9054,
      "labour": 9055,
      "trying": 9056,
      "concern": 9057,
      "voted": 9058,
      "Poirot": 9059,
      "implementation": 9060,
      "nucleus": 9061,
      "Bit": 9062,
      "Dick": 9063,
      "cub": 9064,
      "jac": 9065,
      "uations": 9066,
      "yellow": 9067,
      "cht": 9068,
      "aders": 9069,
      "resident": 9070,
      "dismiss": 9071,
      "posit": 9072,
      "spar": 9073,
      "significance": 9074,
      "structural": 9075,
      "receiving": 9076,
      "store": 9077,
      "Southeast": 9078,
      "700": 9079,
      "Aston": 9080,
      "Cir": 9081,
      "Kings": 9082,
      "Last": 9083,
      "rin": 9084,
      "inspir": 9085,
      "edes": 9086,
      "esp": 9087,
      "lets": 9088,
      "entit": 9089,
      "decess": 9090,
      "Anax": 9091,
      "relief": 9092,
      "Trade": 9093,
      "depends": 9094,
      "1898": 9095,
      "Week": 9096,
      "Acts": 9097,
      "cule": 9098,
      "photograp": 9099,
      "varying": 9100,
      "Philosophy": 9101,
      "adaptation": 9102,
      "exactly": 9103,
      "Tradition": 9104,
      "Bast": 9105,
      "Fall": 9106,
      "Nik": 9107,
      "Wes": 9108,
      "cable": 9109,
      "diver": 9110,
      "fo": 9111,
      "siege": 9112,
      "wine": 9113,
      "ía": 9114,
      "enh": 9115,
      "clock": 9116,
      "compreh": 9117,
      "Aragon": 9118,
      "partially": 9119,
      "predecess": 9120,
      "mining": 9121,
      "hyper": 9122,
      "Switzer": 9123,
      "predict": 9124,
      "distributed": 9125,
      "Railway": 9126,
      "Ahmad": 9127,
      "Summer": 9128,
      "Province": 9129,
      "Kyi": 9130,
      "Jacob": 9131,
      "Freedom": 9132,
      "Gil": 9133,
      "Rab": 9134,
      "nus": 9135,
      "theor": 9136,
      "revenue": 9137,
      "seed": 9138,
      "ulating": 9139,
      "resid": 9140,
      "avia": 9141,
      "trained": 9142,
      "amphetamine": 9143,
      "governments": 9144,
      "persu": 9145,
      "ikh": 9146,
      "Within": 9147,
      "Harry": 9148,
      "difficulty": 9149,
      "drawing": 9150,
      "performances": 9151,
      "squad": 9152,
      "sleep": 9153,
      "intellectual": 9154,
      "Anatolia": 9155,
      "Switzerland": 9156,
      "92": 9157,
      "9th": 9158,
      "Aus": 9159,
      "IP": 9160,
      "KB": 9161,
      "Oct": 9162,
      "bicy": 9163,
      "dish": 9164,
      "impossible": 9165,
      "intens": 9166,
      "Advent": 9167,
      "1899": 9168,
      "Medal": 9169,
      "hydrox": 9170,
      "APL": 9171,
      "housing": 9172,
      "beliefs": 9173,
      "dispute": 9174,
      "Aaron": 9175,
      "Saturn": 9176,
      "Korea": 9177,
      "vessels": 9178,
      "immigrants": 9179,
      "Aurang": 9180,
      "Fa": 9181,
      "Hand": 9182,
      "Night": 9183,
      "Sak": 9184,
      "aque": 9185,
      "bag": 9186,
      "rif": 9187,
      "lyrics": 9188,
      "complic": 9189,
      "thermal": 9190,
      "spin": 9191,
      "engines": 9192,
      "memo": 9193,
      "armoured": 9194,
      "moves": 9195,
      "Suu": 9196,
      "votes": 9197,
      "variants": 9198,
      "Lithuan": 9199,
      "Diam": 9200,
      "Jacqu": 9201,
      "Nich": 9202,
      "OR": 9203,
      "tet": 9204,
      "ream": 9205,
      "atab": 9206,
      "adults": 9207,
      "consecut": 9208,
      "kee": 9209,
      "desire": 9210,
      "transmit": 9211,
      "generate": 9212,
      "porter": 9213,
      "publicly": 9214,
      "2000s": 9215,
      "interests": 9216,
      "spoke": 9217,
      "passengers": 9218,
      "Business": 9219,
      "descendants": 9220,
      "subsid": 9221,
      "Kennedy": 9222,
      "Gordon": 9223,
      "sodium": 9224,
      "Bry": 9225,
      "Kur": 9226,
      "Sic": 9227,
      "bol": 9228,
      "gang": 9229,
      "witz": 9230,
      "toler": 9231,
      "condem": 9232,
      "trip": 9233,
      "neck": 9234,
      "Anal": 9235,
      "genre": 9236,
      "singles": 9237,
      "topes": 9238,
      "volcan": 9239,
      "iveness": 9240,
      "Anti": 9241,
      "campaigns": 9242,
      "Capital": 9243,
      "Donald": 9244,
      "suffering": 9245,
      "Iranian": 9246,
      "vowels": 9247,
      "emphasis": 9248,
      "controversy": 9249,
      "computing": 9250,
      "briefly": 9251,
      "rebellion": 9252,
      "Phoen": 9253,
      "Sabb": 9254,
      "Semitic": 9255,
      "ras": 9256,
      "witness": 9257,
      "anime": 9258,
      "erals": 9259,
      "encing": 9260,
      "stability": 9261,
      "idel": 9262,
      "plague": 9263,
      "surrounded": 9264,
      "arring": 9265,
      "Centauri": 9266,
      "rises": 9267,
      "ruling": 9268,
      "onomous": 9269,
      "steps": 9270,
      "Moses": 9271,
      "discussed": 9272,
      "Aalen": 9273,
      "Pit": 9274,
      "Sher": 9275,
      "gri": 9276,
      "anatom": 9277,
      "tow": 9278,
      "notation": 9279,
      "span": 9280,
      "Represent": 9281,
      "kness": 9282,
      "Abbey": 9283,
      "Mathem": 9284,
      "Archim": 9285,
      "scientist": 9286,
      "Michigan": 9287,
      "losses": 9288,
      "teenth": 9289,
      "Contin": 9290,
      "apparently": 9291,
      "picture": 9292,
      "Citations": 9293,
      "FC": 9294,
      "Here": 9295,
      "Jane": 9296,
      "Ko": 9297,
      "Kash": 9298,
      "Log": 9299,
      "NS": 9300,
      "Prem": 9301,
      "Slov": 9302,
      "bought": 9303,
      "diox": 9304,
      "furn": 9305,
      "kel": 9306,
      "mates": 9307,
      "thick": 9308,
      "rear": 9309,
      "acupuncture": 9310,
      "chy": 9311,
      "isted": 9312,
      "aggress": 9313,
      "rik": 9314,
      "prise": 9315,
      "prev": 9316,
      "prefix": 9317,
      "Comple": 9318,
      "ampions": 9319,
      "128": 9320,
      "backs": 9321,
      "Anders": 9322,
      "immediate": 9323,
      "categories": 9324,
      "infection": 9325,
      "encouraged": 9326,
      "Cape": 9327,
      "CSM": 9328,
      "FM": 9329,
      "Mugh": 9330,
      "gle": 9331,
      "wars": 9332,
      "theology": 9333,
      "icillin": 9334,
      "una": 9335,
      "unusual": 9336,
      "aphas": 9337,
      "allies": 9338,
      "Animal": 9339,
      "disorders": 9340,
      "argu": 9341,
      "ennium": 9342,
      "zeb": 9343,
      "naturally": 9344,
      "Born": 9345,
      "graduate": 9346,
      "spectrum": 9347,
      "Years": 9348,
      "mythology": 9349,
      "tribe": 9350,
      "Friedrich": 9351,
      "Building": 9352,
      "Aung": 9353,
      "LA": 9354,
      "Mob": 9355,
      "Now": 9356,
      "Spart": 9357,
      "inals": 9358,
      "olis": 9359,
      "adjust": 9360,
      "amar": 9361,
      "tries": 9362,
      "merged": 9363,
      "drama": 9364,
      "calling": 9365,
      "Former": 9366,
      "visitors": 9367,
      "Brad": 9368,
      "warri": 9369,
      "stands": 9370,
      "seek": 9371,
      "denied": 9372,
      "aneously": 9373,
      "1896": 9374,
      "representative": 9375,
      "recip": 9376,
      "responsibility": 9377,
      "injury": 9378,
      "farming": 9379,
      "constitutional": 9380,
      "accurate": 9381,
      "arrested": 9382,
      "Gregory": 9383,
      "Brandenburg": 9384,
      "minimum": 9385,
      "Bou": 9386,
      "Homer": 9387,
      "job": 9388,
      "precip": 9389,
      "grave": 9390,
      "anna": 9391,
      "reflected": 9392,
      "continuing": 9393,
      "industries": 9394,
      "Medical": 9395,
      "Corn": 9396,
      "probability": 9397,
      "requirements": 9398,
      "Electron": 9399,
      "Ahmed": 9400,
      "slowly": 9401,
      "Sharon": 9402,
      "clinical": 9403,
      "Sabbath": 9404,
      "DA": 9405,
      "Finn": 9406,
      "Light": 9407,
      "Pent": 9408,
      "Sem": 9409,
      "Ti": 9410,
      "gone": 9411,
      "uable": 9412,
      "Allied": 9413,
      "izz": 9414,
      "corp": 9415,
      "discover": 9416,
      "lins": 9417,
      "followers": 9418,
      "optical": 9419,
      "experiences": 9420,
      "ATA": 9421,
      "giant": 9422,
      "laureate": 9423,
      "Roc": 9424,
      "Sus": 9425,
      "nard": 9426,
      "td": 9427,
      "assess": 9428,
      "autom": 9429,
      "Chronic": 9430,
      "grass": 9431,
      "rance": 9432,
      "node": 9433,
      "anniversary": 9434,
      "stood": 9435,
      "voting": 9436,
      "teachings": 9437,
      "anchor": 9438,
      "replacement": 9439,
      "exclusively": 9440,
      "Pascal": 9441,
      "opinion": 9442,
      "EU": 9443,
      "Lud": 9444,
      "Much": 9445,
      "Rose": 9446,
      "vs": 9447,
      "infer": 9448,
      "antidepress": 9449,
      "essentially": 9450,
      "raz": 9451,
      "flower": 9452,
      "gender": 9453,
      "consent": 9454,
      "Amb": 9455,
      "cribed": 9456,
      "Beat": 9457,
      "ieri": 9458,
      "tempor": 9459,
      "keyboard": 9460,
      "frequent": 9461,
      "Azerbaijani": 9462,
      "participated": 9463,
      "episodes": 9464,
      "Ukraine": 9465,
      "Official": 9466,
      "satellite": 9467,
      "jacent": 9468,
      "Hur": 9469,
      "ić": 9470,
      "mol": 9471,
      "inations": 9472,
      "index": 9473,
      "esch": 9474,
      "terior": 9475,
      "iders": 9476,
      "etics": 9477,
      "exile": 9478,
      "ods": 9479,
      "uding": 9480,
      "veter": 9481,
      "offices": 9482,
      "retire": 9483,
      "circle": 9484,
      "estimates": 9485,
      "Memorial": 9486,
      "beautiful": 9487,
      "distinguish": 9488,
      "Lutheran": 9489,
      "amphib": 9490,
      "Fund": 9491,
      "Gas": 9492,
      "Niger": 9493,
      "ersion": 9494,
      "ensed": 9495,
      "specified": 9496,
      "aimed": 9497,
      "separation": 9498,
      "concert": 9499,
      "survive": 9500,
      "Talib": 9501,
      "Da": 9502,
      "Rous": 9503,
      "Sac": 9504,
      "cere": 9505,
      "aric": 9506,
      "imprison": 9507,
      "util": 9508,
      "Arbor": 9509,
      "elev": 9510,
      "gros": 9511,
      "scenes": 9512,
      "diff": 9513,
      "borrow": 9514,
      "Norwe": 9515,
      "grounds": 9516,
      "familiar": 9517,
      "sculptor": 9518,
      "legislation": 9519,
      "Territory": 9520,
      "Aurangzeb": 9521,
      "91": 9522,
      "Agency": 9523,
      "Lat": 9524,
      "Ped": 9525,
      "fat": 9526,
      "gi": 9527,
      "pto": 9528,
      "retr": 9529,
      "idal": 9530,
      "deem": 9531,
      "fined": 9532,
      "trading": 9533,
      "tested": 9534,
      "Davis": 9535,
      "telephone": 9536,
      "concerning": 9537,
      "flows": 9538,
      "distinguished": 9539,
      "recommended": 9540,
      "arithmetic": 9541,
      "Hitler": 9542,
      "commemor": 9543,
      "Mitchell": 9544,
      "Dy": 9545,
      "Gib": 9546,
      "Video": 9547,
      "Winter": 9548,
      "ffer": 9549,
      "hex": 9550,
      "aphys": 9551,
      "Chile": 9552,
      "cium": 9553,
      "argue": 9554,
      "breeding": 9555,
      "bands": 9556,
      "define": 9557,
      "penet": 9558,
      "approaches": 9559,
      "BMW": 9560,
      "neighborhood": 9561,
      "Area": 9562,
      "Bolivia": 9563,
      "biblical": 9564,
      "Estonian": 9565,
      "entitled": 9566,
      "consecutive": 9567,
      "Cat": 9568,
      "Wild": 9569,
      "flying": 9570,
      "iest": 9571,
      "instruction": 9572,
      "ania": 9573,
      "recon": 9574,
      "recovery": 9575,
      "itarian": 9576,
      "aments": 9577,
      "urs": 9578,
      "lys": 9579,
      "ido": 9580,
      "trust": 9581,
      "plural": 9582,
      "tea": 9583,
      "ears": 9584,
      "premi": 9585,
      "flights": 9586,
      "retreat": 9587,
      "250": 9588,
      "Heritage": 9589,
      "statements": 9590,
      "aliyah": 9591,
      "manufacturer": 9592,
      "circumstances": 9593,
      "Articles": 9594,
      "false": 9595,
      "Houston": 9596,
      "Aaliyah": 9597,
      "wel": 9598,
      "wings": 9599,
      "yield": 9600,
      "thel": 9601,
      "ende": 9602,
      "isdom": 9603,
      "planning": 9604,
      "displayed": 9605,
      "consult": 9606,
      "Afrika": 9607,
      "operates": 9608,
      "holm": 9609,
      "holid": 9610,
      "rulers": 9611,
      "chemist": 9612,
      "Speer": 9613,
      "resistant": 9614,
      "credit": 9615,
      "Moscow": 9616,
      "decrease": 9617,
      "perceived": 9618,
      "vertebr": 9619,
      "Jordan": 9620,
      "Norwegian": 9621,
      "Hospital": 9622,
      "Sl": 9623,
      "dic": 9624,
      "knew": 9625,
      "mate": 9626,
      "ör": 9627,
      "leys": 9628,
      "acou": 9629,
      "omon": 9630,
      "illy": 9631,
      "adjacent": 9632,
      "merely": 9633,
      "assium": 9634,
      "heritage": 9635,
      "mail": 9636,
      "ahar": 9637,
      "Bohem": 9638,
      "Norman": 9639,
      "depict": 9640,
      "processor": 9641,
      "fewer": 9642,
      "1861": 9643,
      "specialized": 9644,
      "ranges": 9645,
      "Television": 9646,
      "MLB": 9647,
      "abstract": 9648,
      "explanation": 9649,
      "AV": 9650,
      "Equ": 9651,
      "Eric": 9652,
      "Pa": 9653,
      "Teach": 9654,
      "mph": 9655,
      "arth": 9656,
      "sted": 9657,
      "conference": 9658,
      "emb": 9659,
      "manif": 9660,
      "ureau": 9661,
      "ovsky": 9662,
      "monks": 9663,
      "10th": 9664,
      "Barry": 9665,
      "apply": 9666,
      "1865": 9667,
      "logo": 9668,
      "Naval": 9669,
      "storm": 9670,
      "Juda": 9671,
      "arrangement": 9672,
      "ropolis": 9673,
      "elsewhere": 9674,
      "strategic": 9675,
      "Children": 9676,
      "tournament": 9677,
      "Agrippina": 9678,
      "Aer": 9679,
      "EM": 9680,
      "Lad": 9681,
      "Mong": 9682,
      "gall": 9683,
      "iations": 9684,
      "pages": 9685,
      "really": 9686,
      "achen": 9687,
      "bras": 9688,
      "tenance": 9689,
      "loop": 9690,
      "supplies": 9691,
      "Franco": 9692,
      "motiv": 9693,
      "copal": 9694,
      "wider": 9695,
      "sacred": 9696,
      "discussion": 9697,
      "Honor": 9698,
      "87": 9699,
      "94": 9700,
      "Eur": 9701,
      "Hom": 9702,
      "Master": 9703,
      "Maur": 9704,
      "bore": 9705,
      "pand": 9706,
      "tis": 9707,
      "uv": 9708,
      "wig": 9709,
      "inaug": 9710,
      "uled": 9711,
      "eme": 9712,
      "otam": 9713,
      "comedy": 9714,
      "aches": 9715,
      "colleg": 9716,
      "metall": 9717,
      "operational": 9718,
      "venues": 9719,
      "bandy": 9720,
      "animated": 9721,
      "commanded": 9722,
      "braille": 9723,
      "racial": 9724,
      "predicted": 9725,
      "golden": 9726,
      "conservation": 9727,
      "opponents": 9728,
      "procedure": 9729,
      "enjoyed": 9730,
      "cinema": 9731,
      "Meanwhile": 9732,
      "Aegean": 9733,
      "Hip": 9734,
      "Mess": 9735,
      "Sav": 9736,
      "orous": 9737,
      "Anab": 9738,
      "orses": 9739,
      "Blues": 9740,
      "denomin": 9741,
      "Century": 9742,
      "1897": 9743,
[...]
