{
  "version": "1.0",
  "truncation": null,
  "padding": null,
  "added_tokens": [
    {
      "id": 0,
      "content": "[PAD]",
      "single_word": false,
      "lstrip": false,
      "rstrip": false,
      "normalized": false,
      "special": true
    },
    {
      "id": 1,
      "content": "[UNK]",
      "single_word": false,
      "lstrip": false,
      "rstrip": false,
      "normalized": false,
      "special": true
    },
    {
      "id": 2,
      "content": "[CLS]",
      "single_word": false,
      "lstrip": false,
      "rstrip": false,
      "normalized": false,
      "special": true
    },
    {
      "id": 3,
      "content": "[SEP]",
      "single_word": false,
      "lstrip": false,
      "rstrip": false,
      "normalized": false,
      "special": true
    },
    {
      "id": 4,
      "content": "[MASK]",
      "single_word": false,
      "lstrip": false,
      "rstrip": false,
      "normalized": false,
      "special": true
    }
  ],
  "normalizer": null,
  "pre_tokenizer": {
    "type": "Whitespace"
  },
  "post_processor": null,
  "decoder": null,
  "model": {
    "type": "BPE",
    "dropout": null,
    "unk_token": null,
    "continuing_subword_prefix": null,
    "end_of_word_suffix": null,
    "fuse_unk": false,
    "byte_fallback": false,
    "ignore_merges": false,
    "vocab": {
      "[PAD]": 0,
      "[UNK]": 1,
      "[CLS]": 2,
      "[SEP]": 3,
      "[MASK]": 4,
      "!": 5,
      "\"": 6,
      "#": 7,
      "$": 8,
      "%": 9,
      "&": 10,
      "'": 11,
      "(": 12,
      ")": 13,
      "*": 14,
      "+": 15,
      ",": 16,
      "-": 17,
      ".": 18,
      "/": 19,
      "0": 20,
      "1": 21,
      "2": 22,
      "3": 23,
      "4": 24,
      "5": 25,
      "6": 26,
      "7": 27,
      "8": 28,
      "9": 29,
      ":": 30,
      ";": 31,
      "<": 32,
      "=": 33,
      ">": 34,
      "?": 35,
      "@": 36,
      "A": 37,
      "B": 38,
      "C": 39,
      "D": 40,
      "E": 41,
      "F": 42,
      "G": 43,
      "H": 44,
      "I": 45,
      "J": 46,
      "K": 47,
      "L": 48,
      "M": 49,
      "N": 50,
      "O": 51,
      "P": 52,
      "Q": 53,
      "R": 54,
      "S": 55,
      "T": 56,
      "U": 57,
      "V": 58,
      "W": 59,
      "X": 60,
      "Y": 61,
      "Z": 62,
      "[": 63,
      "\\": 64,
      "]": 65,
      "^": 66,
      "_": 67,
      "`": 68,
      "a": 69,
      "b": 70,
      "c": 71,
      "d": 72,
      "e": 73,
      "f": 74,
      "g": 75,
      "h": 76,
      "i": 77,
      "j": 78,
      "k": 79,
      "l": 80,
      "m": 81,
      "n": 82,
      "o": 83,
      "p": 84,
      "q": 85,
      "r": 86,
      "s": 87,
      "t": 88,
      "u": 89,
      "v": 90,
      "w": 91,
      "x": 92,
      "y": 93,
      "z": 94,
      "{": 95,
      "|": 96,
      "}": 97,
      "~": 98,
      "": 99,
      "": 100,
      "": 101,
      "": 102,
      "": 103,
      "": 104,
      "": 105,
      "": 106,
      "": 107,
      "": 108,
      "": 109,
      "¡": 110,
      "¢": 111,
      "£": 112,
      "¤": 113,
      "¥": 114,
      "¦": 115,
      "§": 116,
      "¨": 117,
      "©": 118,
      "ª": 119,
      "«": 120,
      "¬": 121,
      "­": 122,
      "®": 123,
      "¯": 124,
      "°": 125,
      "±": 126,
      "²": 127,
      "³": 128,
      "´": 129,
      "µ": 130,
      "¶": 131,
      "·": 132,
      "¸": 133,
      "¹": 134,
      "º": 135,
      "»": 136,
      "¼": 137,
      "½": 138,
      "¾": 139,
      "¿": 140,
      "À": 141,
      "Á": 142,
      "Â": 143,
      "Ã": 144,
      "Ä": 145,
      "Å": 146,
      "Æ": 147,
      "Ç": 148,
      "È": 149,
      "É": 150,
      "Ê": 151,
      "Ë": 152,
      "Ì": 153,
      "Í": 154,
      "Î": 155,
      "Ï": 156,
      "Ð": 157,
      "Ñ": 158,
      "Ò": 159,
      "Ó": 160,
      "Ô": 161,
      "Õ": 162,
      "Ö": 163,
      "×": 164,
      "Ø": 165,
      "Ù": 166,
      "Ú": 167,
      "Û": 168,
      "Ü": 169,
      "Ý": 170,
      "Þ": 171,
      "ß": 172,
      "à": 173,
      "á": 174,
      "â": 175,
      "ã": 176,
      "ä": 177,
      "å": 178,
      "æ": 179,
      "ç": 180,
      "è": 181,
      "é": 182,
      "ê": 183,
      "ë": 184,
      "ì": 185,
      "í": 186,
      "î": 187,
      "ï": 188,
      "ð": 189,
      "ñ": 190,
      "ò": 191,
      "ó": 192,
      "ô": 193,
      "õ": 194,
      "ö": 195,
      "÷": 196,
      "ø": 197,
      "ù": 198,
      "ú": 199,
      "û": 200,
      "ü": 201,
      "ý": 202,
      "þ": 203,
      "ÿ": 204,
      "Ā": 205,
      "ā": 206,
      "Ă": 207,
      "ă": 208,
      "Ą": 209,
      "ą": 210,
      "Ć": 211,
      "ć": 212,
      "Ĉ": 213,
      "ĉ": 214,
      "Ċ": 215,
      "ċ": 216,
      "Č": 217,
      "č": 218,
      "Ď": 219,
      "ď": 220,
      "Đ": 221,
      "đ": 222,
      "Ē": 223,
      "ē": 224,
      "Ĕ": 225,
      "ĕ": 226,
      "Ė": 227,
      "ė": 228,
      "Ę": 229,
      "ę": 230,
      "Ě": 231,
      "ě": 232,
      "Ĝ": 233,
      "ĝ": 234,
      "Ğ": 235,
      "ğ": 236,
      "Ġ": 237,
      "ġ": 238,
      "Ģ": 239,
      "ģ": 240,
      "Ĥ": 241,
      "ĥ": 242,
      "Ħ": 243,
      "ħ": 244,
      "Ĩ": 245,
      "ĩ": 246,
      "Ī": 247,
      "ī": 248,
      "Ĭ": 249,
      "ĭ": 250,
      "Į": 251,
      "į": 252,
      "İ": 253,
      "ı": 254,
      "ĳ": 255,
      "Ĵ": 256,
      "ĵ": 257,
      "Ķ": 258,
      "ķ": 259,
      "ĸ": 260,
      "Ĺ": 261,
      "ĺ": 262,
      "Ļ": 263,
      "ļ": 264,
      "Ľ": 265,
      "ľ": 266,
      "Ŀ": 267,
      "ŀ": 268,
      "Ł": 269,
      "ł": 270,
      "Ń": 271,
      "ń": 272,
      "Ņ": 273,
      "ņ": 274,
      "Ň": 275,
      "ň": 276,
      "ŉ": 277,
      "Ŋ": 278,
      "ŋ": 279,
      "Ō": 280,
      "ō": 281,
      "ŏ": 282,
      "Ő": 283,
      "ő": 284,
      "Œ": 285,
      "œ": 286,
      "Ŕ": 287,
      "ŕ": 288,
      "Ŗ": 289,
      "ŗ": 290,
      "Ř": 291,
      "ř": 292,
      "Ś": 293,
      "ś": 294,
      "Ŝ": 295,
      "ŝ": 296,
      "Ş": 297,
      "ş": 298,
      "Š": 299,
      "š": 300,
      "Ţ": 301,
      "ţ": 302,
      "Ť": 303,
      "ť": 304,
      "Ŧ": 305,
      "ŧ": 306,
      "Ũ": 307,
      "ũ": 308,
      "Ū": 309,
      "ū": 310,
      "Ŭ": 311,
      "ŭ": 312,
      "Ů": 313,
      "ů": 314,
      "Ű": 315,
      "ű": 316,
      "Ų": 317,
      "ų": 318,
      "Ŵ": 319,
      "ŵ": 320,
      "ŷ": 321,
      "Ÿ": 322,
      "Ź": 323,
      "ź": 324,
      "Ż": 325,
      "ż": 326,
      "Ž": 327,
      "ž": 328,
      "ſ": 329,
      "Ɓ": 330,
      "Ƃ": 331,
      "ƃ": 332,
      "Ƅ": 333,
      "ƅ": 334,
      "Ɔ": 335,
      "Ƈ": 336,
      "ƈ": 337,
      "Ɗ": 338,
      "Ƌ": 339,
      "ƌ": 340,
      "ƍ": 341,
      "Ǝ": 342,
      "Ə": 343,
      "Ɛ": 344,
      "Ƒ": 345,
      "ƒ": 346,
      "Ɠ": 347,
      "Ɣ": 348,
      "Ɩ": 349,
      "Ɨ": 350,
      "Ƙ": 351,
      "ƙ": 352,
      "ƚ": 353,
      "ƛ": 354,
      "Ɯ": 355,
      "Ɲ": 356,
      "ƞ": 357,
      "Ɵ": 358,
      "Ơ": 359,
      "ơ": 360,
      "ƣ": 361,
      "Ƥ": 362,
      "ƥ": 363,
      "Ƨ": 364,
      "ƨ": 365,
      "Ʃ": 366,
      "ƫ": 367,
      "Ƭ": 368,
      "ƭ": 369,
      "Ʈ": 370,
      "Ư": 371,
      "ư": 372,
      "Ʊ": 373,
      "Ʋ": 374,
      "Ƴ": 375,
      "ƴ": 376,
      "Ƶ": 377,
      "ƶ": 378,
      "Ʒ": 379,
      "Ƹ": 380,
      "ƹ": 381,
      "Ƽ": 382,
      "ƽ": 383,
      "ƿ": 384,
      "ǀ": 385,
      "ǁ": 386,
      "ǂ": 387,
      "ǃ": 388,
      "ǅ": 389,
      "Ǎ": 390,
      "ǎ": 391,
      "ǐ": 392,
      "ǒ": 393,
      "ǔ": 394,
      "ǖ": 395,
      "ǘ": 396,
      "ǚ": 397,
      "ǜ": 398,
      "ǝ": 399,
      "Ǟ": 400,
      "ǟ": 401,
      "Ǡ": 402,
      "ǡ": 403,
      "ǣ": 404,
      "ǥ": 405,
      "Ǧ": 406,
      "ǧ": 407,
      "ǩ": 408,
      "Ǫ": 409,
      "ǫ": 410,
      "ǭ": 411,
      "ǰ": 412,
      "ǲ": 413,
      "Ǵ": 414,
      "ǵ": 415,
      "Ƿ": 416,
      "Ǻ": 417,
      "ǻ": 418,
      "ǽ": 419,
      "ǿ": 420,
      "Ȁ": 421,
      "ȁ": 422,
      "Ȃ": 423,
      "ȃ": 424,
      "ȅ": 425,
      "ȉ": 426,
      "ȕ": 427,
      "ȗ": 428,
      "Ș": 429,
      "ș": 430,
      "Ț": 431,
      "ț": 432,
      "Ȝ": 433,
      "ȝ": 434,
      "Ȟ": 435,
      "ȟ": 436,
      "ȡ": 437,
      "Ȣ": 438,
      "ȣ": 439,
      "Ȥ": 440,
      "Ȧ": 441,
      "ȧ": 442,
      "ȩ": 443,
      "ȯ": 444,
      "ȳ": 445,
      "ȴ": 446,
      "ȷ": 447,
      "ȸ": 448,
      "ȹ": 449,
      "Ⱥ": 450,
      "Ȼ": 451,
      "ȼ": 452,
      "Ƚ": 453,
      "ȿ": 454,
      "ɀ": 455,
      "Ɂ": 456,
      "ɂ": 457,
      "Ʉ": 458,
      "Ɇ": 459,
      "ɇ": 460,
      "Ɉ": 461,
      "ɉ": 462,
      "Ɍ": 463,
      "ɍ": 464,
      "Ɏ": 465,
      "ɏ": 466,
      "ɐ": 467,
      "ɑ": 468,
      "ɒ": 469,
      "ɓ": 470,
      "ɔ": 471,
      "ɕ": 472,
      "ɖ": 473,
      "ɗ": 474,
      "ɘ": 475,
      "ə": 476,
      "ɚ": 477,
      "ɛ": 478,
      "ɜ": 479,
      "ɝ": 480,
      "ɟ": 481,
      "ɠ": 482,
      "ɡ": 483,
      "ɢ": 484,
      "ɣ": 485,
      "ɤ": 486,
      "ɥ": 487,
      "ɦ": 488,
      "ɨ": 489,
      "ɩ": 490,
      "ɪ": 491,
      "ɫ": 492,
      "ɬ": 493,
      "ɭ": 494,
      "ɯ": 495,
      "ɰ": 496,
      "ɲ": 497,
      "ɳ": 498,
      "ɴ": 499,
      "ɵ": 500,
      "ɶ": 501,
      "ɸ": 502,
      "ɹ": 503,
      "ɺ": 504,
      "ɻ": 505,
      "ɽ": 506,
      "ɾ": 507,
      "ʀ": 508,
      "ʁ": 509,
      "ʂ": 510,
      "ʃ": 511,
      "ʄ": 512,
      "ʇ": 513,
      "ʈ": 514,
      "ʉ": 515,
      "ʊ": 516,
      "ʋ": 517,
      "ʌ": 518,
      "ʍ": 519,
      "ʎ": 520,
      "ʏ": 521,
      "ʐ": 522,
      "ʑ": 523,
      "ʒ": 524,
      "ʔ": 525,
      "ʕ": 526,
      "ʗ": 527,
      "ʘ": 528,
      "ʙ": 529,
      "ʚ": 530,
      "ʛ": 531,
      "ʜ": 532,
      "ʝ": 533,
      "ʞ": 534,
      "ʟ": 535,
      "ʤ": 536,
      "ʦ": 537,
      "ʧ": 538,
      "ʮ": 539,
      "ʯ": 540,
      "ʰ": 541,
      "ʱ": 542,
      "ʲ": 543,
      "ʳ": 544,
      "ʴ": 545,
      "ʵ": 546,
      "ʶ": 547,
      "ʷ": 548,
      "ʸ": 549,
      "ʹ": 550,
      "ʺ": 551,
      "ʻ": 552,
      "ʼ": 553,
      "ʽ": 554,
      "ʾ": 555,
      "ʿ": 556,
      "ˀ": 557,
      "ˁ": 558,
      "˂": 559,
      "˃": 560,
      "˄": 561,
      "˅": 562,
      "ˆ": 563,
      "ˇ": 564,
      "ˈ": 565,
      "ˉ": 566,
      "ˊ": 567,
      "ˋ": 568,
      "ˌ": 569,
      "ˍ": 570,
      "ˎ": 571,
      "ˏ": 572,
      "ː": 573,
      "ˑ": 574,
      "˒": 575,
      "˓": 576,
      "˔": 577,
      "˕": 578,
      "˖": 579,
      "˗": 580,
      "˘": 581,
      "˙": 582,
      "˚": 583,
      "˛": 584,
      "˜": 585,
      "˝": 586,
      "˞": 587,
      "˟": 588,
      "ˠ": 589,
      "ˡ": 590,
      "ˢ": 591,
      "ˣ": 592,
      "ˤ": 593,
      "˥": 594,
      "˦": 595,
      "˧": 596,
      "˨": 597,
      "˩": 598,
      "˭": 599,
      "ˮ": 600,
      "˯": 601,
      "˰": 602,
      "˱": 603,
      "˲": 604,
      "˳": 605,
      "˴": 606,
      "˵": 607,
      "˶": 608,
      "˷": 609,
      "˸": 610,
      "˹": 611,
      "˺": 612,
      "˻": 613,
      "˼": 614,
      "˽": 615,
      "˾": 616,
      "˿": 617,
      "̀": 618,
      "́": 619,
      "̂": 620,
      "̃": 621,
      "̄": 622,
      "̅": 623,
      "̆": 624,
      "̇": 625,
      "̈": 626,
      "̊": 627,
      "̋": 628,
      "̌": 629,
      "̍": 630,
      "̏": 631,
      "̐": 632,
      "̑": 633,
      "̒": 634,
      "̓": 635,
      "̔": 636,
      "̚": 637,
      "̜": 638,
      "̝": 639,
      "̞": 640,
      "̟": 641,
      "̠": 642,
      "̡": 643,
      "̢": 644,
      "̣": 645,
      "̤": 646,
      "̥": 647,
      "̦": 648,
      "̧": 649,
      "̨": 650,
      "̩": 651,
      "̪": 652,
      "̭": 653,
      "̮": 654,
      "̯": 655,
      "̰": 656,
      "̱": 657,
      "̲": 658,
      "̴": 659,
      "̵": 660,
      "̷": 661,
      "̻": 662,
      "̽": 663,
      "͈": 664,
      "͏": 665,
      "͘": 666,
      "͜": 667,
      "͟": 668,
      "͠": 669,
      "͡": 670,
      "͵": 671,
      "΄": 672,
      "Ά": 673,
      "Έ": 674,
      "Ή": 675,
      "Ί": 676,
      "Ό": 677,
      "Ύ": 678,
      "ΐ": 679,
      "Α": 680,
      "Β": 681,
      "Γ": 682,
      "Δ": 683,
      "Ε": 684,
      "Ζ": 685,
      "Η": 686,
      "Θ": 687,
      "Ι": 688,
      "Κ": 689,
      "Λ": 690,
      "Μ": 691,
      "Ν": 692,
      "Ξ": 693,
      "Ο": 694,
      "Π": 695,
      "Ρ": 696,
      "Σ": 697,
      "Τ": 698,
      "Υ": 699,
      "Φ": 700,
      "Χ": 701,
      "Ψ": 702,
      "Ω": 703,
      "ά": 704,
      "έ": 705,
      "ή": 706,
      "ί": 707,
      "ΰ": 708,
      "α": 709,
      "β": 710,
      "γ": 711,
      "δ": 712,
      "ε": 713,
      "ζ": 714,
      "η": 715,
      "θ": 716,
      "ι": 717,
      "κ": 718,
      "λ": 719,
      "μ": 720,
      "ν": 721,
      "ξ": 722,
      "ο": 723,
      "π": 724,
      "ρ": 725,
      "ς": 726,
      "σ": 727,
      "τ": 728,
      "υ": 729,
      "φ": 730,
      "χ": 731,
      "ψ": 732,
      "ω": 733,
      "ϊ": 734,
      "ϋ": 735,
      "ό": 736,
      "ύ": 737,
      "ώ": 738,
      "ϒ": 739,
      "ϕ": 740,
      "ϖ": 741,
      "ϗ": 742,
      "Ϙ": 743,
      "Ϝ": 744,
      "ϝ": 745,
      "Ϟ": 746,
      "Ϡ": 747,
      "ϳ": 748,
      "ϵ": 749,
      "Ϸ": 750,
      "Ϲ": 751,
      "Ϻ": 752,
      "Ѐ": 753,
      "Ё": 754,
      "Ђ": 755,
      "Ѓ": 756,
      "Є": 757,
      "Ѕ": 758,
      "І": 759,
      "Ї": 760,
      "Ј": 761,
      "Љ": 762,
      "Њ": 763,
      "Ћ": 764,
      "Ќ": 765,
      "Ѝ": 766,
      "Ў": 767,
      "Џ": 768,
      "А": 769,
      "Б": 770,
      "В": 771,
      "Г": 772,
      "Д": 773,
      "Е": 774,
      "Ж": 775,
      "З": 776,
      "И": 777,
      "Й": 778,
      "К": 779,
      "Л": 780,
      "М": 781,
      "Н": 782,
      "О": 783,
      "П": 784,
      "Р": 785,
      "С": 786,
      "Т": 787,
      "У": 788,
      "Ф": 789,
      "Х": 790,
      "Ц": 791,
      "Ч": 792,
      "Ш": 793,
      "Щ": 794,
      "Ъ": 795,
      "Ы": 796,
      "Ь": 797,
      "Э": 798,
      "Ю": 799,
      "Я": 800,
      "а": 801,
      "б": 802,
      "в": 803,
      "г": 804,
      "д": 805,
      "е": 806,
      "ж": 807,
      "з": 808,
      "и": 809,
      "й": 810,
      "к": 811,
      "л": 812,
      "м": 813,
      "н": 814,
      "о": 815,
      "п": 816,
      "р": 817,
      "с": 818,
      "т": 819,
      "у": 820,
      "ф": 821,
      "х": 822,
      "ц": 823,
      "ч": 824,
      "ш": 825,
      "щ": 826,
      "ъ": 827,
      "ы": 828,
      "ь": 829,
      "э": 830,
      "ю": 831,
      "я": 832,
      "ѐ": 833,
      "ё": 834,
      "ђ": 835,
      "ѓ": 836,
      "є": 837,
      "ѕ": 838,
      "і": 839,
      "ї": 840,
      "ј": 841,
      "љ": 842,
      "њ": 843,
      "ћ": 844,
      "ќ": 845,
      "ѝ": 846,
      "ў": 847,
      "џ": 848,
      "Ѡ": 849,
      "ѡ": 850,
      "Ѣ": 851,
      "ѣ": 852,
      "Ѧ": 853,
      "ѧ": 854,
      "ѩ": 855,
      "Ѫ": 856,
      "ѫ": 857,
      "ѭ": 858,
      "ѳ": 859,
      "ѵ": 860,
      "Ѷ": 861,
      "ѹ": 862,
      "Ѽ": 863,
      "Ѿ": 864,
      "ѿ": 865,
      "҅": 866,
      "Ҋ": 867,
      "ҋ": 868,
      "Ҍ": 869,
      "ҍ": 870,
      "Ҏ": 871,
      "ҏ": 872,
      "ґ": 873,
      "Ғ": 874,
      "ғ": 875,
      "Ҕ": 876,
      "ҕ": 877,
      "Җ": 878,
      "җ": 879,
      "Қ": 880,
      "қ": 881,
      "Ҝ": 882,
      "ҝ": 883,
      "Ҟ": 884,
      "ҟ": 885,
      "ҡ": 886,
      "Ң": 887,
      "ң": 888,
      "ҥ": 889,
      "ҧ": 890,
      "Ҩ": 891,
      "ҩ": 892,
      "ҫ": 893,
      "ҭ": 894,
      "ү": 895,
      "ұ": 896,
      "Ҳ": 897,
      "ҳ": 898,
      "Ҷ": 899,
      "ҷ": 900,
      "Ҹ": 901,
      "ҹ": 902,
      "Һ": 903,
      "һ": 904,
      "Ӏ": 905,
      "Ӂ": 906,
      "ӂ": 907,
      "ӄ": 908,
      "Ӈ": 909,
      "ӈ": 910,
      "Ӌ": 911,
      "ӌ": 912,
      "ӏ": 913,
      "ӑ": 914,
      "Ӕ": 915,
      "ӕ": 916,
      "Ә": 917,
      "ә": 918,
      "Ӝ": 919,
      "ӝ": 920,
      "ӡ": 921,
      "Ӣ": 922,
      "ӣ": 923,
      "ӧ": 924,
      "Ө": 925,
      "ө": 926,
      "Ӯ": 927,
      "ӯ": 928,
      "ӱ": 929,
      "Ӵ": 930,
      "ӵ": 931,
      "Ӷ": 932,
      "ӷ": 933,
      "Ԑ": 934,
      "ԑ": 935,
      "Ԗ": 936,
      "ԗ": 937,
      "Ԧ": 938,
      "ԧ": 939,
      "Ա": 940,
      "Բ": 941,
      "Գ": 942,
      "Դ": 943,
      "Ե": 944,
      "Զ": 945,
      "Է": 946,
      "Ը": 947,
      "Թ": 948,
      "Ժ": 949,
      "Ի": 950,
      "Լ": 951,
      "Խ": 952,
      "Ծ": 953,
      "Կ": 954,
      "Հ": 955,
      "Ձ": 956,
      "Ղ": 957,
      "Ճ": 958,
      "Մ": 959,
      "Յ": 960,
      "Ն": 961,
      "Շ": 962,
      "Ո": 963,
      "Չ": 964,
      "Պ": 965,
      "Ջ": 966,
      "Ռ": 967,
      "Ս": 968,
      "Վ": 969,
      "Տ": 970,
      "Ր": 971,
      "Ց": 972,
      "Ւ": 973,
      "Փ": 974,
      "Ք": 975,
      "Օ": 976,
      "Ֆ": 977,
      "՛": 978,
      "՝": 979,
      "՞": 980,
      "ա": 981,
      "բ": 982,
      "գ": 983,
      "դ": 984,
      "ե": 985,
      "զ": 986,
      "է": 987,
      "ը": 988,
      "թ": 989,
      "ժ": 990,
      "ի": 991,
      "լ": 992,
      "խ": 993,
      "ծ": 994,
      "կ": 995,
      "հ": 996,
      "ձ": 997,
      "ղ": 998,
      "ճ": 999,
      "մ": 1000,
      "յ": 1001,
      "ն": 1002,
      "շ": 1003,
      "ո": 1004,
      "չ": 1005,
      "պ": 1006,
      "ջ": 1007,
      "ռ": 1008,
      "ս": 1009,
      "վ": 1010,
      "տ": 1011,
      "ր": 1012,
      "ց": 1013,
      "ւ": 1014,
      "փ": 1015,
      "ք": 1016,
      "օ": 1017,
      "ֆ": 1018,
      "և": 1019,
      "։": 1020,
      "֏": 1021,
      "֑": 1022,
      "֔": 1023,
      "֖": 1024,
      "֗": 1025,
      "֙": 1026,
      "֝": 1027,
      "֞": 1028,
      "֡": 1029,
      "֣": 1030,
      "֤": 1031,
      "֥": 1032,
      "֫": 1033,
      "ְ": 1034,
      "ֱ": 1035,
      "ֲ": 1036,
      "ִ": 1037,
      "ֵ": 1038,
      "ֶ": 1039,
      "ַ": 1040,
      "ָ": 1041,
      "ֹ": 1042,
      "ֺ": 1043,
      "ֻ": 1044,
      "ּ": 1045,
      "ֽ": 1046,
      "־": 1047,
      "ֿ": 1048,
      "׀": 1049,
      "ׁ": 1050,
      "ׂ": 1051,
      "א": 1052,
      "ב": 1053,
      "ג": 1054,
      "ד": 1055,
      "ה": 1056,
      "ו": 1057,
      "ז": 1058,
      "ח": 1059,
      "ט": 1060,
      "י": 1061,
      "ך": 1062,
      "כ": 1063,
      "ל": 1064,
      "ם": 1065,
      "מ": 1066,
      "ן": 1067,
      "נ": 1068,
      "ס": 1069,
      "ע": 1070,
      "ף": 1071,
      "פ": 1072,
      "ץ": 1073,
      "צ": 1074,
      "ק": 1075,
      "ר": 1076,
      "ש": 1077,
      "ת": 1078,
      "װ": 1079,
      "ױ": 1080,
      "ײ": 1081,
      "׳": 1082,
      "״": 1083,
      "،": 1084,
      "ؓ": 1085,
      "؛": 1086,
      "؟": 1087,
      "ء": 1088,
      "آ": 1089,
      "أ": 1090,
      "ؤ": 1091,
      "إ": 1092,
      "ئ": 1093,
      "ا": 1094,
      "ب": 1095,
      "ة": 1096,
      "ت": 1097,
      "ث": 1098,
      "ج": 1099,
      "ح": 1100,
      "خ": 1101,
      "د": 1102,
      "ذ": 1103,
      "ر": 1104,
      "ز": 1105,
      "س": 1106,
      "ش": 1107,
      "ص": 1108,
      "ض": 1109,
      "ط": 1110,
      "ظ": 1111,
      "ع": 1112,
      "غ": 1113,
      "ـ": 1114,
      "ف": 1115,
      "ق": 1116,
      "ك": 1117,
      "ل": 1118,
      "م": 1119,
      "ن": 1120,
      "ه": 1121,
      "و": 1122,
      "ى": 1123,
      "ي": 1124,
      "ً": 1125,
      "ٌ": 1126,
      "ٍ": 1127,
      "َ": 1128,
      "ُ": 1129,
      "ِ": 1130,
      "ّ": 1131,
      "ْ": 1132,
      "ٓ": 1133,
      "ٔ": 1134,
      "٠": 1135,
      "١": 1136,
      "٢": 1137,
      "٣": 1138,
      "٤": 1139,
      "٥": 1140,
      "٦": 1141,
      "٧": 1142,
      "٨": 1143,
      "٩": 1144,
      "٫": 1145,
      "٭": 1146,
      "ٮ": 1147,
      "ٰ": 1148,
      "ٱ": 1149,
      "ٲ": 1150,
      "ٹ": 1151,
      "ٻ": 1152,
      "ټ": 1153,
      "ٽ": 1154,
      "پ": 1155,
      "ٿ": 1156,
      "ځ": 1157,
      "ڄ": 1158,
      "څ": 1159,
      "چ": 1160,
      "ڈ": 1161,
      "ډ": 1162,
      "ڌ": 1163,
      "ڑ": 1164,
      "ړ": 1165,
      "ڕ": 1166,
      "ژ": 1167,
      "ڙ": 1168,
      "ښ": 1169,
      "ڠ": 1170,
      "ڡ": 1171,
      "ڤ": 1172,
      "ک": 1173,
      "ڪ": 1174,
      "ګ": 1175,
      "ڬ": 1176,
      "ڭ": 1177,
      "ڮ": 1178,
      "گ": 1179,
      "ڳ": 1180,
      "ں": 1181,
      "ڼ": 1182,
      "ڽ": 1183,
      "ھ": 1184,
      "ۀ": 1185,
      "ہ": 1186,
      "ۂ": 1187,
      "ۃ": 1188,
      "ۆ": 1189,
      "ۇ": 1190,
      "ۈ": 1191,
      "ۉ": 1192,
      "ی": 1193,
      "ۍ": 1194,
      "ێ": 1195,
      "ې": 1196,
      "ے": 1197,
      "ە": 1198,
      "ۖ": 1199,
      "ۗ": 1200,
      "ۙ": 1201,
      "ۚ": 1202,
      "۝": 1203,
      "۞": 1204,
      "۟": 1205,
      "ۢ": 1206,
      "ۥ": 1207,
      "ۦ": 1208,
      "ۭ": 1209,
      "۰": 1210,
      "۱": 1211,
      "۲": 1212,
      "۳": 1213,
      "۵": 1214,
      "۶": 1215,
      "۷": 1216,
      "۸": 1217,
      "۹": 1218,
      "ܐ": 1219,
      "ܒ": 1220,
      "ܓ": 1221,
      "ܕ": 1222,
      "ܗ": 1223,
      "ܘ": 1224,
      "ܙ": 1225,
      "ܚ": 1226,
      "ܛ": 1227,
      "ܝ": 1228,
      "ܟ": 1229,
      "ܠ": 1230,
      "ܡ": 1231,
      "ܢ": 1232,
      "ܣ": 1233,
      "ܥ": 1234,
      "ܦ": 1235,
      "ܩ": 1236,
      "ܪ": 1237,
      "ܫ": 1238,
      "ܬ": 1239,
      "ܲ": 1240,
      "ܵ": 1241,
      "ܸ": 1242,
      "ܹ": 1243,
      "ܼ": 1244,
      "ܿ": 1245,
      "݂": 1246,
      "݇": 1247,
      "ݐ": 1248,
      "ݙ": 1249,
      "ݜ": 1250,
      "ݢ": 1251,
      "ݨ": 1252,
      "ݪ": 1253,
      "ݫ": 1254,
      "ݭ": 1255,
      "ݰ": 1256,
      "ݲ": 1257,
      "ހ": 1258,
      "ނ": 1259,
      "ރ": 1260,
      "ބ": 1261,
      "ކ": 1262,
      "އ": 1263,
      "ވ": 1264,
      "މ": 1265,
      "ފ": 1266,
      "ދ": 1267,
      "ތ": 1268,
      "ލ": 1269,
      "ގ": 1270,
      "ސ": 1271,
      "ޑ": 1272,
      "ޒ": 1273,
      "ޙ": 1274,
      "ޠ": 1275,
      "ޢ": 1276,
      "ޤ": 1277,
      "ަ": 1278,
      "ާ": 1279,
      "ި": 1280,
      "ީ": 1281,
      "ު": 1282,
      "ޫ": 1283,
      "ެ": 1284,
      "ޭ": 1285,
      "ް": 1286,
      "ߊ": 1287,
      "ߋ": 1288,
      "ߌ": 1289,
      "ߍ": 1290,
      "ߎ": 1291,
      "ߏ": 1292,
      "ߐ": 1293,
      "ߒ": 1294,
      "ߓ": 1295,
      "ߔ": 1296,
      "ߕ": 1297,
      "ߖ": 1298,
      "ߗ": 1299,
      "ߘ": 1300,
      "ߙ": 1301,
      "ߚ": 1302,
      "ߛ": 1303,
      "ߜ": 1304,
      "ߝ": 1305,
      "ߞ": 1306,
      "ߟ": 1307,
      "ߡ": 1308,
      "ߢ": 1309,
      "ߣ": 1310,
      "ߤ": 1311,
      "ߥ": 1312,
      "ߦ": 1313,
      "߫": 1314,
      "߬": 1315,
      "߯": 1316,
      "߰": 1317,
      "߲": 1318,
      "ࠋ": 1319,
      "ࠌ": 1320,
      "ࠔ": 1321,
      "ࡅ": 1322,
      "ࡏ": 1323,
      "ࡔ": 1324,
      "ࢯ": 1325,
      "ँ": 1326,
      "ं": 1327,
      "ः": 1328,
      "अ": 1329,
      "आ": 1330,
      "इ": 1331,
      "ई": 1332,
      "उ": 1333,
      "ऊ": 1334,
      "ऋ": 1335,
      "ऌ": 1336,
      "ए": 1337,
      "ऐ": 1338,
      "ओ": 1339,
      "औ": 1340,
      "क": 1341,
      "ख": 1342,
      "ग": 1343,
      "घ": 1344,
      "ङ": 1345,
      "च": 1346,
      "छ": 1347,
      "ज": 1348,
      "झ": 1349,
      "ञ": 1350,
      "ट": 1351,
      "ठ": 1352,
      "ड": 1353,
      "ढ": 1354,
      "ण": 1355,
      "त": 1356,
      "थ": 1357,
      "द": 1358,
      "ध": 1359,
      "न": 1360,
      "प": 1361,
      "फ": 1362,
      "ब": 1363,
      "भ": 1364,
      "म": 1365,
      "य": 1366,
      "र": 1367,
      "ऱ": 1368,
      "ल": 1369,
      "ळ": 1370,
      "व": 1371,
      "श": 1372,
      "ष": 1373,
      "स": 1374,
      "ह": 1375,
      "़": 1376,
      "ऽ": 1377,
      "ा": 1378,
      "ि": 1379,
      "ी": 1380,
      "ु": 1381,
      "ू": 1382,
      "ृ": 1383,
      "ॅ": 1384,
      "े": 1385,
      "ै": 1386,
      "ॉ": 1387,
      "ॊ": 1388,
      "ो": 1389,
      "ौ": 1390,
      "्": 1391,
      "ॐ": 1392,
      "ॢ": 1393,
      "।": 1394,
      "॥": 1395,
      "०": 1396,
      "१": 1397,
      "२": 1398,
      "३": 1399,
      "४": 1400,
      "५": 1401,
      "६": 1402,
      "७": 1403,
      "८": 1404,
      "९": 1405,
      "ॾ": 1406,
      "ঁ": 1407,
      "ং": 1408,
      "ঃ": 1409,
      "অ": 1410,
      "আ": 1411,
      "ই": 1412,
      "ঈ": 1413,
      "উ": 1414,
      "ঊ": 1415,
      "এ": 1416,
      "ও": 1417,
      "ক": 1418,
      "খ": 1419,
      "গ": 1420,
      "ঘ": 1421,
      "ঙ": 1422,
      "চ": 1423,
      "ছ": 1424,
      "জ": 1425,
      "ঝ": 1426,
      "ঞ": 1427,
      "ট": 1428,
      "ঠ": 1429,
      "ড": 1430,
      "ঢ": 1431,
      "ণ": 1432,
      "ত": 1433,
      "থ": 1434,
      "দ": 1435,
      "ধ": 1436,
      "ন": 1437,
      "প": 1438,
      "ফ": 1439,
      "ব": 1440,
      "ভ": 1441,
      "ম": 1442,
      "য": 1443,
      "র": 1444,
      "ল": 1445,
      "শ": 1446,
      "ষ": 1447,
      "স": 1448,
      "হ": 1449,
      "়": 1450,
      "া": 1451,
      "ি": 1452,
      "ী": 1453,
      "ু": 1454,
      "ূ": 1455,
      "ৃ": 1456,
      "ৄ": 1457,
      "ে": 1458,
      "ৈ": 1459,
      "ো": 1460,
      "ৌ": 1461,
      "্": 1462,
      "ৎ": 1463,
      "০": 1464,
      "১": 1465,
      "২": 1466,
      "৩": 1467,
      "৫": 1468,
      "ৰ": 1469,
      "ৱ": 1470,
      "৳": 1471,
      "৷": 1472,
      "ਂ": 1473,
      "ਅ": 1474,
      "ਆ": 1475,
      "ਇ": 1476,
      "ਈ": 1477,
      "ਉ": 1478,
      "ਊ": 1479,
      "ਏ": 1480,
      "ਐ": 1481,
      "ਓ": 1482,
      "ਕ": 1483,
      "ਖ": 1484,
      "ਗ": 1485,
      "ਘ": 1486,
      "ਚ": 1487,
      "ਛ": 1488,
      "ਜ": 1489,
      "ਝ": 1490,
      "ਟ": 1491,
      "ਠ": 1492,
      "ਡ": 1493,
      "ਢ": 1494,
      "ਣ": 1495,
      "ਤ": 1496,
      "ਥ": 1497,
      "ਦ": 1498,
      "ਧ": 1499,
      "ਨ": 1500,
      "ਪ": 1501,
      "ਫ": 1502,
      "ਬ": 1503,
      "ਭ": 1504,
      "ਮ": 1505,
      "ਯ": 1506,
      "ਰ": 1507,
      "ਲ": 1508,
      "ਵ": 1509,
      "ਸ": 1510,
      "ਹ": 1511,
      "਼": 1512,
      "ਾ": 1513,
      "ਿ": 1514,
      "ੀ": 1515,
      "ੁ": 1516,
      "ੂ": 1517,
      "ੇ": 1518,
      "ੈ": 1519,
      "ੋ": 1520,
      "ੌ": 1521,
      "੍": 1522,
      "ੜ": 1523,
      "੪": 1524,
      "੫": 1525,
      "ੰ": 1526,
      "ੱ": 1527,
      "ੴ": 1528,
      "ં": 1529,
      "અ": 1530,
      "આ": 1531,
      "ઇ": 1532,
      "ઈ": 1533,
      "એ": 1534,
      "ક": 1535,
      "ગ": 1536,
      "ઘ": 1537,
      "ચ": 1538,
      "છ": 1539,
      "જ": 1540,
      "ટ": 1541,
      "ડ": 1542,
      "ણ": 1543,
      "ત": 1544,
      "થ": 1545,
      "દ": 1546,
      "ધ": 1547,
      "ન": 1548,
      "પ": 1549,
      "ફ": 1550,
      "બ": 1551,
      "ભ": 1552,
      "મ": 1553,
      "ય": 1554,
      "ર": 1555,
      "લ": 1556,
      "ળ": 1557,
      "વ": 1558,
      "શ": 1559,
      "ષ": 1560,
      "સ": 1561,
      "હ": 1562,
      "઼": 1563,
      "ા": 1564,
      "િ": 1565,
      "ી": 1566,
      "ુ": 1567,
      "ૂ": 1568,
      "ે": 1569,
      "ૉ": 1570,
      "ો": 1571,
      "્": 1572,
      "ଁ": 1573,
      "ଂ": 1574,
      "ଅ": 1575,
      "ଆ": 1576,
      "ଇ": 1577,
      "ଓ": 1578,
      "କ": 1579,
      "ଖ": 1580,
      "ଗ": 1581,
      "ଚ": 1582,
      "ଜ": 1583,
      "ଞ": 1584,
      "ଟ": 1585,
      "ଠ": 1586,
      "ଡ": 1587,
      "ଢ": 1588,
      "ଣ": 1589,
      "ତ": 1590,
      "ଥ": 1591,
      "ଦ": 1592,
      "ଧ": 1593,
      "ନ": 1594,
      "ପ": 1595,
      "ବ": 1596,
      "ଭ": 1597,
      "ମ": 1598,
      "ର": 1599,
      "ଲ": 1600,
      "ଳ": 1601,
      "ଶ": 1602,
      "ସ": 1603,
      "ହ": 1604,
      "଼": 1605,
      "ା": 1606,
      "ି": 1607,
      "ୀ": 1608,
      "ୁ": 1609,
      "ୃ": 1610,
      "େ": 1611,
      "ୋ": 1612,
      "୍": 1613,
      "ୟ": 1614,
      "ஃ": 1615,
      "அ": 1616,
      "ஆ": 1617,
      "இ": 1618,
      "ஈ": 1619,
      "உ": 1620,
      "ஊ": 1621,
      "எ": 1622,
      "ஏ": 1623,
      "ஐ": 1624,
      "ஒ": 1625,
      "ஓ": 1626,
      "க": 1627,
      "ங": 1628,
      "ச": 1629,
      "ஜ": 1630,
      "ஞ": 1631,
      "ட": 1632,
      "ண": 1633,
      "த": 1634,
      "ந": 1635,
      "ன": 1636,
      "ப": 1637,
      "ம": 1638,
      "ய": 1639,
      "ர": 1640,
      "ற": 1641,
      "ல": 1642,
      "ள": 1643,
      "ழ": 1644,
      "வ": 1645,
      "ஷ": 1646,
      "ஸ": 1647,
      "ஹ": 1648,
      "ா": 1649,
      "ி": 1650,
      "ீ": 1651,
      "ு": 1652,
      "ூ": 1653,
      "ெ": 1654,
      "ே": 1655,
      "ை": 1656,
      "ொ": 1657,
      "ோ": 1658,
      "்": 1659,
      "ం": 1660,
      "ః": 1661,
      "అ": 1662,
      "ఆ": 1663,
      "ఉ": 1664,
      "ఎ": 1665,
      "క": 1666,
      "ఖ": 1667,
      "గ": 1668,
      "ఘ": 1669,
      "చ": 1670,
      "జ": 1671,
      "ట": 1672,
      "ఠ": 1673,
      "డ": 1674,
      "ణ": 1675,
      "త": 1676,
      "థ": 1677,
      "ద": 1678,
      "ధ": 1679,
      "న": 1680,
      "ప": 1681,
      "ఫ": 1682,
      "బ": 1683,
      "భ": 1684,
      "మ": 1685,
      "య": 1686,
      "ర": 1687,
      "ల": 1688,
      "ళ": 1689,
      "వ": 1690,
      "శ": 1691,
      "ష": 1692,
      "స": 1693,
      "హ": 1694,
      "ా": 1695,
      "ి": 1696,
      "ీ": 1697,
      "ు": 1698,
      "ూ": 1699,
      "ృ": 1700,
      "ె": 1701,
      "ే": 1702,
      "ై": 1703,
      "ొ": 1704,
      "ో": 1705,
      "ౌ": 1706,
      "్": 1707,
      "ಂ": 1708,
      "ಅ": 1709,
      "ಆ": 1710,
      "ಇ": 1711,
      "ಉ": 1712,
      "ಋ": 1713,
      "ಏ": 1714,
      "ಒ": 1715,
      "ಕ": 1716,
      "ಖ": 1717,
      "ಗ": 1718,
      "ಘ": 1719,
      "ಚ": 1720,
      "ಜ": 1721,
      "ಞ": 1722,
      "ಟ": 1723,
      "ಠ": 1724,
      "ಡ": 1725,
      "ಣ": 1726,
      "ತ": 1727,
      "ಥ": 1728,
      "ದ": 1729,
      "ಧ": 1730,
      "ನ": 1731,
      "ಪ": 1732,
      "ಫ": 1733,
      "ಬ": 1734,
      "ಭ": 1735,
      "ಮ": 1736,
      "ಯ": 1737,
      "ರ": 1738,
      "ಲ": 1739,
      "ಳ": 1740,
      "ವ": 1741,
      "ಶ": 1742,
      "ಷ": 1743,
      "ಸ": 1744,
      "ಹ": 1745,
      "ಾ": 1746,
      "ಿ": 1747,
      "ೀ": 1748,
      "ು": 1749,
      "ೂ": 1750,
      "ೃ": 1751,
      "ೆ": 1752,
      "ೇ": 1753,
      "ೈ": 1754,
      "ೊ": 1755,
      "ೋ": 1756,
      "ೌ": 1757,
      "್": 1758,
      "೬": 1759,
      "ം": 1760,
      "അ": 1761,
      "ആ": 1762,
      "ഇ": 1763,
      "എ": 1764,
      "ഒ": 1765,
      "ഓ": 1766,
      "ക": 1767,
      "ഖ": 1768,
      "ഗ": 1769,
      "ങ": 1770,
      "ച": 1771,
      "ജ": 1772,
      "ട": 1773,
      "ഠ": 1774,
      "ഡ": 1775,
      "ണ": 1776,
      "ത": 1777,
      "ഥ": 1778,
      "ദ": 1779,
      "ന": 1780,
      "പ": 1781,
      "ഫ": 1782,
      "ബ": 1783,
      "ഭ": 1784,
      "മ": 1785,
      "യ": 1786,
      "ര": 1787,
      "റ": 1788,
      "ല": 1789,
      "ള": 1790,
      "ഴ": 1791,
      "വ": 1792,
      "ശ": 1793,
      "ഷ": 1794,
      "സ": 1795,
      "ഹ": 1796,
      "ാ": 1797,
      "ി": 1798,
      "ീ": 1799,
      "ു": 1800,
      "ൂ": 1801,
      "ൃ": 1802,
      "െ": 1803,
      "േ": 1804,
      "ൈ": 1805,
      "ൊ": 1806,
      "ോ": 1807,
      "്": 1808,
      "ൗ": 1809,
      "൦": 1810,
      "൪": 1811,
      "൯": 1812,
      "ൻ": 1813,
      "ർ": 1814,
      "ൽ": 1815,
      "ൾ": 1816,
      "ං": 1817,
      "අ": 1818,
      "ආ": 1819,
      "ඇ": 1820,
      "ඉ": 1821,
      "උ": 1822,
      "එ": 1823,
      "ඔ": 1824,
      "ක": 1825,
      "ඛ": 1826,
      "ග": 1827,
      "ච": 1828,
      "ජ": 1829,
      "ඥ": 1830,
      "ට": 1831,
      "ඨ": 1832,
      "ඩ": 1833,
      "ණ": 1834,
      "ත": 1835,
      "ථ": 1836,
      "ද": 1837,
      "ධ": 1838,
      "න": 1839,
      "ඳ": 1840,
      "ප": 1841,
      "ඵ": 1842,
      "බ": 1843,
      "භ": 1844,
      "ම": 1845,
      "ඹ": 1846,
      "ය": 1847,
      "ර": 1848,
      "ල": 1849,
      "ව": 1850,
      "ශ": 1851,
      "ෂ": 1852,
      "ස": 1853,
      "හ": 1854,
      "ළ": 1855,
      "ෆ": 1856,
      "්": 1857,
      "ා": 1858,
      "ැ": 1859,
      "ෑ": 1860,
      "ි": 1861,
      "ී": 1862,
      "ු": 1863,
      "ූ": 1864,
      "ෘ": 1865,
      "ෙ": 1866,
      "ේ": 1867,
      "ො": 1868,
      "ෝ": 1869,
      "ก": 1870,
      "ข": 1871,
      "ค": 1872,
      "ฆ": 1873,
      "ง": 1874,
      "จ": 1875,
      "ฉ": 1876,
      "ช": 1877,
      "ซ": 1878,
      "ญ": 1879,
      "ฎ": 1880,
      "ฏ": 1881,
      "ฐ": 1882,
      "ฑ": 1883,
      "ฒ": 1884,
      "ณ": 1885,
      "ด": 1886,
      "ต": 1887,
      "ถ": 1888,
      "ท": 1889,
      "ธ": 1890,
      "น": 1891,
      "บ": 1892,
      "ป": 1893,
      "ผ": 1894,
      "ฝ": 1895,
      "พ": 1896,
      "ฟ": 1897,
      "ภ": 1898,
      "ม": 1899,
      "ย": 1900,
      "ร": 1901,
      "ฤ": 1902,
      "ล": 1903,
      "ว": 1904,
      "ศ": 1905,
      "ษ": 1906,
      "ส": 1907,
      "ห": 1908,
      "ฬ": 1909,
      "อ": 1910,
      "ฮ": 1911,
      "ฯ": 1912,
      "ะ": 1913,
      "ั": 1914,
      "า": 1915,
      "ำ": 1916,
      "ิ": 1917,
      "ี": 1918,
      "ึ": 1919,
      "ื": 1920,
      "ุ": 1921,
      "ู": 1922,
      "ฺ": 1923,
      "฿": 1924,
      "เ": 1925,
      "แ": 1926,
      "โ": 1927,
      "ใ": 1928,
      "ไ": 1929,
      "ๆ": 1930,
      "็": 1931,
      "่": 1932,
      "้": 1933,
      "๊": 1934,
      "๋": 1935,
      "์": 1936,
      "ํ": 1937,
      "๕": 1938,
      "๘": 1939,
      "ກ": 1940,
      "ຄ": 1941,
      "ງ": 1942,
      "ຈ": 1943,
      "ຊ": 1944,
      "ຍ": 1945,
      "ດ": 1946,
      "ຕ": 1947,
      "ຖ": 1948,
      "ທ": 1949,
      "ນ": 1950,
      "ບ": 1951,
      "ປ": 1952,
      "ຜ": 1953,
      "ພ": 1954,
      "ມ": 1955,
      "ຢ": 1956,
      "ຣ": 1957,
      "ລ": 1958,
      "ວ": 1959,
      "ສ": 1960,
      "ຫ": 1961,
      "ອ": 1962,
      "ະ": 1963,
      "ັ": 1964,
      "າ": 1965,
      "ຳ": 1966,
      "ິ": 1967,
      "ີ": 1968,
      "ຶ": 1969,
      "ູ": 1970,
      "ົ": 1971,
      "ຼ": 1972,
      "ເ": 1973,
      "ແ": 1974,
      "ໄ": 1975,
      "່": 1976,
      "້": 1977,
      "ໍ": 1978,
      "་": 1979,
      "།": 1980,
      "༔": 1981,
      "ཀ": 1982,
      "ཁ": 1983,
      "ག": 1984,
      "ང": 1985,
      "ཆ": 1986,
      "ཇ": 1987,
      "ཉ": 1988,
      "ཊ": 1989,
      "ཌ": 1990,
      "ཎ": 1991,
      "ཏ": 1992,
      "ཐ": 1993,
      "ད": 1994,
      "ན": 1995,
      "པ": 1996,
      "ཕ": 1997,
      "བ": 1998,
      "མ": 1999,
      "ཙ": 2000,
      "ཚ": 2001,
      "ཛ": 2002,
      "ཝ": 2003,
      "ཞ": 2004,
      "འ": 2005,
      "ཡ": 2006,
      "ར": 2007,
      "ལ": 2008,
      "ཤ": 2009,
      "ཥ": 2010,
      "ས": 2011,
      "ཧ": 2012,
      "ཨ": 2013,
      "ཱ": 2014,
      "ི": 2015,
      "ུ": 2016,
      "ེ": 2017,
      "ོ": 2018,
      "ཾ": 2019,
      "ཿ": 2020,
      "ྀ": 2021,
      "ྂ": 2022,
      "ྃ": 2023,
      "ྐ": 2024,
      "ྒ": 2025,
      "ྔ": 2026,
      "ྗ": 2027,
      "ྙ": 2028,
      "ྛ": 2029,
      "ྟ": 2030,
      "ྡ": 2031,
      "ྣ": 2032,
      "ྤ": 2033,
      "ྦ": 2034,
      "ྨ": 2035,
      "ྩ": 2036,
      "ྪ": 2037,
      "ྫ": 2038,
      "ྭ": 2039,
      "ྱ": 2040,
      "ྲ": 2041,
      "ླ": 2042,
      "ྷ": 2043,
      "က": 2044,
      "ခ": 2045,
      "ဂ": 2046,
      "ဃ": 2047,
      "င": 2048,
      "စ": 2049,
      "ဆ": 2050,
      "ဇ": 2051,
      "ဉ": 2052,
      "ည": 2053,
      "ဋ": 2054,
      "ဌ": 2055,
      "တ": 2056,
      "ထ": 2057,
      "ဒ": 2058,
      "ဓ": 2059,
      "န": 2060,
      "ပ": 2061,
      "ဗ": 2062,
      "ဘ": 2063,
      "မ": 2064,
      "ယ": 2065,
      "ရ": 2066,
      "လ": 2067,
      "ဝ": 2068,
      "သ": 2069,
      "ဟ": 2070,
      "ဠ": 2071,
      "အ": 2072,
      "ဢ": 2073,
      "ါ": 2074,
      "ာ": 2075,
      "ိ": 2076,
      "ီ": 2077,
      "ု": 2078,
      "ူ": 2079,
      "ေ": 2080,
      "ဲ": 2081,
      "ဴ": 2082,
      "ံ": 2083,
      "့": 2084,
      "း": 2085,
      "္": 2086,
      "်": 2087,
      "ျ": 2088,
      "ြ": 2089,
      "ွ": 2090,
      "ှ": 2091,
      "။": 2092,
      "ၢ": 2093,
      "ၵ": 2094,
      "ၶ": 2095,
      "ၷ": 2096,
      "ၸ": 2097,
      "ၹ": 2098,
      "ၻ": 2099,
      "ၼ": 2100,
      "ၿ": 2101,
      "ႁ": 2102,
      "ႂ": 2103,
      "ႃ": 2104,
      "ႄ": 2105,
      "ႅ": 2106,
      "ႆ": 2107,
      "ႇ": 2108,
      "ႈ": 2109,
      "ႉ": 2110,
      "ႊ": 2111,
      "ႏ": 2112,
      "ႚ": 2113,
      "ႛ": 2114,
      "ა": 2115,
      "ბ": 2116,
      "გ": 2117,
      "დ": 2118,
      "ე": 2119,
      "ვ": 2120,
      "ზ": 2121,
      "თ": 2122,
      "ი": 2123,
      "კ": 2124,
      "ლ": 2125,
      "მ": 2126,
      "ნ": 2127,
      "ო": 2128,
      "პ": 2129,
      "ჟ": 2130,
      "რ": 2131,
      "ს": 2132,
      "ტ": 2133,
      "უ": 2134,
      "ფ": 2135,
      "ქ": 2136,
      "ღ": 2137,
      "ყ": 2138,
      "შ": 2139,
      "ჩ": 2140,
      "ც": 2141,
      "ძ": 2142,
      "წ": 2143,
      "ჭ": 2144,
      "ხ": 2145,
      "ჯ": 2146,
      "ჰ": 2147,
      "ჷ": 2148,
      "ჹ": 2149,
      "ᄎ": 2150,
      "ᅀ": 2151,
      "ᆞ": 2152,
      "ᆷ": 2153,
      "ሀ": 2154,
      "ሁ": 2155,
      "ሂ": 2156,
      "ሃ": 2157,
      "ሄ": 2158,
      "ህ": 2159,
      "ሆ": 2160,
      "ለ": 2161,
      "ሉ": 2162,
      "ሊ": 2163,
      "ላ": 2164,
      "ል": 2165,
      "ሎ": 2166,
      "ሐ": 2167,
      "ሑ": 2168,
      "ሒ": 2169,
      "ሓ": 2170,
      "ሔ": 2171,
      "ሕ": 2172,
      "መ": 2173,
      "ሙ": 2174,
      "ሚ": 2175,
      "ማ": 2176,
      "ሜ": 2177,
      "ም": 2178,
      "ሞ": 2179,
      "ሠ": 2180,
      "ሥ": 2181,
      "ረ": 2182,
      "ሩ": 2183,
      "ሪ": 2184,
      "ራ": 2185,
      "ሬ": 2186,
      "ር": 2187,
      "ሮ": 2188,
      "ሰ": 2189,
      "ሱ": 2190,
      "ሲ": 2191,
      "ሳ": 2192,
      "ሴ": 2193,
      "ስ": 2194,
      "ሶ": 2195,
      "ሸ": 2196,
      "ሻ": 2197,
      "ሽ": 2198,
      "ቀ": 2199,
      "ቂ": 2200,
      "ቃ": 2201,
      "ቅ": 2202,
      "ቆ": 2203,
      "ቈ": 2204,
      "ቐ": 2205,
      "ቑ": 2206,
      "ቓ": 2207,
      "ቕ": 2208,
      "ቖ": 2209,
      "በ": 2210,
      "ቡ": 2211,
      "ቢ": 2212,
      "ባ": 2213,
      "ቤ": 2214,
      "ብ": 2215,
      "ቦ": 2216,
      "ተ": 2217,
      "ቱ": 2218,
      "ቲ": 2219,
      "ታ": 2220,
      "ቴ": 2221,
      "ት": 2222,
      "ቶ": 2223,
      "ቸ": 2224,
      "ኀ": 2225,
      "ነ": 2226,
      "ኑ": 2227,
      "ኒ": 2228,
      "ና": 2229,
      "ኔ": 2230,
      "ን": 2231,
      "ኖ": 2232,
      "ኛ": 2233,
      "አ": 2234,
      "ኡ": 2235,
      "ኢ": 2236,
      "ኣ": 2237,
      "ኤ": 2238,
      "እ": 2239,
      "ኦ": 2240,
      "ከ": 2241,
      "ኩ": 2242,
      "ኪ": 2243,
      "ካ": 2244,
      "ክ": 2245,
      "ኮ": 2246,
      "ኳ": 2247,
      "ኸ": 2248,
      "ኹ": 2249,
      "ኺ": 2250,
      "ኽ": 2251,
      "ኾ": 2252,
      "ወ": 2253,
      "ዉ": 2254,
      "ዊ": 2255,
      "ዋ": 2256,
      "ው": 2257,
      "ዎ": 2258,
      "ዒ": 2259,
      "ዓ": 2260,
      "ዕ": 2261,
      "ዘ": 2262,
      "ዙ": 2263,
      "ዚ": 2264,
      "ዛ": 2265,
      "ዜ": 2266,
      "ዝ": 2267,
      "ዞ": 2268,
      "የ": 2269,
      "ዩ": 2270,
      "ዪ": 2271,
      "ያ": 2272,
      "ዬ": 2273,
      "ይ": 2274,
      "ዮ": 2275,
      "ደ": 2276,
      "ዱ": 2277,
      "ዲ": 2278,
      "ዳ": 2279,
      "ዴ": 2280,
      "ድ": 2281,
      "ዶ": 2282,
      "ጀ": 2283,
      "ጂ": 2284,
      "ጃ": 2285,
      "ገ": 2286,
      "ጉ": 2287,
      "ጊ": 2288,
      "ጋ": 2289,
      "ጌ": 2290,
      "ግ": 2291,
      "ጎ": 2292,
      "ጐ": 2293,
      "ጓ": 2294,
      "ጕ": 2295,
      "ጠ": 2296,
      "ጡ": 2297,
      "ጢ": 2298,
      "ጣ": 2299,
      "ጥ": 2300,
      "ጦ": 2301,
      "ጪ": 2302,
      "ጫ": 2303,
      "ጭ": 2304,
      "ጵ": 2305,
      "ጸ": 2306,
      "ጹ": 2307,
      "ጺ": 2308,
      "ጻ": 2309,
      "ጽ": 2310,
      "ፂ": 2311,
      "ፈ": 2312,
      "ፋ": 2313,
      "ፌ": 2314,
      "ፍ": 2315,
      "ፎ": 2316,
      "ፖ": 2317,
      "፡": 2318,
      "።": 2319,
      "፣": 2320,
      "Ꭰ": 2321,
      "Ꭳ": 2322,
      "Ꭶ": 2323,
      "Ꭸ": 2324,
      "Ꭹ": 2325,
      "Ꮃ": 2326,
      "Ꮌ": 2327,
      "Ꮎ": 2328,
      "Ꮳ": 2329,
      "Ꮷ": 2330,
      "Ꮻ": 2331,
      "Ᏹ": 2332,
      "Ᏻ": 2333,
      "ᏸ": 2334,
      "ᐃ": 2335,
      "ᐄ": 2336,
      "ᐅ": 2337,
      "ᐊ": 2338,
      "ᐋ": 2339,
      "ᐎ": 2340,
      "ᐏ": 2341,
      "ᐗ": 2342,
      "ᐘ": 2343,
      "ᐙ": 2344,
      "ᐚ": 2345,
      "ᐠ": 2346,
      "ᐢ": 2347,
      "ᐣ": 2348,
      "ᐤ": 2349,
      "ᐦ": 2350,
      "ᐧ": 2351,
      "ᐯ": 2352,
      "ᐱ": 2353,
      "ᐲ": 2354,
      "ᐳ": 2355,
      "ᐸ": 2356,
      "ᐹ": 2357,
      "ᑉ": 2358,
      "ᑌ": 2359,
      "ᑎ": 2360,
      "ᑏ": 2361,
      "ᑐ": 2362,
      "ᑑ": 2363,
      "ᑕ": 2364,
      "ᑖ": 2365,
      "ᑦ": 2366,
      "ᑫ": 2367,
      "ᑭ": 2368,
      "ᑯ": 2369,
      "ᑲ": 2370,
      "ᑳ": 2371,
      "ᑴ": 2372,
      "ᑿ": 2373,
      "ᒃ": 2374,
      "ᒄ": 2375,
      "ᒉ": 2376,
      "ᒋ": 2377,
      "ᒍ": 2378,
      "ᒐ": 2379,
      "ᒑ": 2380,
      "ᒡ": 2381,
      "ᒢ": 2382,
      "ᒣ": 2383,
      "ᒥ": 2384,
      "ᒦ": 2385,
      "ᒧ": 2386,
      "ᒪ": 2387,
      "ᒫ": 2388,
      "ᒻ": 2389,
      "ᒼ": 2390,
      "ᓀ": 2391,
      "ᓂ": 2392,
      "ᓄ": 2393,
      "ᓅ": 2394,
      "ᓇ": 2395,
      "ᓈ": 2396,
      "ᓐ": 2397,
      "ᓕ": 2398,
      "ᓖ": 2399,
      "ᓗ": 2400,
      "ᓘ": 2401,
      "ᓚ": 2402,
      "ᓛ": 2403,
      "ᓪ": 2404,
      "ᓭ": 2405,
      "ᓯ": 2406,
      "ᓱ": 2407,
      "ᓲ": 2408,
      "ᓴ": 2409,
      "ᓵ": 2410,
      "ᔅ": 2411,
      "ᔑ": 2412,
      "ᔥ": 2413,
      "ᔨ": 2414,
      "ᔪ": 2415,
      "ᔭ": 2416,
      "ᔮ": 2417,
      "ᕄ": 2418,
      "ᕆ": 2419,
      "ᕇ": 2420,
      "ᕈ": 2421,
      "ᕋ": 2422,
      "ᕐ": 2423,
      "ᕕ": 2424,
      "ᕙ": 2425,
      "ᕝ": 2426,
      "ᕿ": 2427,
      "ᖁ": 2428,
      "ᖃ": 2429,
      "ᖅ": 2430,
      "ᖏ": 2431,
      "ᖑ": 2432,
      "ᖕ": 2433,
      "ᖤ": 2434,
      "ᗸ": 2435,
      "ᙵ": 2436,
      "ᙶ": 2437,
      "ᚠ": 2438,
      "ᚢ": 2439,
      "ᚦ": 2440,
      "ᚨ": 2441,
      "ᚱ": 2442,
      "ᚲ": 2443,
      "ᚴ": 2444,
      "ᚷ": 2445,
      "ᚹ": 2446,
      "ᚺ": 2447,
      "ᚻ": 2448,
      "ᚼ": 2449,
      "ᚾ": 2450,
      "ᛁ": 2451,
      "ᛃ": 2452,
      "ᛄ": 2453,
      "ᛅ": 2454,
      "ᛈ": 2455,
      "ᛉ": 2456,
      "ᛋ": 2457,
      "ᛏ": 2458,
      "ᛒ": 2459,
      "ᛖ": 2460,
      "ᛗ": 2461,
      "ᛘ": 2462,
      "ᛚ": 2463,
      "ᛝ": 2464,
      "ᛞ": 2465,
      "ᛟ": 2466,
      "ᛦ": 2467,
      "᛬": 2468,
      "᛭": 2469,
      "ᜃ": 2470,
      "ក": 2471,
      "ខ": 2472,
      "គ": 2473,
      "ង": 2474,
      "ច": 2475,
      "ជ": 2476,
      "ញ": 2477,
      "ដ": 2478,
      "ណ": 2479,
      "ត": 2480,
      "ថ": 2481,
      "ទ": 2482,
      "ធ": 2483,
      "ន": 2484,
      "ប": 2485,
      "ផ": 2486,
      "ព": 2487,
      "ភ": 2488,
      "ម": 2489,
      "យ": 2490,
      "រ": 2491,
      "ល": 2492,
      "វ": 2493,
      "ឝ": 2494,
      "ឞ": 2495,
      "ស": 2496,
      "ហ": 2497,
      "ឡ": 2498,
      "អ": 2499,
      "ឧ": 2500,
      "ា": 2501,
      "ិ": 2502,
      "ី": 2503,
      "ឹ": 2504,
      "ុ": 2505,
      "ូ": 2506,
      "ួ": 2507,
      "ើ": 2508,
      "ឿ": 2509,
      "េ": 2510,
      "ែ": 2511,
      "ៃ": 2512,
      "ោ": 2513,
      "ំ": 2514,
      "ះ": 2515,
      "ៈ": 2516,
      "៉": 2517,
      "៊": 2518,
      "់": 2519,
      "្": 2520,
      "៝": 2521,
      "១": 2522,
      "ᤅ": 2523,
      "ᤈ": 2524,
      "ᤖ": 2525,
      "ᤛ": 2526,
      "ᤡ": 2527,
      "ᤨ": 2528,
      "ᥑ": 2529,
      "ᥒ": 2530,
      "ᥔ": 2531,
      "ᥕ": 2532,
      "ᥖ": 2533,
      "ᥘ": 2534,
      "ᥛ": 2535,
      "ᥝ": 2536,
      "ᥟ": 2537,
      "ᥣ": 2538,
      "ᥤ": 2539,
      "ᥥ": 2540,
      "ᥧ": 2541,
      "ᥨ": 2542,
      "ᥫ": 2543,
      "ᥬ": 2544,
      "ᥭ": 2545,
      "ᥰ": 2546,
      "ᥱ": 2547,
      "ᥳ": 2548,
      "ᥴ": 2549,
      "ᦙ": 2550,
      "ᦲ": 2551,
      "ᦵ": 2552,
      "ᧂ": 2553,
      "ᨁ": 2554,
      "ᨅ": 2555,
      "ᨔ": 2556,
      "ᨕ": 2557,
      "ᨗ": 2558,
      "ᨘ": 2559,
      "ᬓ": 2560,
      "ᬜ": 2561,
      "ᬤ": 2562,
      "ᬭ": 2563,
      "ᬮ": 2564,
      "ᬶ": 2565,
      "ᬸ": 2566,
      "ᭀ": 2567,
      "᭄": 2568,
      "ᮊ": 2569,
      "ᮑ": 2570,
      "ᮓ": 2571,
      "ᮛ": 2572,
      "ᮜ": 2573,
      "ᮤ": 2574,
      "ᮥ": 2575,
      "᮪": 2576,
      "ᴀ": 2577,
      "ᴁ": 2578,
      "ᴃ": 2579,
      "ᴄ": 2580,
      "ᴅ": 2581,
      "ᴆ": 2582,
      "ᴇ": 2583,
      "ᴊ": 2584,
      "ᴋ": 2585,
      "ᴌ": 2586,
      "ᴍ": 2587,
      "ᴎ": 2588,
      "ᴏ": 2589,
      "ᴐ": 2590,
      "ᴘ": 2591,
      "ᴙ": 2592,
      "ᴚ": 2593,
      "ᴛ": 2594,
      "ᴜ": 2595,
      "ᴠ": 2596,
      "ᴡ": 2597,
      "ᴢ": 2598,
      "ᴣ": 2599,
      "ᴥ": 2600,
      "ᴦ": 2601,
      "ᴧ": 2602,
      "ᴨ": 2603,
      "ᴩ": 2604,
      "ᴪ": 2605,
      "ᴴ": 2606,
      "ᵄ": 2607,
      "ᵉ": 2608,
      "ᵊ": 2609,
      "ᵐ": 2610,
      "ᵑ": 2611,
      "ᵲ": 2612,
      "ᵷ": 2613,
      "ᵸ": 2614,
      "ᵽ": 2615,
      "ᶀ": 2616,
      "ᶁ": 2617,
      "ᶂ": 2618,
      "ᶃ": 2619,
      "ᶄ": 2620,
      "ᶅ": 2621,
      "ᶆ": 2622,
      "ᶇ": 2623,
      "ᶈ": 2624,
      "ᶉ": 2625,
      "ᶊ": 2626,
      "ᶋ": 2627,
      "ᶌ": 2628,
      "ᶍ": 2629,
      "ᶎ": 2630,
      "ᶏ": 2631,
      "ᶐ": 2632,
      "ᶑ": 2633,
      "ᶒ": 2634,
      "ᶓ": 2635,
      "ᶔ": 2636,
      "ᶕ": 2637,
      "ᶖ": 2638,
      "ᶗ": 2639,
      "ᶘ": 2640,
      "ᶙ": 2641,
      "ᶚ": 2642,
      "ᶛ": 2643,
      "ᶜ": 2644,
      "ᶝ": 2645,
      "ᶡ": 2646,
      "ᶨ": 2647,
      "ᶩ": 2648,
      "ᶪ": 2649,
      "ᶫ": 2650,
      "ᶯ": 2651,
      "ᶵ": 2652,
      "ᶼ": 2653,
      "᷆": 2654,
      "Ḁ": 2655,
      "ḁ": 2656,
      "ḃ": 2657,
      "ḅ": 2658,
      "ḇ": 2659,
      "Ḉ": 2660,
      "ḉ": 2661,
      "ḋ": 2662,
      "Ḍ": 2663,
      "ḍ": 2664,
      "Ḏ": 2665,
      "ḏ": 2666,
      "ḑ": 2667,
      "ḓ": 2668,
      "ḕ": 2669,
      "Ḗ": 2670,
      "ḗ": 2671,
      "ḙ": 2672,
      "ḛ": 2673,
      "ḝ": 2674,
      "Ḡ": 2675,
      "ḡ": 2676,
      "ḣ": 2677,
      "Ḥ": 2678,
      "ḥ": 2679,
      "Ḧ": 2680,
      "Ḩ": 2681,
      "ḩ": 2682,
      "Ḫ": 2683,
      "ḫ": 2684,
      "ḭ": 2685,
      "ḯ": 2686,
      "Ḱ": 2687,
      "ḱ": 2688,
      "Ḳ": 2689,
      "ḳ": 2690,
      "Ḵ": 2691,
      "ḵ": 2692,
      "Ḷ": 2693,
      "ḷ": 2694,
      "Ḹ": 2695,
      "ḹ": 2696,
      "Ḻ": 2697,
      "ḻ": 2698,
      "Ḽ": 2699,
      "ḽ": 2700,
      "Ḿ": 2701,
      "ḿ": 2702,
      "ṁ": 2703,
      "ṃ": 2704,
      "ṅ": 2705,
      "ṇ": 2706,
      "Ṉ": 2707,
      "ṉ": 2708,
      "ṋ": 2709,
      "ṏ": 2710,
      "ṑ": 2711,
      "ṓ": 2712,
      "ṕ": 2713,
      "ṗ": 2714,
      "ṙ": 2715,
      "Ṛ": 2716,
      "ṛ": 2717,
      "ṝ": 2718,
      "ṟ": 2719,
      "Ṡ": 2720,
      "ṡ": 2721,
      "Ṣ": 2722,
      "ṣ": 2723,
      "Ṥ": 2724,
      "Ṧ": 2725,
      "Ṫ": 2726,
      "ṫ": 2727,
      "Ṭ": 2728,
      "ṭ": 2729,
      "Ṯ": 2730,
      "ṯ": 2731,
      "ṳ": 2732,
      "ṿ": 2733,
      "Ẁ": 2734,
      "ẁ": 2735,
      "Ẃ": 2736,
      "Ẅ": 2737,
      "ẅ": 2738,
      "Ẇ": 2739,
      "Ẉ": 2740,
      "Ẋ": 2741,
      "ẋ": 2742,
      "ẏ": 2743,
      "Ẓ": 2744,
      "ẓ": 2745,
      "Ẕ": 2746,
      "ẕ": 2747,
      "ẖ": 2748,
      "ẚ": 2749,
      "ẛ": 2750,
      "ẞ": 2751,
      "Ạ": 2752,
      "ạ": 2753,
      "Ả": 2754,
      "ả": 2755,
      "Ấ": 2756,
      "ấ": 2757,
      "Ầ": 2758,
      "ầ": 2759,
      "Ẩ": 2760,
      "ẩ": 2761,
      "Ẫ": 2762,
      "ẫ": 2763,
      "Ậ": 2764,
      "ậ": 2765,
      "Ắ": 2766,
      "ắ": 2767,
      "Ằ": 2768,
      "ằ": 2769,
      "Ẳ": 2770,
      "ẳ": 2771,
      "Ẵ": 2772,
      "ẵ": 2773,
      "Ặ": 2774,
      "ặ": 2775,
      "Ẹ": 2776,
      "ẹ": 2777,
      "ẻ": 2778,
      "Ẽ": 2779,
      "ẽ": 2780,
      "Ế": 2781,
      "ế": 2782,
      "Ề": 2783,
      "ề": 2784,
      "ể": 2785,
      "Ễ": 2786,
      "ễ": 2787,
      "Ệ": 2788,
      "ệ": 2789,
      "Ỉ": 2790,
      "ỉ": 2791,
      "Ị": 2792,
      "ị": 2793,
      "Ọ": 2794,
      "ọ": 2795,
      "ỏ": 2796,
      "Ố": 2797,
      "ố": 2798,
      "Ồ": 2799,
      "ồ": 2800,
      "Ổ": 2801,
      "ổ": 2802,
      "ỗ": 2803,
      "Ộ": 2804,
      "ộ": 2805,
      "Ớ": 2806,
      "ớ": 2807,
      "ờ": 2808,
      "Ở": 2809,
      "ở": 2810,
      "ỡ": 2811,
      "Ợ": 2812,
      "ợ": 2813,
      "ụ": 2814,
      "Ủ": 2815,
      "ủ": 2816,
      "Ứ": 2817,
      "ứ": 2818,
      "ừ": 2819,
      "ử": 2820,
      "ữ": 2821,
      "ự": 2822,
      "Ỳ": 2823,
      "ỳ": 2824,
      "ỵ": 2825,
      "ỷ": 2826,
      "ỹ": 2827,
      "ἀ": 2828,
      "ἁ": 2829,
      "ἂ": 2830,
      "ἄ": 2831,
      "ἅ": 2832,
      "ἆ": 2833,
      "Ἀ": 2834,
      "Ἁ": 2835,
      "Ἂ": 2836,
      "Ἄ": 2837,
      "Ἅ": 2838,
      "ἐ": 2839,
      "ἑ": 2840,
      "ἓ": 2841,
      "ἔ": 2842,
      "ἕ": 2843,
      "Ἐ": 2844,
      "Ἑ": 2845,
      "Ἔ": 2846,
      "Ἕ": 2847,
      "ἠ": 2848,
      "ἡ": 2849,
      "ἢ": 2850,
      "ἣ": 2851,
      "ἤ": 2852,
      "ἥ": 2853,
      "ἦ": 2854,
      "Ἠ": 2855,
      "Ἡ": 2856,
      "Ἢ": 2857,
      "Ἤ": 2858,
      "Ἥ": 2859,
      "Ἦ": 2860,
      "ἰ": 2861,
      "ἱ": 2862,
      "ἳ": 2863,
      "ἴ": 2864,
      "ἵ": 2865,
      "ἶ": 2866,
      "ἷ": 2867,
      "Ἰ": 2868,
      "Ἱ": 2869,
      "Ἵ": 2870,
      "ὀ": 2871,
      "ὁ": 2872,
      "ὃ": 2873,
      "ὄ": 2874,
      "ὅ": 2875,
      "Ὀ": 2876,
      "Ὁ": 2877,
      "Ὃ": 2878,
      "Ὄ": 2879,
      "Ὅ": 2880,
      "ὐ": 2881,
      "ὑ": 2882,
      "ὓ": 2883,
      "ὔ": 2884,
      "ὕ": 2885,
      "ὖ": 2886,
      "ὗ": 2887,
      "Ὑ": 2888,
      "Ὕ": 2889,
      "ὠ": 2890,
      "ὡ": 2891,
      "ὢ": 2892,
      "ὤ": 2893,
      "ὥ": 2894,
      "ὦ": 2895,
      "ὧ": 2896,
      "Ὠ": 2897,
      "Ὥ": 2898,
      "Ὦ": 2899,
      "Ὧ": 2900,
      "ὰ": 2901,
      "ὲ": 2902,
      "ὴ": 2903,
      "ὶ": 2904,
      "ὸ": 2905,
      "ὺ": 2906,
      "ὼ": 2907,
      "ᾍ": 2908,
      "ᾖ": 2909,
      "ᾠ": 2910,
      "ᾦ": 2911,
      "ᾧ": 2912,
      "ᾰ": 2913,
      "ᾱ": 2914,
      "ᾳ": 2915,
      "ᾶ": 2916,
      "ᾷ": 2917,
      "᾽": 2918,
      "᾿": 2919,
      "ῃ": 2920,
      "ῆ": 2921,
      "ῇ": 2922,
      "ῐ": 2923,
      "ῑ": 2924,
      "ῖ": 2925,
      "Ὶ": 2926,
      "ῠ": 2927,
      "ῡ": 2928,
      "ῤ": 2929,
      "ῥ": 2930,
      "ῦ": 2931,
      "Ῥ": 2932,
      "ῳ": 2933,
      "ῴ": 2934,
      "ῶ": 2935,
      "ῷ": 2936,
      "῾": 2937,
      "​": 2938,
      "‌": 2939,
      "‍": 2940,
      "‎": 2941,
      "‏": 2942,
      "‐": 2943,
      "‑": 2944,
      "‒": 2945,
      "–": 2946,
      "—": 2947,
      "―": 2948,
      "‖": 2949,
      "‘": 2950,
      "’": 2951,
      "‚": 2952,
      "‛": 2953,
      "“": 2954,
      "”": 2955,
      "„": 2956,
      "‟": 2957,
      "†": 2958,
      "‡": 2959,
      "•": 2960,
      "‣": 2961,
      "․": 2962,
      "‥": 2963,
      "…": 2964,
      "‧": 2965,
      "‬": 2966,
      "‰": 2967,
      "‱": 2968,
      "′": 2969,
      "″": 2970,
      "‵": 2971,
      "‹": 2972,
      "›": 2973,
      "※": 2974,
      "‾": 2975,
      "‿": 2976,
      "⁂": 2977,
      "⁄": 2978,
      "⁒": 2979,
      "⁓": 2980,
      "⁠": 2981,
      "⁣": 2982,
      "⁰": 2983,
      "⁴": 2984,
      "⁵": 2985,
      "⁶": 2986,
      "⁷": 2987,
      "⁸": 2988,
      "⁹": 2989,
      "⁺": 2990,
      "ⁿ": 2991,
      "₀": 2992,
      "₁": 2993,
      "₂": 2994,
      "₃": 2995,
      "₄": 2996,
      "₅": 2997,
      "₆": 2998,
      "₇": 2999,
      "₈": 3000,
      "₉": 3001,
      "ₗ": 3002,
      "₠": 3003,
      "₡": 3004,
      "₢": 3005,
      "₣": 3006,
      "₤": 3007,
      "₦": 3008,
      "₧": 3009,
      "₨": 3010,
      "₩": 3011,
      "₪": 3012,
      "₫": 3013,
      "€": 3014,
      "₮": 3015,
      "₰": 3016,
      "₱": 3017,
      "₳": 3018,
      "₴": 3019,
      "₵": 3020,
      "₸": 3021,
      "₹": 3022,
      "₽": 3023,
      "⃀": 3024,
      "ℂ": 3025,
      "℃": 3026,
      "ℏ": 3027,
      "ℒ": 3028,
      "ℓ": 3029,
      "ℕ": 3030,
      "№": 3031,
      "℗": 3032,
      "℘": 3033,
      "ℛ": 3034,
      "ℝ": 3035,
      "℟": 3036,
      "™": 3037,
      "℣": 3038,
      "ℤ": 3039,
      "℧": 3040,
      "ℭ": 3041,
      "℮": 3042,
      "ℳ": 3043,
      "ℵ": 3044,
      "⅁": 3045,
      "⅄": 3046,
      "⅓": 3047,
      "⅔": 3048,
      "⅛": 3049,
      "⅜": 3050,
      "⅝": 3051,
      "⅞": 3052,
      "Ↄ": 3053,
      "ↄ": 3054,
      "←": 3055,
      "↑": 3056,
      "→": 3057,
      "↓": 3058,
      "↔": 3059,
      "↘": 3060,
      "↙": 3061,
      "↠": 3062,
      "↣": 3063,
      "↦": 3064,
      "↩": 3065,
      "↯": 3066,
      "↵": 3067,
      "⇄": 3068,
      "⇋": 3069,
      "⇌": 3070,
      "⇒": 3071,
      "⇔": 3072,
      "⇧": 3073,
      "⇪": 3074,
      "⇸": 3075,
      "∀": 3076,
      "∂": 3077,
      "∃": 3078,
      "∄": 3079,
      "∅": 3080,
      "∆": 3081,
      "∇": 3082,
      "∈": 3083,
      "∉": 3084,
      "∊": 3085,
      "∋": 3086,
      "∍": 3087,
      "∑": 3088,
      "−": 3089,
      "∗": 3090,
      "∘": 3091,
      "∙": 3092,
      "√": 3093,
      "∝": 3094,
      "∞": 3095,
      "∠": 3096,
      "∥": 3097,
      "∧": 3098,
      "∨": 3099,
      "∩": 3100,
      "∪": 3101,
      "∫": 3102,
      "∮": 3103,
      "∴": 3104,
      "∼": 3105,
      "∽": 3106,
      "≃": 3107,
      "≅": 3108,
      "≈": 3109,
      "≐": 3110,
      "≟": 3111,
      "≠": 3112,
      "≡": 3113,
      "≢": 3114,
      "≤": 3115,
      "≥": 3116,
      "≪": 3117,
      "≫": 3118,
      "≼": 3119,
      "≽": 3120,
      "⊂": 3121,
      "⊃": 3122,
      "⊅": 3123,
      "⊆": 3124,
      "⊇": 3125,
      "⊊": 3126,
      "⊋": 3127,
      "⊕": 3128,
      "⊖": 3129,
      "⊗": 3130,
      "⊙": 3131,
      "⊢": 3132,
      "⊣": 3133,
      "⊤": 3134,
      "⊥": 3135,
      "⊧": 3136,
      "⊸": 3137,
      "⊿": 3138,
      "⋅": 3139,
      "⋯": 3140,
      "⌂": 3141,
      "⌃": 3142,
      "⌈": 3143,
      "⌉": 3144,
      "⌊": 3145,
      "⌋": 3146,
      "⌑": 3147,
      "⌓": 3148,
      "⌖": 3149,
      "⌘": 3150,
      "⌚": 3151,
      "⌛": 3152,
      "⌥": 3153,
      "〈": 3154,
      "〉": 3155,
      "⌽": 3156,
      "⌿": 3157,
      "⍋": 3158,
      "⍝": 3159,
      "⍨": 3160,
      "⍳": 3161,
      "⍴": 3162,
      "⍵": 3163,
      "⍾": 3164,
      "⎉": 3165,
      "⎏": 3166,
      "⎐": 3167,
      "⎑": 3168,
      "⎒": 3169,
      "⎧": 3170,
      "⎩": 3171,
      "⏏": 3172,
      "⏚": 3173,
      "⏨": 3174,
      "⏩": 3175,
      "␇": 3176,
      "␣": 3177,
      "①": 3178,
      "②": 3179,
      "③": 3180,
      "④": 3181,
      "⑤": 3182,
      "⑥": 3183,
      "⑦": 3184,
      "⑨": 3185,
      "⑴": 3186,
      "⑵": 3187,
      "⑶": 3188,
      "⑷": 3189,
      "Ⓐ": 3190,
      "Ⓒ": 3191,
      "Ⓚ": 3192,
      "Ⓜ": 3193,
      "Ⓟ": 3194,
      "Ⓣ": 3195,
      "Ⓥ": 3196,
      "ⓥ": 3197,
      "─": 3198,
      "━": 3199,
      "│": 3200,
      "┃": 3201,
      "┌": 3202,
      "┏": 3203,
      "┐": 3204,
      "┓": 3205,
      "└": 3206,
      "┘": 3207,
      "├": 3208,
      "┣": 3209,
      "┫": 3210,
      "┳": 3211,
      "┼": 3212,
      "╋": 3213,
      "╥": 3214,
      "╨": 3215,
      "╪": 3216,
      "▀": 3217,
      "▄": 3218,
      "█": 3219,
      "░": 3220,
      "▒": 3221,
      "▓": 3222,
      "■": 3223,
      "□": 3224,
      "▪": 3225,
      "▲": 3226,
      "△": 3227,
      "▷": 3228,
      "▸": 3229,
      "►": 3230,
      "▻": 3231,
      "▼": 3232,
      "▽": 3233,
      "◁": 3234,
      "◅": 3235,
      "◆": 3236,
      "◇": 3237,
      "◊": 3238,
      "○": 3239,
      "◌": 3240,
      "◎": 3241,
      "●": 3242,
      "◔": 3243,
      "◘": 3244,
      "◦": 3245,
      "◯": 3246,
      "☁": 3247,
      "☃": 3248,
      "★": 3249,
      "☆": 3250,
      "☉": 3251,
      "☎": 3252,
      "☠": 3253,
      "☡": 3254,
      "☥": 3255,
      "☧": 3256,
      "☫": 3257,
      "☲": 3258,
      "☸": 3259,
      "☺": 3260,
      "♀": 3261,
      "♂": 3262,
      "♈": 3263,
      "♑": 3264,
      "♒": 3265,
      "♙": 3266,
      "♠": 3267,
      "♡": 3268,
      "♣": 3269,
      "♥": 3270,
      "♦": 3271,
      "♪": 3272,
      "♫": 3273,
      "♭": 3274,
      "♯": 3275,
      "♾": 3276,
      "⚇": 3277,
      "⚐": 3278,
      "⚒": 3279,
      "⚓": 3280,
      "⚢": 3281,
      "⚣": 3282,
      "⚥": 3283,
      "⚦": 3284,
      "⚧": 3285,
      "⚨": 3286,
      "⚭": 3287,
      "⚲": 3288,
      "✈": 3289,
      "✌": 3290,
      "✓": 3291,
      "✕": 3292,
      "✝": 3293,
      "✪": 3294,
      "✯": 3295,
      "✱": 3296,
      "✶": 3297,
      "✻": 3298,
      "❤": 3299,
      "➙": 3300,
      "➤": 3301,
      "➵": 3302,
      "⟨": 3303,
      "⟩": 3304,
      "⟶": 3305,
      "⠀": 3306,
      "⠁": 3307,
      "⠋": 3308,
      "⠙": 3309,
      "⠟": 3310,
      "⠣": 3311,
      "⠻": 3312,
      "⠿": 3313,
      "⡈": 3314,
      "⡟": 3315,
      "⡷": 3316,
      "⡿": 3317,
      "⢀": 3318,
      "⢁": 3319,
      "⢻": 3320,
      "⢿": 3321,
      "⣉": 3322,
      "⣌": 3323,
      "⣠": 3324,
      "⣦": 3325,
      "⣧": 3326,
      "⣴": 3327,
      "⣶": 3328,
      "⣷": 3329,
      "⣼": 3330,
      "⣾": 3331,
      "⣿": 3332,
      "⤙": 3333,
      "⤧": 3334,
      "⨁": 3335,
      "⩽": 3336,
      "⩾": 3337,
      "Ⰽ": 3338,
      "ⰲ": 3339,
      "ⰻ": 3340,
      "ⰽ": 3341,
      "ⱀ": 3342,
      "ⱁ": 3343,
      "ⱂ": 3344,
      "ⱆ": 3345,
      "Ⱡ": 3346,
      "ⱡ": 3347,
      "Ᵽ": 3348,
      "ⱥ": 3349,
      "Ⱨ": 3350,
      "ⱨ": 3351,
      "Ⱪ": 3352,
      "ⱪ": 3353,
      "Ⱬ": 3354,
      "ⱬ": 3355,
      "Ɑ": 3356,
      "Ɐ": 3357,
      "Ɒ": 3358,
      "ⱱ": 3359,
      "ⱴ": 3360,
      "ⱷ": 3361,
      "Ɀ": 3362,
      "ⲁ": 3363,
      "Ⲃ": 3364,
      "ⲃ": 3365,
      "ⲇ": 3366,
      "ⲉ": 3367,
      "ⲏ": 3368,
      "ⲓ": 3369,
      "Ⲗ": 3370,
      "ⲗ": 3371,
      "ⲙ": 3372,
      "ⲛ": 3373,
      "ⲟ": 3374,
      "ⲡ": 3375,
      "ⲣ": 3376,
      "ⲥ": 3377,
      "ⲧ": 3378,
      "ⲩ": 3379,
      "ⲱ": 3380,
      "⳩": 3381,
      "ⴰ": 3382,
      "ⴱ": 3383,
      "ⴳ": 3384,
      "ⴷ": 3385,
      "ⴻ": 3386,
      "ⴼ": 3387,
      "ⴽ": 3388,
      "ⵃ": 3389,
      "ⵇ": 3390,
      "ⵉ": 3391,
      "ⵊ": 3392,
      "ⵍ": 3393,
      "ⵎ": 3394,
      "ⵏ": 3395,
      "ⵓ": 3396,
      "ⵔ": 3397,
      "ⵖ": 3398,
      "ⵙ": 3399,
      "ⵚ": 3400,
      "ⵛ": 3401,
      "ⵜ": 3402,
      "ⵟ": 3403,
      "ⵠ": 3404,
      "ⵡ": 3405,
      "ⵢ": 3406,
      "ⵣ": 3407,
      "ⵥ": 3408,
      "⸒": 3409,
      "⸗": 3410,
      "⸮": 3411,
      "⹋": 3412,
      "⾥": 3413,
      "⾵": 3414,
      "、": 3415,
      "。": 3416,
      "々": 3417,
      "〇": 3418,
      "〈": 3419,
      "〉": 3420,
      "《": 3421,
      "》": 3422,
      "「": 3423,
      "」": 3424,
      "『": 3425,
      "』": 3426,
      "【": 3427,
      "】": 3428,
      "〒": 3429,
      "〓": 3430,
      "〔": 3431,
      "〕": 3432,
      "〜": 3433,
      "〮": 3434,
      "ぁ": 3435,
      "あ": 3436,
      "ぃ": 3437,
      "い": 3438,
      "う": 3439,
      "ぇ": 3440,
      "え": 3441,
      "ぉ": 3442,
      "お": 3443,
      "か": 3444,
      "が": 3445,
      "き": 3446,
      "ぎ": 3447,
      "く": 3448,
      "ぐ": 3449,
      "け": 3450,
      "げ": 3451,
      "こ": 3452,
      "ご": 3453,
      "さ": 3454,
      "ざ": 3455,
      "し": 3456,
      "じ": 3457,
      "す": 3458,
      "ず": 3459,
      "せ": 3460,
      "ぜ": 3461,
      "そ": 3462,
      "ぞ": 3463,
      "た": 3464,
      "だ": 3465,
      "ち": 3466,
      "ぢ": 3467,
      "っ": 3468,
      "つ": 3469,
      "づ": 3470,
      "て": 3471,
      "で": 3472,
      "と": 3473,
      "ど": 3474,
      "な": 3475,
      "に": 3476,
      "ぬ": 3477,
      "ね": 3478,
      "の": 3479,
      "は": 3480,
      "ば": 3481,
      "ぱ": 3482,
      "ひ": 3483,
      "び": 3484,
      "ぴ": 3485,
      "ふ": 3486,
      "ぶ": 3487,
      "ぷ": 3488,
      "へ": 3489,
      "べ": 3490,
      "ほ": 3491,
      "ぼ": 3492,
      "ぽ": 3493,
      "ま": 3494,
      "み": 3495,
      "む": 3496,
      "め": 3497,
      "も": 3498,
      "ゃ": 3499,
      "や": 3500,
      "ゅ": 3501,
      "ゆ": 3502,
      "ょ": 3503,
      "よ": 3504,
      "ら": 3505,
      "り": 3506,
      "る": 3507,
      "れ": 3508,
      "ろ": 3509,
      "ゎ": 3510,
      "わ": 3511,
      "ゐ": 3512,
      "ゑ": 3513,
      "を": 3514,
      "ん": 3515,
      "゙": 3516,
      "゚": 3517,
      "゛": 3518,
      "゜": 3519,
      "ゝ": 3520,
      "ァ": 3521,
      "ア": 3522,
      "ィ": 3523,
      "イ": 3524,
      "ゥ": 3525,
      "ウ": 3526,
      "ェ": 3527,
      "エ": 3528,
      "ォ": 3529,
      "オ": 3530,
      "カ": 3531,
      "ガ": 3532,
      "キ": 3533,
      "ギ": 3534,
      "ク": 3535,
      "グ": 3536,
      "ケ": 3537,
      "ゲ": 3538,
      "コ": 3539,
      "ゴ": 3540,
      "サ": 3541,
      "ザ": 3542,
      "シ": 3543,
      "ジ": 3544,
      "ス": 3545,
      "ズ": 3546,
      "セ": 3547,
      "ゼ": 3548,
      "ソ": 3549,
      "ゾ": 3550,
      "タ": 3551,
      "ダ": 3552,
      "チ": 3553,
      "ヂ": 3554,
      "ッ": 3555,
      "ツ": 3556,
      "ヅ": 3557,
      "テ": 3558,
      "デ": 3559,
      "ト": 3560,
      "ド": 3561,
      "ナ": 3562,
      "ニ": 3563,
      "ヌ": 3564,
      "ネ": 3565,
      "ノ": 3566,
      "ハ": 3567,
      "バ": 3568,
      "パ": 3569,
      "ヒ": 3570,
      "ビ": 3571,
      "ピ": 3572,
      "フ": 3573,
      "ブ": 3574,
      "プ": 3575,
      "ヘ": 3576,
      "ベ": 3577,
      "ペ": 3578,
      "ホ": 3579,
      "ボ": 3580,
      "ポ": 3581,
      "マ": 3582,
      "ミ": 3583,
      "ム": 3584,
      "メ": 3585,
      "モ": 3586,
      "ャ": 3587,
      "ヤ": 3588,
      "ュ": 3589,
      "ユ": 3590,
      "ョ": 3591,
      "ヨ": 3592,
      "ラ": 3593,
      "リ": 3594,
      "ル": 3595,
      "レ": 3596,
      "ロ": 3597,
      "ヮ": 3598,
      "ワ": 3599,
      "ヰ": 3600,
      "ヱ": 3601,
      "ヲ": 3602,
      "ン": 3603,
      "ヴ": 3604,
      "ヶ": 3605,
      "ヷ": 3606,
      "ヺ": 3607,
      "・": 3608,
      "ー": 3609,
      "ㄅ": 3610,
      "ㄌ": 3611,
      "ㄖ": 3612,
      "ㄘ": 3613,
      "ㄢ": 3614,
      "ㄥ": 3615,
      "ㄨ": 3616,
      "ㄱ": 3617,
      "ㄲ": 3618,
      "ㄳ": 3619,
      "ㄴ": 3620,
      "ㄵ": 3621,
      "ㄶ": 3622,
      "ㄷ": 3623,
      "ㄸ": 3624,
      "ㄹ": 3625,
      "ㄺ": 3626,
      "ㄻ": 3627,
      "ㄼ": 3628,
      "ㄽ": 3629,
      "ㄾ": 3630,
      "ㄿ": 3631,
      "ㅀ": 3632,
      "ㅁ": 3633,
      "ㅂ": 3634,
      "ㅃ": 3635,
      "ㅄ": 3636,
      "ㅅ": 3637,
      "ㅆ": 3638,
      "ㅇ": 3639,
      "ㅈ": 3640,
      "ㅉ": 3641,
      "ㅊ": 3642,
      "ㅋ": 3643,
      "ㅌ": 3644,
      "ㅍ": 3645,
      "ㅎ": 3646,
      "ㅏ": 3647,
      "ㅐ": 3648,
      "ㅑ": 3649,
      "ㅒ": 3650,
      "ㅓ": 3651,
      "ㅔ": 3652,
      "ㅕ": 3653,
      "ㅖ": 3654,
      "ㅗ": 3655,
      "ㅘ": 3656,
      "ㅙ": 3657,
      "ㅚ": 3658,
      "ㅛ": 3659,
      "ㅜ": 3660,
      "ㅝ": 3661,
      "ㅞ": 3662,
      "ㅟ": 3663,
      "ㅠ": 3664,
      "ㅡ": 3665,
      "ㅢ": 3666,
      "ㅣ": 3667,
      "ㆍ": 3668,
      "ㇰ": 3669,
      "ㇱ": 3670,
      "ㇲ": 3671,
      "ㇴ": 3672,
      "ㇵ": 3673,
      "ㇶ": 3674,
      "ㇷ": 3675,
      "ㇸ": 3676,
      "ㇹ": 3677,
      "ㇺ": 3678,
      "ㇻ": 3679,
      "ㇼ": 3680,
      "ㇽ": 3681,
      "ㇾ": 3682,
      "ㇿ": 3683,
      "㈜": 3684,
      "㊣": 3685,
      "㒨": 3686,
      "㔻": 3687,
      "㖿": 3688,
      "㗚": 3689,
      "㘑": 3690,
      "㘓": 3691,
      "㘕": 3692,
      "㚒": 3693,
      "㚟": 3694,
      "㞎": 3695,
      "㠖": 3696,
      "㶷": 3697,
      "䀹": 3698,
      "䝼": 3699,
      "一": 3700,
      "丁": 3701,
      "七": 3702,
      "万": 3703,
      "丈": 3704,
      "三": 3705,
      "上": 3706,
      "下": 3707,
      "不": 3708,
      "与": 3709,
      "丐": 3710,
      "丑": 3711,
      "专": 3712,
      "且": 3713,
      "丕": 3714,
      "世": 3715,
      "丘": 3716,
      "丙": 3717,
      "业": 3718,
      "丛": 3719,
      "东": 3720,
      "丝": 3721,
      "丞": 3722,
      "両": 3723,
      "两": 3724,
      "严": 3725,
      "並": 3726,
      "个": 3727,
      "丫": 3728,
      "中": 3729,
      "丰": 3730,
      "临": 3731,
      "丸": 3732,
      "丹": 3733,
      "为": 3734,
      "主": 3735,
      "丼": 3736,
      "丽": 3737,
      "举": 3738,
      "乃": 3739,
      "久": 3740,
      "么": 3741,
      "义": 3742,
      "之": 3743,
      "乌": 3744,
      "乍": 3745,
      "乎": 3746,
      "乏": 3747,
      "乐": 3748,
      "乔": 3749,
      "乖": 3750,
      "乗": 3751,
      "乘": 3752,
      "乙": 3753,
      "九": 3754,
      "乞": 3755,
      "也": 3756,
      "习": 3757,
      "乡": 3758,
      "书": 3759,
      "买": 3760,
      "乱": 3761,
      "乳": 3762,
      "乾": 3763,
      "亀": 3764,
      "亂": 3765,
      "了": 3766,
      "予": 3767,
      "争": 3768,
      "事": 3769,
      "二": 3770,
      "于": 3771,
      "云": 3772,
      "互": 3773,
      "亓": 3774,
      "五": 3775,
      "井": 3776,
      "亘": 3777,
      "亚": 3778,
      "些": 3779,
      "亜": 3780,
      "亞": 3781,
      "亟": 3782,
      "亡": 3783,
      "亢": 3784,
      "交": 3785,
      "亥": 3786,
      "亦": 3787,
      "产": 3788,
      "亨": 3789,
      "享": 3790,
      "京": 3791,
      "亭": 3792,
      "亮": 3793,
      "亯": 3794,
      "亲": 3795,
      "亳": 3796,
      "亶": 3797,
      "亹": 3798,
      "人": 3799,
      "亻": 3800,
      "亽": 3801,
      "什": 3802,
      "仁": 3803,
      "仂": 3804,
      "仄": 3805,
      "仆": 3806,
      "仇": 3807,
      "今": 3808,
      "介": 3809,
      "仌": 3810,
      "仍": 3811,
      "从": 3812,
      "仏": 3813,
      "仑": 3814,
      "仓": 3815,
      "仔": 3816,
      "仕": 3817,
      "他": 3818,
      "仗": 3819,
      "付": 3820,
      "仙": 3821,
      "仟": 3822,
      "代": 3823,
      "令": 3824,
      "以": 3825,
      "仪": 3826,
      "仫": 3827,
      "们": 3828,
      "仮": 3829,
      "仰": 3830,
      "仲": 3831,
      "仵": 3832,
      "件": 3833,
      "任": 3834,
      "份": 3835,
      "仿": 3836,
      "企": 3837,
      "伉": 3838,
      "伊": 3839,
      "伍": 3840,
      "伎": 3841,
      "伏": 3842,
      "伐": 3843,
      "休": 3844,
      "众": 3845,
      "优": 3846,
      "伙": 3847,
      "会": 3848,
      "伝": 3849,
      "伟": 3850,
      "传": 3851,
      "伦": 3852,
      "伪": 3853,
      "伯": 3854,
      "估": 3855,
      "伴": 3856,
      "伶": 3857,
      "伸": 3858,
      "似": 3859,
      "伽": 3860,
      "佃": 3861,
      "但": 3862,
      "佈": 3863,
      "佉": 3864,
      "位": 3865,
      "低": 3866,
      "住": 3867,
      "佐": 3868,
      "佑": 3869,
      "体": 3870,
      "何": 3871,
      "佘": 3872,
      "余": 3873,
      "佛": 3874,
      "作": 3875,
      "佟": 3876,
      "你": 3877,
      "佤": 3878,
      "佩": 3879,
      "佬": 3880,
      "佯": 3881,
      "佳": 3882,
      "佺": 3883,
      "佾": 3884,
      "使": 3885,
      "侁": 3886,
      "侂": 3887,
      "侃": 3888,
      "侄": 3889,
      "來": 3890,
      "例": 3891,
      "侍": 3892,
      "侑": 3893,
      "侕": 3894,
      "侗": 3895,
      "侘": 3896,
      "供": 3897,
      "依": 3898,
      "侠": 3899,
      "侥": 3900,
      "侦": 3901,
      "侨": 3902,
      "侬": 3903,
      "侯": 3904,
      "侵": 3905,
      "侶": 3906,
      "便": 3907,
      "係": 3908,
      "促": 3909,
      "俄": 3910,
      "俊": 3911,
      "俎": 3912,
      "俏": 3913,
      "俐": 3914,
      "俑": 3915,
      "俗": 3916,
      "俘": 3917,
      "保": 3918,
      "俞": 3919,
      "俟": 3920,
      "俠": 3921,
      "信": 3922,
      "俣": 3923,
      "俫": 3924,
      "俭": 3925,
      "修": 3926,
      "俱": 3927,
      "俳": 3928,
      "俵": 3929,
      "俶": 3930,
      "俺": 3931,
      "俾": 3932,
      "倀": 3933,
      "倂": 3934,
      "倆": 3935,
      "倉": 3936,
      "個": 3937,
      "倍": 3938,
      "們": 3939,
      "倒": 3940,
      "倖": 3941,
      "倗": 3942,
      "候": 3943,
      "倚": 3944,
      "借": 3945,
      "倡": 3946,
      "倦": 3947,
      "倩": 3948,
      "倪": 3949,
      "倫": 3950,
      "倭": 3951,
      "倮": 3952,
      "倶": 3953,
      "倻": 3954,
      "倾": 3955,
      "偃": 3956,
      "假": 3957,
      "偈": 3958,
      "偉": 3959,
      "偏": 3960,
      "做": 3961,
      "停": 3962,
      "健": 3963,
      "側": 3964,
      "偵": 3965,
      "偶": 3966,
      "偷": 3967,
      "偽": 3968,
      "偿": 3969,
      "傀": 3970,
      "傅": 3971,
      "傈": 3972,
      "傉": 3973,
      "傍": 3974,
      "傑": 3975,
      "傒": 3976,
      "傘": 3977,
      "備": 3978,
      "傢": 3979,
      "傣": 3980,
      "储": 3981,
      "傩": 3982,
      "催": 3983,
      "傭": 3984,
      "傲": 3985,
      "傳": 3986,
      "傷": 3987,
      "傻": 3988,
      "傾": 3989,
      "僉": 3990,
      "働": 3991,
      "像": 3992,
      "僑": 3993,
      "僕": 3994,
      "僖": 3995,
      "僙": 3996,
      "僜": 3997,
      "僞": 3998,
      "僧": 3999,
      "僳": 4000,
      "僵": 4001,
      "價": 4002,
      "儀": 4003,
      "儂": 4004,
      "億": 4005,
      "儉": 4006,
      "儒": 4007,
      "儗": 4008,
      "儘": 4009,
      "儞": 4010,
      "儡": 4011,
      "優": 4012,
      "儰": 4013,
      "儲": 4014,
      "儻": 4015,
      "儼": 4016,
      "儿": 4017,
      "兀": 4018,
      "允": 4019,
      "元": 4020,
      "兄": 4021,
      "充": 4022,
      "兆": 4023,
      "先": 4024,
      "光": 4025,
      "克": 4026,
      "免": 4027,
      "兎": 4028,
      "児": 4029,
      "兒": 4030,
      "兔": 4031,
      "兗": 4032,
      "党": 4033,
      "兜": 4034,
      "兢": 4035,
      "入": 4036,
      "內": 4037,
      "全": 4038,
      "兩": 4039,
      "八": 4040,
      "公": 4041,
      "六": 4042,
      "兮": 4043,
      "兰": 4044,
      "共": 4045,
      "关": 4046,
      "兴": 4047,
      "兵": 4048,
      "其": 4049,
      "具": 4050,
      "典": 4051,
      "兹": 4052,
      "养": 4053,
      "兼": 4054,
      "兽": 4055,
      "冀": 4056,
      "内": 4057,
      "円": 4058,
      "冈": 4059,
      "冉": 4060,
      "冊": 4061,
      "册": 4062,
      "再": 4063,
      "冐": 4064,
      "冑": 4065,
      "冒": 4066,
      "冕": 4067,
      "写": 4068,
      "军": 4069,
      "农": 4070,
      "冠": 4071,
      "冤": 4072,
      "冥": 4073,
      "冨": 4074,
      "冬": 4075,
      "冯": 4076,
      "冰": 4077,
      "冲": 4078,
      "决": 4079,
      "冴": 4080,
      "冶": 4081,
      "冷": 4082,
      "冻": 4083,
      "冼": 4084,
      "净": 4085,
      "凄": 4086,
      "准": 4087,
      "凈": 4088,
      "凉": 4089,
      "凌": 4090,
      "凍": 4091,
      "凖": 4092,
      "凛": 4093,
      "凝": 4094,
      "几": 4095,
      "凡": 4096,
      "凤": 4097,
      "処": 4098,
      "凧": 4099,
      "凪": 4100,
      "凯": 4101,
      "凰": 4102,
      "凱": 4103,
      "凳": 4104,
      "凶": 4105,
      "凷": 4106,
      "凹": 4107,
      "出": 4108,
      "击": 4109,
      "函": 4110,
      "刀": 4111,
      "刃": 4112,
      "分": 4113,
      "切": 4114,
      "刈": 4115,
      "刊": 4116,
      "刑": 4117,
      "划": 4118,
      "列": 4119,
      "刘": 4120,
      "则": 4121,
      "刚": 4122,
      "创": 4123,
      "初": 4124,
      "判": 4125,
      "別": 4126,
      "利": 4127,
      "别": 4128,
      "到": 4129,
      "制": 4130,
      "券": 4131,
      "刹": 4132,
      "刺": 4133,
      "刻": 4134,
      "剃": 4135,
      "則": 4136,
      "剌": 4137,
      "前": 4138,
      "剎": 4139,
      "剑": 4140,
      "剔": 4141,
      "剖": 4142,
      "剛": 4143,
      "剝": 4144,
      "剡": 4145,
      "剣": 4146,
      "剧": 4147,
      "剪": 4148,
      "副": 4149,
      "割": 4150,
      "創": 4151,
      "劃": 4152,
      "劄": 4153,
      "劇": 4154,
      "劈": 4155,
      "劉": 4156,
      "劍": 4157,
      "劑": 4158,
      "劔": 4159,
      "力": 4160,
      "劝": 4161,
      "办": 4162,
      "功": 4163,
      "加": 4164,
      "务": 4165,
      "动": 4166,
      "助": 4167,
      "努": 4168,
      "劫": 4169,
      "劭": 4170,
      "励": 4171,
      "劳": 4172,
      "労": 4173,
      "势": 4174,
      "勁": 4175,
      "勃": 4176,
      "勅": 4177,
      "勇": 4178,
      "勉": 4179,
      "勋": 4180,
      "勒": 4181,
      "勔": 4182,
      "動": 4183,
      "勖": 4184,
      "勘": 4185,
      "務": 4186,
      "勛": 4187,
      "勝": 4188,
      "勞": 4189,
      "募": 4190,
      "勢": 4191,
      "勤": 4192,
      "勧": 4193,
      "勰": 4194,
      "勳": 4195,
      "勾": 4196,
      "勿": 4197,
      "包": 4198,
      "匈": 4199,
      "匕": 4200,
      "化": 4201,
      "北": 4202,
      "匙": 4203,
      "匠": 4204,
      "匡": 4205,
      "匣": 4206,
      "匪": 4207,
      "匮": 4208,
      "匱": 4209,
      "匹": 4210,
      "区": 4211,
      "医": 4212,
      "匿": 4213,
      "區": 4214,
      "十": 4215,
      "千": 4216,
      "卅": 4217,
      "升": 4218,
      "午": 4219,
      "半": 4220,
      "卋": 4221,
      "卍": 4222,
      "华": 4223,
      "协": 4224,
      "卐": 4225,
      "卑": 4226,
      "卒": 4227,
      "卓": 4228,
      "協": 4229,
      "单": 4230,
      "南": 4231,
      "単": 4232,
      "博": 4233,
      "卜": 4234,
      "卞": 4235,
      "占": 4236,
      "卡": 4237,
      "卢": 4238,
      "卤": 4239,
      "卦": 4240,
      "卫": 4241,
      "卬": 4242,
      "卯": 4243,
      "印": 4244,
      "危": 4245,
      "即": 4246,
      "却": 4247,
      "卵": 4248,
      "卷": 4249,
      "卸": 4250,
      "卿": 4251,
      "厂": 4252,
      "厄": 4253,
      "厅": 4254,
      "历": 4255,
      "厉": 4256,
      "压": 4257,
      "厖": 4258,
      "厘": 4259,
      "厚": 4260,
      "厝": 4261,
      "原": 4262,
      "厥": 4263,
      "厦": 4264,
      "厨": 4265,
      "厩": 4266,
      "厭": 4267,
      "厲": 4268,
      "厳": 4269,
      "厶": 4270,
      "去": 4271,
      "县": 4272,
      "参": 4273,
      "參": 4274,
      "又": 4275,
      "叉": 4276,
      "及": 4277,
      "友": 4278,
      "双": 4279,
      "反": 4280,
      "収": 4281,
      "发": 4282,
      "叔": 4283,
      "取": 4284,
      "受": 4285,
      "变": 4286,
      "叙": 4287,
      "叛": 4288,
      "叟": 4289,
      "叡": 4290,
      "叢": 4291,
      "口": 4292,
      "古": 4293,
      "句": 4294,
      "叨": 4295,
      "只": 4296,
      "叫": 4297,
      "召": 4298,
      "叭": 4299,
      "可": 4300,
      "台": 4301,
      "叱": 4302,
      "史": 4303,
      "右": 4304,
      "叶": 4305,
      "号": 4306,
      "司": 4307,
      "叻": 4308,
      "吃": 4309,
      "各": 4310,
      "合": 4311,
      "吉": 4312,
      "吊": 4313,
      "同": 4314,
      "名": 4315,
      "后": 4316,
      "吏": 4317,
      "吐": 4318,
      "向": 4319,
      "吒": 4320,
      "吕": 4321,
      "吗": 4322,
      "吙": 4323,
      "君": 4324,
      "吟": 4325,
      "吠": 4326,
      "否": 4327,
      "吧": 4328,
      "含": 4329,
      "听": 4330,
      "启": 4331,
      "吳": 4332,
      "吴": 4333,
      "吵": 4334,
      "吶": 4335,
      "吸": 4336,
      "吹": 4337,
      "吼": 4338,
      "吽": 4339,
      "吾": 4340,
      "呀": 4341,
      "呂": 4342,
      "呆": 4343,
      "呈": 4344,
      "呉": 4345,
      "告": 4346,
      "员": 4347,
      "呢": 4348,
      "呦": 4349,
      "周": 4350,
      "呪": 4351,
      "呬": 4352,
      "味": 4353,
      "呷": 4354,
      "呸": 4355,
      "呼": 4356,
      "命": 4357,
      "咀": 4358,
      "咁": 4359,
      "咄": 4360,
      "和": 4361,
      "咏": 4362,
      "咒": 4363,
      "咕": 4364,
      "咖": 4365,
      "咢": 4366,
      "咨": 4367,
      "咩": 4368,
      "咪": 4369,
      "咬": 4370,
      "咲": 4371,
      "咸": 4372,
      "哀": 4373,
      "品": 4374,
      "哆": 4375,
      "哇": 4376,
      "哈": 4377,
      "哉": 4378,
      "哋": 4379,
      "响": 4380,
      "員": 4381,
      "哥": 4382,
      "哨": 4383,
      "哩": 4384,
      "哪": 4385,
      "哭": 4386,
      "哲": 4387,
      "哴": 4388,
      "哷": 4389,
      "哼": 4390,
      "唁": 4391,
      "唄": 4392,
      "唆": 4393,
      "唎": 4394,
      "唐": 4395,
      "唔": 4396,
      "唤": 4397,
      "唧": 4398,
      "售": 4399,
      "唯": 4400,
      "唱": 4401,
      "唵": 4402,
      "唾": 4403,
      "商": 4404,
      "啇": 4405,
      "啊": 4406,
      "問": 4407,
      "啓": 4408,
      "啜": 4409,
      "啝": 4410,
      "啞": 4411,
      "啟": 4412,
      "啡": 4413,
      "啼": 4414,
      "喀": 4415,
      "喃": 4416,
      "善": 4417,
      "喇": 4418,
      "喉": 4419,
      "喊": 4420,
      "喚": 4421,
      "喜": 4422,
      "喝": 4423,
      "喩": 4424,
      "喪": 4425,
      "喫": 4426,
      "喬": 4427,
      "單": 4428,
      "喱": 4429,
      "喳": 4430,
      "営": 4431,
      "喻": 4432,
      "嗆": 4433,
      "嗎": 4434,
      "嗚": 4435,
      "嗜": 4436,
      "嗢": 4437,
      "嗣": 4438,
      "嗱": 4439,
      "嘅": 4440,
      "嘆": 4441,
      "嘇": 4442,
      "嘉": 4443,
      "嘎": 4444,
      "嘏": 4445,
      "嘗": 4446,
      "嘘": 4447,
      "嘚": 4448,
      "嘛": 4449,
      "嘜": 4450,
      "嘟": 4451,
      "嘥": 4452,
      "嘮": 4453,
      "嘯": 4454,
      "嘲": 4455,
      "嘴": 4456,
      "嘶": 4457,
      "噂": 4458,
      "噉": 4459,
      "噛": 4460,
      "器": 4461,
      "噯": 4462,
      "噴": 4463,
      "噶": 4464,
      "嚇": 4465,
      "嚕": 4466,
      "嚟": 4467,
      "嚧": 4468,
      "嚩": 4469,
      "嚲": 4470,
      "嚴": 4471,
      "嚼": 4472,
      "囉": 4473,
      "囊": 4474,
      "囍": 4475,
      "囑": 4476,
      "囗": 4477,
      "囚": 4478,
      "四": 4479,
      "回": 4480,
      "因": 4481,
      "囡": 4482,
      "团": 4483,
      "団": 4484,
      "园": 4485,
      "囯": 4486,
      "困": 4487,
      "囲": 4488,
      "図": 4489,
      "固": 4490,
      "国": 4491,
      "图": 4492,
      "圃": 4493,
      "圆": 4494,
      "圈": 4495,
      "國": 4496,
      "圍": 4497,
      "圏": 4498,
      "園": 4499,
      "圓": 4500,
      "圖": 4501,
      "團": 4502,
      "圜": 4503,
      "土": 4504,
      "圣": 4505,
      "圧": 4506,
      "在": 4507,
      "圭": 4508,
      "地": 4509,
      "圳": 4510,
      "场": 4511,
      "圻": 4512,
      "圾": 4513,
      "坂": 4514,
      "均": 4515,
      "坊": 4516,
      "坎": 4517,
      "坏": 4518,
      "坐": 4519,
      "坑": 4520,
      "坚": 4521,
      "坛": 4522,
      "坝": 4523,
      "坞": 4524,
      "坟": 4525,
      "坡": 4526,
      "坤": 4527,
      "坦": 4528,
      "坪": 4529,
      "坳": 4530,
      "垂": 4531,
      "垃": 4532,
      "型": 4533,
      "垍": 4534,
      "垒": 4535,
      "垓": 4536,
      "垟": 4537,
      "垠": 4538,
      "垢": 4539,
      "垣": 4540,
      "埃": 4541,
      "埈": 4542,
      "埋": 4543,
      "城": 4544,
      "埔": 4545,
      "埜": 4546,
      "域": 4547,
      "埠": 4548,
      "埤": 4549,
      "埥": 4550,
      "埭": 4551,
      "埴": 4552,
      "埵": 4553,
      "執": 4554,
      "埸": 4555,
      "培": 4556,
      "基": 4557,
      "堀": 4558,
      "堂": 4559,
      "堃": 4560,
      "堅": 4561,
      "堆": 4562,
      "堕": 4563,
      "堡": 4564,
      "堤": 4565,
      "堧": 4566,
      "堪": 4567,
      "堯": 4568,
      "堰": 4569,
      "報": 4570,
      "場": 4571,
      "塁": 4572,
      "塊": 4573,
      "塍": 4574,
      "塔": 4575,
      "塗": 4576,
      "塘": 4577,
      "塙": 4578,
      "塚": 4579,
      "塞": 4580,
      "塤": 4581,
      "塩": 4582,
      "塱": 4583,
      "塵": 4584,
      "塾": 4585,
      "墀": 4586,
      "境": 4587,
      "墅": 4588,
      "墉": 4589,
      "墓": 4590,
      "増": 4591,
      "墘": 4592,
      "墙": 4593,
      "增": 4594,
      "墟": 4595,
      "墨": 4596,
      "墩": 4597,
      "墮": 4598,
      "墳": 4599,
      "墾": 4600,
      "壁": 4601,
      "壇": 4602,
      "壊": 4603,
      "壑": 4604,
      "壓": 4605,
      "壘": 4606,
      "壞": 4607,
      "壤": 4608,
      "士": 4609,
      "壬": 4610,
      "壮": 4611,
      "壯": 4612,
      "声": 4613,
      "壱": 4614,
      "売": 4615,
      "壶": 4616,
      "壹": 4617,
      "壺": 4618,
      "壽": 4619,
      "处": 4620,
      "备": 4621,
      "変": 4622,
      "复": 4623,
      "夏": 4624,
      "夔": 4625,
      "夕": 4626,
      "外": 4627,
      "夙": 4628,
      "多": 4629,
      "夜": 4630,
      "夠": 4631,
      "夢": 4632,
      "夤": 4633,
      "大": 4634,
      "天": 4635,
      "太": 4636,
      "夫": 4637,
      "央": 4638,
      "失": 4639,
      "头": 4640,
      "夷": 4641,
      "夸": 4642,
      "夹": 4643,
      "夺": 4644,
      "夾": 4645,
      "奂": 4646,
      "奄": 4647,
      "奇": 4648,
      "奈": 4649,
      "奉": 4650,
      "奋": 4651,
      "奎": 4652,
      "奏": 4653,
      "奐": 4654,
      "契": 4655,
      "奔": 4656,
      "奕": 4657,
      "奖": 4658,
      "套": 4659,
      "奘": 4660,
      "奚": 4661,
      "奢": 4662,
      "奥": 4663,
      "奧": 4664,
      "奨": 4665,
      "奪": 4666,
      "奬": 4667,
      "奭": 4668,
      "奮": 4669,
      "女": 4670,
      "奴": 4671,
      "奶": 4672,
      "她": 4673,
      "好": 4674,
      "如": 4675,
      "妃": 4676,
      "妄": 4677,
      "妆": 4678,
      "妇": 4679,
      "妈": 4680,
      "妊": 4681,
      "妍": 4682,
      "妓": 4683,
      "妖": 4684,
      "妙": 4685,
      "妤": 4686,
      "妥": 4687,
      "妮": 4688,
      "妲": 4689,
      "妳": 4690,
      "妹": 4691,
      "妻": 4692,
      "妾": 4693,
      "姆": 4694,
      "姉": 4695,
      "姊": 4696,
      "始": 4697,
      "姍": 4698,
      "姐": 4699,
      "姑": 4700,
      "姒": 4701,
      "姓": 4702,
      "委": 4703,
      "姚": 4704,
      "姜": 4705,
      "姝": 4706,
      "姥": 4707,
      "姦": 4708,
      "姧": 4709,
      "姪": 4710,
      "姫": 4711,
      "姬": 4712,
      "姸": 4713,
      "姹": 4714,
      "姿": 4715,
      "威": 4716,
      "娃": 4717,
      "娅": 4718,
      "娑": 4719,
      "娘": 4720,
      "娛": 4721,
      "娜": 4722,
      "娟": 4723,
      "娠": 4724,
      "娣": 4725,
      "娥": 4726,
      "娩": 4727,
      "娱": 4728,
      "娶": 4729,
      "娼": 4730,
      "婁": 4731,
      "婆": 4732,
      "婉": 4733,
      "婕": 4734,
      "婚": 4735,
      "婡": 4736,
      "婢": 4737,
      "婦": 4738,
      "婧": 4739,
      "婷": 4740,
      "媒": 4741,
      "媚": 4742,
      "媛": 4743,
      "媧": 4744,
      "媺": 4745,
      "媼": 4746,
      "媽": 4747,
      "嫁": 4748,
      "嫌": 4749,
      "嫒": 4750,
      "嫔": 4751,
      "嫖": 4752,
      "嫡": 4753,
      "嫦": 4754,
      "嫩": 4755,
      "嫫": 4756,
      "嫻": 4757,
      "嬅": 4758,
      "嬈": 4759,
      "嬉": 4760,
      "嬋": 4761,
      "嬌": 4762,
      "嬢": 4763,
      "嬥": 4764,
      "嬪": 4765,
      "嬰": 4766,
      "嬴": 4767,
      "孃": 4768,
      "子": 4769,
      "孑": 4770,
      "孒": 4771,
      "孔": 4772,
      "孕": 4773,
      "孖": 4774,
      "字": 4775,
      "存": 4776,
      "孙": 4777,
      "孚": 4778,
      "孛": 4779,
      "孜": 4780,
      "孝": 4781,
      "孟": 4782,
      "季": 4783,
      "孤": 4784,
      "学": 4785,
      "孩": 4786,
      "孫": 4787,
      "孰": 4788,
      "孵": 4789,
      "學": 4790,
      "孺": 4791,
      "孿": 4792,
      "宁": 4793,
      "它": 4794,
      "宅": 4795,
      "宇": 4796,
      "守": 4797,
      "安": 4798,
      "宋": 4799,
      "完": 4800,
      "宍": 4801,
      "宏": 4802,
      "宓": 4803,
      "宕": 4804,
      "宗": 4805,
      "官": 4806,
      "宙": 4807,
      "定": 4808,
      "宛": 4809,
      "宜": 4810,
      "宝": 4811,
      "实": 4812,
      "実": 4813,
      "审": 4814,
      "客": 4815,
      "宣": 4816,
      "室": 4817,
      "宥": 4818,
      "宦": 4819,
      "宫": 4820,
      "宬": 4821,
      "宮": 4822,
      "宰": 4823,
      "害": 4824,
      "宴": 4825,
      "宵": 4826,
      "家": 4827,
      "宸": 4828,
      "容": 4829,
      "宽": 4830,
      "宾": 4831,
      "宿": 4832,
      "寀": 4833,
      "寂": 4834,
      "寄": 4835,
      "寅": 4836,
      "密": 4837,
      "寇": 4838,
      "富": 4839,
      "寒": 4840,
      "寓": 4841,
      "寔": 4842,
      "寛": 4843,
      "寝": 4844,
      "察": 4845,
      "寡": 4846,
      "寥": 4847,
      "實": 4848,
      "寧": 4849,
      "寨": 4850,
      "審": 4851,
      "寫": 4852,
      "寬": 4853,
      "寮": 4854,
      "寰": 4855,
      "寵": 4856,
      "寶": 4857,
      "寸": 4858,
      "对": 4859,
      "寺": 4860,
      "寻": 4861,
      "导": 4862,
      "対": 4863,
      "寿": 4864,
      "封": 4865,
      "専": 4866,
      "射": 4867,
      "将": 4868,
      "將": 4869,
      "專": 4870,
      "尉": 4871,
      "尊": 4872,
      "尋": 4873,
      "對": 4874,
      "導": 4875,
      "小": 4876,
      "少": 4877,
      "尒": 4878,
      "尔": 4879,
      "尖": 4880,
      "尘": 4881,
      "尙": 4882,
      "尚": 4883,
      "尤": 4884,
      "就": 4885,
      "尸": 4886,
      "尹": 4887,
      "尺": 4888,
      "尻": 4889,
      "尼": 4890,
      "尽": 4891,
      "尾": 4892,
      "局": 4893,
      "屁": 4894,
      "层": 4895,
      "屄": 4896,
      "居": 4897,
      "屆": 4898,
      "屈": 4899,
      "届": 4900,
      "屋": 4901,
      "屍": 4902,
      "屎": 4903,
      "屏": 4904,
      "屑": 4905,
      "展": 4906,
      "属": 4907,
      "屠": 4908,
      "層": 4909,
      "履": 4910,
      "屬": 4911,
      "屯": 4912,
      "山": 4913,
      "屹": 4914,
      "屿": 4915,
      "岁": 4916,
      "岐": 4917,
      "岑": 4918,
      "岔": 4919,
      "岗": 4920,
      "岘": 4921,
      "岙": 4922,
      "岛": 4923,
      "岡": 4924,
      "岩": 4925,
      "岬": 4926,
      "岭": 4927,
      "岱": 4928,
      "岳": 4929,
      "岷": 4930,
      "岸": 4931,
      "峃": 4932,
      "峄": 4933,
      "峇": 4934,
      "峙": 4935,
      "峡": 4936,
      "峨": 4937,
      "峩": 4938,
      "峭": 4939,
      "峯": 4940,
      "峰": 4941,
      "峴": 4942,
      "島": 4943,
      "峻": 4944,
      "峽": 4945,
      "崀": 4946,
      "崁": 4947,
      "崆": 4948,
      "崇": 4949,
      "崎": 4950,
      "崑": 4951,
      "崔": 4952,
      "崖": 4953,
      "崗": 4954,
      "崙": 4955,
      "崧": 4956,
      "崩": 4957,
      "崽": 4958,
      "嵇": 4959,
      "嵋": 4960,
      "嵌": 4961,
      "嵐": 4962,
      "嵩": 4963,
      "嵬": 4964,
      "嵯": 4965,
      "嵻": 4966,
      "嶋": 4967,
      "嶚": 4968,
      "嶲": 4969,
      "嶷": 4970,
      "嶺": 4971,
      "嶼": 4972,
      "嶽": 4973,
      "巂": 4974,
      "巅": 4975,
      "巋": 4976,
      "巌": 4977,
      "巒": 4978,
      "巔": 4979,
      "巖": 4980,
      "川": 4981,
      "州": 4982,
      "巡": 4983,
      "巢": 4984,
      "巣": 4985,
      "工": 4986,
      "左": 4987,
      "巧": 4988,
      "巨": 4989,
      "巩": 4990,
      "巫": 4991,
      "差": 4992,
      "己": 4993,
      "已": 4994,
      "巳": 4995,
      "巴": 4996,
      "巷": 4997,
      "巻": 4998,
      "巽": 4999,
      "巾": 5000,
      "巿": 5001,
      "市": 5002,
      "布": 5003,
      "帆": 5004,
      "师": 5005,
      "希": 5006,
      "帕": 5007,
      "帖": 5008,
      "帛": 5009,
      "帝": 5010,
      "帥": 5011,
      "带": 5012,
      "師": 5013,
      "席": 5014,
      "帮": 5015,
      "帯": 5016,
      "帰": 5017,
      "帶": 5018,
      "帷": 5019,
      "常": 5020,
      "帽": 5021,
      "幌": 5022,
      "幕": 5023,
      "幞": 5024,
      "幡": 5025,
      "幣": 5026,
      "幫": 5027,
      "干": 5028,
      "平": 5029,
      "年": 5030,
      "并": 5031,
      "幸": 5032,
      "幹": 5033,
      "幻": 5034,
      "幼": 5035,
      "幽": 5036,
      "幾": 5037,
      "广": 5038,
      "広": 5039,
      "庄": 5040,
      "庆": 5041,
      "庇": 5042,
      "床": 5043,
      "序": 5044,
      "庐": 5045,
      "库": 5046,
      "应": 5047,
      "底": 5048,
      "店": 5049,
      "庙": 5050,
      "庚": 5051,
      "府": 5052,
      "庞": 5053,
      "废": 5054,
      "庠": 5055,
      "度": 5056,
      "座": 5057,
      "庫": 5058,
      "庭": 5059,
      "庲": 5060,
      "庵": 5061,
      "庶": 5062,
      "康": 5063,
      "庸": 5064,
      "庾": 5065,
      "廂": 5066,
      "廃": 5067,
      "廈": 5068,
      "廉": 5069,
      "廊": 5070,
      "廋": 5071,
      "廌": 5072,
      "廓": 5073,
      "廖": 5074,
      "廙": 5075,
      "廚": 5076,
      "廟": 5077,
      "廠": 5078,
      "廢": 5079,
      "廣": 5080,
      "廬": 5081,
      "廳": 5082,
      "延": 5083,
      "廷": 5084,
      "廸": 5085,
      "廹": 5086,
      "建": 5087,
      "廻": 5088,
      "廿": 5089,
      "开": 5090,
      "弁": 5091,
      "异": 5092,
      "弄": 5093,
      "弉": 5094,
      "弋": 5095,
      "式": 5096,
      "弐": 5097,
      "弑": 5098,
      "弓": 5099,
      "弔": 5100,
      "引": 5101,
      "弗": 5102,
      "弘": 5103,
      "弟": 5104,
      "张": 5105,
      "弥": 5106,
      "弦": 5107,
      "弩": 5108,
      "弭": 5109,
      "弱": 5110,
      "張": 5111,
      "強": 5112,
      "弹": 5113,
      "强": 5114,
      "弼": 5115,
      "弾": 5116,
      "彈": 5117,
      "彌": 5118,
      "彎": 5119,
      "归": 5120,
      "当": 5121,
      "录": 5122,
      "彗": 5123,
      "彙": 5124,
      "彝": 5125,
      "形": 5126,
      "彤": 5127,
      "彥": 5128,
      "彦": 5129,
      "彧": 5130,
      "彩": 5131,
      "彪": 5132,
      "彫": 5133,
      "彬": 5134,
      "彭": 5135,
      "彰": 5136,
      "影": 5137,
      "彷": 5138,
      "役": 5139,
      "彼": 5140,
      "彿": 5141,
      "往": 5142,
      "征": 5143,
      "徂": 5144,
      "径": 5145,
      "待": 5146,
      "很": 5147,
      "律": 5148,
      "後": 5149,
      "徐": 5150,
      "徒": 5151,
      "従": 5152,
      "徕": 5153,
      "得": 5154,
      "徙": 5155,
      "從": 5156,
      "御": 5157,
      "復": 5158,
      "循": 5159,
      "微": 5160,
      "徳": 5161,
      "徴": 5162,
      "德": 5163,
      "徹": 5164,
      "徽": 5165,
      "心": 5166,
      "必": 5167,
      "忌": 5168,
      "忍": 5169,
      "忏": 5170,
      "志": 5171,
      "忘": 5172,
      "忙": 5173,
      "応": 5174,
      "忞": 5175,
      "忠": 5176,
      "忣": 5177,
      "忧": 5178,
      "快": 5179,
      "忱": 5180,
      "念": 5181,
      "忸": 5182,
      "忽": 5183,
      "怀": 5184,
      "态": 5185,
      "怎": 5186,
      "怒": 5187,
      "怕": 5188,
      "怖": 5189,
      "怛": 5190,
      "怜": 5191,
      "思": 5192,
      "怠": 5193,
      "怡": 5194,
      "急": 5195,
      "性": 5196,
      "怩": 5197,
      "怪": 5198,
      "怯": 5199,
      "总": 5200,
      "怼": 5201,
      "恂": 5202,
      "恆": 5203,
      "恊": 5204,
      "恋": 5205,
      "恐": 5206,
      "恒": 5207,
      "恕": 5208,
      "恢": 5209,
      "恤": 5210,
      "恥": 5211,
      "恨": 5212,
      "恩": 5213,
      "恪": 5214,
      "恬": 5215,
      "恭": 5216,
      "息": 5217,
      "恰": 5218,
      "恵": 5219,
      "恶": 5220,
      "悅": 5221,
      "悉": 5222,
      "悌": 5223,
      "悔": 5224,
      "悝": 5225,
      "悟": 5226,
      "悠": 5227,
      "患": 5228,
      "悦": 5229,
      "您": 5230,
      "悩": 5231,
      "悪": 5232,
      "悫": 5233,
      "悲": 5234,
      "悶": 5235,
      "悸": 5236,
      "悼": 5237,
      "情": 5238,
      "惊": 5239,
      "惑": 5240,
      "惚": 5241,
      "惜": 5242,
      "惟": 5243,
      "惠": 5244,
      "惡": 5245,
      "惢": 5246,
      "惧": 5247,
      "惨": 5248,
      "惰": 5249,
      "想": 5250,
      "惹": 5251,
      "愁": 5252,
      "愃": 5253,
      "愆": 5254,
      "愈": 5255,
      "愉": 5256,
      "愍": 5257,
      "意": 5258,
      "愒": 5259,
      "愕": 5260,
      "愚": 5261,
      "愛": 5262,
      "感": 5263,
      "愧": 5264,
      "愴": 5265,
      "愷": 5266,
      "愼": 5267,
      "愿": 5268,
      "慄": 5269,
      "慈": 5270,
      "態": 5271,
      "慌": 5272,
      "慎": 5273,
      "慕": 5274,
      "慘": 5275,
      "慟": 5276,
      "慢": 5277,
      "慣": 5278,
      "慧": 5279,
      "慰": 5280,
      "慳": 5281,
      "慵": 5282,
      "慶": 5283,
      "憂": 5284,
      "憐": 5285,
      "憑": 5286,
      "憚": 5287,
      "憧": 5288,
      "憩": 5289,
      "憬": 5290,
      "憮": 5291,
      "憲": 5292,
      "憶": 5293,
      "憾": 5294,
      "懂": 5295,
      "懇": 5296,
      "應": 5297,
      "懋": 5298,
      "懌": 5299,
      "懐": 5300,
      "懙": 5301,
      "懞": 5302,
      "懵": 5303,
      "懶": 5304,
      "懷": 5305,
      "懸": 5306,
      "懺": 5307,
      "懼": 5308,
      "懿": 5309,
      "戀": 5310,
      "戇": 5311,
      "戈": 5312,
      "戊": 5313,
      "戌": 5314,
      "戍": 5315,
      "戎": 5316,
      "戏": 5317,
      "成": 5318,
      "我": 5319,
      "戒": 5320,
      "或": 5321,
      "战": 5322,
      "戢": 5323,
      "戦": 5324,
      "截": 5325,
      "戯": 5326,
      "戰": 5327,
      "戲": 5328,
      "戴": 5329,
      "戶": 5330,
      "户": 5331,
      "戸": 5332,
      "房": 5333,
      "所": 5334,
      "扇": 5335,
      "扈": 5336,
      "扉": 5337,
      "手": 5338,
      "扌": 5339,
      "才": 5340,
      "扎": 5341,
      "扒": 5342,
      "打": 5343,
      "払": 5344,
      "托": 5345,
      "扛": 5346,
      "扣": 5347,
      "执": 5348,
      "扬": 5349,
      "扭": 5350,
      "扮": 5351,
      "扰": 5352,
      "扶": 5353,
      "批": 5354,
      "找": 5355,
      "承": 5356,
      "技": 5357,
      "抄": 5358,
      "把": 5359,
      "抑": 5360,
      "抒": 5361,
      "抓": 5362,
      "投": 5363,
      "抖": 5364,
      "抗": 5365,
      "折": 5366,
      "抜": 5367,
      "択": 5368,
      "抢": 5369,
      "护": 5370,
      "报": 5371,
      "披": 5372,
      "抬": 5373,
      "抱": 5374,
      "抳": 5375,
      "抵": 5376,
      "抹": 5377,
      "押": 5378,
      "抽": 5379,
      "担": 5380,
      "拆": 5381,
      "拉": 5382,
      "拍": 5383,
      "拏": 5384,
      "拐": 5385,
      "拒": 5386,
      "拓": 5387,
      "拔": 5388,
      "拖": 5389,
      "拗": 5390,
      "拘": 5391,
      "招": 5392,
      "拜": 5393,
      "拟": 5394,
      "拥": 5395,
      "择": 5396,
      "括": 5397,
      "拭": 5398,
      "拯": 5399,
      "拳": 5400,
      "拶": 5401,
      "拼": 5402,
      "拾": 5403,
      "拿": 5404,
      "持": 5405,
      "挂": 5406,
      "指": 5407,
      "按": 5408,
      "挐": 5409,
      "挑": 5410,
      "挖": 5411,
      "挙": 5412,
      "挝": 5413,
      "挟": 5414,
      "挥": 5415,
      "挪": 5416,
      "挫": 5417,
      "振": 5418,
      "挺": 5419,
      "挽": 5420,
      "捉": 5421,
      "捍": 5422,
      "捕": 5423,
      "捜": 5424,
      "捧": 5425,
      "捨": 5426,
      "捩": 5427,
      "捫": 5428,
      "据": 5429,
      "捷": 5430,
      "捺": 5431,
      "掃": 5432,
      "掄": 5433,
      "授": 5434,
      "掌": 5435,
      "排": 5436,
      "掖": 5437,
      "掘": 5438,
      "掛": 5439,
      "掟": 5440,
      "採": 5441,
      "探": 5442,
      "接": 5443,
      "控": 5444,
      "推": 5445,
      "措": 5446,
      "掲": 5447,
      "掸": 5448,
      "掾": 5449,
      "揆": 5450,
      "描": 5451,
      "提": 5452,
      "插": 5453,
      "揖": 5454,
      "揚": 5455,
      "握": 5456,
      "揭": 5457,
      "揮": 5458,
      "援": 5459,
      "揷": 5460,
      "揺": 5461,
      "揼": 5462,
      "損": 5463,
      "搖": 5464,
      "搞": 5465,
      "搦": 5466,
      "搭": 5467,
      "搶": 5468,
      "携": 5469,
      "摄": 5470,
      "摎": 5471,
      "摔": 5472,
      "摘": 5473,
      "摧": 5474,
      "摩": 5475,
      "摸": 5476,
      "摹": 5477,
      "摻": 5478,
      "撃": 5479,
      "撇": 5480,
      "撈": 5481,
      "撑": 5482,
      "撒": 5483,
      "撕": 5484,
      "撞": 5485,
      "撤": 5486,
      "撥": 5487,
      "撩": 5488,
      "撫": 5489,
      "播": 5490,
      "撮": 5491,
      "撰": 5492,
      "撲": 5493,
      "撻": 5494,
      "擁": 5495,
      "擂": 5496,
      "擇": 5497,
      "擊": 5498,
      "操": 5499,
      "擒": 5500,
      "擔": 5501,
      "擠": 5502,
      "擢": 5503,
      "擬": 5504,
      "擲": 5505,
      "擴": 5506,
      "擺": 5507,
      "攀": 5508,
      "攔": 5509,
      "攘": 5510,
      "攜": 5511,
      "攝": 5512,
      "攞": 5513,
      "支": 5514,
      "收": 5515,
      "攸": 5516,
      "改": 5517,
      "攻": 5518,
      "放": 5519,
      "政": 5520,
      "故": 5521,
      "效": 5522,
      "敌": 5523,
      "敎": 5524,
      "敏": 5525,
      "救": 5526,
      "敕": 5527,
      "敖": 5528,
      "敗": 5529,
      "敘": 5530,
      "教": 5531,
      "敞": 5532,
      "敢": 5533,
      "散": 5534,
      "敦": 5535,
      "敬": 5536,
      "数": 5537,
      "整": 5538,
      "敵": 5539,
      "敷": 5540,
      "數": 5541,
      "斂": 5542,
      "斃": 5543,
      "文": 5544,
      "斉": 5545,
      "斋": 5546,
      "斌": 5547,
      "斎": 5548,
      "斐": 5549,
      "斑": 5550,
      "斗": 5551,
      "料": 5552,
      "斛": 5553,
      "斜": 5554,
      "斟": 5555,
      "斡": 5556,
      "斤": 5557,
      "斥": 5558,
      "斧": 5559,
      "斫": 5560,
      "斬": 5561,
      "断": 5562,
      "斯": 5563,
      "新": 5564,
      "斷": 5565,
      "方": 5566,
      "於": 5567,
      "施": 5568,
      "旁": 5569,
      "旃": 5570,
      "旅": 5571,
      "旋": 5572,
      "族": 5573,
      "旗": 5574,
      "旛": 5575,
      "无": 5576,
      "日": 5577,
      "旦": 5578,
      "旧": 5579,
      "旨": 5580,
      "早": 5581,
      "旭": 5582,
      "旱": 5583,
      "旳": 5584,
      "时": 5585,
      "旺": 5586,
      "旻": 5587,
      "旼": 5588,
      "旿": 5589,
      "昂": 5590,
      "昆": 5591,
      "昇": 5592,
      "昉": 5593,
      "昊": 5594,
      "昌": 5595,
      "明": 5596,
      "昏": 5597,
      "易": 5598,
      "昔": 5599,
      "昕": 5600,
      "星": 5601,
      "映": 5602,
      "春": 5603,
      "昧": 5604,
      "昨": 5605,
      "昭": 5606,
      "是": 5607,
      "昱": 5608,
      "昵": 5609,
      "昶": 5610,
      "昺": 5611,
      "昼": 5612,
      "显": 5613,
      "晁": 5614,
      "時": 5615,
      "晃": 5616,
      "晉": 5617,
      "晊": 5618,
      "晋": 5619,
      "晏": 5620,
      "晒": 5621,
      "晓": 5622,
      "晖": 5623,
      "晚": 5624,
      "晝": 5625,
      "晤": 5626,
      "晦": 5627,
      "晨": 5628,
      "晩": 5629,
      "普": 5630,
      "景": 5631,
      "晳": 5632,
      "晴": 5633,
      "晶": 5634,
      "晷": 5635,
      "智": 5636,
      "暁": 5637,
      "暂": 5638,
      "暇": 5639,
      "暉": 5640,
      "暎": 5641,
      "暐": 5642,
      "暑": 5643,
      "暕": 5644,
      "暖": 5645,
      "暗": 5646,
      "暠": 5647,
      "暢": 5648,
      "暦": 5649,
      "暨": 5650,
      "暫": 5651,
      "暮": 5652,
      "暴": 5653,
      "曀": 5654,
      "曄": 5655,
      "曆": 5656,
      "曇": 5657,
      "曉": 5658,
      "曓": 5659,
      "曖": 5660,
      "曙": 5661,
      "曜": 5662,
      "曝": 5663,
      "曠": 5664,
      "曦": 5665,
      "曩": 5666,
      "曬": 5667,
      "曰": 5668,
      "曲": 5669,
      "曳": 5670,
      "更": 5671,
      "書": 5672,
      "曹": 5673,
      "曺": 5674,
      "曼": 5675,
      "曽": 5676,
      "曾": 5677,
      "替": 5678,
      "最": 5679,
      "會": 5680,
      "月": 5681,
      "有": 5682,
      "朋": 5683,
      "朌": 5684,
      "服": 5685,
      "朏": 5686,
      "朐": 5687,
      "朔": 5688,
      "朗": 5689,
      "望": 5690,
      "朝": 5691,
      "期": 5692,
      "朢": 5693,
      "朦": 5694,
      "木": 5695,
      "朩": 5696,
      "未": 5697,
      "末": 5698,
      "本": 5699,
      "札": 5700,
      "朮": 5701,
      "术": 5702,
      "朱": 5703,
      "朲": 5704,
      "朴": 5705,
      "朵": 5706,
      "朶": 5707,
      "机": 5708,
      "朽": 5709,
      "杀": 5710,
      "权": 5711,
      "杆": 5712,
      "杉": 5713,
      "李": 5714,
      "杏": 5715,
      "材": 5716,
      "村": 5717,
      "杖": 5718,
      "杜": 5719,
      "束": 5720,
      "条": 5721,
      "来": 5722,
      "杨": 5723,
      "杭": 5724,
      "杯": 5725,
      "杰": 5726,
      "東": 5727,
      "杲": 5728,
      "杵": 5729,
      "杼": 5730,
      "松": 5731,
      "板": 5732,
      "极": 5733,
      "构": 5734,
      "枇": 5735,
      "析": 5736,
      "枕": 5737,
      "林": 5738,
      "枚": 5739,
      "果": 5740,
      "枝": 5741,
      "枢": 5742,
      "枪": 5743,
      "枫": 5744,
      "枯": 5745,
      "枳": 5746,
      "架": 5747,
      "枹": 5748,
      "柄": 5749,
      "柊": 5750,
      "柏": 5751,
      "某": 5752,
      "染": 5753,
      "柔": 5754,
      "柞": 5755,
      "查": 5756,
      "柯": 5757,
      "柱": 5758,
      "柳": 5759,
      "柴": 5760,
      "柵": 5761,
      "査": 5762,
      "柿": 5763,
      "栂": 5764,
      "栄": 5765,
      "标": 5766,
      "栈": 5767,
      "栏": 5768,
      "树": 5769,
      "栖": 5770,
      "栗": 5771,
      "校": 5772,
      "栢": 5773,
      "株": 5774,
      "栴": 5775,
      "样": 5776,
      "核": 5777,
      "根": 5778,
      "栻": 5779,
      "格": 5780,
      "桂": 5781,
      "桃": 5782,
      "案": 5783,
      "桐": 5784,
      "桑": 5785,
      "桓": 5786,
      "桔": 5787,
      "桚": 5788,
      "桜": 5789,
      "档": 5790,
      "桥": 5791,
      "桦": 5792,
      "桩": 5793,
      "桿": 5794,
      "梁": 5795,
      "梃": 5796,
      "梅": 5797,
      "梆": 5798,
      "梉": 5799,
      "梓": 5800,
      "梗": 5801,
      "梜": 5802,
      "條": 5803,
      "梟": 5804,
      "梦": 5805,
      "梧": 5806,
      "梨": 5807,
      "梭": 5808,
      "梯": 5809,
      "械": 5810,
      "梳": 5811,
      "梴": 5812,
      "梵": 5813,
      "梶": 5814,
      "检": 5815,
      "棄": 5816,
      "棉": 5817,
      "棋": 5818,
      "棍": 5819,
      "棒": 5820,
      "棗": 5821,
      "棘": 5822,
      "棟": 5823,
      "棠": 5824,
      "棡": 5825,
      "棪": 5826,
      "森": 5827,
      "棲": 5828,
      "棺": 5829,
      "椅": 5830,
      "椇": 5831,
      "椋": 5832,
      "植": 5833,
      "椎": 5834,
      "椒": 5835,
      "検": 5836,
      "椰": 5837,
      "椵": 5838,
      "椽": 5839,
      "椿": 5840,
      "楆": 5841,
      "楊": 5842,
      "楓": 5843,
      "楔": 5844,
      "楚": 5845,
      "楞": 5846,
      "楠": 5847,
      "楨": 5848,
      "楩": 5849,
      "業": 5850,
      "極": 5851,
      "楷": 5852,
      "楼": 5853,
      "楽": 5854,
      "概": 5855,
      "榆": 5856,
      "榊": 5857,
      "榎": 5858,
      "榕": 5859,
      "榘": 5860,
      "榜": 5861,
      "榦": 5862,
      "榮": 5863,
      "榴": 5864,
      "槁": 5865,
      "槃": 5866,
      "構": 5867,
      "槍": 5868,
      "槎": 5869,
      "槐": 5870,
      "様": 5871,
      "槟": 5872,
      "槩": 5873,
      "樁": 5874,
      "樂": 5875,
      "樊": 5876,
      "樋": 5877,
      "樑": 5878,
      "樓": 5879,
      "樗": 5880,
      "標": 5881,
      "樞": 5882,
      "樟": 5883,
      "模": 5884,
      "樣": 5885,
      "権": 5886,
      "横": 5887,
      "樫": 5888,
      "樱": 5889,
      "樵": 5890,
      "樶": 5891,
      "樸": 5892,
      "樹": 5893,
      "樺": 5894,
      "樽": 5895,
      "橄": 5896,
      "橋": 5897,
      "橖": 5898,
      "橘": 5899,
      "橙": 5900,
      "機": 5901,
      "橡": 5902,
      "橫": 5903,
      "檀": 5904,
      "檄": 5905,
      "檔": 5906,
      "檗": 5907,
      "檛": 5908,
      "檜": 5909,
      "檢": 5910,
      "檬": 5911,
      "檳": 5912,
      "檸": 5913,
      "櫂": 5914,
      "櫈": 5915,
      "櫓": 5916,
      "櫻": 5917,
      "欄": 5918,
      "權": 5919,
      "欖": 5920,
      "欠": 5921,
      "次": 5922,
      "欢": 5923,
      "欣": 5924,
      "欧": 5925,
      "欲": 5926,
      "欺": 5927,
      "欽": 5928,
      "款": 5929,
      "歌": 5930,
      "歐": 5931,
      "歓": 5932,
      "歙": 5933,
      "歡": 5934,
      "止": 5935,
      "正": 5936,
      "此": 5937,
      "步": 5938,
      "武": 5939,
      "歧": 5940,
      "歩": 5941,
      "歪": 5942,
      "歯": 5943,
      "歲": 5944,
      "歳": 5945,
      "歴": 5946,
      "歷": 5947,
      "歸": 5948,
      "死": 5949,
      "歼": 5950,
      "殊": 5951,
      "残": 5952,
      "殖": 5953,
      "殘": 5954,
      "殤": 5955,
      "殴": 5956,
      "段": 5957,
      "殷": 5958,
      "殺": 5959,
      "殻": 5960,
      "殼": 5961,
      "殿": 5962,
      "毀": 5963,
      "毅": 5964,
      "毋": 5965,
      "母": 5966,
      "毎": 5967,
      "每": 5968,
      "毒": 5969,
      "毓": 5970,
      "比": 5971,
      "毕": 5972,
      "毗": 5973,
      "毘": 5974,
      "毛": 5975,
      "毦": 5976,
      "毫": 5977,
      "毬": 5978,
      "毯": 5979,
      "氈": 5980,
      "氏": 5981,
      "氐": 5982,
      "民": 5983,
      "氓": 5984,
      "气": 5985,
      "気": 5986,
      "氣": 5987,
      "氧": 5988,
      "水": 5989,
      "氵": 5990,
      "氷": 5991,
      "永": 5992,
      "氹": 5993,
      "汀": 5994,
      "汁": 5995,
      "求": 5996,
      "汇": 5997,
      "汉": 5998,
      "汐": 5999,
      "汗": 6000,
      "汚": 6001,
      "汝": 6002,
      "江": 6003,
      "池": 6004,
      "汤": 6005,
      "汩": 6006,
      "汪": 6007,
      "汰": 6008,
      "汲": 6009,
      "汴": 6010,
      "汶": 6011,
      "決": 6012,
      "汽": 6013,
      "汾": 6014,
      "沁": 6015,
      "沂": 6016,
      "沃": 6017,
      "沅": 6018,
      "沆": 6019,
      "沈": 6020,
      "沉": 6021,
      "沌": 6022,
      "沒": 6023,
      "沓": 6024,
      "沖": 6025,
      "沙": 6026,
      "沛": 6027,
      "沟": 6028,
      "没": 6029,
      "沢": 6030,
      "沣": 6031,
      "沦": 6032,
      "沪": 6033,
      "沫": 6034,
      "沮": 6035,
      "河": 6036,
      "油": 6037,
      "沺": 6038,
      "治": 6039,
      "沼": 6040,
      "沽": 6041,
      "沾": 6042,
      "沿": 6043,
      "況": 6044,
      "泉": 6045,
      "泊": 6046,
      "泌": 6047,
      "泐": 6048,
      "泓": 6049,
      "法": 6050,
      "泗": 6051,
      "泚": 6052,
      "泡": 6053,
      "波": 6054,
      "泣": 6055,
      "泥": 6056,
      "注": 6057,
      "泪": 6058,
      "泮": 6059,
      "泯": 6060,
      "泰": 6061,
      "泱": 6062,
      "泳": 6063,
      "泷": 6064,
      "泽": 6065,
      "泾": 6066,
      "洁": 6067,
      "洋": 6068,
      "洎": 6069,
      "洗": 6070,
      "洙": 6071,
      "洛": 6072,
      "洞": 6073,
      "津": 6074,
      "洪": 6075,
      "洮": 6076,
      "洲": 6077,
      "洵": 6078,
      "洹": 6079,
      "活": 6080,
      "派": 6081,
      "流": 6082,
      "浄": 6083,
      "浅": 6084,
      "浇": 6085,
      "测": 6086,
      "济": 6087,
      "浑": 6088,
      "浒": 6089,
      "浓": 6090,
      "浔": 6091,
      "浙": 6092,
      "浚": 6093,
      "浜": 6094,
      "浦": 6095,
      "浩": 6096,
      "浪": 6097,
      "浮": 6098,
      "浴": 6099,
      "海": 6100,
      "浼": 6101,
      "涂": 6102,
      "涅": 6103,
      "涇": 6104,
      "消": 6105,
      "涉": 6106,
      "涌": 6107,
      "涙": 6108,
      "涛": 6109,
      "涞": 6110,
      "涪": 6111,
      "涯": 6112,
      "液": 6113,
      "涼": 6114,
      "淀": 6115,
      "淄": 6116,
      "淇": 6117,
      "淋": 6118,
      "淑": 6119,
      "淖": 6120,
      "淘": 6121,
      "淙": 6122,
      "淚": 6123,
      "淡": 6124,
      "淦": 6125,
      "淨": 6126,
      "淩": 6127,
      "淮": 6128,
      "淰": 6129,
      "深": 6130,
      "淳": 6131,
      "淵": 6132,
      "混": 6133,
      "淸": 6134,
      "淺": 6135,
      "添": 6136,
      "清": 6137,
      "渇": 6138,
      "済": 6139,
      "渉": 6140,
      "渊": 6141,
      "渋": 6142,
      "渐": 6143,
      "渓": 6144,
      "渔": 6145,
      "渕": 6146,
      "渚": 6147,
      "減": 6148,
      "渝": 6149,
      "渠": 6150,
      "渡": 6151,
      "渣": 6152,
      "渤": 6153,
      "渥": 6154,
      "渦": 6155,
      "温": 6156,
      "測": 6157,
      "渭": 6158,
      "港": 6159,
      "渴": 6160,
      "游": 6161,
      "渼": 6162,
      "渾": 6163,
      "湃": 6164,
      "湄": 6165,
      "湎": 6166,
      "湓": 6167,
      "湖": 6168,
      "湘": 6169,
      "湛": 6170,
      "湜": 6171,
      "湞": 6172,
      "湟": 6173,
      "湣": 6174,
      "湧": 6175,
      "湮": 6176,
      "湯": 6177,
      "湾": 6178,
      "湿": 6179,
      "満": 6180,
      "源": 6181,
      "準": 6182,
      "溜": 6183,
      "溝": 6184,
      "溢": 6185,
      "溥": 6186,
      "溪": 6187,
      "溫": 6188,
      "溯": 6189,
      "溵": 6190,
      "溶": 6191,
      "溺": 6192,
      "滄": 6193,
      "滅": 6194,
      "滇": 6195,
      "滋": 6196,
      "滌": 6197,
      "滎": 6198,
      "滑": 6199,
      "滓": 6200,
      "滔": 6201,
      "滕": 6202,
      "滝": 6203,
      "满": 6204,
      "滦": 6205,
      "滨": 6206,
      "滩": 6207,
      "滬": 6208,
      "滴": 6209,
      "滷": 6210,
      "滸": 6211,
      "滾": 6212,
      "滿": 6213,
      "漁": 6214,
      "漂": 6215,
      "漆": 6216,
      "漈": 6217,
      "漉": 6218,
      "漏": 6219,
      "演": 6220,
      "漚": 6221,
      "漢": 6222,
      "漣": 6223,
      "漫": 6224,
      "漬": 6225,
      "漱": 6226,
      "漳": 6227,
      "漹": 6228,
      "漼": 6229,
      "漿": 6230,
      "潁": 6231,
      "潑": 6232,
      "潔": 6233,
      "潘": 6234,
      "潛": 6235,
      "潜": 6236,
      "潞": 6237,
      "潤": 6238,
      "潭": 6239,
      "潮": 6240,
      "潰": 6241,
      "潼": 6242,
      "澀": 6243,
      "澄": 6244,
      "澈": 6245,
      "澎": 6246,
      "澗": 6247,
      "澜": 6248,
      "澠": 6249,
      "澡": 6250,
      "澤": 6251,
      "澥": 6252,
      "澧": 6253,
      "澪": 6254,
      "澳": 6255,
      "澹": 6256,
      "激": 6257,
      "濃": 6258,
      "濕": 6259,
      "濛": 6260,
      "濟": 6261,
      "濠": 6262,
      "濡": 6263,
      "濤": 6264,
      "濧": 6265,
      "濬": 6266,
      "濮": 6267,
      "濯": 6268,
      "濱": 6269,
      "濺": 6270,
      "濾": 6271,
      "瀏": 6272,
      "瀑": 6273,
      "瀚": 6274,
      "瀛": 6275,
      "瀝": 6276,
      "瀞": 6277,
      "瀟": 6278,
      "瀬": 6279,
      "灌": 6280,
      "灑": 6281,
      "灘": 6282,
      "灝": 6283,
      "灣": 6284,
      "火": 6285,
      "灭": 6286,
      "灯": 6287,
      "灰": 6288,
      "灵": 6289,
      "灶": 6290,
      "灼": 6291,
      "災": 6292,
      "灿": 6293,
      "炁": 6294,
      "炅": 6295,
      "炉": 6296,
      "炎": 6297,
      "炒": 6298,
      "炤": 6299,
      "炭": 6300,
      "炮": 6301,
      "炯": 6302,
      "炳": 6303,
      "点": 6304,
      "為": 6305,
      "炼": 6306,
      "炽": 6307,
      "烂": 6308,
      "烈": 6309,
      "烏": 6310,
      "烝": 6311,
      "烟": 6312,
      "烠": 6313,
      "烤": 6314,
      "烧": 6315,
      "热": 6316,
      "烹": 6317,
      "烽": 6318,
      "焂": 6319,
      "焉": 6320,
      "焔": 6321,
      "焕": 6322,
      "焙": 6323,
      "焚": 6324,
      "焜": 6325,
      "無": 6326,
      "焦": 6327,
      "焯": 6328,
      "焰": 6329,
      "然": 6330,
      "焼": 6331,
      "煌": 6332,
      "煎": 6333,
      "煒": 6334,
      "煕": 6335,
      "煙": 6336,
      "煜": 6337,
      "煤": 6338,
      "煥": 6339,
      "煦": 6340,
      "照": 6341,
      "煨": 6342,
      "煩": 6343,
      "煬": 6344,
      "煮": 6345,
      "煲": 6346,
      "煽": 6347,
      "熄": 6348,
      "熊": 6349,
      "熏": 6350,
      "熒": 6351,
      "熔": 6352,
      "熙": 6353,
      "熟": 6354,
      "熱": 6355,
      "熵": 6356,
      "熾": 6357,
      "燁": 6358,
      "燃": 6359,
      "燈": 6360,
      "燊": 6361,
      "燎": 6362,
      "燒": 6363,
      "燕": 6364,
      "營": 6365,
      "燥": 6366,
      "燦": 6367,
      "燭": 6368,
      "燮": 6369,
      "燾": 6370,
      "燿": 6371,
      "爆": 6372,
      "爍": 6373,
      "爐": 6374,
      "爛": 6375,
      "爨": 6376,
      "爪": 6377,
      "爭": 6378,
      "爰": 6379,
      "爱": 6380,
      "爲": 6381,
      "爵": 6382,
      "父": 6383,
      "爷": 6384,
      "爸": 6385,
      "爺": 6386,
      "爽": 6387,
      "爾": 6388,
      "牁": 6389,
      "牂": 6390,
      "牆": 6391,
      "片": 6392,
      "版": 6393,
      "牌": 6394,
      "牒": 6395,
      "牙": 6396,
      "牛": 6397,
      "牟": 6398,
      "牡": 6399,
      "牢": 6400,
      "牧": 6401,
      "物": 6402,
      "牵": 6403,
      "特": 6404,
      "犀": 6405,
      "犁": 6406,
      "犍": 6407,
      "犬": 6408,
      "犯": 6409,
      "状": 6410,
      "犹": 6411,
      "狀": 6412,
      "狁": 6413,
      "狂": 6414,
      "狄": 6415,
      "狐": 6416,
      "狗": 6417,
      "狙": 6418,
      "狛": 6419,
      "狩": 6420,
      "独": 6421,
      "狮": 6422,
      "狸": 6423,
      "狼": 6424,
      "狽": 6425,
      "猎": 6426,
      "猛": 6427,
      "猜": 6428,
      "猟": 6429,
      "猩": 6430,
      "猪": 6431,
      "猫": 6432,
      "献": 6433,
      "猯": 6434,
      "猴": 6435,
      "猶": 6436,
      "猿": 6437,
      "獄": 6438,
      "獅": 6439,
      "獎": 6440,
      "獐": 6441,
      "獖": 6442,
      "獣": 6443,
      "獨": 6444,
      "獫": 6445,
      "獯": 6446,
      "獲": 6447,
      "獵": 6448,
      "獸": 6449,
      "獻": 6450,
      "玄": 6451,
      "玆": 6452,
      "率": 6453,
      "玉": 6454,
      "王": 6455,
      "玗": 6456,
      "玚": 6457,
      "玛": 6458,
      "玟": 6459,
      "玠": 6460,
      "玡": 6461,
      "玩": 6462,
      "玫": 6463,
      "环": 6464,
      "现": 6465,
      "玲": 6466,
      "玹": 6467,
      "玻": 6468,
      "珀": 6469,
      "珂": 6470,
      "珈": 6471,
      "珉": 6472,
      "珊": 6473,
      "珍": 6474,
      "珏": 6475,
      "珑": 6476,
      "珙": 6477,
      "珞": 6478,
      "珠": 6479,
      "珣": 6480,
      "珥": 6481,
      "珧": 6482,
      "珩": 6483,
      "珪": 6484,
      "班": 6485,
      "珮": 6486,
      "現": 6487,
      "球": 6488,
      "琄": 6489,
      "琅": 6490,
      "理": 6491,
      "琇": 6492,
      "琉": 6493,
      "琎": 6494,
      "琏": 6495,
      "琛": 6496,
      "琢": 6497,
      "琥": 6498,
      "琦": 6499,
      "琨": 6500,
      "琪": 6501,
      "琬": 6502,
      "琮": 6503,
      "琰": 6504,
      "琳": 6505,
      "琴": 6506,
      "琵": 6507,
      "琶": 6508,
      "琺": 6509,
      "琼": 6510,
      "琾": 6511,
      "瑀": 6512,
      "瑂": 6513,
      "瑄": 6514,
      "瑋": 6515,
      "瑑": 6516,
      "瑒": 6517,
      "瑕": 6518,
      "瑙": 6519,
      "瑚": 6520,
      "瑛": 6521,
      "瑜": 6522,
      "瑞": 6523,
      "瑟": 6524,
      "瑠": 6525,
      "瑤": 6526,
      "瑩": 6527,
      "瑪": 6528,
      "瑰": 6529,
      "瑶": 6530,
      "瑾": 6531,
      "璀": 6532,
      "璃": 6533,
      "璇": 6534,
      "璋": 6535,
      "璐": 6536,
      "璘": 6537,
      "璜": 6538,
      "璝": 6539,
      "璟": 6540,
      "璥": 6541,
      "璧": 6542,
      "璨": 6543,
      "璩": 6544,
      "環": 6545,
      "璹": 6546,
      "璿": 6547,
      "瓊": 6548,
      "瓏": 6549,
      "瓔": 6550,
      "瓘": 6551,
      "瓛": 6552,
      "瓜": 6553,
      "瓠": 6554,
      "瓢": 6555,
      "瓦": 6556,
      "瓶": 6557,
      "瓷": 6558,
      "甄": 6559,
      "甌": 6560,
      "甘": 6561,
      "甚": 6562,
      "甜": 6563,
      "生": 6564,
      "產": 6565,
      "産": 6566,
      "甦": 6567,
      "用": 6568,
      "甫": 6569,
      "田": 6570,
      "由": 6571,
      "甲": 6572,
      "申": 6573,
      "甴": 6574,
      "电": 6575,
      "男": 6576,
      "甸": 6577,
      "町": 6578,
      "画": 6579,
      "界": 6580,
      "畏": 6581,
      "畑": 6582,
      "畔": 6583,
      "留": 6584,
      "畚": 6585,
      "畜": 6586,
      "畝": 6587,
      "畠": 6588,
      "畢": 6589,
      "畤": 6590,
      "略": 6591,
      "畧": 6592,
      "番": 6593,
      "畫": 6594,
      "異": 6595,
      "畲": 6596,
      "畵": 6597,
      "當": 6598,
      "畿": 6599,
      "疆": 6600,
      "疊": 6601,
      "疋": 6602,
      "疍": 6603,
      "疏": 6604,
      "疑": 6605,
      "疤": 6606,
      "疫": 6607,
      "疮": 6608,
      "疯": 6609,
      "疹": 6610,
      "疾": 6611,
      "病": 6612,
      "症": 6613,
      "痔": 6614,
      "痘": 6615,
      "痛": 6616,
      "痢": 6617,
      "痣": 6618,
      "痴": 6619,
      "瘋": 6620,
      "瘍": 6621,
      "瘦": 6622,
      "療": 6623,
      "癡": 6624,
      "癢": 6625,
      "癲": 6626,
      "癸": 6627,
      "発": 6628,
      "登": 6629,
      "發": 6630,
      "白": 6631,
      "百": 6632,
      "皂": 6633,
      "的": 6634,
      "皆": 6635,
      "皇": 6636,
      "皎": 6637,
      "皓": 6638,
      "皖": 6639,
      "皙": 6640,
      "皤": 6641,
      "皮": 6642,
      "皿": 6643,
      "盂": 6644,
      "盃": 6645,
      "盆": 6646,
      "益": 6647,
      "盋": 6648,
      "盎": 6649,
      "盐": 6650,
      "监": 6651,
      "盖": 6652,
      "盗": 6653,
      "盘": 6654,
      "盛": 6655,
      "盜": 6656,
      "盞": 6657,
      "盟": 6658,
      "盡": 6659,
      "監": 6660,
      "盤": 6661,
      "盧": 6662,
      "盪": 6663,
      "目": 6664,
      "盱": 6665,
      "盲": 6666,
      "直": 6667,
      "相": 6668,
      "盼": 6669,
      "盾": 6670,
      "省": 6671,
      "眉": 6672,
      "看": 6673,
      "県": 6674,
      "眎": 6675,
      "眙": 6676,
      "眜": 6677,
      "眞": 6678,
      "真": 6679,
      "眠": 6680,
      "眡": 6681,
      "眭": 6682,
      "眷": 6683,
      "眼": 6684,
      "眾": 6685,
      "着": 6686,
      "睇": 6687,
      "睛": 6688,
      "睡": 6689,
      "睢": 6690,
      "督": 6691,
      "睦": 6692,
      "睹": 6693,
      "睽": 6694,
      "睿": 6695,
      "瞀": 6696,
      "瞋": 6697,
      "瞎": 6698,
      "瞬": 6699,
      "瞰": 6700,
      "瞳": 6701,
      "瞻": 6702,
      "瞽": 6703,
      "瞿": 6704,
      "矛": 6705,
      "矜": 6706,
      "矢": 6707,
      "矣": 6708,
      "知": 6709,
      "矩": 6710,
      "短": 6711,
      "矮": 6712,
      "矯": 6713,
      "石": 6714,
      "矽": 6715,
      "码": 6716,
      "砂": 6717,
      "砌": 6718,
      "砒": 6719,
      "研": 6720,
      "砕": 6721,
      "砚": 6722,
      "砥": 6723,
      "砦": 6724,
      "砧": 6725,
      "砬": 6726,
      "砲": 6727,
      "破": 6728,
      "础": 6729,
      "硅": 6730,
      "硈": 6731,
      "硏": 6732,
      "硕": 6733,
      "硫": 6734,
      "碁": 6735,
      "碎": 6736,
      "碏": 6737,
      "碑": 6738,
      "碔": 6739,
      "碗": 6740,
      "碟": 6741,
      "碣": 6742,
      "碧": 6743,
      "碩": 6744,
      "碱": 6745,
      "碻": 6746,
      "碼": 6747,
      "碾": 6748,
      "磁": 6749,
      "磊": 6750,
      "磐": 6751,
      "磝": 6752,
      "磡": 6753,
      "磧": 6754,
      "磨": 6755,
      "磬": 6756,
      "磼": 6757,
      "磾": 6758,
      "礎": 6759,
      "礏": 6760,
      "礒": 6761,
      "礙": 6762,
      "礪": 6763,
      "示": 6764,
      "礼": 6765,
      "社": 6766,
      "祀": 6767,
      "祁": 6768,
      "祇": 6769,
      "祈": 6770,
      "祉": 6771,
      "祐": 6772,
      "祖": 6773,
      "祗": 6774,
      "祚": 6775,
      "祜": 6776,
      "祝": 6777,
      "神": 6778,
      "祠": 6779,
      "祢": 6780,
      "祥": 6781,
      "票": 6782,
      "祭": 6783,
      "祯": 6784,
      "祺": 6785,
      "祿": 6786,
      "禁": 6787,
      "禄": 6788,
      "禅": 6789,
      "禋": 6790,
      "禍": 6791,
      "禎": 6792,
      "福": 6793,
      "禕": 6794,
      "禛": 6795,
      "禦": 6796,
      "禧": 6797,
      "禪": 6798,
      "禮": 6799,
      "禰": 6800,
      "禹": 6801,
      "禺": 6802,
      "离": 6803,
      "禽": 6804,
      "禾": 6805,
      "禿": 6806,
      "秀": 6807,
      "私": 6808,
      "秂": 6809,
      "秃": 6810,
      "秉": 6811,
      "秋": 6812,
      "种": 6813,
      "科": 6814,
      "秒": 6815,
      "秘": 6816,
      "租": 6817,
      "秣": 6818,
      "秦": 6819,
      "秧": 6820,
      "秩": 6821,
      "秭": 6822,
      "称": 6823,
      "秳": 6824,
      "移": 6825,
      "程": 6826,
      "税": 6827,
      "稔": 6828,
      "稗": 6829,
      "稚": 6830,
      "種": 6831,
      "稱": 6832,
      "稲": 6833,
      "稷": 6834,
      "稻": 6835,
      "稽": 6836,
      "稿": 6837,
      "穀": 6838,
      "穂": 6839,
      "穆": 6840,
      "穌": 6841,
      "積": 6842,
      "穎": 6843,
      "穏": 6844,
      "穗": 6845,
      "穟": 6846,
      "穣": 6847,
      "穩": 6848,
      "穰": 6849,
      "穴": 6850,
      "究": 6851,
      "穹": 6852,
      "空": 6853,
      "穿": 6854,
      "突": 6855,
      "窄": 6856,
      "窈": 6857,
      "窑": 6858,
      "窓": 6859,
      "窕": 6860,
      "窝": 6861,
      "窟": 6862,
      "窦": 6863,
      "窩": 6864,
      "窪": 6865,
      "窮": 6866,
      "竇": 6867,
      "竈": 6868,
      "立": 6869,
      "竒": 6870,
      "站": 6871,
      "竜": 6872,
      "竞": 6873,
      "竟": 6874,
      "章": 6875,
      "竣": 6876,
      "童": 6877,
      "竭": 6878,
      "端": 6879,
      "競": 6880,
      "竹": 6881,
      "竺": 6882,
      "笁": 6883,
      "笃": 6884,
      "笋": 6885,
      "笑": 6886,
      "笒": 6887,
      "笔": 6888,
      "笙": 6889,
      "笛": 6890,
      "笠": 6891,
      "笥": 6892,
      "符": 6893,
      "笨": 6894,
      "笪": 6895,
      "第": 6896,
      "笳": 6897,
      "笹": 6898,
      "笼": 6899,
      "筅": 6900,
      "筆": 6901,
      "筈": 6902,
      "等": 6903,
      "筋": 6904,
      "筍": 6905,
      "筑": 6906,
      "筒": 6907,
      "答": 6908,
      "策": 6909,
      "筚": 6910,
      "筝": 6911,
      "筠": 6912,
      "筥": 6913,
      "筭": 6914,
      "筱": 6915,
      "筴": 6916,
      "筵": 6917,
      "签": 6918,
      "简": 6919,
      "箇": 6920,
      "箋": 6921,
      "箍": 6922,
      "箏": 6923,
      "箕": 6924,
      "算": 6925,
      "箜": 6926,
      "管": 6927,
      "箪": 6928,
      "箫": 6929,
      "箭": 6930,
      "箱": 6931,
      "節": 6932,
      "範": 6933,
      "篆": 6934,
      "篇": 6935,
      "築": 6936,
      "篋": 6937,
      "篌": 6938,
      "篠": 6939,
      "篤": 6940,
      "篥": 6941,
      "篪": 6942,
      "篭": 6943,
      "篮": 6944,
      "篳": 6945,
      "篴": 6946,
      "簋": 6947,
      "簡": 6948,
      "簪": 6949,
      "簫": 6950,
      "簷": 6951,
      "簸": 6952,
      "簽": 6953,
      "簾": 6954,
      "簿": 6955,
      "籃": 6956,
      "籍": 6957,
      "籠": 6958,
      "籥": 6959,
      "籬": 6960,
      "籭": 6961,
      "米": 6962,
      "籴": 6963,
      "类": 6964,
      "粉": 6965,
      "粋": 6966,
      "粍": 6967,
      "粑": 6968,
      "粗": 6969,
      "粟": 6970,
      "粤": 6971,
      "粮": 6972,
      "粱": 6973,
      "粲": 6974,
      "粵": 6975,
      "粹": 6976,
      "精": 6977,
      "粿": 6978,
      "糊": 6979,
      "糍": 6980,
      "糕": 6981,
      "糖": 6982,
      "糟": 6983,
      "糧": 6984,
      "糸": 6985,
      "系": 6986,
      "紀": 6987,
      "約": 6988,
      "紅": 6989,
      "紇": 6990,
      "紋": 6991,
      "納": 6992,
      "紐": 6993,
      "純": 6994,
      "紗": 6995,
      "紘": 6996,
      "紙": 6997,
      "級": 6998,
      "紛": 6999,
      "素": 7000,
      "紡": 7001,
      "索": 7002,
      "紧": 7003,
      "紫": 7004,
      "紮": 7005,
      "累": 7006,
      "細": 7007,
      "紳": 7008,
      "紹": 7009,
      "紺": 7010,
      "終": 7011,
      "絃": 7012,
      "組": 7013,
      "絆": 7014,
      "経": 7015,
      "結": 7016,
      "絕": 7017,
      "絜": 7018,
      "絞": 7019,
      "絠": 7020,
      "絡": 7021,
      "絢": 7022,
      "給": 7023,
      "絮": 7024,
      "統": 7025,
      "絲": 7026,
      "絳": 7027,
      "絵": 7028,
      "絶": 7029,
      "絹": 7030,
      "綏": 7031,
      "經": 7032,
      "継": 7033,
      "続": 7034,
      "綜": 7035,
      "綝": 7036,
      "綠": 7037,
      "綦": 7038,
      "綬": 7039,
      "維": 7040,
      "綱": 7041,
      "網": 7042,
      "綴": 7043,
      "綵": 7044,
      "綸": 7045,
      "綺": 7046,
      "綻": 7047,
      "綽": 7048,
      "綾": 7049,
      "綿": 7050,
      "緁": 7051,
      "緄": 7052,
      "緊": 7053,
      "緋": 7054,
      "総": 7055,
      "緑": 7056,
      "緒": 7057,
      "緖": 7058,
      "緘": 7059,
      "線": 7060,
      "緜": 7061,
      "緝": 7062,
      "締": 7063,
      "緣": 7064,
      "編": 7065,
      "緩": 7066,
      "緬": 7067,
      "緯": 7068,
      "緱": 7069,
      "練": 7070,
      "緻": 7071,
      "縁": 7072,
      "縄": 7073,
      "縛": 7074,
      "縞": 7075,
      "縣": 7076,
      "縦": 7077,
      "縱": 7078,
      "總": 7079,
      "績": 7080,
      "繁": 7081,
      "繆": 7082,
      "繇": 7083,
      "繒": 7084,
      "織": 7085,
      "繕": 7086,
      "繚": 7087,
      "繜": 7088,
      "繞": 7089,
      "繡": 7090,
      "繩": 7091,
      "繪": 7092,
      "繫": 7093,
      "繭": 7094,
      "繰": 7095,
      "繼": 7096,
      "繽": 7097,
      "纂": 7098,
      "纈": 7099,
      "續": 7100,
      "纏": 7101,
      "纓": 7102,
      "纖": 7103,
      "纘": 7104,
      "纜": 7105,
      "红": 7106,
      "约": 7107,
      "级": 7108,
      "纪": 7109,
      "纬": 7110,
      "纯": 7111,
      "纰": 7112,
      "纲": 7113,
      "纳": 7114,
      "纷": 7115,
      "纸": 7116,
      "纹": 7117,
      "纽": 7118,
      "线": 7119,
      "练": 7120,
      "组": 7121,
      "细": 7122,
      "织": 7123,
      "终": 7124,
      "绍": 7125,
      "经": 7126,
      "绒": 7127,
      "结": 7128,
      "绘": 7129,
      "给": 7130,
      "络": 7131,
      "绝": 7132,
      "统": 7133,
      "绣": 7134,
      "绥": 7135,
      "继": 7136,
      "绪": 7137,
      "续": 7138,
      "绮": 7139,
      "维": 7140,
      "绵": 7141,
      "综": 7142,
      "绿": 7143,
      "缅": 7144,
      "编": 7145,
      "缘": 7146,
      "缩": 7147,
      "缪": 7148,
      "缭": 7149,
      "缶": 7150,
      "缺": 7151,
      "缽": 7152,
      "罐": 7153,
      "网": 7154,
      "罕": 7155,
      "罗": 7156,
      "罘": 7157,
      "罚": 7158,
      "罡": 7159,
      "罪": 7160,
      "置": 7161,
      "罰": 7162,
      "署": 7163,
      "罽": 7164,
      "羅": 7165,
      "羆": 7166,
      "羊": 7167,
      "羋": 7168,
      "羌": 7169,
      "美": 7170,
      "羔": 7171,
      "羖": 7172,
      "羚": 7173,
      "羝": 7174,
      "羡": 7175,
      "羣": 7176,
      "群": 7177,
      "羨": 7178,
      "義": 7179,
      "羯": 7180,
      "羲": 7181,
      "羹": 7182,
      "羽": 7183,
      "翁": 7184,
      "翅": 7185,
      "翊": 7186,
      "習": 7187,
      "翔": 7188,
      "翘": 7189,
      "翟": 7190,
      "翠": 7191,
      "翩": 7192,
      "翰": 7193,
      "翱": 7194,
      "翳": 7195,
      "翹": 7196,
      "翻": 7197,
      "翼": 7198,
      "耀": 7199,
      "老": 7200,
      "考": 7201,
      "者": 7202,
      "耆": 7203,
      "而": 7204,
      "耍": 7205,
      "耐": 7206,
      "耕": 7207,
      "耙": 7208,
      "耨": 7209,
      "耳": 7210,
      "耶": 7211,
      "耽": 7212,
      "耿": 7213,
      "聃": 7214,
      "聊": 7215,
      "职": 7216,
      "联": 7217,
      "聖": 7218,
      "聘": 7219,
      "聚": 7220,
      "聞": 7221,
      "聡": 7222,
      "聪": 7223,
      "聯": 7224,
      "聰": 7225,
      "聲": 7226,
      "聳": 7227,
      "聴": 7228,
      "聶": 7229,
      "職": 7230,
      "聹": 7231,
      "聽": 7232,
      "肃": 7233,
      "肅": 7234,
      "肆": 7235,
      "肇": 7236,
      "肉": 7237,
      "肌": 7238,
      "肏": 7239,
      "肖": 7240,
      "肘": 7241,
      "肚": 7242,
      "肝": 7243,
      "股": 7244,
      "肥": 7245,
      "肩": 7246,
      "肯": 7247,
      "肱": 7248,
      "育": 7249,
      "肺": 7250,
      "胃": 7251,
      "胄": 7252,
      "胆": 7253,
      "背": 7254,
      "胎": 7255,
      "胖": 7256,
      "胜": 7257,
      "胞": 7258,
      "胡": 7259,
      "胤": 7260,
      "胥": 7261,
      "胧": 7262,
      "胭": 7263,
      "胴": 7264,
      "胸": 7265,
      "能": 7266,
      "脂": 7267,
      "脇": 7268,
      "脈": 7269,
      "脉": 7270,
      "脊": 7271,
      "脚": 7272,
      "脩": 7273,
      "脫": 7274,
      "脱": 7275,
      "脳": 7276,
      "腆": 7277,
      "腊": 7278,
      "腋": 7279,
      "腐": 7280,
      "腓": 7281,
      "腕": 7282,
      "腦": 7283,
      "腩": 7284,
      "腰": 7285,
      "腳": 7286,
      "腸": 7287,
      "腹": 7288,
      "腻": 7289,
      "腾": 7290,
      "腿": 7291,
      "膀": 7292,
      "膏": 7293,
      "膜": 7294,
      "膝": 7295,
      "膨": 7296,
      "膲": 7297,
      "膳": 7298,
      "膺": 7299,
      "膽": 7300,
      "臂": 7301,
      "臉": 7302,
      "臓": 7303,
      "臘": 7304,
      "臚": 7305,
      "臣": 7306,
      "臥": 7307,
      "臧": 7308,
      "臨": 7309,
      "自": 7310,
      "臫": 7311,
      "臭": 7312,
      "至": 7313,
      "致": 7314,
      "臺": 7315,
      "臻": 7316,
      "臼": 7317,
      "與": 7318,
      "興": 7319,
      "舉": 7320,
      "舊": 7321,
      "舌": 7322,
      "舍": 7323,
      "舎": 7324,
      "舒": 7325,
      "舘": 7326,
      "舛": 7327,
      "舜": 7328,
      "舞": 7329,
      "舟": 7330,
      "航": 7331,
      "般": 7332,
      "舰": 7333,
      "舵": 7334,
      "舶": 7335,
      "船": 7336,
      "舺": 7337,
      "艇": 7338,
      "艋": 7339,
      "艦": 7340,
      "良": 7341,
      "艰": 7342,
      "艱": 7343,
      "色": 7344,
      "艶": 7345,
      "艷": 7346,
      "艺": 7347,
      "艾": 7348,
      "节": 7349,
      "芄": 7350,
      "芊": 7351,
      "芋": 7352,
      "芍": 7353,
      "芎": 7354,
      "芒": 7355,
      "芙": 7356,
      "芝": 7357,
      "芡": 7358,
      "芥": 7359,
      "芦": 7360,
      "芪": 7361,
      "芬": 7362,
      "芭": 7363,
      "芮": 7364,
      "花": 7365,
      "芳": 7366,
      "芸": 7367,
      "芹": 7368,
      "芽": 7369,
      "苅": 7370,
      "苍": 7371,
      "苏": 7372,
      "苑": 7373,
      "苓": 7374,
      "苔": 7375,
      "苗": 7376,
      "苜": 7377,
      "苞": 7378,
      "苟": 7379,
      "若": 7380,
      "苦": 7381,
      "苯": 7382,
      "英": 7383,
      "苺": 7384,
      "苻": 7385,
      "苾": 7386,
      "茂": 7387,
      "范": 7388,
      "茄": 7389,
      "茅": 7390,
      "茉": 7391,
      "茜": 7392,
      "茨": 7393,
      "茯": 7394,
      "茱": 7395,
      "茲": 7396,
      "茵": 7397,
      "茶": 7398,
      "茹": 7399,
      "茼": 7400,
      "荀": 7401,
      "荆": 7402,
      "荇": 7403,
      "草": 7404,
      "荊": 7405,
      "荒": 7406,
      "荔": 7407,
      "荘": 7408,
      "荡": 7409,
      "荣": 7410,
      "荥": 7411,
      "荦": 7412,
      "荫": 7413,
      "药": 7414,
      "荷": 7415,
      "荻": 7416,
      "荼": 7417,
      "莆": 7418,
      "莉": 7419,
      "莊": 7420,
      "莎": 7421,
      "莒": 7422,
      "莘": 7423,
      "莛": 7424,
      "莞": 7425,
      "莪": 7426,
      "莫": 7427,
      "莱": 7428,
      "莲": 7429,
      "莹": 7430,
      "莽": 7431,
      "菀": 7432,
      "菁": 7433,
      "菂": 7434,
      "菅": 7435,
      "菈": 7436,
      "菉": 7437,
      "菊": 7438,
      "菓": 7439,
      "菜": 7440,
      "菟": 7441,
      "菩": 7442,
      "菫": 7443,
      "華": 7444,
      "菱": 7445,
      "菲": 7446,
      "菴": 7447,
      "萃": 7448,
      "萄": 7449,
      "萊": 7450,
      "萌": 7451,
      "萍": 7452,
      "萝": 7453,
      "营": 7454,
      "萧": 7455,
      "萨": 7456,
      "萩": 7457,
      "萬": 7458,
      "萱": 7459,
      "萼": 7460,
      "落": 7461,
      "葆": 7462,
      "葉": 7463,
      "著": 7464,
      "葛": 7465,
      "葡": 7466,
      "董": 7467,
      "葦": 7468,
      "葫": 7469,
      "葬": 7470,
      "葭": 7471,
      "葰": 7472,
      "葱": 7473,
      "葵": 7474,
      "葶": 7475,
      "葺": 7476,
      "蒂": 7477,
      "蒋": 7478,
      "蒍": 7479,
      "蒐": 7480,
      "蒔": 7481,
      "蒙": 7482,
      "蒲": 7483,
      "蒸": 7484,
      "蒹": 7485,
      "蒼": 7486,
      "蒿": 7487,
      "蓁": 7488,
      "蓄": 7489,
      "蓉": 7490,
      "蓋": 7491,
      "蓓": 7492,
      "蓝": 7493,
      "蓟": 7494,
      "蓬": 7495,
      "蓮": 7496,
      "蓼": 7497,
      "蓿": 7498,
      "蔑": 7499,
      "蔓": 7500,
      "蔚": 7501,
      "蔞": 7502,
      "蔡": 7503,
      "蔣": 7504,
      "蔥": 7505,
      "蔭": 7506,
      "蔵": 7507,
      "蔻": 7508,
      "蕃": 7509,
      "蕆": 7510,
      "蕉": 7511,
      "蕊": 7512,
      "蕖": 7513,
      "蕗": 7514,
      "蕙": 7515,
      "蕣": 7516,
      "蕤": 7517,
      "蕩": 7518,
      "蕭": 7519,
      "蕲": 7520,
      "蕴": 7521,
      "蕾": 7522,
      "薄": 7523,
      "薇": 7524,
      "薊": 7525,
      "薔": 7526,
      "薛": 7527,
      "薦": 7528,
      "薩": 7529,
      "薪": 7530,
      "薫": 7531,
      "薬": 7532,
      "薮": 7533,
      "薯": 7534,
      "薱": 7535,
      "藍": 7536,
      "藏": 7537,
      "藜": 7538,
      "藝": 7539,
      "藤": 7540,
      "藥": 7541,
      "藨": 7542,
      "藩": 7543,
      "藪": 7544,
      "藺": 7545,
      "藻": 7546,
      "蘄": 7547,
      "蘆": 7548,
      "蘇": 7549,
      "蘊": 7550,
      "蘋": 7551,
      "蘖": 7552,
      "蘢": 7553,
      "蘭": 7554,
      "蘱": 7555,
      "蘿": 7556,
      "虁": 7557,
      "虎": 7558,
      "虐": 7559,
      "虔": 7560,
      "處": 7561,
      "虚": 7562,
      "虛": 7563,
      "虜": 7564,
      "虞": 7565,
      "號": 7566,
      "虢": 7567,
      "虫": 7568,
      "虹": 7569,
      "虽": 7570,
      "蚊": 7571,
      "蚕": 7572,
      "蚩": 7573,
      "蚺": 7574,
      "蛇": 7575,
      "蛉": 7576,
      "蛋": 7577,
      "蛙": 7578,
      "蛛": 7579,
      "蛟": 7580,
      "蛤": 7581,
      "蛮": 7582,
      "蛸": 7583,
      "蜀": 7584,
      "蜂": 7585,
      "蜉": 7586,
      "蜑": 7587,
      "蜓": 7588,
      "蜘": 7589,
      "蜜": 7590,
      "蜻": 7591,
      "蝉": 7592,
      "蝕": 7593,
      "蝗": 7594,
      "蝙": 7595,
      "蝠": 7596,
      "蝣": 7597,
      "蝦": 7598,
      "蝴": 7599,
      "蝶": 7600,
      "蝸": 7601,
      "螂": 7602,
      "融": 7603,
      "螫": 7604,
      "螺": 7605,
      "蟒": 7606,
      "蟠": 7607,
      "蟲": 7608,
      "蟷": 7609,
      "蟹": 7610,
      "蟻": 7611,
      "蠅": 7612,
      "蠕": 7613,
      "蠟": 7614,
      "蠡": 7615,
      "蠣": 7616,
      "蠱": 7617,
      "蠶": 7618,
      "蠻": 7619,
      "血": 7620,
      "衆": 7621,
      "衊": 7622,
      "行": 7623,
      "衍": 7624,
      "術": 7625,
      "街": 7626,
      "衙": 7627,
      "衛": 7628,
      "衜": 7629,
      "衝": 7630,
      "衞": 7631,
      "衡": 7632,
      "衢": 7633,
      "衣": 7634,
      "补": 7635,
      "表": 7636,
      "衫": 7637,
      "衮": 7638,
      "衰": 7639,
      "衷": 7640,
      "袁": 7641,
      "袈": 7642,
      "袋": 7643,
      "袍": 7644,
      "袖": 7645,
      "被": 7646,
      "裁": 7647,
      "裂": 7648,
      "装": 7649,
      "裏": 7650,
      "裔": 7651,
      "裕": 7652,
      "裘": 7653,
      "裙": 7654,
      "補": 7655,
      "裝": 7656,
      "裟": 7657,
      "裡": 7658,
      "裳": 7659,
      "裴": 7660,
      "裵": 7661,
      "裸": 7662,
      "製": 7663,
      "褐": 7664,
      "褒": 7665,
      "褓": 7666,
      "褔": 7667,
      "褚": 7668,
      "褥": 7669,
      "褪": 7670,
      "褲": 7671,
      "襄": 7672,
      "襟": 7673,
      "襲": 7674,
      "西": 7675,
      "要": 7676,
      "覆": 7677,
      "覇": 7678,
      "見": 7679,
      "規": 7680,
      "視": 7681,
      "覘": 7682,
      "覚": 7683,
      "覧": 7684,
      "覩": 7685,
      "親": 7686,
      "覲": 7687,
      "観": 7688,
      "覵": 7689,
      "覺": 7690,
      "覽": 7691,
      "觀": 7692,
      "见": 7693,
      "观": 7694,
      "规": 7695,
      "视": 7696,
      "览": 7697,
      "觉": 7698,
      "觐": 7699,
      "角": 7700,
      "觚": 7701,
      "解": 7702,
      "触": 7703,
      "觸": 7704,
      "言": 7705,
      "訁": 7706,
      "訂": 7707,
      "計": 7708,
      "訊": 7709,
      "討": 7710,
      "訓": 7711,
      "訖": 7712,
      "記": 7713,
      "訟": 7714,
      "訢": 7715,
      "訥": 7716,
      "訪": 7717,
      "設": 7718,
      "許": 7719,
      "訳": 7720,
      "訴": 7721,
      "訶": 7722,
      "診": 7723,
      "註": 7724,
      "証": 7725,
      "詁": 7726,
      "詐": 7727,
      "詔": 7728,
      "評": 7729,
      "詛": 7730,
      "詞": 7731,
      "詠": 7732,
      "詡": 7733,
      "詣": 7734,
      "試": 7735,
      "詩": 7736,
      "詭": 7737,
      "詰": 7738,
      "話": 7739,
      "詳": 7740,
      "詹": 7741,
      "誅": 7742,
      "誇": 7743,
      "誉": 7744,
      "誌": 7745,
      "認": 7746,
      "誐": 7747,
      "誓": 7748,
      "誕": 7749,
      "誘": 7750,
      "語": 7751,
      "誠": 7752,
      "誤": 7753,
      "誥": 7754,
      "誦": 7755,
      "誨": 7756,
      "說": 7757,
      "説": 7758,
      "読": 7759,
      "誰": 7760,
      "課": 7761,
      "誼": 7762,
      "調": 7763,
      "諄": 7764,
      "談": 7765,
      "請": 7766,
      "諒": 7767,
      "論": 7768,
      "諜": 7769,
      "諦": 7770,
      "諧": 7771,
      "諫": 7772,
      "諭": 7773,
      "諱": 7774,
      "諶": 7775,
      "諷": 7776,
      "諸": 7777,
      "諾": 7778,
      "諿": 7779,
      "謀": 7780,
      "謁": 7781,
      "謂": 7782,
      "謇": 7783,
      "謊": 7784,
      "謎": 7785,
      "謐": 7786,
      "謙": 7787,
      "講": 7788,
      "謜": 7789,
      "謝": 7790,
      "謡": 7791,
      "謨": 7792,
      "謬": 7793,
      "謹": 7794,
      "證": 7795,
      "識": 7796,
      "譙": 7797,
      "譚": 7798,
      "譜": 7799,
      "警": 7800,
      "譯": 7801,
      "議": 7802,
      "譲": 7803,
      "譵": 7804,
      "護": 7805,
      "譽": 7806,
      "讀": 7807,
      "讃": 7808,
      "變": 7809,
      "讌": 7810,
      "讐": 7811,
      "讓": 7812,
      "讚": 7813,
      "计": 7814,
      "认": 7815,
      "讨": 7816,
      "让": 7817,
      "训": 7818,
      "议": 7819,
      "讯": 7820,
      "记": 7821,
      "讲": 7822,
      "讷": 7823,
      "许": 7824,
      "论": 7825,
      "讼": 7826,
      "设": 7827,
      "访": 7828,
      "诀": 7829,
      "证": 7830,
      "诃": 7831,
      "评": 7832,
      "识": 7833,
      "诉": 7834,
      "词": 7835,
      "诏": 7836,
      "译": 7837,
      "试": 7838,
      "诗": 7839,
      "诚": 7840,
      "诛": 7841,
      "话": 7842,
      "诠": 7843,
      "询": 7844,
      "详": 7845,
      "语": 7846,
      "诱": 7847,
      "诲": 7848,
      "说": 7849,
      "诵": 7850,
      "请": 7851,
      "诸": 7852,
      "诺": 7853,
      "读": 7854,
      "课": 7855,
      "谁": 7856,
      "调": 7857,
      "谅": 7858,
      "谈": 7859,
      "谊": 7860,
      "谋": 7861,
      "谐": 7862,
      "谟": 7863,
      "谢": 7864,
      "谨": 7865,
      "谭": 7866,
      "谱": 7867,
      "谷": 7868,
      "谿": 7869,
      "豁": 7870,
      "豆": 7871,
      "豈": 7872,
      "豊": 7873,
      "豌": 7874,
      "豎": 7875,
      "豐": 7876,
      "豔": 7877,
      "豚": 7878,
      "象": 7879,
      "豢": 7880,
      "豪": 7881,
      "豫": 7882,
      "豬": 7883,
      "豳": 7884,
      "豹": 7885,
      "豺": 7886,
      "貂": 7887,
      "貉": 7888,
      "貍": 7889,
      "貓": 7890,
      "貘": 7891,
      "貝": 7892,
      "貞": 7893,
      "負": 7894,
      "財": 7895,
      "貢": 7896,
      "貧": 7897,
      "貨": 7898,
      "販": 7899,
      "貪": 7900,
      "貫": 7901,
      "責": 7902,
      "貳": 7903,
      "貴": 7904,
      "買": 7905,
      "貸": 7906,
      "費": 7907,
      "貽": 7908,
      "貿": 7909,
      "賀": 7910,
      "賁": 7911,
      "資": 7912,
      "賈": 7913,
      "賊": 7914,
      "賓": 7915,
      "賜": 7916,
      "賞": 7917,
      "賢": 7918,
      "賣": 7919,
      "賤": 7920,
      "賦": 7921,
      "質": 7922,
      "賭": 7923,
      "賴": 7924,
      "購": 7925,
      "賽": 7926,
      "贈": 7927,
      "贊": 7928,
      "贏": 7929,
      "贛": 7930,
      "贝": 7931,
      "贞": 7932,
      "贡": 7933,
      "财": 7934,
      "责": 7935,
      "贤": 7936,
      "败": 7937,
      "货": 7938,
      "质": 7939,
      "购": 7940,
      "贯": 7941,
      "贴": 7942,
      "贵": 7943,
      "贸": 7944,
      "费": 7945,
      "贺": 7946,
      "贼": 7947,
      "贾": 7948,
      "资": 7949,
      "赋": 7950,
      "赏": 7951,
      "赐": 7952,
      "赔": 7953,
      "赖": 7954,
      "赛": 7955,
      "赞": 7956,
      "赠": 7957,
      "赡": 7958,
      "赣": 7959,
      "赤": 7960,
      "赫": 7961,
      "走": 7962,
      "赱": 7963,
      "赳": 7964,
      "赴": 7965,
      "赵": 7966,
      "起": 7967,
      "超": 7968,
      "越": 7969,
      "趕": 7970,
      "趙": 7971,
      "趟": 7972,
      "趣": 7973,
      "趨": 7974,
      "足": 7975,
      "趾": 7976,
      "跃": 7977,
      "跋": 7978,
      "跌": 7979,
      "跑": 7980,
      "跚": 7981,
      "跛": 7982,
      "距": 7983,
      "跟": 7984,
      "跡": 7985,
      "跢": 7986,
      "跤": 7987,
      "跨": 7988,
      "路": 7989,
      "跳": 7990,
      "践": 7991,
      "踊": 7992,
      "踏": 7993,
      "踐": 7994,
      "踢": 7995,
      "踪": 7996,
      "踭": 7997,
      "蹇": 7998,
      "蹈": 7999,
      "蹋": 8000,
      "蹟": 8001,
      "蹣": 8002,
      "蹤": 8003,
      "蹻": 8004,
      "躁": 8005,
      "身": 8006,
      "躬": 8007,
      "躺": 8008,
      "軀": 8009,
      "車": 8010,
      "軌": 8011,
      "軍": 8012,
      "軒": 8013,
      "軟": 8014,
      "転": 8015,
      "軸": 8016,
      "軹": 8017,
      "軻": 8018,
      "軽": 8019,
      "軾": 8020,
      "較": 8021,
      "輅": 8022,
      "載": 8023,
      "輔": 8024,
      "輕": 8025,
      "輝": 8026,
      "輟": 8027,
      "輩": 8028,
      "輪": 8029,
      "輯": 8030,
      "輸": 8031,
      "輾": 8032,
      "輿": 8033,
      "轉": 8034,
      "轟": 8035,
      "车": 8036,
      "轨": 8037,
      "轩": 8038,
      "转": 8039,
      "轮": 8040,
      "软": 8041,
      "轲": 8042,
      "轻": 8043,
      "载": 8044,
      "辈": 8045,
      "辉": 8046,
      "辑": 8047,
      "输": 8048,
      "辖": 8049,
      "辛": 8050,
      "辜": 8051,
      "辞": 8052,
      "辟": 8053,
      "辣": 8054,
      "辦": 8055,
      "辨": 8056,
      "辭": 8057,
      "辯": 8058,
      "辰": 8059,
      "農": 8060,
      "边": 8061,
      "辺": 8062,
      "辻": 8063,
      "込": 8064,
      "辽": 8065,
      "达": 8066,
      "迁": 8067,
      "迅": 8068,
      "过": 8069,
      "迈": 8070,
      "迎": 8071,
      "运": 8072,
      "近": 8073,
      "返": 8074,
      "还": 8075,
      "这": 8076,
      "进": 8077,
      "远": 8078,
      "连": 8079,
      "迟": 8080,
      "迢": 8081,
      "迣": 8082,
      "迦": 8083,
      "迪": 8084,
      "迫": 8085,
      "迭": 8086,
      "述": 8087,
      "迳": 8088,
      "迴": 8089,
      "迷": 8090,
      "迹": 8091,
      "迺": 8092,
      "迻": 8093,
      "追": 8094,
      "退": 8095,
      "送": 8096,
      "适": 8097,
      "逃": 8098,
      "逄": 8099,
      "逆": 8100,
      "选": 8101,
      "逊": 8102,
      "逍": 8103,
      "透": 8104,
      "逐": 8105,
      "途": 8106,
      "這": 8107,
      "通": 8108,
      "逝": 8109,
      "逞": 8110,
      "速": 8111,
      "造": 8112,
      "逢": 8113,
      "連": 8114,
      "逯": 8115,
      "週": 8116,
      "進": 8117,
      "逵": 8118,
      "逸": 8119,
      "逻": 8120,
      "遁": 8121,
      "遂": 8122,
      "遇": 8123,
      "遊": 8124,
      "運": 8125,
      "遍": 8126,
      "過": 8127,
      "遐": 8128,
      "道": 8129,
      "達": 8130,
      "違": 8131,
      "遗": 8132,
      "遙": 8133,
      "遜": 8134,
      "遠": 8135,
      "遡": 8136,
      "遥": 8137,
      "適": 8138,
      "遭": 8139,
      "遮": 8140,
      "遯": 8141,
      "遲": 8142,
      "遵": 8143,
      "遷": 8144,
      "選": 8145,
      "遺": 8146,
      "遼": 8147,
      "遽": 8148,
      "避": 8149,
      "邁": 8150,
      "還": 8151,
      "邅": 8152,
      "邇": 8153,
      "邈": 8154,
      "邉": 8155,
      "邊": 8156,
      "邏": 8157,
      "邑": 8158,
      "邓": 8159,
      "邕": 8160,
      "邝": 8161,
      "邠": 8162,
      "邢": 8163,
      "那": 8164,
      "邦": 8165,
      "邨": 8166,
      "邪": 8167,
      "邮": 8168,
      "邯": 8169,
      "邱": 8170,
      "邳": 8171,
      "邵": 8172,
      "邸": 8173,
      "邹": 8174,
      "邻": 8175,
      "邽": 8176,
      "郁": 8177,
      "郃": 8178,
      "郅": 8179,
      "郇": 8180,
      "郊": 8181,
      "郎": 8182,
      "郑": 8183,
      "郕": 8184,
      "郗": 8185,
      "郜": 8186,
      "郝": 8187,
      "郞": 8188,
      "郡": 8189,
      "郢": 8190,
      "郤": 8191,
      "郦": 8192,
      "部": 8193,
      "郭": 8194,
      "郴": 8195,
      "郵": 8196,
      "郷": 8197,
      "都": 8198,
      "郿": 8199,
      "鄀": 8200,
      "鄂": 8201,
      "鄄": 8202,
      "鄉": 8203,
      "鄒": 8204,
      "鄕": 8205,
      "鄠": 8206,
      "鄢": 8207,
      "鄧": 8208,
      "鄩": 8209,
      "鄭": 8210,
      "鄯": 8211,
      "鄰": 8212,
      "鄱": 8213,
      "鄲": 8214,
      "鄴": 8215,
      "鄺": 8216,
      "酆": 8217,
      "酉": 8218,
      "配": 8219,
      "酎": 8220,
      "酒": 8221,
      "酚": 8222,
      "酢": 8223,
      "酥": 8224,
      "酬": 8225,
      "酰": 8226,
      "酱": 8227,
      "酷": 8228,
      "酸": 8229,
      "醉": 8230,
      "醋": 8231,
      "醍": 8232,
      "醐": 8233,
      "醒": 8234,
      "醜": 8235,
      "醤": 8236,
      "醫": 8237,
      "醯": 8238,
      "采": 8239,
      "釈": 8240,
      "释": 8241,
      "釋": 8242,
      "里": 8243,
      "重": 8244,
      "野": 8245,
      "量": 8246,
      "釐": 8247,
      "金": 8248,
      "釗": 8249,
      "釜": 8250,
      "針": 8251,
      "釣": 8252,
      "釩": 8253,
      "釲": 8254,
      "釵": 8255,
      "鈍": 8256,
      "鈎": 8257,
      "鈔": 8258,
      "鈕": 8259,
      "鈞": 8260,
      "鈴": 8261,
      "鈺": 8262,
      "鈿": 8263,
      "鉂": 8264,
      "鉄": 8265,
      "鉉": 8266,
      "鉍": 8267,
      "鉗": 8268,
      "鉢": 8269,
      "鉤": 8270,
      "鉦": 8271,
      "鉱": 8272,
      "鉴": 8273,
      "鉾": 8274,
      "銀": 8275,
      "銃": 8276,
      "銅": 8277,
      "銍": 8278,
      "銕": 8279,
      "銘": 8280,
      "銙": 8281,
      "銚": 8282,
      "銭": 8283,
      "銳": 8284,
      "銷": 8285,
      "鋌": 8286,
      "鋒": 8287,
      "鋡": 8288,
      "鋤": 8289,
      "鋭": 8290,
      "鋼": 8291,
      "錄": 8292,
      "錆": 8293,
      "錐": 8294,
      "錘": 8295,
      "錚": 8296,
      "錠": 8297,
      "錢": 8298,
      "錣": 8299,
      "錦": 8300,
      "錨": 8301,
      "錫": 8302,
      "錬": 8303,
      "錯": 8304,
      "録": 8305,
      "鍊": 8306,
      "鍋": 8307,
      "鍑": 8308,
      "鍚": 8309,
      "鍛": 8310,
      "鍮": 8311,
      "鍵": 8312,
      "鍹": 8313,
      "鍾": 8314,
      "鎖": 8315,
      "鎗": 8316,
      "鎛": 8317,
      "鎬": 8318,
      "鎭": 8319,
      "鎮": 8320,
      "鏖": 8321,
      "鏗": 8322,
      "鏘": 8323,
      "鏛": 8324,
      "鏡": 8325,
      "鏤": 8326,
      "鏱": 8327,
      "鐘": 8328,
      "鐵": 8329,
      "鐶": 8330,
      "鐸": 8331,
      "鑅": 8332,
      "鑊": 8333,
      "鑑": 8334,
      "鑒": 8335,
      "鑠": 8336,
      "鑲": 8337,
      "鑼": 8338,
      "鑽": 8339,
      "针": 8340,
      "钗": 8341,
      "钞": 8342,
      "钟": 8343,
      "钢": 8344,
      "钦": 8345,
      "钩": 8346,
      "钱": 8347,
      "钳": 8348,
      "钵": 8349,
      "钺": 8350,
      "铁": 8351,
      "铃": 8352,
      "铉": 8353,
      "铜": 8354,
      "铤": 8355,
      "铭": 8356,
      "银": 8357,
      "铸": 8358,
      "锁": 8359,
      "锅": 8360,
      "锐": 8361,
      "错": 8362,
      "锡": 8363,
      "锤": 8364,
      "锦": 8365,
      "锺": 8366,
      "锻": 8367,
      "镇": 8368,
      "镒": 8369,
      "镖": 8370,
      "镭": 8371,
      "镰": 8372,
      "镳": 8373,
      "長": 8374,
      "长": 8375,
      "門": 8376,
      "閂": 8377,
      "閃": 8378,
      "閉": 8379,
      "開": 8380,
      "閎": 8381,
      "閑": 8382,
      "閒": 8383,
      "間": 8384,
      "閔": 8385,
      "関": 8386,
      "閣": 8387,
      "閤": 8388,
      "閥": 8389,
      "閩": 8390,
      "閪": 8391,
      "閬": 8392,
      "閭": 8393,
      "閱": 8394,
      "閻": 8395,
      "閼": 8396,
      "闆": 8397,
      "闇": 8398,
      "闊": 8399,
      "闌": 8400,
      "闍": 8401,
      "闐": 8402,
      "闓": 8403,
      "闔": 8404,
      "闕": 8405,
      "闖": 8406,
      "闘": 8407,
      "關": 8408,
      "闞": 8409,
      "闡": 8410,
      "闢": 8411,
      "门": 8412,
      "闪": 8413,
      "闭": 8414,
      "问": 8415,
      "间": 8416,
      "闵": 8417,
      "闻": 8418,
      "闽": 8419,
      "闾": 8420,
      "阀": 8421,
      "阁": 8422,
      "阅": 8423,
      "阎": 8424,
      "阏": 8425,
      "阔": 8426,
      "阗": 8427,
      "阙": 8428,
      "阜": 8429,
      "队": 8430,
      "阡": 8431,
      "阪": 8432,
      "阬": 8433,
      "阮": 8434,
      "阯": 8435,
      "防": 8436,
      "阳": 8437,
      "阴": 8438,
      "阵": 8439,
      "阶": 8440,
      "阻": 8441,
      "阿": 8442,
      "陀": 8443,
      "陁": 8444,
      "陂": 8445,
      "附": 8446,
      "际": 8447,
      "陆": 8448,
      "陈": 8449,
      "陋": 8450,
      "陌": 8451,
      "降": 8452,
      "限": 8453,
      "陘": 8454,
      "陛": 8455,
      "陜": 8456,
      "陝": 8457,
      "陞": 8458,
      "院": 8459,
      "陣": 8460,
      "除": 8461,
      "险": 8462,
      "陪": 8463,
      "陰": 8464,
      "陳": 8465,
      "陵": 8466,
      "陶": 8467,
      "陸": 8468,
      "険": 8469,
      "陽": 8470,
      "隅": 8471,
      "隆": 8472,
      "隈": 8473,
      "隊": 8474,
      "隋": 8475,
      "隍": 8476,
      "階": 8477,
      "随": 8478,
      "隔": 8479,
      "隕": 8480,
      "隘": 8481,
      "際": 8482,
      "障": 8483,
      "隠": 8484,
      "隣": 8485,
      "隨": 8486,
      "險": 8487,
      "隱": 8488,
      "隴": 8489,
      "隶": 8490,
      "隷": 8491,
      "隸": 8492,
      "隻": 8493,
      "隽": 8494,
      "难": 8495,
      "雀": 8496,
      "雁": 8497,
      "雄": 8498,
      "雅": 8499,
      "集": 8500,
      "雇": 8501,
      "雉": 8502,
      "雋": 8503,
      "雌": 8504,
      "雍": 8505,
      "雎": 8506,
      "雑": 8507,
      "雒": 8508,
      "雕": 8509,
      "雖": 8510,
      "雙": 8511,
      "雛": 8512,
      "雜": 8513,
      "雞": 8514,
      "離": 8515,
      "難": 8516,
      "雨": 8517,
      "雪": 8518,
      "雫": 8519,
      "雯": 8520,
      "雰": 8521,
      "雲": 8522,
      "零": 8523,
      "雷": 8524,
      "電": 8525,
      "雾": 8526,
      "需": 8527,
      "霄": 8528,
      "霆": 8529,
      "震": 8530,
      "霈": 8531,
      "霊": 8532,
      "霍": 8533,
      "霎": 8534,
      "霏": 8535,
      "霓": 8536,
      "霖": 8537,
      "霜": 8538,
      "霞": 8539,
      "霧": 8540,
      "露": 8541,
      "霸": 8542,
      "霹": 8543,
      "靂": 8544,
      "靈": 8545,
      "靑": 8546,
      "青": 8547,
      "靖": 8548,
      "静": 8549,
      "靚": 8550,
      "靜": 8551,
      "非": 8552,
      "靠": 8553,
      "靡": 8554,
      "面": 8555,
      "革": 8556,
      "靳": 8557,
      "靴": 8558,
      "靼": 8559,
      "鞆": 8560,
      "鞋": 8561,
      "鞍": 8562,
      "鞏": 8563,
      "鞑": 8564,
      "鞔": 8565,
      "鞘": 8566,
      "鞬": 8567,
      "鞭": 8568,
      "鞮": 8569,
      "鞴": 8570,
      "韃": 8571,
      "韈": 8572,
      "韋": 8573,
      "韓": 8574,
      "韜": 8575,
      "韦": 8576,
      "韩": 8577,
      "韬": 8578,
      "音": 8579,
      "韵": 8580,
      "韶": 8581,
      "韻": 8582,
      "響": 8583,
      "頁": 8584,
      "頂": 8585,
      "頃": 8586,
      "項": 8587,
      "順": 8588,
      "須": 8589,
      "頌": 8590,
      "預": 8591,
      "頑": 8592,
      "頓": 8593,
      "頖": 8594,
      "頗": 8595,
      "領": 8596,
      "頛": 8597,
      "頡": 8598,
      "頤": 8599,
      "頭": 8600,
      "頲": 8601,
      "頸": 8602,
      "頹": 8603,
      "頻": 8604,
      "頼": 8605,
      "題": 8606,
      "額": 8607,
      "顏": 8608,
      "顔": 8609,
      "顕": 8610,
      "顗": 8611,
      "願": 8612,
      "顛": 8613,
      "類": 8614,
      "顥": 8615,
      "顧": 8616,
      "顫": 8617,
      "顯": 8618,
      "页": 8619,
      "项": 8620,
      "顺": 8621,
      "顽": 8622,
      "顾": 8623,
      "顿": 8624,
      "预": 8625,
      "领": 8626,
      "颇": 8627,
      "颐": 8628,
      "频": 8629,
      "颗": 8630,
      "题": 8631,
      "風": 8632,
      "颯": 8633,
      "颺": 8634,
      "飃": 8635,
      "飄": 8636,
      "飆": 8637,
      "风": 8638,
      "飙": 8639,
      "飛": 8640,
      "飜": 8641,
      "飞": 8642,
      "食": 8643,
      "飡": 8644,
      "飢": 8645,
      "飯": 8646,
      "飲": 8647,
      "飴": 8648,
      "飼": 8649,
      "飽": 8650,
      "飾": 8651,
      "餃": 8652,
      "餅": 8653,
      "養": 8654,
      "餌": 8655,
      "餐": 8656,
      "餓": 8657,
      "餘": 8658,
      "館": 8659,
      "饑": 8660,
      "饒": 8661,
      "饗": 8662,
      "饭": 8663,
      "饮": 8664,
      "饰": 8665,
      "饼": 8666,
      "饿": 8667,
      "馆": 8668,
      "馈": 8669,
      "首": 8670,
      "馗": 8671,
      "香": 8672,
      "馝": 8673,
      "馥": 8674,
      "馨": 8675,
      "馬": 8676,
      "馭": 8677,
      "馮": 8678,
      "馱": 8679,
      "馴": 8680,
      "馹": 8681,
      "駄": 8682,
      "駅": 8683,
      "駆": 8684,
      "駈": 8685,
      "駐": 8686,
      "駒": 8687,
      "駕": 8688,
      "駙": 8689,
      "駛": 8690,
      "駱": 8691,
      "駿": 8692,
      "騎": 8693,
      "騒": 8694,
      "験": 8695,
      "騙": 8696,
      "騫": 8697,
      "騭": 8698,
      "騰": 8699,
      "騷": 8700,
      "驃": 8701,
      "驅": 8702,
      "驍": 8703,
      "驎": 8704,
      "驕": 8705,
      "驗": 8706,
      "驚": 8707,
      "驟": 8708,
      "驤": 8709,
      "驥": 8710,
      "驪": 8711,
      "马": 8712,
      "驳": 8713,
      "驴": 8714,
      "驼": 8715,
      "驾": 8716,
      "骄": 8717,
      "骆": 8718,
      "验": 8719,
      "骑": 8720,
      "骒": 8721,
      "骚": 8722,
      "骞": 8723,
      "骡": 8724,
      "骥": 8725,
      "骨": 8726,
      "骯": 8727,
      "骰": 8728,
      "骼": 8729,
      "髄": 8730,
      "髒": 8731,
      "體": 8732,
      "高": 8733,
      "髙": 8734,
      "髪": 8735,
      "髮": 8736,
      "鬃": 8737,
      "鬆": 8738,
      "鬘": 8739,
      "鬚": 8740,
      "鬢": 8741,
      "鬥": 8742,
      "鬧": 8743,
      "鬪": 8744,
      "鬭": 8745,
      "鬱": 8746,
      "鬷": 8747,
      "鬻": 8748,
      "鬼": 8749,
      "魁": 8750,
      "魂": 8751,
      "魄": 8752,
      "魅": 8753,
      "魇": 8754,
      "魏": 8755,
      "魔": 8756,
      "魚": 8757,
      "魡": 8758,
      "魢": 8759,
      "魯": 8760,
      "魰": 8761,
      "鮃": 8762,
      "鮑": 8763,
      "鮒": 8764,
      "鮫": 8765,
      "鮮": 8766,
      "鯊": 8767,
      "鯖": 8768,
      "鯛": 8769,
      "鯨": 8770,
      "鯱": 8771,
      "鰍": 8772,
      "鰲": 8773,
      "鰻": 8774,
      "鱉": 8775,
      "鱒": 8776,
      "鱗": 8777,
      "鱧": 8778,
      "鱷": 8779,
      "鱼": 8780,
      "鲁": 8781,
      "鲍": 8782,
      "鲜": 8783,
      "鲸": 8784,
      "鳌": 8785,
      "鳖": 8786,
      "鳜": 8787,
      "鳞": 8788,
      "鳥": 8789,
      "鳩": 8790,
      "鳳": 8791,
      "鳴": 8792,
      "鳶": 8793,
      "鴉": 8794,
      "鴛": 8795,
      "鴦": 8796,
      "鴨": 8797,
      "鴻": 8798,
      "鴿": 8799,
      "鵑": 8800,
      "鵜": 8801,
      "鵝": 8802,
      "鵠": 8803,
      "鵡": 8804,
      "鵬": 8805,
      "鵰": 8806,
      "鵲": 8807,
      "鶉": 8808,
      "鶏": 8809,
      "鶴": 8810,
      "鶻": 8811,
      "鷲": 8812,
      "鷹": 8813,
      "鷺": 8814,
      "鸚": 8815,
      "鸞": 8816,
      "鸟": 8817,
      "鸡": 8818,
      "鸣": 8819,
      "鸥": 8820,
      "鸭": 8821,
      "鸿": 8822,
      "鹂": 8823,
      "鹆": 8824,
      "鹏": 8825,
      "鹘": 8826,
      "鹤": 8827,
      "鹰": 8828,
      "鹱": 8829,
      "鹹": 8830,
      "鹺": 8831,
      "鹽": 8832,
      "鹿": 8833,
      "麈": 8834,
      "麒": 8835,
      "麓": 8836,
      "麗": 8837,
      "麟": 8838,
      "麥": 8839,
      "麦": 8840,
      "麴": 8841,
      "麵": 8842,
      "麹": 8843,
      "麺": 8844,
      "麻": 8845,
      "麼": 8846,
      "麽": 8847,
      "麿": 8848,
      "黁": 8849,
      "黃": 8850,
      "黄": 8851,
      "黈": 8852,
      "黌": 8853,
      "黍": 8854,
      "黎": 8855,
      "黑": 8856,
      "黒": 8857,
      "黔": 8858,
      "默": 8859,
      "黛": 8860,
      "點": 8861,
      "黨": 8862,
      "鼈": 8863,
      "鼎": 8864,
      "鼓": 8865,
      "鼠": 8866,
      "鼬": 8867,
      "鼻": 8868,
      "齊": 8869,
      "齋": 8870,
      "齐": 8871,
      "齒": 8872,
      "齕": 8873,
      "齡": 8874,
      "齧": 8875,
      "齿": 8876,
      "龍": 8877,
      "龐": 8878,
      "龔": 8879,
      "龙": 8880,
      "龚": 8881,
      "龜": 8882,
      "龟": 8883,
      "龠": 8884,
      "龢": 8885,
      "鿃": 8886,
      "ꆇ": 8887,
      "ꉙ": 8888,
      "ꓑ": 8889,
      "ꓔ": 8890,
      "ꓗ": 8891,
      "ꓚ": 8892,
      "ꓝ": 8893,
      "ꙑ": 8894,
      "Ꙗ": 8895,
      "ꜜ": 8896,
      "ꜣ": 8897,
      "ꜥ": 8898,
      "Ꜧ": 8899,
      "ꜧ": 8900,
      "Ꜫ": 8901,
      "ꜫ": 8902,
      "Ꜹ": 8903,
      "Ꜿ": 8904,
      "ꜿ": 8905,
      "Ꝁ": 8906,
      "ꝁ": 8907,
      "Ꝇ": 8908,
      "ꝇ": 8909,
      "Ꝉ": 8910,
      "ꝉ": 8911,
      "Ꝑ": 8912,
      "ꝑ": 8913,
      "Ꝗ": 8914,
      "ꝗ": 8915,
      "Ꝙ": 8916,
      "ꝙ": 8917,
      "ꝣ": 8918,
      "ꝫ": 8919,
      "ꝺ": 8920,
      "Ꞁ": 8921,
      "ꞁ": 8922,
      "ꞈ": 8923,
      "꞉": 8924,
      "ꞌ": 8925,
      "Ꞑ": 8926,
      "ꞑ": 8927,
      "Ꞓ": 8928,
      "ꞓ": 8929,
      "ꞔ": 8930,
      "ꞗ": 8931,
      "Ꞻ": 8932,
      "ꞻ": 8933,
      "Ꞔ": 8934,
      "ꟲ": 8935,
      "ꦁ": 8936,
      "ꦂ": 8937,
      "ꦆ": 8938,
      "ꦏ": 8939,
      "ꦒ": 8940,
      "ꦔ": 8941,
      "ꦕ": 8942,
      "ꦗ": 8943,
      "ꦚ": 8944,
      "ꦠ": 8945,
      "ꦢ": 8946,
      "ꦤ": 8947,
      "ꦥ": 8948,
      "ꦧ": 8949,
      "ꦩ": 8950,
      "ꦫ": 8951,
      "ꦭ": 8952,
      "ꦮ": 8953,
      "ꦯ": 8954,
      "ꦱ": 8955,
      "ꦲ": 8956,
      "ꦴ": 8957,
      "ꦶ": 8958,
      "ꦸ": 8959,
      "ꦺ": 8960,
      "ꦻ": 8961,
      "ꦼ": 8962,
      "꧀": 8963,
      "ꨌ": 8964,
      "ꩌ": 8965,
      "ꩠ": 8966,
      "ꩡ": 8967,
      "ꩢ": 8968,
      "ꩣ": 8969,
      "ꩤ": 8970,
      "ꩥ": 8971,
      "ꩦ": 8972,
      "ꩧ": 8973,
      "ꩨ": 8974,
      "ꩩ": 8975,
      "ꩪ": 8976,
      "ꩫ": 8977,
      "ꩬ": 8978,
      "ꩭ": 8979,
      "ꩮ": 8980,
      "ꩯ": 8981,
      "ꩰ": 8982,
      "ꩱ": 8983,
      "ꩲ": 8984,
      "ꩳ": 8985,
      "ꩴ": 8986,
      "ꩵ": 8987,
      "ꩶ": 8988,
      "ꩻ": 8989,
      "ꬱ": 8990,
      "ꭹ": 8991,
      "ꮃ": 8992,
      "ꮄ": 8993,
      "ꮅ": 8994,
      "ꮎ": 8995,
      "ꮕ": 8996,
      "ꮣ": 8997,
      "가": 8998,
      "각": 8999,
      "간": 9000,
      "갈": 9001,
      "감": 9002,
      "갑": 9003,
      "갓": 9004,
      "강": 9005,
      "같": 9006,
      "개": 9007,
      "객": 9008,
      "거": 9009,
      "건": 9010,
      "걷": 9011,
      "걸": 9012,
      "검": 9013,
      "것": 9014,
      "겉": 9015,
      "게": 9016,
      "겠": 9017,
      "겨": 9018,
      "격": 9019,
      "견": 9020,
      "결": 9021,
      "겸": 9022,
      "경": 9023,
      "곁": 9024,
      "계": 9025,
      "고": 9026,
      "곡": 9027,
      "곤": 9028,
      "골": 9029,
      "곰": 9030,
      "공": 9031,
      "과": 9032,
      "곽": 9033,
      "관": 9034,
      "광": 9035,
      "괘": 9036,
      "괜": 9037,
      "교": 9038,
      "구": 9039,
      "국": 9040,
      "군": 9041,
      "굴": 9042,
      "굼": 9043,
      "궁": 9044,
      "권": 9045,
      "궤": 9046,
      "귀": 9047,
      "규": 9048,
      "균": 9049,
      "귤": 9050,
      "그": 9051,
      "극": 9052,
      "근": 9053,
      "글": 9054,
      "금": 9055,
      "급": 9056,
      "긍": 9057,
      "기": 9058,
      "긴": 9059,
      "길": 9060,
      "김": 9061,
      "까": 9062,
      "깨": 9063,
      "꺾": 9064,
      "께": 9065,
      "꼬": 9066,
      "꽃": 9067,
      "꽹": 9068,
      "꾀": 9069,
      "꿀": 9070,
      "꿈": 9071,
      "꿔": 9072,
      "끔": 9073,
      "끝": 9074,
      "끼": 9075,
      "나": 9076,
      "낙": 9077,
      "난": 9078,
      "날": 9079,
      "남": 9080,
      "납": 9081,
      "낭": 9082,
      "낮": 9083,
      "내": 9084,
      "낸": 9085,
      "냉": 9086,
      "냐": 9087,
      "냥": 9088,
      "너": 9089,
      "넌": 9090,
      "널": 9091,
      "네": 9092,
      "녀": 9093,
      "녁": 9094,
      "년": 9095,
      "념": 9096,
      "녕": 9097,
      "노": 9098,
      "녹": 9099,
      "논": 9100,
      "놀": 9101,
      "농": 9102,
      "높": 9103,
      "뇌": 9104,
      "누": 9105,
      "눈": 9106,
      "눌": 9107,
      "뉴": 9108,
      "느": 9109,
      "늑": 9110,
      "는": 9111,
      "늘": 9112,
      "능": 9113,
      "늦": 9114,
      "늬": 9115,
      "니": 9116,
      "닉": 9117,
      "님": 9118,
      "다": 9119,
      "닥": 9120,
      "단": 9121,
      "달": 9122,
      "닭": 9123,
      "담": 9124,
      "답": 9125,
      "닷": 9126,
      "당": 9127,
      "대": 9128,
      "더": 9129,
      "덕": 9130,
      "덟": 9131,
      "덤": 9132,
      "데": 9133,
      "덴": 9134,
      "도": 9135,
      "독": 9136,
      "돈": 9137,
      "돌": 9138,
      "돔": 9139,
      "돕": 9140,
      "동": 9141,
      "돼": 9142,
      "됐": 9143,
      "되": 9144,
      "된": 9145,
      "될": 9146,
      "두": 9147,
      "둑": 9148,
      "둔": 9149,
      "둘": 9150,
      "둥": 9151,
      "뒤": 9152,
      "드": 9153,
      "득": 9154,
      "든": 9155,
      "들": 9156,
      "듭": 9157,
      "듯": 9158,
      "등": 9159,
      "디": 9160,
      "딘": 9161,
      "딩": 9162,
      "따": 9163,
      "딱": 9164,
      "딸": 9165,
      "때": 9166,
      "땡": 9167,
      "떠": 9168,
      "떡": 9169,
      "떤": 9170,
      "또": 9171,
      "뜨": 9172,
      "라": 9173,
      "락": 9174,
      "란": 9175,
      "람": 9176,
      "랐": 9177,
      "랑": 9178,
      "래": 9179,
      "랙": 9180,
      "랜": 9181,
      "랩": 9182,
      "랫": 9183,
      "랬": 9184,
      "량": 9185,
      "러": 9186,
      "럭": 9187,
      "런": 9188,
      "럼": 9189,
      "레": 9190,
      "렉": 9191,
      "렘": 9192,
      "렛": 9193,
      "렝": 9194,
      "려": 9195,
      "력": 9196,
      "련": 9197,
      "렬": 9198,
      "령": 9199,
      "례": 9200,
      "로": 9201,
      "록": 9202,
      "론": 9203,
      "롤": 9204,
      "롭": 9205,
      "롱": 9206,
      "룡": 9207,
      "루": 9208,
      "룹": 9209,
      "룻": 9210,
      "류": 9211,
      "륜": 9212,
      "률": 9213,
      "르": 9214,
      "른": 9215,
      "를": 9216,
      "름": 9217,
      "릉": 9218,
      "리": 9219,
      "릭": 9220,
      "린": 9221,
      "릴": 9222,
      "림": 9223,
      "립": 9224,
      "릿": 9225,
      "마": 9226,
      "막": 9227,
      "만": 9228,
      "말": 9229,
      "맘": 9230,
      "맙": 9231,
      "맛": 9232,
      "망": 9233,
      "맞": 9234,
      "매": 9235,
      "맨": 9236,
      "맵": 9237,
      "맷": 9238,
      "맹": 9239,
      "머": 9240,
      "먼": 9241,
      "멈": 9242,
      "메": 9243,
      "멘": 9244,
      "멜": 9245,
      "며": 9246,
      "면": 9247,
      "멸": 9248,
      "명": 9249,
      "모": 9250,
      "목": 9251,
      "몬": 9252,
      "몰": 9253,
      "못": 9254,
      "몽": 9255,
      "묘": 9256,
      "무": 9257,
      "묵": 9258,
      "문": 9259,
      "물": 9260,
      "뭇": 9261,
      "뭐": 9262,
      "뮤": 9263,
      "믄": 9264,
      "미": 9265,
      "믹": 9266,
      "민": 9267,
      "믿": 9268,
      "밀": 9269,
      "밍": 9270,
      "및": 9271,
      "바": 9272,
      "박": 9273,
      "반": 9274,
      "받": 9275,
      "발": 9276,
      "밤": 9277,
      "밥": 9278,
      "방": 9279,
      "배": 9280,
      "백": 9281,
      "뱃": 9282,
      "버": 9283,
      "번": 9284,
      "벌": 9285,
      "범": 9286,
      "법": 9287,
      "벗": 9288,
      "벙": 9289,
      "베": 9290,
      "벽": 9291,
      "변": 9292,
      "별": 9293,
      "병": 9294,
      "보": 9295,
      "복": 9296,
      "볶": 9297,
      "본": 9298,
      "볼": 9299,
      "봄": 9300,
      "봇": 9301,
      "봉": 9302,
      "봐": 9303,
      "부": 9304,
      "북": 9305,
      "분": 9306,
      "불": 9307,
      "붕": 9308,
      "브": 9309,
      "블": 9310,
      "비": 9311,
      "빈": 9312,
      "빌": 9313,
      "빔": 9314,
      "빛": 9315,
      "빠": 9316,
      "빨": 9317,
      "뽑": 9318,
      "뿌": 9319,
      "사": 9320,
      "삭": 9321,
      "산": 9322,
      "살": 9323,
      "삼": 9324,
      "삽": 9325,
      "상": 9326,
      "새": 9327,
      "색": 9328,
      "샐": 9329,
      "샘": 9330,
      "생": 9331,
      "샹": 9332,
      "섀": 9333,
      "서": 9334,
      "석": 9335,
      "선": 9336,
      "설": 9337,
      "섬": 9338,
      "섭": 9339,
      "섯": 9340,
      "성": 9341,
      "세": 9342,
      "섹": 9343,
      "센": 9344,
      "셔": 9345,
      "션": 9346,
      "셨": 9347,
      "소": 9348,
      "속": 9349,
      "손": 9350,
      "솔": 9351,
      "송": 9352,
      "쇠": 9353,
      "쇼": 9354,
      "수": 9355,
      "숙": 9356,
      "순": 9357,
      "술": 9358,
      "숭": 9359,
      "숯": 9360,
      "쉬": 9361,
      "쉿": 9362,
      "슈": 9363,
      "스": 9364,
      "슨": 9365,
      "슬": 9366,
      "슴": 9367,
      "습": 9368,
      "승": 9369,
      "시": 9370,
      "식": 9371,
      "신": 9372,
      "실": 9373,
      "심": 9374,
      "십": 9375,
      "싯": 9376,
      "싱": 9377,
      "싶": 9378,
      "쌍": 9379,
      "쌤": 9380,
      "써": 9381,
      "쏘": 9382,
      "쑤": 9383,
      "쑥": 9384,
      "쓰": 9385,
      "씨": 9386,
      "아": 9387,
      "악": 9388,
      "안": 9389,
      "않": 9390,
      "알": 9391,
      "암": 9392,
      "압": 9393,
      "앙": 9394,
      "앞": 9395,
      "애": 9396,
      "앤": 9397,
      "야": 9398,
      "약": 9399,
      "얀": 9400,
      "양": 9401,
      "어": 9402,
      "억": 9403,
      "언": 9404,
      "얼": 9405,
      "엄": 9406,
      "업": 9407,
      "없": 9408,
      "었": 9409,
      "에": 9410,
      "엑": 9411,
      "엔": 9412,
      "엘": 9413,
      "엠": 9414,
      "여": 9415,
      "역": 9416,
      "연": 9417,
      "열": 9418,
      "염": 9419,
      "엽": 9420,
      "엿": 9421,
      "영": 9422,
      "옆": 9423,
      "예": 9424,
      "옛": 9425,
      "오": 9426,
      "옥": 9427,
      "온": 9428,
      "올": 9429,
      "옳": 9430,
      "옴": 9431,
      "옵": 9432,
      "옷": 9433,
      "옹": 9434,
      "와": 9435,
      "완": 9436,
      "왔": 9437,
      "왕": 9438,
      "왜": 9439,
      "외": 9440,
      "왼": 9441,
      "요": 9442,
      "욕": 9443,
      "용": 9444,
      "우": 9445,
      "욱": 9446,
      "운": 9447,
      "울": 9448,
      "움": 9449,
      "웃": 9450,
      "웅": 9451,
      "워": 9452,
      "원": 9453,
      "월": 9454,
      "웹": 9455,
      "위": 9456,
      "윙": 9457,
      "유": 9458,
      "육": 9459,
      "윤": 9460,
      "율": 9461,
      "융": 9462,
      "으": 9463,
      "은": 9464,
      "을": 9465,
      "음": 9466,
      "읍": 9467,
      "응": 9468,
      "의": 9469,
      "이": 9470,
      "익": 9471,
      "인": 9472,
      "일": 9473,
      "읽": 9474,
      "임": 9475,
      "입": 9476,
      "잇": 9477,
      "있": 9478,
      "잉": 9479,
      "잊": 9480,
      "자": 9481,
      "작": 9482,
      "잔": 9483,
      "잖": 9484,
      "잘": 9485,
      "잠": 9486,
      "잡": 9487,
      "장": 9488,
      "재": 9489,
      "쟁": 9490,
      "저": 9491,
      "적": 9492,
      "전": 9493,
      "절": 9494,
      "젊": 9495,
      "점": 9496,
      "정": 9497,
      "젖": 9498,
      "제": 9499,
      "젝": 9500,
      "조": 9501,
      "족": 9502,
      "존": 9503,
      "좀": 9504,
      "종": 9505,
      "좋": 9506,
      "좌": 9507,
      "죄": 9508,
      "주": 9509,
      "죽": 9510,
      "준": 9511,
      "줄": 9512,
      "중": 9513,
      "줘": 9514,
      "쥐": 9515,
      "쥬": 9516,
      "즈": 9517,
      "즌": 9518,
      "즘": 9519,
      "즙": 9520,
      "증": 9521,
      "지": 9522,
      "직": 9523,
      "진": 9524,
      "질": 9525,
      "짐": 9526,
      "집": 9527,
      "짓": 9528,
      "징": 9529,
      "짱": 9530,
      "째": 9531,
      "찌": 9532,
      "찜": 9533,
      "찢": 9534,
      "차": 9535,
      "찬": 9536,
      "찮": 9537,
      "참": 9538,
      "창": 9539,
      "찾": 9540,
      "채": 9541,
      "책": 9542,
      "챌": 9543,
      "챔": 9544,
      "처": 9545,
      "척": 9546,
      "천": 9547,
      "철": 9548,
      "첨": 9549,
      "첩": 9550,
      "첫": 9551,
      "청": 9552,
      "체": 9553,
      "쳐": 9554,
      "쳤": 9555,
      "초": 9556,
      "촌": 9557,
      "촛": 9558,
      "총": 9559,
      "최": 9560,
      "추": 9561,
      "축": 9562,
      "춘": 9563,
      "출": 9564,
      "춧": 9565,
      "충": 9566,
      "취": 9567,
      "츠": 9568,
      "측": 9569,
      "층": 9570,
      "치": 9571,
      "칙": 9572,
      "친": 9573,
      "칠": 9574,
      "침": 9575,
      "카": 9576,
      "칸": 9577,
      "칼": 9578,
      "캉": 9579,
      "캔": 9580,
      "캠": 9581,
      "커": 9582,
      "컬": 9583,
      "컵": 9584,
      "케": 9585,
      "코": 9586,
      "콘": 9587,
      "콤": 9588,
      "콧": 9589,
      "콩": 9590,
      "쾌": 9591,
      "쿠": 9592,
      "쿵": 9593,
      "퀴": 9594,
      "크": 9595,
      "클": 9596,
      "큼": 9597,
      "키": 9598,
      "킨": 9599,
      "킬": 9600,
      "킹": 9601,
      "타": 9602,
      "탄": 9603,
      "탈": 9604,
      "탐": 9605,
      "탑": 9606,
      "탕": 9607,
      "태": 9608,
      "택": 9609,
      "터": 9610,
      "털": 9611,
      "텅": 9612,
      "테": 9613,
      "텍": 9614,
      "텐": 9615,
      "텔": 9616,
      "템": 9617,
      "토": 9618,
      "톨": 9619,
      "톰": 9620,
      "통": 9621,
      "퇴": 9622,
      "투": 9623,
      "툰": 9624,
      "퉁": 9625,
      "튜": 9626,
      "트": 9627,
      "특": 9628,
      "튼": 9629,
      "틀": 9630,
      "티": 9631,
      "파": 9632,
      "판": 9633,
      "팔": 9634,
      "팝": 9635,
      "팡": 9636,
      "패": 9637,
      "팬": 9638,
      "팽": 9639,
      "퍼": 9640,
      "펀": 9641,
      "페": 9642,
      "펠": 9643,
      "편": 9644,
      "평": 9645,
      "폐": 9646,
      "포": 9647,
      "폰": 9648,
      "폴": 9649,
      "표": 9650,
      "푸": 9651,
      "품": 9652,
      "풍": 9653,
      "퓨": 9654,
      "프": 9655,
      "픈": 9656,
      "플": 9657,
      "픔": 9658,
      "피": 9659,
      "핀": 9660,
      "필": 9661,
      "핏": 9662,
      "핑": 9663,
      "하": 9664,
      "학": 9665,
      "한": 9666,
      "할": 9667,
      "함": 9668,
      "합": 9669,
      "핫": 9670,
      "항": 9671,
      "해": 9672,
      "햇": 9673,
      "했": 9674,
      "행": 9675,
      "향": 9676,
      "허": 9677,
      "헌": 9678,
      "험": 9679,
      "헤": 9680,
      "혀": 9681,
      "혁": 9682,
      "현": 9683,
      "혈": 9684,
      "협": 9685,
      "혔": 9686,
      "형": 9687,
      "혜": 9688,
      "호": 9689,
      "혼": 9690,
      "홀": 9691,
      "홉": 9692,
      "홍": 9693,
      "화": 9694,
      "확": 9695,
      "환": 9696,
      "활": 9697,
      "황": 9698,
      "회": 9699,
      "효": 9700,
      "후": 9701,
      "훈": 9702,
      "훤": 9703,
      "휘": 9704,
      "휠": 9705,
      "휴": 9706,
      "휼": 9707,
      "흑": 9708,
      "흔": 9709,
      "흠": 9710,
      "흥": 9711,
      "희": 9712,
      "히": 9713,
      "": 9714,
      "﨣": 9715,
      "ﬁ": 9716,
      "ﬂ": 9717,
      "ﭐ": 9718,
      "ﭪ": 9719,
      "ﭺ": 9720,
      "ﯽ": 9721,
      "ﯾ": 9722,
      "ﷲ": 9723,
      "ﷺ": 9724,
      "︁": 9725,
      "︎": 9726,
      "️": 9727,
      "︠": 9728,
      "︡": 9729,
      "︰": 9730,
      "﹐": 9731,
      "﹑": 9732,
      "﹕": 9733,
      "﹟": 9734,
      "ﹳ": 9735,
      "ﹷ": 9736,
      "ﹿ": 9737,
      "ﺁ": 9738,
      "ﺃ": 9739,
      "ﺍ": 9740,
      "ﺎ": 9741,
      "ﺐ": 9742,
      "ﺑ": 9743,
      "ﺕ": 9744,
      "ﺛ": 9745,
      "ﺝ": 9746,
      "ﺠ": 9747,
      "ﺣ": 9748,
      "ﺤ": 9749,
      "ﺨ": 9750,
      "ﺩ": 9751,
      "ﺪ": 9752,
      "ﺮ": 9753,
      "ﺯ": 9754,
      "ﺱ": 9755,
      "ﺴ": 9756,
      "ﺵ": 9757,
      "ﺺ": 9758,
      "ﺻ": 9759,
      "ﺼ": 9760,
      "ﻀ": 9761,
      "ﻅ": 9762,
      "ﻉ": 9763,
      "ﻓ": 9764,
      "ﻗ": 9765,
      "ﻛ": 9766,
      "ﻟ": 9767,
      "ﻠ": 9768,
      "ﻡ": 9769,
      "ﻢ": 9770,
      "ﻣ": 9771,
      "ﻦ": 9772,
      "ﻧ": 9773,
      "ﻨ": 9774,
      "ﻪ": 9775,
      "ﻫ": 9776,
      "ﻬ": 9777,
      "ﻮ": 9778,
      "ﻰ": 9779,
      "ﻳ": 9780,
      "ﻴ": 9781,
      "ﻻ": 9782,
      "！": 9783,
      "＃": 9784,
      "＆": 9785,
      "（": 9786,
      "）": 9787,
      "＊": 9788,
      "＋": 9789,
      "，": 9790,
      "－": 9791,
      "．": 9792,
      "／": 9793,
      "０": 9794,
      "１": 9795,
      "２": 9796,
      "３": 9797,
      "５": 9798,
      "７": 9799,
      "８": 9800,
      "：": 9801,
      "；": 9802,
      "＜": 9803,
      "＝": 9804,
      "＞": 9805,
      "？": 9806,
      "Ａ": 9807,
      "Ｃ": 9808,
      "Ｄ": 9809,
      "Ｅ": 9810,
      "Ｇ": 9811,
      "Ｈ": 9812,
      "Ｉ": 9813,
      "Ｊ": 9814,
      "Ｋ": 9815,
      "Ｌ": 9816,
      "Ｎ": 9817,
      "Ｐ": 9818,
      "Ｒ": 9819,
      "Ｓ": 9820,
      "Ｔ": 9821,
      "Ｕ": 9822,
      "Ｘ": 9823,
      "Ｙ": 9824,
      "［": 9825,
      "＼": 9826,
      "］": 9827,
      "＾": 9828,
      "ａ": 9829,
      "ｂ": 9830,
      "ｅ": 9831,
      "ｈ": 9832,
      "ｉ": 9833,
      "ｍ": 9834,
      "ｎ": 9835,
      "ｏ": 9836,
      "ｓ": 9837,
      "ｙ": 9838,
      "｜": 9839,
      "～": 9840,
      "｢": 9841,
      "｣": 9842,
      "､": 9843,
      "･": 9844,
      "ｩ": 9845,
      "ｰ": 9846,
      "�": 9847,
      "𐀀": 9848,
      "𐀅": 9849,
      "𐀏": 9850,
      "𐀩": 9851,
      "𐀫": 9852,
      "𐀭": 9853,
      "𐆓": 9854,
      "𐊁": 9855,
      "𐊂": 9856,
      "𐊆": 9857,
      "𐊍": 9858,
      "𐊗": 9859,
      "𐊛": 9860,
      "𐊜": 9861,
      "𐊠": 9862,
      "𐊡": 9863,
      "𐊤": 9864,
      "𐊥": 9865,
      "𐊦": 9866,
      "𐊨": 9867,
      "𐊪": 9868,
      "𐊫": 9869,
      "𐊬": 9870,
      "𐊭": 9871,
      "𐊮": 9872,
      "𐊯": 9873,
      "𐊰": 9874,
      "𐊱": 9875,
      "𐊲": 9876,
      "𐊴": 9877,
      "𐊵": 9878,
      "𐊶": 9879,
      "𐊷": 9880,
      "𐊺": 9881,
      "𐊼": 9882,
      "𐊽": 9883,
      "𐋀": 9884,
      "𐋁": 9885,
      "𐋂": 9886,
      "𐋃": 9887,
      "𐋇": 9888,
      "𐋈": 9889,
      "𐋊": 9890,
      "𐋋": 9891,
      "𐋌": 9892,
      "𐋍": 9893,
      "𐋎": 9894,
      "𐋏": 9895,
      "𐋐": 9896,
      "𐌀": 9897,
      "𐌃": 9898,
      "𐌇": 9899,
      "𐌋": 9900,
      "𐌌": 9901,
      "𐌓": 9902,
      "𐌰": 9903,
      "𐌱": 9904,
      "𐌲": 9905,
      "𐌳": 9906,
      "𐌴": 9907,
      "𐌵": 9908,
      "𐌷": 9909,
      "𐌸": 9910,
      "𐌹": 9911,
      "𐌺": 9912,
      "𐌻": 9913,
      "𐌼": 9914,
      "𐌽": 9915,
      "𐌾": 9916,
      "𐌿": 9917,
      "𐍂": 9918,
      "𐍃": 9919,
      "𐍄": 9920,
      "𐍅": 9921,
      "𐍆": 9922,
      "𐍉": 9923,
      "𐍐": 9924,
      "𐍔": 9925,
      "𐍝": 9926,
      "𐍟": 9927,
      "𐍠": 9928,
      "𐍡": 9929,
      "𐍢": 9930,
      "𐎠": 9931,
      "𐎡": 9932,
      "𐎣": 9933,
      "𐎴": 9934,
      "𐎷": 9935,
      "𐎹": 9936,
      "𐎺": 9937,
      "𐎼": 9938,
      "𐏀": 9939,
      "𐏃": 9940,
      "𐐀": 9941,
      "𐒈": 9942,
      "𐒋": 9943,
      "𐒕": 9944,
      "𐒜": 9945,
      "𐓏": 9946,
      "𐓘": 9947,
      "𐓟": 9948,
      "𐓻": 9949,
      "𐞛": 9950,
      "𐞜": 9951,
      "𐞝": 9952,
      "𐞥": 9953,
      "𐡄": 9954,
      "𐤀": 9955,
      "𐤂": 9956,
      "𐤉": 9957,
      "𐤋": 9958,
      "𐤌": 9959,
      "𐤍": 9960,
      "𐤏": 9961,
      "𐤐": 9962,
      "𐤔": 9963,
      "𐤡": 9964,
      "𐤣": 9965,
      "𐤥": 9966,
      "𐤦": 9967,
      "𐤨": 9968,
      "𐤬": 9969,
      "𐤮": 9970,
      "𐤯": 9971,
      "𐤷": 9972,
      "𐤹": 9973,
      "𐩢": 9974,
      "𐩣": 9975,
      "𐩦": 9976,
      "𐩵": 9977,
      "𐬀": 9978,
      "𐬄": 9979,
      "𐬆": 9980,
      "𐬊": 9981,
      "𐬋": 9982,
      "𐬌": 9983,
      "𐬎": 9984,
      "𐬐": 9985,
      "𐬒": 9986,
      "𐬔": 9987,
      "𐬗": 9988,
      "𐬙": 9989,
      "𐬚": 9990,
      "𐬛": 9991,
      "𐬢": 9992,
      "𐬥": 9993,
      "𐬨": 9994,
      "𐬬": 9995,
      "𐬭": 9996,
      "𐬯": 9997,
      "𐬱": 9998,
      "𐬵": 9999,
      "𐭠": 10000,
      "𐭣": 10001,
      "𐭦": 10002,
      "𐭩": 10003,
      "𐭪": 10004,
      "𐭫": 10005,
      "𐭬": 10006,
      "𐭭": 10007,
      "𐭮": 10008,
      "𐭲": 10009,
      "𐰆": 10010,
      "𐰍": 10011,
      "𐰢": 10012,
      "𐰣": 10013,
      "𐰲": 10014,
      "𐰴": 10015,
      "𑀅": 10016,
      "𑀉": 10017,
      "𑀓": 10018,
      "𑀚": 10019,
      "𑀛": 10020,
      "𑀡": 10021,
      "𑀢": 10022,
      "𑀥": 10023,
      "𑀦": 10024,
      "𑀩": 10025,
      "𑀫": 10026,
      "𑀬": 10027,
      "𑀯": 10028,
      "𑀲": 10029,
      "𑀸": 10030,
      "𑀺": 10031,
      "𑀻": 10032,
      "𑀼": 10033,
      "𑁂": 10034,
      "𑁅": 10035,
      "𑁆": 10036,
      "𑐐": 10037,
      "𑐖": 10038,
      "𑐠": 10039,
      "𑐥": 10040,
      "𑐩": 10041,
      "𑐫": 10042,
      "𑐮": 10043,
      "𑐰": 10044,
      "𑐴": 10045,
      "𑐵": 10046,
      "𑐶": 10047,
      "𑐸": 10048,
      "𑑂": 10049,
      "𑑅": 10050,
      "𒀀": 10051,
      "𒀭": 10052,
      "𒀸": 10053,
      "𒁀": 10054,
      "𒁉": 10055,
      "𒂞": 10056,
      "𒂵": 10057,
      "𒃲": 10058,
      "𒄑": 10059,
      "𒄠": 10060,
      "𒄬": 10061,
      "𒅀": 10062,
      "𒅔": 10063,
      "𒅗": 10064,
      "𒆠": 10065,
      "𒆪": 10066,
      "𒆷": 10067,
      "𒇽": 10068,
      "𒈦": 10069,
      "𒈬": 10070,
      "𒉈": 10071,
      "𒉌": 10072,
      "𒉺": 10073,
      "𒉿": 10074,
      "𒊏": 10075,
      "𒊕": 10076,
      "𒊭": 10077,
      "𒋧": 10078,
      "𒋫": 10079,
      "𒋻": 10080,
      "𒌁": 10081,
      "𒌈": 10082,
      "𓅓": 10083,
      "𓆎": 10084,
      "𓈗": 10085,
      "𓊖": 10086,
      "𓏏": 10087,
      "𛀀": 10088,
      "𝄪": 10089,
      "𝑙": 10090,
      "𝒹": 10091,
      "𝔐": 10092,
      "𝔓": 10093,
      "𝗕": 10094,
      "𝗖": 10095,
      "𝗮": 10096,
      "𝗲": 10097,
      "𝗶": 10098,
      "𝗹": 10099,
      "𝗼": 10100,
      "𝘋": 10101,
      "𝘗": 10102,
      "𝘛": 10103,
      "𝘠": 10104,
      "𝘢": 10105,
      "𝘣": 10106,
      "𝘤": 10107,
      "𝘥": 10108,
      "𝘦": 10109,
      "𝘧": 10110,
      "𝘩": 10111,
      "𝘪": 10112,
      "𝘭": 10113,
      "𝘮": 10114,
      "𝘯": 10115,
      "𝘰": 10116,
      "𝘱": 10117,
      "𝘳": 10118,
      "𝘴": 10119,
      "𝘵": 10120,
      "𝘶": 10121,
      "𝘸": 10122,
      "𝛽": 10123,
      "𝛿": 10124,
      "𝜈": 10125,
      "𝜕": 10126,
      "𝝅": 10127,
      "𝞭": 10128,
      "𝼄": 10129,
      "𝼏": 10130,
      "𝼑": 10131,
      "𝼓": 10132,
      "𝼝": 10133,
      "𝼦": 10134,
      "🇦": 10135,
      "🇫": 10136,
      "🇮": 10137,
      "🇱": 10138,
      "🇶": 10139,
      "🇷": 10140,
      "🇸": 10141,
      "🇺": 10142,
      "🇿": 10143,
      "🏻": 10144,
      "👈": 10145,
      "📖": 10146,
      "📷": 10147,
      "😃": 10148,
      "😉": 10149,
      "😎": 10150,
      "🙂": 10151,
      "🙃": 10152,
      "🙄": 10153,
      "🙇": 10154,
      "🚲": 10155,
      "🛈": 10156,
      "🤦": 10157,
      "🤷": 10158,
      "🥸": 10159,
      "🪲": 10160,
      "𠅻": 10161,
      "𠑗": 10162,
      "𠒯": 10163,
      "𠓲": 10164,
      "𠰢": 10165,
      "𡃤": 10166,
      "𡇸": 10167,
      "𡛥": 10168,
      "𡿩": 10169,
      "𢱿": 10170,
      "𣂋": 10171,
      "𣔕": 10172,
      "𣬠": 10173,
      "𣬶": 10174,
      "𤈎": 10175,
      "𤤰": 10176,
      "𤦼": 10177,
      "𤧩": 10178,
      "𤩽": 10179,
      "𤯒": 10180,
      "𤲲": 10181,
      "𦡂": 10182,
      "𦡦": 10183,
      "𧅄": 10184,
      "𧺯": 10185,
      "𨁂": 10186,
      "𨥈": 10187,
      "𩂶": 10188,
      "𩕳": 10189,
      "𪐕": 10190,
      "𪼀": 10191,
      "𬭸": 10192,
      "th": 10193,
      "in": 10194,
      "er": 10195,
      "an": 10196,
      "on": 10197,
      "the": 10198,
      "or": 10199,
      "en": 10200,
      "ed": 10201,
      "es": 10202,
      "at": 10203,
      "ar": 10204,
      "al": 10205,
      "is": 10206,
      "as": 10207,
      "of": 10208,
      "and": 10209,
      "it": 10210,
      "ic": 10211,
      "ing": 10212,
      "re": 10213,
      "to": 10214,
      "ion": 10215,
      "ou": 10216,
      "le": 10217,
      "st": 10218,
      "ro": 10219,
      "he": 10220,
      "il": 10221,
      "ent": 10222,
      "ch": 10223,
      "am": 10224,
      "el": 10225,
      "ol": 10226,
      "ad": 10227,
      "om": 10228,
      "19": 10229,
      "ac": 10230,
      "for": 10231,
      "ur": 10232,
      "se": 10233,
      "ter": 10234,
      "The": 10235,
      "ation": 10236,
      "iv": 10237,
      "ir": 10238,
      "ig": 10239,
      "was": 10240,
      "id": 10241,
      "20": 10242,
      "ers": 10243,
      "un": 10244,
      "ly": 10245,
      "ay": 10246,
      "im": 10247,
      "be": 10248,
      "ow": 10249,
      "ag": 10250,
      "ct": 10251,
      "em": 10252,
      "us": 10253,
      "ith": 10254,
      "tr": 10255,
      "wh": 10256,
      "ot": 10257,
      "by": 10258,
      "ce": 10259,
      "ul": 10260,
      "op": 10261,
      "et": 10262,
      "con": 10263,
      "with": 10264,
      "ap": 10265,
      "de": 10266,
      "um": 10267,
      "ist": 10268,
      "est": 10269,
      "pl": 10270,
      "In": 10271,
      "ab": 10272,
      "ov": 10273,
      "ut": 10274,
      "all": 10275,
      "rom": 10276,
      "oun": 10277,
      "com": 10278,
      "av": 10279,
      "ain": 10280,
      "ere": 10281,
      "oc": 10282,
      "from": 10283,
      "pe": 10284,
      "res": 10285,
      "os": 10286,
      "ian": 10287,
      "art": 10288,
      "ies": 10289,
      "that": 10290,
      "his": 10291,
      "are": 10292,
      "ish": 10293,
      "200": 10294,
      "te": 10295,
      "pro": 10296,
      "ne": 10297,
      "ity": 10298,
      "ia": 10299,
      "ate": 10300,
      "cl": 10301,
      "od": 10302,
      "ill": 10303,
      "ber": 10304,
      "igh": 10305,
      "sh": 10306,
      "if": 10307,
      "su": 10308,
      "ther": 10309,
      "ard": 10310,
      "ip": 10311,
      "ak": 10312,
      "als": 10313,
      "ts": 10314,
      "Ch": 10315,
      "ex": 10316,
      "ich": 10317,
      "ess": 10318,
      "man": 10319,
      "ev": 10320,
      "gr": 10321,
      "St": 10322,
      "ud": 10323,
      "ear": 10324,
      "ment": 10325,
      "ated": 10326,
      "qu": 10327,
      "our": 10328,
      "mer": 10329,
      "ary": 10330,
      "ge": 10331,
      "Re": 10332,
      "per": 10333,
      "end": 10334,
      "ong": 10335,
      "pr": 10336,
      "ive": 10337,
      "ld": 10338,
      "ial": 10339,
      "ew": 10340,
      "por": 10341,
      "18": 10342,
      "ell": 10343,
      "ame": 10344,
      "ass": 10345,
      "ine": 10346,
      "gh": 10347,
      "ks": 10348,
      "ant": 10349,
      "str": 10350,
      "fer": 10351,
      "ub": 10352,
      "ast": 10353,
      "one": 10354,
      "ord": 10355,
      "af": 10356,
      "du": 10357,
      "Un": 10358,
      "He": 10359,
      "ound": 10360,
      "were": 10361,
      "),": 10362,
      "act": 10363,
      "199": 10364,
      "over": 10365,
      "ost": 10366,
      "ri": 10367,
      "which": 10368,
      "tw": 10369,
      "201": 10370,
      "ical": 10371,
      "out": 10372,
      "also": 10373,
      "play": 10374,
      "ces": 10375,
      "ack": 10376,
      "age": 10377,
      "ach": 10378,
      "tern": 10379,
      "up": 10380,
      "land": 10381,
      "ran": 10382,
      "ction": 10383,
      "aw": 10384,
      "comp": 10385,
      "own": 10386,
      "its": 10387,
      "rit": 10388,
      "ign": 10389,
      "og": 10390,
      "but": 10391,
      "au": 10392,
      "ser": 10393,
      "Al": 10394,
      "ke": 10395,
      "ie": 10396,
      "ous": 10397,
      "ough": 10398,
      "der": 10399,
      "not": 10400,
      "fir": 10401,
      "wor": 10402,
      "bo": 10403,
      "has": 10404,
      "ight": 10405,
      "ide": 10406,
      "ition": 10407,
      "00": 10408,
      "had": 10409,
      "ire": 10410,
      "ican": 10411,
      "part": 10412,
      "An": 10413,
      "Ar": 10414,
      "ue": 10415,
      "ure": 10416,
      "ore": 10417,
      "ave": 10418,
      "ver": 10419,
      "br": 10420,
      "cent": 10421,
      "It": 10422,
      "dis": 10423,
      "Se": 10424,
      "iz": 10425,
      "Th": 10426,
      "ory": 10427,
      "ice": 10428,
      "198": 10429,
      "her": 10430,
      "first": 10431,
      "port": 10432,
      "ool": 10433,
      "ang": 10434,
      "ational": 10435,
      "lin": 10436,
      "ations": 10437,
      "form": 10438,
      "ans": 10439,
      "ater": 10440,
      "lish": 10441,
      "Amer": 10442,
      "who": 10443,
      "ember": 10444,
      "ict": 10445,
      "ty": 10446,
      "ph": 10447,
      "ence": 10448,
      "ree": 10449,
      "fe": 10450,
      "ome": 10451,
      "dr": 10452,
      "other": 10453,
      "year": 10454,
      "ok": 10455,
      "pt": 10456,
      "sc": 10457,
      "Mar": 10458,
      "ime": 10459,
      "ra": 10460,
      "pres": 10461,
      "att": 10462,
      "ite": 10463,
      "their": 10464,
      "197": 10465,
      "ates": 10466,
      "ited": 10467,
      "amp": 10468,
      "ens": 10469,
      "chool": 10470,
      "ace": 10471,
      "ath": 10472,
      "old": 10473,
      "ust": 10474,
      "io": 10475,
      ").": 10476,
      "New": 10477,
      "ob": 10478,
      "||": 10479,
      "me": 10480,
      "co": 10481,
      "ult": 10482,
      "American": 10483,
      "ences": 10484,
      "De": 10485,
      "Le": 10486,
      "ents": 10487,
      "ally": 10488,
      "low": 10489,
      "En": 10490,
      "ib": 10491,
      "int": 10492,
      "ilm": 10493,
      "ind": 10494,
      "ball": 10495,
      "sp": 10496,
      "incl": 10497,
      "ould": 10498,
      "ile": 10499,
      "Com": 10500,
      "cont": 10501,
      "we": 10502,
      "Au": 10503,
      "have": 10504,
      "ade": 10505,
      "off": 10506,
      "this": 10507,
      "rec": 10508,
      "two": 10509,
      "uring": 10510,
      "orn": 10511,
      "comm": 10512,
      "ople": 10513,
      "li": 10514,
      "able": 10515,
      "Ex": 10516,
      "ions": 10517,
      "ivers": 10518,
      "air": 10519,
      "ors": 10520,
      "196": 10521,
      "serv": 10522,
      "ark": 10523,
      "ann": 10524,
      "des": 10525,
      "ased": 10526,
      "ret": 10527,
      "les": 10528,
      "ail": 10529,
      "ferences": 10530,
      "way": 10531,
      "ood": 10532,
      "col": 10533,
      "iss": 10534,
      "loc": 10535,
      "after": 10536,
      "urn": 10537,
      "Jo": 10538,
      "ton": 10539,
      "cr": 10540,
      "pos": 10541,
      "po": 10542,
      "been": 10543,
      "ase": 10544,
      "As": 10545,
      "ced": 10546,
      "ied": 10547,
      "ely": 10548,
      "work": 10549,
      "ele": 10550,
      "ings": 10551,
      "any": 10552,
      "References": 10553,
      "min": 10554,
      "fin": 10555,
      "ics": 10556,
      "Sh": 10557,
      "ick": 10558,
      "son": 10559,
      "reg": 10560,
      "ah": 10561,
      "new": 10562,
      "spe": 10563,
      "pub": 10564,
      "Con": 10565,
      "time": 10566,
      "oy": 10567,
      "uc": 10568,
      "sy": 10569,
      "ry": 10570,
      "ever": 10571,
      "outh": 10572,
      "oot": 10573,
      "ury": 10574,
      "ship": 10575,
      "uil": 10576,
      "can": 10577,
      "vi": 10578,
      "into": 10579,
      "cted": 10580,
      "film": 10581,
      "ason": 10582,
      "ance": 10583,
      "vis": 10584,
      "Col": 10585,
      "they": 10586,
      "includ": 10587,
      "Af": 10588,
      "mon": 10589,
      "gan": 10590,
      "rem": 10591,
      "ve": 10592,
      "gen": 10593,
      "bec": 10594,
      "On": 10595,
      "used": 10596,
      "cond": 10597,
      "pol": 10598,
      "17": 10599,
      "kn": 10600,
      "cess": 10601,
      "10": 10602,
      "cre": 10603,
      "ames": 10604,
      "Br": 10605,
      "United": 10606,
      "ort": 10607,
      "people": 10608,
      "fl": 10609,
      "195": 10610,
      "inter": 10611,
      "wn": 10612,
      "ale": 10613,
      "Nor": 10614,
      "ten": 10615,
      "him": 10616,
      "194": 10617,
      "ake": 10618,
      "ward": 10619,
      "vel": 10620,
      "most": 10621,
      "iversity": 10622,
      "produ": 10623,
      "coun": 10624,
      "under": 10625,
      "eng": 10626,
      "ters": 10627,
      "par": 10628,
      "inn": 10629,
      "Eng": 10630,
      "red": 10631,
      "Wh": 10632,
      "she": 10633,
      "lic": 10634,
      "med": 10635,
      "more": 10636,
      "only": 10637,
      "ternal": 10638,
      "Gr": 10639,
      "day": 10640,
      "buil": 10641,
      "15": 10642,
      "cer": 10643,
      "een": 10644,
      "Wor": 10645,
      "ix": 10646,
      "ists": 10647,
      "Coun": 10648,
      "hy": 10649,
      "ities": 10650,
      "ince": 10651,
      "when": 10652,
      "oup": 10653,
      "rel": 10654,
      "Cl": 10655,
      "Pr": 10656,
      "sing": 10657,
      "az": 10658,
      "use": 10659,
      "16": 10660,
      "12": 10661,
      "let": 10662,
      "Sc": 10663,
      "rough": 10664,
      "ep": 10665,
      "iel": 10666,
      "led": 10667,
      "bum": 10668,
      "where": 10669,
      "University": 10670,
      "ins": 10671,
      "aj": 10672,
      "uary": 10673,
      "years": 10674,
      "links": 10675,
      "For": 10676,
      "ollow": 10677,
      "would": 10678,
      "ife": 10679,
      "Tr": 10680,
      "This": 10681,
      "ootball": 10682,
      "tain": 10683,
      "Pro": 10684,
      "cur": 10685,
      "team": 10686,
      "olog": 10687,
      "fore": 10688,
      "ular": 10689,
      "then": 10690,
      "writ": 10691,
      "usic": 10692,
      "External": 10693,
      "ese": 10694,
      "sub": 10695,
      "Ro": 10696,
      "nor": 10697,
      "high": 10698,
      "school": 10699,
      "stud": 10700,
      "ily": 10701,
      "hn": 10702,
      "again": 10703,
      "grap": 10704,
      "oci": 10705,
      "ident": 10706,
      "ug": 10707,
      "during": 10708,
      "cons": 10709,
      "season": 10710,
      "try": 10711,
      "do": 10712,
      "born": 10713,
      "prov": 10714,
      "Is": 10715,
      "rele": 10716,
      "known": 10717,
      "found": 10718,
      "tween": 10719,
      "between": 10720,
      "arg": 10721,
      "pop": 10722,
      "about": 10723,
      "ating": 10724,
      "many": 10725,
      "lished": 10726,
      "century": 10727,
      "Be": 10728,
      "iver": 10729,
      "so": 10730,
      "Pe": 10731,
      "ual": 10732,
      "eral": 10733,
      "193": 10734,
      "ik": 10735,
      "set": 10736,
      "ative": 10737,
      "ond": 10738,
      "je": 10739,
      "ff": 10740,
      "ash": 10741,
      "through": 10742,
      "pre": 10743,
      "album": 10744,
      "Ind": 10745,
      "players": 10746,
      "car": 10747,
      "Can": 10748,
      "ley": 10749,
      "no": 10750,
      "some": 10751,
      "them": 10752,
      "Car": 10753,
      "three": 10754,
      "unt": 10755,
      "lo": 10756,
      "John": 10757,
      "ague": 10758,
      "ron": 10759,
      "well": 10760,
      "num": 10761,
      "later": 10762,
      "reat": 10763,
      "School": 10764,
      "ful": 10765,
      "States": 10766,
      "cial": 10767,
      "there": 10768,
      "ement": 10769,
      "istory": 10770,
      "13": 10771,
      "my": 10772,
      "War": 10773,
      "than": 10774,
      "Or": 10775,
      "ck": 10776,
      "trans": 10777,
      "ouse": 10778,
      "go": 10779,
      "ific": 10780,
      "follow": 10781,
      "\".": 10782,
      "ros": 10783,
      "ional": 10784,
      "Pl": 10785,
      "14": 10786,
      "ren": 10787,
      "erson": 10788,
      "such": 10789,
      "cy": 10790,
      "oper": 10791,
      "estab": 10792,
      "Austr": 10793,
      "present": 10794,
      "enn": 10795,
      "made": 10796,
      "back": 10797,
      "0s": 10798,
      "mar": 10799,
      "record": 10800,
      "ctor": 10801,
      "mov": 10802,
      "World": 10803,
      "second": 10804,
      "21": 10805,
      "Fran": 10806,
      "emb": 10807,
      "Ger": 10808,
      "ield": 10809,
      "Brit": 10810,
      "ier": 10811,
      "ari": 10812,
      "ork": 10813,
      "\",": 10814,
      "appe": 10815,
      "II": 10816,
      "ina": 10817,
      "Bl": 10818,
      "igin": 10819,
      "2006": 10820,
      "song": 10821,
      "add": 10822,
      "urch": 10823,
      "call": 10824,
      "Sp": 10825,
      ".\"": 10826,
      "ica": 10827,
      "road": 10828,
      "ress": 10829,
      "ted": 10830,
      "She": 10831,
      "town": 10832,
      "Ph": 10833,
      "stru": 10834,
      "cord": 10835,
      "National": 10836,
      "At": 10837,
      "fam": 10838,
      "trict": 10839,
      "being": 10840,
      "ures": 10841,
      "dire": 10842,
      "inv": 10843,
      "Bo": 10844,
      "became": 10845,
      "ived": 10846,
      "cap": 10847,
      "ax": 10848,
      "bl": 10849,
      "nam": 10850,
      "ments": 10851,
      "ven": 10852,
      "appear": 10853,
      "Ad": 10854,
      "arr": 10855,
      "including": 10856,
      "Ge": 10857,
      "une": 10858,
      "ose": 10859,
      "four": 10860,
      "gu": 10861,
      "football": 10862,
      "while": 10863,
      "May": 10864,
      "char": 10865,
      "sup": 10866,
      "group": 10867,
      "stem": 10868,
      "leg": 10869,
      "lead": 10870,
      "men": 10871,
      "stit": 10872,
      "ism": 10873,
      "series": 10874,
      "Austral": 10875,
      "sk": 10876,
      "overn": 10877,
      "York": 10878,
      "bir": 10879,
      "South": 10880,
      "row": 10881,
      "sur": 10882,
      "ise": 10883,
      "iving": 10884,
      "though": 10885,
      "Jan": 10886,
      "origin": 10887,
      "sign": 10888,
      "public": 10889,
      "ef": 10890,
      "Man": 10891,
      "hel": 10892,
      "22": 10893,
      "ior": 10894,
      "former": 10895,
      "uss": 10896,
      "ths": 10897,
      "After": 10898,
      "name": 10899,
      "line": 10900,
      "ered": 10901,
      "rol": 10902,
      "ons": 10903,
      "owever": 10904,
      "state": 10905,
      "before": 10906,
      "vers": 10907,
      "top": 10908,
      "els": 10909,
      "mod": 10910,
      "Co": 10911,
      "Canad": 10912,
      "ject": 10913,
      "aid": 10914,
      "11": 10915,
      "feat": 10916,
      "main": 10917,
      "band": 10918,
      "may": 10919,
      "show": 10920,
      "gram": 10921,
      "atch": 10922,
      "against": 10923,
      "vision": 10924,
      "ai": 10925,
      "Ac": 10926,
      "Ju": 10927,
      "British": 10928,
      "ternational": 10929,
      "000": 10930,
      "ys": 10931,
      "Par": 10932,
      "uro": 10933,
      "mun": 10934,
      "head": 10935,
      "ians": 10936,
      "music": 10937,
      "tri": 10938,
      "until": 10939,
      "icip": 10940,
      "ives": 10941,
      "elf": 10942,
      "Ser": 10943,
      "number": 10944,
      "ulation": 10945,
      "both": 10946,
      "now": 10947,
      "ural": 10948,
      "open": 10949,
      "offic": 10950,
      "devel": 10951,
      "County": 10952,
      "Nov": 10953,
      "care": 10954,
      "Dis": 10955,
      "area": 10956,
      "polit": 10957,
      "miss": 10958,
      "ern": 10959,
      "played": 10960,
      "develop": 10961,
      "mp": 10962,
      "sm": 10963,
      "build": 10964,
      "ask": 10965,
      "Cent": 10966,
      "plac": 10967,
      "stitut": 10968,
      "North": 10969,
      "Chr": 10970,
      "run": 10971,
      "Pol": 10972,
      "organ": 10973,
      "English": 10974,
      "view": 10975,
      "25": 10976,
      "game": 10977,
      "ium": 10978,
      "All": 10979,
      "Am": 10980,
      "released": 10981,
      "US": 10982,
      "Mon": 10983,
      "arm": 10984,
      "cept": 10985,
      "ather": 10986,
      "Fe": 10987,
      "23": 10988,
      "lege": 10989,
      "death": 10990,
      "ajor": 10991,
      "ampion": 10992,
      "Aug": 10993,
      "ended": 10994,
      "Bar": 10995,
      "thern": 10996,
      "based": 10997,
      "long": 10998,
      "ized": 10999,
      "dif": 11000,
      "ank": 11001,
      "imes": 11002,
      "Gu": 11003,
      "ports": 11004,
      "cor": 11005,
      "overnment": 11006,
      "Me": 11007,
      "life": 11008,
      "League": 11009,
      "embers": 11010,
      "ient": 11011,
      "ually": 11012,
      "field": 11013,
      "City": 11014,
      "2005": 11015,
      "called": 11016,
      "ages": 11017,
      "uch": 11018,
      "ped": 11019,
      "design": 11020,
      "Ed": 11021,
      "See": 11022,
      "dep": 11023,
      "iam": 11024,
      "ock": 11025,
      "High": 11026,
      "spec": 11027,
      "ision": 11028,
      "bel": 11029,
      "August": 11030,
      "und": 11031,
      "ft": 11032,
      "contin": 11033,
      "Euro": 11034,
      "2007": 11035,
      "Oc": 11036,
      "ali": 11037,
      "sever": 11038,
      "ause": 11039,
      "ower": 11040,
      "won": 11041,
      "site": 11042,
      "ister": 11043,
      "arch": 11044,
      "March": 11045,
      "class": 11046,
      "system": 11047,
      "King": 11048,
      "ove": 11049,
      "ling": 11050,
      "station": 11051,
      "ross": 11052,
      "Sept": 11053,
      "point": 11054,
      "ham": 11055,
      "jo": 11056,
      "Dec": 11057,
      "ting": 11058,
      "suc": 11059,
      "war": 11060,
      "start": 11061,
      "omen": 11062,
      "No": 11063,
      "September": 11064,
      "June": 11065,
      "key": 11066,
      "Will": 11067,
      "read": 11068,
      "near": 11069,
      "Ste": 11070,
      "ital": 11071,
      "Sw": 11072,
      "cut": 11073,
      "El": 11074,
      "July": 11075,
      "Dr": 11076,
      "We": 11077,
      "will": 11078,
      "bur": 11079,
      "30": 11080,
      "pass": 11081,
      "la": 11082,
      "same": 11083,
      "several": 11084,
      "ety": 11085,
      "ets": 11086,
      "24": 11087,
      "chil": 11088,
      "tit": 11089,
      "commun": 11090,
      "return": 11091,
      "prof": 11092,
      "tober": 11093,
      "October": 11094,
      "Apr": 11095,
      "January": 11096,
      "Te": 11097,
      "ric": 11098,
      "vent": 11099,
      "ste": 11100,
      "early": 11101,
      "Ne": 11102,
      "cover": 11103,
      "bert": 11104,
      "bus": 11105,
      "ude": 11106,
      "ology": 11107,
      "ae": 11108,
      "ible": 11109,
      "club": 11110,
      "aff": 11111,
      "ality": 11112,
      "place": 11113,
      "ently": 11114,
      "West": 11115,
      "ars": 11116,
      "ility": 11117,
      "April": 11118,
      "ired": 11119,
      "2004": 11120,
      "dom": 11121,
      "aking": 11122,
      "ext": 11123,
      "ple": 11124,
      "ained": 11125,
      "oman": 11126,
      "His": 11127,
      "State": 11128,
      "ices": 11129,
      "190": 11130,
      "program": 11131,
      "rece": 11132,
      "stand": 11133,
      "requ": 11134,
      "down": 11135,
      "peri": 11136,
      "cour": 11137,
      "istor": 11138,
      "come": 11139,
      "dec": 11140,
      "History": 11141,
      "tele": 11142,
      "side": 11143,
      "Reg": 11144,
      "Gen": 11145,
      "family": 11146,
      "following": 11147,
      "list": 11148,
      "ble": 11149,
      "They": 11150,
      "2008": 11151,
      "person": 11152,
      "established": 11153,
      "ird": 11154,
      "city": 11155,
      "Sy": 11156,
      "tle": 11157,
      "games": 11158,
      "charac": 11159,
      "these": 11160,
      "ator": 11161,
      "named": 11162,
      "..": 11163,
      "xt": 11164,
      "ony": 11165,
      "law": 11166,
      "left": 11167,
      "graphy": 11168,
      "ctions": 11169,
      "tal": 11170,
      "ants": 11171,
      "since": 11172,
      "ery": 11173,
      "ford": 11174,
      "Europe": 11175,
      "bro": 11176,
      "along": 11177,
      "There": 11178,
      "December": 11179,
      "ains": 11180,
      "angu": 11181,
      "Fl": 11182,
      "ards": 11183,
      "November": 11184,
      "sim": 11185,
      "career": 11186,
      "located": 11187,
      "ilit": 11188,
      "Mc": 11189,
      "ious": 11190,
      "population": 11191,
      "ampionship": 11192,
      "Geor": 11193,
      "ales": 11194,
      "Air": 11195,
      "2000": 11196,
      "Award": 11197,
      "iev": 11198,
      "aster": 11199,
      "formed": 11200,
      "mark": 11201,
      "tribut": 11202,
      "reen": 11203,
      "chn": 11204,
      "Her": 11205,
      "ided": 11206,
      "ically": 11207,
      "fect": 11208,
      "apan": 11209,
      "like": 11210,
      "cast": 11211,
      "vari": 11212,
      "2009": 11213,
      "ek": 11214,
      "thor": 11215,
      "ca": 11216,
      "press": 11217,
      "rest": 11218,
      "Med": 11219,
      "ured": 11220,
      "2010": 11221,
      "2003": 11222,
      "oth": 11223,
      "pat": 11224,
      "small": 11225,
      "German": 11226,
      "Scot": 11227,
      "Japan": 11228,
      "members": 11229,
      "2011": 11230,
      "Char": 11231,
      "home": 11232,
      "did": 11233,
      "Har": 11234,
      "augh": 11235,
      "acks": 11236,
      "lit": 11237,
      "ues": 11238,
      "ison": 11239,
      "manag": 11240,
      "Christ": 11241,
      "189": 11242,
      "began": 11243,
      "success": 11244,
      "fact": 11245,
      "ival": 11246,
      "van": 11247,
      "soci": 11248,
      "prom": 11249,
      "chan": 11250,
      "aving": 11251,
      "right": 11252,
      "built": 11253,
      "ines": 11254,
      "che": 11255,
      "Li": 11256,
      "2001": 11257,
      "And": 11258,
      "oss": 11259,
      "lar": 11260,
      "cle": 11261,
      "2002": 11262,
      "ights": 11263,
      "order": 11264,
      "vill": 11265,
      "major": 11266,
      "College": 11267,
      "each": 11268,
      "ined": 11269,
      "aim": 11270,
      "ane": 11271,
      "less": 11272,
      "ner": 11273,
      "Bro": 11274,
      "idge": 11275,
      "ler": 11276,
      "fac": 11277,
      "Febr": 11278,
      "26": 11279,
      "February": 11280,
      "ney": 11281,
      "world": 11282,
      "ms": 11283,
      "rib": 11284,
      "gy": 11285,
      "27": 11286,
      "Dav": 11287,
      "ground": 11288,
      "28": 11289,
      "que": 11290,
      "player": 11291,
      "ung": 11292,
      "ene": 11293,
      "iness": 11294,
      "government": 11295,
      "However": 11296,
      "ried": 11297,
      "Su": 11298,
      "ature": 11299,
      "aining": 11300,
      "Comp": 11301,
      "50": 11302,
      "single": 11303,
      "inc": 11304,
      "position": 11305,
      "bre": 11306,
      "rench": 11307,
      "ches": 11308,
      "served": 11309,
      "aul": 11310,
      "last": 11311,
      "Not": 11312,
      "house": 11313,
      "company": 11314,
      "mit": 11315,
      "births": 11316,
      "around": 11317,
      "Min": 11318,
      "Park": 11319,
      "ze": 11320,
      "French": 11321,
      "Cor": 11322,
      "William": 11323,
      "television": 11324,
      "ides": 11325,
      "San": 11326,
      "ral": 11327,
      "mill": 11328,
      "Part": 11329,
      "ament": 11330,
      "Cup": 11331,
      "support": 11332,
      "oung": 11333,
      "olv": 11334,
      "films": 11335,
      "adem": 11336,
      "book": 11337,
      "lect": 11338,
      "national": 11339,
      "TV": 11340,
      "allow": 11341,
      "member": 11342,
      "differ": 11343,
      "ille": 11344,
      "local": 11345,
      "could": 11346,
      "king": 11347,
      "sl": 11348,
      "ised": 11349,
      "langu": 11350,
      "due": 11351,
      "held": 11352,
      "Ear": 11353,
      "Per": 11354,
      "tract": 11355,
      "Phil": 11356,
      "gl": 11357,
      "ivision": 11358,
      "ama": 11359,
      "di": 11360,
      "dren": 11361,
      "ru": 11362,
      "cil": 11363,
      "met": 11364,
      "published": 11365,
      "very": 11366,
      "29": 11367,
      "align": 11368,
      "rad": 11369,
      "took": 11370,
      "curr": 11371,
      "cas": 11372,
      "put": 11373,
      "lex": 11374,
      "round": 11375,
      "Lond": 11376,
      "Ab": 11377,
      "final": 11378,
      "London": 11379,
      "atic": 11380,
      "compet": 11381,
      "even": 11382,
      "ref": 11383,
      "Ital": 11384,
      "water": 11385,
      "graph": 11386,
      "aft": 11387,
      "2012": 11388,
      "nia": 11389,
      "ington": 11390,
      "alth": 11391,
      "estern": 11392,
      "akes": 11393,
      "Afr": 11394,
      "resp": 11395,
      "tra": 11396,
      "north": 11397,
      "ified": 11398,
      "desc": 11399,
      "val": 11400,
      "ored": 11401,
      "idd": 11402,
      "Res": 11403,
      "aur": 11404,
      "just": 11405,
      "educ": 11406,
      "ately": 11407,
      "188": 11408,
      "reet": 11409,
      "depend": 11410,
      "ats": 11411,
      "BC": 11412,
      "camp": 11413,
      "level": 11414,
      "west": 11415,
      "Russ": 11416,
      "International": 11417,
      "ata": 11418,
      "ones": 11419,
      "ideo": 11420,
      "hand": 11421,
      "1999": 11422,
      "event": 11423,
      "ban": 11424,
      "refer": 11425,
      "ished": 11426,
      "Mo": 11427,
      "anc": 11428,
      "tom": 11429,
      "Sch": 11430,
      "issu": 11431,
      "vol": 11432,
      "ief": 11433,
      "Pres": 11434,
      "six": 11435,
      "uck": 11436,
      "During": 11437,
      "original": 11438,
      "larg": 11439,
      "Mich": 11440,
      "died": 11441,
      "because": 11442,
      "five": 11443,
      "ps": 11444,
      "yle": 11445,
      "lim": 11446,
      "|-": 11447,
      "ilitary": 11448,
      "uk": 11449,
      "yn": 11450,
      "Indian": 11451,
      "profess": 11452,
      "hal": 11453,
      "ience": 11454,
      "history": 11455,
      "district": 11456,
      "app": 11457,
      "lab": 11458,
      "iven": 11459,
      "bor": 11460,
      "ays": 11461,
      "Film": 11462,
      "dem": 11463,
      "large": 11464,
      "ning": 11465,
[...]
