{
  "version": "1.0",
  "truncation": null,
  "padding": null,
  "added_tokens": [
    {
      "id": 0,
      "content": "[PAD]",
      "single_word": false,
      "lstrip": false,
      "rstrip": false,
      "normalized": false,
      "special": true
    },
    {
      "id": 1,
      "content": "[UNK]",
      "single_word": false,
      "lstrip": false,
      "rstrip": false,
      "normalized": false,
      "special": true
    },
    {
      "id": 2,
      "content": "[CLS]",
      "single_word": false,
      "lstrip": false,
      "rstrip": false,
      "normalized": false,
      "special": true
    },
    {
      "id": 3,
      "content": "[SEP]",
      "single_word": false,
      "lstrip": false,
      "rstrip": false,
      "normalized": false,
      "special": true
    },
    {
      "id": 4,
      "content": "[MASK]",
      "single_word": false,
      "lstrip": false,
      "rstrip": false,
      "normalized": false,
      "special": true
    }
  ],
  "normalizer": null,
  "pre_tokenizer": {
    "type": "BertPreTokenizer"
  },
  "post_processor": null,
  "decoder": null,
  "model": {
    "type": "BPE",
    "dropout": null,
    "unk_token": null,
    "continuing_subword_prefix": null,
    "end_of_word_suffix": null,
    "fuse_unk": false,
    "byte_fallback": false,
    "ignore_merges": false,
    "vocab": {
      "[PAD]": 0,
      "[UNK]": 1,
      "[CLS]": 2,
      "[SEP]": 3,
      "[MASK]": 4,
      "!": 5,
      "\"": 6,
      "#": 7,
      "$": 8,
      "%": 9,
      "&": 10,
      "'": 11,
      "(": 12,
      ")": 13,
      "*": 14,
      "+": 15,
      ",": 16,
      "-": 17,
      ".": 18,
      "/": 19,
      "0": 20,
      "1": 21,
      "2": 22,
      "3": 23,
      "4": 24,
      "5": 25,
      "6": 26,
      "7": 27,
      "8": 28,
      "9": 29,
      ":": 30,
      ";": 31,
      "<": 32,
      "=": 33,
      ">": 34,
      "?": 35,
      "@": 36,
      "A": 37,
      "B": 38,
      "C": 39,
      "D": 40,
      "E": 41,
      "F": 42,
      "G": 43,
      "H": 44,
      "I": 45,
      "J": 46,
      "K": 47,
      "L": 48,
      "M": 49,
      "N": 50,
      "O": 51,
      "P": 52,
      "Q": 53,
      "R": 54,
      "S": 55,
      "T": 56,
      "U": 57,
      "V": 58,
      "W": 59,
      "X": 60,
      "Y": 61,
      "Z": 62,
      "[": 63,
      "\\": 64,
      "]": 65,
      "^": 66,
      "_": 67,
      "`": 68,
      "a": 69,
      "b": 70,
      "c": 71,
      "d": 72,
      "e": 73,
      "f": 74,
      "g": 75,
      "h": 76,
      "i": 77,
      "j": 78,
      "k": 79,
      "l": 80,
      "m": 81,
      "n": 82,
      "o": 83,
      "p": 84,
      "q": 85,
      "r": 86,
      "s": 87,
      "t": 88,
      "u": 89,
      "v": 90,
      "w": 91,
      "x": 92,
      "y": 93,
      "z": 94,
      "{": 95,
      "|": 96,
      "}": 97,
      "~": 98,
      "¢": 99,
      "£": 100,
      "¥": 101,
      "§": 102,
      "©": 103,
      "ª": 104,
      "«": 105,
      "¬": 106,
      "­": 107,
      "¯": 108,
      "°": 109,
      "±": 110,
      "²": 111,
      "³": 112,
      "µ": 113,
      "·": 114,
      "¹": 115,
      "»": 116,
      "¼": 117,
      "½": 118,
      "¾": 119,
      "À": 120,
      "Á": 121,
      "Â": 122,
      "Ã": 123,
      "Ä": 124,
      "Å": 125,
      "Æ": 126,
      "Ç": 127,
      "É": 128,
      "Ò": 129,
      "Õ": 130,
      "Ö": 131,
      "×": 132,
      "Ø": 133,
      "Ú": 134,
      "Ü": 135,
      "Þ": 136,
      "ß": 137,
      "à": 138,
      "á": 139,
      "â": 140,
      "ã": 141,
      "ä": 142,
      "å": 143,
      "æ": 144,
      "ç": 145,
      "è": 146,
      "é": 147,
      "ê": 148,
      "ë": 149,
      "ì": 150,
      "í": 151,
      "î": 152,
      "ï": 153,
      "ð": 154,
      "ñ": 155,
      "ò": 156,
      "ó": 157,
      "ô": 158,
      "õ": 159,
      "ö": 160,
      "ø": 161,
      "ù": 162,
      "ú": 163,
      "û": 164,
      "ü": 165,
      "þ": 166,
      "Ā": 167,
      "ā": 168,
      "Ă": 169,
      "ă": 170,
      "Ą": 171,
      "ą": 172,
      "ć": 173,
      "Ĉ": 174,
      "ĉ": 175,
      "Č": 176,
      "č": 177,
      "đ": 178,
      "ē": 179,
      "Ĕ": 180,
      "ė": 181,
      "ę": 182,
      "ě": 183,
      "Ĝ": 184,
      "ĝ": 185,
      "ğ": 186,
      "ġ": 187,
      "Ĥ": 188,
      "ĥ": 189,
      "Ħ": 190,
      "ĩ": 191,
      "ī": 192,
      "ĭ": 193,
      "İ": 194,
      "ı": 195,
      "Ĵ": 196,
      "ĵ": 197,
      "ļ": 198,
      "Ł": 199,
      "ł": 200,
      "ń": 201,
      "ň": 202,
      "Ō": 203,
      "ō": 204,
      "ő": 205,
      "ř": 206,
      "Ś": 207,
      "ś": 208,
      "Ŝ": 209,
      "ŝ": 210,
      "Ş": 211,
      "ş": 212,
      "Š": 213,
      "š": 214,
      "ū": 215,
      "Ŭ": 216,
      "ŭ": 217,
      "ų": 218,
      "Ż": 219,
      "ż": 220,
      "Ž": 221,
      "ž": 222,
      "Ǎ": 223,
      "ǎ": 224,
      "ǝ": 225,
      "Ǟ": 226,
      "ǟ": 227,
      "Ǡ": 228,
      "ǡ": 229,
      "ǧ": 230,
      "Ǻ": 231,
      "ǻ": 232,
      "Ȁ": 233,
      "ȁ": 234,
      "Ȃ": 235,
      "ȃ": 236,
      "ș": 237,
      "Ȣ": 238,
      "Ȧ": 239,
      "ȧ": 240,
      "Ⱥ": 241,
      "ɐ": 242,
      "ɑ": 243,
      "ɒ": 244,
      "ə": 245,
      "ʃ": 246,
      "ʌ": 247,
      "ʎ": 248,
      "ʒ": 249,
      "ʔ": 250,
      "ʷ": 251,
      "ʻ": 252,
      "ʼ": 253,
      "ʾ": 254,
      "ʿ": 255,
      "ˈ": 256,
      "˘": 257,
      "̀": 258,
      "́": 259,
      "̃": 260,
      "̄": 261,
      "̊": 262,
      "̯": 263,
      "̲": 264,
      "Ά": 265,
      "Α": 266,
      "Β": 267,
      "Γ": 268,
      "Δ": 269,
      "Ε": 270,
      "Ζ": 271,
      "Η": 272,
      "Ι": 273,
      "Κ": 274,
      "Λ": 275,
      "Μ": 276,
      "Ν": 277,
      "Ξ": 278,
      "Ο": 279,
      "Π": 280,
      "Ρ": 281,
      "Σ": 282,
      "Τ": 283,
      "Υ": 284,
      "Χ": 285,
      "Ψ": 286,
      "Ω": 287,
      "Ϊ": 288,
      "ά": 289,
      "έ": 290,
      "ή": 291,
      "ί": 292,
      "α": 293,
      "β": 294,
      "γ": 295,
      "δ": 296,
      "ε": 297,
      "ζ": 298,
      "η": 299,
      "θ": 300,
      "ι": 301,
      "κ": 302,
      "λ": 303,
      "μ": 304,
      "ν": 305,
      "ξ": 306,
      "ο": 307,
      "π": 308,
      "ρ": 309,
      "ς": 310,
      "σ": 311,
      "τ": 312,
      "υ": 313,
      "φ": 314,
      "χ": 315,
      "ω": 316,
      "ϊ": 317,
      "ό": 318,
      "ύ": 319,
      "ώ": 320,
      "ϰ": 321,
      "Ё": 322,
      "І": 323,
      "А": 324,
      "Б": 325,
      "В": 326,
      "Г": 327,
      "Д": 328,
      "Е": 329,
      "Ж": 330,
      "З": 331,
      "И": 332,
      "Й": 333,
      "К": 334,
      "Л": 335,
      "М": 336,
      "Н": 337,
      "О": 338,
      "П": 339,
      "Р": 340,
      "С": 341,
      "Т": 342,
      "У": 343,
      "Ф": 344,
      "Х": 345,
      "Ц": 346,
      "Ч": 347,
      "Ш": 348,
      "Щ": 349,
      "Ъ": 350,
      "Ы": 351,
      "Ь": 352,
      "Э": 353,
      "Ю": 354,
      "Я": 355,
      "а": 356,
      "б": 357,
      "в": 358,
      "г": 359,
      "д": 360,
      "е": 361,
      "ж": 362,
      "з": 363,
      "и": 364,
      "й": 365,
      "к": 366,
      "л": 367,
      "м": 368,
      "н": 369,
      "о": 370,
      "п": 371,
      "р": 372,
      "с": 373,
      "т": 374,
      "у": 375,
      "ф": 376,
      "х": 377,
      "ц": 378,
      "ч": 379,
      "ш": 380,
      "щ": 381,
      "ъ": 382,
      "ы": 383,
      "ь": 384,
      "э": 385,
      "ю": 386,
      "я": 387,
      "ё": 388,
      "і": 389,
      "ї": 390,
      "ў": 391,
      "ѣ": 392,
      "ѧ": 393,
      "ѩ": 394,
      "Ա": 395,
      "ա": 396,
      "ء": 397,
      "أ": 398,
      "ا": 399,
      "ب": 400,
      "ة": 401,
      "ت": 402,
      "ج": 403,
      "ح": 404,
      "د": 405,
      "ذ": 406,
      "ر": 407,
      "ز": 408,
      "س": 409,
      "ع": 410,
      "ف": 411,
      "ق": 412,
      "ك": 413,
      "ل": 414,
      "م": 415,
      "ن": 416,
      "ه": 417,
      "و": 418,
      "ي": 419,
      "ً": 420,
      "َ": 421,
      "ُ": 422,
      "ِ": 423,
      "ّ": 424,
      "ْ": 425,
      "ژ": 426,
      "۝": 427,
      "ܐ": 428,
      "ܓ": 429,
      "ܕ": 430,
      "ܗ": 431,
      "ܙ": 432,
      "ܝ": 433,
      "ܠ": 434,
      "ܡ": 435,
      "ܢ": 436,
      "ܪ": 437,
      "ܬ": 438,
      "ܲ": 439,
      "ܵ": 440,
      "ܼ": 441,
      "݂": 442,
      "݇": 443,
      "अ": 444,
      "थ": 445,
      "द": 446,
      "र": 447,
      "व": 448,
      "स": 449,
      "ा": 450,
      "ि": 451,
      "े": 452,
      "्": 453,
      "บ": 454,
      "ย": 455,
      "ร": 456,
      "ี": 457,
      "เ": 458,
      "์": 459,
      "ᅀ": 460,
      "ᴀ": 461,
      "ᵄ": 462,
      "ᶏ": 463,
      "ᶐ": 464,
      "ᶛ": 465,
      "Ḁ": 466,
      "ḁ": 467,
      "ḇ": 468,
      "Ḍ": 469,
      "ḍ": 470,
      "ḏ": 471,
      "ḗ": 472,
      "Ḥ": 473,
      "ḥ": 474,
      "ṅ": 475,
      "ṇ": 476,
      "ṓ": 477,
      "Ṣ": 478,
      "ṣ": 479,
      "ṭ": 480,
      "ṯ": 481,
      "ẓ": 482,
      "ẚ": 483,
      "Ạ": 484,
      "ạ": 485,
      "Ả": 486,
      "ả": 487,
      "Ấ": 488,
      "ấ": 489,
      "Ầ": 490,
      "ầ": 491,
      "Ẩ": 492,
      "ẩ": 493,
      "Ẫ": 494,
      "ẫ": 495,
      "Ậ": 496,
      "ậ": 497,
      "Ắ": 498,
      "ắ": 499,
      "Ằ": 500,
      "ằ": 501,
      "Ẳ": 502,
      "ẳ": 503,
      "Ẵ": 504,
      "ẵ": 505,
      "Ặ": 506,
      "ặ": 507,
      "ữ": 508,
      "ἀ": 509,
      "ἄ": 510,
      "Ἀ": 511,
      "Ἄ": 512,
      "ἐ": 513,
      "Ἐ": 514,
      "ἤ": 515,
      "ἰ": 516,
      "ἱ": 517,
      "Ἱ": 518,
      "ὰ": 519,
      "ὴ": 520,
      "ᾶ": 521,
      "ῃ": 522,
      "ῆ": 523,
      "ῖ": 524,
      "Ῥ": 525,
      "ῶ": 526,
      "ῷ": 527,
      "​": 528,
      "‎": 529,
      "‐": 530,
      "‑": 531,
      "‒": 532,
      "–": 533,
      "—": 534,
      "―": 535,
      "‘": 536,
      "’": 537,
      "“": 538,
      "”": 539,
      "„": 540,
      "†": 541,
      "•": 542,
      "…": 543,
      "‰": 544,
      "′": 545,
      "⁂": 546,
      "⁰": 547,
      "₁": 548,
      "₂": 549,
      "₩": 550,
      "€": 551,
      "₳": 552,
      "№": 553,
      "⅓": 554,
      "⅔": 555,
      "⅛": 556,
      "←": 557,
      "→": 558,
      "↔": 559,
      "⇌": 560,
      "∀": 561,
      "−": 562,
      "∙": 563,
      "∞": 564,
      "≈": 565,
      "≡": 566,
      "≤": 567,
      "≥": 568,
      "⊖": 569,
      "⋅": 570,
      "Ⓐ": 571,
      "▼": 572,
      "☫": 573,
      "♈": 574,
      "♒": 575,
      "⩽": 576,
      "ⱥ": 577,
      "Ɑ": 578,
      "Ɐ": 579,
      "Ɒ": 580,
      "ⲃ": 581,
      "ⲉ": 582,
      "ⲧ": 583,
      "ⲱ": 584,
      "さ": 585,
      "な": 586,
      "ア": 587,
      "イ": 588,
      "ェ": 589,
      "キ": 590,
      "グ": 591,
      "ケ": 592,
      "ス": 593,
      "ッ": 594,
      "テ": 595,
      "ト": 596,
      "ナ": 597,
      "ニ": 598,
      "バ": 599,
      "ビ": 600,
      "フ": 601,
      "ロ": 602,
      "ン": 603,
      "ㄌ": 604,
      "ㄢ": 605,
      "ㄨ": 606,
      "三": 607,
      "亜": 608,
      "君": 609,
      "垒": 610,
      "堂": 611,
      "壁": 612,
      "天": 613,
      "婁": 614,
      "対": 615,
      "小": 616,
      "島": 617,
      "左": 618,
      "戦": 619,
      "更": 620,
      "林": 621,
      "獣": 622,
      "盘": 623,
      "盤": 624,
      "算": 625,
      "細": 626,
      "絶": 627,
      "線": 628,
      "羽": 629,
      "胃": 630,
      "藻": 631,
      "鑒": 632,
      "阵": 633,
      "陰": 634,
      "魔": 635,
      "Ꞻ": 636,
      "ꞻ": 637,
      "ꬱ": 638,
      "산": 639,
      "수": 640,
      "주": 641,
      "판": 642,
      "︎": 643,
      "／": 644,
      "𐌀": 645,
      "𐤀": 646,
      "𓅓": 647,
      "𓆎": 648,
      "𓊖": 649,
      "𓏏": 650,
      "🇦": 651,
      "🇫": 652,
      "🇮": 653,
      "🇶": 654,
      "🇷": 655,
      "🇸": 656,
      "🇺": 657,
      "🇿": 658,
      "th": 659,
      "in": 660,
      "an": 661,
      "ст": 662,
      "er": 663,
      "the": 664,
      "on": 665,
      "ен": 666,
      "ра": 667,
      "но": 668,
      "ро": 669,
      "re": 670,
      "at": 671,
      "ко": 672,
      "на": 673,
      "al": 674,
      "en": 675,
      "ed": 676,
      "го": 677,
      "or": 678,
      "st": 679,
      "ре": 680,
      "ar": 681,
      "of": 682,
      "по": 683,
      "ли": 684,
      "во": 685,
      "and": 686,
      "ны": 687,
      "es": 688,
      "ни": 689,
      "is": 690,
      "ль": 691,
      "то": 692,
      "ic": 693,
      "as": 694,
      "ва": 695,
      "it": 696,
      "ри": 697,
      "ion": 698,
      "ка": 699,
      "to": 700,
      "ing": 701,
      "ло": 702,
      "ки": 703,
      "те": 704,
      "ro": 705,
      "да": 706,
      "ла": 707,
      "ени": 708,
      "ми": 709,
      "le": 710,
      "со": 711,
      "ве": 712,
      "не": 713,
      "та": 714,
      "ou": 715,
      "ле": 716,
      "ти": 717,
      "ent": 718,
      "за": 719,
      "ци": 720,
      "ско": 721,
      "до": 722,
      "he": 723,
      "де": 724,
      "il": 725,
      "ме": 726,
      "че": 727,
      "ac": 728,
      "ви": 729,
      "ol": 730,
      "19": 731,
      "om": 732,
      "ма": 733,
      "ру": 734,
      "el": 735,
      "ски": 736,
      "ся": 737,
      "ди": 738,
      "мо": 739,
      "ch": 740,
      "си": 741,
      "de": 742,
      "пе": 743,
      "am": 744,
      "про": 745,
      "об": 746,
      "ля": 747,
      "se": 748,
      "ста": 749,
      "вы": 750,
      "ly": 751,
      "be": 752,
      "ation": 753,
      "бо": 754,
      "im": 755,
      "ur": 756,
      "for": 757,
      "ет": 758,
      "iv": 759,
      "ad": 760,
      "се": 761,
      "сти": 762,
      "ча": 763,
      "сто": 764,
      "ct": 765,
      "при": 766,
      "от": 767,
      "The": 768,
      "из": 769,
      "20": 770,
      "ных": 771,
      "ду": 772,
      "con": 773,
      "us": 774,
      "ной": 775,
      "бы": 776,
      "ter": 777,
      "id": 778,
      "ig": 779,
      "ce": 780,
      "па": 781,
      "wh": 782,
      "un": 783,
      "ith": 784,
      "ения": 785,
      "ab": 786,
      "ir": 787,
      "ги": 788,
      "ist": 789,
      "ul": 790,
      "чи": 791,
      "ow": 792,
      "ос": 793,
      "раз": 794,
      "ть": 795,
      "ver": 796,
      "ные": 797,
      "ag": 798,
      "ры": 799,
      "mo": 800,
      "was": 801,
      "ение": 802,
      "пре": 803,
      "op": 804,
      "are": 805,
      "га": 806,
      "ств": 807,
      "хо": 808,
      "ut": 809,
      "by": 810,
      "са": 811,
      "with": 812,
      "ers": 813,
      "pro": 814,
      "сь": 815,
      "et": 816,
      "em": 817,
      "ap": 818,
      "ного": 819,
      "же": 820,
      "um": 821,
      "that": 822,
      "мен": 823,
      "res": 824,
      "тель": 825,
      "ot": 826,
      "ер": 827,
      "сть": 828,
      "ку": 829,
      "ши": 830,
      "ный": 831,
      "ту": 832,
      "com": 833,
      "av": 834,
      "ты": 835,
      "su": 836,
      "ther": 837,
      "ще": 838,
      "ской": 839,
      "tr": 840,
      "му": 841,
      "су": 842,
      "ay": 843,
      "ex": 844,
      "est": 845,
      "ies": 846,
      "In": 847,
      "года": 848,
      "pe": 849,
      "ска": 850,
      "ство": 851,
      "lo": 852,
      "oun": 853,
      "ор": 854,
      "if": 855,
      "ain": 856,
      "rom": 857,
      "ate": 858,
      "ции": 859,
      "his": 860,
      "ian": 861,
      "ря": 862,
      "ран": 863,
      "ют": 864,
      "ем": 865,
      "вой": 866,
      "ну": 867,
      "пи": 868,
      "ния": 869,
      "from": 870,
      "all": 871,
      "ная": 872,
      "ere": 873,
      "щи": 874,
      "so": 875,
      "18": 876,
      "ский": 877,
      "ского": 878,
      "гра": 879,
      "os": 880,
      "лу": 881,
      "00": 882,
      "pl": 883,
      "cl": 884,
      "ей": 885,
      "ant": 886,
      "ity": 887,
      "ня": 888,
      "art": 889,
      "кото": 890,
      "спо": 891,
      "ast": 892,
      "qu": 893,
      "ical": 894,
      "ар": 895,
      "ci": 896,
      "ин": 897,
      "он": 898,
      "лен": 899,
      "od": 900,
      "нов": 901,
      "пра": 902,
      "ствен": 903,
      "жи": 904,
      "ia": 905,
      "ется": 906,
      "ich": 907,
      "ства": 908,
      "сле": 909,
      "ud": 910,
      "Al": 911,
      "бе": 912,
      "пу": 913,
      "per": 914,
      "вер": 915,
      "ке": 916,
      "ph": 917,
      "ров": 918,
      "лю": 919,
      "og": 920,
      "ort": 921,
      "горо": 922,
      "ated": 923,
      "мы": 924,
      "ive": 925,
      "ear": 926,
      "ба": 927,
      "году": 928,
      "An": 929,
      "кон": 930,
      "тер": 931,
      "под": 932,
      "du": 933,
      "ld": 934,
      "фи": 935,
      "ских": 936,
      "ным": 937,
      "зо": 938,
      "ess": 939,
      "ment": 940,
      "рова": 941,
      "ill": 942,
      "ние": 943,
      "act": 944,
      "der": 945,
      "ri": 946,
      "gh": 947,
      "вля": 948,
      "igh": 949,
      "ish": 950,
      "зи": 951,
      "ская": 952,
      "sh": 953,
      "te": 954,
      "which": 955,
      "ан": 956,
      "ak": 957,
      "По": 958,
      "СС": 959,
      "ное": 960,
      "ше": 961,
      "man": 962,
      "ne": 963,
      "би": 964,
      "ber": 965,
      "Ar": 966,
      "ard": 967,
      "ские": 968,
      "ell": 969,
      "зы": 970,
      "wor": 971,
      "ure": 972,
      "ary": 973,
      "тов": 974,
      "ass": 975,
      "ков": 976,
      "pt": 977,
      "ave": 978,
      "ong": 979,
      "це": 980,
      "пере": 981,
      "ды": 982,
      "ang": 983,
      "pr": 984,
      "201": 985,
      "our": 986,
      "not": 987,
      "end": 988,
      "аль": 989,
      "over": 990,
      "бу": 991,
      "ous": 992,
      "что": 993,
      "вре": 994,
      "ions": 995,
      "ности": 996,
      "were": 997,
      "Со": 998,
      "так": 999,
      "one": 1000,
      "ность": 1001,
      "ён": 1002,
      "str": 1003,
      "form": 1004,
      "af": 1005,
      "ally": 1006,
      "its": 1007,
      "200": 1008,
      "рас": 1009,
      "стра": 1010,
      "сло": 1011,
      "вет": 1012,
      "rit": 1013,
      "стро": 1014,
      "зна": 1015,
      "дар": 1016,
      "ления": 1017,
      "ult": 1018,
      "для": 1019,
      "up": 1020,
      "это": 1021,
      "comp": 1022,
      "кт": 1023,
      "пер": 1024,
      "17": 1025,
      "жа": 1026,
      "которы": 1027,
      "ev": 1028,
      "ire": 1029,
      "ком": 1030,
      "iz": 1031,
      "как": 1032,
      "ция": 1033,
      "На": 1034,
      "out": 1035,
      "пред": 1036,
      "ент": 1037,
      "have": 1038,
      "tw": 1039,
      "pol": 1040,
      "but": 1041,
      "ans": 1042,
      "Рос": 1043,
      "ine": 1044,
      "ном": 1045,
      "воз": 1046,
      "Am": 1047,
      "од": 1048,
      "Росси": 1049,
      "нии": 1050,
      "cent": 1051,
      "она": 1052,
      "au": 1053,
      "тиче": 1054,
      "ющи": 1055,
      "ect": 1056,
      "ame": 1057,
      "ge": 1058,
      "oc": 1059,
      "ts": 1060,
      "гла": 1061,
      "ial": 1062,
      "ence": 1063,
      "им": 1064,
      "II": 1065,
      "also": 1066,
      "лись": 1067,
      "age": 1068,
      "тив": 1069,
      "has": 1070,
      "port": 1071,
      "ip": 1072,
      "ак": 1073,
      "сси": 1074,
      "cre": 1075,
      "ates": 1076,
      "ore": 1077,
      "me": 1078,
      "ub": 1079,
      "had": 1080,
      "спе": 1081,
      "мя": 1082,
      "other": 1083,
      "ис": 1084,
      "cont": 1085,
      "вя": 1086,
      "все": 1087,
      "рии": 1088,
      "Un": 1089,
      "ша": 1090,
      "ound": 1091,
      "вод": 1092,
      "ome": 1093,
      "199": 1094,
      "или": 1095,
      "фор": 1096,
      "сте": 1097,
      "ater": 1098,
      "ace": 1099,
      "ев": 1100,
      "fer": 1101,
      "ib": 1102,
      "гу": 1103,
      "Во": 1104,
      "ща": 1105,
      "pre": 1106,
      "pres": 1107,
      "дру": 1108,
      "their": 1109,
      "боль": 1110,
      "aw": 1111,
      "дов": 1112,
      "ней": 1113,
      "ление": 1114,
      "логи": 1115,
      "ходи": 1116,
      "нача": 1117,
      "сво": 1118,
      "ations": 1119,
      "ца": 1120,
      "ew": 1121,
      "ks": 1122,
      "part": 1123,
      "ную": 1124,
      "ree": 1125,
      "кра": 1126,
      "ide": 1127,
      "сту": 1128,
      "ory": 1129,
      "St": 1130,
      "ными": 1131,
      "хи": 1132,
      "образ": 1133,
      "ely": 1134,
      "ха": 1135,
      "зу": 1136,
      "ред": 1137,
      "ould": 1138,
      "ach": 1139,
      "госу": 1140,
      "рабо": 1141,
      "ign": 1142,
      "own": 1143,
      "incl": 1144,
      "государ": 1145,
      "том": 1146,
      "лы": 1147,
      "соста": 1148,
      "ются": 1149,
      "также": 1150,
      "bo": 1151,
      "gr": 1152,
      "used": 1153,
      "li": 1154,
      "дан": 1155,
      "ден": 1156,
      "sp": 1157,
      "col": 1158,
      "dis": 1159,
      "fir": 1160,
      "ight": 1161,
      "мер": 1162,
      "был": 1163,
      "most": 1164,
      "ov": 1165,
      "ple": 1166,
      "Ка": 1167,
      "явля": 1168,
      "ition": 1169,
      "кре": 1170,
      "ma": 1171,
      "руп": 1172,
      "стви": 1173,
      "ction": 1174,
      "sy": 1175,
      "стоя": 1176,
      "поли": 1177,
      "после": 1178,
      "вши": 1179,
      "land": 1180,
      "can": 1181,
      "comm": 1182,
      "Ch": 1183,
      "able": 1184,
      "лось": 1185,
      "бли": 1186,
      "ime": 1187,
      "ob": 1188,
      "жен": 1189,
      "дей": 1190,
      "род": 1191,
      "ское": 1192,
      "тся": 1193,
      "ении": 1194,
      "соб": 1195,
      "pos": 1196,
      "лее": 1197,
      "ces": 1198,
      "лся": 1199,
      "first": 1200,
      "ству": 1201,
      "Th": 1202,
      "gen": 1203,
      "дер": 1204,
      "его": 1205,
      "еди": 1206,
      "ef": 1207,
      "who": 1208,
      "СР": 1209,
      "10": 1210,
      "ile": 1211,
      "ced": 1212,
      "ra": 1213,
      "this": 1214,
      "ser": 1215,
      "ran": 1216,
      "ге": 1217,
      "eric": 1218,
      "были": 1219,
      "low": 1220,
      "int": 1221,
      "ilm": 1222,
      "194": 1223,
      "ack": 1224,
      "spe": 1225,
      "вто": 1226,
      "ke": 1227,
      "зда": 1228,
      "coun": 1229,
      "лей": 1230,
      "сы": 1231,
      "вания": 1232,
      "such": 1233,
      "ром": 1234,
      "198": 1235,
      "po": 1236,
      "ений": 1237,
      "ind": 1238,
      "more": 1239,
      "обще": 1240,
      "gro": 1241,
      "три": 1242,
      "been": 1243,
      "als": 1244,
      "лась": 1245,
      "ren": 1246,
      "year": 1247,
      "пар": 1248,
      "than": 1249,
      "города": 1250,
      "Americ": 1251,
      "He": 1252,
      "Af": 1253,
      "cor": 1254,
      "hy": 1255,
      "орга": 1256,
      "att": 1257,
      "уч": 1258,
      "produ": 1259,
      "ok": 1260,
      "ten": 1261,
      "пол": 1262,
      "ric": 1263,
      "ele": 1264,
      "мож": 1265,
      "ational": 1266,
      "более": 1267,
      "пла": 1268,
      "их": 1269,
      "lar": 1270,
      "rel": 1271,
      "ough": 1272,
      "fl": 1273,
      "При": 1274,
      "ism": 1275,
      "15": 1276,
      "жду": 1277,
      "uring": 1278,
      "было": 1279,
      "cons": 1280,
      "СССР": 1281,
      "co": 1282,
      "ву": 1283,
      "фе": 1284,
      "циаль": 1285,
      "ust": 1286,
      "ever": 1287,
      "За": 1288,
      "вые": 1289,
      "As": 1290,
      "ск": 1291,
      "inter": 1292,
      "вых": 1293,
      "olog": 1294,
      "зе": 1295,
      "film": 1296,
      "вед": 1297,
      "испо": 1298,
      "into": 1299,
      "any": 1300,
      "России": 1301,
      "пы": 1302,
      "раль": 1303,
      "вла": 1304,
      "ents": 1305,
      "ман": 1306,
      "исто": 1307,
      "коно": 1308,
      "ty": 1309,
      "they": 1310,
      "ход": 1311,
      "ited": 1312,
      "лове": 1313,
      "тро": 1314,
      "тор": 1315,
      "ice": 1316,
      "ян": 1317,
      "стран": 1318,
      "зем": 1319,
      "It": 1320,
      "des": 1321,
      "thro": 1322,
      "произ": 1323,
      "рито": 1324,
      "была": 1325,
      "ском": 1326,
      "angu": 1327,
      "зыва": 1328,
      "лько": 1329,
      "196": 1330,
      "arch": 1331,
      "слу": 1332,
      "cess": 1333,
      "объ": 1334,
      "яб": 1335,
      "вание": 1336,
      "ics": 1337,
      "рус": 1338,
      "ors": 1339,
      "насе": 1340,
      "includ": 1341,
      "some": 1342,
      "свя": 1343,
      "прави": 1344,
      "fin": 1345,
      "ance": 1346,
      "ari": 1347,
      "челове": 1348,
      "жд": 1349,
      "сла": 1350,
      "Con": 1351,
      "min": 1352,
      "дол": 1353,
      "her": 1354,
      "my": 1355,
      "тра": 1356,
      "террито": 1357,
      "cr": 1358,
      "вро": 1359,
      "цент": 1360,
      "ван": 1361,
      "ict": 1362,
      "коло": 1363,
      "ению": 1364,
      "между": 1365,
      "ern": 1366,
      "город": 1367,
      "use": 1368,
      "полу": 1369,
      "прав": 1370,
      "reg": 1371,
      "тия": 1372,
      "име": 1373,
      "ied": 1374,
      "ark": 1375,
      "ским": 1376,
      "пад": 1377,
      "образо": 1378,
      "рь": 1379,
      "ron": 1380,
      "время": 1381,
      "bec": 1382,
      "ubl": 1383,
      "ite": 1384,
      "лек": 1385,
      "Ве": 1386,
      "каза": 1387,
      "жение": 1388,
      "main": 1389,
      "год": 1390,
      "ний": 1391,
      "ugh": 1392,
      "нд": 1393,
      "only": 1394,
      "кой": 1395,
      "sub": 1396,
      "пера": 1397,
      "them": 1398,
      "ists": 1399,
      "War": 1400,
      "миче": 1401,
      "Ко": 1402,
      "ена": 1403,
      "bas": 1404,
      "vi": 1405,
      "нима": 1406,
      "kn": 1407,
      "ular": 1408,
      "ens": 1409,
      "цион": 1410,
      "16": 1411,
      "ve": 1412,
      "two": 1413,
      "фа": 1414,
      "ury": 1415,
      "vel": 1416,
      "ium": 1417,
      "клю": 1418,
      "ep": 1419,
      "000": 1420,
      "кла": 1421,
      "langu": 1422,
      "други": 1423,
      "after": 1424,
      "ску": 1425,
      "sc": 1426,
      "ta": 1427,
      "пло": 1428,
      "work": 1429,
      "many": 1430,
      "12": 1431,
      "een": 1432,
      "цы": 1433,
      "ific": 1434,
      "Ли": 1435,
      "uro": 1436,
      "вать": 1437,
      "бур": 1438,
      "und": 1439,
      "At": 1440,
      "num": 1441,
      "Евро": 1442,
      "ника": 1443,
      "сов": 1444,
      "емы": 1445,
      "old": 1446,
      "197": 1447,
      "вая": 1448,
      "les": 1449,
      "тре": 1450,
      "would": 1451,
      "mon": 1452,
      "Бо": 1453,
      "time": 1454,
      "ject": 1455,
      "Се": 1456,
      "14": 1457,
      "обла": 1458,
      "исполь": 1459,
      "prov": 1460,
      "лет": 1461,
      "air": 1462,
      "органи": 1463,
      "восто": 1464,
      "lex": 1465,
      "ings": 1466,
      "рон": 1467,
      "кры": 1468,
      "поло": 1469,
      "reat": 1470,
      "реди": 1471,
      "преде": 1472,
      "которо": 1473,
      "част": 1474,
      "Se": 1475,
      "ue": 1476,
      "воен": 1477,
      "iss": 1478,
      "outh": 1479,
      "ade": 1480,
      "br": 1481,
      "30": 1482,
      "Пе": 1483,
      "рия": 1484,
      "ily": 1485,
      "met": 1486,
      "части": 1487,
      "gy": 1488,
      "ities": 1489,
      "American": 1490,
      "жения": 1491,
      "тр": 1492,
      "med": 1493,
      "192": 1494,
      "ages": 1495,
      "Apol": 1496,
      "ince": 1497,
      "ood": 1498,
      "loc": 1499,
      "Ки": 1500,
      "тали": 1501,
      "отно": 1502,
      "чен": 1503,
      "under": 1504,
      "разви": 1505,
      "является": 1506,
      "циона": 1507,
      "led": 1508,
      "ual": 1509,
      "pop": 1510,
      "though": 1511,
      "him": 1512,
      "ене": 1513,
      "no": 1514,
      "Гер": 1515,
      "сред": 1516,
      "stem": 1517,
      "dif": 1518,
      "ese": 1519,
      "betw": 1520,
      "мини": 1521,
      "between": 1522,
      "Ма": 1523,
      "века": 1524,
      "ural": 1525,
      "осно": 1526,
      "This": 1527,
      "ry": 1528,
      "we": 1529,
      "Apollo": 1530,
      "ath": 1531,
      "fore": 1532,
      "лов": 1533,
      "тий": 1534,
      "gan": 1535,
      "ок": 1536,
      "cur": 1537,
      "ae": 1538,
      "рез": 1539,
      "али": 1540,
      "Не": 1541,
      "tain": 1542,
      "совет": 1543,
      "soci": 1544,
      "язы": 1545,
      "red": 1546,
      "ём": 1547,
      "ress": 1548,
      "state": 1549,
      "публи": 1550,
      "century": 1551,
      "зя": 1552,
      "которые": 1553,
      "50": 1554,
      "ted": 1555,
      "ered": 1556,
      "new": 1557,
      "orth": 1558,
      "13": 1559,
      "ative": 1560,
      "вос": 1561,
      "мар": 1562,
      "when": 1563,
      "Бе": 1564,
      "них": 1565,
      "Ре": 1566,
      "стве": 1567,
      "countr": 1568,
      "лич": 1569,
      "эконо": 1570,
      "may": 1571,
      "sl": 1572,
      "тем": 1573,
      "времен": 1574,
      "ана": 1575,
      "off": 1576,
      "eral": 1577,
      "about": 1578,
      "char": 1579,
      "ник": 1580,
      "ians": 1581,
      "stru": 1582,
      "do": 1583,
      "ution": 1584,
      "ton": 1585,
      "car": 1586,
      "where": 1587,
      "юще": 1588,
      "стан": 1589,
      "ору": 1590,
      "Но": 1591,
      "ating": 1592,
      "war": 1593,
      "тери": 1594,
      "цию": 1595,
      "cond": 1596,
      "вор": 1597,
      "writ": 1598,
      "поль": 1599,
      "190": 1600,
      "ext": 1601,
      "serv": 1602,
      "ond": 1603,
      "ban": 1604,
      "fe": 1605,
      "ude": 1606,
      "che": 1607,
      "дом": 1608,
      "предста": 1609,
      "ал": 1610,
      "set": 1611,
      "known": 1612,
      "found": 1613,
      "urn": 1614,
      "они": 1615,
      "cted": 1616,
      "води": 1617,
      "тур": 1618,
      "тера": 1619,
      "well": 1620,
      "Па": 1621,
      "ться": 1622,
      "суще": 1623,
      "inv": 1624,
      "грани": 1625,
      "ms": 1626,
      "графи": 1627,
      "Ми": 1628,
      "бри": 1629,
      "present": 1630,
      "during": 1631,
      "гда": 1632,
      "sur": 1633,
      "dr": 1634,
      "ys": 1635,
      "тельно": 1636,
      "ivers": 1637,
      "скую": 1638,
      "осу": 1639,
      "ized": 1640,
      "ase": 1641,
      "круп": 1642,
      "созда": 1643,
      "Вели": 1644,
      "high": 1645,
      "ек": 1646,
      "народ": 1647,
      "пор": 1648,
      "through": 1649,
      "ures": 1650,
      "ann": 1651,
      "населения": 1652,
      "вый": 1653,
      "years": 1654,
      "рав": 1655,
      "cord": 1656,
      "доро": 1657,
      "един": 1658,
      "vis": 1659,
      "Лени": 1660,
      "нако": 1661,
      "куль": 1662,
      "которых": 1663,
      "De": 1664,
      "войны": 1665,
      "system": 1666,
      "ября": 1667,
      "11": 1668,
      "ward": 1669,
      "ople": 1670,
      "волю": 1671,
      "overn": 1672,
      "way": 1673,
      "чение": 1674,
      "ологи": 1675,
      "inst": 1676,
      "lish": 1677,
      "193": 1678,
      "спор": 1679,
      "oh": 1680,
      "мл": 1681,
      "писа": 1682,
      "Герма": 1683,
      "Wh": 1684,
      "fect": 1685,
      "ander": 1686,
      "fam": 1687,
      "ose": 1688,
      "авто": 1689,
      "ause": 1690,
      "dire": 1691,
      "national": 1692,
      "сты": 1693,
      "распо": 1694,
      "правитель": 1695,
      "Re": 1696,
      "лан": 1697,
      "while": 1698,
      "call": 1699,
      "Мос": 1700,
      "ено": 1701,
      "ческих": 1702,
      "ically": 1703,
      "ublic": 1704,
      "ild": 1705,
      "Arab": 1706,
      "действи": 1707,
      "lin": 1708,
      "ких": 1709,
      "ake": 1710,
      "group": 1711,
      "приня": 1712,
      "ью": 1713,
      "then": 1714,
      "including": 1715,
      "вого": 1716,
      "станов": 1717,
      "вали": 1718,
      "ию": 1719,
      "dep": 1720,
      "тру": 1721,
      "тек": 1722,
      "ix": 1723,
      "Ра": 1724,
      "velop": 1725,
      "тан": 1726,
      "cy": 1727,
      "Ни": 1728,
      "ссий": 1729,
      "gest": 1730,
      "vari": 1731,
      "лли": 1732,
      "рай": 1733,
      "ollow": 1734,
      "мас": 1735,
      "ology": 1736,
      "ai": 1737,
      "эк": 1738,
      "atic": 1739,
      "тура": 1740,
      "En": 1741,
      "само": 1742,
      "ющих": 1743,
      "Моск": 1744,
      "эле": 1745,
      "государствен": 1746,
      "ций": 1747,
      "Alex": 1748,
      "ah": 1749,
      "рован": 1750,
      "дви": 1751,
      "develop": 1752,
      "stud": 1753,
      "peri": 1754,
      "world": 1755,
      "лия": 1756,
      "there": 1757,
      "trans": 1758,
      "стре": 1759,
      "ters": 1760,
      "ёт": 1761,
      "счи": 1762,
      "alk": 1763,
      "ger": 1764,
      "sup": 1765,
      "cho": 1766,
      "ids": 1767,
      "ступ": 1768,
      "её": 1769,
      "chn": 1770,
      "ug": 1771,
      "того": 1772,
      "leg": 1773,
      "вели": 1774,
      "пери": 1775,
      "dist": 1776,
      "часть": 1777,
      "цу": 1778,
      "телей": 1779,
      "Ap": 1780,
      "только": 1781,
      "эти": 1782,
      "обо": 1783,
      "около": 1784,
      "ship": 1785,
      "sk": 1786,
      "rap": 1787,
      "территории": 1788,
      "owever": 1789,
      "ят": 1790,
      "ature": 1791,
      "ife": 1792,
      "сса": 1793,
      "льно": 1794,
      "льта": 1795,
      "Euro": 1796,
      "ually": 1797,
      "рев": 1798,
      "cept": 1799,
      "пример": 1800,
      "россий": 1801,
      "United": 1802,
      "these": 1803,
      "лиги": 1804,
      "стру": 1805,
      "нию": 1806,
      "наз": 1807,
      "ident": 1808,
      "21": 1809,
      "состоя": 1810,
      "Brit": 1811,
      "par": 1812,
      "anim": 1813,
      "нее": 1814,
      "Ру": 1815,
      "арми": 1816,
      "ster": 1817,
      "дова": 1818,
      "early": 1819,
      "ons": 1820,
      "тех": 1821,
      "Фран": 1822,
      "мор": 1823,
      "22": 1824,
      "оста": 1825,
      "cap": 1826,
      "later": 1827,
      "day": 1828,
      "ie": 1829,
      "основ": 1830,
      "человек": 1831,
      "составля": 1832,
      "ческие": 1833,
      "Ang": 1834,
      "зации": 1835,
      "both": 1836,
      "For": 1837,
      "Pro": 1838,
      "til": 1839,
      "govern": 1840,
      "ful": 1841,
      "него": 1842,
      "appe": 1843,
      "Ac": 1844,
      "hist": 1845,
      "Ви": 1846,
      "кан": 1847,
      "Gree": 1848,
      "спубли": 1849,
      "чно": 1850,
      "над": 1851,
      "ников": 1852,
      "play": 1853,
      "On": 1854,
      "pers": 1855,
      "uc": 1856,
      "Вла": 1857,
      "гре": 1858,
      "ost": 1859,
      "груп": 1860,
      "форма": 1861,
      "States": 1862,
      "мени": 1863,
      "eng": 1864,
      "мира": 1865,
      "Europe": 1866,
      "bel": 1867,
      "cover": 1868,
      "шо": 1869,
      "рак": 1870,
      "против": 1871,
      "igin": 1872,
      "illion": 1873,
      "ством": 1874,
      "amp": 1875,
      "mov": 1876,
      "ments": 1877,
      "зульта": 1878,
      "follow": 1879,
      "шей": 1880,
      "And": 1881,
      "револю": 1882,
      "мир": 1883,
      "соци": 1884,
      "195": 1885,
      "тран": 1886,
      "sim": 1887,
      "rol": 1888,
      "ностью": 1889,
      "шая": 1890,
      "exam": 1891,
      "Com": 1892,
      "фу": 1893,
      "New": 1894,
      "nam": 1895,
      "нк": 1896,
      "социаль": 1897,
      "people": 1898,
      "ческой": 1899,
      "186": 1900,
      "ники": 1901,
      "differ": 1902,
      "Ph": 1903,
      "мыш": 1904,
      "льных": 1905,
      "место": 1906,
      "dom": 1907,
      "being": 1908,
      "cient": 1909,
      "three": 1910,
      "became": 1911,
      "number": 1912,
      "Мо": 1913,
      "лез": 1914,
      "very": 1915,
      "км": 1916,
      "Пос": 1917,
      "результа": 1918,
      "ющие": 1919,
      "cer": 1920,
      "лин": 1921,
      "Lin": 1922,
      "мно": 1923,
      "цен": 1924,
      "thern": 1925,
      "Влади": 1926,
      "бер": 1927,
      "держа": 1928,
      "опреде": 1929,
      "ask": 1930,
      "udi": 1931,
      "contin": 1932,
      "больши": 1933,
      "ise": 1934,
      "let": 1935,
      "ars": 1936,
      "вест": 1937,
      "made": 1938,
      "Or": 1939,
      "ёр": 1940,
      "ulation": 1941,
      "Поль": 1942,
      "значи": 1943,
      "sm": 1944,
      "вра": 1945,
      "ложен": 1946,
      "сою": 1947,
      "ement": 1948,
      "туры": 1949,
      "called": 1950,
      "ail": 1951,
      "cour": 1952,
      "stit": 1953,
      "зави": 1954,
      "теле": 1955,
      "imes": 1956,
      "sol": 1957,
      "cult": 1958,
      "ост": 1959,
      "bit": 1960,
      "собо": 1961,
      "Совет": 1962,
      "Joh": 1963,
      "bu": 1964,
      "origin": 1965,
      "Le": 1966,
      "личе": 1967,
      "iver": 1968,
      "techn": 1969,
      "jor": 1970,
      "Са": 1971,
      "жда": 1972,
      "spec": 1973,
      "Алек": 1974,
      "кро": 1975,
      "сно": 1976,
      "страны": 1977,
      "ss": 1978,
      "истори": 1979,
      "яви": 1980,
      "ур": 1981,
      "теля": 1982,
      "высо": 1983,
      "ived": 1984,
      "тербур": 1985,
      "религи": 1986,
      "add": 1987,
      "тыс": 1988,
      "hum": 1989,
      "рой": 1990,
      "вое": 1991,
      "ответ": 1992,
      "Alexander": 1993,
      "ад": 1994,
      "consid": 1995,
      "шения": 1996,
      "III": 1997,
      "Пет": 1998,
      "тин": 1999,
      "based": 2000,
      "Пер": 2001,
      "мест": 2002,
      "sign": 2003,
      "нием": 2004,
      "политиче": 2005,
      "зма": 2006,
      "обра": 2007,
      "charac": 2008,
      "less": 2009,
      "шение": 2010,
      "cri": 2011,
      "chang": 2012,
      "йской": 2013,
      "сли": 2014,
      "чем": 2015,
      "бере": 2016,
      "мышлен": 2017,
      "del": 2018,
      "фо": 2019,
      "ях": 2020,
      "ены": 2021,
      "often": 2022,
      "long": 2023,
      "uch": 2024,
      "25": 2025,
      "order": 2026,
      "поз": 2027,
      "cial": 2028,
      "iel": 2029,
      "гли": 2030,
      "зова": 2031,
      "direct": 2032,
      "ат": 2033,
      "лом": 2034,
      "уни": 2035,
      "ins": 2036,
      "elf": 2037,
      "тыся": 2038,
      "войска": 2039,
      "ible": 2040,
      "fact": 2041,
      "pow": 2042,
      "ali": 2043,
      "country": 2044,
      "Arabic": 2045,
      "ral": 2046,
      "кого": 2047,
      "ences": 2048,
      "каб": 2049,
      "ilos": 2050,
      "вым": 2051,
      "откры": 2052,
      "partic": 2053,
      "ds": 2054,
      "Си": 2055,
      "больше": 2056,
      "depend": 2057,
      "зависи": 2058,
      "строй": 2059,
      "Петербур": 2060,
      "Sp": 2061,
      "емо": 2062,
      "чения": 2063,
      "ock": 2064,
      "гер": 2065,
      "ilosop": 2066,
      "Sh": 2067,
      "languages": 2068,
      "dam": 2069,
      "Об": 2070,
      "кня": 2071,
      "лага": 2072,
      "hol": 2073,
      "open": 2074,
      "bed": 2075,
      "bro": 2076,
      "лён": 2077,
      "ilit": 2078,
      "like": 2079,
      "млн": 2080,
      "aster": 2081,
      "верси": 2082,
      "После": 2083,
      "city": 2084,
      "Итали": 2085,
      "ую": 2086,
      "arm": 2087,
      "систе": 2088,
      "coln": 2089,
      "Север": 2090,
      "Lincoln": 2091,
      "хра": 2092,
      "струк": 2093,
      "water": 2094,
      "До": 2095,
      "реги": 2096,
      "sever": 2097,
      "uss": 2098,
      "flu": 2099,
      "por": 2100,
      "оке": 2101,
      "уров": 2102,
      "разде": 2103,
      "тора": 2104,
      "через": 2105,
      "простран": 2106,
      "ember": 2107,
      "west": 2108,
      "гово": 2109,
      "John": 2110,
      "Сан": 2111,
      "чной": 2112,
      "ants": 2113,
      "major": 2114,
      "ble": 2115,
      "ale": 2116,
      "гов": 2117,
      "льные": 2118,
      "dec": 2119,
      "обе": 2120,
      "строи": 2121,
      "ному": 2122,
      "кола": 2123,
      "hel": 2124,
      "град": 2125,
      "turn": 2126,
      "называ": 2127,
      "ститу": 2128,
      "извест": 2129,
      "цев": 2130,
      "иссле": 2131,
      "bers": 2132,
      "Ме": 2133,
      "зм": 2134,
      "ствова": 2135,
      "BC": 2136,
      "North": 2137,
      "iev": 2138,
      "нови": 2139,
      "кор": 2140,
      "мая": 2141,
      "промышлен": 2142,
      "стов": 2143,
      "хов": 2144,
      "мента": 2145,
      "послед": 2146,
      "Egy": 2147,
      "нейши": 2148,
      "тя": 2149,
      "four": 2150,
      "Го": 2151,
      "неско": 2152,
      "second": 2153,
      "экономиче": 2154,
      "Про": 2155,
      "requ": 2156,
      "миро": 2157,
      "elect": 2158,
      "British": 2159,
      "вклю": 2160,
      "alg": 2161,
      "mer": 2162,
      "Та": 2163,
      "национа": 2164,
      "ca": 2165,
      "language": 2166,
      "fed": 2167,
      "inn": 2168,
      "Ин": 2169,
      "лё": 2170,
      "ives": 2171,
      "again": 2172,
      "Egypt": 2173,
      "could": 2174,
      "lect": 2175,
      "Ан": 2176,
      "находи": 2177,
      "arg": 2178,
      "кие": 2179,
      "view": 2180,
      "iter": 2181,
      "moder": 2182,
      "ктро": 2183,
      "lim": 2184,
      "incre": 2185,
      "той": 2186,
      "тии": 2187,
      "ческий": 2188,
      "хозя": 2189,
      "Apple": 2190,
      "зан": 2191,
      "Восто": 2192,
      "conom": 2193,
      "23": 2194,
      "vent": 2195,
      "ash": 2196,
      "ках": 2197,
      "ility": 2198,
      "сист": 2199,
      "ru": 2200,
      "class": 2201,
      "счита": 2202,
      "aid": 2203,
      "result": 2204,
      "который": 2205,
      "effect": 2206,
      "Wor": 2207,
      "zer": 2208,
      "влен": 2209,
      "ety": 2210,
      "право": 2211,
      "iversity": 2212,
      "Ар": 2213,
      "Ленин": 2214,
      "24": 2215,
      "include": 2216,
      "now": 2217,
      "Од": 2218,
      "неме": 2219,
      "архи": 2220,
      "возмож": 2221,
      "Ear": 2222,
      "oth": 2223,
      "ждан": 2224,
      "мон": 2225,
      "before": 2226,
      "производ": 2227,
      "mot": 2228,
      "щё": 2229,
      "этом": 2230,
      "XI": 2231,
      "each": 2232,
      "скими": 2233,
      "tern": 2234,
      "площа": 2235,
      "government": 2236,
      "remain": 2237,
      "вших": 2238,
      "других": 2239,
      "back": 2240,
      "stand": 2241,
      "ared": 2242,
      "exp": 2243,
      "кресть": 2244,
      "Atl": 2245,
      "app": 2246,
      "Col": 2247,
      "оди": 2248,
      "suc": 2249,
      "ively": 2250,
      "40": 2251,
      "since": 2252,
      "слен": 2253,
      "aced": 2254,
      "ряд": 2255,
      "может": 2256,
      "Алекса": 2257,
      "az": 2258,
      "современ": 2259,
      "Ind": 2260,
      "смо": 2261,
      "енно": 2262,
      "согла": 2263,
      "Так": 2264,
      "глав": 2265,
      "small": 2266,
      "член": 2267,
      "ization": 2268,
      "хозяй": 2269,
      "bl": 2270,
      "ting": 2271,
      "тен": 2272,
      "million": 2273,
      "tem": 2274,
      "цо": 2275,
      "запад": 2276,
      "ax": 2277,
      "son": 2278,
      "жиз": 2279,
      "способ": 2280,
      "control": 2281,
      "льный": 2282,
      "ley": 2283,
      "come": 2284,
      "aking": 2285,
      "Union": 2286,
      "large": 2287,
      "точ": 2288,
      "ute": 2289,
      "получи": 2290,
      "population": 2291,
      "example": 2292,
      "read": 2293,
      "кисло": 2294,
      "тели": 2295,
      "ствует": 2296,
      "because": 2297,
      "name": 2298,
      "ходит": 2299,
      "государства": 2300,
      "jan": 2301,
      "mark": 2302,
      "дея": 2303,
      "ograp": 2304,
      "several": 2305,
      "ides": 2306,
      "equ": 2307,
      "много": 2308,
      "льной": 2309,
      "ляр": 2310,
      "ished": 2311,
      "власти": 2312,
      "Велико": 2313,
      "modern": 2314,
      "дву": 2315,
      "ческого": 2316,
      "Александ": 2317,
      "Cl": 2318,
      "non": 2319,
      "ick": 2320,
      "vers": 2321,
      "всех": 2322,
      "дия": 2323,
      "ama": 2324,
      "ional": 2325,
      "сель": 2326,
      "mp": 2327,
      "indu": 2328,
      "ord": 2329,
      "life": 2330,
      "оне": 2331,
      "ёл": 2332,
      "lead": 2333,
      "Eng": 2334,
      "Ger": 2335,
      "io": 2336,
      "кри": 2337,
      "количе": 2338,
      "годах": 2339,
      "aft": 2340,
      "ital": 2341,
      "resp": 2342,
      "этого": 2343,
      "Европе": 2344,
      "cording": 2345,
      "inste": 2346,
      "Greek": 2347,
      "Ag": 2348,
      "go": 2349,
      "наи": 2350,
      "ним": 2351,
      "polit": 2352,
      "сторо": 2353,
      "харак": 2354,
      "men": 2355,
      "ез": 2356,
      "ablish": 2357,
      "вета": 2358,
      "мери": 2359,
      "among": 2360,
      "They": 2361,
      "форми": 2362,
      "ious": 2363,
      "states": 2364,
      "рей": 2365,
      "Angol": 2366,
      "жён": 2367,
      "тие": 2368,
      "import": 2369,
      "However": 2370,
      "усло": 2371,
      "нин": 2372,
      "каче": 2373,
      "ществ": 2374,
      "trad": 2375,
      "Alban": 2376,
      "Боль": 2377,
      "окру": 2378,
      "Все": 2379,
      "гене": 2380,
      "establish": 2381,
      "щая": 2382,
      "Да": 2383,
      "around": 2384,
      "gener": 2385,
      "different": 2386,
      "меня": 2387,
      "struct": 2388,
      "organ": 2389,
      "комп": 2390,
      "iqu": 2391,
      "нами": 2392,
      "ivil": 2393,
      "person": 2394,
      "офи": 2395,
      "без": 2396,
      "clo": 2397,
      "val": 2398,
      "ased": 2399,
      "period": 2400,
      "Jap": 2401,
      "нем": 2402,
      "using": 2403,
      "ided": 2404,
      "Ex": 2405,
      "рома": 2406,
      "line": 2407,
      "годов": 2408,
      "кий": 2409,
      "мет": 2410,
      "ственно": 2411,
      "транспор": 2412,
      "dro": 2413,
      "ven": 2414,
      "Ку": 2415,
      "уже": 2416,
      "oper": 2417,
      "вший": 2418,
      "XV": 2419,
      "использу": 2420,
      "шта": 2421,
      "цией": 2422,
      "ждения": 2423,
      "результате": 2424,
      "aim": 2425,
      "econom": 2426,
      "онов": 2427,
      "кол": 2428,
      "тей": 2429,
      "проис": 2430,
      "will": 2431,
      "ав": 2432,
      "глу": 2433,
      "oman": 2434,
      "стал": 2435,
      "Госу": 2436,
      "itch": 2437,
      "вшие": 2438,
      "вается": 2439,
      "poss": 2440,
      "support": 2441,
      "жной": 2442,
      "There": 2443,
      "Санкт": 2444,
      "bod": 2445,
      "бра": 2446,
      "мето": 2447,
      "отде": 2448,
      "немец": 2449,
      "saw": 2450,
      "Су": 2451,
      "помо": 2452,
      "ким": 2453,
      "descri": 2454,
      "брита": 2455,
      "Великобрита": 2456,
      "Japan": 2457,
      "rad": 2458,
      "human": 2459,
      "тысяч": 2460,
      "вар": 2461,
      "contr": 2462,
      "atom": 2463,
      "веро": 2464,
      "числен": 2465,
      "Afric": 2466,
      "Германии": 2467,
      "public": 2468,
      "same": 2469,
      "вает": 2470,
      "ками": 2471,
      "нет": 2472,
      "chool": 2473,
      "Кон": 2474,
      "ради": 2475,
      "ref": 2476,
      "alt": 2477,
      "мент": 2478,
      "мень": 2479,
      "press": 2480,
      "West": 2481,
      "дь": 2482,
      "поч": 2483,
      "кар": 2484,
      "бор": 2485,
      "istic": 2486,
      "US": 2487,
      "скому": 2488,
      "призна": 2489,
      "philosop": 2490,
      "Вол": 2491,
      "министра": 2492,
      "fic": 2493,
      "дости": 2494,
      "until": 2495,
      "2010": 2496,
      "ired": 2497,
      "ющий": 2498,
      "полити": 2499,
      "sterdam": 2500,
      "South": 2501,
      "декаб": 2502,
      "желез": 2503,
      "многи": 2504,
      "success": 2505,
      "нах": 2506,
      "Amsterdam": 2507,
      "space": 2508,
      "Warhol": 2509,
      "сс": 2510,
      "ху": 2511,
      "различ": 2512,
      "расположен": 2513,
      "ik": 2514,
      "nor": 2515,
      "Из": 2516,
      "influ": 2517,
      "литера": 2518,
      "тами": 2519,
      "considered": 2520,
      "Государ": 2521,
      "aut": 2522,
      "вал": 2523,
      "even": 2524,
      "Sch": 2525,
      "кси": 2526,
      "соответ": 2527,
      "числе": 2528,
      "включа": 2529,
      "Azer": 2530,
      "ier": 2531,
      "death": 2532,
      "term": 2533,
      "Audi": 2534,
      "Fran": 2535,
      "bor": 2536,
      "где": 2537,
      "those": 2538,
      "рая": 2539,
      "ilar": 2540,
      "University": 2541,
      "largest": 2542,
      "feder": 2543,
      "фрон": 2544,
      "например": 2545,
      "stat": 2546,
      "мире": 2547,
      "меча": 2548,
      "gram": 2549,
      "World": 2550,
      "уча": 2551,
      "ival": 2552,
      "ended": 2553,
      "Gen": 2554,
      "mb": 2555,
      "Ва": 2556,
      "Мин": 2557,
      "вне": 2558,
      "занима": 2559,
      "период": 2560,
      "Де": 2561,
      "allow": 2562,
      "ступа": 2563,
      "80": 2564,
      "дии": 2565,
      "янва": 2566,
      "Ro": 2567,
      "enn": 2568,
      "другие": 2569,
      "189": 2570,
      "городе": 2571,
      "family": 2572,
      "character": 2573,
      "26": 2574,
      "bai": 2575,
      "div": 2576,
      "ещё": 2577,
      "шего": 2578,
      "mar": 2579,
      "прия": 2580,
      "point": 2581,
      "Azerbai": 2582,
      "Azerbaijan": 2583,
      "вс": 2584,
      "formed": 2585,
      "much": 2586,
      "опера": 2587,
      "ane": 2588,
      "коми": 2589,
      "ческая": 2590,
      "ственной": 2591,
      "являются": 2592,
      "ходя": 2593,
      "строитель": 2594,
      "имо": 2595,
      "рий": 2596,
      "milit": 2597,
      "ья": 2598,
      "милли": 2599,
      "miss": 2600,
      "Га": 2601,
      "коман": 2602,
      "iving": 2603,
      "грам": 2604,
      "due": 2605,
      "common": 2606,
      "100": 2607,
      "di": 2608,
      "фер": 2609,
      "дук": 2610,
      "product": 2611,
      "king": 2612,
      "la": 2613,
      "Это": 2614,
      "коро": 2615,
      "нау": 2616,
      "направ": 2617,
      "республи": 2618,
      "arr": 2619,
      "ental": 2620,
      "вич": 2621,
      "виде": 2622,
      "Alask": 2623,
      "Запад": 2624,
      "crit": 2625,
      "vol": 2626,
      "есть": 2627,
      "Afgh": 2628,
      "power": 2629,
      "самы": 2630,
      "After": 2631,
      "Ad": 2632,
      "Tur": 2633,
      "ately": 2634,
      "head": 2635,
      "abort": 2636,
      "lands": 2637,
      "commun": 2638,
      "typ": 2639,
      "Bell": 2640,
      "мов": 2641,
      "широ": 2642,
      "2011": 2643,
      "did": 2644,
      "СШ": 2645,
      "зей": 2646,
      "refer": 2647,
      "against": 2648,
      "распростран": 2649,
      "Be": 2650,
      "Ги": 2651,
      "окт": 2652,
      "хва": 2653,
      "хран": 2654,
      "row": 2655,
      "США": 2656,
      "уда": 2657,
      "Ach": 2658,
      "mus": 2659,
      "цер": 2660,
      "льного": 2661,
      "месте": 2662,
      "27": 2663,
      "els": 2664,
      "action": 2665,
      "Confeder": 2666,
      "craft": 2667,
      "острова": 2668,
      "By": 2669,
      "side": 2670,
      "тон": 2671,
      "проце": 2672,
      "общи": 2673,
      "Inter": 2674,
      "оз": 2675,
      "ремен": 2676,
      "ведения": 2677,
      "represent": 2678,
      "ices": 2679,
      "сков": 2680,
      "работ": 2681,
      "шли": 2682,
      "метро": 2683,
      "defin": 2684,
      "области": 2685,
      "ox": 2686,
      "лении": 2687,
      "случа": 2688,
      "щения": 2689,
      "вом": 2690,
      "aving": 2691,
      "твер": 2692,
      "ье": 2693,
      "пара": 2694,
      "каз": 2695,
      "mean": 2696,
      "международ": 2697,
      "которой": 2698,
      "версите": 2699,
      "вну": 2700,
      "когда": 2701,
      "Gr": 2702,
      "mem": 2703,
      "Гре": 2704,
      "зация": 2705,
      "astron": 2706,
      "зависимо": 2707,
      "tic": 2708,
      "бле": 2709,
      "istan": 2710,
      "союз": 2711,
      "Mar": 2712,
      "law": 2713,
      "чу": 2714,
      "оборо": 2715,
      "similar": 2716,
      "uary": 2717,
      "столи": 2718,
      "60": 2719,
      "Вы": 2720,
      "нитель": 2721,
      "itions": 2722,
      "сперан": 2723,
      "28": 2724,
      "yl": 2725,
      "ories": 2726,
      "доста": 2727,
      "анали": 2728,
      "astero": 2729,
      "Afghan": 2730,
      "фран": 2731,
      "ases": 2732,
      "продол": 2733,
      "bre": 2734,
      "управ": 2735,
      "эта": 2736,
      "выше": 2737,
      "area": 2738,
      "2012": 2739,
      "услови": 2740,
      "oil": 2741,
      "стей": 2742,
      "pect": 2743,
      "всего": 2744,
      "Can": 2745,
      "Some": 2746,
      "rest": 2747,
      "along": 2748,
      "omet": 2749,
      "within": 2750,
      "Alber": 2751,
      "работа": 2752,
      "ющей": 2753,
      "Никола": 2754,
      "continu": 2755,
      "несколько": 2756,
      "влия": 2757,
      "ality": 2758,
      "bi": 2759,
      "ck": 2760,
      "хот": 2761,
      "годы": 2762,
      "лиш": 2763,
      "strong": 2764,
      "attle": 2765,
      "production": 2766,
      "alth": 2767,
      "acy": 2768,
      "свобо": 2769,
      "Лит": 2770,
      "den": 2771,
      "great": 2772,
      "put": 2773,
      "Бу": 2774,
      "ген": 2775,
      "ением": 2776,
      "show": 2777,
      "ize": 2778,
      "состав": 2779,
      "Asia": 2780,
      "море": 2781,
      "2009": 2782,
      "auth": 2783,
      "Владивосто": 2784,
      "Петро": 2785,
      "Pe": 2786,
      "gre": 2787,
      "Цент": 2788,
      "ино": 2789,
      "sequ": 2790,
      "конце": 2791,
      "tele": 2792,
      "ield": 2793,
      "Alaska": 2794,
      "тных": 2795,
      "ень": 2796,
      "ised": 2797,
      "сей": 2798,
      "быть": 2799,
      "1990": 2800,
      "можно": 2801,
      "cle": 2802,
      "sing": 2803,
      "Фе": 2804,
      "апре": 2805,
      "1917": 2806,
      "мона": 2807,
      "интер": 2808,
      "импе": 2809,
      "Бело": 2810,
      "mat": 2811,
      "tro": 2812,
      "ina": 2813,
      "науч": 2814,
      "граждан": 2815,
      "импера": 2816,
      "архитек": 2817,
      "AS": 2818,
      "iet": 2819,
      "низ": 2820,
      "кая": 2821,
      "таль": 2822,
      "кам": 2823,
      "ified": 2824,
      "зии": 2825,
      "contain": 2826,
      "долж": 2827,
      "армии": 2828,
      "Бал": 2829,
      "сент": 2830,
      "вопро": 2831,
      "see": 2832,
      "образова": 2833,
      "деятель": 2834,
      "нения": 2835,
      "стали": 2836,
      "ards": 2837,
      "первые": 2838,
      "лением": 2839,
      "70": 2840,
      "датель": 2841,
      "дели": 2842,
      "began": 2843,
      "начале": 2844,
      "29": 2845,
      "Бер": 2846,
      "бла": 2847,
      "руко": 2848,
      "appro": 2849,
      "polog": 2850,
      "Ге": 2851,
      "olv": 2852,
      "what": 2853,
      "offic": 2854,
      "функ": 2855,
      "Ба": 2856,
      "фак": 2857,
      "orith": 2858,
      "дела": 2859,
      "pha": 2860,
      "Arist": 2861,
      "однако": 2862,
      "евро": 2863,
      "These": 2864,
      "Однако": 2865,
      "Car": 2866,
      "Ge": 2867,
      "His": 2868,
      "Лон": 2869,
      "thod": 2870,
      "пас": 2871,
      "wards": 2872,
      "Earth": 2873,
      "ather": 2874,
      "pat": 2875,
      "яв": 2876,
      "стри": 2877,
      "нан": 2878,
      "rench": 2879,
      "цуз": 2880,
      "Крас": 2881,
      "гло": 2882,
      "два": 2883,
      "ню": 2884,
      "чных": 2885,
      "гор": 2886,
      "ross": 2887,
      "обы": 2888,
      "iven": 2889,
      "сут": 2890,
      "2014": 2891,
      "grap": 2892,
      "Her": 2893,
      "двор": 2894,
      "чь": 2895,
      "тео": 2896,
      "ets": 2897,
      "Сою": 2898,
      "экономи": 2899,
      "Ново": 2900,
      "значитель": 2901,
      "Cent": 2902,
      "mag": 2903,
      "self": 2904,
      "tle": 2905,
      "ске": 2906,
      "среди": 2907,
      "ales": 2908,
      "льная": 2909,
      "pract": 2910,
      "1991": 2911,
      "posed": 2912,
      "крестьян": 2913,
      "face": 2914,
      "test": 2915,
      "Ста": 2916,
      "заня": 2917,
      "доб": 2918,
      "ссии": 2919,
      "Италии": 2920,
      "bal": 2921,
      "emp": 2922,
      "particular": 2923,
      "last": 2924,
      "дро": 2925,
      "мой": 2926,
      "сер": 2927,
      "relig": 2928,
      "Angola": 2929,
      "sch": 2930,
      "личи": 2931,
      "omen": 2932,
      "которая": 2933,
      "верх": 2934,
      "National": 2935,
      "fun": 2936,
      "tal": 2937,
      "Пре": 2938,
      "ara": 2939,
      "продук": 2940,
      "antic": 2941,
      "book": 2942,
      "scri": 2943,
      "Ne": 2944,
      "Pr": 2945,
      "Russ": 2946,
      "Roman": 2947,
      "ones": 2948,
      "short": 2949,
      "вза": 2950,
      "outhern": 2951,
      "ently": 2952,
      "2000": 2953,
      "собствен": 2954,
      "various": 2955,
      "ially": 2956,
      "Ти": 2957,
      "гру": 2958,
      "др": 2959,
      "участ": 2960,
      "вов": 2961,
      "матери": 2962,
      "Alab": 2963,
      "grow": 2964,
      "Br": 2965,
      "French": 2966,
      "особ": 2967,
      "эсперан": 2968,
      "моря": 2969,
      "большо": 2970,
      "films": 2971,
      "design": 2972,
      "Aristot": 2973,
      "East": 2974,
      "she": 2975,
      "Ле": 2976,
      "нер": 2977,
      "bet": 2978,
      "general": 2979,
      "чер": 2980,
      "инте": 2981,
      "формирова": 2982,
      "авгу": 2983,
      "Cong": 2984,
      "hal": 2985,
      "стер": 2986,
      "Российской": 2987,
      "восста": 2988,
      "название": 2989,
      "системы": 2990,
      "fr": 2991,
      "independ": 2992,
      "сом": 2993,
      "изи": 2994,
      "claim": 2995,
      "следу": 2996,
      "переда": 2997,
      "2008": 2998,
      "object": 2999,
      "rist": 3000,
      "мина": 3001,
      "щих": 3002,
      "instein": 3003,
      "Лондо": 3004,
      "eth": 3005,
      "раство": 3006,
      "chem": 3007,
      "университе": 3008,
      "один": 3009,
      "Alabama": 3010,
      "Par": 3011,
      "bur": 3012,
      "lat": 3013,
      "матри": 3014,
      "мене": 3015,
      "2013": 3016,
      "2016": 3017,
      "thropolog": 3018,
      "культур": 3019,
      "ling": 3020,
      "nat": 3021,
      "ness": 3022,
      "ines": 3023,
      "обходи": 3024,
      "имеет": 3025,
      "Bo": 3026,
      "Hist": 3027,
      "light": 3028,
      "publ": 3029,
      "бал": 3030,
      "компа": 3031,
      "начала": 3032,
      "химиче": 3033,
      "Кали": 3034,
      "Einstein": 3035,
      "cock": 3036,
      "Вер": 3037,
      "дво": 3038,
      "sky": 3039,
      "following": 3040,
      "German": 3041,
      "мета": 3042,
      "process": 3043,
      "кур": 3044,
      "prim": 3045,
      "степ": 3046,
      "court": 3047,
      "Tr": 3048,
      "рам": 3049,
      "model": 3050,
      "plic": 3051,
      "works": 3052,
      "времени": 3053,
      "связи": 3054,
      "Европы": 3055,
      "school": 3056,
      "acid": 3057,
      "program": 3058,
      "Alger": 3059,
      "власть": 3060,
      "English": 3061,
      "hau": 3062,
      "нь": 3063,
      "ями": 3064,
      "ony": 3065,
      "2007": 3066,
      "company": 3067,
      "developed": 3068,
      "позво": 3069,
      "important": 3070,
      "декабря": 3071,
      "Mo": 3072,
      "east": 3073,
      "van": 3074,
      "воды": 3075,
      "urther": 3076,
      "мят": 3077,
      "Acade": 3078,
      "species": 3079,
      "Rep": 3080,
      "муни": 3081,
      "ological": 3082,
      "few": 3083,
      "phys": 3084,
      "European": 3085,
      "жизни": 3086,
      "Hitch": 3087,
      "сре": 3088,
      "report": 3089,
      "arian": 3090,
      "кус": 3091,
      "Россия": 3092,
      "тически": 3093,
      "Франции": 3094,
      "signific": 3095,
      "body": 3096,
      "hand": 3097,
      "lab": 3098,
      "дра": 3099,
      "постро": 3100,
      "ason": 3101,
      "plan": 3102,
      "Anim": 3103,
      "бира": 3104,
      "occur": 3105,
      "состави": 3106,
      "пон": 3107,
      "тографи": 3108,
      "uses": 3109,
      "empt": 3110,
      "every": 3111,
      "составляет": 3112,
      "качестве": 3113,
      "ibut": 3114,
      "имен": 3115,
      "рода": 3116,
      "assi": 3117,
      "двух": 3118,
      "military": 3119,
      "Emp": 3120,
      "Go": 3121,
      "ues": 3122,
      "сме": 3123,
      "still": 3124,
      "сол": 3125,
      "1918": 3126,
      "ходе": 3127,
      "центра": 3128,
      "history": 3129,
      "north": 3130,
      "сни": 3131,
      "пут": 3132,
      "forms": 3133,
      "change": 3134,
      "jo": 3135,
      "вен": 3136,
      "хе": 3137,
      "ata": 3138,
      "демо": 3139,
      "cially": 3140,
      "шее": 3141,
      "большеви": 3142,
      "наиболее": 3143,
      "стороны": 3144,
      "официаль": 3145,
      "Hitchcock": 3146,
      "cop": 3147,
      "ped": 3148,
      "Исто": 3149,
      "Ос": 3150,
      "erv": 3151,
      "потре": 3152,
      "2020": 3153,
      "series": 3154,
      "использо": 3155,
      "popular": 3156,
      "труд": 3157,
      "система": 3158,
      "января": 3159,
      "35": 3160,
      "Au": 3161,
      "just": 3162,
      "Для": 3163,
      "Ро": 3164,
      "ined": 3165,
      "issu": 3166,
      "собы": 3167,
      "веке": 3168,
      "вид": 3169,
      "ably": 3170,
      "illes": 3171,
      "ступи": 3172,
      "discover": 3173,
      "political": 3174,
      "Ber": 3175,
      "спи": 3176,
      "необходи": 3177,
      "usually": 3178,
      "ability": 3179,
      "ights": 3180,
      "человека": 3181,
      "When": 3182,
      "генера": 3183,
      "древ": 3184,
      "rece": 3185,
      "попу": 3186,
      "ристи": 3187,
      "rote": 3188,
      "тар": 3189,
      "объек": 3190,
      "июня": 3191,
      "XIX": 3192,
      "Agassi": 3193,
      "nov": 3194,
      "Мар": 3195,
      "кру": 3196,
      "нам": 3197,
      "каж": 3198,
      "слав": 3199,
      "которого": 3200,
      "study": 3201,
      "tradition": 3202,
      "pass": 3203,
      "То": 3204,
      "шен": 3205,
      "дина": 3206,
      "territ": 3207,
      "proble": 3208,
      "loy": 3209,
      "электро": 3210,
      "XX": 3211,
      "пря": 3212,
      "сматри": 3213,
      "фев": 3214,
      "although": 3215,
      "важ": 3216,
      "child": 3217,
      "dest": 3218,
      "ument": 3219,
      "контро": 3220,
      "curren": 3221,
      "During": 3222,
      "Kuro": 3223,
      "cul": 3224,
      "itic": 3225,
      "top": 3226,
      "став": 3227,
      "ples": 3228,
      "word": 3229,
      "2015": 3230,
      "держи": 3231,
      "едини": 3232,
      "Sea": 3233,
      "countries": 3234,
      "исследова": 3235,
      "pur": 3236,
      "лки": 3237,
      "хрома": 3238,
      "шу": 3239,
      "либо": 3240,
      "деся": 3241,
      "ames": 3242,
      "хода": 3243,
      "ranch": 3244,
      "histor": 3245,
      "большин": 3246,
      "лишь": 3247,
      "script": 3248,
      "Aristotle": 3249,
      "make": 3250,
      "Ла": 3251,
      "Те": 3252,
      "дера": 3253,
      "могу": 3254,
      "2017": 3255,
      "Christ": 3256,
      "обеспе": 3257,
      "империи": 3258,
      "Republic": 3259,
      "Kurosaw": 3260,
      "Med": 3261,
      "нци": 3262,
      "ork": 3263,
      "проек": 3264,
      "север": 3265,
      "place": 3266,
      "прак": 3267,
      "одно": 3268,
      "Congress": 3269,
      "Kurosawa": 3270,
      "ged": 3271,
      "ниче": 3272,
      "представи": 3273,
      "algorith": 3274,
      "Ab": 3275,
      "Is": 3276,
      "pot": 3277,
      "ouse": 3278,
      "ither": 3279,
      "1941": 3280,
      "зер": 3281,
      "кое": 3282,
      "веще": 3283,
      "принима": 3284,
      "няя": 3285,
      "America": 3286,
      "мировой": 3287,
      "Academy": 3288,
      "остро": 3289,
      "казыва": 3290,
      "дования": 3291,
      "часто": 3292,
      "щее": 3293,
      "данным": 3294,
      "революции": 3295,
      "said": 3296,
      "rese": 3297,
      "пада": 3298,
      "method": 3299,
      "собой": 3300,
      "abortion": 3301,
      "Empire": 3302,
      "ографи": 3303,
      "ших": 3304,
      "анти": 3305,
      "актив": 3306,
      "искус": 3307,
      "established": 3308,
      "near": 3309,
      "south": 3310,
      "щение": 3311,
      "return": 3312,
      "пози": 3313,
      "измен": 3314,
      "ственных": 3315,
      "ствии": 3316,
      "included": 3317,
      "care": 3318,
      "wrote": 3319,
      "цар": 3320,
      "там": 3321,
      "def": 3322,
      "этому": 3323,
      "осуществ": 3324,
      "openhau": 3325,
      "mit": 3326,
      "гро": 3327,
      "дди": 3328,
      "чёт": 3329,
      "anarch": 3330,
      "капи": 3331,
      "мин": 3332,
      "зов": 3333,
      "groups": 3334,
      "Andor": 3335,
      "Также": 3336,
      "Schopenhau": 3337,
      "Калинин": 3338,
      "начи": 3339,
      "лав": 3340,
      "содержа": 3341,
      "prof": 3342,
      "одной": 3343,
      "земе": 3344,
      "француз": 3345,
      "late": 3346,
      "кана": 3347,
      "стала": 3348,
      "ots": 3349,
      "hydro": 3350,
      "author": 3351,
      "кологи": 3352,
      "пода": 3353,
      "ung": 3354,
      "полови": 3355,
      "social": 3356,
      "alkali": 3357,
      "администра": 3358,
      "Coun": 3359,
      "cing": 3360,
      "mass": 3361,
      "vir": 3362,
      "yn": 3363,
      "водо": 3364,
      "took": 3365,
      "мия": 3366,
      "соз": 3367,
      "ivity": 3368,
      "разме": 3369,
      "сам": 3370,
      "ogn": 3371,
      "краи": 3372,
      "марта": 3373,
      "герман": 3374,
      "Schopenhauer": 3375,
      "pri": 3376,
      "мь": 3377,
      "agric": 3378,
      "ственного": 3379,
      "истории": 3380,
      "region": 3381,
      "According": 3382,
      "Achilles": 3383,
      "ft": 3384,
      "oto": 3385,
      "установ": 3386,
      "голо": 3387,
      "моби": 3388,
      "ird": 3389,
      "2006": 3390,
      "observ": 3391,
      "written": 3392,
      "храни": 3393,
      "Alberta": 3394,
      "agricult": 3395,
      "Pol": 3396,
      "tit": 3397,
      "Среди": 3398,
      "ули": 3399,
      "start": 3400,
      "нес": 3401,
      "2018": 3402,
      "comb": 3403,
      "крепо": 3404,
      "named": 3405,
      "build": 3406,
      "ometimes": 3407,
      "0s": 3408,
      "sen": 3409,
      "treat": 3410,
      "xim": 3411,
      "бя": 3412,
      "inci": 3413,
      "cience": 3414,
      "информа": 3415,
      "источ": 3416,
      "cut": 3417,
      "mater": 3418,
      "дж": 3419,
      "нией": 3420,
      "associ": 3421,
      "proper": 3422,
      "ственный": 3423,
      "ogle": 3424,
      "Albania": 3425,
      "five": 3426,
      "ius": 3427,
      "mult": 3428,
      "rang": 3429,
      "кви": 3430,
      "тно": 3431,
      "готов": 3432,
      "2005": 3433,
      "губер": 3434,
      "развития": 3435,
      "Республи": 3436,
      "ways": 3437,
      "массо": 3438,
      "взаимо": 3439,
      "King": 3440,
      "lack": 3441,
      "роль": 3442,
      "rele": 3443,
      "настоя": 3444,
      "соедин": 3445,
      "пей": 3446,
      "formation": 3447,
      "York": 3448,
      "pen": 3449,
      "theory": 3450,
      "веден": 3451,
      "Петербург": 3452,
      "Canad": 3453,
      "significant": 3454,
      "case": 3455,
      "god": 3456,
      "liter": 3457,
      "times": 3458,
      "фло": 3459,
      "цей": 3460,
      "ноября": 3461,
      "sty": 3462,
      "espe": 3463,
      "руб": 3464,
      "выс": 3465,
      "туре": 3466,
      "sug": 3467,
      "войск": 3468,
      "этот": 3469,
      "ствуют": 3470,
      "правительства": 3471,
      "июля": 3472,
      "величи": 3473,
      "So": 3474,
      "cal": 3475,
      "camp": 3476,
      "ёх": 3477,
      "наб": 3478,
      "level": 3479,
      "вести": 3480,
      "188": 3481,
      "ured": 3482,
      "lower": 3483,
      "этих": 3484,
      "International": 3485,
      "down": 3486,
      "чный": 3487,
      "ision": 3488,
      "olution": 3489,
      "become": 3490,
      "position": 3491,
      "key": 3492,
      "feat": 3493,
      "75": 3494,
      "cogn": 3495,
      "fish": 3496,
      "sour": 3497,
      "anal": 3498,
      "мии": 3499,
      "beg": 3500,
      "действия": 3501,
      "оказа": 3502,
      "ination": 3503,
      "ancient": 3504,
      "rodu": 3505,
      "тах": 3506,
      "2021": 3507,
      "une": 3508,
      "емых": 3509,
      "использова": 3510,
      "cause": 3511,
      "field": 3512,
      "lor": 3513,
      "СН": 3514,
      "Свя": 3515,
      "назна": 3516,
      "диа": 3517,
      "проти": 3518,
      "себя": 3519,
      "without": 3520,
      "placed": 3521,
      "All": 3522,
      "introdu": 3523,
      "могут": 3524,
      "чё": 3525,
      "anthropolog": 3526,
      "посе": 3527,
      "areas": 3528,
      "друго": 3529,
      "общества": 3530,
      "облада": 3531,
      "февра": 3532,
      "mic": 3533,
      "бло": 3534,
      "реки": 3535,
      "показа": 3536,
      "даль": 3537,
      "тики": 3538,
      "ential": 3539,
      "выде": 3540,
      "produced": 3541,
      "образования": 3542,
      "graph": 3543,
      "Ju": 3544,
      "sometimes": 3545,
      "another": 3546,
      "нологи": 3547,
      "тай": 3548,
      "дет": 3549,
      "програм": 3550,
      "ads": 3551,
      "vision": 3552,
      "One": 3553,
      "home": 3554,
      "вол": 3555,
      "aces": 3556,
      "amb": 3557,
      "возгла": 3558,
      "related": 3559,
      "трен": 3560,
      "представля": 3561,
      "Afghanistan": 3562,
      "Централь": 3563,
      "33": 3564,
      "ze": 3565,
      "лений": 3566,
      "force": 3567,
      "umen": 3568,
      "формы": 3569,
      "образом": 3570,
      "оружён": 3571,
      "октября": 3572,
      "сентября": 3573,
      "Google": 3574,
      "90": 3575,
      "wn": 3576,
      "Че": 3577,
      "окон": 3578,
      "появи": 3579,
      "ток": 3580,
      "left": 3581,
      "син": 3582,
      "городов": 3583,
      "основа": 3584,
      "Москве": 3585,
      "mission": 3586,
      "Новороссий": 3587,
      "sal": 3588,
      "Би": 3589,
      "рд": 3590,
      "reach": 3591,
      "ush": 3592,
      "idence": 3593,
      "suf": 3594,
      "exist": 3595,
      "лена": 3596,
      "фици": 3597,
      "believ": 3598,
      "Other": 3599,
      "bon": 3600,
      "having": 3601,
      "жении": 3602,
      "кли": 3603,
      "record": 3604,
      "заклю": 3605,
      "чей": 3606,
      "изда": 3607,
      "2019": 3608,
      "ops": 3609,
      "ствие": 3610,
      "учре": 3611,
      "Africa": 3612,
      "gu": 3613,
      "шко": 3614,
      "пов": 3615,
      "защи": 3616,
      "Anat": 3617,
      "этой": 3618,
      "ющим": 3619,
      "партии": 3620,
      "относи": 3621,
      "development": 3622,
      "находится": 3623,
      "менее": 3624,
      "cot": 3625,
      "given": 3626,
      "tak": 3627,
      "пя": 3628,
      "свой": 3629,
      "ivid": 3630,
      "тых": 3631,
      "ried": 3632,
      "need": 3633,
      "предприя": 3634,
      "type": 3635,
      "служи": 3636,
      "отнош": 3637,
      "почти": 3638,
      "however": 3639,
      "пои": 3640,
      "вода": 3641,
      "вобо": 3642,
      "лон": 3643,
      "1920": 3644,
      "Великобритании": 3645,
      "especially": 3646,
      "Anatol": 3647,
      "Mon": 3648,
      "Will": 3649,
      "rul": 3650,
      "ston": 3651,
      "ites": 3652,
      "микро": 3653,
      "веща": 3654,
      "Рус": 3655,
      "iatic": 3656,
      "десь": 3657,
      "мамон": 3658,
      "след": 3659,
      "рабочи": 3660,
      "земли": 3661,
      "iction": 3662,
      "правительство": 3663,
      "Atlantic": 3664,
      "эсперанто": 3665,
      "Mus": 3666,
      "nal": 3667,
      "Му": 3668,
      "init": 3669,
      "лев": 3670,
      "стату": 3671,
      "ously": 3672,
      "вян": 3673,
      "стоян": 3674,
      "земле": 3675,
      "крупнейши": 3676,
      "stitution": 3677,
      "stitute": 3678,
      "океана": 3679,
      "противо": 3680,
      "Ed": 3681,
      "cil": 3682,
      "ps": 3683,
      "°C": 3684,
      "Аф": 3685,
      "ene": 3686,
      "вают": 3687,
      "вались": 3688,
      "основе": 3689,
      "others": 3690,
      "площади": 3691,
      "ham": 3692,
      "sent": 3693,
      "кни": 3694,
      "льное": 3695,
      "ington": 3696,
      "ланд": 3697,
      "зако": 3698,
      "щие": 3699,
      "words": 3700,
      "тради": 3701,
      "tax": 3702,
      "addition": 3703,
      "natural": 3704,
      "Основ": 3705,
      "Pers": 3706,
      "жная": 3707,
      "нению": 3708,
      "сня": 3709,
      "decl": 3710,
      "Согла": 3711,
      "ification": 3712,
      "members": 3713,
      "suggest": 3714,
      "Apr": 3715,
      "sold": 3716,
      "wide": 3717,
      "сор": 3718,
      "диви": 3719,
      "борь": 3720,
      "termin": 3721,
      "exper": 3722,
      "useum": 3723,
      "ography": 3724,
      "апреля": 3725,
      "published": 3726,
      "April": 3727,
      "Me": 3728,
      "Per": 3729,
      "thus": 3730,
      "reed": 3731,
      "ats": 3732,
      "imp": 3733,
      "unch": 3734,
      "180": 3735,
      "former": 3736,
      "ждение": 3737,
      "религиоз": 3738,
      "Japanese": 3739,
      "встре": 3740,
      "ющая": 3741,
      "redu": 3742,
      "ator": 3743,
      "вари": 3744,
      "ilt": 3745,
      "лян": 3746,
      "свою": 3747,
      "ground": 3748,
      "minist": 3749,
      "августа": 3750,
      "far": 3751,
      "enced": 3752,
      "шин": 3753,
      "будди": 3754,
      "aceae": 3755,
      "центр": 3756,
      "ваться": 3757,
      "local": 3758,
      "While": 3759,
      "группы": 3760,
      "material": 3761,
      "Кро": 3762,
      "вшая": 3763,
      "ergy": 3764,
      "real": 3765,
      "рек": 3766,
      "реаль": 3767,
      "зали": 3768,
      "середи": 3769,
      "idd": 3770,
      "estim": 3771,
      "день": 3772,
      "собра": 3773,
      "attempt": 3774,
      "48": 3775,
      "Sov": 3776,
      "bir": 3777,
      "free": 3778,
      "get": 3779,
      "uter": 3780,
      "Ду": 3781,
      "ths": 3782,
      "воль": 3783,
      "ison": 3784,
      "2022": 3785,
      "aged": 3786,
      "aff": 3787,
      "1945": 3788,
      "final": 3789,
      "systems": 3790,
      "Many": 3791,
      "Ри": 3792,
      "вшей": 3793,
      "оче": 3794,
      "era": 3795,
      "alpha": 3796,
      "реб": 3797,
      "held": 3798,
      "чего": 3799,
      "сил": 3800,
      "бора": 3801,
      "чтобы": 3802,
      "evolution": 3803,
      "relat": 3804,
      "music": 3805,
      "Soviet": 3806,
      "500": 3807,
      "Aug": 3808,
      "making": 3809,
      "РС": 3810,
      "пли": 3811,
      "физи": 3812,
      "вин": 3813,
      "central": 3814,
      "metals": 3815,
      "темпера": 3816,
      "techniqu": 3817,
      "хроматографи": 3818,
      "Nov": 3819,
      "Pat": 3820,
      "oot": 3821,
      "ограни": 3822,
      "устрой": 3823,
      "чная": 3824,
      "нару": 3825,
      "лича": 3826,
      "даже": 3827,
      "руется": 3828,
      "проводи": 3829,
      "ляет": 3830,
      "ountain": 3831,
      "187": 3832,
      "ственные": 3833,
      "earli": 3834,
      "creen": 3835,
      "uba": 3836,
      "объедин": 3837,
      "ющего": 3838,
      "animation": 3839,
      "either": 3840,
      "ner": 3841,
      "aries": 3842,
      "побе": 3843,
      "лами": 3844,
      "пробле": 3845,
      "живо": 3846,
      "May": 3847,
      "Pl": 3848,
      "civil": 3849,
      "ris": 3850,
      "утвер": 3851,
      "шую": 3852,
      "лирова": 3853,
      "закон": 3854,
      "затем": 3855,
      "separ": 3856,
      "станови": 3857,
      "государств": 3858,
      "производи": 3859,
      "Москов": 3860,
      "помощ": 3861,
      "радио": 3862,
      "Сред": 3863,
      "шла": 3864,
      "законо": 3865,
      "цин": 3866,
      "чин": 3867,
      "фика": 3868,
      "spok": 3869,
      "individ": 3870,
      "вую": 3871,
      "организации": 3872,
      "Виль": 3873,
      "Egyptian": 3874,
      "демокра": 3875,
      "whe": 3876,
      "От": 3877,
      "оны": 3878,
      "тика": 3879,
      "comple": 3880,
      "специаль": 3881,
      "relation": 3882,
      "территори": 3883,
      "involv": 3884,
      "moved": 3885,
      "July": 3886,
      "farm": 3887,
      "чные": 3888,
      "educ": 3889,
      "вала": 3890,
      "век": 3891,
      "мом": 3892,
      "dev": 3893,
      "права": 3894,
      "подписа": 3895,
      "езд": 3896,
      "Turk": 3897,
      "fall": 3898,
      "run": 3899,
      "лле": 3900,
      "решение": 3901,
      "захва": 3902,
      "чеб": 3903,
      "ческое": 3904,
      "памят": 3905,
      "пута": 3906,
      "произо": 3907,
      "located": 3908,
      "алисти": 3909,
      "мерикан": 3910,
      "ферен": 3911,
      "Geor": 3912,
      "ties": 3913,
      "Пи": 3914,
      "Украи": 3915,
      "thes": 3916,
      "жества": 3917,
      "лены": 3918,
      "Although": 3919,
      "178": 3920,
      "event": 3921,
      "interest": 3922,
      "tail": 3923,
      "количество": 3924,
      "branch": 3925,
      "ief": 3926,
      "ux": 3927,
      "иде": 3928,
      "участи": 3929,
      "эро": 3930,
      "торов": 3931,
      "itive": 3932,
      "ements": 3933,
      "ays": 3934,
      "crew": 3935,
      "coast": 3936,
      "struction": 3937,
      "surface": 3938,
      "certain": 3939,
      "иностран": 3940,
      "August": 3941,
      "Фин": 3942,
      "orn": 3943,
      "means": 3944,
      "colon": 3945,
      "торго": 3946,
      "тальян": 3947,
      "Браз": 3948,
      "atin": 3949,
      "stre": 3950,
      "ССР": 3951,
      "испол": 3952,
      "Миха": 3953,
      "culture": 3954,
      "respond": 3955,
      "СНГ": 3956,
      "36": 3957,
      "ming": 3958,
      "ration": 3959,
      "вёр": 3960,
      "orbit": 3961,
      "воро": 3962,
      "roas": 3963,
      "heav": 3964,
      "terms": 3965,
      "прези": 3966,
      "185": 3967,
      "should": 3968,
      "своей": 3969,
      "ходят": 3970,
      "appear": 3971,
      "original": 3972,
      "Atlas": 3973,
      "General": 3974,
      "Греции": 3975,
      "ему": 3976,
      "жден": 3977,
      "нор": 3978,
      "кора": 3979,
      "поме": 3980,
      "теа": 3981,
      "течение": 3982,
      "некоторых": 3983,
      "сили": 3984,
      "возник": 3985,
      "образу": 3986,
      "capital": 3987,
      "domin": 3988,
      "current": 3989,
      "spoken": 3990,
      "31": 3991,
      "Ma": 3992,
      "бел": 3993,
      "2004": 3994,
      "inning": 3995,
      "транспорт": 3996,
      "внеш": 3997,
      "roasiatic": 3998,
      "Civil": 3999
    },
    "merges": [
      [
        "t",
        "h"
      ],
      [
        "i",
        "n"
      ],
      [
        "a",
        "n"
      ],
      [
        "с",
        "т"
      ],
      [
        "e",
        "r"
      ],
      [
        "th",
        "e"
      ],
      [
        "o",
        "n"
      ],
      [
        "е",
        "н"
      ],
      [
        "р",
        "а"
      ],
      [
        "н",
        "о"
      ],
      [
        "р",
        "о"
      ],
      [
        "r",
        "e"
      ],
      [
        "a",
        "t"
      ],
      [
        "к",
        "о"
      ],
      [
        "н",
        "а"
      ],
      [
        "a",
        "l"
      ],
      [
        "e",
        "n"
      ],
      [
        "e",
        "d"
      ],
      [
        "г",
        "о"
      ],
      [
        "o",
        "r"
      ],
      [
        "s",
        "t"
      ],
      [
        "р",
        "е"
      ],
      [
        "a",
        "r"
      ],
      [
        "o",
        "f"
      ],
      [
        "п",
        "о"
      ],
      [
        "л",
        "и"
      ],
      [
        "в",
        "о"
      ],
      [
        "an",
        "d"
      ],
      [
        "н",
        "ы"
      ],
      [
        "e",
        "s"
      ],
      [
        "н",
        "и"
      ],
      [
        "i",
        "s"
      ],
      [
        "л",
        "ь"
      ],
      [
        "т",
        "о"
      ],
      [
        "i",
        "c"
      ],
      [
        "a",
        "s"
      ],
      [
        "в",
        "а"
      ],
      [
        "i",
        "t"
      ],
      [
        "р",
        "и"
      ],
      [
        "i",
        "on"
      ],
      [
        "к",
        "а"
      ],
      [
        "t",
        "o"
      ],
      [
        "in",
        "g"
      ],
      [
        "л",
        "о"
      ],
      [
        "к",
        "и"
      ],
      [
        "т",
        "е"
      ],
      [
        "r",
        "o"
      ],
      [
        "д",
        "а"
      ],
      [
        "л",
        "а"
      ],
      [
        "ен",
        "и"
      ],
      [
        "м",
        "и"
      ],
      [
        "l",
        "e"
      ],
      [
        "с",
        "о"
      ],
      [
        "в",
        "е"
      ],
      [
        "н",
        "е"
      ],
      [
        "т",
        "а"
      ],
      [
        "o",
        "u"
      ],
      [
        "л",
        "е"
      ],
      [
        "т",
        "и"
      ],
      [
        "en",
        "t"
      ],
      [
        "з",
        "а"
      ],
      [
        "ц",
        "и"
      ],
      [
        "с",
        "ко"
      ],
      [
        "д",
        "о"
      ],
      [
        "h",
        "e"
      ],
      [
        "д",
        "е"
      ],
      [
        "i",
        "l"
      ],
      [
        "м",
        "е"
      ],
      [
        "ч",
        "е"
      ],
      [
        "a",
        "c"
      ],
      [
        "в",
        "и"
      ],
      [
        "o",
        "l"
      ],
      [
        "1",
        "9"
      ],
      [
        "o",
        "m"
      ],
      [
        "м",
        "а"
      ],
      [
        "р",
        "у"
      ],
      [
        "e",
        "l"
      ],
      [
        "с",
        "ки"
      ],
      [
        "с",
        "я"
      ],
      [
        "д",
        "и"
      ],
      [
        "м",
        "о"
      ],
      [
        "c",
        "h"
      ],
      [
        "с",
        "и"
      ],
      [
        "d",
        "e"
      ],
      [
        "п",
        "е"
      ],
      [
        "a",
        "m"
      ],
      [
        "п",
        "ро"
      ],
      [
        "о",
        "б"
      ],
      [
        "л",
        "я"
      ],
      [
        "s",
        "e"
      ],
      [
        "ст",
        "а"
      ],
      [
        "в",
        "ы"
      ],
      [
        "l",
        "y"
      ],
      [
        "b",
        "e"
      ],
      [
        "at",
        "ion"
      ],
      [
        "б",
        "о"
      ],
      [
        "i",
        "m"
      ],
      [
        "u",
        "r"
      ],
      [
        "f",
        "or"
      ],
      [
        "е",
        "т"
      ],
      [
        "i",
        "v"
      ],
      [
        "a",
        "d"
      ],
      [
        "с",
        "е"
      ],
      [
        "ст",
        "и"
      ],
      [
        "ч",
        "а"
      ],
      [
        "ст",
        "о"
      ],
      [
        "c",
        "t"
      ],
      [
        "п",
        "ри"
      ],
      [
        "о",
        "т"
      ],
      [
        "T",
        "he"
      ],
      [
        "и",
        "з"
      ],
      [
        "2",
        "0"
      ],
      [
        "ны",
        "х"
      ],
      [
        "д",
        "у"
      ],
      [
        "c",
        "on"
      ],
      [
        "u",
        "s"
      ],
      [
        "но",
        "й"
      ],
      [
        "б",
        "ы"
      ],
      [
        "t",
        "er"
      ],
      [
        "i",
        "d"
      ],
      [
        "i",
        "g"
      ],
      [
        "c",
        "e"
      ],
      [
        "п",
        "а"
      ],
      [
        "w",
        "h"
      ],
      [
        "u",
        "n"
      ],
      [
        "i",
        "th"
      ],
      [
        "ени",
        "я"
      ],
      [
        "a",
        "b"
      ],
      [
        "i",
        "r"
      ],
      [
        "г",
        "и"
      ],
      [
        "i",
        "st"
      ],
      [
        "u",
        "l"
      ],
      [
        "ч",
        "и"
      ],
      [
        "o",
        "w"
      ],
      [
        "о",
        "с"
      ],
      [
        "ра",
        "з"
      ],
      [
        "т",
        "ь"
      ],
      [
        "v",
        "er"
      ],
      [
        "ны",
        "е"
      ],
      [
        "a",
        "g"
      ],
      [
        "р",
        "ы"
      ],
      [
        "m",
        "o"
      ],
      [
        "w",
        "as"
      ],
      [
        "ени",
        "е"
      ],
      [
        "п",
        "ре"
      ],
      [
        "o",
        "p"
      ],
      [
        "a",
        "re"
      ],
      [
        "г",
        "а"
      ],
      [
        "ст",
        "в"
      ],
      [
        "х",
        "о"
      ],
      [
        "u",
        "t"
      ],
      [
        "b",
        "y"
      ],
      [
        "с",
        "а"
      ],
      [
        "w",
        "ith"
      ],
      [
        "er",
        "s"
      ],
      [
        "p",
        "ro"
      ],
      [
        "с",
        "ь"
      ],
      [
        "e",
        "t"
      ],
      [
        "e",
        "m"
      ],
      [
        "a",
        "p"
      ],
      [
        "но",
        "го"
      ],
      [
        "ж",
        "е"
      ],
      [
        "u",
        "m"
      ],
      [
        "th",
        "at"
      ],
      [
        "м",
        "ен"
      ],
      [
        "re",
        "s"
      ],
      [
        "те",
        "ль"
      ],
      [
        "o",
        "t"
      ],
      [
        "е",
        "р"
      ],
      [
        "ст",
        "ь"
      ],
      [
        "к",
        "у"
      ],
      [
        "ш",
        "и"
      ],
      [
        "ны",
        "й"
      ],
      [
        "т",
        "у"
      ],
      [
        "c",
        "om"
      ],
      [
        "a",
        "v"
      ],
      [
        "т",
        "ы"
      ],
      [
        "s",
        "u"
      ],
      [
        "th",
        "er"
      ],
      [
        "щ",
        "е"
      ],
      [
        "ско",
        "й"
      ],
      [
        "t",
        "r"
      ],
      [
        "м",
        "у"
      ],
      [
        "с",
        "у"
      ],
      [
        "a",
        "y"
      ],
      [
        "e",
        "x"
      ],
      [
        "e",
        "st"
      ],
      [
        "i",
        "es"
      ],
      [
        "I",
        "n"
      ],
      [
        "го",
        "да"
      ],
      [
        "p",
        "e"
      ],
      [
        "с",
        "ка"
      ],
      [
        "ст",
        "во"
      ],
      [
        "l",
        "o"
      ],
      [
        "ou",
        "n"
      ],
      [
        "о",
        "р"
      ],
      [
        "i",
        "f"
      ],
      [
        "a",
        "in"
      ],
      [
        "ro",
        "m"
      ],
      [
        "at",
        "e"
      ],
      [
        "ци",
        "и"
      ],
      [
        "h",
        "is"
      ],
      [
        "i",
        "an"
      ],
      [
        "р",
        "я"
      ],
      [
        "ра",
        "н"
      ],
      [
        "ю",
        "т"
      ],
      [
        "е",
        "м"
      ],
      [
        "во",
        "й"
      ],
      [
        "н",
        "у"
      ],
      [
        "п",
        "и"
      ],
      [
        "ни",
        "я"
      ],
      [
        "f",
        "rom"
      ],
      [
        "al",
        "l"
      ],
      [
        "на",
        "я"
      ],
      [
        "er",
        "e"
      ],
      [
        "щ",
        "и"
      ],
      [
        "s",
        "o"
      ],
      [
        "1",
        "8"
      ],
      [
        "ски",
        "й"
      ],
      [
        "ско",
        "го"
      ],
      [
        "г",
        "ра"
      ],
      [
        "o",
        "s"
      ],
      [
        "л",
        "у"
      ],
      [
        "0",
        "0"
      ],
      [
        "p",
        "l"
      ],
      [
        "c",
        "l"
      ],
      [
        "е",
        "й"
      ],
      [
        "an",
        "t"
      ],
      [
        "it",
        "y"
      ],
      [
        "н",
        "я"
      ],
      [
        "ar",
        "t"
      ],
      [
        "ко",
        "то"
      ],
      [
        "с",
        "по"
      ],
      [
        "a",
        "st"
      ],
      [
        "q",
        "u"
      ],
      [
        "ic",
        "al"
      ],
      [
        "а",
        "р"
      ],
      [
        "c",
        "i"
      ],
      [
        "и",
        "н"
      ],
      [
        "о",
        "н"
      ],
      [
        "л",
        "ен"
      ],
      [
        "o",
        "d"
      ],
      [
        "но",
        "в"
      ],
      [
        "п",
        "ра"
      ],
      [
        "ств",
        "ен"
      ],
      [
        "ж",
        "и"
      ],
      [
        "i",
        "a"
      ],
      [
        "ет",
        "ся"
      ],
      [
        "ic",
        "h"
      ],
      [
        "ст",
        "ва"
      ],
      [
        "с",
        "ле"
      ],
      [
        "u",
        "d"
      ],
      [
        "A",
        "l"
      ],
      [
        "б",
        "е"
      ],
      [
        "п",
        "у"
      ],
      [
        "p",
        "er"
      ],
      [
        "ве",
        "р"
      ],
      [
        "к",
        "е"
      ],
      [
        "p",
        "h"
      ],
      [
        "ро",
        "в"
      ],
      [
        "л",
        "ю"
      ],
      [
        "o",
        "g"
      ],
      [
        "or",
        "t"
      ],
      [
        "го",
        "ро"
      ],
      [
        "at",
        "ed"
      ],
      [
        "м",
        "ы"
      ],
      [
        "iv",
        "e"
      ],
      [
        "e",
        "ar"
      ],
      [
        "б",
        "а"
      ],
      [
        "го",
        "ду"
      ],
      [
        "A",
        "n"
      ],
      [
        "ко",
        "н"
      ],
      [
        "те",
        "р"
      ],
      [
        "по",
        "д"
      ],
      [
        "d",
        "u"
      ],
      [
        "l",
        "d"
      ],
      [
        "ф",
        "и"
      ],
      [
        "ски",
        "х"
      ],
      [
        "ны",
        "м"
      ],
      [
        "з",
        "о"
      ],
      [
        "es",
        "s"
      ],
      [
        "m",
        "ent"
      ],
      [
        "ро",
        "ва"
      ],
      [
        "il",
        "l"
      ],
      [
        "ни",
        "е"
      ],
      [
        "ac",
        "t"
      ],
      [
        "d",
        "er"
      ],
      [
        "r",
        "i"
      ],
      [
        "g",
        "h"
      ],
      [
        "в",
        "ля"
      ],
      [
        "ig",
        "h"
      ],
      [
        "is",
        "h"
      ],
      [
        "з",
        "и"
      ],
      [
        "ска",
        "я"
      ],
      [
        "s",
        "h"
      ],
      [
        "t",
        "e"
      ],
      [
        "wh",
        "ich"
      ],
      [
        "а",
        "н"
      ],
      [
        "a",
        "k"
      ],
      [
        "П",
        "о"
      ],
      [
        "С",
        "С"
      ],
      [
        "но",
        "е"
      ],
      [
        "ш",
        "е"
      ],
      [
        "m",
        "an"
      ],
      [
        "n",
        "e"
      ],
      [
        "б",
        "и"
      ],
      [
        "b",
        "er"
      ],
      [
        "A",
        "r"
      ],
      [
        "ar",
        "d"
      ],
      [
        "ски",
        "е"
      ],
      [
        "el",
        "l"
      ],
      [
        "з",
        "ы"
      ],
      [
        "w",
        "or"
      ],
      [
        "u",
        "re"
      ],
      [
        "ar",
        "y"
      ],
      [
        "то",
        "в"
      ],
      [
        "as",
        "s"
      ],
      [
        "ко",
        "в"
      ],
      [
        "p",
        "t"
      ],
      [
        "av",
        "e"
      ],
      [
        "on",
        "g"
      ],
      [
        "ц",
        "е"
      ],
      [
        "пе",
        "ре"
      ],
      [
        "д",
        "ы"
      ],
      [
        "an",
        "g"
      ],
      [
        "p",
        "r"
      ],
      [
        "20",
        "1"
      ],
      [
        "ou",
        "r"
      ],
      [
        "n",
        "ot"
      ],
      [
        "en",
        "d"
      ],
      [
        "а",
        "ль"
      ],
      [
        "o",
        "ver"
      ],
      [
        "б",
        "у"
      ],
      [
        "ou",
        "s"
      ],
      [
        "ч",
        "то"
      ],
      [
        "в",
        "ре"
      ],
      [
        "ion",
        "s"
      ],
      [
        "но",
        "сти"
      ],
      [
        "w",
        "ere"
      ],
      [
        "С",
        "о"
      ],
      [
        "та",
        "к"
      ],
      [
        "on",
        "e"
      ],
      [
        "но",
        "сть"
      ],
      [
        "ё",
        "н"
      ],
      [
        "st",
        "r"
      ],
      [
        "for",
        "m"
      ],
      [
        "a",
        "f"
      ],
      [
        "al",
        "ly"
      ],
      [
        "it",
        "s"
      ],
      [
        "20",
        "0"
      ],
      [
        "ра",
        "с"
      ],
      [
        "ст",
        "ра"
      ],
      [
        "с",
        "ло"
      ],
      [
        "ве",
        "т"
      ],
      [
        "r",
        "it"
      ],
      [
        "ст",
        "ро"
      ],
      [
        "з",
        "на"
      ],
      [
        "да",
        "р"
      ],
      [
        "л",
        "ения"
      ],
      [
        "ul",
        "t"
      ],
      [
        "д",
        "ля"
      ],
      [
        "u",
        "p"
      ],
      [
        "э",
        "то"
      ],
      [
        "com",
        "p"
      ],
      [
        "к",
        "т"
      ],
      [
        "пе",
        "р"
      ],
      [
        "1",
        "7"
      ],
      [
        "ж",
        "а"
      ],
      [
        "кото",
        "ры"
      ],
      [
        "e",
        "v"
      ],
      [
        "i",
        "re"
      ],
      [
        "ко",
        "м"
      ],
      [
        "i",
        "z"
      ],
      [
        "ка",
        "к"
      ],
      [
        "ци",
        "я"
      ],
      [
        "Н",
        "а"
      ],
      [
        "ou",
        "t"
      ],
      [
        "пре",
        "д"
      ],
      [
        "ен",
        "т"
      ],
      [
        "h",
        "ave"
      ],
      [
        "t",
        "w"
      ],
      [
        "p",
        "ol"
      ],
      [
        "b",
        "ut"
      ],
      [
        "an",
        "s"
      ],
      [
        "Р",
        "ос"
      ],
      [
        "in",
        "e"
      ],
      [
        "но",
        "м"
      ],
      [
        "во",
        "з"
      ],
      [
        "A",
        "m"
      ],
      [
        "о",
        "д"
      ],
      [
        "Рос",
        "си"
      ],
      [
        "ни",
        "и"
      ],
      [
        "c",
        "ent"
      ],
      [
        "о",
        "на"
      ],
      [
        "a",
        "u"
      ],
      [
        "ти",
        "че"
      ],
      [
        "ю",
        "щи"
      ],
      [
        "e",
        "ct"
      ],
      [
        "am",
        "e"
      ],
      [
        "g",
        "e"
      ],
      [
        "o",
        "c"
      ],
      [
        "t",
        "s"
      ],
      [
        "г",
        "ла"
      ],
      [
        "i",
        "al"
      ],
      [
        "en",
        "ce"
      ],
      [
        "и",
        "м"
      ],
      [
        "I",
        "I"
      ],
      [
        "al",
        "so"
      ],
      [
        "ли",
        "сь"
      ],
      [
        "ag",
        "e"
      ],
      [
        "ти",
        "в"
      ],
      [
        "h",
        "as"
      ],
      [
        "p",
        "ort"
      ],
      [
        "i",
        "p"
      ],
      [
        "а",
        "к"
      ],
      [
        "с",
        "си"
      ],
      [
        "c",
        "re"
      ],
      [
        "at",
        "es"
      ],
      [
        "o",
        "re"
      ],
      [
        "m",
        "e"
      ],
      [
        "u",
        "b"
      ],
      [
        "h",
        "ad"
      ],
      [
        "с",
        "пе"
      ],
      [
        "м",
        "я"
      ],
      [
        "o",
        "ther"
      ],
      [
        "и",
        "с"
      ],
      [
        "con",
        "t"
      ],
      [
        "в",
        "я"
      ],
      [
        "в",
        "се"
      ],
      [
        "ри",
        "и"
      ],
      [
        "U",
        "n"
      ],
      [
        "ш",
        "а"
      ],
      [
        "oun",
        "d"
      ],
      [
        "во",
        "д"
      ],
      [
        "om",
        "e"
      ],
      [
        "19",
        "9"
      ],
      [
        "и",
        "ли"
      ],
      [
        "ф",
        "ор"
      ],
      [
        "ст",
        "е"
      ],
      [
        "at",
        "er"
      ],
      [
        "ac",
        "e"
      ],
      [
        "е",
        "в"
      ],
      [
        "f",
        "er"
      ],
      [
        "i",
        "b"
      ],
      [
        "г",
        "у"
      ],
      [
        "В",
        "о"
      ],
      [
        "щ",
        "а"
      ],
      [
        "p",
        "re"
      ],
      [
        "p",
        "res"
      ],
      [
        "д",
        "ру"
      ],
      [
        "the",
        "ir"
      ],
      [
        "бо",
        "ль"
      ],
      [
        "a",
        "w"
      ],
      [
        "до",
        "в"
      ],
      [
        "не",
        "й"
      ],
      [
        "л",
        "ение"
      ],
      [
        "ло",
        "ги"
      ],
      [
        "хо",
        "ди"
      ],
      [
        "на",
        "ча"
      ],
      [
        "с",
        "во"
      ],
      [
        "ation",
        "s"
      ],
      [
        "ц",
        "а"
      ],
      [
        "e",
        "w"
      ],
      [
        "k",
        "s"
      ],
      [
        "p",
        "art"
      ],
      [
        "ну",
        "ю"
      ],
      [
        "re",
        "e"
      ],
      [
        "к",
        "ра"
      ],
      [
        "i",
        "de"
      ],
      [
        "ст",
        "у"
      ],
      [
        "or",
        "y"
      ],
      [
        "S",
        "t"
      ],
      [
        "ны",
        "ми"
      ],
      [
        "х",
        "и"
      ],
      [
        "об",
        "раз"
      ],
      [
        "el",
        "y"
      ],
      [
        "х",
        "а"
      ],
      [
        "з",
        "у"
      ],
      [
        "ре",
        "д"
      ],
      [
        "ou",
        "ld"
      ],
      [
        "ac",
        "h"
      ],
      [
        "го",
        "су"
      ],
      [
        "ра",
        "бо"
      ],
      [
        "ig",
        "n"
      ],
      [
        "ow",
        "n"
      ],
      [
        "in",
        "cl"
      ],
      [
        "госу",
        "дар"
      ],
      [
        "то",
        "м"
      ],
      [
        "л",
        "ы"
      ],
      [
        "со",
        "ста"
      ],
      [
        "ют",
        "ся"
      ],
      [
        "так",
        "же"
      ],
      [
        "b",
        "o"
      ],
      [
        "g",
        "r"
      ],
      [
        "us",
        "ed"
      ],
      [
        "l",
        "i"
      ],
      [
        "да",
        "н"
      ],
      [
        "д",
        "ен"
      ],
      [
        "s",
        "p"
      ],
      [
        "c",
        "ol"
      ],
      [
        "d",
        "is"
      ],
      [
        "f",
        "ir"
      ],
      [
        "igh",
        "t"
      ],
      [
        "ме",
        "р"
      ],
      [
        "бы",
        "л"
      ],
      [
        "mo",
        "st"
      ],
      [
        "o",
        "v"
      ],
      [
        "p",
        "le"
      ],
      [
        "К",
        "а"
      ],
      [
        "я",
        "вля"
      ],
      [
        "it",
        "ion"
      ],
      [
        "к",
        "ре"
      ],
      [
        "m",
        "a"
      ],
      [
        "ру",
        "п"
      ],
      [
        "ст",
        "ви"
      ],
      [
        "ct",
        "ion"
      ],
      [
        "s",
        "y"
      ],
      [
        "сто",
        "я"
      ],
      [
        "по",
        "ли"
      ],
      [
        "по",
        "сле"
      ],
      [
        "в",
        "ши"
      ],
      [
        "l",
        "and"
      ],
      [
        "c",
        "an"
      ],
      [
        "com",
        "m"
      ],
      [
        "C",
        "h"
      ],
      [
        "ab",
        "le"
      ],
      [
        "ло",
        "сь"
      ],
      [
        "б",
        "ли"
      ],
      [
        "im",
        "e"
      ],
      [
        "o",
        "b"
      ],
      [
        "ж",
        "ен"
      ],
      [
        "де",
        "й"
      ],
      [
        "ро",
        "д"
      ],
      [
        "ско",
        "е"
      ],
      [
        "т",
        "ся"
      ],
      [
        "ени",
        "и"
      ],
      [
        "со",
        "б"
      ],
      [
        "p",
        "os"
      ],
      [
        "ле",
        "е"
      ],
      [
        "c",
        "es"
      ],
      [
        "л",
        "ся"
      ],
      [
        "fir",
        "st"
      ],
      [
        "ств",
        "у"
      ],
      [
        "T",
        "h"
      ],
      [
        "g",
        "en"
      ],
      [
        "де",
        "р"
      ],
      [
        "е",
        "го"
      ],
      [
        "е",
        "ди"
      ],
      [
        "e",
        "f"
      ],
      [
        "wh",
        "o"
      ],
      [
        "С",
        "Р"
      ],
      [
        "1",
        "0"
      ],
      [
        "i",
        "le"
      ],
      [
        "c",
        "ed"
      ],
      [
        "r",
        "a"
      ],
      [
        "th",
        "is"
      ],
      [
        "s",
        "er"
      ],
      [
        "r",
        "an"
      ],
      [
        "г",
        "е"
      ],
      [
        "er",
        "ic"
      ],
      [
        "бы",
        "ли"
      ],
      [
        "l",
        "ow"
      ],
      [
        "in",
        "t"
      ],
      [
        "il",
        "m"
      ],
      [
        "19",
        "4"
      ],
      [
        "ac",
        "k"
      ],
      [
        "s",
        "pe"
      ],
      [
        "в",
        "то"
      ],
      [
        "k",
        "e"
      ],
      [
        "з",
        "да"
      ],
      [
        "c",
        "oun"
      ],
      [
        "ле",
        "й"
      ],
      [
        "с",
        "ы"
      ],
      [
        "ва",
        "ния"
      ],
      [
        "su",
        "ch"
      ],
      [
        "ро",
        "м"
      ],
      [
        "19",
        "8"
      ],
      [
        "p",
        "o"
      ],
      [
        "ени",
        "й"
      ],
      [
        "in",
        "d"
      ],
      [
        "mo",
        "re"
      ],
      [
        "об",
        "ще"
      ],
      [
        "g",
        "ro"
      ],
      [
        "т",
        "ри"
      ],
      [
        "be",
        "en"
      ],
      [
        "al",
        "s"
      ],
      [
        "ла",
        "сь"
      ],
      [
        "re",
        "n"
      ],
      [
        "y",
        "ear"
      ],
      [
        "па",
        "р"
      ],
      [
        "th",
        "an"
      ],
      [
        "горо",
        "да"
      ],
      [
        "Am",
        "eric"
      ],
      [
        "H",
        "e"
      ],
      [
        "A",
        "f"
      ],
      [
        "c",
        "or"
      ],
      [
        "h",
        "y"
      ],
      [
        "ор",
        "га"
      ],
      [
        "at",
        "t"
      ],
      [
        "у",
        "ч"
      ],
      [
        "pro",
        "du"
      ],
      [
        "o",
        "k"
      ],
      [
        "t",
        "en"
      ],
      [
        "по",
        "л"
      ],
      [
        "r",
        "ic"
      ],
      [
        "e",
        "le"
      ],
      [
        "мо",
        "ж"
      ],
      [
        "ation",
        "al"
      ],
      [
        "бо",
        "лее"
      ],
      [
        "п",
        "ла"
      ],
      [
        "и",
        "х"
      ],
      [
        "l",
        "ar"
      ],
      [
        "re",
        "l"
      ],
      [
        "ou",
        "gh"
      ],
      [
        "f",
        "l"
      ],
      [
        "П",
        "ри"
      ],
      [
        "is",
        "m"
      ],
      [
        "1",
        "5"
      ],
      [
        "ж",
        "ду"
      ],
      [
        "ur",
        "ing"
      ],
      [
        "бы",
        "ло"
      ],
      [
        "con",
        "s"
      ],
      [
        "СС",
        "СР"
      ],
      [
        "c",
        "o"
      ],
      [
        "в",
        "у"
      ],
      [
        "ф",
        "е"
      ],
      [
        "ци",
        "аль"
      ],
      [
        "u",
        "st"
      ],
      [
        "e",
        "ver"
      ],
      [
        "З",
        "а"
      ],
      [
        "вы",
        "е"
      ],
      [
        "A",
        "s"
      ],
      [
        "с",
        "к"
      ],
      [
        "in",
        "ter"
      ],
      [
        "вы",
        "х"
      ],
      [
        "ol",
        "og"
      ],
      [
        "з",
        "е"
      ],
      [
        "f",
        "ilm"
      ],
      [
        "ве",
        "д"
      ],
      [
        "и",
        "спо"
      ],
      [
        "in",
        "to"
      ],
      [
        "an",
        "y"
      ],
      [
        "Росси",
        "и"
      ],
      [
        "п",
        "ы"
      ],
      [
        "ра",
        "ль"
      ],
      [
        "в",
        "ла"
      ],
      [
        "ent",
        "s"
      ],
      [
        "ма",
        "н"
      ],
      [
        "и",
        "сто"
      ],
      [
        "ко",
        "но"
      ],
      [
        "t",
        "y"
      ],
      [
        "the",
        "y"
      ],
      [
        "хо",
        "д"
      ],
      [
        "it",
        "ed"
      ],
      [
        "ло",
        "ве"
      ],
      [
        "т",
        "ро"
      ],
      [
        "то",
        "р"
      ],
      [
        "ic",
        "e"
      ],
      [
        "я",
        "н"
      ],
      [
        "ст",
        "ран"
      ],
      [
        "з",
        "ем"
      ],
      [
        "I",
        "t"
      ],
      [
        "d",
        "es"
      ],
      [
        "th",
        "ro"
      ],
      [
        "про",
        "из"
      ],
      [
        "ри",
        "то"
      ],
      [
        "бы",
        "ла"
      ],
      [
        "ско",
        "м"
      ],
      [
        "ang",
        "u"
      ],
      [
        "зы",
        "ва"
      ],
      [
        "ль",
        "ко"
      ],
      [
        "19",
        "6"
      ],
      [
        "ar",
        "ch"
      ],
      [
        "с",
        "лу"
      ],
      [
        "c",
        "ess"
      ],
      [
        "об",
        "ъ"
      ],
      [
        "я",
        "б"
      ],
      [
        "ва",
        "ние"
      ],
      [
        "ic",
        "s"
      ],
      [
        "ру",
        "с"
      ],
      [
        "or",
        "s"
      ],
      [
        "на",
        "се"
      ],
      [
        "incl",
        "ud"
      ],
      [
        "s",
        "ome"
      ],
      [
        "с",
        "вя"
      ],
      [
        "пра",
        "ви"
      ],
      [
        "f",
        "in"
      ],
      [
        "an",
        "ce"
      ],
      [
        "ar",
        "i"
      ],
      [
        "че",
        "лове"
      ],
      [
        "ж",
        "д"
      ],
      [
        "с",
        "ла"
      ],
      [
        "C",
        "on"
      ],
      [
        "m",
        "in"
      ],
      [
        "до",
        "л"
      ],
      [
        "h",
        "er"
      ],
      [
        "m",
        "y"
      ],
      [
        "т",
        "ра"
      ],
      [
        "тер",
        "рито"
      ],
      [
        "c",
        "r"
      ],
      [
        "в",
        "ро"
      ],
      [
        "ц",
        "ент"
      ],
      [
        "ва",
        "н"
      ],
      [
        "ic",
        "t"
      ],
      [
        "ко",
        "ло"
      ],
      [
        "ени",
        "ю"
      ],
      [
        "ме",
        "жду"
      ],
      [
        "er",
        "n"
      ],
      [
        "горо",
        "д"
      ],
      [
        "u",
        "se"
      ],
      [
        "по",
        "лу"
      ],
      [
        "пра",
        "в"
      ],
      [
        "re",
        "g"
      ],
      [
        "ти",
        "я"
      ],
      [
        "и",
        "ме"
      ],
      [
        "i",
        "ed"
      ],
      [
        "ar",
        "k"
      ],
      [
        "ски",
        "м"
      ],
      [
        "па",
        "д"
      ],
      [
        "образ",
        "о"
      ],
      [
        "р",
        "ь"
      ],
      [
        "r",
        "on"
      ],
      [
        "вре",
        "мя"
      ],
      [
        "be",
        "c"
      ],
      [
        "ub",
        "l"
      ],
      [
        "it",
        "e"
      ],
      [
        "ле",
        "к"
      ],
      [
        "В",
        "е"
      ],
      [
        "ка",
        "за"
      ],
      [
        "ж",
        "ение"
      ],
      [
        "m",
        "ain"
      ],
      [
        "го",
        "д"
      ],
      [
        "ни",
        "й"
      ],
      [
        "u",
        "gh"
      ],
      [
        "н",
        "д"
      ],
      [
        "on",
        "ly"
      ],
      [
        "ко",
        "й"
      ],
      [
        "su",
        "b"
      ],
      [
        "пе",
        "ра"
      ],
      [
        "the",
        "m"
      ],
      [
        "ist",
        "s"
      ],
      [
        "W",
        "ar"
      ],
      [
        "ми",
        "че"
      ],
      [
        "К",
        "о"
      ],
      [
        "ен",
        "а"
      ],
      [
        "b",
        "as"
      ],
      [
        "v",
        "i"
      ],
      [
        "ни",
        "ма"
      ],
      [
        "k",
        "n"
      ],
      [
        "ul",
        "ar"
      ],
      [
        "en",
        "s"
      ],
      [
        "ци",
        "он"
      ],
      [
        "1",
        "6"
      ],
      [
        "v",
        "e"
      ],
      [
        "tw",
        "o"
      ],
      [
        "ф",
        "а"
      ],
      [
        "ur",
        "y"
      ],
      [
        "v",
        "el"
      ],
      [
        "i",
        "um"
      ],
      [
        "к",
        "лю"
      ],
      [
        "e",
        "p"
      ],
      [
        "00",
        "0"
      ],
      [
        "к",
        "ла"
      ],
      [
        "l",
        "angu"
      ],
      [
        "дру",
        "ги"
      ],
      [
        "af",
        "ter"
      ],
      [
        "с",
        "ку"
      ],
      [
        "s",
        "c"
      ],
      [
        "t",
        "a"
      ],
      [
        "п",
        "ло"
      ],
      [
        "wor",
        "k"
      ],
      [
        "man",
        "y"
      ],
      [
        "1",
        "2"
      ],
      [
        "e",
        "en"
      ],
      [
        "ц",
        "ы"
      ],
      [
        "if",
        "ic"
      ],
      [
        "Л",
        "и"
      ],
      [
        "u",
        "ro"
      ],
      [
        "ва",
        "ть"
      ],
      [
        "бу",
        "р"
      ],
      [
        "un",
        "d"
      ],
      [
        "A",
        "t"
      ],
      [
        "n",
        "um"
      ],
      [
        "Е",
        "вро"
      ],
      [
        "ни",
        "ка"
      ],
      [
        "со",
        "в"
      ],
      [
        "ем",
        "ы"
      ],
      [
        "ol",
        "d"
      ],
      [
        "19",
        "7"
      ],
      [
        "ва",
        "я"
      ],
      [
        "l",
        "es"
      ],
      [
        "т",
        "ре"
      ],
      [
        "w",
        "ould"
      ],
      [
        "m",
        "on"
      ],
      [
        "Б",
        "о"
      ],
      [
        "t",
        "ime"
      ],
      [
        "j",
        "ect"
      ],
      [
        "С",
        "е"
      ],
      [
        "1",
        "4"
      ],
      [
        "об",
        "ла"
      ],
      [
        "испо",
        "ль"
      ],
      [
        "pro",
        "v"
      ],
      [
        "ле",
        "т"
      ],
      [
        "a",
        "ir"
      ],
      [
        "орга",
        "ни"
      ],
      [
        "во",
        "сто"
      ],
      [
        "le",
        "x"
      ],
      [
        "ing",
        "s"
      ],
      [
        "ро",
        "н"
      ],
      [
        "к",
        "ры"
      ],
      [
        "по",
        "ло"
      ],
      [
        "re",
        "at"
      ],
      [
        "ре",
        "ди"
      ],
      [
        "пре",
        "де"
      ],
      [
        "кото",
        "ро"
      ],
      [
        "ча",
        "ст"
      ],
      [
        "S",
        "e"
      ],
      [
        "u",
        "e"
      ],
      [
        "во",
        "ен"
      ],
      [
        "is",
        "s"
      ],
      [
        "ou",
        "th"
      ],
      [
        "a",
        "de"
      ],
      [
        "b",
        "r"
      ],
      [
        "3",
        "0"
      ],
      [
        "П",
        "е"
      ],
      [
        "ри",
        "я"
      ],
      [
        "il",
        "y"
      ],
      [
        "m",
        "et"
      ],
      [
        "ча",
        "сти"
      ],
      [
        "g",
        "y"
      ],
      [
        "it",
        "ies"
      ],
      [
        "Americ",
        "an"
      ],
      [
        "ж",
        "ения"
      ],
      [
        "т",
        "р"
      ],
      [
        "m",
        "ed"
      ],
      [
        "19",
        "2"
      ],
      [
        "ag",
        "es"
      ],
      [
        "A",
        "pol"
      ],
      [
        "in",
        "ce"
      ],
      [
        "o",
        "od"
      ],
      [
        "lo",
        "c"
      ],
      [
        "К",
        "и"
      ],
      [
        "та",
        "ли"
      ],
      [
        "от",
        "но"
      ],
      [
        "ч",
        "ен"
      ],
      [
        "un",
        "der"
      ],
      [
        "раз",
        "ви"
      ],
      [
        "явля",
        "ется"
      ],
      [
        "ци",
        "она"
      ],
      [
        "l",
        "ed"
      ],
      [
        "u",
        "al"
      ],
      [
        "p",
        "op"
      ],
      [
        "th",
        "ough"
      ],
      [
        "h",
        "im"
      ],
      [
        "ен",
        "е"
      ],
      [
        "n",
        "o"
      ],
      [
        "Г",
        "ер"
      ],
      [
        "с",
        "ред"
      ],
      [
        "st",
        "em"
      ],
      [
        "d",
        "if"
      ],
      [
        "es",
        "e"
      ],
      [
        "be",
        "tw"
      ],
      [
        "ми",
        "ни"
      ],
      [
        "betw",
        "een"
      ],
      [
        "М",
        "а"
      ],
      [
        "ве",
        "ка"
      ],
      [
        "ur",
        "al"
      ],
      [
        "ос",
        "но"
      ],
      [
        "T",
        "his"
      ],
      [
        "r",
        "y"
      ],
      [
        "w",
        "e"
      ],
      [
        "Apol",
        "lo"
      ],
      [
        "a",
        "th"
      ],
      [
        "f",
        "ore"
      ],
      [
        "ло",
        "в"
      ],
      [
        "ти",
        "й"
      ],
      [
        "g",
        "an"
      ],
      [
        "о",
        "к"
      ],
      [
        "c",
        "ur"
      ],
      [
        "a",
        "e"
      ],
      [
        "ре",
        "з"
      ],
      [
        "а",
        "ли"
      ],
      [
        "Н",
        "е"
      ],
      [
        "t",
        "ain"
      ],
      [
        "со",
        "вет"
      ],
      [
        "so",
        "ci"
      ],
      [
        "я",
        "зы"
      ],
      [
        "re",
        "d"
      ],
      [
        "ё",
        "м"
      ],
      [
        "res",
        "s"
      ],
      [
        "st",
        "ate"
      ],
      [
        "пу",
        "бли"
      ],
      [
        "cent",
        "ury"
      ],
      [
        "з",
        "я"
      ],
      [
        "которы",
        "е"
      ],
      [
        "5",
        "0"
      ],
      [
        "t",
        "ed"
      ],
      [
        "er",
        "ed"
      ],
      [
        "ne",
        "w"
      ],
      [
        "or",
        "th"
      ],
      [
        "1",
        "3"
      ],
      [
        "at",
        "ive"
      ],
      [
        "во",
        "с"
      ],
      [
        "ма",
        "р"
      ],
      [
        "wh",
        "en"
      ],
      [
        "Б",
        "е"
      ],
      [
        "ни",
        "х"
      ],
      [
        "Р",
        "е"
      ],
      [
        "ст",
        "ве"
      ],
      [
        "coun",
        "tr"
      ],
      [
        "ли",
        "ч"
      ],
      [
        "э",
        "коно"
      ],
      [
        "m",
        "ay"
      ],
      [
        "s",
        "l"
      ],
      [
        "те",
        "м"
      ],
      [
        "вре",
        "мен"
      ],
      [
        "а",
        "на"
      ],
      [
        "of",
        "f"
      ],
      [
        "er",
        "al"
      ],
      [
        "ab",
        "out"
      ],
      [
        "ch",
        "ar"
      ],
      [
        "ни",
        "к"
      ],
      [
        "ian",
        "s"
      ],
      [
        "str",
        "u"
      ],
      [
        "d",
        "o"
      ],
      [
        "ut",
        "ion"
      ],
      [
        "t",
        "on"
      ],
      [
        "c",
        "ar"
      ],
      [
        "wh",
        "ere"
      ],
      [
        "ю",
        "ще"
      ],
      [
        "ста",
        "н"
      ],
      [
        "о",
        "ру"
      ],
      [
        "Н",
        "о"
      ],
      [
        "at",
        "ing"
      ],
      [
        "w",
        "ar"
      ],
      [
        "те",
        "ри"
      ],
      [
        "ци",
        "ю"
      ],
      [
        "con",
        "d"
      ],
      [
        "во",
        "р"
      ],
      [
        "w",
        "rit"
      ],
      [
        "по",
        "ль"
      ],
      [
        "19",
        "0"
      ],
      [
        "ex",
        "t"
      ],
      [
        "ser",
        "v"
      ],
      [
        "on",
        "d"
      ],
      [
        "b",
        "an"
      ],
      [
        "f",
        "e"
      ],
      [
        "u",
        "de"
      ],
      [
        "c",
        "he"
      ],
      [
        "до",
        "м"
      ],
      [
        "пред",
        "ста"
      ],
      [
        "а",
        "л"
      ],
      [
        "se",
        "t"
      ],
      [
        "kn",
        "own"
      ],
      [
        "f",
        "ound"
      ],
      [
        "ur",
        "n"
      ],
      [
        "о",
        "ни"
      ],
      [
        "ct",
        "ed"
      ],
      [
        "во",
        "ди"
      ],
      [
        "ту",
        "р"
      ],
      [
        "те",
        "ра"
      ],
      [
        "w",
        "ell"
      ],
      [
        "П",
        "а"
      ],
      [
        "ть",
        "ся"
      ],
      [
        "су",
        "ще"
      ],
      [
        "in",
        "v"
      ],
      [
        "гра",
        "ни"
      ],
      [
        "m",
        "s"
      ],
      [
        "гра",
        "фи"
      ],
      [
        "М",
        "и"
      ],
      [
        "б",
        "ри"
      ],
      [
        "pres",
        "ent"
      ],
      [
        "d",
        "uring"
      ],
      [
        "г",
        "да"
      ],
      [
        "s",
        "ur"
      ],
      [
        "d",
        "r"
      ],
      [
        "y",
        "s"
      ],
      [
        "тель",
        "но"
      ],
      [
        "iv",
        "ers"
      ],
      [
        "ску",
        "ю"
      ],
      [
        "ос",
        "у"
      ],
      [
        "iz",
        "ed"
      ],
      [
        "as",
        "e"
      ],
      [
        "к",
        "руп"
      ],
      [
        "со",
        "зда"
      ],
      [
        "Ве",
        "ли"
      ],
      [
        "h",
        "igh"
      ],
      [
        "е",
        "к"
      ],
      [
        "на",
        "род"
      ],
      [
        "по",
        "р"
      ],
      [
        "thro",
        "ugh"
      ],
      [
        "u",
        "res"
      ],
      [
        "an",
        "n"
      ],
      [
        "насе",
        "ления"
      ],
      [
        "вы",
        "й"
      ],
      [
        "year",
        "s"
      ],
      [
        "ра",
        "в"
      ],
      [
        "cor",
        "d"
      ],
      [
        "до",
        "ро"
      ],
      [
        "еди",
        "н"
      ],
      [
        "v",
        "is"
      ],
      [
        "Л",
        "ени"
      ],
      [
        "на",
        "ко"
      ],
      [
        "ку",
        "ль"
      ],
      [
        "которы",
        "х"
      ],
      [
        "D",
        "e"
      ],
      [
        "вой",
        "ны"
      ],
      [
        "sy",
        "stem"
      ],
      [
        "яб",
        "ря"
      ],
      [
        "1",
        "1"
      ],
      [
        "w",
        "ard"
      ],
      [
        "op",
        "le"
      ],
      [
        "во",
        "лю"
      ],
      [
        "over",
        "n"
      ],
      [
        "w",
        "ay"
      ],
      [
        "ч",
        "ение"
      ],
      [
        "о",
        "логи"
      ],
      [
        "in",
        "st"
      ],
      [
        "l",
        "ish"
      ],
      [
        "19",
        "3"
      ],
      [
        "спо",
        "р"
      ],
      [
        "o",
        "h"
      ],
      [
        "м",
        "л"
      ],
      [
        "пи",
        "са"
      ],
      [
        "Гер",
        "ма"
      ],
      [
        "W",
        "h"
      ],
      [
        "f",
        "ect"
      ],
      [
        "and",
        "er"
      ],
      [
        "f",
        "am"
      ],
      [
        "o",
        "se"
      ],
      [
        "а",
        "вто"
      ],
      [
        "au",
        "se"
      ],
      [
        "d",
        "ire"
      ],
      [
        "n",
        "ational"
      ],
      [
        "ст",
        "ы"
      ],
      [
        "ра",
        "спо"
      ],
      [
        "прави",
        "тель"
      ],
      [
        "R",
        "e"
      ],
      [
        "ла",
        "н"
      ],
      [
        "wh",
        "ile"
      ],
      [
        "c",
        "all"
      ],
      [
        "М",
        "ос"
      ],
      [
        "ен",
        "о"
      ],
      [
        "че",
        "ских"
      ],
      [
        "ical",
        "ly"
      ],
      [
        "ubl",
        "ic"
      ],
      [
        "il",
        "d"
      ],
      [
        "Ar",
        "ab"
      ],
      [
        "дей",
        "стви"
      ],
      [
        "l",
        "in"
      ],
      [
        "ки",
        "х"
      ],
      [
        "ak",
        "e"
      ],
      [
        "gro",
        "up"
      ],
      [
        "при",
        "ня"
      ],
      [
        "ь",
        "ю"
      ],
      [
        "the",
        "n"
      ],
      [
        "includ",
        "ing"
      ],
      [
        "во",
        "го"
      ],
      [
        "ста",
        "нов"
      ],
      [
        "ва",
        "ли"
      ],
      [
        "и",
        "ю"
      ],
      [
        "de",
        "p"
      ],
      [
        "т",
        "ру"
      ],
      [
        "те",
        "к"
      ],
      [
        "i",
        "x"
      ],
      [
        "Р",
        "а"
      ],
      [
        "vel",
        "op"
      ],
      [
        "та",
        "н"
      ],
      [
        "c",
        "y"
      ],
      [
        "Н",
        "и"
      ],
      [
        "сси",
        "й"
      ],
      [
        "g",
        "est"
      ],
      [
        "v",
        "ari"
      ],
      [
        "л",
        "ли"
      ],
      [
        "ра",
        "й"
      ],
      [
        "ol",
        "low"
      ],
      [
        "ма",
        "с"
      ],
      [
        "olog",
        "y"
      ],
      [
        "a",
        "i"
      ],
      [
        "э",
        "к"
      ],
      [
        "at",
        "ic"
      ],
      [
        "ту",
        "ра"
      ],
      [
        "E",
        "n"
      ],
      [
        "са",
        "мо"
      ],
      [
        "ющи",
        "х"
      ],
      [
        "Мос",
        "к"
      ],
      [
        "э",
        "ле"
      ],
      [
        "государ",
        "ствен"
      ],
      [
        "ци",
        "й"
      ],
      [
        "A",
        "lex"
      ],
      [
        "a",
        "h"
      ],
      [
        "рова",
        "н"
      ],
      [
        "д",
        "ви"
      ],
      [
        "de",
        "velop"
      ],
      [
        "st",
        "ud"
      ],
      [
        "per",
        "i"
      ],
      [
        "wor",
        "ld"
      ],
      [
        "ли",
        "я"
      ],
      [
        "ther",
        "e"
      ],
      [
        "tr",
        "ans"
      ],
      [
        "ст",
        "ре"
      ],
      [
        "ter",
        "s"
      ],
      [
        "ё",
        "т"
      ],
      [
        "с",
        "чи"
      ],
      [
        "al",
        "k"
      ],
      [
        "g",
        "er"
      ],
      [
        "su",
        "p"
      ],
      [
        "ch",
        "o"
      ],
      [
        "id",
        "s"
      ],
      [
        "сту",
        "п"
      ],
      [
        "е",
        "ё"
      ],
      [
        "ch",
        "n"
      ],
      [
        "u",
        "g"
      ],
      [
        "то",
        "го"
      ],
      [
        "le",
        "g"
      ],
      [
        "ве",
        "ли"
      ],
      [
        "пе",
        "ри"
      ],
      [
        "d",
        "ist"
      ],
      [
        "ча",
        "сть"
      ],
      [
        "ц",
        "у"
      ],
      [
        "те",
        "лей"
      ],
      [
        "A",
        "p"
      ],
      [
        "то",
        "лько"
      ],
      [
        "э",
        "ти"
      ],
      [
        "об",
        "о"
      ],
      [
        "о",
        "коло"
      ],
      [
        "sh",
        "ip"
      ],
      [
        "s",
        "k"
      ],
      [
        "r",
        "ap"
      ],
      [
        "террито",
        "рии"
      ],
      [
        "ow",
        "ever"
      ],
      [
        "я",
        "т"
      ],
      [
        "at",
        "ure"
      ],
      [
        "if",
        "e"
      ],
      [
        "с",
        "са"
      ],
      [
        "ль",
        "но"
      ],
      [
        "ль",
        "та"
      ],
      [
        "E",
        "uro"
      ],
      [
        "u",
        "ally"
      ],
      [
        "ре",
        "в"
      ],
      [
        "ce",
        "pt"
      ],
      [
        "при",
        "мер"
      ],
      [
        "ро",
        "ссий"
      ],
      [
        "Un",
        "ited"
      ],
      [
        "the",
        "se"
      ],
      [
        "ли",
        "ги"
      ],
      [
        "ст",
        "ру"
      ],
      [
        "ни",
        "ю"
      ],
      [
        "на",
        "з"
      ],
      [
        "id",
        "ent"
      ],
      [
        "2",
        "1"
      ],
      [
        "со",
        "стоя"
      ],
      [
        "B",
        "rit"
      ],
      [
        "p",
        "ar"
      ],
      [
        "an",
        "im"
      ],
      [
        "не",
        "е"
      ],
      [
        "Р",
        "у"
      ],
      [
        "ар",
        "ми"
      ],
      [
        "st",
        "er"
      ],
      [
        "до",
        "ва"
      ],
      [
        "ear",
        "ly"
      ],
      [
        "on",
        "s"
      ],
      [
        "те",
        "х"
      ],
      [
        "Ф",
        "ран"
      ],
      [
        "мо",
        "р"
      ],
      [
        "2",
        "2"
      ],
      [
        "о",
        "ста"
      ],
      [
        "c",
        "ap"
      ],
      [
        "l",
        "ater"
      ],
      [
        "d",
        "ay"
      ],
      [
        "i",
        "e"
      ],
      [
        "ос",
        "нов"
      ],
      [
        "челове",
        "к"
      ],
      [
        "соста",
        "вля"
      ],
      [
        "че",
        "ские"
      ],
      [
        "An",
        "g"
      ],
      [
        "за",
        "ции"
      ],
      [
        "bo",
        "th"
      ],
      [
        "F",
        "or"
      ],
      [
        "P",
        "ro"
      ],
      [
        "t",
        "il"
      ],
      [
        "g",
        "overn"
      ],
      [
        "f",
        "ul"
      ],
      [
        "не",
        "го"
      ],
      [
        "ap",
        "pe"
      ],
      [
        "A",
        "c"
      ],
      [
        "h",
        "ist"
      ],
      [
        "В",
        "и"
      ],
      [
        "ка",
        "н"
      ],
      [
        "G",
        "ree"
      ],
      [
        "с",
        "публи"
      ],
      [
        "ч",
        "но"
      ],
      [
        "на",
        "д"
      ],
      [
        "ни",
        "ков"
      ],
      [
        "pl",
        "ay"
      ],
      [
        "O",
        "n"
      ],
      [
        "p",
        "ers"
      ],
      [
        "u",
        "c"
      ],
      [
        "В",
        "ла"
      ],
      [
        "г",
        "ре"
      ],
      [
        "o",
        "st"
      ],
      [
        "г",
        "руп"
      ],
      [
        "фор",
        "ма"
      ],
      [
        "St",
        "ates"
      ],
      [
        "м",
        "ени"
      ],
      [
        "en",
        "g"
      ],
      [
        "ми",
        "ра"
      ],
      [
        "Euro",
        "pe"
      ],
      [
        "b",
        "el"
      ],
      [
        "c",
        "over"
      ],
      [
        "ш",
        "о"
      ],
      [
        "ра",
        "к"
      ],
      [
        "про",
        "тив"
      ],
      [
        "ig",
        "in"
      ],
      [
        "ill",
        "ion"
      ],
      [
        "ство",
        "м"
      ],
      [
        "am",
        "p"
      ],
      [
        "mo",
        "v"
      ],
      [
        "ment",
        "s"
      ],
      [
        "зу",
        "льта"
      ],
      [
        "f",
        "ollow"
      ],
      [
        "ш",
        "ей"
      ],
      [
        "An",
        "d"
      ],
      [
        "ре",
        "волю"
      ],
      [
        "ми",
        "р"
      ],
      [
        "со",
        "ци"
      ],
      [
        "19",
        "5"
      ],
      [
        "т",
        "ран"
      ],
      [
        "s",
        "im"
      ],
      [
        "ro",
        "l"
      ],
      [
        "ность",
        "ю"
      ],
      [
        "ша",
        "я"
      ],
      [
        "ex",
        "am"
      ],
      [
        "C",
        "om"
      ],
      [
        "ф",
        "у"
      ],
      [
        "N",
        "ew"
      ],
      [
        "n",
        "am"
      ],
      [
        "н",
        "к"
      ],
      [
        "со",
        "циаль"
      ],
      [
        "pe",
        "ople"
      ],
      [
        "че",
        "ской"
      ],
      [
        "18",
        "6"
      ],
      [
        "ни",
        "ки"
      ],
      [
        "dif",
        "fer"
      ],
      [
        "P",
        "h"
      ],
      [
        "мы",
        "ш"
      ],
      [
        "ль",
        "ных"
      ],
      [
        "ме",
        "сто"
      ],
      [
        "d",
        "om"
      ],
      [
        "be",
        "ing"
      ],
      [
        "ci",
        "ent"
      ],
      [
        "th",
        "ree"
      ],
      [
        "bec",
        "ame"
      ],
      [
        "num",
        "ber"
      ],
      [
        "М",
        "о"
      ],
      [
        "ле",
        "з"
      ],
      [
        "ver",
        "y"
      ],
      [
        "к",
        "м"
      ],
      [
        "П",
        "ос"
      ],
      [
        "ре",
        "зульта"
      ],
      [
        "ющи",
        "е"
      ],
      [
        "c",
        "er"
      ],
      [
        "ли",
        "н"
      ],
      [
        "L",
        "in"
      ],
      [
        "м",
        "но"
      ],
      [
        "ц",
        "ен"
      ],
      [
        "ther",
        "n"
      ],
      [
        "Вла",
        "ди"
      ],
      [
        "б",
        "ер"
      ],
      [
        "дер",
        "жа"
      ],
      [
        "о",
        "преде"
      ],
      [
        "as",
        "k"
      ],
      [
        "ud",
        "i"
      ],
      [
        "cont",
        "in"
      ],
      [
        "боль",
        "ши"
      ],
      [
        "is",
        "e"
      ],
      [
        "le",
        "t"
      ],
      [
        "ar",
        "s"
      ],
      [
        "ве",
        "ст"
      ],
      [
        "ma",
        "de"
      ],
      [
        "O",
        "r"
      ],
      [
        "ё",
        "р"
      ],
      [
        "ul",
        "ation"
      ],
      [
        "По",
        "ль"
      ],
      [
        "зна",
        "чи"
      ],
      [
        "s",
        "m"
      ],
      [
        "в",
        "ра"
      ],
      [
        "ло",
        "жен"
      ],
      [
        "со",
        "ю"
      ],
      [
        "em",
        "ent"
      ],
      [
        "ту",
        "ры"
      ],
      [
        "call",
        "ed"
      ],
      [
        "a",
        "il"
      ],
      [
        "c",
        "our"
      ],
      [
        "st",
        "it"
      ],
      [
        "за",
        "ви"
      ],
      [
        "те",
        "ле"
      ],
      [
        "im",
        "es"
      ],
      [
        "s",
        "ol"
      ],
      [
        "c",
        "ult"
      ],
      [
        "о",
        "ст"
      ],
      [
        "b",
        "it"
      ],
      [
        "со",
        "бо"
      ],
      [
        "Со",
        "вет"
      ],
      [
        "J",
        "oh"
      ],
      [
        "b",
        "u"
      ],
      [
        "or",
        "igin"
      ],
      [
        "L",
        "e"
      ],
      [
        "ли",
        "че"
      ],
      [
        "iv",
        "er"
      ],
      [
        "te",
        "chn"
      ],
      [
        "j",
        "or"
      ],
      [
        "С",
        "а"
      ],
      [
        "ж",
        "да"
      ],
      [
        "spe",
        "c"
      ],
      [
        "А",
        "лек"
      ],
      [
        "к",
        "ро"
      ],
      [
        "с",
        "но"
      ],
      [
        "стра",
        "ны"
      ],
      [
        "s",
        "s"
      ],
      [
        "исто",
        "ри"
      ],
      [
        "я",
        "ви"
      ],
      [
        "у",
        "р"
      ],
      [
        "те",
        "ля"
      ],
      [
        "вы",
        "со"
      ],
      [
        "iv",
        "ed"
      ],
      [
        "тер",
        "бур"
      ],
      [
        "ре",
        "лиги"
      ],
      [
        "ad",
        "d"
      ],
      [
        "ты",
        "с"
      ],
      [
        "h",
        "um"
      ],
      [
        "ро",
        "й"
      ],
      [
        "во",
        "е"
      ],
      [
        "от",
        "вет"
      ],
      [
        "Alex",
        "ander"
      ],
      [
        "а",
        "д"
      ],
      [
        "cons",
        "id"
      ],
      [
        "ш",
        "ения"
      ],
      [
        "II",
        "I"
      ],
      [
        "П",
        "ет"
      ],
      [
        "ти",
        "н"
      ],
      [
        "bas",
        "ed"
      ],
      [
        "П",
        "ер"
      ],
      [
        "ме",
        "ст"
      ],
      [
        "s",
        "ign"
      ],
      [
        "ни",
        "ем"
      ],
      [
        "поли",
        "тиче"
      ],
      [
        "з",
        "ма"
      ],
      [
        "об",
        "ра"
      ],
      [
        "char",
        "ac"
      ],
      [
        "l",
        "ess"
      ],
      [
        "ш",
        "ение"
      ],
      [
        "c",
        "ri"
      ],
      [
        "ch",
        "ang"
      ],
      [
        "й",
        "ской"
      ],
      [
        "с",
        "ли"
      ],
      [
        "че",
        "м"
      ],
      [
        "бе",
        "ре"
      ],
      [
        "мыш",
        "лен"
      ],
      [
        "d",
        "el"
      ],
      [
        "ф",
        "о"
      ],
      [
        "я",
        "х"
      ],
      [
        "ен",
        "ы"
      ],
      [
        "of",
        "ten"
      ],
      [
        "l",
        "ong"
      ],
      [
        "u",
        "ch"
      ],
      [
        "2",
        "5"
      ],
      [
        "or",
        "der"
      ],
      [
        "по",
        "з"
      ],
      [
        "ci",
        "al"
      ],
      [
        "i",
        "el"
      ],
      [
        "г",
        "ли"
      ],
      [
        "зо",
        "ва"
      ],
      [
        "dire",
        "ct"
      ],
      [
        "а",
        "т"
      ],
      [
        "ло",
        "м"
      ],
      [
        "у",
        "ни"
      ],
      [
        "in",
        "s"
      ],
      [
        "el",
        "f"
      ],
      [
        "ты",
        "ся"
      ],
      [
        "вой",
        "ска"
      ],
      [
        "ib",
        "le"
      ],
      [
        "f",
        "act"
      ],
      [
        "p",
        "ow"
      ],
      [
        "al",
        "i"
      ],
      [
        "countr",
        "y"
      ],
      [
        "Arab",
        "ic"
      ],
      [
        "r",
        "al"
      ],
      [
        "ко",
        "го"
      ],
      [
        "en",
        "ces"
      ],
      [
        "ка",
        "б"
      ],
      [
        "il",
        "os"
      ],
      [
        "вы",
        "м"
      ],
      [
        "от",
        "кры"
      ],
      [
        "part",
        "ic"
      ],
      [
        "d",
        "s"
      ],
      [
        "С",
        "и"
      ],
      [
        "боль",
        "ше"
      ],
      [
        "dep",
        "end"
      ],
      [
        "зави",
        "си"
      ],
      [
        "стро",
        "й"
      ],
      [
        "Пе",
        "тербур"
      ],
      [
        "S",
        "p"
      ],
      [
        "е",
        "мо"
      ],
      [
        "ч",
        "ения"
      ],
      [
        "oc",
        "k"
      ],
      [
        "г",
        "ер"
      ],
      [
        "ilos",
        "op"
      ],
      [
        "S",
        "h"
      ],
      [
        "langu",
        "ages"
      ],
      [
        "d",
        "am"
      ],
      [
        "О",
        "б"
      ],
      [
        "к",
        "ня"
      ],
      [
        "ла",
        "га"
      ],
      [
        "h",
        "ol"
      ],
      [
        "op",
        "en"
      ],
      [
        "b",
        "ed"
      ],
      [
        "b",
        "ro"
      ],
      [
        "л",
        "ён"
      ],
      [
        "il",
        "it"
      ],
      [
        "li",
        "ke"
      ],
      [
        "мл",
        "н"
      ],
      [
        "ast",
        "er"
      ],
      [
        "вер",
        "си"
      ],
      [
        "Пос",
        "ле"
      ],
      [
        "c",
        "ity"
      ],
      [
        "И",
        "тали"
      ],
      [
        "у",
        "ю"
      ],
      [
        "ar",
        "m"
      ],
      [
        "си",
        "сте"
      ],
      [
        "col",
        "n"
      ],
      [
        "Се",
        "вер"
      ],
      [
        "Lin",
        "coln"
      ],
      [
        "х",
        "ра"
      ],
      [
        "стру",
        "к"
      ],
      [
        "w",
        "ater"
      ],
      [
        "Д",
        "о"
      ],
      [
        "ре",
        "ги"
      ],
      [
        "se",
        "ver"
      ],
      [
        "us",
        "s"
      ],
      [
        "fl",
        "u"
      ],
      [
        "p",
        "or"
      ],
      [
        "о",
        "ке"
      ],
      [
        "у",
        "ров"
      ],
      [
        "раз",
        "де"
      ],
      [
        "то",
        "ра"
      ],
      [
        "че",
        "рез"
      ],
      [
        "про",
        "стран"
      ],
      [
        "em",
        "ber"
      ],
      [
        "w",
        "est"
      ],
      [
        "го",
        "во"
      ],
      [
        "Joh",
        "n"
      ],
      [
        "С",
        "ан"
      ],
      [
        "ч",
        "ной"
      ],
      [
        "ant",
        "s"
      ],
      [
        "ma",
        "jor"
      ],
      [
        "b",
        "le"
      ],
      [
        "al",
        "e"
      ],
      [
        "го",
        "в"
      ],
      [
        "ль",
        "ные"
      ],
      [
        "de",
        "c"
      ],
      [
        "об",
        "е"
      ],
      [
        "стро",
        "и"
      ],
      [
        "но",
        "му"
      ],
      [
        "ко",
        "ла"
      ],
      [
        "he",
        "l"
      ],
      [
        "гра",
        "д"
      ],
      [
        "t",
        "urn"
      ],
      [
        "на",
        "зыва"
      ],
      [
        "сти",
        "ту"
      ],
      [
        "из",
        "вест"
      ],
      [
        "це",
        "в"
      ],
      [
        "ис",
        "сле"
      ],
      [
        "b",
        "ers"
      ],
      [
        "М",
        "е"
      ],
      [
        "з",
        "м"
      ],
      [
        "ство",
        "ва"
      ],
      [
        "B",
        "C"
      ],
      [
        "N",
        "orth"
      ],
      [
        "i",
        "ev"
      ],
      [
        "но",
        "ви"
      ],
      [
        "ко",
        "р"
      ],
      [
        "ма",
        "я"
      ],
      [
        "про",
        "мышлен"
      ],
      [
        "сто",
        "в"
      ],
      [
        "хо",
        "в"
      ],
      [
        "мен",
        "та"
      ],
      [
        "после",
        "д"
      ],
      [
        "E",
        "gy"
      ],
      [
        "ней",
        "ши"
      ],
      [
        "т",
        "я"
      ],
      [
        "f",
        "our"
      ],
      [
        "Г",
        "о"
      ],
      [
        "не",
        "ско"
      ],
      [
        "se",
        "cond"
      ],
      [
        "эконо",
        "миче"
      ],
      [
        "П",
        "ро"
      ],
      [
        "re",
        "qu"
      ],
      [
        "ми",
        "ро"
      ],
      [
        "ele",
        "ct"
      ],
      [
        "Brit",
        "ish"
      ],
      [
        "в",
        "клю"
      ],
      [
        "al",
        "g"
      ],
      [
        "m",
        "er"
      ],
      [
        "Т",
        "а"
      ],
      [
        "на",
        "циона"
      ],
      [
        "c",
        "a"
      ],
      [
        "langu",
        "age"
      ],
      [
        "f",
        "ed"
      ],
      [
        "in",
        "n"
      ],
      [
        "И",
        "н"
      ],
      [
        "л",
        "ё"
      ],
      [
        "iv",
        "es"
      ],
      [
        "ag",
        "ain"
      ],
      [
        "Egy",
        "pt"
      ],
      [
        "c",
        "ould"
      ],
      [
        "le",
        "ct"
      ],
      [
        "А",
        "н"
      ],
      [
        "на",
        "ходи"
      ],
      [
        "ar",
        "g"
      ],
      [
        "ки",
        "е"
      ],
      [
        "vi",
        "ew"
      ],
      [
        "it",
        "er"
      ],
      [
        "mo",
        "der"
      ],
      [
        "кт",
        "ро"
      ],
      [
        "l",
        "im"
      ],
      [
        "in",
        "cre"
      ],
      [
        "то",
        "й"
      ],
      [
        "ти",
        "и"
      ],
      [
        "че",
        "ский"
      ],
      [
        "хо",
        "зя"
      ],
      [
        "Ap",
        "ple"
      ],
      [
        "за",
        "н"
      ],
      [
        "Во",
        "сто"
      ],
      [
        "con",
        "om"
      ],
      [
        "2",
        "3"
      ],
      [
        "v",
        "ent"
      ],
      [
        "as",
        "h"
      ],
      [
        "ка",
        "х"
      ],
      [
        "il",
        "ity"
      ],
      [
        "си",
        "ст"
      ],
      [
        "r",
        "u"
      ],
      [
        "cl",
        "ass"
      ],
      [
        "счи",
        "та"
      ],
      [
        "a",
        "id"
      ],
      [
        "res",
        "ult"
      ],
      [
        "которы",
        "й"
      ],
      [
        "ef",
        "fect"
      ],
      [
        "W",
        "or"
      ],
      [
        "z",
        "er"
      ],
      [
        "в",
        "лен"
      ],
      [
        "et",
        "y"
      ],
      [
        "пра",
        "во"
      ],
      [
        "ivers",
        "ity"
      ],
      [
        "А",
        "р"
      ],
      [
        "Лени",
        "н"
      ],
      [
        "2",
        "4"
      ],
      [
        "incl",
        "ude"
      ],
      [
        "n",
        "ow"
      ],
      [
        "О",
        "д"
      ],
      [
        "не",
        "ме"
      ],
      [
        "ар",
        "хи"
      ],
      [
        "воз",
        "мож"
      ],
      [
        "E",
        "ar"
      ],
      [
        "o",
        "th"
      ],
      [
        "ж",
        "дан"
      ],
      [
        "мо",
        "н"
      ],
      [
        "be",
        "fore"
      ],
      [
        "произ",
        "вод"
      ],
      [
        "mo",
        "t"
      ],
      [
        "щ",
        "ё"
      ],
      [
        "это",
        "м"
      ],
      [
        "X",
        "I"
      ],
      [
        "e",
        "ach"
      ],
      [
        "ски",
        "ми"
      ],
      [
        "ter",
        "n"
      ],
      [
        "пло",
        "ща"
      ],
      [
        "govern",
        "ment"
      ],
      [
        "re",
        "main"
      ],
      [
        "вши",
        "х"
      ],
      [
        "други",
        "х"
      ],
      [
        "b",
        "ack"
      ],
      [
        "st",
        "and"
      ],
      [
        "are",
        "d"
      ],
      [
        "ex",
        "p"
      ],
      [
        "кре",
        "сть"
      ],
      [
        "At",
        "l"
      ],
      [
        "ap",
        "p"
      ],
      [
        "C",
        "ol"
      ],
      [
        "о",
        "ди"
      ],
      [
        "su",
        "c"
      ],
      [
        "iv",
        "ely"
      ],
      [
        "4",
        "0"
      ],
      [
        "s",
        "ince"
      ],
      [
        "с",
        "лен"
      ],
      [
        "ac",
        "ed"
      ],
      [
        "ря",
        "д"
      ],
      [
        "мож",
        "ет"
      ],
      [
        "Алек",
        "са"
      ],
      [
        "a",
        "z"
      ],
      [
        "со",
        "времен"
      ],
      [
        "In",
        "d"
      ],
      [
        "с",
        "мо"
      ],
      [
        "ен",
        "но"
      ],
      [
        "со",
        "гла"
      ],
      [
        "Т",
        "ак"
      ],
      [
        "гла",
        "в"
      ],
      [
        "sm",
        "all"
      ],
      [
        "ч",
        "лен"
      ],
      [
        "iz",
        "ation"
      ],
      [
        "хозя",
        "й"
      ],
      [
        "b",
        "l"
      ],
      [
        "t",
        "ing"
      ],
      [
        "т",
        "ен"
      ],
      [
        "m",
        "illion"
      ],
      [
        "t",
        "em"
      ],
      [
        "ц",
        "о"
      ],
      [
        "за",
        "пад"
      ],
      [
        "a",
        "x"
      ],
      [
        "s",
        "on"
      ],
      [
        "ж",
        "из"
      ],
      [
        "спо",
        "соб"
      ],
      [
        "cont",
        "rol"
      ],
      [
        "ль",
        "ный"
      ],
      [
        "le",
        "y"
      ],
      [
        "com",
        "e"
      ],
      [
        "ak",
        "ing"
      ],
      [
        "Un",
        "ion"
      ],
      [
        "lar",
        "ge"
      ],
      [
        "то",
        "ч"
      ],
      [
        "ut",
        "e"
      ],
      [
        "полу",
        "чи"
      ],
      [
        "pop",
        "ulation"
      ],
      [
        "exam",
        "ple"
      ],
      [
        "re",
        "ad"
      ],
      [
        "ки",
        "сло"
      ],
      [
        "те",
        "ли"
      ],
      [
        "ству",
        "ет"
      ],
      [
        "bec",
        "ause"
      ],
      [
        "n",
        "ame"
      ],
      [
        "ходи",
        "т"
      ],
      [
        "государ",
        "ства"
      ],
      [
        "j",
        "an"
      ],
      [
        "m",
        "ark"
      ],
      [
        "де",
        "я"
      ],
      [
        "og",
        "rap"
      ],
      [
        "sever",
        "al"
      ],
      [
        "id",
        "es"
      ],
      [
        "e",
        "qu"
      ],
      [
        "м",
        "ного"
      ],
      [
        "ль",
        "ной"
      ],
      [
        "ля",
        "р"
      ],
      [
        "ish",
        "ed"
      ],
      [
        "вла",
        "сти"
      ],
      [
        "Вели",
        "ко"
      ],
      [
        "moder",
        "n"
      ],
      [
        "д",
        "ву"
      ],
      [
        "че",
        "ского"
      ],
      [
        "Алекса",
        "нд"
      ],
      [
        "C",
        "l"
      ],
      [
        "n",
        "on"
      ],
      [
        "ic",
        "k"
      ],
      [
        "ver",
        "s"
      ],
      [
        "все",
        "х"
      ],
      [
        "ди",
        "я"
      ],
      [
        "am",
        "a"
      ],
      [
        "ion",
        "al"
      ],
      [
        "се",
        "ль"
      ],
      [
        "m",
        "p"
      ],
      [
        "in",
        "du"
      ],
      [
        "or",
        "d"
      ],
      [
        "l",
        "ife"
      ],
      [
        "о",
        "не"
      ],
      [
        "ё",
        "л"
      ],
      [
        "le",
        "ad"
      ],
      [
        "En",
        "g"
      ],
      [
        "G",
        "er"
      ],
      [
        "i",
        "o"
      ],
      [
        "к",
        "ри"
      ],
      [
        "ко",
        "личе"
      ],
      [
        "года",
        "х"
      ],
      [
        "af",
        "t"
      ],
      [
        "it",
        "al"
      ],
      [
        "res",
        "p"
      ],
      [
        "это",
        "го"
      ],
      [
        "Евро",
        "пе"
      ],
      [
        "cord",
        "ing"
      ],
      [
        "inst",
        "e"
      ],
      [
        "Gree",
        "k"
      ],
      [
        "A",
        "g"
      ],
      [
        "g",
        "o"
      ],
      [
        "на",
        "и"
      ],
      [
        "ни",
        "м"
      ],
      [
        "pol",
        "it"
      ],
      [
        "сто",
        "ро"
      ],
      [
        "ха",
        "рак"
      ],
      [
        "m",
        "en"
      ],
      [
        "е",
        "з"
      ],
      [
        "ab",
        "lish"
      ],
      [
        "ве",
        "та"
      ],
      [
        "ме",
        "ри"
      ],
      [
        "am",
        "ong"
      ],
      [
        "The",
        "y"
      ],
      [
        "фор",
        "ми"
      ],
      [
        "i",
        "ous"
      ],
      [
        "st",
        "ates"
      ],
      [
        "ре",
        "й"
      ],
      [
        "Ang",
        "ol"
      ],
      [
        "ж",
        "ён"
      ],
      [
        "ти",
        "е"
      ],
      [
        "im",
        "port"
      ],
      [
        "H",
        "owever"
      ],
      [
        "у",
        "сло"
      ],
      [
        "ни",
        "н"
      ],
      [
        "ка",
        "че"
      ],
      [
        "ще",
        "ств"
      ],
      [
        "tr",
        "ad"
      ],
      [
        "Al",
        "ban"
      ],
      [
        "Бо",
        "ль"
      ],
      [
        "ок",
        "ру"
      ],
      [
        "В",
        "се"
      ],
      [
        "г",
        "ене"
      ],
      [
        "est",
        "ablish"
      ],
      [
        "ща",
        "я"
      ],
      [
        "Д",
        "а"
      ],
      [
        "ar",
        "ound"
      ],
      [
        "gen",
        "er"
      ],
      [
        "differ",
        "ent"
      ],
      [
        "мен",
        "я"
      ],
      [
        "stru",
        "ct"
      ],
      [
        "or",
        "gan"
      ],
      [
        "ком",
        "п"
      ],
      [
        "i",
        "qu"
      ],
      [
        "на",
        "ми"
      ],
      [
        "iv",
        "il"
      ],
      [
        "pers",
        "on"
      ],
      [
        "о",
        "фи"
      ],
      [
        "бе",
        "з"
      ],
      [
        "c",
        "lo"
      ],
      [
        "v",
        "al"
      ],
      [
        "as",
        "ed"
      ],
      [
        "peri",
        "od"
      ],
      [
        "J",
        "ap"
      ],
      [
        "не",
        "м"
      ],
      [
        "us",
        "ing"
      ],
      [
        "id",
        "ed"
      ],
      [
        "E",
        "x"
      ],
      [
        "ро",
        "ма"
      ],
      [
        "l",
        "ine"
      ],
      [
        "го",
        "дов"
      ],
      [
        "ки",
        "й"
      ],
      [
        "ме",
        "т"
      ],
      [
        "ствен",
        "но"
      ],
      [
        "тран",
        "спор"
      ],
      [
        "d",
        "ro"
      ],
      [
        "v",
        "en"
      ],
      [
        "К",
        "у"
      ],
      [
        "у",
        "же"
      ],
      [
        "op",
        "er"
      ],
      [
        "вши",
        "й"
      ],
      [
        "X",
        "V"
      ],
      [
        "исполь",
        "зу"
      ],
      [
        "ш",
        "та"
      ],
      [
        "ци",
        "ей"
      ],
      [
        "жд",
        "ения"
      ],
      [
        "результа",
        "те"
      ],
      [
        "a",
        "im"
      ],
      [
        "e",
        "conom"
      ],
      [
        "о",
        "нов"
      ],
      [
        "ко",
        "л"
      ],
      [
        "те",
        "й"
      ],
      [
        "про",
        "ис"
      ],
      [
        "w",
        "ill"
      ],
      [
        "а",
        "в"
      ],
      [
        "г",
        "лу"
      ],
      [
        "om",
        "an"
      ],
      [
        "ста",
        "л"
      ],
      [
        "Г",
        "осу"
      ],
      [
        "it",
        "ch"
      ],
      [
        "вши",
        "е"
      ],
      [
        "ва",
        "ется"
      ],
      [
        "pos",
        "s"
      ],
      [
        "sup",
        "port"
      ],
      [
        "ж",
        "ной"
      ],
      [
        "Th",
        "ere"
      ],
      [
        "Сан",
        "кт"
      ],
      [
        "b",
        "od"
      ],
      [
        "б",
        "ра"
      ],
      [
        "ме",
        "то"
      ],
      [
        "от",
        "де"
      ],
      [
        "неме",
        "ц"
      ],
      [
        "s",
        "aw"
      ],
      [
        "С",
        "у"
      ],
      [
        "по",
        "мо"
      ],
      [
        "ки",
        "м"
      ],
      [
        "des",
        "cri"
      ],
      [
        "бри",
        "та"
      ],
      [
        "Велико",
        "брита"
      ],
      [
        "Jap",
        "an"
      ],
      [
        "r",
        "ad"
      ],
      [
        "hum",
        "an"
      ],
      [
        "тыся",
        "ч"
      ],
      [
        "ва",
        "р"
      ],
      [
        "con",
        "tr"
      ],
      [
        "at",
        "om"
      ],
      [
        "ве",
        "ро"
      ],
      [
        "чи",
        "слен"
      ],
      [
        "Af",
        "ric"
      ],
      [
        "Герма",
        "нии"
      ],
      [
        "p",
        "ublic"
      ],
      [
        "s",
        "ame"
      ],
      [
        "ва",
        "ет"
      ],
      [
        "ка",
        "ми"
      ],
      [
        "не",
        "т"
      ],
      [
        "cho",
        "ol"
      ],
      [
        "К",
        "он"
      ],
      [
        "ра",
        "ди"
      ],
      [
        "re",
        "f"
      ],
      [
        "al",
        "t"
      ],
      [
        "мен",
        "т"
      ],
      [
        "мен",
        "ь"
      ],
      [
        "pres",
        "s"
      ],
      [
        "W",
        "est"
      ],
      [
        "д",
        "ь"
      ],
      [
        "по",
        "ч"
      ],
      [
        "ка",
        "р"
      ],
      [
        "бо",
        "р"
      ],
      [
        "ist",
        "ic"
      ],
      [
        "U",
        "S"
      ],
      [
        "ско",
        "му"
      ],
      [
        "при",
        "зна"
      ],
      [
        "ph",
        "ilosop"
      ],
      [
        "Во",
        "л"
      ],
      [
        "мини",
        "стра"
      ],
      [
        "f",
        "ic"
      ],
      [
        "до",
        "сти"
      ],
      [
        "un",
        "til"
      ],
      [
        "201",
        "0"
      ],
      [
        "ire",
        "d"
      ],
      [
        "ющи",
        "й"
      ],
      [
        "поли",
        "ти"
      ],
      [
        "ster",
        "dam"
      ],
      [
        "S",
        "outh"
      ],
      [
        "де",
        "каб"
      ],
      [
        "же",
        "лез"
      ],
      [
        "мно",
        "ги"
      ],
      [
        "suc",
        "cess"
      ],
      [
        "на",
        "х"
      ],
      [
        "Am",
        "sterdam"
      ],
      [
        "sp",
        "ace"
      ],
      [
        "War",
        "hol"
      ],
      [
        "с",
        "с"
      ],
      [
        "х",
        "у"
      ],
      [
        "раз",
        "лич"
      ],
      [
        "распо",
        "ложен"
      ],
      [
        "i",
        "k"
      ],
      [
        "n",
        "or"
      ],
      [
        "И",
        "з"
      ],
      [
        "in",
        "flu"
      ],
      [
        "ли",
        "тера"
      ],
      [
        "та",
        "ми"
      ],
      [
        "consid",
        "ered"
      ],
      [
        "Госу",
        "дар"
      ],
      [
        "a",
        "ut"
      ],
      [
        "ва",
        "л"
      ],
      [
        "ev",
        "en"
      ],
      [
        "S",
        "ch"
      ],
      [
        "к",
        "си"
      ],
      [
        "со",
        "ответ"
      ],
      [
        "чи",
        "сле"
      ],
      [
        "вклю",
        "ча"
      ],
      [
        "A",
        "zer"
      ],
      [
        "i",
        "er"
      ],
      [
        "de",
        "ath"
      ],
      [
        "ter",
        "m"
      ],
      [
        "A",
        "udi"
      ],
      [
        "F",
        "ran"
      ],
      [
        "b",
        "or"
      ],
      [
        "г",
        "де"
      ],
      [
        "th",
        "ose"
      ],
      [
        "ра",
        "я"
      ],
      [
        "il",
        "ar"
      ],
      [
        "Un",
        "iversity"
      ],
      [
        "lar",
        "gest"
      ],
      [
        "fed",
        "er"
      ],
      [
        "ф",
        "рон"
      ],
      [
        "на",
        "пример"
      ],
      [
        "st",
        "at"
      ],
      [
        "ми",
        "ре"
      ],
      [
        "ме",
        "ча"
      ],
      [
        "gr",
        "am"
      ],
      [
        "Wor",
        "ld"
      ],
      [
        "у",
        "ча"
      ],
      [
        "iv",
        "al"
      ],
      [
        "end",
        "ed"
      ],
      [
        "G",
        "en"
      ],
      [
        "m",
        "b"
      ],
      [
        "В",
        "а"
      ],
      [
        "М",
        "ин"
      ],
      [
        "в",
        "не"
      ],
      [
        "за",
        "нима"
      ],
      [
        "пери",
        "од"
      ],
      [
        "Д",
        "е"
      ],
      [
        "all",
        "ow"
      ],
      [
        "сту",
        "па"
      ],
      [
        "8",
        "0"
      ],
      [
        "ди",
        "и"
      ],
      [
        "ян",
        "ва"
      ],
      [
        "R",
        "o"
      ],
      [
        "en",
        "n"
      ],
      [
        "други",
        "е"
      ],
      [
        "18",
        "9"
      ],
      [
        "горо",
        "де"
      ],
      [
        "fam",
        "ily"
      ],
      [
        "charac",
        "ter"
      ],
      [
        "2",
        "6"
      ],
      [
        "b",
        "ai"
      ],
      [
        "d",
        "iv"
      ],
      [
        "е",
        "щё"
      ],
      [
        "ше",
        "го"
      ],
      [
        "m",
        "ar"
      ],
      [
        "при",
        "я"
      ],
      [
        "po",
        "int"
      ],
      [
        "Azer",
        "bai"
      ],
      [
        "Azerbai",
        "jan"
      ],
      [
        "в",
        "с"
      ],
      [
        "form",
        "ed"
      ],
      [
        "m",
        "uch"
      ],
      [
        "о",
        "пера"
      ],
      [
        "an",
        "e"
      ],
      [
        "ко",
        "ми"
      ],
      [
        "че",
        "ская"
      ],
      [
        "ствен",
        "ной"
      ],
      [
        "явля",
        "ются"
      ],
      [
        "ход",
        "я"
      ],
      [
        "строи",
        "тель"
      ],
      [
        "и",
        "мо"
      ],
      [
        "ри",
        "й"
      ],
      [
        "m",
        "ilit"
      ],
      [
        "ь",
        "я"
      ],
      [
        "ми",
        "лли"
      ],
      [
        "m",
        "iss"
      ],
      [
        "Г",
        "а"
      ],
      [
        "ко",
        "ман"
      ],
      [
        "iv",
        "ing"
      ],
      [
        "гра",
        "м"
      ],
      [
        "du",
        "e"
      ],
      [
        "comm",
        "on"
      ],
      [
        "1",
        "00"
      ],
      [
        "d",
        "i"
      ],
      [
        "ф",
        "ер"
      ],
      [
        "ду",
        "к"
      ],
      [
        "produ",
        "ct"
      ],
      [
        "k",
        "ing"
      ],
      [
        "l",
        "a"
      ],
      [
        "Э",
        "то"
      ],
      [
        "ко",
        "ро"
      ],
      [
        "на",
        "у"
      ],
      [
        "на",
        "прав"
      ],
      [
        "ре",
        "спубли"
      ],
      [
        "ar",
        "r"
      ],
      [
        "ent",
        "al"
      ],
      [
        "ви",
        "ч"
      ],
      [
        "ви",
        "де"
      ],
      [
        "Al",
        "ask"
      ],
      [
        "За",
        "пад"
      ],
      [
        "c",
        "rit"
      ],
      [
        "v",
        "ol"
      ],
      [
        "е",
        "сть"
      ],
      [
        "Af",
        "gh"
      ],
      [
        "pow",
        "er"
      ],
      [
        "са",
        "мы"
      ],
      [
        "Af",
        "ter"
      ],
      [
        "A",
        "d"
      ],
      [
        "T",
        "ur"
      ],
      [
        "at",
        "ely"
      ],
      [
        "he",
        "ad"
      ],
      [
        "ab",
        "ort"
      ],
      [
        "land",
        "s"
      ],
      [
        "comm",
        "un"
      ],
      [
        "ty",
        "p"
      ],
      [
        "B",
        "ell"
      ],
      [
        "мо",
        "в"
      ],
      [
        "ши",
        "ро"
      ],
      [
        "201",
        "1"
      ],
      [
        "d",
        "id"
      ],
      [
        "С",
        "Ш"
      ],
      [
        "з",
        "ей"
      ],
      [
        "re",
        "fer"
      ],
      [
        "again",
        "st"
      ],
      [
        "рас",
        "простран"
      ],
      [
        "B",
        "e"
      ],
      [
        "Г",
        "и"
      ],
      [
        "о",
        "кт"
      ],
      [
        "х",
        "ва"
      ],
      [
        "х",
        "ран"
      ],
      [
        "ro",
        "w"
      ],
      [
        "СШ",
        "А"
      ],
      [
        "у",
        "да"
      ],
      [
        "A",
        "ch"
      ],
      [
        "m",
        "us"
      ],
      [
        "ц",
        "ер"
      ],
      [
        "ль",
        "ного"
      ],
      [
        "ме",
        "сте"
      ],
      [
        "2",
        "7"
      ],
      [
        "el",
        "s"
      ],
      [
        "act",
        "ion"
      ],
      [
        "Con",
        "feder"
      ],
      [
        "cr",
        "aft"
      ],
      [
        "ост",
        "рова"
      ],
      [
        "B",
        "y"
      ],
      [
        "s",
        "ide"
      ],
      [
        "то",
        "н"
      ],
      [
        "про",
        "це"
      ],
      [
        "об",
        "щи"
      ],
      [
        "In",
        "ter"
      ],
      [
        "о",
        "з"
      ],
      [
        "ре",
        "мен"
      ],
      [
        "вед",
        "ения"
      ],
      [
        "re",
        "present"
      ],
      [
        "ic",
        "es"
      ],
      [
        "ско",
        "в"
      ],
      [
        "рабо",
        "т"
      ],
      [
        "ш",
        "ли"
      ],
      [
        "ме",
        "тро"
      ],
      [
        "de",
        "fin"
      ],
      [
        "обла",
        "сти"
      ],
      [
        "o",
        "x"
      ],
      [
        "л",
        "ении"
      ],
      [
        "слу",
        "ча"
      ],
      [
        "щ",
        "ения"
      ],
      [
        "во",
        "м"
      ],
      [
        "av",
        "ing"
      ],
      [
        "т",
        "вер"
      ],
      [
        "ь",
        "е"
      ],
      [
        "па",
        "ра"
      ],
      [
        "ка",
        "з"
      ],
      [
        "me",
        "an"
      ],
      [
        "между",
        "народ"
      ],
      [
        "которо",
        "й"
      ],
      [
        "верси",
        "те"
      ],
      [
        "в",
        "ну"
      ],
      [
        "ко",
        "гда"
      ],
      [
        "G",
        "r"
      ],
      [
        "m",
        "em"
      ],
      [
        "Г",
        "ре"
      ],
      [
        "за",
        "ция"
      ],
      [
        "ast",
        "ron"
      ],
      [
        "зависи",
        "мо"
      ],
      [
        "t",
        "ic"
      ],
      [
        "б",
        "ле"
      ],
      [
        "ist",
        "an"
      ],
      [
        "сою",
        "з"
      ],
      [
        "M",
        "ar"
      ],
      [
        "l",
        "aw"
      ],
      [
        "ч",
        "у"
      ],
      [
        "обо",
        "ро"
      ],
      [
        "sim",
        "ilar"
      ],
      [
        "u",
        "ary"
      ],
      [
        "сто",
        "ли"
      ],
      [
        "6",
        "0"
      ],
      [
        "В",
        "ы"
      ],
      [
        "ни",
        "тель"
      ],
      [
        "it",
        "ions"
      ],
      [
        "спе",
        "ран"
      ],
      [
        "2",
        "8"
      ],
      [
        "y",
        "l"
      ],
      [
        "or",
        "ies"
      ],
      [
        "до",
        "ста"
      ],
      [
        "ана",
        "ли"
      ],
      [
        "aster",
        "o"
      ],
      [
        "Afgh",
        "an"
      ],
      [
        "ф",
        "ран"
      ],
      [
        "as",
        "es"
      ],
      [
        "про",
        "дол"
      ],
      [
        "b",
        "re"
      ],
      [
        "у",
        "прав"
      ],
      [
        "э",
        "та"
      ],
      [
        "вы",
        "ше"
      ],
      [
        "are",
        "a"
      ],
      [
        "201",
        "2"
      ],
      [
        "усло",
        "ви"
      ],
      [
        "o",
        "il"
      ],
      [
        "ст",
        "ей"
      ],
      [
        "pe",
        "ct"
      ],
      [
        "все",
        "го"
      ],
      [
        "C",
        "an"
      ],
      [
        "S",
        "ome"
      ],
      [
        "re",
        "st"
      ],
      [
        "al",
        "ong"
      ],
      [
        "om",
        "et"
      ],
      [
        "with",
        "in"
      ],
      [
        "Al",
        "ber"
      ],
      [
        "рабо",
        "та"
      ],
      [
        "юще",
        "й"
      ],
      [
        "Ни",
        "кола"
      ],
      [
        "contin",
        "u"
      ],
      [
        "неско",
        "лько"
      ],
      [
        "в",
        "лия"
      ],
      [
        "al",
        "ity"
      ],
      [
        "b",
        "i"
      ],
      [
        "c",
        "k"
      ],
      [
        "х",
        "от"
      ],
      [
        "го",
        "ды"
      ],
      [
        "ли",
        "ш"
      ],
      [
        "str",
        "ong"
      ],
      [
        "att",
        "le"
      ],
      [
        "produ",
        "ction"
      ],
      [
        "al",
        "th"
      ],
      [
        "ac",
        "y"
      ],
      [
        "сво",
        "бо"
      ],
      [
        "Ли",
        "т"
      ],
      [
        "d",
        "en"
      ],
      [
        "g",
        "reat"
      ],
      [
        "p",
        "ut"
      ],
      [
        "Б",
        "у"
      ],
      [
        "г",
        "ен"
      ],
      [
        "ение",
        "м"
      ],
      [
        "sh",
        "ow"
      ],
      [
        "iz",
        "e"
      ],
      [
        "соста",
        "в"
      ],
      [
        "As",
        "ia"
      ],
      [
        "мо",
        "ре"
      ],
      [
        "200",
        "9"
      ],
      [
        "au",
        "th"
      ],
      [
        "Влади",
        "восто"
      ],
      [
        "Пет",
        "ро"
      ],
      [
        "P",
        "e"
      ],
      [
        "g",
        "re"
      ],
      [
        "Ц",
        "ент"
      ],
      [
        "и",
        "но"
      ],
      [
        "se",
        "qu"
      ],
      [
        "кон",
        "це"
      ],
      [
        "te",
        "le"
      ],
      [
        "iel",
        "d"
      ],
      [
        "Alask",
        "a"
      ],
      [
        "т",
        "ных"
      ],
      [
        "ен",
        "ь"
      ],
      [
        "is",
        "ed"
      ],
      [
        "се",
        "й"
      ],
      [
        "бы",
        "ть"
      ],
      [
        "199",
        "0"
      ],
      [
        "мож",
        "но"
      ],
      [
        "c",
        "le"
      ],
      [
        "s",
        "ing"
      ],
      [
        "Ф",
        "е"
      ],
      [
        "а",
        "пре"
      ],
      [
        "19",
        "17"
      ],
      [
        "мо",
        "на"
      ],
      [
        "ин",
        "тер"
      ],
      [
        "им",
        "пе"
      ],
      [
        "Бе",
        "ло"
      ],
      [
        "m",
        "at"
      ],
      [
        "t",
        "ro"
      ],
      [
        "in",
        "a"
      ],
      [
        "на",
        "уч"
      ],
      [
        "гра",
        "ждан"
      ],
      [
        "им",
        "пера"
      ],
      [
        "архи",
        "тек"
      ],
      [
        "A",
        "S"
      ],
      [
        "i",
        "et"
      ],
      [
        "ни",
        "з"
      ],
      [
        "ка",
        "я"
      ],
      [
        "та",
        "ль"
      ],
      [
        "ка",
        "м"
      ],
      [
        "if",
        "ied"
      ],
      [
        "зи",
        "и"
      ],
      [
        "cont",
        "ain"
      ],
      [
        "дол",
        "ж"
      ],
      [
        "арми",
        "и"
      ],
      [
        "Б",
        "ал"
      ],
      [
        "с",
        "ент"
      ],
      [
        "во",
        "про"
      ],
      [
        "se",
        "e"
      ],
      [
        "образо",
        "ва"
      ],
      [
        "дея",
        "тель"
      ],
      [
        "н",
        "ения"
      ],
      [
        "ста",
        "ли"
      ],
      [
        "ard",
        "s"
      ],
      [
        "пер",
        "вые"
      ],
      [
        "ление",
        "м"
      ],
      [
        "7",
        "0"
      ],
      [
        "да",
        "тель"
      ],
      [
        "де",
        "ли"
      ],
      [
        "be",
        "gan"
      ],
      [
        "нача",
        "ле"
      ],
      [
        "2",
        "9"
      ],
      [
        "Б",
        "ер"
      ],
      [
        "б",
        "ла"
      ],
      [
        "ру",
        "ко"
      ],
      [
        "ap",
        "pro"
      ],
      [
        "pol",
        "og"
      ],
      [
        "Г",
        "е"
      ],
      [
        "ol",
        "v"
      ],
      [
        "wh",
        "at"
      ],
      [
        "off",
        "ic"
      ],
      [
        "фу",
        "нк"
      ],
      [
        "Б",
        "а"
      ],
      [
        "ф",
        "ак"
      ],
      [
        "or",
        "ith"
      ],
      [
        "де",
        "ла"
      ],
      [
        "ph",
        "a"
      ],
      [
        "Ar",
        "ist"
      ],
      [
        "од",
        "нако"
      ],
      [
        "ев",
        "ро"
      ],
      [
        "Th",
        "ese"
      ],
      [
        "Од",
        "нако"
      ],
      [
        "C",
        "ar"
      ],
      [
        "G",
        "e"
      ],
      [
        "H",
        "is"
      ],
      [
        "Л",
        "он"
      ],
      [
        "th",
        "od"
      ],
      [
        "па",
        "с"
      ],
      [
        "ward",
        "s"
      ],
      [
        "Ear",
        "th"
      ],
      [
        "a",
        "ther"
      ],
      [
        "p",
        "at"
      ],
      [
        "я",
        "в"
      ],
      [
        "ст",
        "ри"
      ],
      [
        "на",
        "н"
      ],
      [
        "ren",
        "ch"
      ],
      [
        "цу",
        "з"
      ],
      [
        "К",
        "рас"
      ],
      [
        "г",
        "ло"
      ],
      [
        "д",
        "ва"
      ],
      [
        "н",
        "ю"
      ],
      [
        "ч",
        "ных"
      ],
      [
        "го",
        "р"
      ],
      [
        "ro",
        "ss"
      ],
      [
        "об",
        "ы"
      ],
      [
        "iv",
        "en"
      ],
      [
        "су",
        "т"
      ],
      [
        "201",
        "4"
      ],
      [
        "gr",
        "ap"
      ],
      [
        "H",
        "er"
      ],
      [
        "д",
        "вор"
      ],
      [
        "ч",
        "ь"
      ],
      [
        "те",
        "о"
      ],
      [
        "et",
        "s"
      ],
      [
        "Со",
        "ю"
      ],
      [
        "эконо",
        "ми"
      ],
      [
        "Но",
        "во"
      ],
      [
        "значи",
        "тель"
      ],
      [
        "C",
        "ent"
      ],
      [
        "m",
        "ag"
      ],
      [
        "s",
        "elf"
      ],
      [
        "t",
        "le"
      ],
      [
        "с",
        "ке"
      ],
      [
        "с",
        "реди"
      ],
      [
        "al",
        "es"
      ],
      [
        "ль",
        "ная"
      ],
      [
        "pr",
        "act"
      ],
      [
        "199",
        "1"
      ],
      [
        "pos",
        "ed"
      ],
      [
        "кресть",
        "ян"
      ],
      [
        "f",
        "ace"
      ],
      [
        "t",
        "est"
      ],
      [
        "С",
        "та"
      ],
      [
        "за",
        "ня"
      ],
      [
        "до",
        "б"
      ],
      [
        "сси",
        "и"
      ],
      [
        "Итали",
        "и"
      ],
      [
        "b",
        "al"
      ],
      [
        "em",
        "p"
      ],
      [
        "partic",
        "ular"
      ],
      [
        "l",
        "ast"
      ],
      [
        "д",
        "ро"
      ],
      [
        "мо",
        "й"
      ],
      [
        "се",
        "р"
      ],
      [
        "rel",
        "ig"
      ],
      [
        "Angol",
        "a"
      ],
      [
        "s",
        "ch"
      ],
      [
        "ли",
        "чи"
      ],
      [
        "om",
        "en"
      ],
      [
        "кото",
        "рая"
      ],
      [
        "вер",
        "х"
      ],
      [
        "N",
        "ational"
      ],
      [
        "f",
        "un"
      ],
      [
        "t",
        "al"
      ],
      [
        "П",
        "ре"
      ],
      [
        "ar",
        "a"
      ],
      [
        "про",
        "дук"
      ],
      [
        "ant",
        "ic"
      ],
      [
        "bo",
        "ok"
      ],
      [
        "sc",
        "ri"
      ],
      [
        "N",
        "e"
      ],
      [
        "P",
        "r"
      ],
      [
        "R",
        "uss"
      ],
      [
        "R",
        "oman"
      ],
      [
        "on",
        "es"
      ],
      [
        "sh",
        "ort"
      ],
      [
        "в",
        "за"
      ],
      [
        "ou",
        "thern"
      ],
      [
        "ent",
        "ly"
      ],
      [
        "20",
        "00"
      ],
      [
        "соб",
        "ствен"
      ],
      [
        "vari",
        "ous"
      ],
      [
        "i",
        "ally"
      ],
      [
        "Т",
        "и"
      ],
      [
        "г",
        "ру"
      ],
      [
        "д",
        "р"
      ],
      [
        "у",
        "част"
      ],
      [
        "во",
        "в"
      ],
      [
        "ма",
        "тери"
      ],
      [
        "Al",
        "ab"
      ],
      [
        "gro",
        "w"
      ],
      [
        "B",
        "r"
      ],
      [
        "F",
        "rench"
      ],
      [
        "о",
        "соб"
      ],
      [
        "э",
        "сперан"
      ],
      [
        "мо",
        "ря"
      ],
      [
        "боль",
        "шо"
      ],
      [
        "film",
        "s"
      ],
      [
        "des",
        "ign"
      ],
      [
        "Arist",
        "ot"
      ],
      [
        "E",
        "ast"
      ],
      [
        "s",
        "he"
      ],
      [
        "Л",
        "е"
      ],
      [
        "не",
        "р"
      ],
      [
        "be",
        "t"
      ],
      [
        "gen",
        "eral"
      ],
      [
        "че",
        "р"
      ],
      [
        "ин",
        "те"
      ],
      [
        "форми",
        "рова"
      ],
      [
        "ав",
        "гу"
      ],
      [
        "C",
        "ong"
      ],
      [
        "h",
        "al"
      ],
      [
        "ст",
        "ер"
      ],
      [
        "Росси",
        "йской"
      ],
      [
        "вос",
        "ста"
      ],
      [
        "наз",
        "вание"
      ],
      [
        "сист",
        "емы"
      ],
      [
        "f",
        "r"
      ],
      [
        "in",
        "depend"
      ],
      [
        "со",
        "м"
      ],
      [
        "из",
        "и"
      ],
      [
        "cl",
        "aim"
      ],
      [
        "сле",
        "ду"
      ],
      [
        "пере",
        "да"
      ],
      [
        "200",
        "8"
      ],
      [
        "ob",
        "ject"
      ],
      [
        "r",
        "ist"
      ],
      [
        "ми",
        "на"
      ],
      [
        "щи",
        "х"
      ],
      [
        "inste",
        "in"
      ],
      [
        "Лон",
        "до"
      ],
      [
        "e",
        "th"
      ],
      [
        "ра",
        "ство"
      ],
      [
        "che",
        "m"
      ],
      [
        "уни",
        "версите"
      ],
      [
        "оди",
        "н"
      ],
      [
        "Alab",
        "ama"
      ],
      [
        "P",
        "ar"
      ],
      [
        "b",
        "ur"
      ],
      [
        "l",
        "at"
      ],
      [
        "ма",
        "три"
      ],
      [
        "мен",
        "е"
      ],
      [
        "201",
        "3"
      ],
      [
        "201",
        "6"
      ],
      [
        "thro",
        "polog"
      ],
      [
        "куль",
        "тур"
      ],
      [
        "l",
        "ing"
      ],
      [
        "n",
        "at"
      ],
      [
        "n",
        "ess"
      ],
      [
        "in",
        "es"
      ],
      [
        "об",
        "ходи"
      ],
      [
        "име",
        "ет"
      ],
      [
        "B",
        "o"
      ],
      [
        "H",
        "ist"
      ],
      [
        "l",
        "ight"
      ],
      [
        "p",
        "ubl"
      ],
      [
        "ба",
        "л"
      ],
      [
        "ком",
        "па"
      ],
      [
        "нача",
        "ла"
      ],
      [
        "хи",
        "миче"
      ],
      [
        "Ка",
        "ли"
      ],
      [
        "E",
        "instein"
      ],
      [
        "c",
        "ock"
      ],
      [
        "В",
        "ер"
      ],
      [
        "д",
        "во"
      ],
      [
        "sk",
        "y"
      ],
      [
        "follow",
        "ing"
      ],
      [
        "Ger",
        "man"
      ],
      [
        "ме",
        "та"
      ],
      [
        "pro",
        "cess"
      ],
      [
        "ку",
        "р"
      ],
      [
        "pr",
        "im"
      ],
      [
        "сте",
        "п"
      ],
      [
        "cour",
        "t"
      ],
      [
        "T",
        "r"
      ],
      [
        "ра",
        "м"
      ],
      [
        "mo",
        "del"
      ],
      [
        "pl",
        "ic"
      ],
      [
        "wor",
        "ks"
      ],
      [
        "вре",
        "мени"
      ],
      [
        "свя",
        "зи"
      ],
      [
        "Евро",
        "пы"
      ],
      [
        "s",
        "chool"
      ],
      [
        "ac",
        "id"
      ],
      [
        "pro",
        "gram"
      ],
      [
        "Al",
        "ger"
      ],
      [
        "вла",
        "сть"
      ],
      [
        "Eng",
        "lish"
      ],
      [
        "h",
        "au"
      ],
      [
        "н",
        "ь"
      ],
      [
        "я",
        "ми"
      ],
      [
        "on",
        "y"
      ],
      [
        "200",
        "7"
      ],
      [
        "comp",
        "any"
      ],
      [
        "develop",
        "ed"
      ],
      [
        "поз",
        "во"
      ],
      [
        "import",
        "ant"
      ],
      [
        "декаб",
        "ря"
      ],
      [
        "M",
        "o"
      ],
      [
        "e",
        "ast"
      ],
      [
        "v",
        "an"
      ],
      [
        "во",
        "ды"
      ],
      [
        "ur",
        "ther"
      ],
      [
        "мя",
        "т"
      ],
      [
        "Ac",
        "ade"
      ],
      [
        "spec",
        "ies"
      ],
      [
        "R",
        "ep"
      ],
      [
        "му",
        "ни"
      ],
      [
        "olog",
        "ical"
      ],
      [
        "f",
        "ew"
      ],
      [
        "ph",
        "ys"
      ],
      [
        "Europe",
        "an"
      ],
      [
        "жиз",
        "ни"
      ],
      [
        "H",
        "itch"
      ],
      [
        "с",
        "ре"
      ],
      [
        "re",
        "port"
      ],
      [
        "ar",
        "ian"
      ],
      [
        "ку",
        "с"
      ],
      [
        "Росси",
        "я"
      ],
      [
        "тиче",
        "ски"
      ],
      [
        "Фран",
        "ции"
      ],
      [
        "sign",
        "ific"
      ],
      [
        "bod",
        "y"
      ],
      [
        "h",
        "and"
      ],
      [
        "l",
        "ab"
      ],
      [
        "д",
        "ра"
      ],
      [
        "по",
        "стро"
      ],
      [
        "as",
        "on"
      ],
      [
        "pl",
        "an"
      ],
      [
        "An",
        "im"
      ],
      [
        "би",
        "ра"
      ],
      [
        "oc",
        "cur"
      ],
      [
        "соста",
        "ви"
      ],
      [
        "по",
        "н"
      ],
      [
        "то",
        "графи"
      ],
      [
        "us",
        "es"
      ],
      [
        "em",
        "pt"
      ],
      [
        "ever",
        "y"
      ],
      [
        "составля",
        "ет"
      ],
      [
        "каче",
        "стве"
      ],
      [
        "i",
        "but"
      ],
      [
        "и",
        "мен"
      ],
      [
        "ро",
        "да"
      ],
      [
        "ass",
        "i"
      ],
      [
        "дву",
        "х"
      ],
      [
        "milit",
        "ary"
      ],
      [
        "E",
        "mp"
      ],
      [
        "G",
        "o"
      ],
      [
        "u",
        "es"
      ],
      [
        "с",
        "ме"
      ],
      [
        "st",
        "ill"
      ],
      [
        "со",
        "л"
      ],
      [
        "19",
        "18"
      ],
      [
        "хо",
        "де"
      ],
      [
        "цент",
        "ра"
      ],
      [
        "hist",
        "ory"
      ],
      [
        "n",
        "orth"
      ],
      [
        "с",
        "ни"
      ],
      [
        "пу",
        "т"
      ],
      [
        "form",
        "s"
      ],
      [
        "chang",
        "e"
      ],
      [
        "j",
        "o"
      ],
      [
        "в",
        "ен"
      ],
      [
        "х",
        "е"
      ],
      [
        "at",
        "a"
      ],
      [
        "де",
        "мо"
      ],
      [
        "ci",
        "ally"
      ],
      [
        "ше",
        "е"
      ],
      [
        "больше",
        "ви"
      ],
      [
        "наи",
        "более"
      ],
      [
        "сторо",
        "ны"
      ],
      [
        "офи",
        "циаль"
      ],
      [
        "Hitch",
        "cock"
      ],
      [
        "c",
        "op"
      ],
      [
        "p",
        "ed"
      ],
      [
        "И",
        "сто"
      ],
      [
        "О",
        "с"
      ],
      [
        "er",
        "v"
      ],
      [
        "по",
        "тре"
      ],
      [
        "20",
        "20"
      ],
      [
        "ser",
        "ies"
      ],
      [
        "исполь",
        "зо"
      ],
      [
        "pop",
        "ular"
      ],
      [
        "тру",
        "д"
      ],
      [
        "систе",
        "ма"
      ],
      [
        "янва",
        "ря"
      ],
      [
        "3",
        "5"
      ],
      [
        "A",
        "u"
      ],
      [
        "j",
        "ust"
      ],
      [
        "Д",
        "ля"
      ],
      [
        "Р",
        "о"
      ],
      [
        "in",
        "ed"
      ],
      [
        "is",
        "su"
      ],
      [
        "со",
        "бы"
      ],
      [
        "ве",
        "ке"
      ],
      [
        "ви",
        "д"
      ],
      [
        "ab",
        "ly"
      ],
      [
        "ill",
        "es"
      ],
      [
        "сту",
        "пи"
      ],
      [
        "dis",
        "cover"
      ],
      [
        "polit",
        "ical"
      ],
      [
        "B",
        "er"
      ],
      [
        "с",
        "пи"
      ],
      [
        "не",
        "обходи"
      ],
      [
        "us",
        "ually"
      ],
      [
        "ab",
        "ility"
      ],
      [
        "igh",
        "ts"
      ],
      [
        "челове",
        "ка"
      ],
      [
        "Wh",
        "en"
      ],
      [
        "гене",
        "ра"
      ],
      [
        "д",
        "рев"
      ],
      [
        "re",
        "ce"
      ],
      [
        "по",
        "пу"
      ],
      [
        "ри",
        "сти"
      ],
      [
        "ro",
        "te"
      ],
      [
        "та",
        "р"
      ],
      [
        "объ",
        "ек"
      ],
      [
        "ию",
        "ня"
      ],
      [
        "XI",
        "X"
      ],
      [
        "Ag",
        "assi"
      ],
      [
        "n",
        "ov"
      ],
      [
        "М",
        "ар"
      ],
      [
        "к",
        "ру"
      ],
      [
        "на",
        "м"
      ],
      [
        "ка",
        "ж"
      ],
      [
        "сла",
        "в"
      ],
      [
        "которо",
        "го"
      ],
      [
        "stud",
        "y"
      ],
      [
        "trad",
        "ition"
      ],
      [
        "p",
        "ass"
      ],
      [
        "Т",
        "о"
      ],
      [
        "ш",
        "ен"
      ],
      [
        "ди",
        "на"
      ],
      [
        "ter",
        "rit"
      ],
      [
        "pro",
        "ble"
      ],
      [
        "lo",
        "y"
      ],
      [
        "эле",
        "ктро"
      ],
      [
        "X",
        "X"
      ],
      [
        "п",
        "ря"
      ],
      [
        "с",
        "матри"
      ],
      [
        "ф",
        "ев"
      ],
      [
        "al",
        "though"
      ],
      [
        "ва",
        "ж"
      ],
      [
        "ch",
        "ild"
      ],
      [
        "de",
        "st"
      ],
      [
        "um",
        "ent"
      ],
      [
        "кон",
        "тро"
      ],
      [
        "cur",
        "ren"
      ],
      [
        "D",
        "uring"
      ],
      [
        "K",
        "uro"
      ],
      [
        "c",
        "ul"
      ],
      [
        "it",
        "ic"
      ],
      [
        "to",
        "p"
      ],
      [
        "ста",
        "в"
      ],
      [
        "pl",
        "es"
      ],
      [
        "wor",
        "d"
      ],
      [
        "201",
        "5"
      ],
      [
        "дер",
        "жи"
      ],
      [
        "еди",
        "ни"
      ],
      [
        "Se",
        "a"
      ],
      [
        "countr",
        "ies"
      ],
      [
        "иссле",
        "дова"
      ],
      [
        "p",
        "ur"
      ],
      [
        "л",
        "ки"
      ],
      [
        "х",
        "рома"
      ],
      [
        "ш",
        "у"
      ],
      [
        "ли",
        "бо"
      ],
      [
        "де",
        "ся"
      ],
      [
        "am",
        "es"
      ],
      [
        "хо",
        "да"
      ],
      [
        "ran",
        "ch"
      ],
      [
        "hist",
        "or"
      ],
      [
        "больши",
        "н"
      ],
      [
        "лиш",
        "ь"
      ],
      [
        "scri",
        "pt"
      ],
      [
        "Aristot",
        "le"
      ],
      [
        "m",
        "ake"
      ],
      [
        "Л",
        "а"
      ],
      [
        "Т",
        "е"
      ],
      [
        "де",
        "ра"
      ],
      [
        "мо",
        "гу"
      ],
      [
        "201",
        "7"
      ],
      [
        "Ch",
        "rist"
      ],
      [
        "обе",
        "спе"
      ],
      [
        "импе",
        "рии"
      ],
      [
        "Rep",
        "ublic"
      ],
      [
        "Kuro",
        "saw"
      ],
      [
        "M",
        "ed"
      ],
      [
        "н",
        "ци"
      ],
      [
        "or",
        "k"
      ],
      [
        "про",
        "ек"
      ],
      [
        "се",
        "вер"
      ],
      [
        "pl",
        "ace"
      ],
      [
        "пра",
        "к"
      ],
      [
        "од",
        "но"
      ],
      [
        "Cong",
        "ress"
      ],
      [
        "Kurosaw",
        "a"
      ],
      [
        "g",
        "ed"
      ],
      [
        "ни",
        "че"
      ],
      [
        "предста",
        "ви"
      ],
      [
        "alg",
        "orith"
      ],
      [
        "A",
        "b"
      ],
      [
        "I",
        "s"
      ],
      [
        "p",
        "ot"
      ],
      [
        "ou",
        "se"
      ],
      [
        "ith",
        "er"
      ],
      [
        "194",
        "1"
      ],
      [
        "з",
        "ер"
      ],
      [
        "ко",
        "е"
      ],
      [
        "ве",
        "ще"
      ],
      [
        "при",
        "нима"
      ],
      [
        "ня",
        "я"
      ],
      [
        "Americ",
        "a"
      ],
      [
        "миро",
        "вой"
      ],
      [
        "Acade",
        "my"
      ],
      [
        "о",
        "стро"
      ],
      [
        "ка",
        "зыва"
      ],
      [
        "до",
        "вания"
      ],
      [
        "ча",
        "сто"
      ],
      [
        "ще",
        "е"
      ],
      [
        "дан",
        "ным"
      ],
      [
        "револю",
        "ции"
      ],
      [
        "s",
        "aid"
      ],
      [
        "re",
        "se"
      ],
      [
        "па",
        "да"
      ],
      [
        "me",
        "thod"
      ],
      [
        "собо",
        "й"
      ],
      [
        "abort",
        "ion"
      ],
      [
        "Emp",
        "ire"
      ],
      [
        "о",
        "графи"
      ],
      [
        "ши",
        "х"
      ],
      [
        "ан",
        "ти"
      ],
      [
        "ак",
        "тив"
      ],
      [
        "ис",
        "кус"
      ],
      [
        "establish",
        "ed"
      ],
      [
        "n",
        "ear"
      ],
      [
        "s",
        "outh"
      ],
      [
        "щ",
        "ение"
      ],
      [
        "re",
        "turn"
      ],
      [
        "по",
        "зи"
      ],
      [
        "из",
        "мен"
      ],
      [
        "ствен",
        "ных"
      ],
      [
        "стви",
        "и"
      ],
      [
        "includ",
        "ed"
      ],
      [
        "c",
        "are"
      ],
      [
        "w",
        "rote"
      ],
      [
        "ц",
        "ар"
      ],
      [
        "та",
        "м"
      ],
      [
        "de",
        "f"
      ],
      [
        "это",
        "му"
      ],
      [
        "осу",
        "ществ"
      ],
      [
        "open",
        "hau"
      ],
      [
        "m",
        "it"
      ],
      [
        "г",
        "ро"
      ],
      [
        "д",
        "ди"
      ],
      [
        "ч",
        "ёт"
      ],
      [
        "an",
        "arch"
      ],
      [
        "ка",
        "пи"
      ],
      [
        "ми",
        "н"
      ],
      [
        "зо",
        "в"
      ],
      [
        "group",
        "s"
      ],
      [
        "And",
        "or"
      ],
      [
        "Так",
        "же"
      ],
      [
        "Sch",
        "openhau"
      ],
      [
        "Кали",
        "нин"
      ],
      [
        "на",
        "чи"
      ],
      [
        "ла",
        "в"
      ],
      [
        "со",
        "держа"
      ],
      [
        "pr",
        "of"
      ],
      [
        "од",
        "ной"
      ],
      [
        "зе",
        "ме"
      ],
      [
        "фран",
        "цуз"
      ],
      [
        "l",
        "ate"
      ],
      [
        "ка",
        "на"
      ],
      [
        "ста",
        "ла"
      ],
      [
        "ot",
        "s"
      ],
      [
        "hy",
        "dro"
      ],
      [
        "auth",
        "or"
      ],
      [
        "ко",
        "логи"
      ],
      [
        "по",
        "да"
      ],
      [
        "un",
        "g"
      ],
      [
        "поло",
        "ви"
      ],
      [
        "soci",
        "al"
      ],
      [
        "alk",
        "ali"
      ],
      [
        "ад",
        "министра"
      ],
      [
        "C",
        "oun"
      ],
      [
        "c",
        "ing"
      ],
      [
        "m",
        "ass"
      ],
      [
        "v",
        "ir"
      ],
      [
        "y",
        "n"
      ],
      [
        "во",
        "до"
      ],
      [
        "to",
        "ok"
      ],
      [
        "ми",
        "я"
      ],
      [
        "со",
        "з"
      ],
      [
        "iv",
        "ity"
      ],
      [
        "раз",
        "ме"
      ],
      [
        "са",
        "м"
      ],
      [
        "og",
        "n"
      ],
      [
        "кра",
        "и"
      ],
      [
        "мар",
        "та"
      ],
      [
        "гер",
        "ман"
      ],
      [
        "Schopenhau",
        "er"
      ],
      [
        "p",
        "ri"
      ],
      [
        "м",
        "ь"
      ],
      [
        "ag",
        "ric"
      ],
      [
        "ствен",
        "ного"
      ],
      [
        "исто",
        "рии"
      ],
      [
        "reg",
        "ion"
      ],
      [
        "Ac",
        "cording"
      ],
      [
        "Ach",
        "illes"
      ],
      [
        "f",
        "t"
      ],
      [
        "o",
        "to"
      ],
      [
        "у",
        "станов"
      ],
      [
        "го",
        "ло"
      ],
      [
        "мо",
        "би"
      ],
      [
        "ir",
        "d"
      ],
      [
        "200",
        "6"
      ],
      [
        "ob",
        "serv"
      ],
      [
        "writ",
        "ten"
      ],
      [
        "хра",
        "ни"
      ],
      [
        "Alber",
        "ta"
      ],
      [
        "agric",
        "ult"
      ],
      [
        "P",
        "ol"
      ],
      [
        "t",
        "it"
      ],
      [
        "С",
        "реди"
      ],
      [
        "у",
        "ли"
      ],
      [
        "st",
        "art"
      ],
      [
        "не",
        "с"
      ],
      [
        "20",
        "18"
      ],
      [
        "com",
        "b"
      ],
      [
        "кре",
        "по"
      ],
      [
        "nam",
        "ed"
      ],
      [
        "bu",
        "ild"
      ],
      [
        "omet",
        "imes"
      ],
      [
        "0",
        "s"
      ],
      [
        "s",
        "en"
      ],
      [
        "t",
        "reat"
      ],
      [
        "x",
        "im"
      ],
      [
        "б",
        "я"
      ],
      [
        "in",
        "ci"
      ],
      [
        "ci",
        "ence"
      ],
      [
        "ин",
        "форма"
      ],
      [
        "исто",
        "ч"
      ],
      [
        "c",
        "ut"
      ],
      [
        "m",
        "ater"
      ],
      [
        "д",
        "ж"
      ],
      [
        "ни",
        "ей"
      ],
      [
        "as",
        "soci"
      ],
      [
        "pro",
        "per"
      ],
      [
        "ствен",
        "ный"
      ],
      [
        "og",
        "le"
      ],
      [
        "Alban",
        "ia"
      ],
      [
        "f",
        "ive"
      ],
      [
[...]
