{
  "version": "1.0",
  "truncation": null,
  "padding": null,
  "added_tokens": [
    {
      "id": 0,
      "content": "[PAD]",
      "single_word": false,
      "lstrip": false,
      "rstrip": false,
      "normalized": false,
      "special": true
    },
    {
      "id": 1,
      "content": "[UNK]",
      "single_word": false,
      "lstrip": false,
      "rstrip": false,
      "normalized": false,
      "special": true
    },
    {
      "id": 2,
      "content": "[CLS]",
      "single_word": false,
      "lstrip": false,
      "rstrip": false,
      "normalized": false,
      "special": true
    },
    {
      "id": 3,
      "content": "[SEP]",
      "single_word": false,
      "lstrip": false,
      "rstrip": false,
      "normalized": false,
      "special": true
    },
    {
      "id": 4,
      "content": "[MASK]",
      "single_word": false,
      "lstrip": false,
      "rstrip": false,
      "normalized": false,
      "special": true
    }
  ],
  "normalizer": null,
  "pre_tokenizer": {
    "type": "BertPreTokenizer"
  },
  "post_processor": null,
  "decoder": null,
  "model": {
    "type": "BPE",
    "dropout": null,
    "unk_token": null,
    "continuing_subword_prefix": null,
    "end_of_word_suffix": null,
    "fuse_unk": false,
    "byte_fallback": false,
    "ignore_merges": false,
    "vocab": {
      "[PAD]": 0,
      "[UNK]": 1,
      "[CLS]": 2,
      "[SEP]": 3,
      "[MASK]": 4,
      "!": 5,
      "\"": 6,
      "#": 7,
      "$": 8,
      "%": 9,
      "&": 10,
      "'": 11,
      "(": 12,
      ")": 13,
      "*": 14,
      "+": 15,
      ",": 16,
      "-": 17,
      ".": 18,
      "/": 19,
      "0": 20,
      "1": 21,
      "2": 22,
      "3": 23,
      "4": 24,
      "5": 25,
      "6": 26,
      "7": 27,
      "8": 28,
      "9": 29,
      ":": 30,
      ";": 31,
      "<": 32,
      "=": 33,
      ">": 34,
      "?": 35,
      "@": 36,
      "A": 37,
      "B": 38,
      "C": 39,
      "D": 40,
      "E": 41,
      "F": 42,
      "G": 43,
      "H": 44,
      "I": 45,
      "J": 46,
      "K": 47,
      "L": 48,
      "M": 49,
      "N": 50,
      "O": 51,
      "P": 52,
      "Q": 53,
      "R": 54,
      "S": 55,
      "T": 56,
      "U": 57,
      "V": 58,
      "W": 59,
      "X": 60,
      "Y": 61,
      "Z": 62,
      "[": 63,
      "\\": 64,
      "]": 65,
      "^": 66,
      "_": 67,
      "`": 68,
      "a": 69,
      "b": 70,
      "c": 71,
      "d": 72,
      "e": 73,
      "f": 74,
      "g": 75,
      "h": 76,
      "i": 77,
      "j": 78,
      "k": 79,
      "l": 80,
      "m": 81,
      "n": 82,
      "o": 83,
      "p": 84,
      "q": 85,
      "r": 86,
      "s": 87,
      "t": 88,
      "u": 89,
      "v": 90,
      "w": 91,
      "x": 92,
      "y": 93,
      "z": 94,
      "{": 95,
      "|": 96,
      "}": 97,
      "~": 98,
      "¡": 99,
      "¢": 100,
      "£": 101,
      "¥": 102,
      "§": 103,
      "¨": 104,
      "©": 105,
      "ª": 106,
      "«": 107,
      "¬": 108,
      "­": 109,
      "®": 110,
      "¯": 111,
      "°": 112,
      "±": 113,
      "²": 114,
      "³": 115,
      "´": 116,
      "µ": 117,
      "¶": 118,
      "·": 119,
      "¹": 120,
      "º": 121,
      "»": 122,
      "¼": 123,
      "½": 124,
      "¾": 125,
      "¿": 126,
      "À": 127,
      "Á": 128,
      "Â": 129,
      "Ã": 130,
      "Ä": 131,
      "Å": 132,
      "Æ": 133,
      "Ç": 134,
      "È": 135,
      "É": 136,
      "Ê": 137,
      "Ì": 138,
      "Í": 139,
      "Î": 140,
      "Ï": 141,
      "Ð": 142,
      "Ñ": 143,
      "Ò": 144,
      "Ó": 145,
      "Õ": 146,
      "Ö": 147,
      "×": 148,
      "Ø": 149,
      "Ù": 150,
      "Ú": 151,
      "Û": 152,
      "Ü": 153,
      "Ý": 154,
      "Þ": 155,
      "ß": 156,
      "à": 157,
      "á": 158,
      "â": 159,
      "ã": 160,
      "ä": 161,
      "å": 162,
      "æ": 163,
      "ç": 164,
      "è": 165,
      "é": 166,
      "ê": 167,
      "ë": 168,
      "ì": 169,
      "í": 170,
      "î": 171,
      "ï": 172,
      "ð": 173,
      "ñ": 174,
      "ò": 175,
      "ó": 176,
      "ô": 177,
      "õ": 178,
      "ö": 179,
      "÷": 180,
      "ø": 181,
      "ù": 182,
      "ú": 183,
      "û": 184,
      "ü": 185,
      "ý": 186,
      "þ": 187,
      "ÿ": 188,
      "Ā": 189,
      "ā": 190,
      "Ă": 191,
      "ă": 192,
      "Ą": 193,
      "ą": 194,
      "Ć": 195,
      "ć": 196,
      "Ĉ": 197,
      "ĉ": 198,
      "Č": 199,
      "č": 200,
      "ď": 201,
      "Đ": 202,
      "đ": 203,
      "Ē": 204,
      "ē": 205,
      "Ĕ": 206,
      "ĕ": 207,
      "ė": 208,
      "Ę": 209,
      "ę": 210,
      "ě": 211,
      "Ĝ": 212,
      "ĝ": 213,
      "Ğ": 214,
      "ğ": 215,
      "ġ": 216,
      "Ģ": 217,
      "ģ": 218,
      "Ĥ": 219,
      "ĥ": 220,
      "Ħ": 221,
      "ħ": 222,
      "ĩ": 223,
      "Ī": 224,
      "ī": 225,
      "ĭ": 226,
      "Į": 227,
      "į": 228,
      "İ": 229,
      "ı": 230,
      "Ĵ": 231,
      "ĵ": 232,
      "Ķ": 233,
      "ķ": 234,
      "ļ": 235,
      "Ľ": 236,
      "Ł": 237,
      "ł": 238,
      "ń": 239,
      "ņ": 240,
      "ň": 241,
      "ŉ": 242,
      "Ŋ": 243,
      "ŋ": 244,
      "Ō": 245,
      "ō": 246,
      "ŏ": 247,
      "Ő": 248,
      "ő": 249,
      "Œ": 250,
      "œ": 251,
      "ŕ": 252,
      "ř": 253,
      "Ś": 254,
      "ś": 255,
      "Ŝ": 256,
      "ŝ": 257,
      "Ş": 258,
      "ş": 259,
      "Š": 260,
      "š": 261,
      "Ţ": 262,
      "ţ": 263,
      "ť": 264,
      "Ū": 265,
      "ū": 266,
      "Ŭ": 267,
      "ŭ": 268,
      "ů": 269,
      "ű": 270,
      "ų": 271,
      "Ź": 272,
      "ź": 273,
      "Ż": 274,
      "ż": 275,
      "Ž": 276,
      "ž": 277,
      "ſ": 278,
      "Ɓ": 279,
      "Ɔ": 280,
      "Ɗ": 281,
      "Ɛ": 282,
      "ƒ": 283,
      "Ƙ": 284,
      "ƙ": 285,
      "Ɯ": 286,
      "ơ": 287,
      "ƥ": 288,
      "ư": 289,
      "Ƶ": 290,
      "ƶ": 291,
      "Ʒ": 292,
      "Ƹ": 293,
      "ǁ": 294,
      "Ǎ": 295,
      "ǎ": 296,
      "ǐ": 297,
      "ǔ": 298,
      "ǝ": 299,
      "Ǟ": 300,
      "ǟ": 301,
      "Ǡ": 302,
      "ǡ": 303,
      "ǧ": 304,
      "ǫ": 305,
      "ǯ": 306,
      "ǵ": 307,
      "Ǻ": 308,
      "ǻ": 309,
      "Ȁ": 310,
      "ȁ": 311,
      "Ȃ": 312,
      "ȃ": 313,
      "ȅ": 314,
      "ȉ": 315,
      "Ș": 316,
      "ș": 317,
      "Ț": 318,
      "ț": 319,
      "ȝ": 320,
      "ȡ": 321,
      "Ȣ": 322,
      "Ȧ": 323,
      "ȧ": 324,
      "ȩ": 325,
      "ȫ": 326,
      "Ⱥ": 327,
      "ɐ": 328,
      "ɑ": 329,
      "ɒ": 330,
      "ɓ": 331,
      "ɔ": 332,
      "ɕ": 333,
      "ɗ": 334,
      "ɘ": 335,
      "ə": 336,
      "ɛ": 337,
      "ɟ": 338,
      "ɡ": 339,
      "ɣ": 340,
      "ɦ": 341,
      "ɨ": 342,
      "ɪ": 343,
      "ɫ": 344,
      "ɭ": 345,
      "ɲ": 346,
      "ɳ": 347,
      "ɵ": 348,
      "ɾ": 349,
      "ʃ": 350,
      "ʈ": 351,
      "ʉ": 352,
      "ʊ": 353,
      "ʌ": 354,
      "ʎ": 355,
      "ʑ": 356,
      "ʒ": 357,
      "ʔ": 358,
      "ʣ": 359,
      "ʤ": 360,
      "ʥ": 361,
      "ʨ": 362,
      "ʰ": 363,
      "ʲ": 364,
      "ʷ": 365,
      "ʻ": 366,
      "ʼ": 367,
      "ʽ": 368,
      "ʾ": 369,
      "ʿ": 370,
      "ˀ": 371,
      "ˁ": 372,
      "ˈ": 373,
      "ˊ": 374,
      "ː": 375,
      "˘": 376,
      "ˠ": 377,
      "˭": 378,
      "˹": 379,
      "˺": 380,
      "̀": 381,
      "́": 382,
      "̃": 383,
      "̄": 384,
      "̅": 385,
      "̈": 386,
      "̊": 387,
      "̌": 388,
      "̑": 389,
      "̡": 390,
      "̥": 391,
      "̦": 392,
      "̨": 393,
      "̮": 394,
      "̯": 395,
      "̲": 396,
      "̵": 397,
      "̽": 398,
      "͡": 399,
      "Ϳ": 400,
      "Ά": 401,
      "Έ": 402,
      "ΐ": 403,
      "Α": 404,
      "Β": 405,
      "Γ": 406,
      "Δ": 407,
      "Ε": 408,
      "Ζ": 409,
      "Η": 410,
      "Θ": 411,
      "Ι": 412,
      "Κ": 413,
      "Λ": 414,
      "Μ": 415,
      "Ν": 416,
      "Ξ": 417,
      "Ο": 418,
      "Π": 419,
      "Ρ": 420,
      "Σ": 421,
      "Τ": 422,
      "Υ": 423,
      "Φ": 424,
      "Χ": 425,
      "Ψ": 426,
      "Ω": 427,
      "Ϊ": 428,
      "ά": 429,
      "έ": 430,
      "ή": 431,
      "ί": 432,
      "α": 433,
      "β": 434,
      "γ": 435,
      "δ": 436,
      "ε": 437,
      "ζ": 438,
      "η": 439,
      "θ": 440,
      "ι": 441,
      "κ": 442,
      "λ": 443,
      "μ": 444,
      "ν": 445,
      "ξ": 446,
      "ο": 447,
      "π": 448,
      "ρ": 449,
      "ς": 450,
      "σ": 451,
      "τ": 452,
      "υ": 453,
      "φ": 454,
      "χ": 455,
      "ψ": 456,
      "ω": 457,
      "ϊ": 458,
      "ό": 459,
      "ύ": 460,
      "ώ": 461,
      "ϑ": 462,
      "ϒ": 463,
      "Ϙ": 464,
      "ϝ": 465,
      "Ϫ": 466,
      "ϰ": 467,
      "ϲ": 468,
      "ϳ": 469,
      "ϵ": 470,
      "Ё": 471,
      "Ђ": 472,
      "Ѓ": 473,
      "Є": 474,
      "Ѕ": 475,
      "І": 476,
      "Ї": 477,
      "Ј": 478,
      "Љ": 479,
      "Њ": 480,
      "Ћ": 481,
      "Ќ": 482,
      "Ў": 483,
      "Џ": 484,
      "А": 485,
      "Б": 486,
      "В": 487,
      "Г": 488,
      "Д": 489,
      "Е": 490,
      "Ж": 491,
      "З": 492,
      "И": 493,
      "Й": 494,
      "К": 495,
      "Л": 496,
      "М": 497,
      "Н": 498,
      "О": 499,
      "П": 500,
      "Р": 501,
      "С": 502,
      "Т": 503,
      "У": 504,
      "Ф": 505,
      "Х": 506,
      "Ц": 507,
      "Ч": 508,
      "Ш": 509,
      "Щ": 510,
      "Ъ": 511,
      "Ы": 512,
      "Ь": 513,
      "Э": 514,
      "Ю": 515,
      "Я": 516,
      "а": 517,
      "б": 518,
      "в": 519,
      "г": 520,
      "д": 521,
      "е": 522,
      "ж": 523,
      "з": 524,
      "и": 525,
      "й": 526,
      "к": 527,
      "л": 528,
      "м": 529,
      "н": 530,
      "о": 531,
      "п": 532,
      "р": 533,
      "с": 534,
      "т": 535,
      "у": 536,
      "ф": 537,
      "х": 538,
      "ц": 539,
      "ч": 540,
      "ш": 541,
      "щ": 542,
      "ъ": 543,
      "ы": 544,
      "ь": 545,
      "э": 546,
      "ю": 547,
      "я": 548,
      "ѐ": 549,
      "ё": 550,
      "ђ": 551,
      "є": 552,
      "і": 553,
      "ї": 554,
      "ј": 555,
      "љ": 556,
      "њ": 557,
      "ћ": 558,
      "ѝ": 559,
      "ў": 560,
      "џ": 561,
      "Ѡ": 562,
      "Ѣ": 563,
      "ѣ": 564,
      "Ѥ": 565,
      "ѥ": 566,
      "Ѧ": 567,
      "ѧ": 568,
      "Ѩ": 569,
      "ѩ": 570,
      "Ѫ": 571,
      "ѫ": 572,
      "Ѭ": 573,
      "Ѯ": 574,
      "Ѱ": 575,
      "Ѳ": 576,
      "ѳ": 577,
      "Ѵ": 578,
      "ѵ": 579,
      "Ѿ": 580,
      "҅": 581,
      "Ґ": 582,
      "ґ": 583,
      "Ғ": 584,
      "ғ": 585,
      "Қ": 586,
      "қ": 587,
      "ҝ": 588,
      "Ң": 589,
      "ң": 590,
      "Ү": 591,
      "ү": 592,
      "Ұ": 593,
      "ұ": 594,
      "ҳ": 595,
      "Һ": 596,
      "һ": 597,
      "Ӏ": 598,
      "ӏ": 599,
      "Ә": 600,
      "ә": 601,
      "Ӝ": 602,
      "Ӡ": 603,
      "ӡ": 604,
      "Ө": 605,
      "ө": 606,
      "Ӯ": 607,
      "ӱ": 608,
      "Ա": 609,
      "Դ": 610,
      "Ե": 611,
      "Թ": 612,
      "Մ": 613,
      "Ն": 614,
      "Ո": 615,
      "Ջ": 616,
      "Ս": 617,
      "Վ": 618,
      "Տ": 619,
      "Ւ": 620,
      "Ք": 621,
      "ա": 622,
      "բ": 623,
      "գ": 624,
      "դ": 625,
      "ե": 626,
      "է": 627,
      "ի": 628,
      "լ": 629,
      "խ": 630,
      "ծ": 631,
      "կ": 632,
      "հ": 633,
      "ղ": 634,
      "մ": 635,
      "յ": 636,
      "ն": 637,
      "շ": 638,
      "ո": 639,
      "չ": 640,
      "պ": 641,
      "ջ": 642,
      "ռ": 643,
      "ս": 644,
      "տ": 645,
      "ր": 646,
      "ց": 647,
      "ւ": 648,
      "ք": 649,
      "օ": 650,
      "ֆ": 651,
      "և": 652,
      "ְ": 653,
      "ִ": 654,
      "ֵ": 655,
      "ֶ": 656,
      "ַ": 657,
      "ָ": 658,
      "ֹ": 659,
      "ּ": 660,
      "ׁ": 661,
      "ׂ": 662,
      "א": 663,
      "ב": 664,
      "ג": 665,
      "ד": 666,
      "ה": 667,
      "ו": 668,
      "ז": 669,
      "ח": 670,
      "ט": 671,
      "י": 672,
      "ך": 673,
      "כ": 674,
      "ל": 675,
      "ם": 676,
      "מ": 677,
      "ן": 678,
      "נ": 679,
      "ס": 680,
      "ע": 681,
      "פ": 682,
      "ץ": 683,
      "צ": 684,
      "ק": 685,
      "ר": 686,
      "ש": 687,
      "ת": 688,
      "״": 689,
      "ء": 690,
      "آ": 691,
      "أ": 692,
      "ؤ": 693,
      "إ": 694,
      "ئ": 695,
      "ا": 696,
      "ب": 697,
      "ة": 698,
      "ت": 699,
      "ث": 700,
      "ج": 701,
      "ح": 702,
      "خ": 703,
      "د": 704,
      "ذ": 705,
      "ر": 706,
      "ز": 707,
      "س": 708,
      "ش": 709,
      "ص": 710,
      "ض": 711,
      "ط": 712,
      "ظ": 713,
      "ع": 714,
      "غ": 715,
      "ف": 716,
      "ق": 717,
      "ك": 718,
      "ل": 719,
      "م": 720,
      "ن": 721,
      "ه": 722,
      "و": 723,
      "ى": 724,
      "ي": 725,
      "ً": 726,
      "َ": 727,
      "ُ": 728,
      "ِ": 729,
      "ّ": 730,
      "ْ": 731,
      "٠": 732,
      "١": 733,
      "٢": 734,
      "٣": 735,
      "٤": 736,
      "٥": 737,
      "٦": 738,
      "٧": 739,
      "٨": 740,
      "٩": 741,
      "ٰ": 742,
      "پ": 743,
      "څ": 744,
      "چ": 745,
      "ژ": 746,
      "ڤ": 747,
      "ڥ": 748,
      "ک": 749,
      "ڬ": 750,
      "ڭ": 751,
      "ڮ": 752,
      "گ": 753,
      "ی": 754,
      "ۖ": 755,
      "۝": 756,
      "۞": 757,
      "ܐ": 758,
      "ܒ": 759,
      "ܓ": 760,
      "ܕ": 761,
      "ܗ": 762,
      "ܙ": 763,
      "ܝ": 764,
      "ܠ": 765,
      "ܡ": 766,
      "ܢ": 767,
      "ܪ": 768,
      "ܬ": 769,
      "ܲ": 770,
      "ܵ": 771,
      "ܼ": 772,
      "݂": 773,
      "݇": 774,
      "ं": 775,
      "ः": 776,
      "अ": 777,
      "आ": 778,
      "ई": 779,
      "ऋ": 780,
      "क": 781,
      "ख": 782,
      "च": 783,
      "छ": 784,
      "ज": 785,
      "झ": 786,
      "ट": 787,
      "ड": 788,
      "त": 789,
      "थ": 790,
      "द": 791,
      "न": 792,
      "प": 793,
      "म": 794,
      "य": 795,
      "र": 796,
      "ल": 797,
      "व": 798,
      "श": 799,
      "ष": 800,
      "स": 801,
      "ा": 802,
      "ि": 803,
      "ु": 804,
      "े": 805,
      "ो": 806,
      "्": 807,
      "।": 808,
      "ক": 809,
      "দ": 810,
      "ন": 811,
      "র": 812,
      "স": 813,
      "া": 814,
      "ি": 815,
      "্": 816,
      "അ": 817,
      "ഇ": 818,
      "ക": 819,
      "ച": 820,
      "ട": 821,
      "ണ": 822,
      "യ": 823,
      "ര": 824,
      "ല": 825,
      "ള": 826,
      "സ": 827,
      "ാ": 828,
      "ി": 829,
      "ു": 830,
      "ോ": 831,
      "്": 832,
      "ค": 833,
      "ง": 834,
      "ช": 835,
      "บ": 836,
      "ม": 837,
      "ย": 838,
      "ร": 839,
      "ส": 840,
      "ห": 841,
      "อ": 842,
      "ะ": 843,
      "า": 844,
      "ิ": 845,
      "ี": 846,
      "เ": 847,
      "์": 848,
      "་": 849,
      "།": 850,
      "ཁ": 851,
      "ག": 852,
      "ར": 853,
      "ོ": 854,
      "ྫ": 855,
      "Ⴀ": 856,
      "Ⴃ": 857,
      "Ⴇ": 858,
      "Ⴊ": 859,
      "Ⴋ": 860,
      "Ⴍ": 861,
      "Ⴐ": 862,
      "Ⴑ": 863,
      "Ⴕ": 864,
      "Ⴡ": 865,
      "Ⴤ": 866,
      "ა": 867,
      "გ": 868,
      "დ": 869,
      "ე": 870,
      "კ": 871,
      "ლ": 872,
      "ნ": 873,
      "რ": 874,
      "ს": 875,
      "ქ": 876,
      "წ": 877,
      "ჭ": 878,
      "ᅀ": 879,
      "ሀ": 880,
      "ሁ": 881,
      "ሂ": 882,
      "ህ": 883,
      "ር": 884,
      "ስ": 885,
      "ን": 886,
      "እ": 887,
      "ክ": 888,
      "ድ": 889,
      "ᐱ": 890,
      "ᐳ": 891,
      "ᐶ": 892,
      "ᐸ": 893,
      "ᑎ": 894,
      "ᑐ": 895,
      "ᑕ": 896,
      "ᕡ": 897,
      "ᗆ": 898,
      "ᗗ": 899,
      "ᗘ": 900,
      "ᗡ": 901,
      "ᛁ": 902,
      "ᛉ": 903,
      "ᛐ": 904,
      "᛭": 905,
      "ᛳ": 906,
      "ᴀ": 907,
      "ᴥ": 908,
      "ᵄ": 909,
      "ᶏ": 910,
      "ᶐ": 911,
      "ᶛ": 912,
      "Ḁ": 913,
      "ḁ": 914,
      "ḇ": 915,
      "Ḍ": 916,
      "ḍ": 917,
      "ḏ": 918,
      "ḑ": 919,
      "ḗ": 920,
      "ḙ": 921,
      "ḡ": 922,
      "Ḥ": 923,
      "ḥ": 924,
      "Ḫ": 925,
      "ḫ": 926,
      "ḯ": 927,
      "ḱ": 928,
      "Ḳ": 929,
      "ḳ": 930,
      "ḵ": 931,
      "ḷ": 932,
      "ṃ": 933,
      "ṅ": 934,
      "ṇ": 935,
      "ṓ": 936,
      "ṕ": 937,
      "ṗ": 938,
      "ṙ": 939,
      "ṛ": 940,
      "Ṣ": 941,
      "ṣ": 942,
      "Ṭ": 943,
      "ṭ": 944,
      "ṯ": 945,
      "ṷ": 946,
      "Ẃ": 947,
      "Ẅ": 948,
      "Ẇ": 949,
      "Ẉ": 950,
      "Ẓ": 951,
      "ẓ": 952,
      "ẖ": 953,
      "ẚ": 954,
      "Ạ": 955,
      "ạ": 956,
      "Ả": 957,
      "ả": 958,
      "Ấ": 959,
      "ấ": 960,
      "Ầ": 961,
      "ầ": 962,
      "Ẩ": 963,
      "ẩ": 964,
      "Ẫ": 965,
      "ẫ": 966,
      "Ậ": 967,
      "ậ": 968,
      "Ắ": 969,
      "ắ": 970,
      "Ằ": 971,
      "ằ": 972,
      "Ẳ": 973,
      "ẳ": 974,
      "Ẵ": 975,
      "ẵ": 976,
      "Ặ": 977,
      "ặ": 978,
      "Ẹ": 979,
      "ẹ": 980,
      "ẻ": 981,
      "ẽ": 982,
      "ế": 983,
      "ể": 984,
      "ễ": 985,
      "ệ": 986,
      "ỉ": 987,
      "ị": 988,
      "ọ": 989,
      "ồ": 990,
      "ỗ": 991,
      "ộ": 992,
      "ớ": 993,
      "ờ": 994,
      "ợ": 995,
      "ữ": 996,
      "ỳ": 997,
      "ỷ": 998,
      "ἀ": 999,
      "ἁ": 1000,
      "ἄ": 1001,
      "Ἀ": 1002,
      "Ἄ": 1003,
      "ἐ": 1004,
      "ἑ": 1005,
      "ἔ": 1006,
      "Ἐ": 1007,
      "Ἕ": 1008,
      "ἠ": 1009,
      "ἡ": 1010,
      "ἤ": 1011,
      "ἦ": 1012,
      "Ἥ": 1013,
      "ἰ": 1014,
      "ἱ": 1015,
      "Ἰ": 1016,
      "Ἱ": 1017,
      "Ἵ": 1018,
      "ὁ": 1019,
      "Ὁ": 1020,
      "ὐ": 1021,
      "ὕ": 1022,
      "ὗ": 1023,
      "Ὑ": 1024,
      "Ὧ": 1025,
      "ὰ": 1026,
      "ὴ": 1027,
      "ὶ": 1028,
      "ὸ": 1029,
      "ὺ": 1030,
      "ᾴ": 1031,
      "ᾶ": 1032,
      "ᾷ": 1033,
      "᾽": 1034,
      "ῃ": 1035,
      "ῆ": 1036,
      "ῖ": 1037,
      "῞": 1038,
      "ῦ": 1039,
      "Ῥ": 1040,
      "ῶ": 1041,
      "ῷ": 1042,
      "​": 1043,
      "‌": 1044,
      "‍": 1045,
      "‎": 1046,
      "‐": 1047,
      "‑": 1048,
      "‒": 1049,
      "–": 1050,
      "—": 1051,
      "―": 1052,
      "‘": 1053,
      "’": 1054,
      "‚": 1055,
      "‛": 1056,
      "“": 1057,
      "”": 1058,
      "„": 1059,
      "†": 1060,
      "‡": 1061,
      "•": 1062,
      "․": 1063,
      "…": 1064,
      "‰": 1065,
      "′": 1066,
      "″": 1067,
      "‿": 1068,
      "⁂": 1069,
      "⁠": 1070,
      "⁣": 1071,
      "⁰": 1072,
      "⁵": 1073,
      "⁻": 1074,
      "₁": 1075,
      "₂": 1076,
      "₃": 1077,
      "₄": 1078,
      "₡": 1079,
      "₩": 1080,
      "€": 1081,
      "₳": 1082,
      "₸": 1083,
      "℃": 1084,
      "ℓ": 1085,
      "№": 1086,
      "⅓": 1087,
      "⅔": 1088,
      "⅛": 1089,
      "Ⅱ": 1090,
      "←": 1091,
      "↑": 1092,
      "→": 1093,
      "↓": 1094,
      "↔": 1095,
      "⇌": 1096,
      "∀": 1097,
      "∃": 1098,
      "∅": 1099,
      "∆": 1100,
      "∈": 1101,
      "∊": 1102,
      "∋": 1103,
      "−": 1104,
      "∗": 1105,
      "∘": 1106,
      "∙": 1107,
      "∝": 1108,
      "∞": 1109,
      "∧": 1110,
      "∨": 1111,
      "∫": 1112,
      "∴": 1113,
      "∼": 1114,
      "≈": 1115,
      "≠": 1116,
      "≡": 1117,
      "≤": 1118,
      "≥": 1119,
      "≼": 1120,
      "≽": 1121,
      "⊂": 1122,
      "⊃": 1123,
      "⊖": 1124,
      "⊗": 1125,
      "⊥": 1126,
      "⋅": 1127,
      "⋯": 1128,
      "⌈": 1129,
      "⌊": 1130,
      "⌽": 1131,
      "⌿": 1132,
      "⍋": 1133,
      "⍨": 1134,
      "⍳": 1135,
      "⍴": 1136,
      "⍵": 1137,
      "⎧": 1138,
      "⎩": 1139,
      "⏨": 1140,
      "␣": 1141,
      "Ⓐ": 1142,
      "─": 1143,
      "┌": 1144,
      "┐": 1145,
      "╥": 1146,
      "╨": 1147,
      "▀": 1148,
      "▄": 1149,
      "█": 1150,
      "░": 1151,
      "▒": 1152,
      "▓": 1153,
      "□": 1154,
      "▼": 1155,
      "○": 1156,
      "◘": 1157,
      "☉": 1158,
      "☫": 1159,
      "☺": 1160,
      "♈": 1161,
      "♋": 1162,
      "♎": 1163,
      "♑": 1164,
      "♒": 1165,
      "♥": 1166,
      "♦": 1167,
      "♯": 1168,
      "⚓": 1169,
      "⟨": 1170,
      "⟩": 1171,
      "⟶": 1172,
      "⠀": 1173,
      "⠁": 1174,
      "⠋": 1175,
      "⠙": 1176,
      "⠟": 1177,
      "⠻": 1178,
      "⠿": 1179,
      "⡈": 1180,
      "⡟": 1181,
      "⡷": 1182,
      "⡿": 1183,
      "⢀": 1184,
      "⢁": 1185,
      "⢻": 1186,
      "⢿": 1187,
      "⣉": 1188,
      "⣌": 1189,
      "⣠": 1190,
      "⣦": 1191,
      "⣧": 1192,
      "⣴": 1193,
      "⣶": 1194,
      "⣷": 1195,
      "⣼": 1196,
      "⣾": 1197,
      "⣿": 1198,
      "⩽": 1199,
      "Ⰶ": 1200,
      "Ⱌ": 1201,
      "ⱥ": 1202,
      "Ɑ": 1203,
      "Ɐ": 1204,
      "Ɒ": 1205,
      "ⱷ": 1206,
      "ⲃ": 1207,
      "ⲉ": 1208,
      "ⲧ": 1209,
      "ⲱ": 1210,
      "。": 1211,
      "か": 1212,
      "き": 1213,
      "く": 1214,
      "け": 1215,
      "こ": 1216,
      "さ": 1217,
      "と": 1218,
      "な": 1219,
      "の": 1220,
      "ら": 1221,
      "り": 1222,
      "る": 1223,
      "れ": 1224,
      "ろ": 1225,
      "わ": 1226,
      "ア": 1227,
      "イ": 1228,
      "ェ": 1229,
      "キ": 1230,
      "グ": 1231,
      "ケ": 1232,
      "サ": 1233,
      "ジ": 1234,
      "ス": 1235,
      "ダ": 1236,
      "ッ": 1237,
      "テ": 1238,
      "デ": 1239,
      "ト": 1240,
      "ナ": 1241,
      "ニ": 1242,
      "ハ": 1243,
      "バ": 1244,
      "ヒ": 1245,
      "ビ": 1246,
      "フ": 1247,
      "メ": 1248,
      "リ": 1249,
      "ル": 1250,
      "レ": 1251,
      "ロ": 1252,
      "ワ": 1253,
      "ン": 1254,
      "・": 1255,
      "ー": 1256,
      "ㄌ": 1257,
      "ㄢ": 1258,
      "ㄨ": 1259,
      "一": 1260,
      "三": 1261,
      "上": 1262,
      "下": 1263,
      "久": 1264,
      "之": 1265,
      "也": 1266,
      "事": 1267,
      "二": 1268,
      "五": 1269,
      "亜": 1270,
      "亦": 1271,
      "京": 1272,
      "人": 1273,
      "以": 1274,
      "件": 1275,
      "伊": 1276,
      "作": 1277,
      "例": 1278,
      "傷": 1279,
      "儀": 1280,
      "儒": 1281,
      "儿": 1282,
      "元": 1283,
      "八": 1284,
      "公": 1285,
      "六": 1286,
      "农": 1287,
      "刑": 1288,
      "北": 1289,
      "十": 1290,
      "千": 1291,
      "卷": 1292,
      "友": 1293,
      "叶": 1294,
      "司": 1295,
      "合": 1296,
      "同": 1297,
      "吗": 1298,
      "君": 1299,
      "和": 1300,
      "品": 1301,
      "回": 1302,
      "国": 1303,
      "坐": 1304,
      "垒": 1305,
      "垣": 1306,
      "堂": 1307,
      "堡": 1308,
      "壁": 1309,
      "士": 1310,
      "大": 1311,
      "天": 1312,
      "太": 1313,
      "夫": 1314,
      "女": 1315,
      "奴": 1316,
      "如": 1317,
      "始": 1318,
      "姦": 1319,
      "婁": 1320,
      "学": 1321,
      "安": 1322,
      "家": 1323,
      "宿": 1324,
      "対": 1325,
      "將": 1326,
      "小": 1327,
      "山": 1328,
      "島": 1329,
      "州": 1330,
      "左": 1331,
      "币": 1332,
      "师": 1333,
      "帝": 1334,
      "幼": 1335,
      "府": 1336,
      "建": 1337,
      "強": 1338,
      "彌": 1339,
      "往": 1340,
      "律": 1341,
      "得": 1342,
      "德": 1343,
      "徽": 1344,
      "心": 1345,
      "惡": 1346,
      "慶": 1347,
      "成": 1348,
      "戦": 1349,
      "折": 1350,
      "拓": 1351,
      "拘": 1352,
      "支": 1353,
      "改": 1354,
      "故": 1355,
      "教": 1356,
      "方": 1357,
      "族": 1358,
      "日": 1359,
      "明": 1360,
      "時": 1361,
      "晏": 1362,
      "更": 1363,
      "曹": 1364,
      "月": 1365,
      "有": 1366,
      "朋": 1367,
      "木": 1368,
      "未": 1369,
      "本": 1370,
      "朱": 1371,
      "条": 1372,
      "東": 1373,
      "杵": 1374,
      "林": 1375,
      "树": 1376,
      "校": 1377,
      "梅": 1378,
      "條": 1379,
      "植": 1380,
      "楚": 1381,
      "楽": 1382,
      "樸": 1383,
      "樹": 1384,
      "次": 1385,
      "欧": 1386,
      "欲": 1387,
      "正": 1388,
      "歲": 1389,
      "殖": 1390,
      "毛": 1391,
      "民": 1392,
      "泉": 1393,
      "法": 1394,
      "流": 1395,
      "测": 1396,
      "清": 1397,
      "港": 1398,
      "漢": 1399,
      "濟": 1400,
      "為": 1401,
      "無": 1402,
      "燕": 1403,
      "爸": 1404,
      "犯": 1405,
      "獣": 1406,
      "獲": 1407,
      "玉": 1408,
      "珍": 1409,
      "略": 1410,
      "百": 1411,
      "皇": 1412,
      "盘": 1413,
      "盤": 1414,
      "目": 1415,
      "直": 1416,
      "督": 1417,
      "睦": 1418,
      "社": 1419,
      "神": 1420,
      "秦": 1421,
      "算": 1422,
      "節": 1423,
      "細": 1424,
      "絞": 1425,
      "絶": 1426,
      "絹": 1427,
      "線": 1428,
      "罪": 1429,
      "美": 1430,
      "羽": 1431,
      "者": 1432,
      "胃": 1433,
      "胡": 1434,
      "节": 1435,
      "藻": 1436,
      "蛇": 1437,
      "蠻": 1438,
      "街": 1439,
      "衣": 1440,
      "西": 1441,
      "見": 1442,
      "覧": 1443,
      "解": 1444,
      "語": 1445,
      "論": 1446,
      "諸": 1447,
      "试": 1448,
      "贊": 1449,
      "趙": 1450,
      "軍": 1451,
      "辉": 1452,
      "辰": 1453,
      "農": 1454,
      "連": 1455,
      "道": 1456,
      "達": 1457,
      "遠": 1458,
      "都": 1459,
      "配": 1460,
      "里": 1461,
      "重": 1462,
      "金": 1463,
      "鏡": 1464,
      "鑒": 1465,
      "长": 1466,
      "開": 1467,
      "間": 1468,
      "関": 1469,
      "阳": 1470,
      "阵": 1471,
      "陀": 1472,
      "附": 1473,
      "陰": 1474,
      "際": 1475,
      "集": 1476,
      "雖": 1477,
      "青": 1478,
      "鞮": 1479,
      "韓": 1480,
      "頭": 1481,
      "類": 1482,
      "香": 1483,
      "馬": 1484,
      "马": 1485,
      "魏": 1486,
      "魔": 1487,
      "魚": 1488,
      "鮑": 1489,
      "鯷": 1490,
      "黄": 1491,
      "鼠": 1492,
      "齊": 1493,
      "龍": 1494,
      "龜": 1495,
      "Ꙗ": 1496,
      "ꙗ": 1497,
      "ꜣ": 1498,
      "Ꜧ": 1499,
      "ꜧ": 1500,
      "Ꜹ": 1501,
      "ꞑ": 1502,
      "Ꞻ": 1503,
      "ꞻ": 1504,
      "ꬱ": 1505,
      "대": 1506,
      "더": 1507,
      "렉": 1508,
      "목": 1509,
      "사": 1510,
      "산": 1511,
      "수": 1512,
      "식": 1513,
      "알": 1514,
      "음": 1515,
      "의": 1516,
      "일": 1517,
      "주": 1518,
      "충": 1519,
      "판": 1520,
      "홍": 1521,
      "ﭙ": 1522,
      "︎": 1523,
      "ﻻ": 1524,
      "，": 1525,
      "／": 1526,
      "；": 1527,
      "𐀀": 1528,
      "𐀅": 1529,
      "𐀏": 1530,
      "𐀩": 1531,
      "𐀫": 1532,
      "𐀭": 1533,
      "𐌀": 1534,
      "𐤀": 1535,
      "𐤌": 1536,
      "𐤍": 1537,
      "𐤏": 1538,
      "𓅓": 1539,
      "𓆎": 1540,
      "𓊖": 1541,
      "𓏏": 1542,
      "🇦": 1543,
      "🇫": 1544,
      "🇮": 1545,
      "🇶": 1546,
      "🇷": 1547,
      "🇸": 1548,
      "🇺": 1549,
      "🇿": 1550,
      "th": 1551,
      "an": 1552,
      "in": 1553,
      "er": 1554,
      "ст": 1555,
      "the": 1556,
      "on": 1557,
      "ен": 1558,
      "ра": 1559,
      "но": 1560,
      "re": 1561,
      "at": 1562,
      "ко": 1563,
      "ро": 1564,
      "на": 1565,
      "en": 1566,
      "al": 1567,
      "or": 1568,
      "ed": 1569,
      "is": 1570,
      "го": 1571,
      "es": 1572,
      "of": 1573,
      "ar": 1574,
      "ре": 1575,
      "по": 1576,
      "and": 1577,
      "as": 1578,
      "ли": 1579,
      "ic": 1580,
      "ни": 1581,
      "то": 1582,
      "во": 1583,
      "ри": 1584,
      "ны": 1585,
      "ль": 1586,
      "it": 1587,
      "ва": 1588,
      "ка": 1589,
      "ки": 1590,
      "to": 1591,
      "те": 1592,
      "ing": 1593,
      "ion": 1594,
      "ло": 1595,
      "ro": 1596,
      "ла": 1597,
      "да": 1598,
      "ени": 1599,
      "st": 1600,
      "le": 1601,
      "ве": 1602,
      "та": 1603,
      "не": 1604,
      "19": 1605,
      "со": 1606,
      "ми": 1607,
      "ле": 1608,
      "ou": 1609,
      "ти": 1610,
      "ent": 1611,
      "ch": 1612,
      "де": 1613,
      "до": 1614,
      "ско": 1615,
      "за": 1616,
      "ме": 1617,
      "че": 1618,
      "he": 1619,
      "ви": 1620,
      "ма": 1621,
      "om": 1622,
      "ски": 1623,
      "il": 1624,
      "ци": 1625,
      "ol": 1626,
      "ct": 1627,
      "el": 1628,
      "ди": 1629,
      "ся": 1630,
      "мо": 1631,
      "ру": 1632,
      "am": 1633,
      "us": 1634,
      "ля": 1635,
      "ad": 1636,
      "си": 1637,
      "пе": 1638,
      "об": 1639,
      "ста": 1640,
      "про": 1641,
      "ur": 1642,
      "ет": 1643,
      "20": 1644,
      "вы": 1645,
      "бо": 1646,
      "be": 1647,
      "im": 1648,
      "ly": 1649,
      "id": 1650,
      "for": 1651,
      "ter": 1652,
      "ce": 1653,
      "из": 1654,
      "iv": 1655,
      "se": 1656,
      "се": 1657,
      "ation": 1658,
      "сти": 1659,
      "ча": 1660,
      "от": 1661,
      "ig": 1662,
      "при": 1663,
      "The": 1664,
      "сто": 1665,
      "ду": 1666,
      "un": 1667,
      "ir": 1668,
      "са": 1669,
      "ra": 1670,
      "па": 1671,
      "con": 1672,
      "em": 1673,
      "wh": 1674,
      "ения": 1675,
      "ных": 1676,
      "ist": 1677,
      "ги": 1678,
      "бы": 1679,
      "чи": 1680,
      "was": 1681,
      "ith": 1682,
      "ul": 1683,
      "ной": 1684,
      "de": 1685,
      "пре": 1686,
      "ow": 1687,
      "ть": 1688,
      "ers": 1689,
      "ер": 1690,
      "ot": 1691,
      "ian": 1692,
      "la": 1693,
      "ры": 1694,
      "by": 1695,
      "op": 1696,
      "раз": 1697,
      "ut": 1698,
      "га": 1699,
      "ag": 1700,
      "ение": 1701,
      "with": 1702,
      "res": 1703,
      "et": 1704,
      "же": 1705,
      "тель": 1706,
      "хо": 1707,
      "pro": 1708,
      "that": 1709,
      "ные": 1710,
      "18": 1711,
      "мен": 1712,
      "ский": 1713,
      "um": 1714,
      "ver": 1715,
      "ab": 1716,
      "com": 1717,
      "ного": 1718,
      "ос": 1719,
      "ств": 1720,
      "ный": 1721,
      "пи": 1722,
      "are": 1723,
      "ac": 1724,
      "ту": 1725,
      "ку": 1726,
      "ши": 1727,
      "му": 1728,
      "os": 1729,
      "ther": 1730,
      "сь": 1731,
      "ex": 1732,
      "ря": 1733,
      "ri": 1734,
      "сть": 1735,
      "su": 1736,
      "ска": 1737,
      "су": 1738,
      "ap": 1739,
      "mo": 1740,
      "all": 1741,
      "In": 1742,
      "ской": 1743,
      "av": 1744,
      "his": 1745,
      "est": 1746,
      "ты": 1747,
      "pe": 1748,
      "ще": 1749,
      "rom": 1750,
      "ор": 1751,
      "ay": 1752,
      "ют": 1753,
      "ish": 1754,
      "лу": 1755,
      "ство": 1756,
      "он": 1757,
      "if": 1758,
      "ant": 1759,
      "ere": 1760,
      "фи": 1761,
      "ран": 1762,
      "oun": 1763,
      "ем": 1764,
      "from": 1765,
      "жи": 1766,
      "ского": 1767,
      "ity": 1768,
      "ар": 1769,
      "ан": 1770,
      "Am": 1771,
      "so": 1772,
      "щи": 1773,
      "ain": 1774,
      "года": 1775,
      "ate": 1776,
      "ies": 1777,
      "ния": 1778,
      "ph": 1779,
      "ей": 1780,
      "ну": 1781,
      "кото": 1782,
      "lo": 1783,
      "ня": 1784,
      "00": 1785,
      "ia": 1786,
      "ется": 1787,
      "ne": 1788,
      "ная": 1789,
      "ции": 1790,
      "ich": 1791,
      "art": 1792,
      "ис": 1793,
      "вой": 1794,
      "od": 1795,
      "гра": 1796,
      "ess": 1797,
      "qu": 1798,
      "вер": 1799,
      "лен": 1800,
      "зи": 1801,
      "пу": 1802,
      "нов": 1803,
      "per": 1804,
      "ical": 1805,
      "igh": 1806,
      "бе": 1807,
      "cl": 1808,
      "пра": 1809,
      "ci": 1810,
      "ская": 1811,
      "сле": 1812,
      "ld": 1813,
      "act": 1814,
      "man": 1815,
      "ин": 1816,
      "зы": 1817,
      "лю": 1818,
      "ствен": 1819,
      "ber": 1820,
      "ке": 1821,
      "ort": 1822,
      "ud": 1823,
      "ment": 1824,
      "зо": 1825,
      "ican": 1826,
      "кт": 1827,
      "ated": 1828,
      "200": 1829,
      "ive": 1830,
      "кон": 1831,
      "ill": 1832,
      "sh": 1833,
      "году": 1834,
      "мы": 1835,
      "вля": 1836,
      "ства": 1837,
      "An": 1838,
      "чески": 1839,
      "ние": 1840,
      "би": 1841,
      "ным": 1842,
      "du": 1843,
      "der": 1844,
      "te": 1845,
      "под": 1846,
      "gh": 1847,
      "ба": 1848,
      "tr": 1849,
      "ine": 1850,
      "og": 1851,
      "201": 1852,
      "ard": 1853,
      "Al": 1854,
      "which": 1855,
      "что": 1856,
      "ров": 1857,
      "ge": 1858,
      "ев": 1859,
      "род": 1860,
      "ное": 1861,
      "рас": 1862,
      "ak": 1863,
      "Amer": 1864,
      "По": 1865,
      "rit": 1866,
      "пере": 1867,
      "ure": 1868,
      "ков": 1869,
      "рова": 1870,
      "not": 1871,
      "II": 1872,
      "ён": 1873,
      "ды": 1874,
      "ary": 1875,
      "так": 1876,
      "тер": 1877,
      "17": 1878,
      "were": 1879,
      "ear": 1880,
      "comp": 1881,
      "199": 1882,
      "пер": 1883,
      "ie": 1884,
      "our": 1885,
      "wor": 1886,
      "ass": 1887,
      "зна": 1888,
      "end": 1889,
      "str": 1890,
      "ell": 1891,
      "pt": 1892,
      "бу": 1893,
      "ше": 1894,
      "стра": 1895,
      "American": 1896,
      "На": 1897,
      "one": 1898,
      "ности": 1899,
      "Ch": 1900,
      "ave": 1901,
      "pl": 1902,
      "ong": 1903,
      "это": 1904,
      "как": 1905,
      "ком": 1906,
      "вре": 1907,
      "Со": 1908,
      "ions": 1909,
      "жа": 1910,
      "Ar": 1911,
      "over": 1912,
      "для": 1913,
      "вет": 1914,
      "ast": 1915,
      "ном": 1916,
      "стро": 1917,
      "tw": 1918,
      "ент": 1919,
      "ous": 1920,
      "ность": 1921,
      "form": 1922,
      "pla": 1923,
      "тов": 1924,
      "its": 1925,
      "которы": 1926,
      "up": 1927,
      "Ка": 1928,
      "гу": 1929,
      "out": 1930,
      "пред": 1931,
      "мя": 1932,
      "ame": 1933,
      "but": 1934,
      "аль": 1935,
      "ally": 1936,
      "ight": 1937,
      "воз": 1938,
      "ire": 1939,
      "ха": 1940,
      "сло": 1941,
      "це": 1942,
      "pol": 1943,
      "ans": 1944,
      "ца": 1945,
      "од": 1946,
      "нии": 1947,
      "gu": 1948,
      "вя": 1949,
      "она": 1950,
      "port": 1951,
      "ect": 1952,
      "ult": 1953,
      "iz": 1954,
      "гла": 1955,
      "198": 1956,
      "ip": 1957,
      "СС": 1958,
      "also": 1959,
      "ach": 1960,
      "had": 1961,
      "ления": 1962,
      "cent": 1963,
      "pr": 1964,
      "кра": 1965,
      "have": 1966,
      "oc": 1967,
      "age": 1968,
      "ence": 1969,
      "дар": 1970,
      "fer": 1971,
      "ге": 1972,
      "рии": 1973,
      "15": 1974,
      "ib": 1975,
      "ющи": 1976,
      "af": 1977,
      "197": 1978,
      "ция": 1979,
      "его": 1980,
      "бли": 1981,
      "cont": 1982,
      "сте": 1983,
      "ден": 1984,
      "ial": 1985,
      "ign": 1986,
      "сво": 1987,
      "ских": 1988,
      "ks": 1989,
      "lish": 1990,
      "ub": 1991,
      "ome": 1992,
      "cre": 1993,
      "St": 1994,
      "ide": 1995,
      "ory": 1996,
      "ke": 1997,
      "16": 1998,
      "196": 1999,
      "194": 2000,
      "или": 2001,
      "мер": 2002,
      "other": 2003,
      "им": 2004,
      "own": 2005,
      "сси": 2006,
      "ev": 2007,
      "ound": 2008,
      "бря": 2009,
      "ore": 2010,
      "Un": 2011,
      "том": 2012,
      "10": 2013,
      "ша": 2014,
      "me": 2015,
      "ould": 2016,
      "также": 2017,
      "has": 2018,
      "тив": 2019,
      "поль": 2020,
      "part": 2021,
      "фор": 2022,
      "fir": 2023,
      "все": 2024,
      "ree": 2025,
      "ov": 2026,
      "use": 2027,
      "ations": 2028,
      "ются": 2029,
      "au": 2030,
      "ак": 2031,
      "ction": 2032,
      "land": 2033,
      "ates": 2034,
      "ав": 2035,
      "pres": 2036,
      "ran": 2037,
      "ces": 2038,
      "pre": 2039,
      "their": 2040,
      "po": 2041,
      "ater": 2042,
      "bo": 2043,
      "ща": 2044,
      "жен": 2045,
      "дру": 2046,
      "лся": 2047,
      "dis": 2048,
      "тор": 2049,
      "sy": 2050,
      "Th": 2051,
      "tern": 2052,
      "рабо": 2053,
      "ition": 2054,
      "явля": 2055,
      "En": 2056,
      "зу": 2057,
      "логи": 2058,
      "int": 2059,
      "лись": 2060,
      "ren": 2061,
      "стоя": 2062,
      "mon": 2063,
      "ней": 2064,
      "вод": 2065,
      "образ": 2066,
      "att": 2067,
      "пол": 2068,
      "12": 2069,
      "ление": 2070,
      "first": 2071,
      "cor": 2072,
      "хи": 2073,
      "был": 2074,
      "нача": 2075,
      "дер": 2076,
      "тра": 2077,
      "теле": 2078,
      "ced": 2079,
      "li": 2080,
      "used": 2081,
      "дов": 2082,
      "who": 2083,
      "сту": 2084,
      "co": 2085,
      "сы": 2086,
      "лы": 2087,
      "ред": 2088,
      "ely": 2089,
      "ser": 2090,
      "this": 2091,
      "ении": 2092,
      "спо": 2093,
      "Au": 2094,
      "после": 2095,
      "pos": 2096,
      "горо": 2097,
      "ходи": 2098,
      "боль": 2099,
      "Во": 2100,
      "gen": 2101,
      "able": 2102,
      "тся": 2103,
      "des": 2104,
      "ew": 2105,
      "ime": 2106,
      "ную": 2107,
      "ple": 2108,
      "can": 2109,
      "Рос": 2110,
      "ными": 2111,
      "193": 2112,
      "ob": 2113,
      "дан": 2114,
      "He": 2115,
      "ские": 2116,
      "Росси": 2117,
      "14": 2118,
      "стви": 2119,
      "соста": 2120,
      "It": 2121,
      "ck": 2122,
      "еди": 2123,
      "been": 2124,
      "ve": 2125,
      "incl": 2126,
      "ству": 2127,
      "вши": 2128,
      "кан": 2129,
      "спе": 2130,
      "мож": 2131,
      "сла": 2132,
      "ений": 2133,
      "ile": 2134,
      "лее": 2135,
      "13": 2136,
      "ice": 2137,
      "ry": 2138,
      "195": 2139,
      "ind": 2140,
      "low": 2141,
      "дей": 2142,
      "уч": 2143,
      "рия": 2144,
      "most": 2145,
      "фе": 2146,
      "вед": 2147,
      "sp": 2148,
      "руп": 2149,
      "ром": 2150,
      "слу": 2151,
      "ву": 2152,
      "Eng": 2153,
      "ath": 2154,
      "play": 2155,
      "ens": 2156,
      "госу": 2157,
      "spe": 2158,
      "свя": 2159,
      "Ма": 2160,
      "ict": 2161,
      "государ": 2162,
      "пар": 2163,
      "нд": 2164,
      "жду": 2165,
      "фа": 2166,
      "cess": 2167,
      "year": 2168,
      "arch": 2169,
      "жд": 2170,
      "ok": 2171,
      "ское": 2172,
      "Ко": 2173,
      "ября": 2174,
      "писа": 2175,
      "such": 2176,
      "192": 2177,
      "поло": 2178,
      "olog": 2179,
      "зда": 2180,
      "ele": 2181,
      "пы": 2182,
      "ited": 2183,
      "лове": 2184,
      "соб": 2185,
      "ough": 2186,
      "uring": 2187,
      "ском": 2188,
      "ism": 2189,
      "ник": 2190,
      "ty": 2191,
      "вания": 2192,
      "more": 2193,
      "Af": 2194,
      "ents": 2195,
      "ван": 2196,
      "old": 2197,
      "ca": 2198,
      "три": 2199,
      "тия": 2200,
      "produ": 2201,
      "ts": 2202,
      "исто": 2203,
      "ef": 2204,
      "ace": 2205,
      "cons": 2206,
      "her": 2207,
      "red": 2208,
      "их": 2209,
      "ite": 2210,
      "Бо": 2211,
      "ational": 2212,
      "they": 2213,
      "каза": 2214,
      "полу": 2215,
      "ёр": 2216,
      "gr": 2217,
      "fl": 2218,
      "gro": 2219,
      "зыва": 2220,
      "ман": 2221,
      "ics": 2222,
      "rel": 2223,
      "writ": 2224,
      "За": 2225,
      "kn": 2226,
      "стран": 2227,
      "ever": 2228,
      "При": 2229,
      "пла": 2230,
      "челове": 2231,
      "более": 2232,
      "col": 2233,
      "ск": 2234,
      "ied": 2235,
      "ase": 2236,
      "vel": 2237,
      "рус": 2238,
      "As": 2239,
      "язы": 2240,
      "ян": 2241,
      "лось": 2242,
      "вые": 2243,
      "чен": 2244,
      "ors": 2245,
      "поли": 2246,
      "произ": 2247,
      "име": 2248,
      "ход": 2249,
      "ury": 2250,
      "пло": 2251,
      "min": 2252,
      "Re": 2253,
      "объ": 2254,
      "дол": 2255,
      "ved": 2256,
      "les": 2257,
      "reg": 2258,
      "into": 2259,
      "лько": 2260,
      "than": 2261,
      "ten": 2262,
      "ding": 2263,
      "ru": 2264,
      "iss": 2265,
      "кой": 2266,
      "лась": 2267,
      "ance": 2268,
      "обла": 2269,
      "comm": 2270,
      "тиче": 2271,
      "after": 2272,
      "СР": 2273,
      "two": 2274,
      "рь": 2275,
      "были": 2276,
      "ext": 2277,
      "ade": 2278,
      "ческих": 2279,
      "any": 2280,
      "ugh": 2281,
      "вание": 2282,
      "we": 2283,
      "ys": 2284,
      "ний": 2285,
      "ma": 2286,
      "ию": 2287,
      "лек": 2288,
      "some": 2289,
      "mar": 2290,
      "зе": 2291,
      "обще": 2292,
      "ue": 2293,
      "als": 2294,
      "pub": 2295,
      "между": 2296,
      "эле": 2297,
      "нима": 2298,
      "вых": 2299,
      "лет": 2300,
      "рой": 2301,
      "сов": 2302,
      "клю": 2303,
      "coun": 2304,
      "English": 2305,
      "время": 2306,
      "емы": 2307,
      "them": 2308,
      "ника": 2309,
      "прави": 2310,
      "отно": 2311,
      "было": 2312,
      "исполь": 2313,
      "цы": 2314,
      "публи": 2315,
      "ческие": 2316,
      "ению": 2317,
      "ins": 2318,
      "ular": 2319,
      "образо": 2320,
      "work": 2321,
      "кре": 2322,
      "мери": 2323,
      "ons": 2324,
      "фо": 2325,
      "includ": 2326,
      "прав": 2327,
      "кры": 2328,
      "und": 2329,
      "ена": 2330,
      "други": 2331,
      "rough": 2332,
      "кла": 2333,
      "рта": 2334,
      "ari": 2335,
      "time": 2336,
      "would": 2337,
      "ack": 2338,
      "Ки": 2339,
      "aw": 2340,
      "Ве": 2341,
      "ress": 2342,
      "была": 2343,
      "lar": 2344,
      "air": 2345,
      "является": 2346,
      "then": 2347,
      "inter": 2348,
      "Но": 2349,
      "him": 2350,
      "Ре": 2351,
      "reat": 2352,
      "med": 2353,
      "11": 2354,
      "main": 2355,
      "циаль": 2356,
      "ум": 2357,
      "рито": 2358,
      "Se": 2359,
      "fin": 2360,
      "рату": 2361,
      "190": 2362,
      "ску": 2363,
      "ться": 2364,
      "год": 2365,
      "осно": 2366,
      "off": 2367,
      "lan": 2368,
      "ased": 2369,
      "stem": 2370,
      "жение": 2371,
      "тр": 2372,
      "Jo": 2373,
      "een": 2374,
      "лов": 2375,
      "ese": 2376,
      "sub": 2377,
      "раль": 2378,
      "тре": 2379,
      "насе": 2380,
      "преде": 2381,
      "many": 2382,
      "Ли": 2383,
      "вая": 2384,
      "совет": 2385,
      "ём": 2386,
      "ject": 2387,
      "ональ": 2388,
      "тро": 2389,
      "This": 2390,
      "cer": 2391,
      "цион": 2392,
      "no": 2393,
      "стан": 2394,
      "num": 2395,
      "ative": 2396,
      "car": 2397,
      "ген": 2398,
      "ium": 2399,
      "ал": 2400,
      "вый": 2401,
      "urn": 2402,
      "СССР": 2403,
      "century": 2404,
      "коло": 2405,
      "орга": 2406,
      "город": 2407,
      "ific": 2408,
      "ью": 2409,
      "города": 2410,
      "Па": 2411,
      "предста": 2412,
      "гда": 2413,
      "led": 2414,
      "only": 2415,
      "мини": 2416,
      "Ad": 2417,
      "lex": 2418,
      "Con": 2419,
      "Ни": 2420,
      "коно": 2421,
      "цент": 2422,
      "25": 2423,
      "террито": 2424,
      "Ми": 2425,
      "gan": 2426,
      "ёт": 2427,
      "bor": 2428,
      "ric": 2429,
      "жения": 2430,
      "new": 2431,
      "under": 2432,
      "ings": 2433,
      "though": 2434,
      "cri": 2435,
      "ail": 2436,
      "ball": 2437,
      "ron": 2438,
      "000": 2439,
      "21": 2440,
      "ann": 2441,
      "cond": 2442,
      "века": 2443,
      "стве": 2444,
      "betw": 2445,
      "between": 2446,
      "ople": 2447,
      "known": 2448,
      "рав": 2449,
      "tain": 2450,
      "bu": 2451,
      "ists": 2452,
      "акт": 2453,
      "народ": 2454,
      "polit": 2455,
      "cur": 2456,
      "которые": 2457,
      "De": 2458,
      "Ра": 2459,
      "30": 2460,
      "ang": 2461,
      "ual": 2462,
      "dif": 2463,
      "when": 2464,
      "lic": 2465,
      "fo": 2466,
      "ted": 2467,
      "России": 2468,
      "вла": 2469,
      "do": 2470,
      "Не": 2471,
      "тан": 2472,
      "found": 2473,
      "али": 2474,
      "ities": 2475,
      "where": 2476,
      "ivers": 2477,
      "Com": 2478,
      "fe": 2479,
      "йский": 2480,
      "дом": 2481,
      "ек": 2482,
      "ок": 2483,
      "времен": 2484,
      "ческой": 2485,
      "high": 2486,
      "ax": 2487,
      "At": 2488,
      "част": 2489,
      "тем": 2490,
      "hist": 2491,
      "дви": 2492,
      "Мо": 2493,
      "arm": 2494,
      "ician": 2495,
      "trans": 2496,
      "ah": 2497,
      "22": 2498,
      "ton": 2499,
      "ince": 2500,
      "суще": 2501,
      "prov": 2502,
      "cted": 2503,
      "came": 2504,
      "графи": 2505,
      "сред": 2506,
      "call": 2507,
      "cap": 2508,
      "них": 2509,
      "Пер": 2510,
      "лия": 2511,
      "части": 2512,
      "may": 2513,
      "tra": 2514,
      "тери": 2515,
      "New": 2516,
      "fore": 2517,
      "par": 2518,
      "фу": 2519,
      "sup": 2520,
      "цу": 2521,
      "рон": 2522,
      "system": 2523,
      "зем": 2524,
      "юще": 2525,
      "мерикан": 2526,
      "лич": 2527,
      "Ев": 2528,
      "рт": 2529,
      "ating": 2530,
      "гово": 2531,
      "ars": 2532,
      "way": 2533,
      "Ger": 2534,
      "about": 2535,
      "лосо": 2536,
      "сли": 2537,
      "телей": 2538,
      "мени": 2539,
      "ident": 2540,
      "эк": 2541,
      "тельно": 2542,
      "един": 2543,
      "сс": 2544,
      "само": 2545,
      "cy": 2546,
      "outh": 2547,
      "разви": 2548,
      "sur": 2549,
      "над": 2550,
      "lin": 2551,
      "Са": 2552,
      "Се": 2553,
      "ful": 2554,
      "set": 2555,
      "росси": 2556,
      "inv": 2557,
      "рез": 2558,
      "зова": 2559,
      "son": 2560,
      "gener": 2561,
      "Wh": 2562,
      "сса": 2563,
      "during": 2564,
      "Пе": 2565,
      "23": 2566,
      "raph": 2567,
      "ix": 2568,
      "bel": 2569,
      "созда": 2570,
      "ily": 2571,
      "III": 2572,
      "189": 2573,
      "ят": 2574,
      "обо": 2575,
      "элект": 2576,
      "soci": 2577,
      "американ": 2578,
      "станов": 2579,
      "циональ": 2580,
      "ft": 2581,
      "доро": 2582,
      "fect": 2583,
      "through": 2584,
      "чем": 2585,
      "years": 2586,
      "того": 2587,
      "води": 2588,
      "eng": 2589,
      "io": 2590,
      "there": 2591,
      "лли": 2592,
      "рак": 2593,
      "дова": 2594,
      "sing": 2595,
      "ife": 2596,
      "hy": 2597,
      "оди": 2598,
      "United": 2599,
      "For": 2600,
      "overn": 2601,
      "мая": 2602,
      "чита": 2603,
      "сты": 2604,
      "char": 2605,
      "нако": 2606,
      "ollow": 2607,
      "чение": 2608,
      "Joh": 2609,
      "Austr": 2610,
      "sch": 2611,
      "рев": 2612,
      "До": 2613,
      "well": 2614,
      "langu": 2615,
      "Бе": 2616,
      "теля": 2617,
      "ters": 2618,
      "пад": 2619,
      "точ": 2620,
      "лей": 2621,
      "day": 2622,
      "War": 2623,
      "vis": 2624,
      "спубли": 2625,
      "бри": 2626,
      "ust": 2627,
      "pop": 2628,
      "вого": 2629,
      "ep": 2630,
      "Mar": 2631,
      "gy": 2632,
      "stru": 2633,
      "реди": 2634,
      "бур": 2635,
      "пера": 2636,
      "ake": 2637,
      "вос": 2638,
      "лан": 2639,
      "наз": 2640,
      "авто": 2641,
      "ier": 2642,
      "состоя": 2643,
      "воен": 2644,
      "Ан": 2645,
      "тий": 2646,
      "Ac": 2647,
      "которых": 2648,
      "Ви": 2649,
      "ized": 2650,
      "Ар": 2651,
      "tri": 2652,
      "скую": 2653,
      "Le": 2654,
      "бер": 2655,
      "ники": 2656,
      "ур": 2657,
      "cause": 2658,
      "вели": 2659,
      "ms": 2660,
      "ution": 2661,
      "fil": 2662,
      "present": 2663,
      "тру": 2664,
      "ским": 2665,
      "50": 2666,
      "later": 2667,
      "цию": 2668,
      "velop": 2669,
      "men": 2670,
      "thor": 2671,
      "ures": 2672,
      "только": 2673,
      "Brit": 2674,
      "ious": 2675,
      "кономи": 2676,
      "эти": 2677,
      "органи": 2678,
      "ural": 2679,
      "ered": 2680,
      "cept": 2681,
      "nam": 2682,
      "cal": 2683,
      "peri": 2684,
      "az": 2685,
      "стру": 2686,
      "ude": 2687,
      "её": 2688,
      "dire": 2689,
      "куль": 2690,
      "кино": 2691,
      "leg": 2692,
      "приня": 2693,
      "On": 2694,
      "br": 2695,
      "ds": 2696,
      "мно": 2697,
      "king": 2698,
      "ship": 2699,
      "develop": 2700,
      "people": 2701,
      "Ме": 2702,
      "стре": 2703,
      "ческого": 2704,
      "met": 2705,
      "человек": 2706,
      "зя": 2707,
      "они": 2708,
      "Ph": 2709,
      "вест": 2710,
      "коро": 2711,
      "ких": 2712,
      "24": 2713,
      "ствова": 2714,
      "uro": 2715,
      "мира": 2716,
      "пери": 2717,
      "Та": 2718,
      "тур": 2719,
      "ost": 2720,
      "war": 2721,
      "гли": 2722,
      "нию": 2723,
      "ward": 2724,
      "мии": 2725,
      "Alex": 2726,
      "Sp": 2727,
      "mem": 2728,
      "serv": 2729,
      "these": 2730,
      "John": 2731,
      "лн": 2732,
      "ose": 2733,
      "ников": 2734,
      "again": 2735,
      "тек": 2736,
      "uc": 2737,
      "пример": 2738,
      "Is": 2739,
      "dist": 2740,
      "ат": 2741,
      "страны": 2742,
      "рай": 2743,
      "go": 2744,
      "которо": 2745,
      "вич": 2746,
      "Евро": 2747,
      "including": 2748,
      "зави": 2749,
      "Ру": 2750,
      "дель": 2751,
      "amp": 2752,
      "186": 2753,
      "owever": 2754,
      "Pro": 2755,
      "сно": 2756,
      "сер": 2757,
      "ret": 2758,
      "основ": 2759,
      "ger": 2760,
      "опреде": 2761,
      "while": 2762,
      "alian": 2763,
      "мати": 2764,
      "мента": 2765,
      "follow": 2766,
      "Nor": 2767,
      "ander": 2768,
      "населения": 2769,
      "ae": 2770,
      "откры": 2771,
      "dep": 2772,
      "ature": 2773,
      "верси": 2774,
      "called": 2775,
      "действи": 2776,
      "ius": 2777,
      "вра": 2778,
      "терату": 2779,
      "Ин": 2780,
      "188": 2781,
      "ris": 2782,
      "ций": 2783,
      "uss": 2784,
      "рован": 2785,
      "ющих": 2786,
      "made": 2787,
      "ically": 2788,
      "ments": 2789,
      "обра": 2790,
      "СШ": 2791,
      "нее": 2792,
      "ческий": 2793,
      "pers": 2794,
      "осу": 2795,
      "шения": 2796,
      "States": 2797,
      "США": 2798,
      "тин": 2799,
      "ology": 2800,
      "кий": 2801,
      "жда": 2802,
      "Wor": 2803,
      "лин": 2804,
      "оста": 2805,
      "него": 2806,
      "простран": 2807,
      "тех": 2808,
      "Apol": 2809,
      "bert": 2810,
      "составля": 2811,
      "государствен": 2812,
      "Про": 2813,
      "bro": 2814,
      "vari": 2815,
      "urch": 2816,
      "cient": 2817,
      "правитель": 2818,
      "вто": 2819,
      "Gree": 2820,
      "oman": 2821,
      "Гер": 2822,
      "гре": 2823,
      "being": 2824,
      "ually": 2825,
      "add": 2826,
      "груп": 2827,
      "ана": 2828,
      "Фран": 2829,
      "state": 2830,
      "group": 2831,
      "BC": 2832,
      "ссо": 2833,
      "differ": 2834,
      "let": 2835,
      "бра": 2836,
      "ived": 2837,
      "ages": 2838,
      "rist": 2839,
      "stud": 2840,
      "sign": 2841,
      "грани": 2842,
      "ible": 2843,
      "высо": 2844,
      "city": 2845,
      "Ap": 2846,
      "вым": 2847,
      "чения": 2848,
      "And": 2849,
      "ху": 2850,
      "number": 2851,
      "зависи": 2852,
      "inst": 2853,
      "шо": 2854,
      "Вели": 2855,
      "экономи": 2856,
      "круп": 2857,
      "elf": 2858,
      "Apollo": 2859,
      "часть": 2860,
      "author": 2861,
      "дея": 2862,
      "exam": 2863,
      "Ara": 2864,
      "187": 2865,
      "sim": 2866,
      "ians": 2867,
      "player": 2868,
      "Алек": 2869,
      "зд": 2870,
      "называ": 2871,
      "fam": 2872,
      "ному": 2873,
      "систе": 2874,
      "both": 2875,
      "вое": 2876,
      "Ва": 2877,
      "iel": 2878,
      "govern": 2879,
      "nor": 2880,
      "дека": 2881,
      "тя": 2882,
      "место": 2883,
      "ences": 2884,
      "world": 2885,
      "рей": 2886,
      "ством": 2887,
      "buil": 2888,
      "Ге": 2889,
      "нием": 2890,
      "three": 2891,
      "became": 2892,
      "Си": 2893,
      "iver": 2894,
      "янва": 2895,
      "мир": 2896,
      "ющие": 2897,
      "mer": 2898,
      "spec": 2899,
      "ень": 2900,
      "цев": 2901,
      "получи": 2902,
      "льта": 2903,
      "дии": 2904,
      "my": 2905,
      "suc": 2906,
      "ash": 2907,
      "val": 2908,
      "Ex": 2909,
      "извест": 2910,
      "rench": 2911,
      "около": 2912,
      "lished": 2913,
      "лён": 2914,
      "public": 2915,
      "тран": 2916,
      "row": 2917,
      "ond": 2918,
      "обе": 2919,
      "Sch": 2920,
      "лез": 2921,
      "Can": 2922,
      "imes": 2923,
      "law": 2924,
      "филосо": 2925,
      "iversity": 2926,
      "dom": 2927,
      "less": 2928,
      "inu": 2929,
      "форма": 2930,
      "уни": 2931,
      "inn": 2932,
      "прези": 2933,
      "цен": 2934,
      "который": 2935,
      "foot": 2936,
      "ility": 2937,
      "ement": 2938,
      "шение": 2939,
      "ёл": 2940,
      "мест": 2941,
      "gest": 2942,
      "лё": 2943,
      "Fran": 2944,
      "йской": 2945,
      "лом": 2946,
      "ститу": 2947,
      "igin": 2948,
      "Об": 2949,
      "unt": 2950,
      "dec": 2951,
      "French": 2952,
      "Sh": 2953,
      "Ro": 2954,
      "шей": 2955,
      "нк": 2956,
      "Го": 2957,
      "lead": 2958,
      "ants": 2959,
      "German": 2960,
      "тие": 2961,
      "40": 2962,
      "шин": 2963,
      "Christ": 2964,
      "uch": 2965,
      "Кон": 2966,
      "Пос": 2967,
      "гер": 2968,
      "could": 2969,
      "тен": 2970,
      "собо": 2971,
      "oper": 2972,
      "истори": 2973,
      "XI": 2974,
      "хов": 2975,
      "ord": 2976,
      "изи": 2977,
      "ответ": 2978,
      "rol": 2979,
      "территории": 2980,
      "miss": 2981,
      "сист": 2982,
      "влен": 2983,
      "тора": 2984,
      "риса": 2985,
      "point": 2986,
      "bers": 2987,
      "мь": 2988,
      "шая": 2989,
      "vers": 2990,
      "держа": 2991,
      "26": 2992,
      "яви": 2993,
      "тео": 2994,
      "early": 2995,
      "послед": 2996,
      "кого": 2997,
      "27": 2998,
      "лиги": 2999,
      "сточ": 3000,
      "может": 3001,
      "той": 3002,
      "смо": 3003,
      "cover": 3004,
      "жиз": 3005,
      "счита": 3006,
      "dr": 3007,
      "appe": 3008,
      "28": 3009,
      "design": 3010,
      "мыш": 3011,
      "line": 3012,
      "лага": 3013,
      "requ": 3014,
      "cial": 3015,
      "like": 3016,
      "нер": 3017,
      "неско": 3018,
      "gram": 3019,
      "окт": 3020,
      "ital": 3021,
      "del": 3022,
      "sol": 3023,
      "ностью": 3024,
      "много": 3025,
      "sever": 3026,
      "Ку": 3027,
      "ety": 3028,
      "Ab": 3029,
      "можно": 3030,
      "ble": 3031,
      "she": 3032,
      "ctor": 3033,
      "зульта": 3034,
      "based": 3035,
      "ik": 3036,
      "ступ": 3037,
      "Га": 3038,
      "Euro": 3039,
      "вор": 3040,
      "щая": 3041,
      "Bo": 3042,
      "сент": 3043,
      "вал": 3044,
      "ick": 3045,
      "cording": 3046,
      "тели": 3047,
      "long": 3048,
      "ним": 3049,
      "ise": 3050,
      "кри": 3051,
      "iew": 3052,
      "second": 3053,
      "ях": 3054,
      "Or": 3055,
      "емо": 3056,
      "ros": 3057,
      "стал": 3058,
      "ley": 3059,
      "войны": 3060,
      "sk": 3061,
      "ено": 3062,
      "partic": 3063,
      "British": 3064,
      "области": 3065,
      "pow": 3066,
      "ору": 3067,
      "ших": 3068,
      "Arab": 3069,
      "name": 3070,
      "ild": 3071,
      "ую": 3072,
      "рий": 3073,
      "origin": 3074,
      "льно": 3075,
      "ждения": 3076,
      "результа": 3077,
      "Ind": 3078,
      "ives": 3079,
      "тии": 3080,
      "ool": 3081,
      "ад": 3082,
      "вета": 3083,
      "против": 3084,
      "ract": 3085,
      "меча": 3086,
      "before": 3087,
      "Су": 3088,
      "мец": 3089,
      "нами": 3090,
      "ческая": 3091,
      "sm": 3092,
      "зации": 3093,
      "against": 3094,
      "других": 3095,
      "дву": 3096,
      "нь": 3097,
      "фер": 3098,
      "often": 3099,
      "авгу": 3100,
      "right": 3101,
      "death": 3102,
      "января": 3103,
      "emp": 3104,
      "апре": 3105,
      "этом": 3106,
      "км": 3107,
      "ina": 3108,
      "мент": 3109,
      "использу": 3110,
      "consid": 3111,
      "Roman": 3112,
      "football": 3113,
      "aid": 3114,
      "После": 3115,
      "Мар": 3116,
      "read": 3117,
      "грам": 3118,
      "elect": 3119,
      "Em": 3120,
      "jor": 3121,
      "result": 3122,
      "кола": 3123,
      "Car": 3124,
      "актриса": 3125,
      "Ба": 3126,
      "flu": 3127,
      "Par": 3128,
      "ator": 3129,
      "струк": 3130,
      "same": 3131,
      "ilit": 3132,
      "ене": 3133,
      "зан": 3134,
      "мар": 3135,
      "Europe": 3136,
      "common": 3137,
      "trad": 3138,
      "rad": 3139,
      "марта": 3140,
      "ides": 3141,
      "кор": 3142,
      "atic": 3143,
      "cra": 3144,
      "июня": 3145,
      "light": 3146,
      "фев": 3147,
      "нови": 3148,
      "fact": 3149,
      "хра": 3150,
      "life": 3151,
      "politician": 3152,
      "современ": 3153,
      "декабря": 3154,
      "Ле": 3155,
      "кар": 3156,
      "enn": 3157,
      "success": 3158,
      "exp": 3159,
      "То": 3160,
      "Од": 3161,
      "кие": 3162,
      "AS": 3163,
      "ilos": 3164,
      "ках": 3165,
      "because": 3166,
      "где": 3167,
      "ograph": 3168,
      "ves": 3169,
      "ствует": 3170,
      "support": 3171,
      "lect": 3172,
      "июля": 3173,
      "значи": 3174,
      "29": 3175,
      "thern": 3176,
      "кро": 3177,
      "ilosop": 3178,
      "работа": 3179,
      "иссле": 3180,
      "gust": 3181,
      "vent": 3182,
      "цо": 3183,
      "Col": 3184,
      "mb": 3185,
      "Ang": 3186,
      "come": 3187,
      "есть": 3188,
      "ional": 3189,
      "ica": 3190,
      "back": 3191,
      "ены": 3192,
      "Ag": 3193,
      "случа": 3194,
      "Да": 3195,
      "Мос": 3196,
      "XV": 3197,
      "acter": 3198,
      "August": 3199,
      "language": 3200,
      "февра": 3201,
      "chn": 3202,
      "тей": 3203,
      "fic": 3204,
      "вклю": 3205,
      "обы": 3206,
      "class": 3207,
      "University": 3208,
      "bed": 3209,
      "ven": 3210,
      "ai": 3211,
      "полити": 3212,
      "имен": 3213,
      "Pe": 3214,
      "writer": 3215,
      "чно": 3216,
      "вший": 3217,
      "религи": 3218,
      "этого": 3219,
      "ким": 3220,
      "мор": 3221,
      "ulation": 3222,
      "шего": 3223,
      "ющий": 3224,
      "Пре": 3225,
      "view": 3226,
      "hum": 3227,
      "Alexander": 3228,
      "0s": 3229,
      "личе": 3230,
      "дия": 3231,
      "ute": 3232,
      "stand": 3233,
      "Greek": 3234,
      "very": 3235,
      "World": 3236,
      "немец": 3237,
      "lit": 3238,
      "ref": 3239,
      "реги": 3240,
      "illion": 3241,
      "chan": 3242,
      "Алекса": 3243,
      "щения": 3244,
      "descri": 3245,
      "Из": 3246,
      "example": 3247,
      "теа": 3248,
      "ather": 3249,
      "Так": 3250,
      "adem": 3251,
      "мышлен": 3252,
      "using": 3253,
      "сентября": 3254,
      "фран": 3255,
      "волю": 3256,
      "согла": 3257,
      "Ла": 3258,
      "пара": 3259,
      "вает": 3260,
      "Pr": 3261,
      "виде": 3262,
      "non": 3263,
      "several": 3264,
      "право": 3265,
      "vol": 3266,
      "ряд": 3267,
      "Be": 3268,
      "доб": 3269,
      "октября": 3270,
      "енно": 3271,
      "Моск": 3272,
      "ale": 3273,
      "ляр": 3274,
      "вать": 3275,
      "меня": 3276,
      "кни": 3277,
      "remain": 3278,
      "four": 3279,
      "ener": 3280,
      "нау": 3281,
      "находи": 3282,
      "small": 3283,
      "чис": 3284,
      "ственно": 3285,
      "cot": 3286,
      "will": 3287,
      "через": 3288,
      "ban": 3289,
      "tle": 3290,
      "depend": 3291,
      "lim": 3292,
      "Дж": 3293,
      "бор": 3294,
      "щё": 3295,
      "пор": 3296,
      "зах": 3297,
      "стов": 3298,
      "different": 3299,
      "строи": 3300,
      "цуз": 3301,
      "moder": 3302,
      "зависимо": 3303,
      "цер": 3304,
      "press": 3305,
      "Александ": 3306,
      "поч": 3307,
      "дела": 3308,
      "ember": 3309,
      "деятель": 3310,
      "ox": 3311,
      "ood": 3312,
      "ids": 3313,
      "тон": 3314,
      "электро": 3315,
      "зма": 3316,
      "ster": 3317,
      "таль": 3318,
      "di": 3319,
      "проис": 3320,
      "мов": 3321,
      "now": 3322,
      "офи": 3323,
      "ene": 3324,
      "stit": 3325,
      "гов": 3326,
      "major": 3327,
      "ended": 3328,
      "person": 3329,
      "рая": 3330,
      "помо": 3331,
      "Ро": 3332,
      "order": 3333,
      "логии": 3334,
      "each": 3335,
      "член": 3336,
      "ками": 3337,
      "апреля": 3338,
      "poss": 3339,
      "Russ": 3340,
      "equ": 3341,
      "organ": 3342,
      "ively": 3343,
      "mark": 3344,
      "South": 3345,
      "cult": 3346,
      "resp": 3347,
      "Совет": 3348,
      "sc": 3349,
      "физи": 3350,
      "кня": 3351,
      "Ge": 3352,
      "харак": 3353,
      "ходит": 3354,
      "ired": 3355,
      "твер": 3356,
      "Вла": 3357,
      "Де": 3358,
      "ноября": 3359,
      "августа": 3360,
      "мет": 3361,
      "чу": 3362,
      "мина": 3363,
      "Canad": 3364,
      "миро": 3365,
      "incre": 3366,
      "веро": 3367,
      "mus": 3368,
      "aking": 3369,
      "работ": 3370,
      "Ear": 3371,
      "2010": 3372,
      "Те": 3373,
      "каче": 3374,
      "since": 3375,
      "lack": 3376,
      "aur": 3377,
      "нет": 3378,
      "mat": 3379,
      "try": 3380,
      "top": 3381,
      "кси": 3382,
      "conom": 3383,
      "февраля": 3384,
      "вали": 3385,
      "ристи": 3386,
      "ья": 3387,
      "aster": 3388,
      "производ": 3389,
      "zer": 3390,
      "вается": 3391,
      "Че": 3392,
      "hel": 3393,
      "Герма": 3394,
      "did": 3395,
      "вин": 3396,
      "когда": 3397,
      "без": 3398,
      "уров": 3399,
      "There": 3400,
      "2000": 3401,
      "став": 3402,
      "жён": 3403,
      "near": 3404,
      "appro": 3405,
      "large": 3406,
      "allow": 3407,
      "film": 3408,
      "ера": 3409,
      "histor": 3410,
      "Cl": 3411,
      "commun": 3412,
      "использова": 3413,
      "ост": 3414,
      "even": 3415,
      "until": 3416,
      "cla": 3417,
      "режи": 3418,
      "филь": 3419,
      "effect": 3420,
      "яв": 3421,
      "By": 3422,
      "oth": 3423,
      "ali": 3424,
      "скому": 3425,
      "ided": 3426,
      "period": 3427,
      "ined": 3428,
      "belie": 3429,
      "60": 3430,
      "refer": 3431,
      "Это": 3432,
      "например": 3433,
      "соответ": 3434,
      "2014": 3435,
      "However": 3436,
      "program": 3437,
      "Ав": 3438,
      "2008": 3439,
      "окру": 3440,
      "US": 3441,
      "loc": 3442,
      "глав": 3443,
      "цией": 3444,
      "литерату": 3445,
      "советский": 3446,
      "националь": 3447,
      "yn": 3448,
      "government": 3449,
      "Укра": 3450,
      "промышлен": 3451,
      "транспо": 3452,
      "быть": 3453,
      "ged": 3454,
      "кус": 3455,
      "всех": 3456,
      "bas": 3457,
      "After": 3458,
      "Все": 3459,
      "fun": 3460,
      "ting": 3461,
      "Республи": 3462,
      "ister": 3463,
      "форми": 3464,
      "cle": 3465,
      "modern": 3466,
      "bus": 3467,
      "Ста": 3468,
      "bit": 3469,
      "place": 3470,
      "министра": 3471,
      "those": 3472,
      "born": 3473,
      "2013": 3474,
      "многи": 3475,
      "ared": 3476,
      "power": 3477,
      "80": 3478,
      "оне": 3479,
      "вид": 3480,
      "лии": 3481,
      "являются": 3482,
      "шие": 3483,
      "количе": 3484,
      "estab": 3485,
      "put": 3486,
      "млн": 3487,
      "бере": 3488,
      "include": 3489,
      "ral": 3490,
      "поз": 3491,
      "2012": 3492,
      "side": 3493,
      "import": 3494,
      "King": 3495,
      "комп": 3496,
      "времени": 3497,
      "ines": 3498,
      "craft": 3499,
      "ices": 3500,
      "памя": 3501,
      "пози": 3502,
      "Australian": 3503,
      "ribut": 3504,
      "ходя": 3505,
      "itions": 3506,
      "занима": 3507,
      "самы": 3508,
      "дра": 3509,
      "кло": 3510,
      "ival": 3511,
      "версите": 3512,
      "Фе": 3513,
      "стей": 3514,
      "They": 3515,
      "различ": 3516,
      "льных": 3517,
      "разде": 3518,
      "зм": 3519,
      "iven": 3520,
      "2007": 3521,
      "Hist": 3522,
      "alk": 3523,
      "ouse": 3524,
      "Бу": 3525,
      "app": 3526,
      "ner": 3527,
      "лев": 3528,
      "omet": 3529,
      "оз": 3530,
      "тыся": 3531,
      "строй": 3532,
      "ization": 3533,
      "ternational": 3534,
      "кти": 3535,
      "дент": 3536,
      "которой": 3537,
      "россий": 3538,
      "архи": 3539,
      "следу": 3540,
      "зер": 3541,
      "water": 3542,
      "around": 3543,
      "сою": 3544,
      "Pol": 3545,
      "ason": 3546,
      "мон": 3547,
      "els": 3548,
      "ради": 3549,
      "мире": 3550,
      "чин": 3551,
      "lands": 3552,
      "Влади": 3553,
      "иболее": 3554,
      "Ти": 3555,
      "француз": 3556,
      "mag": 3557,
      "bre": 3558,
      "ames": 3559,
      "que": 3560,
      "нци": 3561,
      "bod": 3562,
      "два": 3563,
      "бле": 3564,
      "переда": 3565,
      "нем": 3566,
      "ler": 3567,
      "iving": 3568,
      "phys": 3569,
      "ilar": 3570,
      "один": 3571,
      "дь": 3572,
      "2011": 3573,
      "rest": 3574,
      "первые": 3575,
      "призна": 3576,
      "зии": 3577,
      "вшие": 3578,
      "хими": 3579,
      "кол": 3580,
      "ama": 3581,
      "test": 3582,
      "among": 3583,
      "Ха": 3584,
      "Кар": 3585,
      "ilitary": 3586,
      "Ed": 3587,
      "древ": 3588,
      "дж": 3589,
      "желез": 3590,
      "100": 3591,
      "проце": 3592,
      "вс": 3593,
      "чь": 3594,
      "mot": 3595,
      "Вы": 3596,
      "His": 3597,
      "anim": 3598,
      "поэ": 3599,
      "вших": 3600,
      "Пу": 3601,
      "control": 3602,
      "bi": 3603,
      "располо": 3604,
      "Му": 3605,
      "способ": 3606,
      "вне": 3607,
      "Mo": 3608,
      "song": 3609,
      "183": 3610,
      "искус": 3611,
      "continu": 3612,
      "2015": 3613,
      "cour": 3614,
      "2009": 3615,
      "influ": 3616,
      "долж": 3617,
      "National": 3618,
      "тай": 3619,
      "годах": 3620,
      "2005": 3621,
      "techn": 3622,
      "omen": 3623,
      "cing": 3624,
      "rian": 3625,
      "рода": 3626,
      "системы": 3627,
      "open": 3628,
      "распростран": 3629,
      "struct": 3630,
      "туры": 3631,
      "щение": 3632,
      "компа": 3633,
      "thod": 3634,
      "револю": 3635,
      "astr": 3636,
      "кая": 3637,
      "програм": 3638,
      "мета": 3639,
      "see": 3640,
      "дро": 3641,
      "спи": 3642,
      "pass": 3643,
      "усло": 3644,
      "яб": 3645,
      "слова": 3646,
      "Cent": 3647,
      "stat": 3648,
      "iet": 3649,
      "ждан": 3650,
      "compos": 3651,
      "econom": 3652,
      "мой": 3653,
      "term": 3654,
      "70": 3655,
      "нах": 3656,
      "aving": 3657,
      "шь": 3658,
      "pat": 3659,
      "уже": 3660,
      "доста": 3661,
      "North": 3662,
      "стер": 3663,
      "гор": 3664,
      "rop": 3665,
      "ately": 3666,
      "мето": 3667,
      "philosop": 3668,
      "ield": 3669,
      "хран": 3670,
      "attle": 3671,
      "ham": 3672,
      "Пи": 3673,
      "what": 3674,
      "cord": 3675,
      "bra": 3676,
      "head": 3677,
      "cr": 3678,
      "offic": 3679,
      "вом": 3680,
      "formed": 3681,
      "Ис": 3682,
      "Her": 3683,
      "включа": 3684,
      "wn": 3685,
      "2006": 3686,
      "Ant": 3687,
      "return": 3688,
      "бла": 3689,
      "возмож": 3690,
      "слав": 3691,
      "относи": 3692,
      "run": 3693,
      "син": 3694,
      "show": 3695,
      "науч": 3696,
      "годы": 3697,
      "Man": 3698,
      "дера": 3699,
      "aut": 3700,
      "184": 3701,
      "результате": 3702,
      "ведения": 3703,
      "имеет": 3704,
      "Ne": 3705,
      "bur": 3706,
      "self": 3707,
      "cript": 3708,
      "жизни": 3709,
      "циали": 3710,
      "plan": 3711,
      "числен": 3712,
      "дости": 3713,
      "сторо": 3714,
      "музы": 3715,
      "ize": 3716,
      "ternal": 3717,
      "much": 3718,
      "тыс": 3719,
      "claim": 3720,
      "выбо": 3721,
      "всего": 3722,
      "вну": 3723,
      "actor": 3724,
      "ried": 3725,
      "ness": 3726,
      "уда": 3727,
      "месте": 3728,
      "ork": 3729,
      "льные": 3730,
      "личи": 3731,
      "ified": 3732,
      "ised": 3733,
      "одно": 3734,
      "собы": 3735,
      "функ": 3736,
      "См": 3737,
      "ases": 3738,
      "Би": 3739,
      "Лени": 3740,
      "ещё": 3741,
      "ony": 3742,
      "войска": 3743,
      "нин": 3744,
      "area": 3745,
      "льный": 3746,
      "Sy": 3747,
      "зов": 3748,
      "nal": 3749,
      "series": 3750,
      "Сан": 3751,
      "apan": 3752,
      "ступи": 3753,
      "185": 3754,
      "день": 3755,
      "которая": 3756,
      "ственной": 3757,
      "1991": 3758,
      "гру": 3759,
      "университе": 3760,
      "ографи": 3761,
      "шта": 3762,
      "дина": 3763,
      "Scot": 3764,
      "van": 3765,
      "сом": 3766,
      "XX": 3767,
      "вар": 3768,
      "family": 3769,
      "сол": 3770,
      "process": 3771,
      "изда": 3772,
      "pect": 3773,
      "mission": 3774,
      "пон": 3775,
      "лении": 3776,
      "ivil": 3777,
      "правления": 3778,
      "ped": 3779,
      "ший": 3780,
      "due": 3781,
      "другие": 3782,
      "ье": 3783,
      "стри": 3784,
      "щих": 3785,
      "dem": 3786,
      "last": 3787,
      "хот": 3788,
      "бург": 3789,
      "1990": 3790,
      "логия": 3791,
      "кли": 3792,
      "годов": 3793,
      "полага": 3794,
      "сель": 3795,
      "Japan": 3796,
      "iam": 3797,
      "rele": 3798,
      "Украи": 3799,
      "jo": 3800,
      "Вер": 3801,
      "general": 3802,
      "ступа": 3803,
      "key": 3804,
      "space": 3805,
      "considered": 3806,
      "числе": 3807,
      "history": 3808,
      "footballer": 3809,
      "период": 3810,
      "сей": 3811,
      "несколько": 3812,
      "коман": 3813,
      "сут": 3814,
      "hand": 3815,
      "государства": 3816,
      "sen": 3817,
      "Лю": 3818,
      "кисло": 3819,
      "Day": 3820,
      "hal": 3821,
      "ино": 3822,
      "верх": 3823,
      "Apple": 3824,
      "mov": 3825,
      "2020": 3826,
      "худо": 3827,
      "вен": 3828,
      "опера": 3829,
      "arian": 3830,
      "кру": 3831,
      "defin": 3832,
      "ze": 3833,
      "свобо": 3834,
      "площа": 3835,
      "den": 3836,
      "держи": 3837,
      "character": 3838,
      "div": 3839,
      "urther": 3840,
      "Will": 3841,
      "eder": 3842,
      "2016": 3843,
      "могу": 3844,
      "российский": 3845,
      "works": 3846,
      "рах": 3847,
      "2004": 3848,
      "began": 3849,
      "станови": 3850,
      "едини": 3851,
      "2017": 3852,
      "влия": 3853,
      "республи": 3854,
      "These": 3855,
      "расположен": 3856,
      "within": 3857,
      "щен": 3858,
      "chem": 3859,
      "child": 3860,
      "матери": 3861,
      "пись": 3862,
      "following": 3863,
      "наб": 3864,
      "двух": 3865,
      "sal": 3866,
      "tem": 3867,
      "шли": 3868,
      "разд": 3869,
      "yal": 3870,
      "хозя": 3871,
      "От": 3872,
      "iness": 3873,
      "ones": 3874,
      "tradition": 3875,
      "льной": 3876,
      "ческим": 3877,
      "становлен": 3878,
      "million": 3879,
      "большо": 3880,
      "indu": 3881,
      "англи": 3882,
      "городе": 3883,
      "которого": 3884,
      "жной": 3885,
      "2018": 3886,
      "pri": 3887,
      "больше": 3888,
      "свой": 3889,
      "руко": 3890,
      "Бер": 3891,
      "евро": 3892,
      "бан": 3893,
      "similar": 3894,
      "Однако": 3895,
      "Ри": 3896,
      "сков": 3897,
      "ческое": 3898,
      "def": 3899,
      "вопро": 3900,
      "пут": 3901,
      "однако": 3902,
      "тиво": 3903,
      "Church": 3904,
      "typ": 3905,
      "get": 3906,
      "yer": 3907,
      "ществ": 3908,
      "представи": 3909,
      "still": 3910,
      "широ": 3911,
      "связи": 3912,
      "singer": 3913,
      "face": 3914,
      "каде": 3915,
      "mit": 3916,
      "продол": 3917,
      "school": 3918,
      "human": 3919,
      "Ос": 3920,
      "рд": 3921,
      "alth": 3922,
      "tic": 3923,
      "ling": 3924,
      "пей": 3925,
      "Ber": 3926,
      "Char": 3927,
      "уча": 3928,
      "основа": 3929,
      "официаль": 3930,
      "составляет": 3931,
      "XIX": 3932,
      "estern": 3933,
      "ently": 3934,
      "short": 3935,
      "All": 3936,
      "kill": 3937,
      "град": 3938,
      "posed": 3939,
      "Боль": 3940,
      "Air": 3941,
      "crit": 3942,
      "лки": 3943,
      "пря": 3944,
      "Север": 3945,
      "ука": 3946,
      "дели": 3947,
      "первый": 3948,
      "тради": 3949,
      "мия": 3950,
      "country": 3951,
      "власти": 3952,
      "gre": 3953,
      "published": 3954,
      "York": 3955,
      "great": 3956,
      "contain": 3957,
      "степ": 3958,
      "ёх": 3959,
      "мень": 3960,
      "смер": 3961,
      "ланд": 3962,
      "пас": 3963,
      "чемпи": 3964,
      "direct": 3965,
      "строитель": 3966,
      "report": 3967,
      "sequ": 3968,
      "ability": 3969,
      "Велико": 3970,
      "real": 3971,
      "states": 3972,
      "состав": 3973,
      "истории": 3974,
      "театра": 3975,
      "vi": 3976,
      "Ло": 3977,
      "book": 3978,
      "empt": 3979,
      "Ива": 3980,
      "рами": 3981,
      "unch": 3982,
      "кова": 3983,
      "чных": 3984,
      "ске": 3985,
      "чер": 3986,
      "мона": 3987,
      "relig": 3988,
      "кам": 3989,
      "ением": 3990,
      "няя": 3991,
      "президен": 3992,
      "cop": 3993,
      "диа": 3994,
      "2019": 3995,
      "position": 3996,
      "hol": 3997,
      "ask": 3998,
      "качестве": 3999,
      "позво": 4000,
      "2001": 4001,
      "актёр": 4002,
      "Jew": 4003,
      "camp": 4004,
      "ross": 4005,
      "ning": 4006,
      "Исто": 4007,
      "Фи": 4008,
      "тами": 4009,
      "международ": 4010,
      "Пет": 4011,
      "ird": 4012,
      "Никола": 4013,
      "nat": 4014,
      "рам": 4015,
      "ec": 4016,
      "шен": 4017,
      "tit": 4018,
      "ему": 4019,
      "along": 4020,
      "31": 4021,
      "образова": 4022,
      "прия": 4023,
      "скими": 4024,
      "Госу": 4025,
      "istic": 4026,
      "mean": 4027,
      "низ": 4028,
      "military": 4029,
      "According": 4030,
      "Tr": 4031,
      "чной": 4032,
      "трен": 4033,
      "astron": 4034,
      "rican": 4035,
      "Для": 4036,
      "др": 4037,
      "нский": 4038,
      "rote": 4039,
      "Поль": 4040,
      "гло": 4041,
      "Some": 4042,
      "tal": 4043,
      "мене": 4044,
      "ological": 4045,
      "представля": 4046,
      "коми": 4047,
      "образом": 4048,
      "Armen": 4049,
      "Med": 4050,
      "une": 4051,
      "парла": 4052,
      "lat": 4053,
      "another": 4054,
      "совер": 4055,
      "Петер": 4056,
      "мате": 4057,
      "search": 4058,
      "дет": 4059,
      "Christian": 4060,
      "Государ": 4061,
      "said": 4062,
      "хозяй": 4063,
      "pha": 4064,
      "могут": 4065,
      "35": 4066,
      "beg": 4067,
      "ument": 4068,
      "particular": 4069,
      "So": 4070,
      "late": 4071,
      "бя": 4072,
      "щее": 4073,
      "Sw": 4074,
      "stri": 4075,
      "система": 4076,
      "Сою": 4077,
      "ствии": 4078,
      "Bar": 4079,
      "этому": 4080,
      "независимо": 4081,
      "ably": 4082,
      "человека": 4083,
      "Athen": 4084,
      "given": 4085,
      "американский": 4086,
      "ination": 4087,
      "atom": 4088,
      "лга": 4089,
      "вести": 4090,
      "plic": 4091,
      "крат": 4092,
      "product": 4093,
      "Jan": 4094,
      "Min": 4095,
      "запад": 4096,
      "educ": 4097,
      "датель": 4098,
      "anti": 4099,
      "named": 4100,
      "wrote": 4101,
      "бира": 4102,
      "Per": 4103,
      "лением": 4104,
      "down": 4105,
      "took": 4106,
      "activ": 4107,
      "rece": 4108,
      "represent": 4109,
      "ung": 4110,
      "ющей": 4111,
      "Geor": 4112,
      "выше": 4113,
      "ock": 4114,
      "case": 4115,
      "ories": 4116,
      "2003": 4117,
      "конце": 4118,
      "сим": 4119,
      "дук": 4120,
      "объек": 4121,
      "aly": 4122,
      "век": 4123,
      "por": 4124,
      "особ": 4125,
      "ards": 4126,
      "nov": 4127,
      "бай": 4128,
      "хе": 4129,
      "ples": 4130,
      "population": 4131,
      "ison": 4132,
      "ste": 4133,
      "proper": 4134,
      "180": 4135,
      "IS": 4136,
      "этой": 4137,
      "sold": 4138,
      "упо": 4139,
      "just": 4140,
      "социаль": 4141,
      "формирова": 4142,
      "Coun": 4143,
      "либо": 4144,
      "лишь": 4145,
      "popular": 4146,
      "vir": 4147,
      "bal": 4148,
      "lam": 4149,
      "анти": 4150,
      "sour": 4151,
      "Сер": 4152,
      "восто": 4153,
      "онов": 4154,
      "писатель": 4155,
      "содержа": 4156,
      "шим": 4157,
      "former": 4158,
      "important": 4159,
      "comb": 4160,
      "собой": 4161,
      "We": 4162,
      "Лу": 4163,
      "rodu": 4164,
      "полни": 4165,
      "сооб": 4166,
      "тура": 4167,
      "uter": 4168,
      "лле": 4169,
      "воды": 4170,
      "left": 4171,
      "кур": 4172,
      "среди": 4173,
      "Он": 4174,
      "May": 4175,
      "2021": 4176,
      "When": 4177,
      "американская": 4178,
      "сни": 4179,
      "русский": 4180,
      "90": 4181,
      "энер": 4182,
      "ственный": 4183,
      "Albert": 4184,
      "issu": 4185,
      "various": 4186,
      "заклю": 4187,
      "импера": 4188,
      "jan": 4189,
      "word": 4190,
      "кви": 4191,
      "тных": 4192,
      "роль": 4193,
      "шко": 4194,
      "соедин": 4195,
      "интер": 4196,
      "pract": 4197,
      "возгла": 4198,
      "object": 4199,
      "feat": 4200,
      "sent": 4201,
      "зей": 4202,
      "ets": 4203,
      "инте": 4204,
      "начале": 4205,
      "отношения": 4206,
      "там": 4207,
      "исследова": 4208,
      "Ди": 4209,
      "augh": 4210,
      "название": 4211,
      "formation": 4212,
      "труд": 4213,
      "ality": 4214,
      "каж": 4215,
      "себя": 4216,
      "exist": 4217,
      "вян": 4218,
      "1945": 4219,
      "African": 4220,
      "вз": 4221,
      "Ju": 4222,
      "настоя": 4223,
      "1999": 4224,
      "тической": 4225,
      "themat": 4226,
      "генера": 4227,
      "нару": 4228,
      "need": 4229,
      "назна": 4230,
      "перату": 4231,
      "start": 4232,
      "ata": 4233,
      "without": 4234,
      "начала": 4235,
      "Аль": 4236,
      "рок": 4237,
      "sug": 4238,
      "2002": 4239,
      "prof": 4240,
      "учё": 4241,
      "cul": 4242,
      "посе": 4243,
      "величи": 4244,
      "ank": 4245,
      "bet": 4246,
      "принима": 4247,
      "храни": 4248,
      "брита": 4249,
      "William": 4250,
      "имо": 4251,
      "стали": 4252,
      "живо": 4253,
      "Co": 4254,
      "эта": 4255,
      "пада": 4256,
      "academ": 4257,
      "members": 4258,
      "body": 4259,
      "God": 4260,
      "IV": 4261,
      "dra": 4262,
      "ug": 4263,
      "uses": 4264,
      "Canadian": 4265,
      "aul": 4266,
      "fac": 4267,
      "сма": 4268,
      "mor": 4269,
      "вии": 4270,
      "Великобрита": 4271,
      "ths": 4272,
      "forms": 4273,
      "1980": 4274,
      "written": 4275,
      "every": 4276,
      "treat": 4277,
      "Mon": 4278,
      "anish": 4279,
      "ствуют": 4280,
      "острова": 4281,
      "Me": 4282,
      "theory": 4283,
      "тар": 4284,
      "political": 4285,
      "developed": 4286,
      "Br": 4287,
      "Ги": 4288,
      "режисс": 4289,
      "base": 4290,
      "уг": 4291,
      "Nov": 4292,
      "model": 4293,
      "заня": 4294,
      "ница": 4295,
      "level": 4296,
      "большин": 4297,
      "home": 4298,
      "ially": 4299,
      "жде": 4300,
      "ями": 4301,
      "рин": 4302,
      "Atl": 4303,
      "Gr": 4304,
      "Зем": 4305,
      "crew": 4306,
      "During": 4307,
      "jour": 4308,
      "мом": 4309,
      "друго": 4310,
      "become": 4311,
      "чтобы": 4312,
      "production": 4313,
      "languages": 4314,
      "рома": 4315,
      "вода": 4316,
      "acy": 4317,
      "AC": 4318,
      "father": 4319,
      "фон": 4320,
      "обходи": 4321,
      "xim": 4322,
      "стране": 4323,
      "этот": 4324,
      "цар": 4325,
      "начи": 4326,
      "шёл": 4327,
      "противо": 4328,
      "своей": 4329,
      "ff": 4330,
      "make": 4331,
      "телем": 4332,
      "rec": 4333,
      "вают": 4334,
      "species": 4335,
      "pain": 4336,
      "нан": 4337,
      "лиза": 4338,
      "измен": 4339,
      "ways": 4340,
      "addition": 4341,
      "президент": 4342,
      "ристиан": 4343,
      "few": 4344,
      "net": 4345,
      "кое": 4346,
      "каз": 4347,
      "Dav": 4348,
      "поги": 4349,
      "tak": 4350,
      "шее": 4351,
      "occur": 4352,
      "Union": 4353,
      "pur": 4354,
      "1992": 4355,
      "пя": 4356,
      "щий": 4357,
      "граждан": 4358,
      "Российской": 4359,
      "Ново": 4360,
      "Ste": 4361,
      "рист": 4362,
      "моно": 4363,
      "ither": 4364,
      "built": 4365,
      "sou": 4366,
      "мпи": 4367,
      "чего": 4368,
      "наиболее": 4369,
      "Alf": 4370,
      "strong": 4371,
      "wards": 4372,
      "чёт": 4373,
      "уби": 4374,
      "Egy": 4375,
      "постро": 4376,
      "associ": 4377,
      "гии": 4378,
      "prote": 4379,
      "loy": 4380,
      "introdu": 4381,
      "Emp": 4382,
      "наблю": 4383,
      "1920": 4384,
      "дой": 4385,
      "olic": 4386,
      "evol": 4387,
      "актив": 4388,
      "included": 4389,
      "Apr": 4390,
      "День": 4391,
      "чные": 4392,
      "празд": 4393,
      "ственного": 4394,
      "prim": 4395,
      "78": 4396,
      "building": 4397,
      "значитель": 4398,
      "оло": 4399,
      "ферен": 4400,
      "шки": 4401,
      "cience": 4402,
      "One": 4403,
      "мечания": 4404,
      "Fe": 4405,
      "ray": 4406,
      "температу": 4407,
      "лла": 4408,
      "нения": 4409,
      "тысяч": 4410,
      "Pres": 4411,
      "чё": 4412,
      "кана": 4413,
      "sty": 4414,
      "сам": 4415,
      "служи": 4416,
      "inste": 4417,
      "bar": 4418,
      "Egypt": 4419,
      "Миха": 4420,
      "dro": 4421,
      "national": 4422,
      "ган": 4423,
      "ходе": 4424,
      "April": 4425,
      "Ser": 4426,
      "died": 4427,
      "жении": 4428,
      "оборо": 4429,
      "Other": 4430,
      "neg": 4431,
      "cially": 4432,
      "field": 4433,
      "пода": 4434,
      "ites": 4435,
      "иде": 4436,
      "шла": 4437,
      "vision": 4438,
      "состави": 4439,
      "льного": 4440,
      "важ": 4441,
      "милли": 4442,
      "демо": 4443,
      "oss": 4444,
      "Ита": 4445,
      "утвер": 4446,
      "конча": 4447,
      "источ": 4448,
      "веке": 4449,
      "стана": 4450,
      "арти": 4451,
      "Согла": 4452,
      "стоян": 4453,
      "grow": 4454,
      "suggest": 4455,
      "Arch": 4456,
      "ground": 4457,
      "mass": 4458,
      "сил": 4459,
      "largest": 4460,
      "Har": 4461,
      "пти": 4462,
      "лист": 4463,
      "меся": 4464,
      "ждение": 4465,
      "группы": 4466,
      "vo": 4467,
      "участ": 4468,
      "восточ": 4469,
      "скоро": 4470,
      "ogn": 4471,
      "Russian": 4472,
      "bes": 4473,
      "Пра": 4474,
      "ivid": 4475,
      "eth": 4476,
      "although": 4477,
      "ential": 4478,
      "импе": 4479,
      "побе": 4480,
      "Также": 4481,
      "business": 4482,
      "Lat": 4483,
      "bir": 4484,
      "discover": 4485,
      "change": 4486,
      "практи": 4487,
      "лений": 4488,
      "одной": 4489,
      "event": 4490,
      "alia": 4491,
      "тего": 4492,
      "зако": 4493,
      "Примечания": 4494,
      "dest": 4495,
      "iction": 4496,
      "El": 4497,
      "ificant": 4498,
      "встре": 4499,
      "вей": 4500,
      "usually": 4501,
      "1996": 4502,
      "astern": 4503,
      "action": 4504,
      "produced": 4505,
      "урна": 4506,
      "unar": 4507,
      "America": 4508,
      "необходи": 4509,
      "золо": 4510,
      "ision": 4511,
      "виа": 4512,
      "столи": 4513,
      "ственных": 4514,
      "философи": 4515,
      "Германии": 4516,
      "деся": 4517,
      "закон": 4518,
      "rent": 4519,
      "invol": 4520,
      "помощ": 4521,
      "Цент": 4522,
      "щён": 4523,
      "attempt": 4524,
      "academic": 4525,
      "36": 4526,
      "75": 4527,
      "cu": 4528,
      "cus": 4529,
      "°C": 4530,
      "луч": 4531,
      "however": 4532,
      "нова": 4533,
      "тая": 4534,
      "ured": 4535,
      "Bra": 4536,
      "times": 4537,
      "раб": 4538,
      "этих": 4539,
      "обеспе": 4540,
      "услови": 4541,
      "45": 4542,
      "tele": 4543,
      "1970": 4544,
      "даль": 4545,
      "дования": 4546,
      "local": 4547,
      "крупней": 4548,
      "мьер": 4549,
      "роди": 4550,
      "тера": 4551,
      "comple": 4552,
      "емых": 4553,
      "engine": 4554,
      "held": 4555,
      "idence": 4556,
      "веден": 4557,
      "launch": 4558,
      "1989": 4559,
      "нам": 4560,
      "пов": 4561,
      "обре": 4562,
      "стала": 4563,
      "manag": 4564,
      "фак": 4565,
      "часто": 4566,
      "Arabic": 4567,
      "thus": 4568,
      "мин": 4569,
      "муни": 4570,
      "development": 4571,
      "Gu": 4572,
      "38": 4573,
      "если": 4574,
      "ющая": 4575,
      "бир": 4576,
      "философ": 4577,
      "Wal": 4578,
      "rul": 4579,
      "мас": 4580,
      "пробле": 4581,
      "established": 4582,
      "Ор": 4583,
      "Italian": 4584,
      "Empire": 4585,
      "раство": 4586,
      "вари": 4587,
      "Act": 4588,
      "ges": 4589,
      "oto": 4590,
      "бло": 4591,
      "init": 4592,
      "2022": 4593,
      "отдель": 4594,
      "Earth": 4595,
      "дли": 4596,
      "graph": 4597,
      "mult": 4598,
      "хода": 4599,
      "ford": 4600,
      "acks": 4601,
      "clos": 4602,
      "фото": 4603,
      "ient": 4604,
      "type": 4605,
      "нес": 4606,
      "тельных": 4607,
      "having": 4608,
      "ps": 4609,
      "uary": 4610,
      "свою": 4611,
      "Phil": 4612,
      "ил": 4613,
      "arr": 4614,
      "179": 4615,
      "England": 4616,
      "Основ": 4617,
      "She": 4618,
      "dam": 4619,
      "ior": 4620,
      "вза": 4621,
      "зь": 4622,
      "redu": 4623,
      "chang": 4624,
      "History": 4625,
      "oks": 4626,
      "Свя": 4627,
      "1941": 4628,
      "ography": 4629,
      "попу": 4630,
      "война": 4631,
      "tries": 4632,
      "Рус": 4633,
      "cell": 4634,
      "reach": 4635,
      "множе": 4636,
      "Франции": 4637,
      "others": 4638,
      "щие": 4639,
      "Ma": 4640,
      "European": 4641,
      "turn": 4642,
      "ancient": 4643,
      "lear": 4644,
      "продук": 4645,
      "significant": 4646,
      "separ": 4647,
      "лий": 4648,
      "39": 4649,
      "sla": 4650,
      "остро": 4651,
      "направ": 4652,
      "фика": 4653,
      "ющего": 4654,
      "Cor": 4655,
      "proble": 4656,
      "администра": 4657,
      "hold": 4658,
      "док": 4659,
      "ferences": 4660,
      "mathemat": 4661,
      "оте": 4662,
      "ishop": 4663,
      "вов": 4664,
      "1995": 4665,
      "ремен": 4666,
      "team": 4667,
      "178": 4668,
      "твор": 4669,
      "нению": 4670,
      "ссии": 4671,
      "языка": 4672,
      "которое": 4673,
      "pen": 4674,
      "данным": 4675,
      "лян": 4676,
      "1998": 4677,
      "ющим": 4678,
      "Литерату": 4679,
      "Mus": 4680,
      "ration": 4681,
      "systems": 4682,
      "poet": 4683,
      "язык": 4684,
      "ometimes": 4685,
      "оке": 4686,
      "Запад": 4687,
      "ом": 4688,
      "ником": 4689,
      "деля": 4690,
      "Кали": 4691,
      "five": 4692,
      "feder": 4693,
      "yl": 4694,
      "aren": 4695,
      "log": 4696,
      "should": 4697,
      "region": 4698,
      "клад": 4699,
      "48": 4700,
      "mater": 4701,
      "осуществ": 4702,
      "архитек": 4703,
      "менее": 4704,
      "Гла": 4705,
      "International": 4706,
      "облада": 4707,
      "32": 4708,
      "fig": 4709,
      "record": 4710,
      "1918": 4711,
      "individ": 4712,
      "сматри": 4713,
      "Cath": 4714,
      "роме": 4715,
      "certain": 4716,
      "liter": 4717,
      "pot": 4718,
      "itch": 4719,
      "1997": 4720,
      "served": 4721,
      "scient": 4722,
      "глу": 4723,
      "church": 4724,
      "ament": 4725,
      "ove": 4726,
      "британ": 4727,
      "Tur": 4728,
      "цей": 4729,
      "ues": 4730,
      "1993": 4731,
      "lican": 4732,
      "журна": 4733,
      "Mac": 4734,
      "1994": 4735,
      "Европы": 4736,
      "thing": 4737,
      "выпу": 4738,
      "Port": 4739,
      "Sept": 4740,
      "version": 4741,
      "clo": 4742,
      "фут": 4743,
      "care": 4744,
      "Япо": 4745,
      "сме": 4746,
      "ристо": 4747,
      "защи": 4748,
      "actress": 4749,
      "natural": 4750,
      "west": 4751,
      "пси": 4752,
      "тно": 4753,
      "espe": 4754,
      "ню": 4755,
      "учи": 4756,
      "town": 4757,
      "stant": 4758,
      "соз": 4759,
      "occ": 4760,
      "mid": 4761,
      "company": 4762,
      "half": 4763,
      "independ": 4764,
      "армии": 4765,
      "рования": 4766,
      "lor": 4767,
      "ствие": 4768,
      "original": 4769,
      "джа": 4770,
      "ery": 4771,
      "Восточ": 4772,
      "single": 4773,
      "1960": 4774,
      "ули": 4775,
      "меха": 4776,
      "работы": 4777,
      "держ": 4778,
      "голо": 4779,
      "тых": 4780,
      "подписа": 4781,
      "партии": 4782,
      "Li": 4783,
      "религиоз": 4784,
      "находится": 4785,
      "force": 4786,
      "информа": 4787,
      "conne": 4788,
      "Sov": 4789,
      "постоян": 4790,
      "губер": 4791,
      "чень": 4792,
      "нение": 4793,
      "догово": 4794,
      "разме": 4795,
      "Azer": 4796,
      "Scott": 4797,
      "lab": 4798,
      "method": 4799,
      "described": 4800,
      "ining": 4801,
      "study": 4802,
      "транспорт": 4803,
      "West": 4804,
      "сня": 4805,
      "тах": 4806,
      "placed": 4807,
      "Soviet": 4808,
      "сре": 4809,
      "готов": 4810,
      "semb": 4811,
      "семь": 4812,
      "know": 4813,
      "Согласно": 4814,
      "research": 4815,
      "вобо": 4816,
      "пита": 4817,
      "ственные": 4818,
      "band": 4819,
      "ta": 4820,
      "Бал": 4821,
      "даже": 4822,
      "льная": 4823,
      "рен": 4824,
      "ern": 4825,
      "показа": 4826,
      "шло": 4827,
      "ald": 4828,
      "Indian": 4829,
      "bai": 4830,
      "pp": 4831,
      "1988": 4832,
      "gra": 4833,
      "sto": 4834,
      "illa": 4835,
      "бес": 4836,
      "say": 4837,
      "вол": 4838,
      "schol": 4839,
      "director": 4840,
      "role": 4841,
      "Европе": 4842,
      "ментов": 4843,
      "capital": 4844,
      "take": 4845,
      "creen": 4846,
      "минист": 4847,
      "Lond": 4848,
      "free": 4849,
      "правительство": 4850,
      "function": 4851,
      "Oc": 4852,
      "ит": 4853,
      "дав": 4854,
      "does": 4855,
      "hydro": 4856,
      "Между": 4857,
      "ned": 4858,
      "thes": 4859,
      "berg": 4860,
      "ям": 4861,
      "London": 4862,
      "носи": 4863,
      "alg": 4864,
      "istan": 4865,
      "класси": 4866,
      "движения": 4867,
      "ha": 4868,
      "предло": 4869,
      "possible": 4870,
      "эн": 4871,
      "reed": 4872,
      "September": 4873,
      "mun": 4874,
      "sometimes": 4875,
      "чей": 4876,
      "оружён": 4877,
      "Azerbai": 4878,
      "Azerbaijan": 4879,
      "countries": 4880,
      "организа": 4881,
      "Ленин": 4882,
      "March": 4883,
      "1917": 4884,
      "котором": 4885,
      "ам": 4886,
      "оче": 4887,
      "ток": 4888,
      "termin": 4889,
      "65": 4890,
      "ring": 4891,
      "языке": 4892,
      "культур": 4893,
      "god": 4894,
      "Ио": 4895,
      "Крас": 4896,
      "моло": 4897,
      "utch": 4898,
      "имени": 4899,
      "развития": 4900,
      "France": 4901,
      "wid": 4902,
      "поня": 4903,
      "внутрен": 4904,
      "vict": 4905,
      "сад": 4906,
      "писи": 4907,
      "произо": 4908,
      "имеют": 4909,
      "союз": 4910,
      "aries": 4911,
      "songwriter": 4912,
      "пли": 4913,
      "шую": 4914,
      "веду": 4915,
      "почти": 4916,
      "фри": 4917,
      "ends": 4918,
      "syn": 4919,
      "режиссёр": 4920,
      "udd": 4921,
      "lower": 4922,
      "37": 4923,
      "anal": 4924,
      "премьер": 4925,
      "основе": 4926,
      "ори": 4927,
      "моби": 4928,
      "возду": 4929,
      "образования": 4930,
      "forces": 4931,
      "transl": 4932,
      "жу": 4933,
      "написа": 4934,
      "появи": 4935,
      "своего": 4936,
      "text": 4937,
      "проек": 4938,
      "Although": 4939,
      "spir": 4940,
      "founded": 4941,
      "позволя": 4942,
      "sum": 4943,
      "Ду": 4944,
      "Фин": 4945,
      "вёр": 4946,
      "ологи": 4947,
      "isto": 4948,
      "природ": 4949,
      "especially": 4950,
      "ов": 4951,
      "argu": 4952,
      "силь": 4953,
      "rat": 4954,
      "шу": 4955,
      "принци": 4956,
      "Националь": 4957,
      "трам": 4958,
      "трёх": 4959,
      "Lu": 4960,
      "cir": 4961,
      "христиан": 4962,
      "тическая": 4963,
      "34": 4964,
      "Сред": 4965,
      "ague": 4966,
      "Australia": 4967,
      "north": 4968,
      "inning": 4969,
      "July": 4970,
      "material": 4971,
      "выс": 4972,
      "Comp": 4973,
      "нев": 4974,
      "пан": 4975,
      "ots": 4976,
      "groups": 4977,
      "udi": 4978,
      "Казах": 4979,
      "appear": 4980,
      "bon": 4981,
      "впервые": 4982,
      "producer": 4983,
      "объя": 4984,
      "AD": 4985,
      "рово": 4986,
      "post": 4987,
      "чемпион": 4988,
      "64": 4989,
      "Вен": 4990,
      "след": 4991,
      "created": 4992,
      "music": 4993,
      "Cam": 4994,
      "воро": 4995,
      "inal": 4996,
      "lection": 4997,
      "six": 4998,
      "tro": 4999,
      "meas": 5000,
      "количество": 5001,
      "cil": 5002,
      "сфе": 5003,
      "third": 5004,
      "вую": 5005,
      "References": 5006,
      "Гу": 5007,
      "рию": 5008,
      "har": 5009,
      "оказа": 5010,
      "контро": 5011,
      "1944": 5012,
      "continued": 5013,
      "Gener": 5014,
      "Po": 5015,
      "укра": 5016,
      "itive": 5017,
      "che": 5018,
      "чества": 5019,
      "flight": 5020,
      "Республики": 5021,
      "rew": 5022,
      "ches": 5023,
      "тельные": 5024,
      "1940": 5025,
      "lines": 5026,
      "journal": 5027,
      "Art": 5028,
      "La": 5029,
      "inci": 5030,
      "стату": 5031,
      "свои": 5032,
      "славян": 5033,
      "Japanese": 5034,
      "меди": 5035,
      "constru": 5036,
      "получа": 5037,
      "частности": 5038,
      "обя": 5039,
      "стой": 5040,
      "пыт": 5041,
      "social": 5042,
      "рения": 5043,
      "лами": 5044,
      "earli": 5045,
      "vious": 5046,
      "moved": 5047,
      "1986": 5048,
      "тический": 5049,
      "отнош": 5050,
      "Ash": 5051,
      "РС": 5052,
      "ётся": 5053,
      "words": 5054,
      "ждён": 5055,
      "See": 5056,
      "links": 5057,
      "случае": 5058,
      "лимпи": 5059,
      "mod": 5060,
      "буду": 5061,
      "1984": 5062,
      "range": 5063,
      "related": 5064,
      "техни": 5065,
      "Литература": 5066,
      "число": 5067,
      "Latin": 5068,
      "кос": 5069,
      "ами": 5070,
      "ane": 5071,
      "exper": 5072,
      "ending": 5073,
      "With": 5074,
      "either": 5075,
      "how": 5076,
      "mber": 5077,
      "юж": 5078,
      "специаль": 5079,
      "screen": 5080,
      "ссе": 5081,
      "quest": 5082,
      "dle": 5083,
      "uel": 5084,
      "nit": 5085,
      "радио": 5086,
      "вшего": 5087,
      "ограни": 5088,
      "участи": 5089,
      "himself": 5090,
      "cho": 5091,
      "antic": 5092,
      "пыта": 5093,
      "ссажи": 5094,
      "January": 5095,
      "империи": 5096,
      "useum": 5097,
      "полови": 5098,
      "Dece": 5099,
      "второй": 5100,
      "тельной": 5101,
      "acc": 5102,
      "сылки": 5103,
      "компью": 5104,
      "Paul": 5105,
      "ming": 5106,
      "icle": 5107,
      "rather": 5108,
      "rug": 5109,
      "tre": 5110,
      "Ту": 5111,
      "акаде": 5112,
      "itect": 5113,
      "December": 5114,
      "women": 5115,
      "десь": 5116,
      "Pat": 5117,
      "ope": 5118,
      "Afgh": 5119,
      "aircraft": 5120,
      "власть": 5121,
      "бран": 5122,
      "ото": 5123,
      "четы": 5124,
      "oph": 5125,
      "суб": 5126,
      "Ком": 5127,
      "основном": 5128,
      "мировой": 5129,
      "зербай": 5130,
      "хло": 5131,
      "циа": 5132,
      "сен": 5133,
      "ark": 5134,
      "нец": 5135,
      "характер": 5136,
      "нен": 5137,
      "лича": 5138,
      "запа": 5139,
      "heav": 5140,
      "Hol": 5141,
      "To": 5142,
      "ished": 5143,
      "правительства": 5144,
      "Санкт": 5145,
      "David": 5146,
      "47": 5147,
      "Dutch": 5148,
      "youn": 5149,
      "туре": 5150,
      "пута": 5151,
      "peror": 5152,
      "существова": 5153,
      "выра": 5154,
      "1985": 5155,
      "saw": 5156,
      "win": 5157,
      "кто": 5158,
      "enced": 5159,
      "least": 5160,
      "форму": 5161,
      "формы": 5162,
      "электри": 5163,
      "кта": 5164,
      "сами": 5165,
      "1969": 5166,
      "OS": 5167,
      "мей": 5168,
      "President": 5169,
      "сколь": 5170,
      "1979": 5171,
      "тальян": 5172,
      "поста": 5173,
      "толи": 5174,
      "знача": 5175,
      "центра": 5176,
      "памят": 5177,
      "bl": 5178,
      "gl": 5179,
      "making": 5180,
      "пое": 5181,
      "стать": 5182,
      "Hen": 5183,
      "иг": 5184,
      "массо": 5185,
      "север": 5186,
      "жил": 5187,
      "хотя": 5188,
      "novel": 5189,
      "Des": 5190,
      "June": 5191,
      "host": 5192,
      "sw": 5193,
      "Ал": 5194,
      "очень": 5195,
      "гель": 5196,
      "hard": 5197,
      "Анд": 5198,
      "onso": 5199,
      "Александр": 5200,
      "ог": 5201,
      "ъе": 5202,
      "мифо": 5203,
      "imp": 5204,
      "count": 5205,
      "действия": 5206,
      "won": 5207,
      "lay": 5208,
      "1987": 5209,
      "ibr": 5210,
      "Battle": 5211,
      "mic": 5212,
      "oid": 5213,
      "дво": 5214,
      "пле": 5215,
      "Mc": 5216,
      "тому": 5217,
      "гом": 5218,
      "своих": 5219,
      "Spanish": 5220,
      "Федера": 5221,
      "Not": 5222,
      "south": 5223,
      "чный": 5224,
      "сона": 5225,
      "исклю": 5226,
      "computer": 5227,
      "ption": 5228,
      "attack": 5229,
      "стороны": 5230,
      "Catholic": 5231,
      "Res": 5232,
      "веще": 5233,
      "acid": 5234,
      "1930": 5235,
      "тического": 5236,
      "vot": 5237,
      "све": 5238,
      "вай": 5239,
      "пользова": 5240,
      "1972": 5241,
      "надле": 5242,
      "математи": 5243,
      "55": 5244,
      "bishop": 5245,
      "ense": 5246,
      "ief": 5247,
      "ification": 5248,
      "начало": 5249,
      "fri": 5250,
      "na": 5251,
      "некоторых": 5252,
      "писы": 5253,
      "ram": 5254,
      "Чер": 5255,
      "анта": 5256,
      "1976": 5257,
      "емые": 5258,
      "service": 5259,
      "successful": 5260,
      "История": 5261,
      "ino": 5262,
      "territ": 5263,
      "фици": 5264,
      "дорож": 5265,
      "Islam": 5266,
      "вшая": 5267,
      "неф": 5268,
      "consist": 5269,
      "November": 5270,
      "project": 5271,
      "1968": 5272,
      "женщи": 5273,
      "Ча": 5274,
      "лению": 5275,
      "нией": 5276,
      "море": 5277,
      "ква": 5278,
      "1981": 5279,
      "children": 5280,
      "recogn": 5281,
      "civil": 5282,
      "подоб": 5283,
      "рует": 5284,
      "lik": 5285,
      "игра": 5286,
      "tober": 5287,
      "road": 5288,
      "борь": 5289,
      "1975": 5290,
      "contin": 5291,
      "1967": 5292,
      "subject": 5293,
      "far": 5294,
      "кс": 5295,
      "казыва": 5296,
      "ющее": 5297,
      "демокра": 5298,
      "Pers": 5299,
      "house": 5300,
      "era": 5301,
      "ходят": 5302,
      "While": 5303,
      "October": 5304,
      "iment": 5305,
      "Vol": 5306,
      "further": 5307,
      "mach": 5308,
      "whe": 5309,
      "эпо": 5310,
      "ency": 5311,
      "сохран": 5312,
      "1971": 5313,
      "собра": 5314,
      "Раз": 5315,
      "всё": 5316,
      "бро": 5317,
      "умер": 5318,
      "чного": 5319,
      "затем": 5320,
      "любо": 5321,
      "board": 5322,
      "внеш": 5323,
      "court": 5324,
      "астро": 5325,
      "моря": 5326,
      "experi": 5327,
      "суль": 5328,
      "1974": 5329,
      "final": 5330,
      "Moon": 5331,
      "released": 5332,
      "поле": 5333,
      "пассажи": 5334,
      "never": 5335,
      "fall": 5336,
      "аб": 5337,
      "освобо": 5338,
      "одним": 5339,
      "Lin": 5340,
      "mal": 5341,
      "эф": 5342,
      "бога": 5343,
      "Te": 5344,
      "водо": 5345,
      "ctions": 5346,
      "accept": 5347,
      "ours": 5348,
      "менты": 5349,
      "ney": 5350,
      "людей": 5351,
      "lunar": 5352,
      "жден": 5353,
      "срав": 5354,
      "Украины": 5355,
      "49": 5356,
      "Кроме": 5357,
      "выми": 5358,
      "Afghan": 5359,
      "500": 5360,
      "взаимо": 5361,
      "ато": 5362,
      "гни": 5363,
      "нор": 5364,
      "применя": 5365,
      "1977": 5366,
      "official": 5367,
      "meaning": 5368,
      "ОО": 5369,
      "Mod": 5370,
      "gas": 5371,
      "тепло": 5372,
      "руется": 5373,
      "общи": 5374,
      "Chin": 5375,
      "ведение": 5376,
      "wide": 5377,
      "компози": 5378,
      "External": 5379,
      "Sou": 5380,
      "story": 5381,
      "1973": 5382,
      "личие": 5383,
      "фрон": 5384,
      "цена": 5385,
      "течение": 5386,
      "выпол": 5387,
      "определён": 5388,
      "значение": 5389,
      "1978": 5390,
      "европей": 5391,
      "list": 5392,
      "Среди": 5393,
      "две": 5394,
      "тика": 5395,
      "дипло": 5396,
      "adv": 5397,
      "силы": 5398,
      "idge": 5399,
      "current": 5400,
      "evolution": 5401,
      "зада": 5402,
      "мат": 5403,
      "State": 5404,
      "good": 5405,
      "определя": 5406,
      "energy": 5407,
      "популяр": 5408,
      "hom": 5409,
      "проводи": 5410,
      "resist": 5411,
      "кресть": 5412,
      "bs": 5413,
      "артист": 5414,
      "Пред": 5415,
      "asing": 5416,
      "профе": 5417,
      "1962": 5418,
      "Бело": 5419,
      "33": 5420,
      "Part": 5421,
      "дий": 5422,
      "Thom": 5423,
      "1939": 5424,
      "command": 5425,
      "interest": 5426,
      "Лит": 5427,
      "rica": 5428,
      "Ach": 5429,
      "Budd": 5430,
      "Пла": 5431,
      "тельного": 5432,
      "mother": 5433,
      "ябрь": 5434,
      "печа": 5435,
      "цами": 5436,
      "numbers": 5437,
      "designed": 5438,
      "AP": 5439,
      "fish": 5440,
      "принадле": 5441,
      "тельный": 5442,
      "1942": 5443,
      "surface": 5444,
      "фло": 5445,
      "seen": 5446,
      "concer": 5447,
      "express": 5448,
      "конструк": 5449,
      "поддерж": 5450,
      "1943": 5451,
      "образу": 5452,
      "Great": 5453,
      "ountain": 5454,
      "центр": 5455,
      "иностран": 5456,
      "68": 5457,
      "ances": 5458,
      "дераль": 5459,
      "учре": 5460,
      "ведён": 5461,
      "связан": 5462,
      "regard": 5463,
      "No": 5464,
      "Sm": 5465,
      "hip": 5466,
      "первой": 5467,
      "elements": 5468,
      "настоящее": 5469,
      "жений": 5470,
      "ваются": 5471,
      "дома": 5472,
      "avail": 5473,
      "food": 5474,
      "East": 5475,
      "mp": 5476,
      "вшей": 5477,
      "ounced": 5478,
      "religious": 5479,
      "Международ": 5480,
      "Cong": 5481,
      "Sal": 5482,
      "iers": 5483,
      "Гра": 5484,
      "Мен": 5485,
      "anth": 5486,
      "лена": 5487,
      "используется": 5488,
      "дон": 5489,
      "parts": 5490,
      "offer": 5491,
      "цин": 5492,
      "тый": 5493,
      "Под": 5494,
      "priv": 5495,
      "Прези": 5496,
      "церков": 5497,
      "ios": 5498,
      "1950": 5499,
      "Africa": 5500,
      "захва": 5501,
      "Mich": 5502,
      "1964": 5503,
      "ront": 5504,
      "CO": 5505,
      "doc": 5506,
      "тил": 5507,
      "права": 5508,
      "150": 5509,
      "generally": 5510,
      "происхо": 5511,
      "My": 5512,
      "ken": 5513,
      "wood": 5514,
      "1983": 5515,
      "прото": 5516,
      "продолжа": 5517,
      "Chinese": 5518,
      "Bel": 5519,
      "must": 5520,
      "AM": 5521,
      "решение": 5522,
      "ceed": 5523,
      "Москве": 5524,
      "next": 5525,
      "мл": 5526,
      "тря": 5527,
      "ката": 5528,
      "изобра": 5529,
      "ume": 5530,
      "конститу": 5531,
      "худож": 5532,
      "Many": 5533,
      "sec": 5534,
      "тельное": 5535,
      "ческими": 5536,
      "relation": 5537,
      "Press": 5538,
      "авиа": 5539,
      "colon": 5540,
      "итальян": 5541,
      "описа": 5542,
      "поверх": 5543,
      "дат": 5544,
      "comes": 5545,
      "auto": 5546,
      "thought": 5547,
      "многие": 5548,
      "различных": 5549,
      "особенно": 5550,
      "data": 5551,
      "rot": 5552,
      "areas": 5553,
      "скольку": 5554,
      "James": 5555,
      "Зе": 5556,
      "ements": 5557,
      "ops": 5558,
      "20th": 5559,
      "fort": 5560,
      "1966": 5561,
      "means": 5562,
      "теории": 5563,
      "Централь": 5564,
      "поля": 5565,
      "played": 5566,
      "многих": 5567,
      "ean": 5568,
      "Пар": 5569,
      "altern": 5570,
      "лой": 5571,
      "провозгла": 5572,
      "emit": 5573,
      "предприя": 5574,
      "veh": 5575,
      "Мари": 5576,
      "Москов": 5577,
      "ties": 5578,
      "возник": 5579,
      "1982": 5580,
      "special": 5581,
      "taken": 5582,
      "Калинин": 5583,
      "Western": 5584,
      "иль": 5585,
      "total": 5586,
      "бит": 5587,
      "будет": 5588,
      "City": 5589,
      "граф": 5590,
      "институ": 5591,
      "days": 5592,
      "Pri": 5593,
      "Гре": 5594,
      "оцен": 5595,
      "устрой": 5596,
      "таких": 5597,
      "сказа": 5598,
      "army": 5599,
      "Арм": 5600,
      "культуры": 5601,
      "employ": 5602,
      "complex": 5603,
      "went": 5604,
      "ФСР": 5605,
      "ull": 5606,
      "nel": 5607,
      "регу": 5608,
      "member": 5609,
      "техно": 5610,
      "TP": 5611,
      "rich": 5612,
      "лог": 5613,
      "ush": 5614,
      "ula": 5615,
      "compan": 5616,
      "upon": 5617,
      "aff": 5618,
      "1919": 5619,
      "метро": 5620,
      "44": 5621,
      "opt": 5622,
      "Россия": 5623,
      "немецкий": 5624,
      "George": 5625,
      "стало": 5626,
      "almost": 5627,
      "according": 5628,
      "служ": 5629,
      "General": 5630,
      "Mor": 5631,
      "Ze": 5632,
      "arg": 5633,
      "дин": 5634,
      "ensive": 5635,
      "треб": 5636,
      "пен": 5637,
      "успе": 5638,
      "находя": 5639,
      "свобод": 5640,
      "Spe": 5641,
      "середи": 5642,
      "тельности": 5643,
      "Lou": 5644,
      "blo": 5645,
      "iot": 5646,
      "Хар": 5647,
      "architect": 5648,
      "парламент": 5649,
      "ara": 5650,
      "ille": 5651,
      "слов": 5652,
      "princi": 5653,
      "Asia": 5654,
      "Charles": 5655,
      "футбо": 5656,
      "fail": 5657,
      "hib": 5658,
      "ique": 5659,
      "новых": 5660,
      "возра": 5661,
      "Aust": 5662,
      "партия": 5663,
      "style": 5664,
      "см": 5665,
      "реали": 5666,
      "доку": 5667,
      "ческую": 5668,
      "previous": 5669,
      "Великобритании": 5670,
      "Юж": 5671,
      "зон": 5672,
      "установлен": 5673,
      "сон": 5674,
      "1963": 5675,
      "evidence": 5676,
      "требо": 5677,
      "Academ": 5678,
      "осуществля": 5679,
      "стоит": 5680,
      "160": 5681,
      "enc": 5682,
      "обнару": 5683,
      "значения": 5684,
      "вле": 5685,
      "1900": 5686,
      "дово": 5687,
      "законо": 5688,
      "season": 5689,
      "throughout": 5690,
      "received": 5691,
      "помощью": 5692,
      "ровать": 5693,
      "99": 5694,
      "порт": 5695,
      "above": 5696,
      "Aristo": 5697,
      "indic": 5698,
      "aurus": 5699,
      "РСФСР": 5700,
      "daugh": 5701,
      "ностей": 5702,
      "позд": 5703,
      "такие": 5704,
      "177": 5705,
      "Americans": 5706,
      "млрд": 5707,
      "Miss": 5708,
      "эро": 5709,
      "реки": 5710,
      "1961": 5711,
      "nuc": 5712,
      "Мак": 5713,
      "нём": 5714,
      "циона": 5715,
      "umin": 5716,
      "rights": 5717,
      "обычно": 5718,
      "believed": 5719,
      "Mid": 5720,
      "ply": 5721,
      "крас": 5722,
      "мель": 5723,
      "лены": 5724,
      "ports": 5725,
      "русского": 5726,
      "представлен": 5727,
      "empor": 5728,
      "необходимо": 5729,
      "посред": 5730,
      "ата": 5731,
      "вместе": 5732,
      "ческом": 5733,
      "перед": 5734,
      "дри": 5735,
      "ened": 5736,
      "торов": 5737,
      "производи": 5738,
      "BN": 5739,
      "щую": 5740,
      "beh": 5741,
      "prop": 5742,
      "names": 5743,
      "береж": 5744,
      "Sam": 5745,
      "game": 5746,
      "sof": 5747,
      "хан": 5748,
      "ston": 5749,
      "сохрани": 5750,
      "украин": 5751,
      "journalist": 5752,
      "ola": 5753,
      "ought": 5754,
      "medi": 5755,
      "Robert": 5756,
      "очеред": 5757,
      "ll": 5758,
      "това": 5759,
      "prob": 5760,
      "экс": 5761,
      "вероят": 5762,
      "создан": 5763,
      "Вто": 5764,
      "Кана": 5765,
      "minist": 5766,
      "основан": 5767,
      "domin": 5768,
      "reported": 5769,
      "rate": 5770,
      "sel": 5771,
      "Бы": 5772,
      "экспе": 5773,
      "Эти": 5774,
      "ana": 5775,
      "реш": 5776,
      "round": 5777,
      "годаря": 5778,
      "перио": 5779,
      "SM": 5780,
      "ify": 5781,
      "respon": 5782,
      "composer": 5783,
      "Dem": 5784,
      "hor": 5785,
      "ats": 5786,
      "нас": 5787,
      "рыв": 5788,
      "туа": 5789,
      "teach": 5790,
      "higher": 5791,
      "capt": 5792,
      "вича": 5793,
      "sex": 5794,
      "правля": 5795,
      "culture": 5796,
      "approxim": 5797,
      "Амери": 5798,
      "Роди": 5799,
      "rag": 5800,
      "ounds": 5801,
      "философии": 5802,
      "From": 5803,
      "Pal": 5804,
      "oil": 5805,
      "tar": 5806,
      "inc": 5807,
      "веща": 5808,
      "отмеча": 5809,
      "condu": 5810,
      "рассматри": 5811,
      "Верхов": 5812,
      "начина": 5813,
      "Ter": 5814,
      "сия": 5815,
      "Amaz": 5816,
      "автор": 5817,
      "объедин": 5818,
      "использо": 5819,
      "комплек": 5820,
      "лл": 5821,
      "alge": 5822,
      "cret": 5823,
      "stitution": 5824,
      "тегория": 5825,
      "List": 5826,
      "nia": 5827,
      "лон": 5828,
      "дор": 5829,
      "чеб": 5830,
      "Совета": 5831,
      "ulture": 5832,
      "льное": 5833,
      "поэт": 5834,
      "Ссылки": 5835,
      "отсут": 5836,
      "жей": 5837,
      "муж": 5838,
      "1965": 5839,
      "общества": 5840,
      "относя": 5841,
      "Adrian": 5842,
      "gave": 5843,
      "sat": 5844,
      "ink": 5845,
      "маши": 5846,
      "terms": 5847,
      "характери": 5848,
      "available": 5849,
      "Black": 5850,
      "pite": 5851,
      "япон": 5852,
      "roy": 5853,
      "гидро": 5854,
      "ipp": 5855,
      "оконча": 5856,
      "нодорож": 5857,
      "лам": 5858,
      "utes": 5859,
      "followed": 5860,
      "Ca": 5861,
      "Хо": 5862,
      "иму": 5863,
      "ioned": 5864,
      "Воро": 5865,
      "full": 5866,
      "located": 5867,
      "указа": 5868,
      "запре": 5869,
      "Воз": 5870,
      "Владимир": 5871,
      "economic": 5872,
      "мах": 5873,
      "estim": 5874,
      "H2": 5875,
      "Pre": 5876,
      "lost": 5877,
      "развитие": 5878,
      "temper": 5879,
      "profess": 5880,
      "Feb": 5881,
      "ka": 5882,
      "вались": 5883,
      "Trans": 5884,
      "19th": 5885,
      "депута": 5886,
      "доне": 5887,
      "compet": 5888,
      "television": 5889,
      "Fir": 5890,
      "Mass": 5891,
      "стар": 5892,
      "acqu": 5893,
      "contribut": 5894,
      "получил": 5895,
      "standard": 5896,
      "руковод": 5897,
      "симво": 5898,
      "cast": 5899,
      "orbit": 5900,
      "race": 5901,
      "назва": 5902,
      "матические": 5903,
      "завер": 5904,
      "apt": 5905,
      "Пере": 5906,
      "tail": 5907,
      "седа": 5908,
      "ria": 5909,
      "связа": 5910,
      "surv": 5911,
      "India": 5912,
      "ISBN": 5913,
      "бю": 5914,
      "рис": 5915,
      "omb": 5916,
      "viron": 5917,
      "67": 5918,
      "диви": 5919,
      "uments": 5920,
      "suf": 5921,
      "инду": 5922,
      "расши": 5923,
      "никами": 5924,
      "carri": 5925,
      "двига": 5926,
      "районе": 5927,
      "вшиеся": 5928,
      "Лон": 5929,
      "имено": 5930,
      "85": 5931,
      "aver": 5932,
      "тики": 5933,
      "тельство": 5934,
      "фек": 5935,
      "critic": 5936,
      "instead": 5937,
      "toge": 5938,
      "ago": 5939,
      "writing": 5940,
      "согласно": 5941,
      "River": 5942,
      "mak": 5943,
      "arily": 5944,
      "ССР": 5945,
      "организации": 5946,
      "французский": 5947,
      "gian": 5948,
      "hab": 5949,
      "избира": 5950,
      "одного": 5951,
      "1938": 5952,
      "efore": 5953,
      "grad": 5954,
      "market": 5955,
      "генерал": 5956,
      "щей": 5957,
      "государственный": 5958,
      "президента": 5959,
      "Rich": 5960,
      "Азербай": 5961,
      "alpha": 5962,
      "перво": 5963,
      "1946": 5964,
      "область": 5965,
      "движение": 5966,
      "Peter": 5967,
      "star": 5968,
      "access": 5969,
      "ships": 5970,
      "itself": 5971,
      "полностью": 5972,
      "coln": 5973,
      "Lincoln": 5974,
      "together": 5975,
      "aign": 5976,
      "ева": 5977,
      "некоторые": 5978,
      "деле": 5979,
      "iles": 5980,
      "войск": 5981,
      "1947": 5982,
      "музыка": 5983,
      "find": 5984,
      "йская": 5985,
      "тет": 5986,
      "типа": 5987,
      "concept": 5988,
      "symb": 5989,
      "государство": 5990,
      "ST": 5991,
      "ben": 5992,
      "frequ": 5993,
      "взя": 5994,
      "управления": 5995,
      "фра": 5996,
      "ныне": 5997,
      "кин": 5998,
      "плане": 5999,
      "distin": 6000,
      "ООН": 6001,
      "fire": 6002,
      "тые": 6003,
      "данных": 6004,
      "1922": 6005,
      "емый": 6006,
      "рю": 6007,
      "iter": 6008,
      "aper": 6009,
      "rought": 6010,
      "Нью": 6011,
      "гна": 6012,
      "смотря": 6013,
      "help": 6014,
      "ek": 6015,
      "мед": 6016,
      "except": 6017,
      "central": 6018,
      "спект": 6019,
      "43": 6020,
      "Qu": 6021,
      "bran": 6022,
      "icles": 6023,
      "entire": 6024,
      "anted": 6025,
      "active": 6026,
      "Jews": 6027,
      "Du": 6028,
      "Most": 6029,
      "San": 6030,
      "hon": 6031,
      "наро": 6032,
      "риаль": 6033,
      "relat": 6034,
      "XVIII": 6035,
      "stitute": 6036,
      "площади": 6037,
      "Ir": 6038,
      "Гор": 6039,
      "ственное": 6040,
      "ysis": 6041,
      "смерти": 6042,
      "2023": 6043,
      "igu": 6044,
      "ateg": 6045,
      "земли": 6046,
      "ступил": 6047,
      "killed": 6048,
      "интере": 6049,
      "best": 6050,
      "fav": 6051,
      "Ана": 6052,
      "ape": 6053,
      "треть": 6054,
      "introduced": 6055,
      "Febru": 6056,
      "cit": 6057,
      "spo": 6058,
      "utions": 6059,
      "мена": 6060,
      "across": 6061,
      "Солн": 6062,
      "Испа": 6063,
      "traditional": 6064,
      "административ": 6065,
      "шем": 6066,
      "дами": 6067,
      "aint": 6068,
      "ённых": 6069,
      "president": 6070,
      "numer": 6071,
      "February": 6072,
      "whose": 6073,
      "наук": 6074,
      "Gro": 6075,
      "ссы": 6076,
      "стол": 6077,
      "1928": 6078,
      "систем": 6079,
      "astronom": 6080,
      "Союза": 6081,
      "broad": 6082,
      "промышленности": 6083,
      "viol": 6084,
      "66": 6085,
      "science": 6086,
      "кса": 6087,
      "сбор": 6088,
      "протя": 6089,
      "гие": 6090,
      "городов": 6091,
      "княже": 6092,
      "имуще": 6093,
      "international": 6094,
      "сокра": 6095,
      "ilities": 6096,
      "books": 6097,
      "достаточ": 6098,
      "Del": 6099,
      "VI": 6100,
      "тный": 6101,
      "уре": 6102,
      "тона": 6103,
      "кими": 6104,
      "видов": 6105,
      "проте": 6106,
      "coming": 6107,
      "Как": 6108,
      "diffic": 6109,
      "Виль": 6110,
      "Италии": 6111,
      "algebra": 6112,
      "ael": 6113,
      "mis": 6114,
      "поте": 6115,
      "influence": 6116,
      "ябре": 6117,
      "42": 6118,
      "ket": 6119,
      "tax": 6120,
      "ving": 6121,
      "ново": 6122,
      "чай": 6123,
      "премии": 6124,
      "щего": 6125,
      "pread": 6126,
      "cost": 6127,
      "ландии": 6128,
      "Armenia": 6129,
      "associated": 6130,
      "наблюда": 6131,
      "Федерации": 6132,
      "Мин": 6133,
      "China": 6134,
      "равно": 6135,
      "Henry": 6136,
      "Go": 6137,
      "ias": 6138,
      "оны": 6139,
      "ними": 6140,
      "лью": 6141,
      "лах": 6142,
      "финан": 6143,
      "восста": 6144,
      "value": 6145,
      "baseball": 6146,
      "If": 6147,
      "Его": 6148,
      "бре": 6149,
      "ект": 6150,
      "ington": 6151,
      "возможно": 6152,
      "Paris": 6153,
      "Kingdom": 6154,
      "ators": 6155,
      "лод": 6156,
      "ственным": 6157,
      "Army": 6158,
      "tware": 6159,
      "ns": 6160,
      "Бар": 6161,
      "ico": 6162,
      "вица": 6163,
      "ственная": 6164,
      "цов": 6165,
      "establish": 6166,
      "birth": 6167,
      "41": 6168,
      "рек": 6169,
      "рим": 6170,
      "зали": 6171,
      "прекра": 6172,
      "away": 6173,
      "станции": 6174,
      "invest": 6175,
      "lawyer": 6176,
      "Gre": 6177,
      "ност": 6178,
      "последова": 6179,
      "1936": 6180,
      "Assy": 6181,
      "clear": 6182,
      "встреча": 6183,
      "Финлян": 6184,
      "difficult": 6185,
      "Mal": 6186,
      "имя": 6187,
      "лёт": 6188,
      "amb": 6189,
      "rap": 6190,
      "жителей": 6191,
      "Категория": 6192,
      "телями": 6193,
      "Конститу": 6194,
      "consider": 6195,
      "anarch": 6196,
      "реаль": 6197,
      "пора": 6198,
      "тельная": 6199,
      "disc": 6200,
      "несколь": 6201,
      "dou": 6202,
      "дел": 6203,
      "1924": 6204,
      "художе": 6205,
      "orith": 6206,
      "lected": 6207,
      "разу": 6208,
      "сцена": 6209,
      "photo": 6210,
      "coach": 6211,
      "referred": 6212,
      "title": 6213,
      "ey": 6214,
      "сдела": 6215,
      "recent": 6216,
      "рель": 6217,
      "поме": 6218,
      "понима": 6219,
      "полно": 6220,
      "состоянию": 6221,
      "Canada": 6222,
      "циалисти": 6223,
      "Athens": 6224,
      "bot": 6225,
      "най": 6226,
      "гар": 6227,
      "мых": 6228,
      "1958": 6229,
      "Soci": 6230,
      "Thomas": 6231,
      "might": 6232,
      "динами": 6233,
      "психо": 6234,
      "First": 6235,
      "95": 6236,
      "script": 6237,
      "size": 6238,
      "провин": 6239,
      "ант": 6240,
      "coast": 6241,
      "Since": 6242,
      "ault": 6243,
      "dial": 6244,
      "ij": 6245,
      "Лей": 6246,
      "жё": 6247,
      "озе": 6248,
      "опубли": 6249,
      "сторон": 6250,
      "observ": 6251,
      "учения": 6252,
      "чная": 6253,
      "космо": 6254,
      "вало": 6255,
      "мало": 6256,
      "sea": 6257,
      "respect": 6258,
      "1948": 6259,
      "района": 6260,
      "Cour": 6261,
      "пост": 6262,
      "всей": 6263,
      "Вол": 6264,
      "construction": 6265,
      "House": 6266,
      "Хи": 6267,
      "ниц": 6268,
      "ropol": 6269,
      "1937": 6270,
      "русской": 6271,
      "ап": 6272,
      "sure": 6273,
      "пуска": 6274,
      "remained": 6275,
      "discovered": 6276,
      "jud": 6277,
      "вооружён": 6278,
      "osp": 6279,
      "1926": 6280,
      "анали": 6281,
      "nic": 6282,
      "Им": 6283,
      "катери": 6284,
      "дам": 6285,
      "white": 6286,
      "рование": 6287,
      "ideo": 6288,
      "1921": 6289,
      "1929": 6290,
      "returned": 6291,
      "300": 6292,
      "AI": 6293,
      "vow": 6294,
      "stre": 6295,
      "ider": 6296,
      "отра": 6297,
      "source": 6298,
      "бар": 6299,
      "тные": 6300,
      "тию": 6301,
      "actions": 6302,
      "1949": 6303,
      "meet": 6304,
      "составе": 6305,
      "speak": 6306,
      "Mag": 6307,
      "вала": 6308,
      "ваться": 6309,
      "спорт": 6310,
      "Cont": 6311,
      "Congress": 6312,
      "сет": 6313,
      "сек": 6314,
      "assist": 6315,
      "astronaut": 6316,
      "gin": 6317,
      "hus": 6318,
      "mig": 6319,
      "Если": 6320,
      "сфер": 6321,
      "твёр": 6322,
      "ount": 6323,
      "ASA": 6324,
      "cases": 6325,
      "Ген": 6326,
      "тю": 6327,
      "inf": 6328,
      "посвя": 6329,
      "доль": 6330,
      "Петербур": 6331,
      "wife": 6332,
      "Тур": 6333,
      "rain": 6334,
      "пала": 6335,
      "party": 6336,
      "фави": 6337,
      "стандар": 6338,
      "Пушки": 6339,
      "individual": 6340,
      "ibrary": 6341,
      "Govern": 6342,
      "bell": 6343,
      "ech": 6344,
      "ades": 6345,
      "Коро": 6346,
      "Sea": 6347,
      "автомоби": 6348,
      "knowled": 6349,
      "уз": 6350,
      "icine": 6351,
      "сили": 6352,
      "главе": 6353,
      "allowed": 6354,
      "ert": 6355,
      "quar": 6356,
      "близ": 6357,
      "provided": 6358,
      "Royal": 6359,
      "approach": 6360,
      "Екатери": 6361,
      "фли": 6362,
      "места": 6363,
      "tained": 6364,
      "Лат": 6365,
      "дня": 6366,
      "жды": 6367,
      "тить": 6368,
      "примен": 6369,
      "зом": 6370,
      "церкви": 6371,
      "58": 6372,
      "bum": 6373,
      "мнению": 6374,
      "себе": 6375,
      "1925": 6376,
      "положение": 6377,
      "говори": 6378,
      "герман": 6379,
      "electron": 6380,
      "Scottish": 6381,
      "Civil": 6382,
      "торы": 6383,
      "ention": 6384,
      "1933": 6385,
      "другой": 6386,
      "Im": 6387,
      "nature": 6388,
      "ёв": 6389,
      "вался": 6390,
      "мян": 6391,
      "слож": 6392,
      "действие": 6393,
      "likely": 6394,
      "Val": 6395,
      "pal": 6396,
      "Аб": 6397,
      "управ": 6398,
      "1914": 6399,
      "plied": 6400,
      "Ark": 6401,
      "particularly": 6402,
      "daughter": 6403,
      "Rome": 6404,
      "Эсто": 6405,
      "вли": 6406,
      "оп": 6407,
      "atory": 6408,
      "чество": 6409,
      "тельства": 6410,
      "библи": 6411,
      "возвра": 6412,
      "существо": 6413,
      "исследования": 6414,
      "включая": 6415,
      "Земли": 6416,
      "Cali": 6417,
      "farm": 6418,
      "новой": 6419,
      "reason": 6420,
      "реак": 6421,
      "anda": 6422,
      "рина": 6423,
      "сибир": 6424,
      "федераль": 6425,
      "structure": 6426,
      "Alfred": 6427,
      "тот": 6428,
      "тором": 6429,
      "rock": 6430,
      "зопас": 6431,
      "своё": 6432,
      "campaign": 6433,
      "Academy": 6434,
      "Bur": 6435,
      "gress": 6436,
      "хоро": 6437,
      "stry": 6438,
      "население": 6439,
      "ems": 6440,
      "Народ": 6441,
      "interpre": 6442,
      "1905": 6443,
      "существует": 6444,
      "группа": 6445,
      "specific": 6446,
      "метров": 6447,
      "благо": 6448,
      "cat": 6449,
      "оно": 6450,
      "information": 6451,
      "которым": 6452,
      "ologist": 6453,
      "клопе": 6454,
      "Minister": 6455,
      "east": 6456,
      "ятся": 6457,
      "Киев": 6458,
      "once": 6459,
      "сок": 6460,
      "зия": 6461,
      "Поли": 6462,
      "1956": 6463,
      "представ": 6464,
      "Histor": 6465,
      "claimed": 6466,
      "features": 6467,
      "Mer": 6468,
      "Sol": 6469,
      "brought": 6470,
      "дю": 6471,
      "двор": 6472,
      "уго": 6473,
      "inte": 6474,
      "dev": 6475,
      "лых": 6476,
      "Germany": 6477,
      "engineer": 6478,
      "Глав": 6479,
      "Smith": 6480,
      "site": 6481,
      "170": 6482,
      "бук": 6483,
      "фильм": 6484,
      "Jer": 6485,
      "Mex": 6486,
      "foc": 6487,
      "western": 6488,
      "тного": 6489,
      "причи": 6490,
      "ows": 6491,
      "буд": 6492,
      "events": 6493,
      "1957": 6494,
      "положи": 6495,
      "regular": 6496,
      "ordin": 6497,
      "Louis": 6498,
      "46": 6499,
      "Further": 6500,
      "cities": 6501,
      "гро": 6502,
      "тили": 6503,
      "магни": 6504,
      "plement": 6505,
      "married": 6506,
      "нциклопе": 6507,
      "Fil": 6508,
      "избран": 6509,
      "ерт": 6510,
      "exec": 6511,
      "School": 6512,
      "leader": 6513,
      "movement": 6514,
      "школы": 6515,
      "прожи": 6516,
      "бое": 6517,
      "музе": 6518,
      "стью": 6519,
      "acters": 6520,
      "централь": 6521,
      "последствии": 6522,
      "назначен": 6523,
      "ging": 6524,
      "mad": 6525,
      "ранее": 6526,
      "рождения": 6527,
      "долла": 6528,
      "commer": 6529,
      "letter": 6530,
      "Mic": 6531,
      "Эр": 6532,
      "1959": 6533,
      "Вене": 6534,
      "сной": 6535,
      "певица": 6536,
      "achie": 6537,
      "ствия": 6538,
      "происходит": 6539,
      "Дру": 6540,
      "Оте": 6541,
      "джи": 6542,
      "соци": 6543,
      "микро": 6544,
      "газ": 6545,
      "quant": 6546,
      "форм": 6547,
      "искусства": 6548,
      "vironment": 6549,
      "Kh": 6550,
      "Museum": 6551,
      "гну": 6552,
      "хва": 6553,
      "leading": 6554,
      "Anglican": 6555,
      "возможность": 6556,
      "Arg": 6557,
      "крити": 6558,
      "производства": 6559,
      "традицион": 6560,
      "Ломоно": 6561,
      "fight": 6562,
      "ands": 6563,
      "uries": 6564,
      "antib": 6565,
      "necess": 6566,
      "Ann": 6567,
      "общей": 6568,
      "burg": 6569,
      "Kar": 6570,
      "Sim": 6571,
      "гг": 6572,
      "суд": 6573,
      "торго": 6574,
      "Петербург": 6575,
      "LU": 6576,
      "тни": 6577,
      "tom": 6578,
      "rod": 6579,
      "health": 6580,
      "imate": 6581,
      "бал": 6582,
      "trade": 6583,
      "располага": 6584,
      "географи": 6585,
      "государств": 6586,
      "алфави": 6587,
      "feature": 6588,
      "российская": 6589,
      "Austin": 6590,
      "fem": 6591,
      "евич": 6592,
      "bey": 6593,
      "phen": 6594,
      "brother": 6595,
      "круг": 6596,
      "большой": 6597,
      "Don": 6598,
      "Дон": 6599,
      "icy": 6600,
      "модель": 6601,
      "отлича": 6602,
      "перевод": 6603,
      "People": 6604,
      "Jewish": 6605,
      "Петро": 6606,
      "большинство": 6607,
      "министр": 6608,
      "есте": 6609,
      "Book": 6610,
      "eventually": 6611,
      "FC": 6612,
      "Ot": 6613,
      "mix": 6614,
      "osph": 6615,
      "education": 6616,
      "обеспечи": 6617,
      "ллей": 6618,
      "island": 6619,
      "духов": 6620,
      "гани": 6621,
      "abs": 6622,
      "appoint": 6623,
      "writers": 6624,
      "образование": 6625,
      "король": 6626,
      "самых": 6627,
      "close": 6628,
      "88": 6629,
      "uk": 6630,
      "рую": 6631,
      "выступа": 6632,
      "1923": 6633,
      "TV": 6634,
      "вёл": 6635,
      "рост": 6636,
      "тирова": 6637,
      "маги": 6638,
      "мощ": 6639,
      "required": 6640,
      "High": 6641,
      "Tw": 6642,
      "поэтому": 6643,
      "вело": 6644,
      "объяви": 6645,
      "ready": 6646,
      "51": 6647,
      "54": 6648,
      "night": 6649,
      "Шве": 6650,
      "яр": 6651,
      "print": 6652,
      "Болга": 6653,
      "влияние": 6654,
      "юго": 6655,
      "тина": 6656,
      "северо": 6657,
      "tru": 6658,
      "революции": 6659,
      "речи": 6660,
      "поскольку": 6661,
      "ulated": 6662,
      "labor": 6663,
      "manager": 6664,
      "LM": 6665,
      "cel": 6666,
      "front": 6667,
      "Тем": 6668,
      "зву": 6669,
      "здесь": 6670,
      "сова": 6671,
      "руб": 6672,
      "выз": 6673,
      "верну": 6674,
      "спор": 6675,
      "1934": 6676,
      "young": 6677,
      "Court": 6678,
      "57": 6679,
      "leng": 6680,
      "гля": 6681,
      "свет": 6682,
      "prison": 6683,
      "фин": 6684,
      "первая": 6685,
      "affect": 6686,
      "партий": 6687,
      "креп": 6688,
      "leaders": 6689,
      "метал": 6690,
      "Swed": 6691,
      "62": 6692,
      "КП": 6693,
      "caused": 6694,
      "Johnson": 6695,
      "Большо": 6696,
      "algorith": 6697,
      "sil": 6698,
      "лова": 6699,
      "зация": 6700,
      "aged": 6701,
      "ряда": 6702,
      "жены": 6703,
      "provide": 6704,
      "книги": 6705,
      "науки": 6706,
      "community": 6707,
      "Японии": 6708,
      "ллейбу": 6709,
      "gain": 6710,
      "Ом": 6711,
      "whom": 6712,
      "мые": 6713,
      "Republic": 6714,
      "communic": 6715,
      "Австра": 6716,
      "defined": 6717,
      "ACLU": 6718,
      "Вороне": 6719,
      "sound": 6720,
      "аэро": 6721,
      "ibility": 6722,
      "1954": 6723,
      "примерно": 6724,
      "sources": 6725,
      "symbol": 6726,
      "CP": 6727,
      "Eastern": 6728,
      "sit": 6729,
      "Бри": 6730,
      "гей": 6731,
      "зрения": 6732,
      "нат": 6733,
      "assemb": 6734,
      "лег": 6735,
      "uture": 6736,
      "знания": 6737,
      "includes": 6738,
      "standing": 6739,
      "деятельности": 6740,
      "свойства": 6741,
      "occup": 6742,
      "ole": 6743,
      "исти": 6744,
      "вок": 6745,
      "sett": 6746,
      "Досто": 6747,
      "точки": 6748,
      "rown": 6749,
      "little": 6750,
      "arent": 6751,
      "living": 6752,
      "ym": 6753,
      "Мон": 6754,
      "одна": 6755,
      "personal": 6756,
      "chemical": 6757,
      "косми": 6758,
      "Второй": 6759,
      "nation": 6760,
      "scal": 6761,
      "завод": 6762,
      "ela": 6763,
      "севе": 6764,
      "emer": 6765,
      "гео": 6766,
      "1935": 6767,
      "городской": 6768,
      "Нидер": 6769,
      "characters": 6770,
      "instit": 6771,
      "Pl": 6772,
      "дерев": 6773,
      "determin": 6774,
      "первым": 6775,
      "жена": 6776,
      "Рас": 6777,
      "historian": 6778,
      "Society": 6779,
      "NASA": 6780,
      "reme": 6781,
      "stage": 6782,
      "тельность": 6783,
      "commonly": 6784,
      "thesis": 6785,
      "Mart": 6786,
      "ВВ": 6787,
      "рабочи": 6788,
      "компании": 6789,
      "philosoph": 6790,
      "Su": 6791,
      "dict": 6792,
      "ires": 6793,
      "lif": 6794,
      "лина": 6795,
      "мера": 6796,
      "сети": 6797,
      "super": 6798,
      "новремен": 6799,
      "Anton": 6800,
      "гене": 6801,
      "added": 6802,
      "композитор": 6803,
      "don": 6804,
      "Кор": 6805,
      "первых": 6806,
      "Пари": 6807,
      "variety": 6808,
      "whether": 6809,
      "Old": 6810,
      "жан": 6811,
      "сотруд": 6812,
      "cele": 6813,
      "produce": 6814,
      "Reg": 6815,
      "Michael": 6816,
      "лето": 6817,
      "лый": 6818,
      "1952": 6819,
      "обяза": 6820,
      "AR": 6821,
      "itor": 6822,
      "разработ": 6823,
      "elling": 6824,
      "Тер": 6825,
      "Ше": 6826,
      "учеб": 6827,
      "antine": 6828,
      "oney": 6829,
      "1955": 6830,
      "spect": 6831,
      "Древ": 6832,
      "Твер": 6833,
      "Юго": 6834,
      "flict": 6835,
      "remains": 6836,
      "increasing": 6837,
      "Middle": 6838,
      "56": 6839,
      "live": 6840,
      "ид": 6841,
      "iting": 6842,
      "omin": 6843,
      "кую": 6844,
      "музей": 6845,
      "element": 6846,
      "Нов": 6847,
      "Confeder": 6848,
      "appeared": 6849,
      "Byz": 6850,
      "литератур": 6851,
      "typically": 6852,
      "revol": 6853,
      "тогда": 6854,
      "itar": 6855,
      "legal": 6856,
      "Armenian": 6857,
      "Bell": 6858,
      "Пор": 6859,
      "ьер": 6860,
      "дование": 6861,
      "бом": 6862,
      "гам": 6863,
      "испол": 6864,
      "northern": 6865,
      "Russia": 6866,
      "Early": 6867,
      "память": 6868,
      "analysis": 6869,
      "album": 6870,
      "доба": 6871,
      "момент": 6872,
      "гия": 6873,
      "software": 6874,
      "fle": 6875,
      "шру": 6876,
      "циях": 6877,
      "относительно": 6878,
      "types": 6879,
      "Met": 6880,
      "iqu": 6881,
      "uals": 6882,
      "долго": 6883,
      "област": 6884,
      "Britain": 6885,
      "historical": 6886,
      "английский": 6887,
      "gar": 6888,
      "squ": 6889,
      "католи": 6890,
      "tour": 6891,
      "mostly": 6892,
      "1901": 6893,
      "reading": 6894,
      "southern": 6895,
      "ded": 6896,
      "пове": 6897,
      "1913": 6898,
      "urder": 6899,
      "читы": 6900,
      "percent": 6901,
      "prevent": 6902,
      "philosophy": 6903,
      "AB": 6904,
      "Cr": 6905,
      "Cy": 6906,
      "battle": 6907,
      "past": 6908,
      "воде": 6909,
      "мере": 6910,
      "applic": 6911,
      "larger": 6912,
      "Англи": 6913,
      "железнодорож": 6914,
      "представляет": 6915,
      "started": 6916,
      "earlier": 6917,
      "1000": 6918,
      "смы": 6919,
      "ays": 6920,
      "1953": 6921,
      "respons": 6922,
      "упомина": 6923,
      "дней": 6924,
      "коле": 6925,
      "lege": 6926,
      "concl": 6927,
      "ulf": 6928,
      "outside": 6929,
      "край": 6930,
      "1932": 6931,
      "1927": 6932,
      "increased": 6933,
      "явления": 6934,
      "транспорта": 6935,
      "System": 6936,
      "dialect": 6937,
      "63": 6938,
      "Lab": 6939,
      "NA": 6940,
      "Nob": 6941,
      "black": 6942,
      "Ман": 6943,
      "тана": 6944,
      "вия": 6945,
      "рубе": 6946,
      "лях": 6947,
      "гим": 6948,
      "plant": 6949,
      "working": 6950,
      "laws": 6951,
      "private": 6952,
      "fund": 6953,
      "Аристо": 6954,
      "счёт": 6955,
      "новые": 6956,
      "коль": 6957,
      "lobal": 6958,
      "marri": 6959,
      "системе": 6960,
      "limited": 6961,
      "growth": 6962,
      "дальней": 6963,
      "98": 6964,
      "rict": 6965,
      "Ша": 6966,
      "стом": 6967,
      "пути": 6968,
      "club": 6969,
      "Alban": 6970,
      "pose": 6971,
      "products": 6972,
      "Revolution": 6973,
      "Wash": 6974,
      "увеличи": 6975,
      "раба": 6976,
      "oud": 6977,
      "ental": 6978,
      "seven": 6979,
      "umb": 6980,
      "куп": 6981,
      "Institute": 6982,
      "ющими": 6983,
      "Commun": 6984,
      "travel": 6985,
      "принял": 6986,
      "серве": 6987,
      "scientific": 6988,
      "widely": 6989,
      "Nav": 6990,
      "enic": 6991,
      "Мол": 6992,
      "letters": 6993,
      "широко": 6994,
      "еже": 6995,
      "поро": 6996,
      "iding": 6997,
      "ously": 6998,
      "dise": 6999,
      "cycl": 7000,
      "версии": 7001,
      "дипломатические": 7002,
      "Эй": 7003,
      "валось": 7004,
      "concent": 7005,
      "effects": 7006,
      "крестьян": 7007,
      "Richard": 7008,
      "fa": 7009,
      "step": 7010,
      "тиру": 7011,
      "разру": 7012,
      "mechan": 7013,
      "subsequ": 7014,
      "sky": 7015,
      "sterdam": 7016,
      "энергии": 7017,
      "Of": 7018,
      "нда": 7019,
      "1910": 7020,
      "Нача": 7021,
      "Ba": 7022,
      "ois": 7023,
      "video": 7024,
      "asion": 7025,
      "too": 7026,
      "состоит": 7027,
      "deb": 7028,
      "университет": 7029,
      "Aar": 7030,
      "Dan": 7031,
      "Sun": 7032,
      "Vir": 7033,
      "pet": 7034,
      "Кре": 7035,
      "дороги": 7036,
      "radio": 7037,
      "97": 7038,
      "gold": 7039,
      "vert": 7040,
      "teen": 7041,
      "священ": 7042,
      "electr": 7043,
      "supported": 7044,
      "industry": 7045,
      "Atlantic": 7046,
      "Dis": 7047,
      "iation": 7048,
      "клу": 7049,
      "always": 7050,
      "тол": 7051,
      "честь": 7052,
      "превра": 7053,
      "туга": 7054,
      "Amsterdam": 7055,
      "ждений": 7056,
      "announced": 7057,
      "жизнь": 7058,
      "Class": 7059,
      "Aber": 7060,
      "cks": 7061,
      "via": 7062,
      "линии": 7063,
      "валь": 7064,
      "бой": 7065,
      "ulpt": 7066,
      "графии": 7067,
      "Park": 7068,
      "sculpt": 7069,
      "physical": 7070,
      "Харь": 7071,
      "очередь": 7072,
      "ror": 7073,
      "вез": 7074,
      "вец": 7075,
      "expla": 7076,
      "шед": 7077,
      "1931": 7078,
      "единя": 7079,
      "metal": 7080,
      "материа": 7081,
      "механи": 7082,
      "Afghanistan": 7083,
      "Wil": 7084,
      "stated": 7085,
      "тельным": 7086,
      "XVI": 7087,
      "Aph": 7088,
      "Mos": 7089,
      "lived": 7090,
      "рица": 7091,
      "оби": 7092,
      "imal": 7093,
      "decl": 7094,
      "конфли": 7095,
      "months": 7096,
      "именно": 7097,
      "Николай": 7098,
      "Aj": 7099,
      "Jul": 7100,
      "games": 7101,
      "edition": 7102,
      "поряд": 7103,
      "ingu": 7104,
      "лок": 7105,
      "разных": 7106,
      "первого": 7107,
      "жением": 7108,
      "transport": 7109,
      "famil": 7110,
      "древне": 7111,
      "рамках": 7112,
      "troops": 7113,
      "52": 7114,
      "cis": 7115,
      "flo": 7116,
      "fell": 7117,
      "nd": 7118,
      "ресу": 7119,
      "скоре": 7120,
      "числа": 7121,
      "орден": 7122,
      "Наиболее": 7123,
      "astro": 7124,
      "counter": 7125,
      "XVII": 7126,
      "Джон": 7127,
      "probably": 7128,
      "average": 7129,
      "Califor": 7130,
      "гри": 7131,
      "света": 7132,
      "towards": 7133,
      "жела": 7134,
      "поддержи": 7135,
      "Калининград": 7136,
      "celebr": 7137,
      "Cal": 7138,
      "Di": 7139,
      "порта": 7140,
      "льным": 7141,
      "adop": 7142,
      "благодаря": 7143,
      "становится": 7144,
      "монасты": 7145,
      "ufact": 7146,
      "Фа": 7147,
      "тной": 7148,
      "эй": 7149,
      "нар": 7150,
      "тически": 7151,
      "enter": 7152,
      "заме": 7153,
      "следова": 7154,
      "Arama": 7155,
      "vey": 7156,
      "Philosop": 7157,
      "Alberta": 7158,
      "Ben": 7159,
      "gun": 7160,
      "штей": 7161,
      "реда": 7162,
      "ultural": 7163,
      "Islamic": 7164,
      "eda": 7165,
      "побереж": 7166,
      "веков": 7167,
      "account": 7168,
      "троллейбу": 7169,
      "conditions": 7170,
      "majority": 7171,
      "draw": 7172,
      "emporary": 7173,
      "Washington": 7174,
      "Aramaic": 7175,
      "53": 7176,
      "But": 7177,
      "Tex": 7178,
      "тки": 7179,
      "сан": 7180,
      "туаль": 7181,
      "русских": 7182,
      "Jose": 7183,
      "маршру": 7184,
      "солне": 7185,
      "billion": 7186,
      "eas": 7187,
      "фанта": 7188,
      "вил": 7189,
      "code": 7190,
      "уровня": 7191,
      "синте": 7192,
      "президентом": 7193,
      "latter": 7194,
      "aring": 7195,
      "cture": 7196,
      "aps": 7197,
      "derived": 7198,
      "ored": 7199,
      "труда": 7200,
      "problem": 7201,
      "friend": 7202,
      "сценарист": 7203,
      "гран": 7204,
      "1912": 7205,
      "лем": 7206,
      "usion": 7207,
      "rael": 7208,
      "ference": 7209,
      "собствен": 7210,
      "ционной": 7211,
      "емой": 7212,
      "problems": 7213,
      "Muslim": 7214,
      "Turk": 7215,
      "California": 7216,
      "тисти": 7217,
      "Новосибир": 7218,
      "Aristotle": 7219,
      "нескольких": 7220,
      "новременно": 7221,
      "спут": 7222,
      "реши": 7223,
      "отказа": 7224,
      "guitar": 7225,
      "другими": 7226,
      "1906": 7227,
      "ющихся": 7228,
      "округа": 7229,
      "Северной": 7230,
      "complete": 7231,
      "NS": 7232,
      "tel": 7233,
      "щении": 7234,
      "atch": 7235,
      "доступ": 7236,
      "antis": 7237,
      "пересе": 7238,
      "corpor": 7239,
      "военно": 7240,
      "Andrew": 7241,
      "помощи": 7242,
      "степени": 7243,
      "Southern": 7244,
      "96": 7245,
      "Hel": 7246,
      "Sup": 7247,
      "river": 7248,
      "мана": 7249,
      "мани": 7250,
      "Its": 7251,
      "issue": 7252,
      "Балтий": 7253,
      "burn": 7254,
      "pil": 7255,
      "ona": 7256,
      "сочин": 7257,
      "разно": 7258,
      "uted": 7259,
      "произведения": 7260,
      "земле": 7261,
      "Констан": 7262,
      "вшихся": 7263,
      "события": 7264,
      "resistance": 7265,
      "selves": 7266,
      "approximately": 7267,
      "Bak": 7268,
      "Mary": 7269,
      "Pub": 7270,
      "атом": 7271,
      "agric": 7272,
      "proposed": 7273,
      "странах": 7274,
      "election": 7275,
      "Israel": 7276,
      "distribut": 7277,
      "рованных": 7278,
      "теоре": 7279,
      "Суще": 7280,
      "belief": 7281,
      "выборы": 7282,
      "vin": 7283,
      "новый": 7284,
      "ising": 7285,
      "исполни": 7286,
      "торгов": 7287,
      "названия": 7288,
      "жных": 7289,
      "alleg": 7290,
      "летия": 7291,
      "присут": 7292,
      "landing": 7293,
      "Austrian": 7294,
      "Город": 7295,
      "magnit": 7296,
      "primary": 7297,
      "length": 7298,
      "Er": 7299,
      "Mil": 7300,
      "OL": 7301,
      "give": 7302,
      "Ху": 7303,
      "чное": 7304,
      "ъек": 7305,
      "1916": 7306,
      "Alger": 7307,
      "1951": 7308,
      "ционных": 7309,
      "случай": 7310,
      "break": 7311,
      "technology": 7312,
      "независимость": 7313,
      "machine": 7314,
      "AA": 7315,
      "детей": 7316,
      "чик": 7317,
      "deen": 7318,
      "proved": 7319,
      "био": 7320,
      "тическое": 7321,
      "элементов": 7322,
      "занимает": 7323,
      "Bu": 7324,
      "male": 7325,
      "Афри": 7326,
      "Гри": 7327,
      "сформирова": 7328,
      "коне": 7329,
      "emperor": 7330,
      "office": 7331,
      "остров": 7332,
      "практически": 7333,
      "experiment": 7334,
      "territory": 7335,
      "Ari": 7336,
      "Cla": 7337,
      "pon": 7338,
      "сай": 7339,
      "istry": 7340,
      "ources": 7341,
      "themselves": 7342,
      "1907": 7343,
      "район": 7344,
      "animals": 7345,
      "properties": 7346,
      "Party": 7347,
      "oids": 7348,
      "уве": 7349,
      "раст": 7350,
      "роде": 7351,
      "повы": 7352,
      "лай": 7353,
      "abort": 7354,
      "Italy": 7355,
      "библиоте": 7356,
      "Aberdeen": 7357,
      "cand": 7358,
      "future": 7359,
      "ustr": 7360,
      "роз": 7361,
      "1911": 7362,
      "чел": 7363,
      "forman": 7364,
      "appears": 7365,
      "уровень": 7366,
      "соответству": 7367,
      "различные": 7368,
      "солют": 7369,
      "Прави": 7370,
      "distinct": 7371,
      "gg": 7372,
      "ugu": 7373,
      "днев": 7374,
      "литов": 7375,
      "stor": 7376,
      "дис": 7377,
      "Stud": 7378,
      "ension": 7379,
      "кроме": 7380,
      "reached": 7381,
      "Dev": 7382,
      "вё": 7383,
      "defe": 7384,
      "жид": 7385,
      "учение": 7386,
      "particip": 7387,
      "самым": 7388,
      "условиях": 7389,
      "аре": 7390,
      "enes": 7391,
      "гон": 7392,
      "силу": 7393,
      "провод": 7394,
      "rail": 7395,
      "специали": 7396,
      "территория": 7397,
      "films": 7398,
      "емого": 7399,
      "современной": 7400,
      "университета": 7401,
      "59": 7402,
      "Que": 7403,
      "dig": 7404,
      "ked": 7405,
      "бин": 7406,
      "содержи": 7407,
      "forced": 7408,
      "час": 7409,
      "театр": 7410,
      "directly": 7411,
      "beginning": 7412,
      "Mu": 7413,
      "Азии": 7414,
      "Еги": 7415,
      "щена": 7416,
      "тием": 7417,
      "cean": 7418,
      "изо": 7419,
      "писко": 7420,
      "ряду": 7421,
      "increase": 7422,
      "руководи": 7423,
      "востоке": 7424,
      "ivity": 7425,
      "expl": 7426,
      "look": 7427,
      "performed": 7428,
      "второ": 7429,
      "famous": 7430,
      "км²": 7431,
      "Lan": 7432,
      "pan": 7433,
      "pir": 7434,
      "Они": 7435,
      "РФ": 7436,
      "олимпи": 7437,
      "гора": 7438,
      "весь": 7439,
      "трамвай": 7440,
      "alternative": 7441,
      "Alab": 7442,
      "aud": 7443,
      "reign": 7444,
      "мимо": 7445,
      "istics": 7446,
      "Памя": 7447,
      "cultural": 7448,
      "respond": 7449,
      "involved": 7450,
      "договор": 7451,
      "scholars": 7452,
      "die": 7453,
      "iom": 7454,
      "wall": 7455,
      "Дми": 7456,
      "Фу": 7457,
      "валась": 7458,
      "conf": 7459,
      "безопас": 7460,
      "распреде": 7461,
      "всегда": 7462,
      "королев": 7463,
      "драма": 7464,
      "джан": 7465,
      "screenwriter": 7466,
      "87": 7467,
      "pie": 7468,
      "Ад": 7469,
      "СН": 7470,
      "тел": 7471,
      "лад": 7472,
      "promot": 7473,
      "Inter": 7474,
      "cip": 7475,
      "зован": 7476,
      "League": 7477,
      "Frank": 7478,
      "Otto": 7479,
      "Elect": 7480,
      "sem": 7481,
      "хом": 7482,
      "Ambro": 7483,
      "вшим": 7484,
      "regions": 7485,
      "results": 7486,
      "православ": 7487,
      "погиб": 7488,
      "Достоев": 7489,
      "Nobel": 7490,
      "Dou": 7491,
      "ЕС": 7492,
      "Золо": 7493,
      "зме": 7494,
      "aves": 7495,
      "арми": 7496,
      "целом": 7497,
      "Интер": 7498,
      "получили": 7499,
      "уничто": 7500,
      "чув": 7501,
      "schools": 7502,
      "позволяет": 7503,
      "экспери": 7504,
      "Av": 7505,
      "Abu": 7506,
      "sam": 7507,
      "цвет": 7508,
      "совмест": 7509,
      "скуль": 7510,
      "points": 7511,
      "утвержда": 7512,
      "Achill": 7513,
      "69": 7514,
      "IC": 7515,
      "pay": 7516,
      "эко": 7517,
      "manufact": 7518,
      "жено": 7519,
      "plays": 7520,
      "below": 7521,
      "атмо": 7522,
      "считается": 7523,
      "англий": 7524,
      "Лейб": 7525,
      "bour": 7526,
      "Гон": 7527,
      "Круп": 7528,
      "дя": 7529,
      "contr": 7530,
      "anned": 7531,
      "Таким": 7532,
      "Ashok": 7533,
      "академи": 7534,
      "художник": 7535,
      "скульп": 7536,
      "alle": 7537,
      "гори": 7538,
      "попыт": 7539,
      "ctic": 7540,
      "выделя": 7541,
      "приз": 7542,
      "предоста": 7543,
      "myth": 7544,
      "многочислен": 7545,
      "иногда": 7546,
      "независимости": 7547,
      "Нидерлан": 7548,
      "Ajax": 7549,
      "Hung": 7550,
      "дере": 7551,
      "добы": 7552,
      "administ": 7553,
      "ходов": 7554,
      "box": 7555,
      "Май": 7556,
      "графия": 7557,
      "большое": 7558,
      "better": 7559,
      "убий": 7560,
      "Red": 7561,
      "Кли": 7562,
      "ТО": 7563,
      "Ши": 7564,
      "лого": 7565,
      "моле": 7566,
      "еты": 7567,
      "секре": 7568,
      "отве": 7569,
      "convent": 7570,
      "коммуни": 7571,
      "rule": 7572,
      "highest": 7573,
      "bridge": 7574,
      "marriage": 7575,
      "чён": 7576,
      "таким": 7577,
      "жили": 7578,
      "Another": 7579,
      "strict": 7580,
      "Мини": 7581,
      "foreign": 7582,
      "религии": 7583,
      "республики": 7584,
      "destroy": 7585,
      "СП": 7586,
      "цкий": 7587,
      "ницы": 7588,
      "лер": 7589,
      "демон": 7590,
      "продю": 7591,
      "сем": 7592,
      "сах": 7593,
      "idea": 7594,
      "лые": 7595,
      "Associ": 7596,
      "объё": 7597,
      "services": 7598,
      "частью": 7599,
      "changes": 7600,
      "ресур": 7601,
      "dy": 7602,
      "ux": 7603,
      "чным": 7604,
      "расстоя": 7605,
      "спек": 7606,
      "правило": 7607,
      "получила": 7608,
      "выборах": 7609,
      "61": 7610,
      "cut": 7611,
      "свиде": 7612,
      "установи": 7613,
      "onic": 7614,
      "тиви": 7615,
      "тья": 7616,
      "конца": 7617,
      "телевид": 7618,
      "ведений": 7619,
      "commit": 7620,
      "короля": 7621,
      "император": 7622,
      "400": 7623,
      "77": 7624,
      "mountain": 7625,
      "tor": 7626,
      "Дан": 7627,
      "чении": 7628,
      "лауре": 7629,
      "stra": 7630,
      "conflict": 7631,
      "крепо": 7632,
      "larg": 7633,
      "medicine": 7634,
      "ционного": 7635,
      "участие": 7636,
      "Irish": 7637,
      "Alabama": 7638,
      "BM": 7639,
      "kind": 7640,
      "Фри": 7641,
      "ито": 7642,
      "atter": 7643,
      "icated": 7644,
      "китай": 7645,
      "войне": 7646,
      "performan": 7647,
      "инжен": 7648,
      "писал": 7649,
      "используются": 7650,
      "Center": 7651,
      "treatment": 7652,
      "законодатель": 7653,
      "Иван": 7654,
      "чёр": 7655,
      "отличие": 7656,
      "приводи": 7657,
      "целью": 7658,
      "izing": 7659,
      "carbon": 7660,
      "ференду": 7661,
      "Democ": 7662,
      "Gra": 7663,
      "Кри": 7664,
      "сных": 7665,
      "agre": 7666,
      "pected": 7667,
      "фигу": 7668,
      "soon": 7669,
      "pher": 7670,
      "ционные": 7671,
      "highly": 7672,
      "электрон": 7673,
      "ступления": 7674,
      "деятельность": 7675,
      "компания": 7676,
      "Филосо": 7677,
      "objects": 7678,
      "ackson": 7679,
      "career": 7680,
      "spirit": 7681,
      "flow": 7682,
      "ls": 7683,
      "цени": 7684,
      "чём": 7685,
      "environment": 7686,
      "today": 7687,
      "жит": 7688,
      "ills": 7689,
      "ogy": 7690,
      "друг": 7691,
      "worked": 7692,
      "окку": 7693,
      "построен": 7694,
      "десяти": 7695,
      "ients": 7696,
      "школа": 7697,
      "thous": 7698,
      "реб": 7699,
      "циони": 7700,
      "прово": 7701,
      "Ancient": 7702,
      "1908": 7703,
      "fully": 7704,
      "address": 7705,
      "систему": 7706,
      "originally": 7707,
      "Council": 7708,
      "долларов": 7709,
      "eight": 7710,
      "Рим": 7711,
      "Шу": 7712,
      "голов": 7713,
      "полож": 7714,
      "Space": 7715,
      "еписко": 7716,
      "иска": 7717,
      "instr": 7718,
      "replaced": 7719,
      "приходи": 7720,
      "speech": 7721,
      "invent": 7722,
      "следует": 7723,
      "статус": 7724,
      "120": 7725,
      "nav": 7726,
      "you": 7727,
      "zo": 7728,
      "фы": 7729,
      "пунк": 7730,
      "weight": 7731,
      "основных": 7732,
      "соответствии": 7733,
      "династи": 7734,
      "происхождения": 7735,
      "Prize": 7736,
      "середине": 7737,
      "Assyrian": 7738,
      "knowledge": 7739,
      "UK": 7740,
      "Ир": 7741,
      "сё": 7742,
      "atives": 7743,
      "ковой": 7744,
      "топо": 7745,
      "stic": 7746,
      "просто": 7747,
      "Alask": 7748,
      "training": 7749,
      "Greece": 7750,
      "nearly": 7751,
      "Polish": 7752,
      "greater": 7753,
      "изменения": 7754,
      "Alfonso": 7755,
      "relationship": 7756,
      "достаточно": 7757,
      "Byzantine": 7758,
      "Cur": 7759,
      "IX": 7760,
      "ni": 7761,
      "дения": 7762,
      "ожи": 7763,
      "роли": 7764,
      "решения": 7765,
      "пет": 7766,
      "units": 7767,
      "преимуще": 7768,
      "pron": 7769,
      "пользу": 7770,
      "Вой": 7771,
      "чены": 7772,
      "Китай": 7773,
      "ющиеся": 7774,
      "classical": 7775,
      "oxy": 7776,
      "painter": 7777,
      "hydrogen": 7778,
      "депутатов": 7779,
      "largely": 7780,
      "Ainu": 7781,
      "Jackson": 7782,
      "Library": 7783,
      "Sat": 7784,
      "saf": 7785,
      "уро": 7786,
      "хро": 7787,
      "нему": 7788,
      "педа": 7789,
      "longer": 7790,
      "значительно": 7791,
      "literature": 7792,
      "Modern": 7793,
      "Ev": 7794,
      "кораб": 7795,
      "ida": 7796,
      "therefore": 7797,
      "новь": 7798,
      "color": 7799,
      "studies": 7800,
      "называется": 7801,
      "официально": 7802,
      "86": 7803,
      "fix": 7804,
      "sac": 7805,
      "lying": 7806,
      "true": 7807,
      "elected": 7808,
      "rise": 7809,
      "influenced": 7810,
      "Egyptian": 7811,
      "adopted": 7812,
      "Ham": 7813,
      "рес": 7814,
      "персона": 7815,
      "Бель": 7816,
      "коллек": 7817,
      "multip": 7818,
      "independent": 7819,
      "Aster": 7820,
      "АН": 7821,
      "onstr": 7822,
      "бора": 7823,
      "боже": 7824,
      "iance": 7825,
      "lace": 7826,
      "exts": 7827,
      "лено": 7828,
      "elled": 7829,
      "ellig": 7830,
      "русском": 7831,
      "Союз": 7832,
      "вещества": 7833,
      "аппара": 7834,
      "Rod": 7835,
      "stop": 7836,
      "Браз": 7837,
      "деб": 7838,
      "метри": 7839,
      "prom": 7840,
      "которую": 7841,
      "образи": 7842,
      "народный": 7843,
      "smaller": 7844,
      "Ly": 7845,
      "cru": 7846,
      "Спи": 7847,
      "шка": 7848,
      "роман": 7849,
      "манд": 7850,
      "detail": 7851,
      "шими": 7852,
      "подви": 7853,
      "Сокра": 7854,
      "keep": 7855,
      "sych": 7856,
      "спорта": 7857,
      "cannot": 7858,
      "плани": 7859,
      "distance": 7860,
      "сро": 7861,
      "threat": 7862,
      "ini": 7863,
      "мато": 7864,
      "unit": 7865,
      "create": 7866,
      "Second": 7867,
      "ционный": 7868,
      "которому": 7869,
      "businessman": 7870,
      "поверхности": 7871,
      "Kore": 7872,
      "SS": 7873,
      "mir": 7874,
      "нового": 7875,
      "лесо": 7876,
      "май": 7877,
      "peace": 7878,
      "комму": 7879,
      "предполага": 7880,
      "работу": 7881,
      "обору": 7882,
      "открыт": 7883,
      "производство": 7884,
      "пяти": 7885,
      "острове": 7886,
      "antibiot": 7887,
      "Ah": 7888,
      "мён": 7889,
      "ус": 7890,
      "види": 7891,
      "acts": 7892,
      "illustr": 7893,
      "бас": 7894,
      "poly": 7895,
      "centuries": 7896,
      "society": 7897,
      "inner": 7898,
      "явление": 7899,
      "множество": 7900,
      "Ox": 7901,
      "Rom": 7902,
      "Sen": 7903,
      "hours": 7904,
      "Нор": 7905,
      "впоследствии": 7906,
      "ila": 7907,
      "изобре": 7908,
      "perial": 7909,
      "начально": 7910,
      "военный": 7911,
      "губерна": 7912,
      "четыр": 7913,
      "photograph": 7914,
      "Do": 7915,
      "pair": 7916,
      "плу": 7917,
      "рхи": 7918,
      "review": 7919,
      "eds": 7920,
      "itz": 7921,
      "amber": 7922,
      "Например": 7923,
      "общего": 7924,
      "decla": 7925,
      "региона": 7926,
      "Central": 7927,
      "путём": 7928,
      "продюсер": 7929,
      "Вар": 7930,
      "вся": 7931,
      "охран": 7932,
      "означа": 7933,
      "сные": 7934,
      "эр": 7935,
      "лит": 7936,
      "тури": 7937,
      "assum": 7938,
      "deaths": 7939,
      "зависимости": 7940,
      "victory": 7941,
      "document": 7942,
      "relatively": 7943,
      "Hy": 7944,
      "loss": 7945,
      "onom": 7946,
      "rem": 7947,
      "orb": 7948,
      "меры": 7949,
      "изуча": 7950,
      "osaurus": 7951,
      "issues": 7952,
      "astronauts": 7953,
      "commercial": 7954,
      "72": 7955,
      "Os": 7956,
      "inj": 7957,
      "already": 7958,
      "референду": 7959,
      "earth": 7960,
      "syl": 7961,
      "citiz": 7962,
      "cock": 7963,
      "Фор": 7964,
      "емая": 7965,
      "досто": 7966,
      "olf": 7967,
      "etic": 7968,
      "начал": 7969,
      "действова": 7970,
      "зывает": 7971,
      "1903": 7972,
      "Warhol": 7973,
      "военных": 7974,
      "крупных": 7975,
      "Александра": 7976,
      "spacecraft": 7977,
      "practice": 7978,
      "hood": 7979,
      "zil": 7980,
      "закры": 7981,
      "выда": 7982,
      "iga": 7983,
      "emph": 7984,
      "гражда": 7985,
      "данные": 7986,
      "Atari": 7987,
      "говор": 7988,
      "Анти": 7989,
      "students": 7990,
      "economy": 7991,
      "scholar": 7992,
      "circ": 7993,
      "Венг": 7994,
      "эффек": 7995,
      "pra": 7996,
      "рец": 7997,
      "постанов": 7998,
      "1915": 7999,
      "стром": 8000,
      "extra": 8001,
      "Leg": 8002,
      "экономики": 8003,
      "членов": 8004,
      "Ty": 8005,
      "Ак": 8006,
      "ГУ": 8007,
      "нович": 8008,
      "голосо": 8009,
      "заслу": 8010,
      "curity": 8011,
      "самостоя": 8012,
      "enna": 8013,
      "Советского": 8014,
      "Хай": 8015,
      "industri": 8016,
      "кажды": 8017,
      "Основные": 8018,
      "молеку": 8019,
      "Na": 8020,
      "mas": 8021,
      "spread": 8022,
      "wind": 8023,
      "Бру": 8024,
      "Же": 8025,
      "стя": 8026,
      "пой": 8027,
      "бель": 8028,
      "ссия": 8029,
      "действу": 8030,
      "федера": 8031,
      "земель": 8032,
      "литературы": 8033,
      "table": 8034,
      "villa": 8035,
      "Ат": 8036,
      "оса": 8037,
      "нок": 8038,
      "igen": 8039,
      "чением": 8040,
      "Island": 8041,
      "ступление": 8042,
      "Aphrod": 8043,
      "Joseph": 8044,
      "magnitude": 8045,
      "Гру": 8046,
      "Фили": 8047,
      "ини": 8048,
      "иско": 8049,
      "воду": 8050,
      "дах": 8051,
      "стави": 8052,
      "изм": 8053,
      "требу": 8054,
      "White": 8055,
      "Spain": 8056,
      "ields": 8057,
      "Михаил": 8058,
      "launched": 8059,
      "separate": 8060,
      "Испании": 8061,
      "хрома": 8062,
      "imed": 8063,
      "sets": 8064,
      "acids": 8065,
      "ansas": 8066,
      "линг": 8067,
      "expand": 8068,
      "Ak": 8069,
      "ti": 8070,
      "enough": 8071,
      "section": 8072,
      "тым": 8073,
      "мым": 8074,
      "первую": 8075,
      "языков": 8076,
      "Новой": 8077,
      "достига": 8078,
      "температура": 8079,
      "suggested": 8080,
      "Portugu": 8081,
      "argued": 8082,
      "estimated": 8083,
      "cou": 8084,
      "dim": 8085,
      "date": 8086,
      "ware": 8087,
      "yet": 8088,
      "пят": 8089,
      "ента": 8090,
      "stars": 8091,
      "подготов": 8092,
      "слово": 8093,
      "wealth": 8094,
      "государственного": 8095,
      "составил": 8096,
      "fr": 8097,
      "тность": 8098,
      "tos": 8099,
      "тип": 8100,
      "ams": 8101,
      "erson": 8102,
      "complet": 8103,
      "media": 8104,
      "городах": 8105,
      "Геор": 8106,
      "Этот": 8107,
      "property": 8108,
      "пассажир": 8109,
      "situ": 8110,
      "Texas": 8111,
      "Ashoka": 8112,
      "Aphrodite": 8113,
      "Iran": 8114,
      "bound": 8115,
      "Бан": 8116,
      "ющую": 8117,
      "reject": 8118,
      "alt": 8119,
      "зам": 8120,
      "метра": 8121,
      "univers": 8122,
      "ровал": 8123,
      "класса": 8124,
      "средне": 8125,
      "expans": 8126,
      "Augustine": 8127,
      "Авст": 8128,
      "Республика": 8129,
      "philosopher": 8130,
      "activity": 8131,
      "абсолют": 8132,
      "spoken": 8133,
      "integr": 8134,
      "Cap": 8135,
      "Saint": 8136,
      "Treat": 8137,
      "вшее": 8138,
      "эль": 8139,
      "iso": 8140,
      "chief": 8141,
      "ift": 8142,
      "армия": 8143,
      "compar": 8144,
      "preser": 8145,
      "passed": 8146,
      "астроно": 8147,
      "Audi": 8148,
      "Mem": 8149,
      "Rad": 8150,
      "чки": 8151,
      "ниже": 8152,
      "chor": 8153,
      "макси": 8154,
      "первое": 8155,
      "forming": 8156,
      "тивной": 8157,
      "форме": 8158,
      "слан": 8159,
      "award": 8160,
      "этим": 8161,
      "погибли": 8162,
      "temperature": 8163,
      "Two": 8164,
      "ВВП": 8165,
      "Portuguese": 8166,
      "Life": 8167,
      "Mill": 8168,
      "Акаде": 8169,
      "Йор": 8170,
      "вери": 8171,
      "подвер": 8172,
      "принято": 8173,
      "ynast": 8174,
      "функции": 8175,
      "сообщения": 8176,
      "Brazil": 8177,
      "independence": 8178,
      "measure": 8179,
      "defeated": 8180,
      "mouth": 8181,
      "тела": 8182,
      "лект": 8183,
      "отде": 8184,
      "паро": 8185,
      "promin": 8186,
      "контин": 8187,
      "formal": 8188,
      "1904": 8189,
      "demonstr": 8190,
      "Grand": 8191,
      "mathematician": 8192,
      "находятся": 8193,
      "периода": 8194,
      "ky": 8195,
      "умень": 8196,
      "соору": 8197,
      "ципа": 8198,
      "перемен": 8199,
      "places": 8200,
      "ibly": 8201,
      "Кита": 8202,
      "средства": 8203,
      "корпу": 8204,
      "instein": 8205,
      "компьютер": 8206,
      "относятся": 8207,
      "Отече": 8208,
      "Gold": 8209,
      "cas": 8210,
      "ун": 8211,
      "непосред": 8212,
      "chain": 8213,
      "руса": 8214,
      "immedi": 8215,
      "отрица": 8216,
      "гами": 8217,
      "мусуль": 8218,
      "publish": 8219,
      "covered": 8220,
      "require": 8221,
      "figure": 8222,
      "насчиты": 8223,
      "makes": 8224,
      "benef": 8225,
      "ES": 8226,
      "Fer": 8227,
      "Кла": 8228,
      "ист": 8229,
      "установ": 8230,
      "швед": 8231,
      "юри": 8232,
      "orial": 8233,
      "кило": 8234,
      "статисти": 8235,
      "center": 8236,
      "medical": 8237,
      "priest": 8238,
      "соединения": 8239,
      "угле": 8240,
      "completed": 8241,
      "Восточной": 8242,
      "companies": 8243,
      "педаго": 8244,
      "внима": 8245,
      "ядер": 8246,
      "thr": 8247,
      "превы": 8248,
      "move": 8249,
      "earch": 8250,
      "фести": 8251,
      "potential": 8252,
      "принадлежа": 8253,
      "ционали": 8254,
      "Генри": 8255,
      "энциклопе": 8256,
      "бов": 8257,
      "implement": 8258,
      "carry": 8259,
      "memory": 8260,
      "Руси": 8261,
      "Объ": 8262,
      "orders": 8263,
      "Москва": 8264,
      "использовать": 8265,
      "prior": 8266,
      "recorded": 8267,
      "Иоан": 8268,
      "discuss": 8269,
      "Jean": 8270,
      "hous": 8271,
      "murder": 8272,
      "tank": 8273,
      "wise": 8274,
      "plants": 8275,
      "undred": 8276,
      "внутри": 8277,
      "большеви": 8278,
      "информации": 8279,
      "experience": 8280,
      "multiple": 8281,
      "Lo": 8282,
      "Law": 8283,
      "Rel": 8284,
      "Эн": 8285,
      "ammon": 8286,
      "Наука": 8287,
      "создания": 8288,
      "iverse": 8289,
      "operations": 8290,
      "Athena": 8291,
      "лауреат": 8292,
      "categ": 8293,
      "Бла": 8294,
      "кер": 8295,
      "iments": 8296,
      "deg": 8297,
      "compared": 8298,
      "близи": 8299,
      "whole": 8300,
      "чено": 8301,
      "Constant": 8302,
      "Библи": 8303,
      "sense": 8304,
      "площадь": 8305,
      "субъек": 8306,
      "Граждан": 8307,
      "Азербайджа": 8308,
      "опублико": 8309,
      "Alaska": 8310,
      "Def": 8311,
      "Тран": 8312,
      "тета": 8313,
      "room": 8314,
      "неболь": 8315,
      "antim": 8316,
      "collect": 8317,
      "окси": 8318,
      "передачи": 8319,
      "фикации": 8320,
      "сохраня": 8321,
      "uminium": 8322,
      "Финляндии": 8323,
      "rd": 8324,
      "von": 8325,
      "inus": 8326,
      "ситуа": 8327,
      "стане": 8328,
      "mob": 8329,
      "ferred": 8330,
      "распространён": 8331,
      "народов": 8332,
      "Солнца": 8333,
      "guitarist": 8334,
      "Нобе": 8335,
      "anes": 8336,
      "меж": 8337,
      "eties": 8338,
      "arts": 8339,
      "shown": 8340,
      "геро": 8341,
      "элемента": 8342,
      "Великой": 8343,
      "Ленина": 8344,
      "Иванов": 8345,
      "Истори": 8346,
      "миллионов": 8347,
      "spr": 8348,
      "лка": 8349,
      "asons": 8350,
      "stone": 8351,
      "decre": 8352,
      "mole": 8353,
      "называют": 8354,
      "Order": 8355,
      "Рича": 8356,
      "mitted": 8357,
      "вновь": 8358,
      "onian": 8359,
      "мысли": 8360,
      "шает": 8361,
      "minor": 8362,
      "1909": 8363,
      "берг": 8364,
      "BCE": 8365,
      "resulting": 8366,
      "животных": 8367,
      "turned": 8368,
      "сферы": 8369,
      "71": 8370,
      "Later": 8371,
      "Vict": 8372,
      "thers": 8373,
      "плат": 8374,
      "mainly": 8375,
      "Ниж": 8376,
      "оружи": 8377,
      "должны": 8378,
      "needed": 8379,
      "Fre": 8380,
      "ковых": 8381,
      "arrow": 8382,
      "igation": 8383,
      "зин": 8384,
      "Ali": 8385,
      "geomet": 8386,
      "ковский": 8387,
      "College": 8388,
      "divided": 8389,
      "Just": 8390,
      "drug": 8391,
      "ga": 8392,
      "taking": 8393,
      "za": 8394,
      "Олимпи": 8395,
      "дни": 8396,
      "isl": 8397,
      "дополни": 8398,
      "чета": 8399,
      "семей": 8400,
      "чил": 8401,
      "dete": 8402,
      "газо": 8403,
      "verse": 8404,
      "excl": 8405,
      "строфа": 8406,
      "должен": 8407,
      "publican": 8408,
      "станция": 8409,
      "Northern": 8410,
      "Москвы": 8411,
      "Notes": 8412,
      "Duke": 8413,
      "MP": 8414,
      "lie": 8415,
      "tree": 8416,
      "alone": 8417,
      "вес": 8418,
      "заяви": 8419,
      "дил": 8420,
      "Современ": 8421,
      "attribut": 8422,
      "collection": 8423,
      "государственной": 8424,
      "Всемир": 8425,
      "удалось": 8426,
      "кратный": 8427,
      "технологи": 8428,
      "Ver": 8429,
      "happ": 8430,
      "aland": 8431,
      "isation": 8432,
      "быстро": 8433,
      "прежде": 8434,
      "corre": 8435,
      "cords": 8436,
      "фай": 8437,
      "городского": 8438,
      "depict": 8439,
      "marked": 8440,
      "Einstein": 8441,
      "cric": 8442,
      "hau": 8443,
      "съе": 8444,
      "тка": 8445,
      "рос": 8446,
      "oft": 8447,
      "тические": 8448,
      "конферен": 8449,
      "intended": 8450,
      "Франция": 8451,
      "contains": 8452,
      "островов": 8453,
      "habit": 8454,
      "92": 8455,
      "Award": 8456,
      "bri": 8457,
      "bacter": 8458,
      "Южной": 8459,
      "дца": 8460,
      "ясь": 8461,
      "ogle": 8462,
      "кислоты": 8463,
      "bow": 8464,
      "los": 8465,
      "nob": 8466,
      "sens": 8467,
      "varian": 8468,
      "ya": 8469,
      "Пав": 8470,
      "anc": 8471,
      "ales": 8472,
      "гото": 8473,
      "вокруг": 8474,
      "hem": 8475,
      "ляции": 8476,
      "matter": 8477,
      "строительство": 8478,
      "Persian": 8479,
      "da": 8480,
      "iber": 8481,
      "pse": 8482,
      "pian": 8483,
      "Осно": 8484,
      "мм": 8485,
      "дого": 8486,
      "инстру": 8487,
      "Alg": 8488,
      "cohol": 8489,
      "identified": 8490,
      "относится": 8491,
      "станавли": 8492,
      "Нобелев": 8493,
      "XXI": 8494,
      "wave": 8495,
      "án": 8496,
      "Собы": 8497,
      "Ян": 8498,
      "преду": 8499,
      "igned": 8500,
      "центром": 8501,
      "Первый": 8502,
      "basis": 8503,
      "музыкан": 8504,
      "response": 8505,
      "contrast": 8506,
      "Hom": 8507,
      "ID": 8508,
      "cross": 8509,
      "drop": 8510,
      "Кур": 8511,
      "Три": 8512,
      "жные": 8513,
      "описы": 8514,
      "eric": 8515,
      "воло": 8516,
      "лета": 8517,
      "мел": 8518,
      "ads": 8519,
      "выну": 8520,
      "noted": 8521,
      "compounds": 8522,
      "poor": 8523,
      "carried": 8524,
      "пространства": 8525,
      "герцо": 8526,
      "course": 8527,
      "ография": 8528,
      "represented": 8529,
      "methods": 8530,
      "выполня": 8531,
      "професси": 8532,
      "nucle": 8533,
      "увелич": 8534,
      "Bl": 8535,
      "kes": 8536,
      "Бос": 8537,
      "Сте": 8538,
      "ЦК": 8539,
      "чений": 8540,
      "вана": 8541,
      "расска": 8542,
      "minister": 8543,
      "высоко": 8544,
      "Shah": 8545,
      "уровне": 8546,
      "процесс": 8547,
      "religion": 8548,
      "76": 8549,
      "More": 8550,
      "Она": 8551,
      "мигра": 8552,
      "defeat": 8553,
      "compon": 8554,
      "составляют": 8555,
      "equip": 8556,
      "разделя": 8557,
      "особен": 8558,
      "woman": 8559,
      "такой": 8560,
      "ieval": 8561,
      "cred": 8562,
      "начали": 8563,
      "сперан": 8564,
      "isms": 8565,
      "finan": 8566,
      "ллин": 8567,
      "ficient": 8568,
      "Prime": 8569,
      "океана": 8570,
      "огром": 8571,
      "numerous": 8572,
      "iques": 8573,
      "Crow": 8574,
      "done": 8575,
      "Эта": 8576,
      "вместо": 8577,
      "услу": 8578,
      "ero": 8579,
      "кора": 8580,
      "водоро": 8581,
      "кинорежиссёр": 8582,
      "последние": 8583,
      "тонн": 8584,
      "programs": 8585,
      "меньше": 8586,
      "месяц": 8587,
      "Bet": 8588,
      "Eu": 8589,
      "nes": 8590,
      "ул": 8591,
      "комо": 8592,
      "lag": 8593,
      "suit": 8594,
      "Alpha": 8595,
      "своим": 8596,
      "liament": 8597,
      "grand": 8598,
      "Abra": 8599,
      "синто": 8600,
      "участвова": 8601,
      "четыре": 8602,
      "эксплу": 8603,
      "target": 8604,
      "Langu": 8605,
      "degree": 8606,
      "События": 8607,
      "Ven": 8608,
      "aled": 8609,
      "orn": 8610,
      "руссии": 8611,
      "Their": 8612,
      "компон": 8613,
      "Techn": 8614,
      "Армении": 8615,
      "Zealand": 8616,
      "футболист": 8617,
      "scale": 8618,
      "Мно": 8619,
      "Побе": 8620,
      "постеп": 8621,
      "дио": 8622,
      "стика": 8623,
      "quick": 8624,
      "portion": 8625,
      "consum": 8626,
      "weak": 8627,
      "теплово": 8628,
      "иностранных": 8629,
      "Argent": 8630,
      "appointed": 8631,
      "магистра": 8632,
      "Bay": 8633,
      "oot": 8634,
      "rid": 8635,
      "sl": 8636,
      "плен": 8637,
      "пото": 8638,
      "запу": 8639,
      "цист": 8640,
      "отс": 8641,
      "deep": 8642,
      "ower": 8643,
      "resol": 8644,
      "ideas": 8645,
      "состава": 8646,
      "angle": 8647,
      "charge": 8648,
      "thodox": 8649,
      "Georg": 8650,
      "changed": 8651,
      "западе": 8652,
      "families": 8653,
      "Бразили": 8654,
      "94": 8655,
      "BA": 8656,
      "XIII": 8657,
      "ii": 8658,
      "Ам": 8659,
      "Роб": 8660,
      "оказыва": 8661,
      "ena": 8662,
      "royal": 8663,
      "elt": 8664,
      "руют": 8665,
      "измер": 8666,
      "estival": 8667,
      "цам": 8668,
      "desc": 8669,
      "Гага": 8670,
      "употреб": 8671,
      "церковь": 8672,
      "Греции": 8673,
      "Воронеж": 8674,
      "hot": 8675,
      "пру": 8676,
      "сор": 8677,
      "бого": 8678,
      "сере": 8679,
      "rare": 8680,
      "lock": 8681,
      "presence": 8682,
      "settle": 8683,
      "kingdom": 8684,
      "metals": 8685,
      "вопрос": 8686,
      "традиции": 8687,
      "atomic": 8688,
      "глубо": 8689,
      "нюю": 8690,
      "impact": 8691,
      "сеть": 8692,
      "Королев": 8693,
      "Pope": 8694,
      "Sto": 8695,
      "Tra": 8696,
      "дже": 8697,
      "рат": 8698,
      "arran": 8699,
      "amount": 8700,
      "селение": 8701,
      "отстав": 8702,
      "Amiga": 8703,
      "phon": 8704,
      "Under": 8705,
      "1896": 8706,
      "Тихо": 8707,
      "opened": 8708,
      "soldiers": 8709,
      "buildings": 8710,
      "ведены": 8711,
      "доволь": 8712,
      "Str": 8713,
      "bin": 8714,
      "жно": 8715,
      "своём": 8716,
      "тивных": 8717,
      "общество": 8718,
      "authority": 8719,
      "возможности": 8720,
      "представителей": 8721,
      "Филип": 8722,
      "Pan": 8723,
      "VII": 8724,
      "ny": 8725,
      "vice": 8726,
      "зис": 8727,
      "звание": 8728,
      "квар": 8729,
      "соли": 8730,
      "olk": 8731,
      "becomes": 8732,
      "lav": 8733,
      "рым": 8734,
      "гах": 8735,
      "сум": 8736,
      "modu": 8737,
      "weap": 8738,
      "maintain": 8739,
      "Mark": 8740,
      "крови": 8741,
      "вшийся": 8742,
      "объектов": 8743,
      "churches": 8744,
      "accepted": 8745,
      "module": 8746,
      "Es": 8747,
      "Fin": 8748,
      "Sub": 8749,
      "ping": 8750,
      "ани": 8751,
      "inem": 8752,
      "station": 8753,
      "ockey": 8754,
      "kept": 8755,
      "130": 8756,
      "связь": 8757,
      "axiom": 8758,
      "автобу": 8759,
      "explo": 8760,
      "apparent": 8761,
      "combined": 8762,
      "Google": 8763,
      "Hall": 8764,
      "Nic": 8765,
      "Oly": 8766,
      "aj": 8767,
      "cry": 8768,
      "isine": 8769,
      "ita": 8770,
      "прода": 8771,
      "ходы": 8772,
      "observed": 8773,
      "ждении": 8774,
      "Кири": 8775,
      "ampion": 8776,
      "solute": 8777,
      "Германия": 8778,
      "золота": 8779,
      "четырёх": 8780,
      "bul": 8781,
      "hundred": 8782,
      "nis": 8783,
      "канад": 8784,
      "conver": 8785,
      "гина": 8786,
      "туру": 8787,
      "зоне": 8788,
      "assault": 8789,
      "страна": 8790,
      "izations": 8791,
      "женный": 8792,
      "1902": 8793,
      "Первая": 8794,
      "самолё": 8795,
      "войсками": 8796,
      "primarily": 8797,
      "82": 8798,
      "native": 8799,
      "paper": 8800,
      "uters": 8801,
      "соль": 8802,
      "назван": 8803,
      "Prince": 8804,
      "муниципа": 8805,
      "federal": 8806,
      "reedom": 8807,
      "Despite": 8808,
      "vehicle": 8809,
      "migr": 8810,
      "elaide": 8811,
      "AL": 8812,
      "Bas": 8813,
      "Fres": 8814,
      "Hum": 8815,
      "Wind": 8816,
      "mut": 8817,
      "Це": 8818,
      "зен": 8819,
      "кнов": 8820,
      "reaction": 8821,
      "насле": 8822,
      "тельную": 8823,
      "люби": 8824,
      "mentioned": 8825,
      "подвод": 8826,
      "военной": 8827,
      "possess": 8828,
      "Тео": 8829,
      "Edward": 8830,
      "additional": 8831,
      "failed": 8832,
      "Эстонии": 8833,
      "Den": 8834,
      "ктор": 8835,
      "юр": 8836,
      "нос": 8837,
      "направления": 8838,
      "ваго": 8839,
      "прин": 8840,
      "neigh": 8841,
      "ciences": 8842,
      "partment": 8843,
      "signed": 8844,
      "solution": 8845,
      "location": 8846,
      "всю": 8847,
      "программы": 8848,
      "professional": 8849,
      "Virgin": 8850,
      "Демо": 8851,
      "ТЭ": 8852,
      "наи": 8853,
      "ises": 8854,
      "лья": 8855,
      "itation": 8856,
      "певец": 8857,
      "бело": 8858,
      "spent": 8859,
      "Augustus": 8860,
      "воздуш": 8861,
      "Association": 8862,
      "2nd": 8863,
      "91": 8864,
      "eastern": 8865,
      "Ке": 8866,
      "НР": 8867,
      "чени": 8868,
      "шён": 8869,
      "thetic": 8870,
      "народа": 8871,
      "проект": 8872,
      "приобре": 8873,
      "зоны": 8874,
      "Arth": 8875,
      "Кав": 8876,
      "policy": 8877,
      "последу": 8878,
      "conson": 8879,
      "чена": 8880,
      "Adelaide": 8881,
      "территорию": 8882,
      "Некоторые": 8883,
      "refers": 8884,
      "штаб": 8885,
      "Право": 8886,
      "initial": 8887,
      "choice": 8888,
      "половине": 8889,
      "Swedish": 8890,
      "oxygen": 8891,
      "ET": 8892,
      "Nat": 8893,
      "PC": 8894,
      "Science": 8895,
      "texts": 8896,
      "theast": 8897,
      "вании": 8898,
      "stell": 8899,
      "league": 8900,
      "oured": 8901,
      "ado": 8902,
      "изма": 8903,
      "седатель": 8904,
      "deal": 8905,
      "exhib": 8906,
      "aph": 8907,
      "ниях": 8908,
      "neut": 8909,
      "дене": 8910,
      "Несмотря": 8911,
      "серва": 8912,
      "Francis": 8913,
      "joined": 8914,
      "пять": 8915,
      "negie": 8916,
      "произошло": 8917,
      "игры": 8918,
      "будди": 8919,
      "performance": 8920,
      "itzer": 8921,
      "quality": 8922,
      "render": 8923,
      "hero": 8924,
      "calcul": 8925,
      "inux": 8926,
      "Послед": 8927,
      "ASC": 8928,
      "physic": 8929,
      "status": 8930,
      "multi": 8931,
      "necessary": 8932,
      "Ale": 8933,
      "Вос": 8934,
      "Тру": 8935,
      "стров": 8936,
      "edy": 8937,
      "покры": 8938,
      "stable": 8939,
      "forts": 8940,
      "subst": 8941,
      "operation": 8942,
      "регистри": 8943,
      "equival": 8944,
      "match": 8945,
      "effective": 8946,
      "basket": 8947,
      "выборов": 8948,
      "совершен": 8949,
      "голосов": 8950,
      "Андре": 8951,
      "blood": 8952,
      "ежегод": 8953,
      "AT": 8954,
      "Linux": 8955,
      "ba": 8956,
      "fif": 8957,
      "ез": 8958,
      "isions": 8959,
      "потреб": 8960,
      "приме": 8961,
      "ордина": 8962,
      "udes": 8963,
      "подтвер": 8964,
      "succeed": 8965,
      "Emperor": 8966,
      "Carnegie": 8967,
      "humans": 8968,
      "definition": 8969,
      "документа": 8970,
      "disease": 8971,
      "expansion": 8972,
      "74": 8973,
      "Bib": 8974,
      "Follow": 8975,
      "audi": 8976,
      "fill": 8977,
      "ratic": 8978,
      "Тре": 8979,
      "сток": 8980,
      "artist": 8981,
      "pressure": 8982,
      "началь": 8983,
      "территориаль": 8984,
      "electric": 8985,
      "Angel": 8986,
      "союза": 8987,
      "plane": 8988,
      "грузо": 8989,
      "стойчи": 8990,
      "женщин": 8991,
      "978": 8992,
      "psych": 8993,
      "Аф": 8994,
      "Экономи": 8995,
      "ont": 8996,
      "кине": 8997,
      "мину": 8998,
      "plom": 8999,
      "ips": 9000,
      "министром": 9001,
      "государственных": 9002,
      "decided": 9003,
      "eneg": 9004,
      "обороны": 9005,
      "природы": 9006,
      "Англии": 9007,
      "Дмитри": 9008,
      "СПб": 9009,
      "Olymp": 9010,
      "83": 9011,
      "Lord": 9012,
      "global": 9013,
      "hi": 9014,
      "path": 9015,
      "tend": 9016,
      "голь": 9017,
      "ested": 9018,
      "самой": 9019,
      "теория": 9020,
      "Agass": 9021,
      "региональ": 9022,
      "главным": 9023,
      "позже": 9024,
      "brew": 9025,
      "профессо": 9026,
      "offered": 9027,
      "Умер": 9028,
      "управля": 9029,
      "латин": 9030,
      "entered": 9031,
      "рази": 9032,
      "love": 9033,
      "военного": 9034,
      "decision": 9035,
      "Because": 9036,
      "release": 9037,
      "команду": 9038,
      "императора": 9039,
      "aught": 9040,
      "emphas": 9041,
      "mill": 9042,
      "хар": 9043,
      "mond": 9044,
      "границы": 9045,
      "soldier": 9046,
      "Сергей": 9047,
      "Buddha": 9048,
      "Ottoman": 9049,
      "Гене": 9050,
      "older": 9051,
      "aded": 9052,
      "advan": 9053,
      "стики": 9054,
      "ava": 9055,
      "переворо": 9056,
      "терро": 9057,
      "рованные": 9058,
      "organization": 9059,
      "functions": 9060,
      "pattern": 9061,
      "становлены": 9062,
      "чемпиона": 9063,
      "следствие": 9064,
      "suffer": 9065,
      "Green": 9066,
      "Екатерин": 9067,
      "управление": 9068,
      "Егип": 9069,
      "Feder": 9070,
      "IP": 9071,
      "sus": 9072,
      "Сло": 9073,
      "Фё": 9074,
      "урав": 9075,
      "ёз": 9076,
      "гос": 9077,
      "непре": 9078,
      "chall": 9079,
      "iron": 9080,
      "Anat": 9081,
      "советская": 9082,
      "самого": 9083,
      "1899": 9084,
      "Angola": 9085,
      "князь": 9086,
      "existence": 9087,
      "Achilles": 9088,
      "Oxford": 9089,
      "Sur": 9090,
      "fiction": 9091,
      "mand": 9092,
      "Гар": 9093,
      "жению": 9094,
      "ума": 9095,
      "лега": 9096,
      "тива": 9097,
      "тических": 9098,
      "забо": 9099,
      "сильно": 9100,
      "uded": 9101,
      "Thus": 9102,
      "intellig": 9103,
      "Литов": 9104,
      "событий": 9105,
      "says": 9106,
      "отношении": 9107,
      "candid": 9108,
      "Hell": 9109,
      "Tom": 9110,
      "money": 9111,
      "пр": 9112,
      "почто": 9113,
      "болга": 9114,
      "becoming": 9115,
      "числи": 9116,
      "odes": 9117,
      "mann": 9118,
      "polar": 9119,
      "работе": 9120,
      "дорог": 9121,
      "Spider": 9122,
      "самый": 9123,
      "письмен": 9124,
      "Following": 9125,
      "1st": 9126,
      "Sever": 9127,
      "Tro": 9128,
      "cos": 9129,
      "тник": 9130,
      "гой": 9131,
      "поря": 9132,
      "позна": 9133,
      "вида": 9134,
      "ables": 9135,
      "logy": 9136,
      "переход": 9137,
      "цеп": 9138,
      "другим": 9139,
      "province": 9140,
      "продолжи": 9141,
      "использования": 9142,
      "CE": 9143,
      "Out": 9144,
      "Test": 9145,
      "frag": 9146,
      "Окт": 9147,
      "Тро": 9148,
      "Цер": 9149,
      "бен": 9150,
      "чка": 9151,
      "выде": 9152,
      "comment": 9153,
      "worth": 9154,
      "одновременно": 9155,
      "uba": 9156,
      "display": 9157,
      "monarch": 9158,
      "write": 9159,
      "condition": 9160,
      "Company": 9161,
      "компьюте": 9162,
      "Америки": 9163,
      "Group": 9164,
      "ambigu": 9165,
      "Gen": 9166,
      "Qa": 9167,
      "rates": 9168,
      "tons": 9169,
      "яс": 9170,
      "роста": 9171,
      "нина": 9172,
      "визи": 9173,
      "сед": 9174,
      "constant": 9175,
      "composed": 9176,
      "atoms": 9177,
      "individuals": 9178,
      "Верховного": 9179,
      "финансо": 9180,
      "сотрудни": 9181,
      "Jud": 9182,
      "vary": 9183,
      "Жи": 9184,
      "рение": 9185,
      "эту": 9186,
      "юге": 9187,
      "itors": 9188,
      "стаби": 9189,
      "часов": 9190,
      "speed": 9191,
      "azine": 9192,
      "district": 9193,
      "containing": 9194,
      "earliest": 9195,
      "Research": 9196,
      "female": 9197,
      "СНГ": 9198,
      "hen": 9199,
      "втор": 9200,
      "уси": 9201,
      "onto": 9202,
      "лиц": 9203,
      "теше": 9204,
      "дал": 9205,
      "мог": 9206,
      "гий": 9207,
      "notes": 9208,
      "щается": 9209,
      "друже": 9210,
      "здание": 9211,
      "населён": 9212,
      "Orthodox": 9213,
      "Карл": 9214,
      "crim": 9215,
      "behav": 9216,
      "algebraic": 9217,
      "посвящён": 9218,
      "card": 9219,
      "эсперан": 9220,
      "напря": 9221,
      "utive": 9222,
      "cles": 9223,
      "creation": 9224,
      "ходили": 9225,
      "oldest": 9226,
      "1898": 9227,
      "Christie": 9228,
      "сфере": 9229,
      "Arthur": 9230,
      "basketball": 9231,
      "UN": 9232,
      "Ur": 9233,
      "Year": 9234,
      "fair": 9235,
      "infect": 9236,
      "лежа": 9237,
      "idents": 9238,
      "люди": 9239,
      "attacks": 9240,
      "250": 9241,
      "equal": 9242,
      "Wallace": 9243,
      "reduced": 9244,
      "vowel": 9245,
      "Navy": 9246,
      "wa": 9247,
      "Ай": 9248,
      "Кен": 9249,
      "Рей": 9250,
      "одо": 9251,
      "стен": 9252,
      "потом": 9253,
      "совета": 9254,
      "ett": 9255,
      "сул": 9256,
      "anta": 9257,
      "войну": 9258,
      "Ката": 9259,
      "ultan": 9260,
      "Китая": 9261,
      "risk": 9262,
      "basic": 9263,
      "включает": 9264,
      "Западной": 9265,
      "translated": 9266,
      "anthropol": 9267,
      "преимущественно": 9268,
      "Fore": 9269,
      "Ha": 9270,
      "IBM": 9271,
      "lives": 9272,
      "опти": 9273,
      "всем": 9274,
      "советских": 9275,
      "лёг": 9276,
      "прямо": 9277,
      "Петра": 9278,
      "Maced": 9279,
      "мифологи": 9280,
      "micro": 9281,
      "rapid": 9282,
      "Латвии": 9283,
      "800": 9284,
      "Tim": 9285,
      "VIII": 9286,
      "гря": 9287,
      "нена": 9288,
      "theore": 9289,
      "alcohol": 9290,
      "веществ": 9291,
      "чек": 9292,
      "ils": 9293,
      "umen": 9294,
      "absolute": 9295,
      "фир": 9296,
      "upun": 9297,
      "вшись": 9298,
      "commiss": 9299,
      "создание": 9300,
      "соответственно": 9301,
      "moving": 9302,
      "исследователь": 9303,
      "closed": 9304,
      "выпуска": 9305,
      "Fresnel": 9306,
      "AOL": 9307,
      "BBC": 9308,
      "Ep": 9309,
      "Plat": 9310,
      "Сто": 9311,
      "Хор": 9312,
      "этно": 9313,
      "пом": 9314,
      "мости": 9315,
      "армян": 9316,
      "astic": 9317,
      "советской": 9318,
      "центре": 9319,
      "Liber": 9320,
      "регуляр": 9321,
      "behind": 9322,
      "Швеции": 9323,
      "Anatol": 9324,
      "81": 9325,
      "93": 9326,
      "Mel": 9327,
      "Rev": 9328,
      "вступи": 9329,
      "кну": 9330,
      "thet": 9331,
      "капита": 9332,
      "разо": 9333,
      "мыс": 9334,
      "рованы": 9335,
      "liber": 9336,
      "действует": 9337,
      "relations": 9338,
      "план": 9339,
      "1861": 9340,
      "анализа": 9341,
      "Both": 9342,
      "искусство": 9343,
      "океан": 9344,
      "регули": 9345,
      "favor": 9346,
      "Turkish": 9347,
      "73": 9348,
      "XII": 9349,
      "yr": 9350,
      "Джа": 9351,
      "МВ": 9352,
      "internal": 9353,
      "aspect": 9354,
      "ваку": 9355,
      "кано": 9356,
      "ложения": 9357,
      "directed": 9358,
      "шинство": 9359,
      "соглашение": 9360,
      "vehicles": 9361,
      "Cast": 9362,
      "Les": 9363,
      "Mah": 9364,
      "Pen": 9365,
      "Tal": 9366,
      "ule": 9367,
      "Фло": 9368,
      "кле": 9369,
      "aluminium": 9370,
      "нера": 9371,
      "созна": 9372,
      "secret": 9373,
      "dead": 9374,
      "газа": 9375,
      "студен": 9376,
      "служа": 9377,
      "связыва": 9378,
      "основы": 9379,
      "doct": 9380,
      "трудо": 9381,
      "Румы": 9382,
      "работал": 9383,
      "possibly": 9384,
      "asked": 9385,
      "крупнейших": 9386,
      "звё": 9387,
      "сочета": 9388,
      "expected": 9389,
      "путь": 9390,
      "политической": 9391,
      "численности": 9392,
      "метрополи": 9393,
      "Arkansas": 9394,
      "Bir": 9395,
      "Dr": 9396,
      "Found": 9397,
      "Pak": 9398,
      "dess": 9399,
      "mind": 9400,
      "Ах": 9401,
      "Времен": 9402,
      "жерт": 9403,
      "убе": 9404,
      "heart": 9405,
      "предо": 9406,
      "opposed": 9407,
      "minutes": 9408,
      "rick": 9409,
      "текста": 9410,
      "Индоне": 9411,
      "regarded": 9412,
      "Hitch": 9413,
      "hockey": 9414,
      "iety": 9415,
      "voc": 9416,
      "опас": 9417,
      "осад": 9418,
      "шан": 9419,
      "коали": 9420,
      "told": 9421,
      "старо": 9422,
      "отме": 9423,
      "Вики": 9424,
      "основные": 9425,
      "действий": 9426,
      "техники": 9427,
      "examples": 9428,
      "влено": 9429,
      "diplom": 9430,
      "литературе": 9431,
      "хозяйства": 9432,
      "Cambridge": 9433,
      "итальянский": 9434,
      "предприятий": 9435,
      "nuclear": 9436,
      "dominant": 9437,
      "faith": 9438,
      "безопасности": 9439,
      "Fort": 9440,
      "org": 9441,
      "каль": 9442,
      "модели": 9443,
      "sey": 9444,
      "рян": 9445,
      "рядом": 9446,
      "Арген": 9447,
      "Сиби": 9448,
      "Organ": 9449,
      "двумя": 9450,
      "Польши": 9451,
      "cuisine": 9452,
      "previously": 9453,
      "Crowley": 9454,
      "Mat": 9455,
      "Tele": 9456,
      "mort": 9457,
      "mosph": 9458,
      "лём": 9459,
      "ёра": 9460,
      "reve": 9461,
      "товой": 9462,
      "льга": 9463,
      "катего": 9464,
      "uls": 9465,
      "iff": 9466,
      "испан": 9467,
      "climate": 9468,
      "конкре": 9469,
      "возника": 9470,
      "models": 9471,
      "levels": 9472,
      "Labor": 9473,
      "Qaeda": 9474,
      "Bro": 9475,
      "ares": 9476,
      "rine": 9477,
      "uge": 9478,
      "Физи": 9479,
      "мили": 9480,
      "improv": 9481,
      "ённые": 9482,
      "друга": 9483,
      "Death": 9484,
      "track": 9485,
      "1895": 9486,
      "Тай": 9487,
      "Европей": 9488,
      "simple": 9489,
      "temple": 9490,
      "Михай": 9491,
      "ASCII": 9492,
      "600": 9493,
      "Ae": 9494,
      "Best": 9495,
      "Il": 9496,
      "Vi": 9497,
      "Кан": 9498,
      "тное": 9499,
      "тности": 9500,
      "islands": 9501,
      "лизации": 9502,
      "нео": 9503,
      "лес": 9504,
      "urban": 9505,
      "agon": 9506,
      "prove": 9507,
      "ripp": 9508,
      "hism": 9509,
      "конкур": 9510,
      "польский": 9511,
      "despite": 9512,
      "государством": 9513,
      "values": 9514,
      "Куль": 9515,
      "Gal": 9516,
      "How": 9517,
      "Rand": 9518,
      "vation": 9519,
      "еха": 9520,
      "atre": 9521,
      "фикси": 9522,
      "Arsen": 9523,
      "Stand": 9524,
      "That": 9525,
      "работан": 9526,
      "частей": 9527,
      "warz": 9528,
      "distingu": 9529,
      "считал": 9530,
      "щихся": 9531,
      "killing": 9532,
      "Philip": 9533,
      "alphabet": 9534,
      "Отечественной": 9535,
      "84": 9536,
      "Ele": 9537,
      "Flight": 9538,
      "Net": 9539,
      "Ob": 9540,
      "RO": 9541,
      "iform": 9542,
      "uck": 9543,
      "Джей": 9544,
      "НА": 9545,
      "Стра": 9546,
      "онер": 9547,
      "сра": 9548,
      "ссов": 9549,
      "things": 9550,
      "роа": 9551,
      "пока": 9552,
      "нике": 9553,
      "доби": 9554,
      "university": 9555,
      "канди": 9556,
      "axim": 9557,
      "Васи": 9558,
      "governor": 9559,
      "тяжё": 9560,
      "figures": 9561,
      "позднее": 9562,
      "названием": 9563,
      "respectively": 9564,
      "Британ": 9565,
      "abortion": 9566,
      "приводит": 9567,
      "ynasty": 9568,
      "Октябрь": 9569,
      "Bi": 9570,
      "комен": 9571,
      "разби": 9572,
      "predict": 9573,
      "положения": 9574,
      "bring": 9575,
      "operating": 9576,
      "claims": 9577,
      "профессиональ": 9578,
      "79": 9579,
      "Gar": 9580,
      "Naz": 9581,
      "lers": 9582,
      "йских": 9583,
      "удоб": 9584,
      "incorpor": 9585,
      "rey": 9586,
      "asi": 9587,
      "мами": 9588,
      "uran": 9589,
      "constitution": 9590,
      "концентра": 9591,
      "reng": 9592,
      "сын": 9593,
      "serve": 9594,
      "учени": 9595,
      "protect": 9596,
      "источника": 9597,
      "expressed": 9598,
      "влека": 9599,
      "algorithm": 9600,
      "ancest": 9601,
      "Land": 9602,
      "Lad": 9603,
      "jur": 9604,
      "чном": 9605,
      "escap": 9606,
      "asc": 9607,
      "elop": 9608,
      "мый": 9609,
      "строен": 9610,
      "keter": 9611,
      "auth": 9612,
      "языках": 9613,
      "whereas": 9614,
      "существуют": 9615,
      "Schwarz": 9616,
      "современных": 9617,
      "reflect": 9618,
      "членом": 9619,
      "падает": 9620,
      "формули": 9621,
      "бассей": 9622,
      "Bill": 9623,
      "Turing": 9624,
      "winter": 9625,
      "Пло": 9626,
      "свыше": 9627,
      "oura": 9628,
      "дови": 9629,
      "зона": 9630,
      "Соедин": 9631,
      "Ada": 9632,
      "Северо": 9633,
      "missions": 9634,
      "современного": 9635,
      "князя": 9636,
      "growing": 9637,
      "проблемы": 9638,
      "slavery": 9639,
      "materials": 9640,
      "сравни": 9641,
      "interpret": 9642,
      "Португа": 9643,
      "Gl": 9644,
      "nanda": 9645,
      "оцени": 9646,
      "шев": 9647,
      "горь": 9648,
      "stress": 9649,
      "amin": 9650,
      "accord": 9651,
      "шах": 9652,
      "regional": 9653,
      "presented": 9654,
      "Carol": 9655,
      "Дании": 9656,
      "views": 9657,
      "fourth": 9658,
      "educator": 9659,
      "восток": 9660,
      "идеи": 9661,
      "ведена": 9662,
      "появились": 9663,
      "H2O": 9664,
      "prominent": 9665,
      "вынужден": 9666,
      "RFC": 9667,
      "Ānanda": 9668,
      "Авто": 9669,
      "Юпи": 9670,
      "оси": 9671,
      "поко": 9672,
      "леген": 9673,
      "вина": 9674,
      "масс": 9675,
      "мол": 9676,
      "usal": 9677,
      "излу": 9678,
      "conqu": 9679,
      "града": 9680,
      "тивная": 9681,
      "firm": 9682,
      "obs": 9683,
      "Republican": 9684,
      "колони": 9685,
      "axon": 9686,
      "1897": 9687,
      "Islands": 9688,
      "allowing": 9689,
      "окружа": 9690,
      "demand": 9691,
      "joy": 9692,
      "материаль": 9693,
      "activities": 9694,
      "учёный": 9695,
      "предприятия": 9696,
      "square": 9697,
      "cricketer": 9698,
      "Tenn": 9699,
      "giving": 9700,
      "mel": 9701,
      "oy": 9702,
      "py": 9703,
      "рией": 9704,
      "сии": 9705,
      "орби": 9706,
      "предме": 9707,
      "получения": 9708,
      "плоть": 9709,
      "отношение": 9710,
      "Common": 9711,
      "provides": 9712,
      "Алексе": 9713,
      "driver": 9714,
      "shell": 9715,
      "члены": 9716,
      "shows": 9717,
      "double": 9718,
      "Mur": 9719,
      "Ира": 9720,
      "Фо": 9721,
      "кров": 9722,
      "тони": 9723,
      "неё": 9724,
      "мастер": 9725,
      "unding": 9726,
      "ulations": 9727,
      "рыб": 9728,
      "Социалисти": 9729,
      "циями": 9730,
      "тивные": 9731,
      "ova": 9732,
      "playw": 9733,
      "политический": 9734,
      "автоном": 9735,
      "Индии": 9736,
      "physician": 9737,
      "techniques": 9738,
      "negative": 9739,
      "отдельных": 9740,
      "question": 9741,
      "heavy": 9742,
      "block": 9743,
      "Amazon": 9744,
      "лингви": 9745,
      "quickly": 9746,
      "Sum": 9747,
      "haps": 9748,
      "var": 9749,
      "устойчи": 9750,
      "кости": 9751,
      "социалисти": 9752,
      "ols": 9753,
      "началась": 9754,
      "здания": 9755,
      "Alexand": 9756,
      "Герой": 9757,
      "Agripp": 9758,
      "believe": 9759,
      "Большинство": 9760,
      "summer": 9761,
      "полномо": 9762,
      "ospital": 9763,
      "Сократа": 9764,
      "каждый": 9765,
      "болгар": 9766,
      "Mi": 9767,
      "nine": 9768,
      "tur": 9769,
      "yah": 9770,
      "Гали": 9771,
      "чности": 9772,
      "toms": 9773,
      "небес": 9774,
      "привело": 9775,
      "progress": 9776,
      "osen": 9777,
      "applied": 9778,
      "phy": 9779,
      "tee": 9780,
      "началось": 9781,
      "Add": 9782,
      "County": 9783,
      "взгля": 9784,
      "sexual": 9785,
      "планеты": 9786,
      "севере": 9787,
      "обита": 9788,
      "Крупней": 9789,
      "Hitchcock": 9790,
      "iated": 9791,
      "tas": 9792,
      "йского": 9793,
      "фей": 9794,
      "нав": 9795,
      "камен": 9796,
      "независи": 9797,
      "дело": 9798,
      "зад": 9799,
      "циф": 9800,
      "стической": 9801,
      "испыта": 9802,
      "share": 9803,
      "plit": 9804,
      "owned": 9805,
      "щает": 9806,
      "rence": 9807,
      "химии": 9808,
      "обознача": 9809,
      "simply": 9810,
      "animal": 9811,
      "Antar": 9812,
      "позволи": 9813,
      "назнача": 9814,
      "фронта": 9815,
      "upuncture": 9816,
      "Ke": 9817,
      "ón": 9818,
      "Мор": 9819,
      "щений": 9820,
      "вить": 9821,
      "дию": 9822,
      "стами": 9823,
      "семи": 9824,
      "причём": 9825,
      "agreed": 9826,
      "куро": 9827,
      "перево": 9828,
      "ights": 9829,
      "хам": 9830,
      "1960s": 9831,
      "month": 9832,
      "140": 9833,
      "1880": 9834,
      "электрово": 9835,
      "отношений": 9836,
      "протяжении": 9837,
      "Film": 9838,
      "declared": 9839,
      "Abraham": 9840,
      "Jes": 9841,
      "Rob": 9842,
      "wanted": 9843,
      "дре": 9844,
      "anx": 9845,
      "кис": 9846,
      "соедини": 9847,
      "зало": 9848,
      "unknown": 9849,
      "еры": 9850,
      "судеб": 9851,
      "щим": 9852,
      "article": 9853,
      "computers": 9854,
      "1894": 9855,
      "Project": 9856,
      "метод": 9857,
      "службы": 9858,
      "телевидения": 9859,
      "89": 9860,
      "Mot": 9861,
      "Open": 9862,
      "Pra": 9863,
      "ker": 9864,
      "Нев": 9865,
      "ёс": 9866,
      "ковые": 9867,
      "координа": 9868,
      "обслужи": 9869,
      "суда": 9870,
      "contemporary": 9871,
      "annual": 9872,
      "provin": 9873,
      "военные": 9874,
      "определи": 9875,
      "structures": 9876,
      "операции": 9877,
      "международных": 9878,
      "initially": 9879,
      "emitic": 9880,
      "гимна": 9881,
      "Nap": 9882,
      "Тор": 9883,
      "опи": 9884,
      "шена": 9885,
      "эпи": 9886,
      "конец": 9887,
      "icip": 9888,
      "каса": 9889,
      "streng": 9890,
      "adapt": 9891,
      "image": 9892,
      "ounder": 9893,
      "Пол": 9894,
      "plies": 9895,
      "izes": 9896,
      "скри": 9897,
      "рьёз": 9898,
      "1890": 9899,
      "Maria": 9900,
      "ski": 9901,
      "программ": 9902,
      "takes": 9903,
      "purpose": 9904,
      "Martin": 9905,
      "рабочих": 9906,
      "Атлан": 9907,
      "Victor": 9908,
      "AN": 9909,
      "MS": 9910,
      "sport": 9911,
      "Мек": 9912,
      "Син": 9913,
      "оши": 9914,
      "цвета": 9915,
      "amed": 9916,
      "Население": 9917,
      "upper": 9918,
      "serious": 9919,
      "writings": 9920,
      "extended": 9921,
      "belong": 9922,
      "legisl": 9923,
      "refused": 9924,
      "Scotland": 9925,
      "расположены": 9926,
      "moral": 9927,
      "rugby": 9928,
      "успеш": 9929,
      "agreement": 9930,
      "ожида": 9931,
      "музыкант": 9932,
      "Многие": 9933,
      "Lev": 9934,
      "pun": 9935,
      "slow": 9936,
      "Жу": 9937,
[...]
