{
  "version": "1.0",
  "truncation": null,
  "padding": null,
  "added_tokens": [
    {
      "id": 0,
      "content": "[UNK]",
      "single_word": false,
      "lstrip": false,
      "rstrip": false,
      "normalized": false,
      "special": true
    },
    {
      "id": 1,
      "content": "[EOS]",
      "single_word": false,
      "lstrip": false,
      "rstrip": false,
      "normalized": false,
      "special": true
    }
  ],
  "normalizer": {
    "type": "Sequence",
    "normalizers": [
      {
        "type": "NFKC"
      }
    ]
  },
  "pre_tokenizer": {
    "type": "BertPreTokenizer"
  },
  "post_processor": null,
  "decoder": null,
  "model": {
    "type": "Unigram",
    "unk_id": 0,
    "vocab": [
      [
        "[UNK]",
        0.0
      ],
      [
        "[EOS]",
        0.0
      ],
      [
        ",",
        -3.2085464626004967
      ],
      [
        ".",
        -3.3895691830872234
      ],
      [
        "и",
        -3.670205072383302
      ],
      [
        "s",
        -3.7253534987306267
      ],
      [
        "the",
        -4.010246165163059
      ],
      [
        "е",
        -4.290892317326911
      ],
      [
        "а",
        -4.356631996664598
      ],
      [
        "в",
        -4.389206719547815
      ],
      [
        "й",
        -4.393102507687207
      ],
      [
        "of",
        -4.513171192847603
      ],
      [
        "a",
        -4.693952692916053
      ],
      [
        ")",
        -4.700325535379086
      ],
      [
        "(",
        -4.701706154763359
      ],
      [
        "and",
        -4.705092204558387
      ],
      [
        "in",
        -4.761921095694319
      ],
      [
        "ed",
        -4.8039719218795724
      ],
      [
        "-",
        -4.920555026896469
      ],
      [
        "—",
        -4.9435240293460545
      ],
      [
        "я",
        -4.951447723687748
      ],
      [
        "ы",
        -4.978822519780344
      ],
      [
        "to",
        -5.026699327138344
      ],
      [
        "х",
        -5.036495271298248
      ],
      [
        "с",
        -5.113206585775092
      ],
      [
        "d",
        -5.1262188656056935
      ],
      [
        "м",
        -5.185801485082443
      ],
      [
        "о",
        -5.2446041453274646
      ],
      [
        "y",
        -5.335335015968067
      ],
      [
        "на",
        -5.338622144333732
      ],
      [
        "у",
        -5.404795870138647
      ],
      [
        "ing",
        -5.521055176994025
      ],
      [
        "is",
        -5.591384340804906
      ],
      [
        "e",
        -5.6270807394955895
      ],
      [
        "\"",
        -5.704145613014592
      ],
      [
        "ly",
        -5.753219214034873
      ],
      [
        "on",
        -5.815599159803922
      ],
      [
        "к",
        -5.821652512322824
      ],
      [
        "The",
        -5.854377734906258
      ],
      [
        "го",
        -5.863358989483425
      ],
      [
        "t",
        -5.86645229784585
      ],
      [
        "ся",
        -5.867003823953997
      ],
      [
        "»",
        -5.869031535720552
      ],
      [
        "«",
        -5.869060458143386
      ],
      [
        "as",
        -5.8795687756392
      ],
      [
        ":",
        -5.89325554088731
      ],
      [
        "ов",
        -5.93095813604041
      ],
      [
        "В",
        -5.931703969089309
      ],
      [
        "was",
        -6.0118474109435205
      ],
      [
        "'",
        -6.038246586838497
      ],
      [
        "не",
        -6.057985441033047
      ],
      [
        "по",
        -6.072501406931627
      ],
      [
        "for",
        -6.127140032924148
      ],
      [
        "with",
        -6.133698374753916
      ],
      [
        "by",
        -6.138567860081471
      ],
      [
        "n",
        -6.161477479792213
      ],
      [
        "o",
        -6.1770862292480295
      ],
      [
        "an",
        -6.198410390964479
      ],
      [
        "р",
        -6.220395316930329
      ],
      [
        "ом",
        -6.2298227644396285
      ],
      [
        "ю",
        -6.234967068243881
      ],
      [
        "that",
        -6.235235012095149
      ],
      [
        "or",
        -6.245226375421577
      ],
      [
        "т",
        -6.3224119042212195
      ],
      [
        "be",
        -6.330676889545392
      ],
      [
        "19",
        -6.345629146484631
      ],
      [
        "–",
        -6.35661575574016
      ],
      [
        "ая",
        -6.374031729411984
      ],
      [
        "из",
        -6.381321781152794
      ],
      [
        "at",
        -6.394514391487624
      ],
      [
        ";",
        -6.396563423509132
      ],
      [
        "A",
        -6.437068553291418
      ],
      [
        "i",
        -6.4402349981511104
      ],
      [
        "ь",
        -6.5051708927514476
      ],
      [
        "н",
        -6.519314679491945
      ],
      [
        "it",
        -6.52036432315089
      ],
      [
        "от",
        -6.549255641351431
      ],
      [
        "al",
        -6.553455464231206
      ],
      [
        "from",
        -6.557898681877276
      ],
      [
        "за",
        -6.5827826451289955
      ],
      [
        "1",
        -6.585749002146034
      ],
      [
        "b",
        -6.62207043219267
      ],
      [
        "are",
        -6.622137183202284
      ],
      [
        "er",
        -6.660608156604177
      ],
      [
        "С",
        -6.691405102479671
      ],
      [
        "In",
        -6.695567005935397
      ],
      [
        "2",
        -6.699583039979988
      ],
      [
        "ой",
        -6.7103417716738
      ],
      [
        "l",
        -6.73012253262247
      ],
      [
        "года",
        -6.73296545901445
      ],
      [
        "же",
        -6.749730424840834
      ],
      [
        "his",
        -6.751817131247593
      ],
      [
        "c",
        -6.769025364279756
      ],
      [
        "S",
        -6.808222124032321
      ],
      [
        "но",
        -6.840604387190728
      ],
      [
        "ей",
        -6.847457024530913
      ],
      [
        "до",
        -6.870497094815862
      ],
      [
        "es",
        -6.8785598106555845
      ],
      [
        "which",
        -6.893178035779462
      ],
      [
        "з",
        -6.905749133407982
      ],
      [
        "так",
        -6.9103642851120455
      ],
      [
        "us",
        -6.933168692418132
      ],
      [
        "п",
        -6.946149414138986
      ],
      [
        "году",
        -6.952789377322992
      ],
      [
        "г",
        -6.972406816128807
      ],
      [
        "3",
        -6.978250473703909
      ],
      [
        "А",
        -6.9803354921601635
      ],
      [
        "re",
        -6.993727101334795
      ],
      [
        "he",
        -7.003076192430388
      ],
      [
        "при",
        -7.004837496551046
      ],
      [
        "were",
        -7.00611032067097
      ],
      [
        "ет",
        -7.012642514261588
      ],
      [
        "он",
        -7.013044032998529
      ],
      [
        "ка",
        -7.013240611590433
      ],
      [
        "f",
        -7.027185082264358
      ],
      [
        "ми",
        -7.054735000366582
      ],
      [
        "I",
        -7.071046235604879
      ],
      [
        "r",
        -7.0906151320699
      ],
      [
        "ум",
        -7.106396166799399
      ],
      [
        "5",
        -7.113511927505874
      ],
      [
        "%",
        -7.118614529845637
      ],
      [
        "что",
        -7.123718884288651
      ],
      [
        "как",
        -7.12474966319186
      ],
      [
        "not",
        -7.140608868756715
      ],
      [
        "17",
        -7.15560961753361
      ],
      [
        "B",
        -7.158269507083713
      ],
      [
        "th",
        -7.160708343753711
      ],
      [
        "p",
        -7.169612632965869
      ],
      [
        "ами",
        -7.17177029718359
      ],
      [
        "/",
        -7.218159085127217
      ],
      [
        "also",
        -7.232455718242665
      ],
      [
        "для",
        -7.24010294587729
      ],
      [
        "4",
        -7.242983902454823
      ],
      [
        "К",
        -7.247647156540189
      ],
      [
        "д",
        -7.25063749773037
      ],
      [
        "М",
        -7.256565528123346
      ],
      [
        "h",
        -7.263009023184951
      ],
      [
        "have",
        -7.266583480397758
      ],
      [
        "ский",
        -7.267679237433173
      ],
      [
        "C",
        -7.2684518266590885
      ],
      [
        "ных",
        -7.279459329379513
      ],
      [
        "had",
        -7.285015276972404
      ],
      [
        "О",
        -7.29171595169041
      ],
      [
        "one",
        -7.307363598280583
      ],
      [
        "has",
        -7.3395221775068045
      ],
      [
        "ной",
        -7.341171874493606
      ],
      [
        "то",
        -7.347122397322417
      ],
      [
        "de",
        -7.347952578185781
      ],
      [
        "со",
        -7.351530949159258
      ],
      [
        "ная",
        -7.372654893223455
      ],
      [
        "ic",
        -7.378670643710153
      ],
      [
        "ies",
        -7.388857740812114
      ],
      [
        "ные",
        -7.400052284834338
      ],
      [
        "16",
        -7.403634053386384
      ],
      [
        "ую",
        -7.409169324238251
      ],
      [
        "but",
        -7.414298526882979
      ],
      [
        "18",
        -7.415967175468408
      ],
      [
        "6",
        -7.427704932952986
      ],
      [
        "ского",
        -7.428998376120754
      ],
      [
        "во",
        -7.429931731653728
      ],
      [
        "American",
        -7.430410368050241
      ],
      [
        "15",
        -7.431885481257952
      ],
      [
        "their",
        -7.433858342420288
      ],
      [
        "7",
        -7.441164313313456
      ],
      [
        "E",
        -7.448086030914375
      ],
      [
        "или",
        -7.454643101563896
      ],
      [
        "w",
        -7.458065153386018
      ],
      [
        "g",
        -7.462942824624546
      ],
      [
        "its",
        -7.468564856716018
      ],
      [
        "m",
        -7.468625383321042
      ],
      [
        "ем",
        -7.4814145729028265
      ],
      [
        "его",
        -7.482284300729685
      ],
      [
        "P",
        -7.483606158919764
      ],
      [
        "D",
        -7.4870903225157495
      ],
      [
        "об",
        -7.494526649092123
      ],
      [
        "И",
        -7.498260192482089
      ],
      [
        "other",
        -7.501625639708333
      ],
      [
        "под",
        -7.506683182414742
      ],
      [
        "u",
        -7.511206005378147
      ],
      [
        "л",
        -7.523541153048166
      ],
      [
        "first",
        -7.530545864609435
      ],
      [
        "На",
        -7.539010253959924
      ],
      [
        "ный",
        -7.543329818725008
      ],
      [
        "П",
        -7.544027115625141
      ],
      [
        "G",
        -7.549236882035338
      ],
      [
        "10",
        -7.549872049356203
      ],
      [
        "был",
        -7.550255426281753
      ],
      [
        "can",
        -7.550285350965707
      ],
      [
        "ного",
        -7.554426546126836
      ],
      [
        "F",
        -7.5626868462336265
      ],
      [
        "le",
        -7.563336269158169
      ],
      [
        "this",
        -7.565387864615774
      ],
      [
        "которы",
        -7.568214121606548
      ],
      [
        "en",
        -7.5780483300611206
      ],
      [
        "all",
        -7.58762866553246
      ],
      [
        "ого",
        -7.58931051904489
      ],
      [
        "ли",
        -7.599204058218728
      ],
      [
        "про",
        -7.607929422113177
      ],
      [
        "been",
        -7.610154947664737
      ],
      [
        "ла",
        -7.610158453270062
      ],
      [
        "out",
        -7.613211016453953
      ],
      [
        "T",
        -7.615895860713948
      ],
      [
        "14",
        -7.6182897191903844
      ],
      [
        "L",
        -7.625025254904305
      ],
      [
        "M",
        -7.626109581043849
      ],
      [
        "ation",
        -7.629879590102396
      ],
      [
        "8",
        -7.63037440597253
      ],
      [
        "По",
        -7.63394306113222
      ],
      [
        "k",
        -7.634014181018406
      ],
      [
        "un",
        -7.634317047096644
      ],
      [
        "R",
        -7.635519751778142
      ],
      [
        "ской",
        -7.644871654960509
      ],
      [
        "who",
        -7.647307470686549
      ],
      [
        "most",
        -7.647772102632821
      ],
      [
        "ская",
        -7.6483136346113465
      ],
      [
        "ion",
        -7.663455136706627
      ],
      [
        "O",
        -7.687115381661192
      ],
      [
        "их",
        -7.691981660148331
      ],
      [
        "He",
        -7.702053003424597
      ],
      [
        "де",
        -7.702178035086044
      ],
      [
        "9",
        -7.703731594299136
      ],
      [
        "ч",
        -7.7072181396361135
      ],
      [
        "Г",
        -7.712656963774913
      ],
      [
        "20",
        -7.716065002035089
      ],
      [
        "H",
        -7.720864950836626
      ],
      [
        "year",
        -7.721693935887336
      ],
      [
        "use",
        -7.732562367682583
      ],
      [
        "та",
        -7.7380518264031295
      ],
      [
        "12",
        -7.739581720390282
      ],
      [
        "это",
        -7.74396027187575
      ],
      [
        "such",
        -7.748484620683675
      ],
      [
        "б",
        -7.7571980454801945
      ],
      [
        "more",
        -7.770193391108473
      ],
      [
        "ись",
        -7.778435084559357
      ],
      [
        "no",
        -7.778873400095483
      ],
      [
        "ни",
        -7.786621719270334
      ],
      [
        "over",
        -7.791993929701798
      ],
      [
        "У",
        -7.7981185883331765
      ],
      [
        "two",
        -7.807242688416121
      ],
      [
        "11",
        -7.814210265485192
      ],
      [
        "V",
        -7.816861906524601
      ],
      [
        "um",
        -7.825628091760445
      ],
      [
        "K",
        -7.836109433680187
      ],
      [
        "раз",
        -7.839626780818813
      ],
      [
        "ity",
        -7.857562513437948
      ],
      [
        "ть",
        -7.863102088180742
      ],
      [
        "Д",
        -7.866726639866332
      ],
      [
        "стран",
        -7.868727575851231
      ],
      [
        "time",
        -7.874377698778455
      ],
      [
        "Н",
        -7.874496554184972
      ],
      [
        "ш",
        -7.877329867284159
      ],
      [
        "some",
        -7.885315037436268
      ],
      [
        "му",
        -7.887290592930114
      ],
      [
        "Т",
        -7.8890856812537145
      ],
      [
        "год",
        -7.893907454729648
      ],
      [
        "It",
        -7.896666361388855
      ],
      [
        "than",
        -7.899403865949289
      ],
      [
        "ers",
        -7.901305624904472
      ],
      [
        "Ф",
        -7.910032218658396
      ],
      [
        "ют",
        -7.919865389651372
      ],
      [
        "э",
        -7.921692711511332
      ],
      [
        "up",
        -7.926046277798937
      ],
      [
        "13",
        -7.928374033966742
      ],
      [
        "СССР",
        -7.930702178379015
      ],
      [
        "ен",
        -7.931183851055158
      ],
      [
        "after",
        -7.940041284843328
      ],
      [
        "N",
        -7.940277114365282
      ],
      [
        "более",
        -7.951102070213185
      ],
      [
        "советски",
        -7.979807285553267
      ],
      [
        "ж",
        -7.980383880429239
      ],
      [
        "form",
        -7.98823192210032
      ],
      [
        "W",
        -7.993799755328075
      ],
      [
        "ce",
        -8.01215798362767
      ],
      [
        "co",
        -8.014306665707059
      ],
      [
        "ло",
        -8.02896193576694
      ],
      [
        "di",
        -8.03150026924125
      ],
      [
        "into",
        -8.03230182949512
      ],
      [
        "her",
        -8.036160833362157
      ],
      [
        "|",
        -8.038785031216582
      ],
      [
        "ра",
        -8.04342153811701
      ],
      [
        "This",
        -8.043481260400018
      ],
      [
        "были",
        -8.051956955329379
      ],
      [
        "would",
        -8.053453667614836
      ],
      [
        "лет",
        -8.053479038388701
      ],
      [
        "0",
        -8.054939028457186
      ],
      [
        "время",
        -8.056671516320222
      ],
      [
        "Al",
        -8.058408267001582
      ],
      [
        "Росси",
        -8.060580616670087
      ],
      [
        "пере",
        -8.065374247728908
      ],
      [
        "га",
        -8.070313841847971
      ],
      [
        "ко",
        -8.073553490784114
      ],
      [
        "ever",
        -8.083472519114405
      ],
      [
        "было",
        -8.085667950775315
      ],
      [
        "ди",
        -8.086267896511618
      ],
      [
        "U",
        -8.087450709556283
      ],
      [
        "century",
        -8.093700421068926
      ],
      [
        "man",
        -8.094904036502463
      ],
      [
        "him",
        -8.095436104262927
      ],
      [
        "да",
        -8.095861287459623
      ],
      [
        "they",
        -8.101787574603708
      ],
      [
        "est",
        -8.101861200523869
      ],
      [
        "ле",
        -8.102168285380799
      ],
      [
        "if",
        -8.10281889403718
      ],
      [
        "betwee",
        -8.107711116245525
      ],
      [
        "high",
        -8.121886260959599
      ],
      [
        "ную",
        -8.128732273254721
      ],
      [
        "when",
        -8.13099812346249
      ],
      [
        "ное",
        -8.13356620418321
      ],
      [
        "ку",
        -8.139322958527188
      ],
      [
        "была",
        -8.15657269415645
      ],
      [
        "23",
        -8.156767486305052
      ],
      [
        "ц",
        -8.162314746123274
      ],
      [
        "являетс",
        -8.166155265849323
      ],
      [
        "call",
        -8.176420742120106
      ],
      [
        "ок",
        -8.176606082648734
      ],
      [
        "may",
        -8.178268935843299
      ],
      [
        "includ",
        -8.179068226397083
      ],
      [
        "ф",
        -8.18006133814811
      ],
      [
        "II",
        -8.189605909847385
      ],
      [
        "where",
        -8.192651433643624
      ],
      [
        "il",
        -8.193907854136903
      ],
      [
        "ive",
        -8.198407367161112
      ],
      [
        "cause",
        -8.198531990454265
      ],
      [
        "ism",
        -8.20946163677569
      ],
      [
        "came",
        -8.210440731663802
      ],
      [
        "new",
        -8.212251337074186
      ],
      [
        "ась",
        -8.213051982429317
      ],
      [
        "ne",
        -8.223412043720483
      ],
      [
        "ически",
        -8.223694742552752
      ],
      [
        "An",
        -8.225445451794847
      ],
      [
        "name",
        -8.225673033794722
      ],
      [
        "30",
        -8.226290661241828
      ],
      [
        "ch",
        -8.227734723300554
      ],
      [
        "ст",
        -8.228252690570786
      ],
      [
        "many",
        -8.229062173903696
      ],
      [
        "000",
        -8.23217615463419
      ],
      [
        "века",
        -8.23645388189141
      ],
      [
        "under",
        -8.238344389321778
      ],
      [
        "Б",
        -8.23840850520564
      ],
      [
        "Р",
        -8.23912260572352
      ],
      [
        "per",
        -8.243045546783353
      ],
      [
        "known",
        -8.244155974281172
      ],
      [
        "после",
        -8.247946113661223
      ],
      [
        "Re",
        -8.248978742129228
      ],
      [
        "Е",
        -8.249196992145214
      ],
      [
        "которо",
        -8.25121918130822
      ],
      [
        "24",
        -8.252535239098506
      ],
      [
        "about",
        -8.253990526000038
      ],
      [
        "English",
        -8.258689137252095
      ],
      [
        "during",
        -8.261894494548626
      ],
      [
        "аль",
        -8.265361663175801
      ],
      [
        "through",
        -8.270066572114054
      ],
      [
        "part",
        -8.270241012603671
      ],
      [
        "el",
        -8.27037021030884
      ],
      [
        "base",
        -8.272947457172366
      ],
      [
        "25",
        -8.273498670642857
      ],
      [
        "США",
        -8.274111263812472
      ],
      [
        "v",
        -8.276932186935785
      ],
      [
        "том",
        -8.284243192322121
      ],
      [
        "z",
        -8.288004632721105
      ],
      [
        "между",
        -8.288065953193946
      ],
      [
        "ment",
        -8.29100825780119
      ],
      [
        "im",
        -8.293451707325167
      ],
      [
        "able",
        -8.294618337539355
      ],
      [
        "За",
        -8.296412234365762
      ],
      [
        "ось",
        -8.29661014831194
      ],
      [
        "ным",
        -8.298481256267536
      ],
      [
        "те",
        -8.302463974152097
      ],
      [
        "ил",
        -8.304038904108243
      ],
      [
        "тся",
        -8.305256847426401
      ],
      [
        "города",
        -8.305523943794439
      ],
      [
        "вер",
        -8.306529148619978
      ],
      [
        "well",
        -8.30686964539123
      ],
      [
        "человек",
        -8.309904678977945
      ],
      [
        "российски",
        -8.311618551425838
      ],
      [
        "ry",
        -8.313560953635506
      ],
      [
        "J",
        -8.31871703844845
      ],
      [
        "други",
        -8.323966462683444
      ],
      [
        "ra",
        -8.326881307223958
      ],
      [
        "ля",
        -8.327194779614718
      ],
      [
        "ian",
        -8.330537939388167
      ],
      [
        "русски",
        -8.333030771533391
      ],
      [
        "ter",
        -8.33318865848692
      ],
      [
        "end",
        -8.333237852628475
      ],
      [
        "New",
        -8.335252666989495
      ],
      [
        "ent",
        -8.335600569338641
      ],
      [
        "американски",
        -8.33584749819236
      ],
      [
        "state",
        -8.336559988843064
      ],
      [
        "ист",
        -8.338978491085161
      ],
      [
        "x",
        -8.343005384030258
      ],
      [
        "че",
        -8.345045481768976
      ],
      [
        "Э",
        -8.345058138230012
      ],
      [
        "ul",
        -8.347153152220436
      ],
      [
        "начал",
        -8.35187230234566
      ],
      [
        "род",
        -8.35595495638368
      ],
      [
        "актриса",
        -8.363081633885258
      ],
      [
        "age",
        -8.364970517140662
      ],
      [
        "ал",
        -8.366567776759213
      ],
      [
        "there",
        -8.367222153936467
      ],
      [
        "though",
        -8.372035912378022
      ],
      [
        "сти",
        -8.377102523003524
      ],
      [
        "систем",
        -8.380601601213563
      ],
      [
        "land",
        -8.387476268094751
      ],
      [
        "рас",
        -8.38753866030767
      ],
      [
        "people",
        -8.388205607338154
      ],
      [
        "век",
        -8.388559436690706
      ],
      [
        "United",
        -8.389567049879684
      ],
      [
        "De",
        -8.391842750338425
      ],
      [
        "ить",
        -8.39255966247681
      ],
      [
        "ор",
        -8.396220265555327
      ],
      [
        "Не",
        -8.397285757137027
      ],
      [
        "German",
        -8.398843901151812
      ],
      [
        "199",
        -8.404211234870235
      ],
      [
        "these",
        -8.41198133487994
      ],
      [
        "кино",
        -8.41734948983279
      ],
      [
        "number",
        -8.418347750964198
      ],
      [
        "work",
        -8.418424490902266
      ],
      [
        "её",
        -8.423825265325508
      ],
      [
        "январ",
        -8.423856457594082
      ],
      [
        "made",
        -8.42512131289386
      ],
      [
        "later",
        -8.425323466649159
      ],
      [
        "все",
        -8.430528809523333
      ],
      [
        "them",
        -8.431624255919706
      ],
      [
        "мая",
        -8.432032013465697
      ],
      [
        "ков",
        -8.438259166563903
      ],
      [
        "while",
        -8.439131164549073
      ],
      [
        "ба",
        -8.43924654707518
      ],
      [
        "being",
        -8.450195587363478
      ],
      [
        "чи",
        -8.450726049541107
      ],
      [
        "ро",
        -8.45226951116124
      ],
      [
        "like",
        -8.453385924666978
      ],
      [
        "No",
        -8.453558490113474
      ],
      [
        "мира",
        -8.454199607182181
      ],
      [
        "ны",
        -8.45713655783149
      ],
      [
        "город",
        -8.463527866967476
      ],
      [
        "city",
        -8.464108493405826
      ],
      [
        "air",
        -8.464671158395358
      ],
      [
        "War",
        -8.46599052586903
      ],
      [
        "При",
        -8.470822875829791
      ],
      [
        "21",
        -8.4710247649919
      ],
      [
        "ro",
        -8.475241743026386
      ],
      [
        "less",
        -8.475602448635803
      ],
      [
        "group",
        -8.475635757922632
      ],
      [
        "ман",
        -8.477219817742386
      ],
      [
        "three",
        -8.478753514868615
      ],
      [
        "la",
        -8.479131620699587
      ],
      [
        "both",
        -8.48483722707883
      ],
      [
        "пре",
        -8.48532198818868
      ],
      [
        "пред",
        -8.485788869743885
      ],
      [
        "include",
        -8.48788805781672
      ],
      [
        "tic",
        -8.491586515034392
      ],
      [
        "декабр",
        -8.49879808471272
      ],
      [
        "Л",
        -8.50538383835885
      ],
      [
        "ri",
        -8.50749296810255
      ],
      [
        "language",
        -8.513344770185535
      ],
      [
        "ских",
        -8.514081286658097
      ],
      [
        "day",
        -8.515591858065942
      ],
      [
        "па",
        -8.517890024178577
      ],
      [
        "ar",
        -8.518404442270073
      ],
      [
        "play",
        -8.519382478713293
      ],
      [
        "any",
        -8.519647177473649
      ],
      [
        "con",
        -8.520287144257185
      ],
      [
        "август",
        -8.522142925919397
      ],
      [
        "player",
        -8.52382751440148
      ],
      [
        "+",
        -8.531416927424296
      ],
      [
        "апрел",
        -8.535279257194768
      ],
      [
        "British",
        -8.536194796476124
      ],
      [
        "тольк",
        -8.551399999166854
      ],
      [
        "др",
        -8.552277382658586
      ],
      [
        "ль",
        -8.556779397410823
      ],
      [
        "As",
        -8.557565649160647
      ],
      [
        "юля",
        -8.560190720557278
      ],
      [
        "On",
        -8.56101009705019
      ],
      [
        "марта",
        -8.56553066020564
      ],
      [
        "world",
        -8.567713016636596
      ],
      [
        "См",
        -8.568328690347677
      ],
      [
        "found",
        -8.575347712332988
      ],
      [
        "кон",
        -8.583948856672274
      ],
      [
        "ство",
        -8.59503095614551
      ],
      [
        "писатель",
        -8.598051354040157
      ],
      [
        "феврал",
        -8.59981057848267
      ],
      [
        "system",
        -8.602149325643673
      ],
      [
        "ноябр",
        -8.60426785944756
      ],
      [
        "26",
        -8.604589663349898
      ],
      [
        "For",
        -8.606949766742808
      ],
      [
        "large",
        -8.607984148938943
      ],
      [
        "ями",
        -8.608441120276982
      ],
      [
        "язык",
        -8.611071882474944
      ],
      [
        "ния",
        -8.611964141198678
      ],
      [
        "St",
        -8.613559539308493
      ],
      [
        "ном",
        -8.613899902559968
      ],
      [
        "бо",
        -8.6185549485763
      ],
      [
        "ton",
        -8.621100749054065
      ],
      [
        "50",
        -8.622014419558932
      ],
      [
        "актёр",
        -8.62296709482957
      ],
      [
        "пример",
        -8.628725027424695
      ],
      [
        "men",
        -8.628778689816858
      ],
      [
        "три",
        -8.630712516544222
      ],
      [
        "each",
        -8.631485541060037
      ],
      [
        "then",
        -8.632121518396318
      ],
      [
        "ты",
        -8.632973590586543
      ],
      [
        "27",
        -8.633891582707458
      ],
      [
        "ary",
        -8.635027962525925
      ],
      [
        "28",
        -8.63510558416751
      ],
      [
        "war",
        -8.635145745877768
      ],
      [
        "place",
        -8.635170112531778
      ],
      [
        "юня",
        -8.636765826655374
      ],
      [
        "mo",
        -8.639655205427808
      ],
      [
        "22",
        -8.639884558412188
      ],
      [
        "войны",
        -8.642844859770975
      ],
      [
        "сентября",
        -8.644440910735495
      ],
      [
        "me",
        -8.646229131683096
      ],
      [
        "населения",
        -8.646603896611863
      ],
      [
        "тер",
        -8.64733977449534
      ],
      [
        "стал",
        -8.65114280333997
      ],
      [
        "часть",
        -8.652236261904621
      ],
      [
        "американск",
        -8.652414000939075
      ],
      [
        "States",
        -8.652611475046362
      ],
      [
        "li",
        -8.653422409964863
      ],
      [
        "свое",
        -8.654052035137843
      ],
      [
        "Be",
        -8.657345974402002
      ],
      [
        "=",
        -8.6592361690302
      ],
      [
        "ph",
        -8.659901745364232
      ],
      [
        "президент",
        -8.660924974448543
      ],
      [
        "групп",
        -8.662852048894628
      ],
      [
        "около",
        -8.663002349617487
      ],
      [
        "один",
        -8.66367007343648
      ],
      [
        "term",
        -8.664198101794357
      ],
      [
        "general",
        -8.664425080060028
      ],
      [
        "октября",
        -8.669486700050644
      ],
      [
        "первы",
        -8.669517651617642
      ],
      [
        "того",
        -8.671439299405543
      ],
      [
        "result",
        -8.671802838701808
      ],
      [
        "этом",
        -8.673357040943753
      ],
      [
        "ate",
        -8.678433974369348
      ],
      [
        "ские",
        -8.678509132832462
      ],
      [
        "gainst",
        -8.681421336191836
      ],
      [
        "gan",
        -8.68195182802013
      ],
      [
        "ель",
        -8.68229281265191
      ],
      [
        "ir",
        -8.682492883537837
      ],
      [
        "French",
        -8.682584601743057
      ],
      [
        "set",
        -8.68505395551458
      ],
      [
        "World",
        -8.69008512854886
      ],
      [
        "am",
        -8.6931861840371
      ],
      [
        "son",
        -8.69680950743626
      ],
      [
        "line",
        -8.697410971636412
      ],
      [
        "self",
        -8.697447101370539
      ],
      [
        "same",
        -8.697538552635972
      ],
      [
        "ma",
        -8.703775529198198
      ],
      [
        "они",
        -8.704871967953636
      ],
      [
        "earl",
        -8.705232318223153
      ],
      [
        "often",
        -8.707501913954717
      ],
      [
        "Ка",
        -8.710270829679263
      ],
      [
        "could",
        -8.710947515145184
      ],
      [
        "common",
        -8.711224898485701
      ],
      [
        "example",
        -8.715418521244416
      ],
      [
        "ish",
        -8.71760416107816
      ],
      [
        "нов",
        -8.719093362413277
      ],
      [
        "вод",
        -8.723844113041316
      ],
      [
        "low",
        -8.728930001280533
      ],
      [
        "одно",
        -8.732029689613352
      ],
      [
        "second",
        -8.732834545813159
      ],
      [
        "bi",
        -8.735210547449297
      ],
      [
        "life",
        -8.735678565135034
      ],
      [
        "point",
        -8.73603283390249
      ],
      [
        "31",
        -8.736443266232001
      ],
      [
        "Так",
        -8.736542659616816
      ],
      [
        "before",
        -8.737308852649356
      ],
      [
        "ическо",
        -8.74091552426865
      ],
      [
        "без",
        -8.744140062099602
      ],
      [
        "территории",
        -8.749360333200062
      ],
      [
        "лен",
        -8.754631356366438
      ],
      [
        "тор",
        -8.755576802943644
      ],
      [
        "ship",
        -8.755962126695898
      ],
      [
        "поэт",
        -8.75622240532826
      ],
      [
        "long",
        -8.756924845813677
      ],
      [
        "области",
        -8.757685201437388
      ],
      [
        "back",
        -8.760587011894858
      ],
      [
        "40",
        -8.760843393329555
      ],
      [
        "will",
        -8.760946402491852
      ],
      [
        "Le",
        -8.762409423234988
      ],
      [
        "How",
        -8.762761009660371
      ],
      [
        "government",
        -8.763734472818369
      ],
      [
        "ан",
        -8.76525042034347
      ],
      [
        "ер",
        -8.765771861449766
      ],
      [
        "since",
        -8.767049107056412
      ],
      [
        "support",
        -8.768325382686607
      ],
      [
        "film",
        -8.768657070505483
      ],
      [
        "немецки",
        -8.77174875823187
      ],
      [
        "ten",
        -8.772345592922411
      ],
      [
        "может",
        -8.77336161649482
      ],
      [
        "французски",
        -8.774462233696983
      ],
      [
        "]",
        -8.780247652560433
      ],
      [
        "Ре",
        -8.781093824672341
      ],
      [
        "own",
        -8.786730249379922
      ],
      [
        "[",
        -8.787985151095905
      ],
      [
        "ha",
        -8.793257125345535
      ],
      [
        "кор",
        -8.793450552784794
      ],
      [
        "small",
        -8.795395756763124
      ],
      [
        "X",
        -8.795599621664147
      ],
      [
        "how",
        -8.797076197672247
      ],
      [
        "есть",
        -8.798120364257342
      ],
      [
        "состав",
        -8.798680204867331
      ],
      [
        "ными",
        -8.79903801441022
      ],
      [
        "бы",
        -8.79908869879955
      ],
      [
        "результат",
        -8.800036906874338
      ],
      [
        "работ",
        -8.800995751198183
      ],
      [
        "29",
        -8.80117892501147
      ],
      [
        "main",
        -8.804078047736098
      ],
      [
        "Александр",
        -8.80470587387435
      ],
      [
        "Z",
        -8.805213602535648
      ],
      [
        "против",
        -8.80585263542081
      ],
      [
        "котор",
        -8.809566846974176
      ],
      [
        "several",
        -8.813832200313323
      ],
      [
        "она",
        -8.815737583966719
      ],
      [
        "water",
        -8.820236370910951
      ],
      [
        "non",
        -8.821339833006604
      ],
      [
        "go",
        -8.822895911309576
      ],
      [
        "2010",
        -8.825034283128003
      ],
      [
        "ту",
        -8.82559132383552
      ],
      [
        "ty",
        -8.82622155181333
      ],
      [
        "196",
        -8.826687596150075
      ],
      [
        "é",
        -8.827647677511422
      ],
      [
        "ous",
        -8.829227475959298
      ],
      [
        "way",
        -8.832715595001092
      ],
      [
        "1990",
        -8.835240822326218
      ],
      [
        "power",
        -8.837096944514123
      ],
      [
        "2000",
        -8.837651761895922
      ],
      [
        "ность",
        -8.83932034382143
      ],
      [
        "воз",
        -8.840087753771261
      ],
      [
        "consider",
        -8.841810726260386
      ],
      [
        "ical",
        -8.84302505324724
      ],
      [
        "над",
        -8.843451537911967
      ],
      [
        "Франци",
        -8.84399151334941
      ],
      [
        "now",
        -8.84507682965225
      ],
      [
        "La",
        -8.848251276789098
      ],
      [
        "Ла",
        -8.85101231950468
      ],
      [
        "allow",
        -8.851477462110607
      ],
      [
        "remain",
        -8.852183622466654
      ],
      [
        "ca",
        -8.853803542800776
      ],
      [
        "72",
        -8.85564430952327
      ],
      [
        "место",
        -8.85598645363669
      ],
      [
        "До",
        -8.856186561133725
      ],
      [
        "где",
        -8.857690082211708
      ],
      [
        "ting",
        -8.862665959598601
      ],
      [
        "деятель",
        -8.862986474780918
      ],
      [
        "John",
        -8.863247177490065
      ],
      [
        "side",
        -8.86486222385541
      ],
      [
        "car",
        -8.866529945940918
      ],
      [
        "первый",
        -8.869301328474288
      ],
      [
        "прав",
        -8.870016427933951
      ],
      [
        "ён",
        -8.871682638888519
      ],
      [
        "ча",
        -8.872106583294626
      ],
      [
        "Х",
        -8.872705242950568
      ],
      [
        "ally",
        -8.876385829545239
      ],
      [
        "автор",
        -8.877023002375678
      ],
      [
        "University",
        -8.877788230457737
      ],
      [
        "ать",
        -8.877962743221408
      ],
      [
        "tri",
        -8.87802121855737
      ],
      [
        "ение",
        -8.879739088049973
      ],
      [
        "near",
        -8.881921790860998
      ],
      [
        "death",
        -8.882999852966051
      ],
      [
        "$",
        -8.883174807203098
      ],
      [
        "develop",
        -8.885035482807503
      ],
      [
        "2008",
        -8.88575570839099
      ],
      [
        "different",
        -8.885863725500132
      ],
      [
        "eries",
        -8.886122150682235
      ],
      [
        "em",
        -8.886211273943488
      ],
      [
        "ском",
        -8.886958022011267
      ],
      [
        "истори",
        -8.889535563399184
      ],
      [
        "Со",
        -8.891679957371888
      ],
      [
        "ese",
        -8.894986014042829
      ],
      [
        "государственны",
        -8.896139763180313
      ],
      [
        "off",
        -8.896663893664211
      ],
      [
        "design",
        -8.897243096022583
      ],
      [
        "author",
        -8.897911252499098
      ],
      [
        "ur",
        -8.899295052467762
      ],
      [
        "них",
        -8.899560804938673
      ],
      [
        "ник",
        -8.900599362871626
      ],
      [
        "great",
        -8.90153649060199
      ],
      [
        "order",
        -8.902034489979876
      ],
      [
        "even",
        -8.904818167534733
      ],
      [
        "four",
        -8.904823629890084
      ],
      [
        "ex",
        -8.90532516152518
      ],
      [
        "At",
        -8.905481234824551
      ],
      [
        "З",
        -8.905747342497447
      ],
      [
        "pre",
        -8.908338351978218
      ],
      [
        "эти",
        -8.908385038818984
      ],
      [
        "east",
        -8.908398904093364
      ],
      [
        "ним",
        -8.908926798879001
      ],
      [
        "театра",
        -8.909259500938068
      ],
      [
        "ход",
        -8.910058267388802
      ],
      [
        "Я",
        -8.910360389609373
      ],
      [
        "части",
        -8.913275804910157
      ],
      [
        "43",
        -8.91336761550492
      ],
      [
        "ance",
        -8.914447507318455
      ],
      [
        "Roman",
        -8.915401174827327
      ],
      [
        "лись",
        -8.915936978165096
      ],
      [
        "pro",
        -8.918698555493688
      ],
      [
        "III",
        -8.919044353328603
      ],
      [
        "2007",
        -8.920087596020524
      ],
      [
        "км",
        -8.92019672298513
      ],
      [
        "чемпион",
        -8.9211119322242
      ],
      [
        "Con",
        -8.92192453582164
      ],
      [
        "led",
        -8.923214840733092
      ],
      [
        "ние",
        -8.928522283679252
      ],
      [
        "field",
        -8.929298995027159
      ],
      [
        "There",
        -8.929600300262587
      ],
      [
        "мер",
        -8.93097630228709
      ],
      [
        "би",
        -8.93115920453033
      ],
      [
        "период",
        -8.932936332674112
      ],
      [
        "щи",
        -8.935216517210543
      ],
      [
        "did",
        -8.936235384869708
      ],
      [
        "XIX",
        -8.937087354848064
      ],
      [
        "Ар",
        -8.937433685017146
      ],
      [
        "va",
        -8.93979555223586
      ],
      [
        "Ro",
        -8.940846576402434
      ],
      [
        "ым",
        -8.941546706670945
      ],
      [
        "100",
        -8.942242202329373
      ],
      [
        "case",
        -8.942477108381768
      ],
      [
        "Ba",
        -8.94350083518237
      ],
      [
        "To",
        -8.943923611415421
      ],
      [
        "тель",
        -8.943925629261246
      ],
      [
        "ком",
        -8.945179349279512
      ],
      [
        "ge",
        -8.945295922780852
      ],
      [
        "2012",
        -8.946618197931407
      ],
      [
        "жи",
        -8.947860147777668
      ],
      [
        "ения",
        -8.9486852564502
      ],
      [
        "2011",
        -8.949728835557217
      ],
      [
        "2014",
        -8.949985783137182
      ],
      [
        "around",
        -8.950282538206418
      ],
      [
        "овой",
        -8.950973821295058
      ],
      [
        "art",
        -8.95333887027929
      ],
      [
        "vi",
        -8.953714574796049
      ],
      [
        "major",
        -8.954067386581775
      ],
      [
        "ван",
        -8.955728234350392
      ],
      [
        "ё",
        -8.956177058922309
      ],
      [
        "ant",
        -8.959031684012052
      ],
      [
        "sub",
        -8.959349997573632
      ],
      [
        "period",
        -8.96158645944219
      ],
      [
        "47",
        -8.963392985401537
      ],
      [
        "2013",
        -8.963813382462815
      ],
      [
        "2009",
        -8.964039352494092
      ],
      [
        "ard",
        -8.964646401359369
      ],
      [
        "last",
        -8.964909275443
      ],
      [
        "population",
        -8.965105880345467
      ],
      [
        "South",
        -8.965856694928846
      ],
      [
        "чере",
        -8.967677757353394
      ],
      [
        "ально",
        -8.967688256187696
      ],
      [
        "change",
        -8.97021372298375
      ],
      [
        "After",
        -8.971194590452805
      ],
      [
        "арми",
        -8.971314864874575
      ],
      [
        "ец",
        -8.971878468750308
      ],
      [
        "Am",
        -8.976116628804307
      ],
      [
        "ста",
        -8.97625486416752
      ],
      [
        "present",
        -8.976828203981851
      ],
      [
        "modern",
        -8.977323895378188
      ],
      [
        "she",
        -8.977938960906817
      ],
      [
        "Ма",
        -8.978375628407647
      ],
      [
        "район",
        -8.978631355655908
      ],
      [
        "born",
        -8.978819791711372
      ],
      [
        "Германи",
        -8.97964519049682
      ],
      [
        "60",
        -8.983142471523182
      ],
      [
        "жизн",
        -8.984023862369554
      ],
      [
        "ory",
        -8.985405861365054
      ],
      [
        "жа",
        -8.98570904445008
      ],
      [
        "j",
        -8.98788465182297
      ],
      [
        "late",
        -8.988678672870192
      ],
      [
        "country",
        -8.989153483684861
      ],
      [
        "46",
        -8.989422577377168
      ],
      [
        "После",
        -8.991014211740522
      ],
      [
        "2005",
        -8.991953094902755
      ],
      [
        "National",
        -8.992553731770334
      ],
      [
        "ities",
        -8.993044306106855
      ],
      [
        "ши",
        -8.9934623009127
      ],
      [
        "craft",
        -8.993510340513035
      ],
      [
        "сторон",
        -8.995645076486412
      ],
      [
        "вал",
        -8.995850599157206
      ],
      [
        "region",
        -8.997310259783603
      ],
      [
        "Ж",
        -8.999432142240488
      ],
      [
        "Greek",
        -8.999688575945713
      ],
      [
        "2006",
        -9.00006998227682
      ],
      [
        "those",
        -9.001128032331259
      ],
      [
        "65",
        -9.00225769031615
      ],
      [
        "ности",
        -9.002890374165293
      ],
      [
        "80",
        -9.004007211168284
      ],
      [
        "unti",
        -9.006237880707141
      ],
      [
        "XX",
        -9.007135890851309
      ],
      [
        "ци",
        -9.00795922528043
      ],
      [
        "сть",
        -9.008688341959152
      ],
      [
        "een",
        -9.010044017795312
      ],
      [
        "когда",
        -9.01056010624344
      ],
      [
        "Это",
        -9.010883534541678
      ],
      [
        "ское",
        -9.01275709166658
      ],
      [
        "among",
        -9.013596162697592
      ],
      [
        "военны",
        -9.015546629546051
      ],
      [
        "million",
        -9.020065096347999
      ],
      [
        "1980",
        -9.020373274246587
      ],
      [
        "home",
        -9.022511084465592
      ],
      [
        "33",
        -9.023776215273505
      ],
      [
        "всех",
        -9.023794876289942
      ],
      [
        "ров",
        -9.024892290640592
      ],
      [
        "мен",
        -9.026842618727358
      ],
      [
        "ium",
        -9.027510914357102
      ],
      [
        "take",
        -9.027795597185172
      ],
      [
        "быть",
        -9.02782682565619
      ],
      [
        "день",
        -9.027951837903966
      ],
      [
        "ness",
        -9.028666273040798
      ],
      [
        "ig",
        -9.02904617929924
      ],
      [
        "Из",
        -9.029215537029875
      ],
      [
        "дел",
        -9.030590118144286
      ],
      [
        "Ли",
        -9.03059344092652
      ],
      [
        "чем",
        -9.034615900218363
      ],
      [
        "public",
        -9.036389184220898
      ],
      [
        "king",
        -9.036811537277064
      ],
      [
        "иль",
        -9.038227187879361
      ],
      [
        "Де",
        -9.039299451163565
      ],
      [
        "ещё",
        -9.039384859732413
      ],
      [
        "ve",
        -9.040234348757776
      ],
      [
        "ают",
        -9.041549051803589
      ],
      [
        "show",
        -9.041846941493368
      ],
      [
        "центр",
        -9.042343213559384
      ],
      [
        "преми",
        -9.04339325496273
      ],
      [
        "ряд",
        -9.044078717206762
      ],
      [
        "we",
        -9.044095492821857
      ],
      [
        "тем",
        -9.045813840947375
      ],
      [
        "Москв",
        -9.046253200311629
      ],
      [
        "book",
        -9.046596718847459
      ],
      [
        "due",
        -9.04832344543647
      ],
      [
        "light",
        -9.048448986163036
      ],
      [
        "культур",
        -9.04879934672234
      ],
      [
        "89",
        -9.04933153656177
      ],
      [
        "Ш",
        -9.051962337238113
      ],
      [
        "head",
        -9.052635396463
      ],
      [
        "om",
        -9.052710186929717
      ],
      [
        "ды",
        -9.054100916614393
      ],
      [
        "перво",
        -9.05430096306953
      ],
      [
        "свои",
        -9.05492728010502
      ],
      [
        "using",
        -9.058364675272834
      ],
      [
        "position",
        -9.059604589539433
      ],
      [
        "North",
        -9.061692953565554
      ],
      [
        "live",
        -9.062868850931395
      ],
      [
        "wide",
        -9.06294210221736
      ],
      [
        "2020",
        -9.064217733445025
      ],
      [
        "цы",
        -9.065234241855597
      ],
      [
        "direct",
        -9.065251768777046
      ],
      [
        "2017",
        -9.065755338629867
      ],
      [
        "ized",
        -9.065833842891909
      ],
      [
        "Ю",
        -9.066315071907262
      ],
      [
        "ским",
        -9.06669140826622
      ],
      [
        "мир",
        -9.067213462780538
      ],
      [
        "Ба",
        -9.067511659238585
      ],
      [
        "само",
        -9.06810126618511
      ],
      [
        "вед",
        -9.06819164031459
      ],
      [
        "service",
        -9.068435786194701
      ],
      [
        "US",
        -9.07021820266224
      ],
      [
        "2004",
        -9.070617664286509
      ],
      [
        "still",
        -9.070753849288806
      ],
      [
        "much",
        -9.072583511588016
      ],
      [
        "новы",
        -9.07321369024152
      ],
      [
        "являют",
        -9.073214576219062
      ],
      [
        "Про",
        -9.073473049182859
      ],
      [
        "BC",
        -9.074159947627356
      ],
      [
        "многи",
        -9.074465533317056
      ],
      [
        "2018",
        -9.075744341512635
      ],
      [
        "space",
        -9.076259661968306
      ],
      [
        "времени",
        -9.078504410435333
      ],
      [
        "release",
        -9.07983952486353
      ],
      [
        "мире",
        -9.082257677963273
      ],
      [
        "70",
        -9.083499238884013
      ],
      [
        "83",
        -9.083714668928948
      ],
      [
        "имеет",
        -9.083948322372564
      ],
      [
        "2015",
        -9.084311765523593
      ],
      [
        "49",
        -9.084484834381584
      ],
      [
        "what",
        -9.084508533173079
      ],
      [
        "Some",
        -9.085952611672013
      ],
      [
        "rate",
        -9.086176317817905
      ],
      [
        "наук",
        -9.0864265774911
      ],
      [
        "tra",
        -9.08682101757563
      ],
      [
        "уже",
        -9.087285470580259
      ],
      [
        "pp",
        -9.088098729611408
      ],
      [
        "op",
        -9.088733093207098
      ],
      [
        "теле",
        -9.091533341603526
      ],
      [
        "very",
        -9.093175023679176
      ],
      [
        "член",
        -9.093285949731268
      ],
      [
        "Co",
        -9.093729088702926
      ],
      [
        "2016",
        -9.094735686226127
      ],
      [
        "ak",
        -9.094931511706307
      ],
      [
        "iv",
        -9.096261327352408
      ],
      [
        "бер",
        -9.096297888337341
      ],
      [
        "ut",
        -9.096496387911484
      ],
      [
        "Ц",
        -9.09728258755856
      ],
      [
        "These",
        -9.098196705503018
      ],
      [
        "return",
        -9.104510826250028
      ],
      [
        "establish",
        -9.104632195172684
      ],
      [
        "56",
        -9.104720276381855
      ],
      [
        "ke",
        -9.105051441474611
      ],
      [
        "ga",
        -9.106482747544334
      ],
      [
        "суд",
        -9.10732662997545
      ],
      [
        "ём",
        -9.107948347948806
      ],
      [
        "Ha",
        -9.108351567428187
      ],
      [
        "перв",
        -9.108699281140414
      ],
      [
        "appear",
        -9.109172898150142
      ],
      [
        "publish",
        -9.109491705755783
      ],
      [
        "ще",
        -9.109927729464502
      ],
      [
        "философ",
        -9.11209268175276
      ],
      [
        "ич",
        -9.112633425436588
      ],
      [
        "лин",
        -9.112745425174257
      ],
      [
        "They",
        -9.114942902857223
      ],
      [
        "short",
        -9.117103481239493
      ],
      [
        "память",
        -9.117179181314757
      ],
      [
        "bar",
        -9.117495935506078
      ],
      [
        "86",
        -9.118946606905048
      ],
      [
        "old",
        -9.120227367769129
      ],
      [
        "дер",
        -9.120420064388174
      ],
      [
        "ial",
        -9.122032452847613
      ],
      [
        "скую",
        -9.12364200927215
      ],
      [
        "198",
        -9.125149589815896
      ],
      [
        "po",
        -9.126535828104151
      ],
      [
        "сон",
        -9.12845546340214
      ],
      [
        "полно",
        -9.12911798138597
      ],
      [
        "history",
        -9.12952550118516
      ],
      [
        "языка",
        -9.131108455375372
      ],
      [
        "contain",
        -9.131343323742863
      ],
      [
        "лось",
        -9.131443732231375
      ],
      [
        "58",
        -9.133074731065024
      ],
      [
        "министр",
        -9.133975123174222
      ],
      [
        "area",
        -9.135387246681576
      ],
      [
        "Во",
        -9.135717357340344
      ],
      [
        "2001",
        -9.135922531851627
      ],
      [
        "following",
        -9.13840930991431
      ],
      [
        "народны",
        -9.13987085290439
      ],
      [
        "композитор",
        -9.140821975851177
      ],
      [
        "можно",
        -9.141032974420328
      ],
      [
        "popular",
        -9.141978737109454
      ],
      [
        "ёр",
        -9.142985486703672
      ],
      [
        "Па",
        -9.144768333355772
      ],
      [
        "фи",
        -9.144947413254203
      ],
      [
        "Ar",
        -9.145139715010233
      ],
      [
        "Na",
        -9.146691586749629
      ],
      [
        "Ко",
        -9.146768093478176
      ],
      [
        "ho",
        -9.148671179385442
      ],
      [
        "нескольк",
        -9.150402368372411
      ],
      [
        "числе",
        -9.151132133831986
      ],
      [
        "right",
        -9.151740098052908
      ],
      [
        "our",
        -9.154005574540198
      ],
      [
        "1960",
        -9.15405451245908
      ],
      [
        "link",
        -9.155354166471302
      ],
      [
        "вин",
        -9.155588279219039
      ],
      [
        "художник",
        -9.156186210953377
      ],
      [
        "вший",
        -9.156279662121202
      ],
      [
        "ions",
        -9.157306156334073
      ],
      [
        "два",
        -9.157758035873972
      ],
      [
        "физик",
        -9.158132832170342
      ],
      [
        "Man",
        -9.159582415586831
      ],
      [
        "тысяч",
        -9.160868872632408
      ],
      [
        "мест",
        -9.160985631289229
      ],
      [
        "His",
        -9.161160854968873
      ],
      [
        "similar",
        -9.16161995924751
      ],
      [
        "английски",
        -9.161979059557957
      ],
      [
        "game",
        -9.162094474941629
      ],
      [
        "фон",
        -9.162275448184786
      ],
      [
        "2019",
        -9.163081231318342
      ],
      [
        "военно",
        -9.165212874736236
      ],
      [
        "ша",
        -9.166261517246712
      ],
      [
        "программ",
        -9.1667554069114
      ],
      [
        "team",
        -9.166842598197015
      ],
      [
        "increase",
        -9.167083543819446
      ],
      [
        "York",
        -9.167479696069147
      ],
      [
        "ll",
        -9.169719726760158
      ],
      [
        "Союз",
        -9.169996968827071
      ],
      [
        "Bo",
        -9.170419899398727
      ],
      [
        "власти",
        -9.172481684228156
      ],
      [
        "пер",
        -9.172932385648767
      ],
      [
        "ща",
        -9.173243886026118
      ],
      [
        "форм",
        -9.173942412848906
      ],
      [
        "мор",
        -9.17675183542514
      ],
      [
        "Apollo",
        -9.176933191784642
      ],
      [
        "гор",
        -9.178079441740898
      ],
      [
        "2003",
        -9.179694293692204
      ],
      [
        "start",
        -9.18083738951374
      ],
      [
        "парти",
        -9.181048301888366
      ],
      [
        "некоторы",
        -9.181195614480696
      ],
      [
        "down",
        -9.18160958614137
      ],
      [
        "Ra",
        -9.181912014834051
      ],
      [
        "закон",
        -9.182252228636495
      ],
      [
        "пл",
        -9.184092574679958
      ],
      [
        "ген",
        -9.185052742816723
      ],
      [
        "text",
        -9.185133677634326
      ],
      [
        "двух",
        -9.18756574466617
      ],
      [
        "ью",
        -9.187654276399762
      ],
      [
        "День",
        -9.18843172249126
      ],
      [
        "ден",
        -9.188499199289879
      ],
      [
        "pe",
        -9.190692510240158
      ],
      [
        "тыс",
        -9.192551244580311
      ],
      [
        "along",
        -9.19361966608789
      ],
      [
        "Br",
        -9.193652906347005
      ],
      [
        "anti",
        -9.195272949613333
      ],
      [
        "der",
        -9.19534274683857
      ],
      [
        "produce",
        -9.195951880197041
      ],
      [
        "политик",
        -9.197076464926361
      ],
      [
        "́",
        -9.198361196822056
      ],
      [
        "Ку",
        -9.198533703499013
      ],
      [
        "ber",
        -9.198892268387386
      ],
      [
        "school",
        -9.200110524345032
      ],
      [
        "ball",
        -9.200117478747618
      ],
      [
        "импери",
        -9.20068581072502
      ],
      [
        "human",
        -9.20089374675128
      ],
      [
        "provide",
        -9.200977511700229
      ],
      [
        "Sa",
        -9.201115336810311
      ],
      [
        "много",
        -9.201267376575244
      ],
      [
        "стью",
        -9.201285823236152
      ],
      [
        "граф",
        -9.20384513537608
      ],
      [
        "генерал",
        -9.204455958457453
      ],
      [
        "May",
        -9.204933328398361
      ],
      [
        "ius",
        -9.205662492436533
      ],
      [
        "Ma",
        -9.205725465475286
      ],
      [
        "всего",
        -9.207118094331399
      ],
      [
        "государства",
        -9.20738096771628
      ],
      [
        "премьер",
        -9.207408687660728
      ],
      [
        "годов",
        -9.208083484747739
      ],
      [
        "59",
        -9.208653343763014
      ],
      [
        "Категория",
        -9.209039196297523
      ],
      [
        "range",
        -9.209131613724502
      ],
      [
        "Arm",
        -9.210286132461206
      ],
      [
        "ическ",
        -9.211038880304173
      ],
      [
        "left",
        -9.211131451992209
      ],
      [
        "ill",
        -9.21198706824897
      ],
      [
        "body",
        -9.212305703128692
      ],
      [
        "national",
        -9.214115485790334
      ],
      [
        "single",
        -9.214275673066405
      ],
      [
        "Республик",
        -9.216000102068454
      ],
      [
        "орган",
        -9.216490771870511
      ],
      [
        "ран",
        -9.217471745051995
      ],
      [
        "2002",
        -9.218545772891538
      ],
      [
        "version",
        -9.21871629065927
      ],
      [
        "Mo",
        -9.21908122625961
      ],
      [
        "Он",
        -9.219359690631965
      ],
      [
        "месте",
        -9.220271267551023
      ],
      [
        "артист",
        -9.221515462976406
      ],
      [
        "ду",
        -9.221743179363504
      ],
      [
        "family",
        -9.224253948848222
      ],
      [
        "source",
        -9.225015712457687
      ],
      [
        "close",
        -9.225106802604547
      ],
      [
        "бр",
        -9.225907545526162
      ],
      [
        "follow",
        -9.226801711454968
      ],
      [
        "мин",
        -9.22731591431066
      ],
      [
        "list",
        -9.227505170202281
      ],
      [
        "European",
        -9.227729358157156
      ],
      [
        "Российско",
        -9.227842005978292
      ],
      [
        "ice",
        -9.227887038737258
      ],
      [
        "1999",
        -9.22824301124911
      ],
      [
        "inter",
        -9.228710076635508
      ],
      [
        "литератур",
        -9.231824742279986
      ],
      [
        "Dur",
        -9.232359446166726
      ],
      [
        "78",
        -9.234234545407512
      ],
      [
        "function",
        -9.235172459448865
      ],
      [
        "сен",
        -9.236016242449162
      ],
      [
        "God",
        -9.236018639385726
      ],
      [
        "effect",
        -9.236486887360186
      ],
      [
        "important",
        -9.236715015706444
      ],
      [
        "кар",
        -9.23703303965769
      ],
      [
        "Li",
        -9.239183476185381
      ],
      [
        "particular",
        -9.239281821164072
      ],
      [
        "former",
        -9.23945685575881
      ],
      [
        "Ч",
        -9.23967100335102
      ],
      [
        "Church",
        -9.239703285760882
      ],
      [
        "ger",
        -9.239925646526991
      ],
      [
        "pa",
        -9.241610937504035
      ],
      [
        "Ле",
        -9.242363248097782
      ],
      [
        "development",
        -9.242943508183796
      ],
      [
        "politician",
        -9.245261843302309
      ],
      [
        "militar",
        -9.245612489235764
      ],
      [
        "level",
        -9.24796087191562
      ],
      [
        "человека",
        -9.247961720116951
      ],
      [
        "open",
        -9.24918980438095
      ],
      [
        "Мо",
        -9.250106805094186
      ],
      [
        "Украин",
        -9.250751120661526
      ],
      [
        "complete",
        -9.251144290730595
      ],
      [
        "local",
        -9.25116058181768
      ],
      [
        "ck",
        -9.253081210165224
      ],
      [
        "ства",
        -9.253428744969298
      ],
      [
        "&",
        -9.255394046641833
      ],
      [
        "ier",
        -9.255599665641425
      ],
      [
        "season",
        -9.256114014928187
      ],
      [
        "pl",
        -9.258133622268566
      ],
      [
        "95",
        -9.258275571712815
      ],
      [
        "various",
        -9.260142077600443
      ],
      [
        "usual",
        -9.261153735795062
      ],
      [
        "red",
        -9.261989476645027
      ],
      [
        "образ",
        -9.26321793106371
      ],
      [
        "Pro",
        -9.263232774441128
      ],
      [
        "Га",
        -9.265140530267221
      ],
      [
        "97",
        -9.265797778651898
      ],
      [
        "вар",
        -9.267449895088966
      ],
      [
        "ka",
        -9.268108960887218
      ],
      [
        "Christian",
        -9.268775645365245
      ],
      [
        "лась",
        -9.271384159624727
      ],
      [
        "ников",
        -9.274972096119342
      ],
      [
        "книг",
        -9.275054155644641
      ],
      [
        "1992",
        -9.275847842733778
      ],
      [
        "rote",
        -9.27646073909239
      ],
      [
        "2021",
        -9.277620316646987
      ],
      [
        "Бо",
        -9.278339659700801
      ],
      [
        "ver",
        -9.278593546293486
      ],
      [
        "обще",
        -9.2788839457132
      ],
      [
        "69",
        -9.279571056259904
      ],
      [
        "мене",
        -9.280955164468477
      ],
      [
        "said",
        -9.283913462096695
      ],
      [
        "Other",
        -9.284453479066986
      ],
      [
        "pass",
        -9.284583818049658
      ],
      [
        "политически",
        -9.284634832642492
      ],
      [
        "final",
        -9.28550462561197
      ],
      [
        "метод",
        -9.285784765776127
      ],
      [
        "Примечани",
        -9.287978866247999
      ],
      [
        "ster",
        -9.288842120454454
      ],
      [
        "claim",
        -9.289642943534787
      ],
      [
        "ирован",
        -9.289662762014714
      ],
      [
        "!",
        -9.289745249672043
      ],
      [
        "ley",
        -9.289953762263021
      ],
      [
        "make",
        -9.29024740963181
      ],
      [
        "act",
        -9.291008499092165
      ],
      [
        "выбор",
        -9.29104125955649
      ],
      [
        "given",
        -9.291525497883349
      ],
      [
        "took",
        -9.291544126564325
      ],
      [
        "style",
        -9.292952560793125
      ],
      [
        "element",
        -9.292966985850653
      ],
      [
        "тон",
        -9.293498023221723
      ],
      [
        "specie",
        -9.293821894649351
      ],
      [
        "che",
        -9.293946260043182
      ],
      [
        "ру",
        -9.294692713859906
      ],
      [
        "Ho",
        -9.295326590120169
      ],
      [
        "качестве",
        -9.296533408442443
      ],
      [
        "music",
        -9.296811268479132
      ],
      [
        "production",
        -9.297973483631086
      ],
      [
        "another",
        -9.299440040498766
      ],
      [
        "анти",
        -9.301258733284913
      ],
      [
        "лн",
        -9.302848600813565
      ],
      [
        "According",
        -9.303105525928753
      ],
      [
        "РС",
        -9.303226237193009
      ],
      [
        "остров",
        -9.30382963171484
      ],
      [
        "hi",
        -9.304149748292271
      ],
      [
        "котором",
        -9.304364136832477
      ],
      [
        "tro",
        -9.3053067565376
      ],
      [
        "школ",
        -9.305569521526845
      ],
      [
        "town",
        -9.30679089661842
      ],
      [
        "связи",
        -9.30838762661275
      ],
      [
        "feature",
        -9.310127071784727
      ],
      [
        "law",
        -9.310574777559907
      ],
      [
        "корол",
        -9.310879946875254
      ],
      [
        "ru",
        -9.310893764932189
      ],
      [
        "process",
        -9.31096628094948
      ],
      [
        "When",
        -9.311382324085521
      ],
      [
        "official",
        -9.311660388202032
      ],
      [
        "правительство",
        -9.312272564909659
      ],
      [
        "see",
        -9.313504642742531
      ],
      [
        "Владимир",
        -9.314051495597322
      ],
      [
        "тр",
        -9.315729566381378
      ],
      [
        "Y",
        -9.316323349918044
      ],
      [
        "By",
        -9.31703155003138
      ],
      [
        "mean",
        -9.317243175705752
      ],
      [
        "Европ",
        -9.317804465842768
      ],
      [
        "influence",
        -9.32006916394722
      ],
      [
        "larges",
        -9.322019913287878
      ],
      [
        "ировал",
        -9.322266447098034
      ],
      [
        "сам",
        -9.322277717295544
      ],
      [
        "held",
        -9.322495564893797
      ],
      [
        "75",
        -9.32273703284164
      ],
      [
        "От",
        -9.32304833763123
      ],
      [
        "become",
        -9.323745185078812
      ],
      [
        "организаци",
        -9.324296250307015
      ],
      [
        "ither",
        -9.325560698937073
      ],
      [
        "1994",
        -9.326724602401157
      ],
      [
        "political",
        -9.328486692862455
      ],
      [
        "67",
        -9.3295566111765
      ],
      [
        "расположен",
        -9.33071313187896
      ],
      [
        "гу",
        -9.33129858756458
      ],
      [
        "model",
        -9.33230514510349
      ],
      [
        "turn",
        -9.332329968723545
      ],
      [
        "однако",
        -9.332492271728116
      ],
      [
        "cy",
        -9.332630381027688
      ],
      [
        "house",
        -9.332835835102891
      ],
      [
        "себя",
        -9.333144689782925
      ],
      [
        "право",
        -9.333605085693188
      ],
      [
        "развити",
        -9.33389775607521
      ],
      [
        "96",
        -9.334196325518262
      ],
      [
        "den",
        -9.334900264605611
      ],
      [
        "война",
        -9.335593484003025
      ],
      [
        "mi",
        -9.335839324378295
      ],
      [
        "Me",
        -9.336711221149452
      ],
      [
        "создан",
        -9.336758775492694
      ],
      [
        "One",
        -9.337307715233509
      ],
      [
        "1945",
        -9.33733035363496
      ],
      [
        "cl",
        -9.339236890351428
      ],
      [
        "пар",
        -9.339712169261901
      ],
      [
        "днако",
        -9.339928125996412
      ],
      [
        "Да",
        -9.340248887018966
      ],
      [
        "тар",
        -9.340469972264765
      ],
      [
        "West",
        -9.342441125897267
      ],
      [
        "теори",
        -9.342717521805959
      ],
      [
        "1970",
        -9.344308939782572
      ],
      [
        "Великобритани",
        -9.344759119615645
      ],
      [
        "Alexander",
        -9.34476144275077
      ],
      [
        "record",
        -9.346427717876683
      ],
      [
        "виде",
        -9.347615238210256
      ],
      [
        "Japan",
        -9.347658660221251
      ],
      [
        "Europe",
        -9.348819234382926
      ],
      [
        "вые",
        -9.350467195185324
      ],
      [
        "August",
        -9.352154285041735
      ],
      [
        "Australian",
        -9.355985196250156
      ],
      [
        "лишь",
        -9.356713796670658
      ],
      [
        "ling",
        -9.357174273251147
      ],
      [
        "Do",
        -9.358231568341985
      ],
      [
        "few",
        -9.358295419622301
      ],
      [
        "tion",
        -9.35865455455865
      ],
      [
        "Ло",
        -9.359084757244721
      ],
      [
        "ritten",
        -9.360310189030981
      ],
      [
        "бес",
        -9.360879627571926
      ],
      [
        "собо",
        -9.360888997411912
      ],
      [
        "тур",
        -9.361330858101034
      ],
      [
        "possibl",
        -9.3629531922622
      ],
      [
        "Act",
        -9.363809526722694
      ],
      [
        "фа",
        -9.363923936739802
      ],
      [
        "Ex",
        -9.36492640183075
      ],
      [
        "лу",
        -9.36580455942434
      ],
      [
        "1998",
        -9.365973282463298
      ],
      [
        "ющих",
        -9.366084984358686
      ],
      [
        "actor",
        -9.369716785029741
      ],
      [
        "IV",
        -9.369803091002279
      ],
      [
        "начала",
        -9.369966382381143
      ],
      [
        "strong",
        -9.370826174618362
      ],
      [
        "states",
        -9.375822305797984
      ],
      [
        "She",
        -9.377753922927583
      ],
      [
        "mer",
        -9.378263601717045
      ],
      [
        "стро",
        -9.379828323756923
      ],
      [
        "второ",
        -9.380216061237642
      ],
      [
        "ner",
        -9.38067709122451
      ],
      [
        "Кон",
        -9.380848239464
      ],
      [
        "free",
        -9.381483187833485
      ],
      [
        "городе",
        -9.382072453245367
      ],
      [
        "огут",
        -9.382196359198058
      ],
      [
        "2022",
        -9.382865148313739
      ],
      [
        "Mar",
        -9.383709875628309
      ],
      [
        "дом",
        -9.384038097534626
      ],
      [
        "test",
        -9.384260304890464
      ],
      [
        "les",
        -9.385214251342205
      ],
      [
        "original",
        -9.385236808204944
      ],
      [
        "value",
        -9.385354632290987
      ],
      [
        "ца",
        -9.385379016092195
      ],
      [
        "сли",
        -9.385793042730521
      ],
      [
        "рд",
        -9.386320302479577
      ],
      [
        "acid",
        -9.386759648000478
      ],
      [
        "дал",
        -9.387878402968745
      ],
      [
        "чь",
        -9.387935977521131
      ],
      [
        "государственно",
        -9.387969911511597
      ],
      [
        "election",
        -9.388642217525355
      ],
      [
        "third",
        -9.389217035683505
      ],
      [
        "control",
        -9.390205203078862
      ],
      [
        "five",
        -9.391602744936264
      ],
      [
        "ступ",
        -9.392502954841088
      ],
      [
        "тельно",
        -9.392626617978754
      ],
      [
        "став",
        -9.392708726275291
      ],
      [
        "built",
        -9.393117342212907
      ],
      [
        "product",
        -9.393167640123565
      ],
      [
        "Ab",
        -9.393881208721888
      ],
      [
        "чески",
        -9.394202195223118
      ],
      [
        "Кар",
        -9.395077960282432
      ],
      [
        "America",
        -9.395426829120535
      ],
      [
        "вопрос",
        -9.395572765625737
      ],
      [
        "88",
        -9.396557152101337
      ],
      [
        "Ne",
        -9.396925249604362
      ],
      [
        "?",
        -9.39704920732844
      ],
      [
        "word",
        -9.398570623258646
      ],
      [
        "цен",
        -9.399233473258036
      ],
      [
        "лю",
        -9.39944447155463
      ],
      [
        "describe",
        -9.40017197177341
      ],
      [
        "сценарист",
        -9.400502596378528
      ],
      [
        "role",
        -9.40131487414339
      ],
      [
        "различны",
        -9.401588682251273
      ],
      [
        "название",
        -9.401822633301204
      ],
      [
        "1993",
        -9.402409674284645
      ],
      [
        "90",
        -9.40263814583733
      ],
      [
        "members",
        -9.40294273102548
      ],
      [
        "енно",
        -9.402945172503493
      ],
      [
        "тел",
        -9.40353515381868
      ],
      [
        "Cl",
        -9.405536145314073
      ],
      [
        "1920",
        -9.406195036063071
      ],
      [
        "цев",
        -9.406420735503598
      ],
      [
        "острова",
        -9.406616354526175
      ],
      [
        "щ",
        -9.407752861305706
      ],
      [
        "Су",
        -9.407761957646203
      ],
      [
        "William",
        -9.408939437272004
      ],
      [
        "computer",
        -9.409180874051625
      ],
      [
        "pi",
        -9.409318948366822
      ],
      [
        "войска",
        -9.410090110366014
      ],
      [
        "Об",
        -9.410517464614216
      ],
      [
        "35",
        -9.411959901338573
      ],
      [
        "need",
        -9.412306269256359
      ],
      [
        "ā",
        -9.412434125852123
      ],
      [
        "hand",
        -9.412756689448354
      ],
      [
        "составляет",
        -9.413497912006942
      ],
      [
        "сь",
        -9.414225014498516
      ],
      [
        "этот",
        -9.414333321650362
      ],
      [
        "труд",
        -9.41443656451418
      ],
      [
        "тан",
        -9.414612863311588
      ],
      [
        "suggest",
        -9.4149378927364
      ],
      [
        "fire",
        -9.415410990361895
      ],
      [
        "England",
        -9.415439535631158
      ],
      [
        "structure",
        -9.416462036175037
      ],
      [
        "ite",
        -9.417365845249574
      ],
      [
        "significant",
        -9.417818183589029
      ],
      [
        "лауреат",
        -9.418453707867531
      ],
      [
        "Black",
        -9.418953445181224
      ],
      [
        "ФСР",
        -9.41895846386581
      ],
      [
        "mid",
        -9.419025727915107
      ],
      [
        "ему",
        -9.420296463211717
      ],
      [
        "07",
        -9.42069964351964
      ],
      [
        "cover",
        -9.421113828778982
      ],
      [
        "эн",
        -9.42124477851275
      ],
      [
        "Ро",
        -9.421455304480052
      ],
      [
        "альны",
        -9.421660717093022
      ],
      [
        "кан",
        -9.421725732857922
      ],
      [
        "met",
        -9.423670375023907
      ],
      [
        "ists",
        -9.424196053725352
      ],
      [
        "every",
        -9.426280764033102
      ],
      [
        "режиссёр",
        -9.426822218193745
      ],
      [
        "times",
        -9.427493088662887
      ],
      [
        "type",
        -9.427742056385062
      ],
      [
        "стране",
        -9.42783827501804
      ],
      [
        "ъ",
        -9.428548377755558
      ],
      [
        "вид",
        -9.428646279924136
      ],
      [
        "exist",
        -9.42970560829471
      ],
      [
        "Ka",
        -9.429964575689581
      ],
      [
        "du",
        -9.429994588657912
      ],
      [
        "plant",
        -9.431560359329083
      ],
      [
        "1930",
        -9.434769983228723
      ],
      [
        "ler",
        -9.435835474413082
      ],
      [
        "бл",
        -9.437196417497686
      ],
      [
        "International",
        -9.439352958254574
      ],
      [
        "issue",
        -9.439377196436952
      ],
      [
        "action",
        -9.43945682999341
      ],
      [
        "пол",
        -9.439705810339778
      ],
      [
        "attempt",
        -9.440327947975714
      ],
      [
        "ович",
        -9.440408700115576
      ],
      [
        "если",
        -9.440502210493388
      ],
      [
        "Pa",
        -9.441073834087431
      ],
      [
        "план",
        -9.441706330368028
      ],
      [
        "works",
        -9.441942985252801
      ],
      [
        "real",
        -9.442125080760666
      ],
      [
        "основан",
        -9.443321748206607
      ],
      [
        "run",
        -9.443324740595468
      ],
      [
        "ики",
        -9.443448594065385
      ],
      [
        "63",
        -9.443883507491147
      ],
      [
        "Sea",
        -9.44420676974095
      ],
      [
        "це",
        -9.444860783759843
      ],
      [
        "Ch",
        -9.445249837143718
      ],
      [
        "начало",
        -9.445393148433062
      ],
      [
        "дат",
        -9.445412789815546
      ],
      [
        "либо",
        -9.445429835468653
      ],
      [
        "ющие",
        -9.44637727325977
      ],
      [
        "Ca",
        -9.446900377331097
      ],
      [
        "History",
        -9.447057834959711
      ],
      [
        "среди",
        -9.448304985872017
      ],
      [
        "program",
        -9.448351322550923
      ],
      [
        "пор",
        -9.448371750915316
      ],
      [
        "ence",
        -9.449361807173783
      ],
      [
        "ющий",
        -9.45086770754547
      ],
      [
        "1918",
        -9.451384707260482
      ],
      [
        "Bar",
        -9.451974639929208
      ],
      [
        "King",
        -9.452098524103661
      ],
      [
        "ountries",
        -9.452719626922274
      ],
      [
        "bit",
        -9.452803352805455
      ],
      [
        "Ра",
        -9.452983408288393
      ],
      [
        "отношения",
        -9.453917936801481
      ],
      [
        "бу",
        -9.454164008180339
      ],
      [
        "порт",
        -9.454176887501365
      ],
      [
        "ева",
        -9.454992175158281
      ],
      [
        "September",
        -9.456397248325963
      ],
      [
        "сло",
        -9.457327181625695
      ],
      [
        "having",
        -9.457446889429018
      ],
      [
        "сто",
        -9.45753600186421
      ],
      [
        "вою",
        -9.457662023843326
      ],
      [
        "принял",
        -9.457663775959373
      ],
      [
        "учёны",
        -9.459024237100504
      ],
      [
        "образо",
        -9.46033200676862
      ],
      [
        "певиц",
        -9.460591910992612
      ],
      [
        "min",
        -9.460600963909062
      ],
      [
        "38",
        -9.461427707399906
      ],
      [
        "Union",
        -9.461941160316885
      ],
      [
        "ham",
        -9.462284528477646
      ],
      [
        "Но",
        -9.462350324649297
      ],
      [
        "самы",
        -9.46282885938102
      ],
      [
        "ул",
        -9.464731991454006
      ],
      [
        "natural",
        -9.465849808845352
      ],
      [
        "operation",
        -9.466231564121017
      ],
      [
        "my",
        -9.466806047467866
      ],
      [
        "уд",
        -9.467160642627974
      ],
      [
        "sign",
        -9.467233285032286
      ],
      [
        "und",
        -9.467284132687865
      ],
      [
        "32",
        -9.46922178472487
      ],
      [
        "вен",
        -9.469562136365546
      ],
      [
        "200",
        -9.469578192740151
      ],
      [
        "total",
        -9.471463010805554
      ],
      [
        "view",
        -9.472487641455103
      ],
      [
        "April",
        -9.47432628682704
      ],
      [
        "Day",
        -9.474703410816986
      ],
      [
        "does",
        -9.476143064019453
      ],
      [
        "Ан",
        -9.476449903311273
      ],
      [
        "person",
        -9.478290306439636
      ],
      [
        "04",
        -9.478514731542287
      ],
      [
        "али",
        -9.480297220303619
      ],
      [
        "culture",
        -9.481882916172047
      ],
      [
        "Дл",
        -9.481932912793916
      ],
      [
        "итальянски",
        -9.482588348347278
      ],
      [
        "Джон",
        -9.48264674200485
      ],
      [
        "мирово",
        -9.483462368740497
      ],
      [
        "Пол",
        -9.484205299303708
      ],
      [
        "Su",
        -9.484483646274782
      ],
      [
        "больше",
        -9.485563783528889
      ],
      [
        "Se",
        -9.485913843279198
      ],
      [
        "пр",
        -9.485973196891255
      ],
      [
        "кой",
        -9.486852328555276
      ],
      [
        "система",
        -9.48700734921076
      ],
      [
        "London",
        -9.488256036476356
      ],
      [
        "ology",
        -9.488947423045456
      ],
      [
        "слов",
        -9.48895432114941
      ],
      [
        "кин",
        -9.48900411406735
      ],
      [
        "большо",
        -9.489140206638842
      ],
      [
        "lu",
        -9.489904855336999
      ],
      [
        "ile",
        -9.490463948015481
      ],
      [
        "pr",
        -9.49046442948469
      ],
      [
        "stead",
        -9.490548634407574
      ],
      [
        "ред",
        -9.491441103887633
      ],
      [
        "ves",
        -9.491889484247928
      ],
      [
        "ёт",
        -9.492079632905043
      ],
      [
        "singer",
        -9.49256131027839
      ],
      [
        "reach",
        -9.492786440728043
      ],
      [
        "ap",
        -9.493075837150506
      ],
      [
        "нных",
        -9.49356116618582
      ],
      [
        "55",
        -9.493635922788364
      ],
      [
        "1940",
        -9.49395647323781
      ],
      [
        "Air",
        -9.495005190596721
      ],
      [
        "help",
        -9.495367256321202
      ],
      [
        "известны",
        -9.495926480047405
      ],
      [
        "title",
        -9.496062581331246
      ],
      [
        "стали",
        -9.496392576774994
      ],
      [
        "represent",
        -9.496805836247635
      ],
      [
        "Her",
        -9.497571098421002
      ],
      [
        "завод",
        -9.49779977638471
      ],
      [
        "Ха",
        -9.497939484606317
      ],
      [
        "wood",
        -9.498618421695314
      ],
      [
        "бор",
        -9.498618854715927
      ],
      [
        "син",
        -9.498841749145445
      ],
      [
        "данны",
        -9.499034590193524
      ],
      [
        "problem",
        -9.499131993233338
      ],
      [
        "тельны",
        -9.500104840478913
      ],
      [
        "All",
        -9.500201662488276
      ],
      [
        "историк",
        -9.500282527619099
      ],
      [
        "limit",
        -9.50203808453476
      ],
      [
        "хан",
        -9.503337764918049
      ],
      [
        "We",
        -9.503563215284618
      ],
      [
        "Петербург",
        -9.503687385939529
      ],
      [
        "08",
        -9.503777930889553
      ],
      [
        "современно",
        -9.50399399691397
      ],
      [
        "See",
        -9.504017839495246
      ],
      [
        "kill",
        -9.50421607639068
      ],
      [
        "band",
        -9.504527471008572
      ],
      [
        "изма",
        -9.505143192600915
      ],
      [
        "сер",
        -9.505947305717617
      ],
      [
        "имеют",
        -9.505960404904302
      ],
      [
        "ox",
        -9.506131066023151
      ],
      [
        "ization",
        -9.50688210242284
      ],
      [
        "перед",
        -9.50729633454587
      ],
      [
        "’",
        -9.507319287534074
      ],
      [
        "82",
        -9.50752911464619
      ],
      [
        "half",
        -9.507849530905066
      ],
      [
        "имени",
        -9.508259134726995
      ],
      [
        "France",
        -9.50847456856038
      ],
      [
        "ант",
        -9.508829555556016
      ],
      [
        "court",
        -9.50906400202205
      ],
      [
        "тин",
        -9.51076192246472
      ],
      [
        "Russian",
        -9.511258845235444
      ],
      [
        "рос",
        -9.511703659616842
      ],
      [
        "East",
        -9.512408278314137
      ],
      [
        "standard",
        -9.51288732443901
      ],
      [
        "material",
        -9.514494620188458
      ],
      [
        "let",
        -9.515846719502727
      ],
      [
        "attack",
        -9.517036402869984
      ],
      [
        "June",
        -9.517198344383212
      ],
      [
        "Литератур",
        -9.517266869102173
      ],
      [
        "current",
        -9.517278910474314
      ],
      [
        "войск",
        -9.517462173210372
      ],
      [
        "systems",
        -9.517541788750224
      ],
      [
        "should",
        -9.517822513022875
      ],
      [
        "full",
        -9.518235793712421
      ],
      [
        "роль",
        -9.51865846433681
      ],
      [
        "нер",
        -9.519305374936728
      ],
      [
        "David",
        -9.519493237609481
      ],
      [
        "север",
        -9.520840025986423
      ],
      [
        "рок",
        -9.520979036362908
      ],
      [
        "mon",
        -9.521596710880875
      ],
      [
        "top",
        -9.521953998512688
      ],
      [
        "него",
        -9.52198567896923
      ],
      [
        "Ni",
        -9.52206400060074
      ],
      [
        "инг",
        -9.522466079559162
      ],
      [
        "ear",
        -9.522745429563916
      ],
      [
        "January",
        -9.522836384446894
      ],
      [
        "лес",
        -9.525167918174763
      ],
      [
        "put",
        -9.525705363486502
      ],
      [
        "sea",
        -9.525765032982857
      ],
      [
        "61",
        -9.527187018219767
      ],
      [
        "находит",
        -9.527294138745383
      ],
      [
        "запад",
        -9.52810216102903
      ],
      [
        "specific",
        -9.52948037818555
      ],
      [
        "Михаил",
        -9.529561058257496
      ],
      [
        "мл",
        -9.530069493729194
      ],
      [
        "thing",
        -9.530356608016834
      ],
      [
        "References",
        -9.531250663283165
      ],
      [
        "1988",
        -9.53240799883082
      ],
      [
        "45",
        -9.532440762004834
      ],
      [
        "сел",
        -9.533074896724946
      ],
      [
        "perform",
        -9.533091879428923
      ],
      [
        "ki",
        -9.533709407316998
      ],
      [
        "мар",
        -9.533872435824419
      ],
      [
        "March",
        -9.533978635068365
      ],
      [
        "writer",
        -9.53498196247893
      ],
      [
        "республик",
        -9.536269040068955
      ],
      [
        "study",
        -9.536331098828342
      ],
      [
        "des",
        -9.536380165482655
      ],
      [
        "император",
        -9.537525911139195
      ],
      [
        "July",
        -9.53859624294923
      ],
      [
        "500",
        -9.538746884030783
      ],
      [
        "north",
        -9.538994068939294
      ],
      [
        "ther",
        -9.539435480452624
      ],
      [
        "ше",
        -9.539618203795142
      ],
      [
        "ирует",
        -9.539805731306256
      ],
      [
        "port",
        -9.53984963758204
      ],
      [
        "read",
        -9.54112949167377
      ],
      [
        "Gu",
        -9.541523514421407
      ],
      [
        "последни",
        -9.543009520370035
      ],
      [
        "condition",
        -9.543147521987805
      ],
      [
        "discover",
        -9.54338661389706
      ],
      [
        "футболист",
        -9.54445411918812
      ],
      [
        "Empire",
        -9.54714518332625
      ],
      [
        "African",
        -9.54737552402002
      ],
      [
        "AD",
        -9.547523658078294
      ],
      [
        "oil",
        -9.547619232751924
      ],
      [
        "зон",
        -9.547996082223257
      ],
      [
        "sometime",
        -9.548058631208438
      ],
      [
        "October",
        -9.548290229262118
      ],
      [
        "Indian",
        -9.548356052639914
      ],
      [
        "data",
        -9.550314729821116
      ],
      [
        "City",
        -9.550390750668747
      ],
      [
        "December",
        -9.551158847657177
      ],
      [
        "сил",
        -9.551191069046862
      ],
      [
        "процесс",
        -9.5511927202135
      ],
      [
        "ground",
        -9.551528796676882
      ],
      [
        "лини",
        -9.551640246051296
      ],
      [
        "just",
        -9.552149555931063
      ],
      [
        "1979",
        -9.552198233768614
      ],
      [
        "gen",
        -9.552226973563851
      ],
      [
        "российска",
        -9.554370605631433
      ],
      [
        "With",
        -9.55463861898479
      ],
      [
        "won",
        -9.554771952458106
      ],
      [
        "критик",
        -9.555312135957013
      ],
      [
        "creat",
        -9.556222609798404
      ],
      [
        "sta",
        -9.556418455676365
      ],
      [
        "существу",
        -9.557963341747021
      ],
      [
        "women",
        -9.558080825023366
      ],
      [
        "album",
        -9.55808845459535
      ],
      [
        "русско",
        -9.55900277923643
      ],
      [
        "1941",
        -9.559895519056901
      ],
      [
        "za",
        -9.559965974571124
      ],
      [
        "Jo",
        -9.561402306096706
      ],
      [
        "vo",
        -9.562913744852636
      ],
      [
        "философи",
        -9.563341312913858
      ],
      [
        "qui",
        -9.563550653710642
      ],
      [
        "Ал",
        -9.563669432666618
      ],
      [
        "выше",
        -9.563718295277539
      ],
      [
        "09",
        -9.563989081120873
      ],
      [
        "ou",
        -9.564285846519436
      ],
      [
        "42",
        -9.564617266612526
      ],
      [
        "стала",
        -9.565266328772607
      ],
      [
        "кинорежиссёр",
        -9.565881448186534
      ],
      [
        "свет",
        -9.566134053027334
      ],
      [
        "94",
        -9.567452675591191
      ],
      [
        "market",
        -9.5681439824115
      ],
      [
        "post",
        -9.568472124164437
      ],
      [
        "Sch",
        -9.569354363972682
      ],
      [
        "компани",
        -9.569662779021987
      ],
      [
        "El",
        -9.56984914089822
      ],
      [
        "Po",
        -9.570200111504718
      ],
      [
        "mar",
        -9.571418597992455
      ],
      [
        "launch",
        -9.571479358777218
      ],
      [
        "1984",
        -9.572073726021038
      ],
      [
        "van",
        -9.57316049269429
      ],
      [
        "Vi",
        -9.573197759722023
      ],
      [
        "случае",
        -9.573857396937822
      ],
      [
        "Дж",
        -9.574012102895022
      ],
      [
        "уда",
        -9.574408150006287
      ],
      [
        "правительства",
        -9.574423022394459
      ],
      [
        "своё",
        -9.575461338729959
      ],
      [
        "method",
        -9.578534628045125
      ],
      [
        "Go",
        -9.57867662432336
      ],
      [
        "ward",
        -9.580612760805511
      ],
      [
        "que",
        -9.581411822616726
      ],
      [
        "Car",
        -9.581419941185004
      ],
      [
        "церкв",
        -9.582682450811149
      ],
      [
        "battle",
        -9.584295032380073
      ],
      [
        "гер",
        -9.584314099609408
      ],
      [
        "море",
        -9.584365215303151
      ],
      [
        "движения",
        -9.58568544548012
      ],
      [
        "Or",
        -9.585734531966668
      ],
      [
        "происхождени",
        -9.586239964584522
      ],
      [
        "ative",
        -9.587092905318219
      ],
      [
        "mit",
        -9.587337647318542
      ],
      [
        "introduc",
        -9.587937159894821
      ],
      [
        "ость",
        -9.587965873869967
      ],
      [
        "Ново",
        -9.588126728331257
      ],
      [
        "ад",
        -9.589085396182973
      ],
      [
        "Soviet",
        -9.589816667880058
      ],
      [
        "чин",
        -9.59012237241698
      ],
      [
        "communit",
        -9.590414142519236
      ],
      [
        "ходе",
        -9.590772290858684
      ],
      [
        "37",
        -9.590807971606084
      ],
      [
        "бра",
        -9.591117195522827
      ],
      [
        "log",
        -9.592238115892833
      ],
      [
        "Di",
        -9.59283091828075
      ],
      [
        "company",
        -9.592929900682373
      ],
      [
        "отношени",
        -9.593320291863783
      ],
      [
        "Совет",
        -9.593691002097671
      ],
      [
        "com",
        -9.59390781254751
      ],
      [
        "состоял",
        -9.594258431189603
      ],
      [
        "1987",
        -9.5945267994784
      ],
      [
        "моря",
        -9.594965801491604
      ],
      [
        "всё",
        -9.59517296050939
      ],
      [
        "Бр",
        -9.595758782939416
      ],
      [
        "эр",
        -9.596020758649527
      ],
      [
        "1981",
        -9.599013357017473
      ],
      [
        "November",
        -9.600020827373132
      ],
      [
        "1975",
        -9.600500063322176
      ],
      [
        "жен",
        -9.600572907610614
      ],
      [
        "month",
        -9.601638395997806
      ],
      [
        "force",
        -9.602063741583528
      ],
      [
        "Николай",
        -9.602626142336412
      ],
      [
        "host",
        -9.602834358350972
      ],
      [
        "Пер",
        -9.60371071220547
      ],
      [
        "открыт",
        -9.60573320748112
      ],
      [
        "1976",
        -9.605864641397808
      ],
      [
        "68",
        -9.606268117347929
      ],
      [
        "48",
        -9.608330343218391
      ],
      [
        "1968",
        -9.608609649637867
      ],
      [
        "ган",
        -9.60874296163367
      ],
      [
        "Gr",
        -9.609151647758582
      ],
      [
        "проект",
        -9.609416402473325
      ],
      [
        "1944",
        -9.609431751372437
      ],
      [
        "Все",
        -9.609971354988406
      ],
      [
        "математик",
        -9.610337956123587
      ],
      [
        "Итали",
        -9.610943139334346
      ],
      [
        "making",
        -9.61124640323666
      ],
      [
        "Great",
        -9.61279364164897
      ],
      [
        "79",
        -9.613196506881353
      ],
      [
        "1985",
        -9.613385588976687
      ],
      [
        "Вер",
        -9.613871892404653
      ],
      [
        "ному",
        -9.614256378897043
      ],
      [
        "99",
        -9.614478035581664
      ],
      [
        "related",
        -9.615394344425326
      ],
      [
        "чтоб",
        -9.616053334304175
      ],
      [
        "black",
        -9.616398176359532
      ],
      [
        "cur",
        -9.616502216137985
      ],
      [
        "36",
        -9.617795854850419
      ],
      [
        "даже",
        -9.618320051575592
      ],
      [
        "установлен",
        -9.619402296719619
      ],
      [
        "электро",
        -9.61942438440638
      ],
      [
        "especial",
        -9.620135934118466
      ],
      [
        "количество",
        -9.620649482151306
      ],
      [
        "gi",
        -9.620798704263184
      ],
      [
        "object",
        -9.621085069927783
      ],
      [
        "thus",
        -9.621164084900004
      ],
      [
        "Ju",
        -9.621868658560707
      ],
      [
        "нию",
        -9.622502053605203
      ],
      [
        "имя",
        -9.62277680988286
      ],
      [
        "ника",
        -9.623088165104432
      ],
      [
        "конце",
        -9.623274524527496
      ],
      [
        "consist",
        -9.623691767395233
      ],
      [
        "father",
        -9.623826725487614
      ],
      [
        "Бер",
        -9.624181882161734
      ],
      [
        "характер",
        -9.624237915817911
      ],
      [
        "1917",
        -9.624609004507537
      ],
      [
        "функци",
        -9.62467755980476
      ],
      [
        "женщин",
        -9.625082582045295
      ],
      [
        "1973",
        -9.626203991709666
      ],
      [
        "ful",
        -9.626326575309903
      ],
      [
        "code",
        -9.626612381671963
      ],
      [
        "чень",
        -9.626640384652106
      ],
      [
        "64",
        -9.626788605691171
      ],
      [
        "число",
        -9.6275833363522
      ],
      [
        "require",
        -9.628570657645291
      ],
      [
        "1974",
        -9.628773346157104
      ],
      [
        "совет",
        -9.629973730766888
      ],
      [
        "вол",
        -9.630609886839313
      ],
      [
        "further",
        -9.631922900584163
      ],
      [
        "graph",
        -9.632011578651639
      ],
      [
        "семь",
        -9.632088413080847
      ],
      [
        "So",
        -9.632453243413618
      ],
      [
        "ev",
        -9.63246006614024
      ],
      [
        "writing",
        -9.632519377279753
      ],
      [
        "typical",
        -9.632522342041316
      ],
      [
        "Qu",
        -9.632760744773996
      ],
      [
        "Catholic",
        -9.633142533278981
      ],
      [
        "рек",
        -9.633501261576338
      ],
      [
        "must",
        -9.633764306895849
      ],
      [
        "ure",
        -9.634110671282258
      ],
      [
        "лер",
        -9.634930818549506
      ],
      [
        "ung",
        -9.635159498722627
      ],
      [
        "games",
        -9.635469698554093
      ],
      [
        "addition",
        -9.635709875238076
      ],
      [
        "Велико",
        -9.635796163439181
      ],
      [
        "ide",
        -9.636083358712465
      ],
      [
        "fall",
        -9.6365015735617
      ],
      [
        "lower",
        -9.637551845525973
      ],
      [
        "six",
        -9.637635490946252
      ],
      [
        "власть",
        -9.638278511578871
      ],
      [
        "лидер",
        -9.638431521144842
      ],
      [
        "мол",
        -9.63946765268077
      ],
      [
        "лов",
        -9.639845355827745
      ],
      [
        "sent",
        -9.64008407088812
      ],
      [
        "far",
        -9.640235886302753
      ],
      [
        "General",
        -9.641305113470734
      ],
      [
        "ran",
        -9.642346162227156
      ],
      [
        "Cor",
        -9.642352862618878
      ],
      [
        "ability",
        -9.644248903959905
      ],
      [
        "вес",
        -9.645712575872356
      ],
      [
        "Th",
        -9.646163935987435
      ],
      [
        "economic",
        -9.64630008660082
      ],
      [
        "account",
        -9.646334390607315
      ],
      [
        "rule",
        -9.646483149619655
      ],
      [
        "ell",
        -9.646485224227774
      ],
      [
        "par",
        -9.64737313538241
      ],
      [
        "create",
        -9.648658486321422
      ],
      [
        "ancient",
        -9.648856256849161
      ],
      [
        "чен",
        -9.648919068312097
      ],
      [
        "гл",
        -9.649071275160527
      ],
      [
        "часто",
        -9.649863046866301
      ],
      [
        "бар",
        -9.649952580948563
      ],
      [
        "Раз",
        -9.649954989226245
      ],
      [
        "ax",
        -9.649960704748748
      ],
      [
        "педагог",
        -9.650124083813743
      ],
      [
        "илл",
        -9.650259192456954
      ],
      [
        "помощь",
        -9.650758590184102
      ],
      [
        "mission",
        -9.650840717143275
      ],
      [
        "External",
        -9.651393508219932
      ],
      [
        "1964",
        -9.651781829251302
      ],
      [
        "Col",
        -9.652003737233436
      ],
      [
        "League",
        -9.652029930808794
      ],
      [
        "ско",
        -9.652195871192143
      ],
      [
        "gar",
        -9.652464734391083
      ],
      [
        "300",
        -9.652944622191175
      ],
      [
        "Lo",
        -9.653217972325011
      ],
      [
        "британски",
        -9.653316526456678
      ],
      [
        "refer",
        -9.655042774493312
      ],
      [
        "реки",
        -9.655082666095868
      ],
      [
        "То",
        -9.655302726917435
      ],
      [
        "данным",
        -9.655390630784101
      ],
      [
        ">",
        -9.656487437189007
      ],
      [
        "forces",
        -9.656533021867379
      ],
      [
        "1971",
        -9.656940507815836
      ],
      [
        "°C",
        -9.657067789406282
      ],
      [
        "taken",
        -9.657283087958389
      ],
      [
        "государство",
        -9.657732440126264
      ],
      [
        "настояще",
        -9.65840690283761
      ],
      [
        "пис",
        -9.658937727076168
      ],
      [
        "лы",
        -9.659304326010837
      ],
      [
        "ang",
        -9.659703326273284
      ],
      [
        "While",
        -9.66032551804118
      ],
      [
        "побед",
        -9.661312504812225
      ],
      [
        "дан",
        -9.66223471034732
      ],
      [
        "wa",
        -9.662620847022893
      ],
      [
        "Ja",
        -9.662650547392676
      ],
      [
        "trans",
        -9.662771412797618
      ],
      [
        "−",
        -9.662891557480712
      ],
      [
        "ска",
        -9.663040710335439
      ],
      [
        "34",
        -9.663924366607134
      ],
      [
        "hit",
        -9.664930157207262
      ],
      [
        "дель",
        -9.664991478379871
      ],
      [
        "вор",
        -9.665539246615541
      ],
      [
        "свобод",
        -9.665664310519984
      ],
      [
        "ric",
        -9.667005430385665
      ],
      [
        "mm",
        -9.667288650259383
      ],
      [
        "ö",
        -9.667397108505568
      ],
      [
        "locate",
        -9.667650334701058
      ],
      [
        "á",
        -9.667670544184565
      ],
      [
        "south",
        -9.667673963360425
      ],
      [
        "официально",
        -9.667951045769623
      ],
      [
        "масс",
        -9.668064991574443
      ],
      [
        "ag",
        -9.669028149072869
      ],
      [
        "пост",
        -9.669078589489958
      ],
      [
        "Совета",
        -9.669242420842288
      ],
      [
        "Та",
        -9.669368916386368
      ],
      [
        "cell",
        -9.670391803709318
      ],
      [
        "вшие",
        -9.670678176173931
      ],
      [
        "Earth",
        -9.671281054201899
      ],
      [
        "ации",
        -9.671375345917735
      ],
      [
        "San",
        -9.672407490031517
      ],
      [
        "округ",
        -9.672831793190802
      ],
      [
        "огда",
        -9.672837458167907
      ],
      [
        "1977",
        -9.673146506106999
      ],
      [
        "continue",
        -9.673548724252473
      ],
      [
        "traditional",
        -9.673788273300897
      ],
      [
        "areas",
        -9.674366029685588
      ],
      [
        "key",
        -9.674446456991252
      ],
      [
        "таки",
        -9.67457950336962
      ],
      [
        "center",
        -9.674649219439338
      ],
      [
        "тра",
        -9.674663795244502
      ],
      [
        "государств",
        -9.675903074828765
      ],
      [
        "movement",
        -9.67604103880619
      ],
      [
        "regard",
        -9.677200306111963
      ],
      [
        "international",
        -9.677285353699155
      ],
      [
        "рез",
        -9.677804023569475
      ],
      [
        "good",
        -9.678459749219659
      ],
      [
        "Инди",
        -9.678477768320974
      ],
      [
        "gas",
        -9.678482313237355
      ],
      [
        "food",
        -9.679083982889352
      ],
      [
        "душ",
        -9.679660317452612
      ],
      [
        "net",
        -9.67969291889857
      ],
      [
        "рат",
        -9.680132478130552
      ],
      [
        "animal",
        -9.681058230016477
      ],
      [
        "board",
        -9.681603796007693
      ],
      [
        "ick",
        -9.6822664515413
      ],
      [
        "previous",
        -9.683009117658898
      ],
      [
        "mis",
        -9.683934124978595
      ],
      [
        "стер",
        -9.684099910980164
      ],
      [
        "частност",
        -9.684379518570594
      ],
      [
        "связан",
        -9.685313650800522
      ],
      [
        "бе",
        -9.685580781176776
      ],
      [
        "Latin",
        -9.685804882755498
      ],
      [
        "capital",
        -9.686531145543668
      ],
      [
        "Pi",
        -9.687285777464911
      ],
      [
        "договор",
        -9.687830384110057
      ],
      [
        "Ri",
        -9.687856886803882
      ],
      [
        "Северно",
        -9.688595256502104
      ],
      [
        "rather",
        -9.68890047451178
      ],
      [
        "восток",
        -9.689250467587678
      ],
      [
        "президента",
        -9.691040642568908
      ],
      [
        "почти",
        -9.691150384522084
      ],
      [
        "рус",
        -9.691429154573992
      ],
      [
        "национально",
        -9.692610266032004
      ],
      [
        "ko",
        -9.69316239036472
      ],
      [
        "принцип",
        -9.693600501287307
      ],
      [
        "Battle",
        -9.694249748155265
      ],
      [
        "высоко",
        -9.694906352168971
      ],
      [
        "gu",
        -9.695195269478004
      ],
      [
        "Apple",
        -9.695545028257499
      ],
      [
        "момент",
        -9.695569195471126
      ],
      [
        "energ",
        -9.695739760766621
      ],
      [
        "см",
        -9.695807204613327
      ],
      [
        "Япони",
        -9.696252131945721
      ],
      [
        "1939",
        -9.696567540358423
      ],
      [
        "союз",
        -9.696678533962778
      ],
      [
        "структур",
        -9.69687097532164
      ],
      [
        "нь",
        -9.69862924602079
      ],
      [
        "character",
        -9.698801496345752
      ],
      [
        "крупны",
        -9.699488772904449
      ],
      [
        "continu",
        -9.699824664367114
      ],
      [
        "будет",
        -9.69997426320241
      ],
      [
        "Согласн",
        -9.700925766973299
      ],
      [
        "footballer",
        -9.70129699856938
      ],
      [
        "race",
        -9.70152448077777
      ],
      [
        "Italian",
        -9.701725882894724
      ],
      [
        "ring",
        -9.701777923169592
      ],
      [
        "тен",
        -9.702307452765943
      ],
      [
        "слав",
        -9.702829227641672
      ],
      [
        "lead",
        -9.703220841120125
      ],
      [
        "next",
        -9.704916330268656
      ],
      [
        "одним",
        -9.705176235324965
      ],
      [
        "получил",
        -9.705744645222401
      ],
      [
        "1966",
        -9.706701239543886
      ],
      [
        "ческо",
        -9.706858171458997
      ],
      [
        "spite",
        -9.70764372184202
      ],
      [
        "class",
        -9.707959211280802
      ],
      [
        "surface",
        -9.708957452036685
      ],
      [
        "фильм",
        -9.709974497920905
      ],
      [
        "bra",
        -9.71058481731178
      ],
      [
        "1950",
        -9.71197419004712
      ],
      [
        "евец",
        -9.712187860968292
      ],
      [
        "1962",
        -9.71238338032564
      ],
      [
        "ja",
        -9.713046257112461
      ],
      [
        "tur",
        -9.713304156039271
      ],
      [
        "там",
        -9.713459424190942
      ],
      [
        "relative",
        -9.713496014592796
      ],
      [
        "Paul",
        -9.713573706492102
      ],
      [
        "Иван",
        -9.713857632838002
      ],
      [
        "раздел",
        -9.714022785479234
      ],
      [
        "погибл",
        -9.714327171851181
      ],
      [
        "size",
        -9.714755968800395
      ],
      [
        "Hu",
        -9.714965797403892
      ],
      [
        "accept",
        -9.714979805328994
      ],
      [
        "Per",
        -9.715289469785576
      ],
      [
        "social",
        -9.715979459343586
      ],
      [
        "зер",
        -9.716046495213426
      ],
      [
        "ov",
        -9.71651201111964
      ],
      [
        "умер",
        -9.717234625465686
      ],
      [
        "счёт",
        -9.717614478567572
      ],
      [
        "Canadian",
        -9.718369647671558
      ],
      [
        "39",
        -9.718828786704218
      ],
      [
        "interest",
        -9.71956442331746
      ],
      [
        "Ta",
        -9.720059686696501
      ],
      [
        "associate",
        -9.721089853776128
      ],
      [
        "defeat",
        -9.72116082626647
      ],
      [
        "Book",
        -9.72181240967953
      ],
      [
        "овым",
        -9.7220288812982
      ],
      [
        "элемент",
        -9.722671150929752
      ],
      [
        "Карл",
        -9.72281436877333
      ],
      [
        "poet",
        -9.724092120721878
      ],
      [
        "университет",
        -9.724234533375991
      ],
      [
        "44",
        -9.72491063420478
      ],
      [
        "childre",
        -9.725426562334416
      ],
      [
        "стра",
        -9.725900061386099
      ],
      [
        "рис",
        -9.72646997480473
      ],
      [
        "Press",
        -9.726635047885603
      ],
      [
        "Гу",
        -9.726636022788544
      ],
      [
        "трёх",
        -9.727204354086307
      ],
      [
        "director",
        -9.727537437369275
      ],
      [
        "ового",
        -9.729849276984543
      ],
      [
        "win",
        -9.729949902694878
      ],
      [
        "young",
        -9.730729058825588
      ],
      [
        "советско",
        -9.73073335725805
      ],
      [
        "propert",
        -9.731185331840498
      ],
      [
        "meaning",
        -9.731958053927357
      ],
      [
        "1942",
        -9.73202708535599
      ],
      [
        "Kingdom",
        -9.73278906474268
      ],
      [
        "male",
        -9.73350096854536
      ],
      [
        "toward",
        -9.733549449492923
      ],
      [
        "перевод",
        -9.73394482647084
      ],
      [
        "white",
        -9.734122725018537
      ],
      [
        "продюсер",
        -9.734802728926214
      ],
      [
        "fer",
        -9.735140399512684
      ],
      [
        "building",
        -9.735423161917977
      ],
      [
        "нет",
        -9.735789801792553
      ],
      [
        "пал",
        -9.737227899626813
      ],
      [
        "initial",
        -9.73760606243169
      ],
      [
        "west",
        -9.73796797239342
      ],
      [
        "мых",
        -9.740600875460046
      ],
      [
        "others",
        -9.74176080602679
      ],
      [
        "85",
        -9.741841142313977
      ],
      [
        "referr",
        -9.742615168774421
      ],
      [
        "стр",
        -9.742848479648512
      ],
      [
        "mass",
        -9.743382182340309
      ],
      [
        "State",
        -9.743406378199804
      ],
      [
        "days",
        -9.744028435121272
      ],
      [
        "станци",
        -9.744046629497987
      ],
      [
        "activit",
        -9.744512470493
      ],
      [
        "использует",
        -9.745131940019197
      ],
      [
        "91",
        -9.745528456767666
      ],
      [
        "лит",
        -9.746271009242237
      ],
      [
        "practice",
        -9.746608458991089
      ],
      [
        "овая",
        -9.746921101936426
      ],
      [
        "Western",
        -9.748011001203249
      ],
      [
        "основе",
        -9.74808606575083
      ],
      [
        "овал",
        -9.74879302654368
      ],
      [
        "certain",
        -9.748927336652903
      ],
      [
        "lay",
        -9.749457062687078
      ],
      [
        "История",
        -9.749665003251243
      ],
      [
        "Под",
        -9.749738278190383
      ],
      [
        "army",
        -9.75135767200954
      ],
      [
        "Те",
        -9.751509276060961
      ],
      [
        "состояни",
        -9.751659377817855
      ],
      [
        "представлен",
        -9.75182689347785
      ],
      [
        "Мари",
        -9.752150747408969
      ],
      [
        "reason",
        -9.752510414069631
      ],
      [
        "главе",
        -9.753473447868268
      ],
      [
        "announc",
        -9.75362634634465
      ],
      [
        "фе",
        -9.754216440409637
      ],
      [
        "party",
        -9.755262817238755
      ],
      [
        "Africa",
        -9.755447488034067
      ],
      [
        "Ин",
        -9.755730863824766
      ],
      [
        "member",
        -9.756010026866672
      ],
      [
        "ани",
        -9.756102877610495
      ],
      [
        "unit",
        -9.75633126594107
      ],
      [
        "never",
        -9.756575332914139
      ],
      [
        "Most",
        -9.757252593267896
      ],
      [
        "President",
        -9.757397167057764
      ],
      [
        "стоя",
        -9.757980187884064
      ],
      [
        "α",
        -9.758496631816751
      ],
      [
        "Many",
        -9.759182684844545
      ],
      [
        "List",
        -9.759481901614429
      ],
      [
        "again",
        -9.759742315470763
      ],
      [
        "research",
        -9.76014339288912
      ],
      [
        "построен",
        -9.760563230379828
      ],
      [
        "воды",
        -9.760574534664759
      ],
      [
        "ости",
        -9.76095376195159
      ],
      [
        "Award",
        -9.76119506444287
      ],
      [
        "События",
        -9.761412010541484
      ],
      [
        "основном",
        -9.76145167331018
      ],
      [
        "Har",
        -9.761464405397128
      ],
      [
        "роман",
        -9.761619206625376
      ],
      [
        "хотя",
        -9.762439214576697
      ],
      [
        "produc",
        -9.762885267341876
      ],
      [
        "бан",
        -9.764062800128132
      ],
      [
        "best",
        -9.764901221789465
      ],
      [
        "Кор",
        -9.765060177616967
      ],
      [
        "партия",
        -9.76645704422553
      ],
      [
        "участник",
        -9.76707963276285
      ],
      [
        "лей",
        -9.767177259463061
      ],
      [
        "1938",
        -9.767274100385375
      ],
      [
        "Федераци",
        -9.768502238580306
      ],
      [
        "друго",
        -9.768603522898232
      ],
      [
        "star",
        -9.768792367021288
      ],
      [
        "cut",
        -9.769243330862853
      ],
      [
        "вать",
        -9.769679151461425
      ],
      [
        "тип",
        -9.770936647877758
      ],
      [
        "ren",
        -9.771401595303924
      ],
      [
        "лан",
        -9.771709025210743
      ],
      [
        "separate",
        -9.772487735670335
      ],
      [
        "istic",
        -9.77327070558832
      ],
      [
        "избран",
        -9.773422110367967
      ],
      [
        "обычно",
        -9.773560580048875
      ],
      [
        "мат",
        -9.773617086150137
      ],
      [
        "ug",
        -9.773716571478797
      ],
      [
        "special",
        -9.773837644684354
      ],
      [
        "Южно",
        -9.773892154665536
      ],
      [
        "ённы",
        -9.774756157154034
      ],
      [
        "экономик",
        -9.775288272847153
      ],
      [
        "charge",
        -9.77568831108915
      ],
      [
        "uc",
        -9.776216394088316
      ],
      [
        "sur",
        -9.777542779347684
      ],
      [
        "evidence",
        -9.778548685087156
      ],
      [
        "thought",
        -9.778588996430088
      ],
      [
        "Scott",
        -9.778996457633216
      ],
      [
        "If",
        -9.77929898732296
      ],
      [
        "права",
        -9.77978499679897
      ],
      [
        "гр",
        -9.780072544594699
      ],
      [
        "произ",
        -9.781042035169719
      ],
      [
        "54",
        -9.78165876722484
      ],
      [
        "har",
        -9.781734535709715
      ],
      [
        "together",
        -9.782888856886487
      ],
      [
        "нный",
        -9.782903431297772
      ],
      [
        "люде",
        -9.783361255421337
      ],
      [
        "story",
        -9.783588823152549
      ],
      [
        "гг",
        -9.783736631552799
      ],
      [
        "затем",
        -9.785153123217514
      ],
      [
        "ыми",
        -9.785405561910704
      ],
      [
        "час",
        -9.78606879600451
      ],
      [
        "color",
        -9.786515258948345
      ],
      [
        "Серге",
        -9.786520247188491
      ],
      [
        "House",
        -9.786791715188969
      ],
      [
        "rest",
        -9.787693429340033
      ],
      [
        "business",
        -9.787965665194452
      ],
      [
        "Australia",
        -9.788053584741093
      ],
      [
        "поз",
        -9.788312909326674
      ],
      [
        "образования",
        -9.788944951779643
      ],
      [
        "площад",
        -9.789439996298434
      ],
      [
        "одного",
        -9.79021028445174
      ],
      [
        "друг",
        -9.79032744992411
      ],
      [
        "India",
        -9.79061477648714
      ],
      [
        "subject",
        -9.790654742220106
      ],
      [
        "George",
        -9.790659784423202
      ],
      [
        "founded",
        -9.790858053685037
      ],
      [
        "science",
        -9.792360977511226
      ],
      [
        "novel",
        -9.793073060955606
      ],
      [
        "count",
        -9.793807681736595
      ],
      [
        "Park",
        -9.793882549181761
      ],
      [
        "олимпийски",
        -9.79391159462493
      ],
      [
        "1900",
        -9.79450456090202
      ],
      [
        "1919",
        -9.794950960727622
      ],
      [
        "Мал",
        -9.79506697931081
      ],
      [
        "Советско",
        -9.795765958784044
      ],
      [
        "цар",
        -9.796072642564557
      ],
      [
        "вших",
        -9.796407169967768
      ],
      [
        "изаци",
        -9.796462924641396
      ],
      [
        "ker",
        -9.796515129457127
      ],
      [
        "альные",
        -9.798951952922536
      ],
      [
        "went",
        -9.799113929994572
      ],
      [
        "составил",
        -9.799360014680847
      ],
      [
        "Киев",
        -9.800015701008167
      ],
      [
        "above",
        -9.800124429157467
      ],
      [
        "Art",
        -9.800649912237045
      ],
      [
        "era",
        -9.801131876183224
      ],
      [
        "решение",
        -9.801160818849347
      ],
      [
        "figure",
        -9.801164364633156
      ],
      [
        "average",
        -9.801166585368161
      ],
      [
        "ировать",
        -9.801396600856869
      ],
      [
        "значительно",
        -9.801472101388434
      ],
      [
        "полн",
        -9.801536689087545
      ],
      [
        "construction",
        -9.802338093810501
      ],
      [
        "журналист",
        -9.802354083766515
      ],
      [
        "zo",
        -9.803633385280937
      ],
      [
        "страна",
        -9.803724735719417
      ],
      [
        "receive",
        -9.803917207179063
      ],
      [
        "producer",
        -9.804161550110296
      ],
      [
        "рен",
        -9.804194692545178
      ],
      [
        "share",
        -9.804471553156823
      ],
      [
        "население",
        -9.804923055665807
      ],
      [
        "mother",
        -9.80553877190904
      ],
      [
        "cent",
        -9.805715831065594
      ],
      [
        "words",
        -9.805797020867498
      ],
      [
        "вания",
        -9.806001498074082
      ],
      [
        "1937",
        -9.806259321172636
      ],
      [
        "слова",
        -9.806366588185526
      ],
      [
        "уль",
        -9.806656463487238
      ],
      [
        "mov",
        -9.806871238078816
      ],
      [
        "пу",
        -9.807594477559043
      ],
      [
        "62",
        -9.809081915299046
      ],
      [
        "значение",
        -9.809485036233689
      ],
      [
        "believe",
        -9.810202713862125
      ],
      [
        "flight",
        -9.810449271484305
      ],
      [
        "nic",
        -9.81061775690063
      ],
      [
        "кова",
        -9.810640102867112
      ],
      [
        "Pre",
        -9.811130557555565
      ],
      [
        "crew",
        -9.811554283330343
      ],
      [
        "books",
        -9.811709679733958
      ],
      [
        "природ",
        -9.812305981337527
      ],
      [
        "eight",
        -9.812699617399414
      ],
      [
        "reported",
        -9.812725795139203
      ],
      [
        "front",
        -9.813051047328674
      ],
      [
        "panish",
        -9.81317167905673
      ],
      [
        "Dutch",
        -9.813782551405934
      ],
      [
        "поля",
        -9.814194847150485
      ],
      [
        "появил",
        -9.814714543122864
      ],
      [
        "command",
        -9.8149303345314
      ],
      [
        "революци",
        -9.815109826256139
      ],
      [
        "Санкт",
        -9.815283932921721
      ],
      [
        "1922",
        -9.81561427134664
      ],
      [
        "trade",
        -9.81626642446155
      ],
      [
        "ney",
        -9.816393405795363
      ],
      [
        "join",
        -9.817381108474766
      ],
      [
        "оль",
        -9.817572880111815
      ],
      [
        "жил",
        -9.817655059745599
      ],
      [
        "Com",
        -9.817655317489411
      ],
      [
        "River",
        -9.81838789370858
      ],
      [
        "bio",
        -9.818590926983969
      ],
      [
        "пад",
        -9.818794865302102
      ],
      [
        "studie",
        -9.819776664781223
      ],
      [
        "successful",
        -9.82013975148495
      ],
      [
        "условия",
        -9.820169338142353
      ],
      [
        "according",
        -9.820327577969298
      ],
      [
        "Robert",
        -9.820731221228272
      ],
      [
        "site",
        -9.82081311485354
      ],
      [
        "move",
        -9.821553904082588
      ],
      [
        "ари",
        -9.821720822456232
      ],
      [
        "Ru",
        -9.821863938461973
      ],
      [
        "mark",
        -9.821937322841404
      ],
      [
        "í",
        -9.82203378774297
      ],
      [
        "половин",
        -9.822066585306498
      ],
      [
        "Кол",
        -9.822090529459604
      ],
      [
        "gain",
        -9.822178622429833
      ],
      [
        "смерти",
        -9.823542207920587
      ],
      [
        "tradition",
        -9.823642030686383
      ],
      [
        "Англи",
        -9.823724401251486
      ],
      [
        "поддержк",
        -9.824296247579902
      ],
      [
        "течение",
        -9.82480294904169
      ],
      [
        "име",
        -9.825029752452172
      ],
      [
        "February",
        -9.825051519123866
      ],
      [
        "чего",
        -9.825477061641745
      ],
      [
        "across",
        -9.825675886258217
      ],
      [
        "выход",
        -9.825701621777835
      ],
      [
        "central",
        -9.825811367170672
      ],
      [
        "баз",
        -9.82582178219705
      ],
      [
        "проблем",
        -9.82596621432495
      ],
      [
        "стар",
        -9.826442340429226
      ],
      [
        "offer",
        -9.826762408925688
      ],
      [
        "hold",
        -9.827349011295425
      ],
      [
        "дж",
        -9.827408227708627
      ],
      [
        "cat",
        -9.827756733110657
      ],
      [
        "научно",
        -9.827918226390995
      ],
      [
        "ёв",
        -9.828723322795746
      ],
      [
        "лиц",
        -9.828764616012785
      ],
      [
        "television",
        -9.828847187943293
      ],
      [
        "Мор",
        -9.828890232398784
      ],
      [
        "способ",
        -9.828920010117304
      ],
      [
        "ought",
        -9.828997797719508
      ],
      [
        "parts",
        -9.829486189420603
      ],
      [
        "upon",
        -9.829498461070074
      ],
      [
        "Африк",
        -9.82959797365763
      ],
      [
        "technolog",
        -9.829618605998531
      ],
      [
        "atom",
        -9.829670506227254
      ],
      [
        "artist",
        -9.83016521621023
      ],
      [
        "влияние",
        -9.830183987450866
      ],
      [
        "зо",
        -9.83031619579219
      ],
      [
        "евич",
        -9.83034036514019
      ],
      [
        "lines",
        -9.830431109289787
      ],
      [
        "термин",
        -9.830974232060425
      ],
      [
        "av",
        -9.831209914284962
      ],
      [
        "Бе",
        -9.831260725633397
      ],
      [
        "ches",
        -9.831800549299459
      ],
      [
        "temperature",
        -9.831874896349616
      ],
      [
        "recent",
        -9.8322824331868
      ],
      [
        "силы",
        -9.83228761829568
      ],
      [
        "Мак",
        -9.832294853592417
      ],
      [
        "вести",
        -9.83368507575491
      ],
      [
        "ново",
        -9.834101286499337
      ],
      [
        "clear",
        -9.834358500010474
      ],
      [
        "Мар",
        -9.834516685606793
      ],
      [
        "переход",
        -9.835513533570277
      ],
      [
        "тическо",
        -9.835831528560934
      ],
      [
        "Since",
        -9.836540684184559
      ],
      [
        "мост",
        -9.836605993498996
      ],
      [
        "Че",
        -9.836610014581609
      ],
      [
        "Сан",
        -9.837363514007192
      ],
      [
        "ками",
        -9.83789880200938
      ],
      [
        "lost",
        -9.838030174782164
      ],
      [
        "river",
        -9.83864732000317
      ],
      [
        "°",
        -9.838814968253232
      ],
      [
        "мед",
        -9.838918390745487
      ],
      [
        "драматург",
        -9.83951143594849
      ],
      [
        "Lu",
        -9.840041098318697
      ],
      [
        "Бу",
        -9.840438541559642
      ],
      [
        "experience",
        -9.840571023565492
      ],
      [
        "основны",
        -9.840604795582923
      ],
      [
        "From",
        -9.841425191760342
      ],
      [
        "#",
        -9.84181381552822
      ],
      [
        "кра",
        -9.841891505460707
      ],
      [
        "ющая",
        -9.842103724578068
      ],
      [
        "via",
        -9.842616973567178
      ],
      [
        "реформ",
        -9.843030234668847
      ],
      [
        "анд",
        -9.843298668669561
      ],
      [
        "estimate",
        -9.843355135808505
      ],
      [
        "ране",
        -9.843918038845889
      ],
      [
        "historical",
        -9.844336867948886
      ],
      [
        "сад",
        -9.846056004203994
      ],
      [
        "еля",
        -9.846211172322448
      ],
      [
        "территори",
        -9.846870094504249
      ],
      [
        "действия",
        -9.847620616196638
      ],
      [
        "бол",
        -9.848619481386855
      ],
      [
        "кер",
        -9.849525449865169
      ],
      [
        "entire",
        -9.849628379191444
      ],
      [
        "Геро",
        -9.849725834257804
      ],
      [
        "Россия",
        -9.849991035971492
      ],
      [
        "символ",
        -9.85104427915526
      ],
      [
        "ООН",
        -9.852632868763742
      ],
      [
        "размер",
        -9.85322392699318
      ],
      [
        "уш",
        -9.853377410308067
      ],
      [
        "report",
        -9.854185228648934
      ],
      [
        "дин",
        -9.854228024063339
      ],
      [
        "1948",
        -9.854829186809312
      ],
      [
        "James",
        -9.855187386211549
      ],
      [
        "get",
        -9.855268513598645
      ],
      [
        "Ше",
        -9.855376974809248
      ],
      [
        "Кроме",
        -9.855821404397984
      ],
      [
        "personal",
        -9.856226499619554
      ],
      [
        "ление",
        -9.856764655965794
      ],
      [
        "две",
        -9.85688773514525
      ],
      [
        "вали",
        -9.857084835221487
      ],
      [
        "amp",
        -9.857877934662705
      ],
      [
        "bus",
        -9.857912155524023
      ],
      [
        "зов",
        -9.858284818695301
      ],
      [
        "ow",
        -9.858614354812001
      ],
      [
        "stage",
        -9.858663216182356
      ],
      [
        "кол",
        -9.859128213752463
      ],
      [
        "education",
        -9.859650112805191
      ],
      [
        "транспорт",
        -9.860110214554359
      ],
      [
        "Ben",
        -9.860419216461182
      ],
      [
        "радио",
        -9.86049661539323
      ],
      [
        "войн",
        -9.8613983685708
      ],
      [
        "leg",
        -9.861421899194891
      ],
      [
        "come",
        -9.86197925343144
      ],
      [
        "press",
        -9.862267255470613
      ],
      [
        "ration",
        -9.862487860151612
      ],
      [
        "дар",
        -9.862546601609182
      ],
      [
        "mention",
        -9.863203281517578
      ],
      [
        "широко",
        -9.86438056459487
      ],
      [
        "Пре",
        -9.864959462876618
      ],
      [
        "academic",
        -9.865217327194681
      ],
      [
        "ССР",
        -9.865474008807915
      ],
      [
        "religious",
        -9.865920764657211
      ],
      [
        "ological",
        -9.865952002269633
      ],
      [
        "ven",
        -9.866328433074454
      ],
      [
        "люб",
        -9.867335966125793
      ],
      [
        "инд",
        -9.867476498718815
      ],
      [
        "колони",
        -9.868905354726078
      ],
      [
        "dia",
        -9.868939636399539
      ],
      [
        "occur",
        -9.86944276931238
      ],
      [
        "saw",
        -9.870593196212704
      ],
      [
        "variet",
        -9.870612471620177
      ],
      [
        "success",
        -9.872051072048295
      ],
      [
        "эпох",
        -9.872343566071526
      ],
      [
        "ach",
        -9.872656204816646
      ],
      [
        "1957",
        -9.873060289270654
      ],
      [
        "sound",
        -9.873505144596944
      ],
      [
        "Бар",
        -9.874279576358465
      ],
      [
        "Royal",
        -9.874654255315939
      ],
      [
        "1925",
        -9.875151895352495
      ],
      [
        "ница",
        -9.875238411171676
      ],
      [
        "club",
        -9.875414184507441
      ],
      [
        "colon",
        -9.8755171089493
      ],
      [
        "gave",
        -9.875554115006604
      ],
      [
        "1929",
        -9.875661590570129
      ],
      [
        "ому",
        -9.875684059800015
      ],
      [
        "лист",
        -9.876416222941684
      ],
      [
        "зм",
        -9.877012658130234
      ],
      [
        "музыкант",
        -9.87706768530888
      ],
      [
        "енко",
        -9.877130930386198
      ],
      [
        "Его",
        -9.87742102973748
      ],
      [
        "elect",
        -9.877639734978175
      ],
      [
        "fish",
        -9.878230610981891
      ],
      [
        "граждан",
        -9.878315931718774
      ],
      [
        "media",
        -9.878902550987238
      ],
      [
        "Хо",
        -9.87946029808661
      ],
      [
        "Европе",
        -9.879519301828488
      ],
      [
        "жив",
        -9.879929265388643
      ],
      [
        "ious",
        -9.879997148936736
      ],
      [
        "степен",
        -9.880141059923602
      ],
      [
        "52",
        -9.880752931445791
      ],
      [
        "овый",
        -9.880843822278354
      ],
      [
        "фер",
        -9.881175495215489
      ],
      [
        "break",
        -9.881488345486122
      ],
      [
        "nd",
        -9.882842218114478
      ],
      [
        "ция",
        -9.883057285403202
      ],
      [
        "границ",
        -9.884124987712795
      ],
      [
        "больш",
        -9.884267632142967
      ],
      [
        "открыл",
        -9.885706206466416
      ],
      [
        "Charles",
        -9.885856317021243
      ],
      [
        "ёл",
        -9.886029122031903
      ],
      [
        "face",
        -9.88673000759502
      ],
      [
        "adopt",
        -9.886858901123574
      ],
      [
        "сфер",
        -9.887155440725081
      ],
      [
        "han",
        -9.88748072919499
      ],
      [
        "ria",
        -9.88797138583272
      ],
      [
        "Бел",
        -9.888697908460458
      ],
      [
        "лага",
        -9.889421152376334
      ],
      [
        "Перво",
        -9.889421794213296
      ],
      [
        "парламент",
        -9.889517194805428
      ],
      [
        "национальны",
        -9.889697101427261
      ],
      [
        "ическим",
        -9.88994866538027
      ],
      [
        "Испани",
        -9.890810549033333
      ],
      [
        "убит",
        -9.891373215147668
      ],
      [
        "lack",
        -9.892016571027337
      ],
      [
        "пан",
        -9.892287658036363
      ],
      [
        "Ру",
        -9.892854218420112
      ],
      [
        "arm",
        -9.892908384492634
      ],
      [
        "whe",
        -9.893250342270617
      ],
      [
        "Рас",
        -9.893273480341636
      ],
      [
        "Первы",
        -9.89361911589361
      ],
      [
        "round",
        -9.893663015963568
      ],
      [
        "общества",
        -9.893772904007776
      ],
      [
        "ik",
        -9.894841363287277
      ],
      [
        "information",
        -9.89564038786019
      ],
      [
        "ясь",
        -9.895657007432167
      ],
      [
        "кос",
        -9.895746995114095
      ],
      [
        "Ази",
        -9.895755887976932
      ],
      [
        "00",
        -9.896241246011162
      ],
      [
        "week",
        -9.896390859061405
      ],
      [
        "Ga",
        -9.896428742795646
      ],
      [
        "народ",
        -9.89680999509039
      ],
      [
        "En",
        -9.897608102804059
      ],
      [
        "ники",
        -9.89842044163214
      ],
      [
        "41",
        -9.898649739891093
      ],
      [
        "186",
        -9.899263547060727
      ],
      [
        "availab",
        -9.899565699060012
      ],
      [
        "1928",
        -9.899890441471154
      ],
      [
        "hard",
        -9.899988138337935
      ],
      [
        "языков",
        -9.900865420656139
      ],
      [
        "стало",
        -9.900931606116401
      ],
      [
        "project",
        -9.901002758892332
      ],
      [
        "Пере",
        -9.901231255824651
      ],
      [
        "Гор",
        -9.901940879209423
      ],
      [
        "length",
        -9.901993403844205
      ],
      [
        "машин",
        -9.902051227515571
      ],
      [
        "ians",
        -9.902846041242402
      ],
      [
        "brother",
        -9.902880388511662
      ],
      [
        "развитие",
        -9.90357019446438
      ],
      [
        "once",
        -9.904754763224844
      ],
      [
        "аш",
        -9.904998916926116
      ],
      [
        "ture",
        -9.905178601381504
      ],
      [
        "Peter",
        -9.906015681753878
      ],
      [
        "eventual",
        -9.906087559720202
      ],
      [
        "фр",
        -9.906576239669123
      ],
      [
        "served",
        -9.906727724213145
      ],
      [
        "treat",
        -9.906854023946906
      ],
      [
        "первым",
        -9.906963075707154
      ],
      [
        "Mc",
        -9.907733766303355
      ],
      [
        "Ман",
        -9.907808889378991
      ],
      [
        "script",
        -9.909264591374878
      ],
      [
        "arch",
        -9.909611609917569
      ],
      [
        "AC",
        -9.910040843944856
      ],
      [
        "grow",
        -9.910418598811226
      ],
      [
        "effective",
        -9.910714067855517
      ],
      [
        "cross",
        -9.91072360270337
      ],
      [
        "мало",
        -9.911878128517486
      ],
      [
        "1921",
        -9.912459827075615
      ],
      [
        "считал",
        -9.912927399293618
      ],
      [
        "ЦК",
        -9.913004443508893
      ],
      [
        "away",
        -9.914124895712156
      ],
      [
        "провинци",
        -9.914300680253335
      ],
      [
        "Bu",
        -9.91470283421516
      ],
      [
        "кур",
        -9.91609476522602
      ],
      [
        "могл",
        -9.916216949331808
      ],
      [
        "указ",
        -9.916423199079642
      ],
      [
        "numbers",
        -9.916497555949944
      ],
      [
        "len",
        -9.917230762058992
      ],
      [
        "1926",
        -9.917344769451311
      ],
      [
        "Pe",
        -9.917982946487896
      ],
      [
        "вшая",
        -9.918382965111189
      ],
      [
        "служб",
        -9.918472172567956
      ],
      [
        "рост",
        -9.918895906842724
      ],
      [
        "даёт",
        -9.918953406289175
      ],
      [
        "1936",
        -9.91910763309464
      ],
      [
        "акт",
        -9.919270179932528
      ],
      [
        "57",
        -9.919437358436472
      ],
      [
        "ард",
        -9.92001490825511
      ],
      [
        "Аб",
        -9.920651939107273
      ],
      [
        "древне",
        -9.921719563158398
      ],
      [
        "rank",
        -9.921752167436424
      ],
      [
        "ν",
        -9.921760480521371
      ],
      [
        "sen",
        -9.922964975840806
      ],
      [
        "active",
        -9.924900731222353
      ],
      [
        "компьютер",
        -9.925177964132228
      ],
      [
        "receiv",
        -9.925323039450909
      ],
      [
        "Лу",
        -9.925343070582528
      ],
      [
        "coast",
        -9.925430382123396
      ],
      [
        "lot",
        -9.92561199452022
      ],
      [
        "tal",
        -9.92620196306855
      ],
      [
        "льд",
        -9.926282338069628
      ],
      [
        "island",
        -9.926426207446525
      ],
      [
        "крупнейши",
        -9.926535077364775
      ],
      [
        "астроном",
        -9.926773205285667
      ],
      [
        "complex",
        -9.927010282910924
      ],
      [
        "Force",
        -9.92707991315151
      ],
      [
        "другим",
        -9.92754831921987
      ],
      [
        "53",
        -9.927852260971672
      ],
      [
        "ата",
        -9.928074388600551
      ],
      [
        "планет",
        -9.92835308116453
      ],
      [
        "First",
        -9.928441247493506
      ],
      [
        "rid",
        -9.930067726063012
      ],
      [
        "tax",
        -9.930307741021167
      ],
      [
        "ash",
        -9.930485334272085
      ],
      [
        "оказал",
        -9.93084828745793
      ],
      [
        "сын",
        -9.930862877101887
      ],
      [
        "Ду",
        -9.931043350661945
      ],
      [
        "Ссылк",
        -9.931798207338993
      ],
      [
        "очны",
        -9.932077599590215
      ],
      [
        "divid",
        -9.932691572519591
      ],
      [
        "общественны",
        -9.932803953836546
      ],
      [
        "скоре",
        -9.933224178634203
      ],
      [
        "рит",
        -9.933659161793504
      ],
      [
        "ответ",
        -9.933859444608604
      ],
      [
        "информаци",
        -9.934164021073947
      ],
      [
        "cha",
        -9.934164865381863
      ],
      [
        "стать",
        -9.934336267774256
      ],
      [
        "активно",
        -9.934625313816966
      ],
      [
        "объявил",
        -9.935166649671736
      ],
      [
        "Как",
        -9.935429371833756
      ],
      [
        "1932",
        -9.936240632430923
      ],
      [
        "статус",
        -9.936303618156312
      ],
      [
        "букв",
        -9.936358305103193
      ],
      [
        "область",
        -9.936494995863546
      ],
      [
        "1905",
        -9.937039320803375
      ],
      [
        "ze",
        -9.937546271805708
      ],
      [
        "TV",
        -9.938095597553772
      ],
      [
        "mp",
        -9.938222458244404
      ],
      [
        "office",
        -9.938876683786221
      ],
      [
        "66",
        -9.938894876410238
      ],
      [
        "академи",
        -9.939583971066153
      ],
      [
        "втор",
        -9.939981012982749
      ],
      [
        "visit",
        -9.941456220619035
      ],
      [
        "охран",
        -9.941750047201664
      ],
      [
        "нём",
        -9.941772998425273
      ],
      [
        "bank",
        -9.94207311496049
      ],
      [
        "wing",
        -9.942205552538388
      ],
      [
        "единиц",
        -9.942401117492235
      ],
      [
        "ющего",
        -9.942673199434767
      ],
      [
        "Ком",
        -9.942902349529758
      ],
      [
        "подписан",
        -9.942948930981283
      ],
      [
        "значения",
        -9.942963204119497
      ],
      [
        "ющей",
        -9.943150043036834
      ],
      [
        "сек",
        -9.943261442910066
      ],
      [
        "150",
        -9.94394381198542
      ],
      [
        "hu",
        -9.943989080192953
      ],
      [
        "ниче",
        -9.94425322987404
      ],
      [
        "произошл",
        -9.944853577389736
      ],
      [
        "вшего",
        -9.944946055929258
      ],
      [
        "award",
        -9.946520668578879
      ],
      [
        "числа",
        -9.94675930407369
      ],
      [
        "campaign",
        -9.947046404653562
      ],
      [
        "rise",
        -9.94839359181689
      ],
      [
        "Mon",
        -9.948927319321234
      ],
      [
        "origin",
        -9.949164544689296
      ],
      [
        "Asia",
        -9.949223625140927
      ],
      [
        "техник",
        -9.950207257979098
      ],
      [
        "amount",
        -9.950231094702744
      ],
      [
        "поле",
        -9.950418383396144
      ],
      [
        "дня",
        -9.950434036635647
      ],
      [
        "ISBN",
        -9.95046665043543
      ],
      [
        "Bra",
        -9.950472673084167
      ],
      [
        "гар",
        -9.950876848728486
      ],
      [
        "chi",
        -9.95116089870311
      ],
      [
        "del",
        -9.951258346265357
      ],
      [
        "gra",
        -9.95176888664572
      ],
      [
        "согласно",
        -9.952182750627298
      ],
      [
        "concept",
        -9.953053283172979
      ],
      [
        "print",
        -9.953188637927724
      ],
      [
        "XVIII",
        -9.95330392681126
      ],
      [
        "поли",
        -9.953315293378733
      ],
      [
        "Mi",
        -9.953573467047086
      ],
      [
        "бин",
        -9.953776754796358
      ],
      [
        "Нобелевско",
        -9.954191903550154
      ],
      [
        "87",
        -9.954194724510781
      ],
      [
        "baseball",
        -9.954448559581119
      ],
      [
        "rain",
        -9.955005579434818
      ],
      [
        "date",
        -9.955138076961848
      ],
      [
        "кий",
        -9.955544114432136
      ],
      [
        "мнени",
        -9.955665912271394
      ],
      [
        "bat",
        -9.956399649728924
      ],
      [
        "отдельны",
        -9.957264000812536
      ],
      [
        "regular",
        -9.957363381092605
      ],
      [
        "код",
        -9.957515757638713
      ],
      [
        "видов",
        -9.95777810369377
      ],
      [
        "Arab",
        -9.95803271213763
      ],
      [
        "XXI",
        -9.959311361444136
      ],
      [
        "q",
        -9.959381730190241
      ],
      [
        "cost",
        -9.959705443949467
      ],
      [
        "actress",
        -9.959974435732924
      ],
      [
        "Президент",
        -9.959980009042663
      ],
      [
        "середин",
        -9.960012966970307
      ],
      [
        "fact",
        -9.960834509824467
      ],
      [
        "наст",
        -9.960846826978436
      ],
      [
        "events",
        -9.961818791997477
      ],
      [
        "1934",
        -9.962254011099205
      ],
      [
        "industr",
        -9.962724481674005
      ],
      [
        "лич",
        -9.963299428849064
      ],
      [
        "куп",
        -9.963886623670298
      ],
      [
        "использовал",
        -9.96430103803078
      ],
      [
        "church",
        -9.965037984949259
      ],
      [
        "Западно",
        -9.965524895173527
      ],
      [
        "ification",
        -9.96573419582073
      ],
      [
        "operat",
        -9.966906368362187
      ],
      [
        "современны",
        -9.967154284227199
      ],
      [
        "1935",
        -9.96814577792438
      ],
      [
        "высот",
        -9.968390021116257
      ],
      [
        "рин",
        -9.969303000725631
      ],
      [
        "исты",
        -9.969797829004523
      ],
      [
        "road",
        -9.969861507216502
      ],
      [
        "задач",
        -9.970207003212856
      ],
      [
        "74",
        -9.970591449020121
      ],
      [
        "ü",
        -9.970782831899204
      ],
      [
        "football",
        -9.97160525372167
      ],
      [
        "оста",
        -9.971665940340047
      ],
      [
        "Гер",
        -9.971688539704271
      ],
      [
        "Cha",
        -9.972337475957833
      ],
      [
        "причин",
        -9.972737098236028
      ],
      [
        "нова",
        -9.97294530738069
      ],
      [
        "ими",
        -9.973019926731904
      ],
      [
        "leading",
        -9.973190331291468
      ],
      [
        "оно",
        -9.973993628737
      ],
      [
        "позици",
        -9.974239574813971
      ],
      [
        "Fa",
        -9.974430194189837
      ],
      [
        "School",
        -9.974769535539412
      ],
      [
        "reference",
        -9.974900598048734
      ],
      [
        "birth",
        -9.976317448618435
      ],
      [
        "And",
        -9.977142362130348
      ],
      [
        "My",
        -9.977176050353807
      ],
      [
        "Further",
        -9.977378058938438
      ],
      [
        "операци",
        -9.977566268543708
      ],
      [
        "передач",
        -9.97773252652092
      ],
      [
        "цель",
        -9.977844262098472
      ],
      [
        "super",
        -9.97802260767199
      ],
      [
        "Второ",
        -9.978278590793792
      ],
      [
        "Родил",
        -9.97907953500641
      ],
      [
        "плат",
        -9.979406007027443
      ],
      [
        "традици",
        -9.979884312981547
      ],
      [
        "Ча",
        -9.98010649426918
      ],
      [
        "loss",
        -9.981330608522264
      ],
      [
        "Museum",
        -9.981788939924401
      ],
      [
        "экс",
        -9.981811920183215
      ],
      [
        "Blue",
        -9.981832898477233
      ],
      [
        "location",
        -9.982051145330143
      ],
      [
        "1954",
        -9.982124390923246
      ],
      [
        "past",
        -9.98240676150375
      ],
      [
        "тик",
        -9.982527740023254
      ],
      [
        "городско",
        -9.982968275058365
      ],
      [
        "объём",
        -9.983556305947875
      ],
      [
        "короля",
        -9.983866925991386
      ],
      [
        "облада",
        -9.985213645552545
      ],
      [
        "памятник",
        -9.98545984785368
      ],
      [
        "считает",
        -9.985520130997223
      ],
      [
        "мент",
        -9.986115487292208
      ],
      [
        "Britain",
        -9.986216030967647
      ],
      [
        "особенно",
        -9.986245435123507
      ],
      [
        "песен",
        -9.986513515015307
      ],
      [
        "лё",
        -9.986708792256
      ],
      [
        "Berlin",
        -9.986713404944421
      ],
      [
        "норм",
        -9.986728551783333
      ],
      [
        "difficult",
        -9.98710387147474
      ],
      [
        "1955",
        -9.98725639160087
      ],
      [
        "division",
        -9.987336394784455
      ],
      [
        "деятельност",
        -9.987404267069547
      ],
      [
        "president",
        -9.987438408238221
      ],
      [
        "един",
        -9.987691965605602
      ],
      [
        "банк",
        -9.98770122381009
      ],
      [
        "51",
        -9.987854703122508
      ],
      [
        "Jewish",
        -9.988006128774375
      ],
      [
        "международны",
        -9.988279945502796
      ],
      [
        "работа",
        -9.98870060313778
      ],
      [
        "instrument",
        -9.988882742059083
      ],
      [
        "seven",
        -9.98947808875987
      ],
      [
        "Ge",
        -9.989645470451638
      ],
      [
        "video",
        -9.989779814497277
      ],
      [
        "Bur",
        -9.98981194985902
      ],
      [
        "ping",
        -9.990049346902389
      ],
      [
        "oid",
        -9.9902461744865
      ],
      [
        "цвет",
        -9.990451807648661
      ],
      [
        "Arabic",
        -9.990551913053576
      ],
      [
        "private",
        -9.990664213071154
      ],
      [
        "historian",
        -9.990664560638407
      ],
      [
        "штат",
        -9.99159785821839
      ],
      [
        "русского",
        -9.991791318247769
      ],
      [
        "клад",
        -9.99236191870338
      ],
      [
        "лён",
        -9.993103636836228
      ],
      [
        "gue",
        -9.993183319547132
      ],
      [
        "stone",
        -9.993597673301107
      ],
      [
        "движение",
        -9.993740178041017
      ],
      [
        "голосов",
        -9.99408427767818
      ],
      [
        "Q",
        -9.994129111020747
      ],
      [
        "мог",
        -9.994379983107757
      ],
      [
        "network",
        -9.995516302849646
      ],
      [
        "compar",
        -9.995645442472247
      ],
      [
        "музык",
        -9.995753079216335
      ],
      [
        "польски",
        -9.996073474275637
      ],
      [
        "Ор",
        -9.996273318268706
      ],
      [
        "предел",
        -9.99635760857818
      ],
      [
        "independent",
        -9.996377777509707
      ],
      [
        "77",
        -9.996543288457946
      ],
      [
        "Канад",
        -9.996663526612187
      ],
      [
        "equal",
        -9.996773278823522
      ],
      [
        "die",
        -9.99703127226772
      ],
      [
        "своим",
        -9.997259860493184
      ],
      [
        "длин",
        -9.99757783091611
      ],
      [
        "Christ",
        -9.997600396622385
      ],
      [
        "Ph",
        -9.998219031777406
      ],
      [
        "1927",
        -9.998237384127687
      ],
      [
        "основатель",
        -9.998523320444473
      ],
      [
        "оборон",
        -9.998538090130648
      ],
      [
        "OS",
        -9.99961324341459
      ],
      [
        "иностранны",
        -9.999642230217816
      ],
      [
        "Mu",
        -10.00003452664125
      ],
      [
        "следующи",
        -10.000088973650026
      ],
      [
        "Can",
        -10.000354822437998
      ],
      [
        "“",
        -10.00052088743924
      ],
      [
        "Дмитри",
        -10.000522483905574
      ],
      [
        "Ту",
        -10.000537367185343
      ],
      [
        "выбора",
        -10.00073371060277
      ],
      [
        "писал",
        -10.000746298255764
      ],
      [
        "tar",
        -10.001383989701392
      ],
      [
        "hal",
        -10.001422977877692
      ],
      [
        "derive",
        -10.001464654852342
      ],
      [
        "cho",
        -10.00149452538085
      ],
      [
        "чат",
        -10.00215090109215
      ],
      [
        "Пётр",
        -10.002325419618023
      ],
      [
        "бург",
        -10.002873265465652
      ],
      [
        "str",
        -10.003416148272468
      ],
      [
        "rock",
        -10.003712254868198
      ],
      [
        "comp",
        -10.00380276710361
      ],
      [
        "Dr",
        -10.003873738019973
      ],
      [
        "Скончал",
        -10.00412963453381
      ],
      [
        "быт",
        -10.004426149514341
      ],
      [
        "Minister",
        -10.005034435295093
      ],
      [
        "Сер",
        -10.005778263402231
      ],
      [
        "might",
        -10.006194962664711
      ],
      [
        "Canada",
        -10.00684571586886
      ],
      [
        "qu",
        -10.007451724886673
      ],
      [
        "реш",
        -10.008191727545222
      ],
      [
        "Го",
        -10.00853706447474
      ],
      [
        "daughter",
        -10.008675138595793
      ],
      [
        "hop",
        -10.00906415033678
      ],
      [
        "исторически",
        -10.009613518694838
      ],
      [
        "1952",
        -10.01066061798789
      ],
      [
        "flow",
        -10.010681131844247
      ],
      [
        "Борис",
        -10.010905905492248
      ],
      [
        "individual",
        -10.010928530676464
      ],
      [
        "table",
        -10.011285302567813
      ],
      [
        "western",
        -10.011733854890176
      ],
      [
        "обо",
        -10.011976492558324
      ],
      [
        "northern",
        -10.012300875571018
      ],
      [
        "тическ",
        -10.01234987099528
      ],
      [
        "zi",
        -10.012760349524973
      ],
      [
        "команд",
        -10.013540120869587
      ],
      [
        "image",
        -10.01361453737471
      ],
      [
        "section",
        -10.01375195197485
      ],
      [
        "телевидени",
        -10.01412869281329
      ],
      [
        "вёл",
        -10.014357764921662
      ],
      [
        "Au",
        -10.014890442730298
      ],
      [
        "protect",
        -10.015298775349304
      ],
      [
        "Ke",
        -10.015686852014273
      ],
      [
        "Марк",
        -10.015756020087256
      ],
      [
        "Виктор",
        -10.016866024106083
      ],
      [
        "VI",
        -10.017477156443842
      ],
      [
        "focus",
        -10.017780131171465
      ],
      [
        "ланд",
        -10.018005984705152
      ],
      [
        "appoint",
        -10.018080596799717
      ],
      [
        "gun",
        -10.018205834987095
      ],
      [
        "столиц",
        -10.018490411811186
      ],
      [
        "карт",
        -10.018661179215767
      ],
      [
        "герцог",
        -10.018695190079656
      ],
      [
        "extend",
        -10.018892709705595
      ],
      [
        "рова",
        -10.019112212583307
      ],
      [
        "larger",
        -10.01943715498183
      ],
      [
        "400",
        -10.019476909898756
      ],
      [
        "сей",
        -10.021925420111888
      ],
      [
        "городов",
        -10.022452961282157
      ],
      [
        "дорог",
        -10.022473745369261
      ],
      [
        "меньше",
        -10.022855506128167
      ],
      [
        "treatment",
        -10.023572910980139
      ],
      [
        "Ko",
        -10.023933620417184
      ],
      [
        "symbol",
        -10.024235612974099
      ],
      [
        "rie",
        -10.025019942477169
      ],
      [
        "pair",
        -10.02513977282442
      ],
      [
        "оценк",
        -10.0252258710842
      ],
      [
        "елл",
        -10.025780983056682
      ],
      [
        "ьян",
        -10.02598310957683
      ],
      [
        "maintain",
        -10.026067950832406
      ],
      [
        "til",
        -10.02636795526405
      ],
      [
        "machine",
        -10.026489500827797
      ],
      [
        "concern",
        -10.026983812746561
      ],
      [
        "используют",
        -10.027186543965048
      ],
      [
        "types",
        -10.027396937822946
      ],
      [
        "engineer",
        -10.027607659579033
      ],
      [
        "Восточно",
        -10.027621881524684
      ],
      [
        "руш",
        -10.027900255865685
      ],
      [
        "technique",
        -10.027907366161232
      ],
      [
        "approach",
        -10.027907421718407
      ],
      [
        "commercial",
        -10.028845341411731
      ],
      [
        "тот",
        -10.02890030975081
      ],
      [
        "73",
        -10.028934082348998
      ],
      [
        "Аль",
        -10.029068837845685
      ],
      [
        "chemical",
        -10.029149825528705
      ],
      [
        "большинство",
        -10.029572445311489
      ],
      [
        "образование",
        -10.029615158228175
      ],
      [
        "модель",
        -10.029817567705809
      ],
      [
        "ret",
        -10.030226929659136
      ],
      [
        "смотря",
        -10.030828326738197
      ],
      [
        "Old",
        -10.031078514888506
      ],
      [
        "нг",
        -10.031096690524238
      ],
      [
        "ready",
        -10.031131077187409
      ],
      [
        "защит",
        -10.031511801789119
      ],
      [
        "Bell",
        -10.031774943767914
      ],
      [
        "Васили",
        -10.031776947128387
      ],
      [
        "ший",
        -10.033048844992656
      ],
      [
        "Da",
        -10.033291095228686
      ],
      [
        "ции",
        -10.033471622625004
      ],
      [
        "little",
        -10.03361462880326
      ],
      [
        "просто",
        -10.033830948068104
      ],
      [
        "фор",
        -10.034564528694943
      ],
      [
        "независимость",
        -10.035366417970884
      ],
      [
        "олог",
        -10.035900310381288
      ],
      [
        "Петра",
        -10.03647165884177
      ],
      [
        "известно",
        -10.036766634143655
      ],
      [
        "cu",
        -10.03715853941926
      ],
      [
        "Richard",
        -10.03816748549464
      ],
      [
        "Chin",
        -10.038544290827314
      ],
      [
        "тре",
        -10.038657760278811
      ],
      [
        "ok",
        -10.038708756638155
      ],
      [
        "технологи",
        -10.03915306966054
      ],
      [
        "рабочи",
        -10.03925237460772
      ],
      [
        "ел",
        -10.03946791756295
      ],
      [
        "nature",
        -10.03959189605744
      ],
      [
        "Ed",
        -10.039696751491302
      ],
      [
        "температур",
        -10.039700409396692
      ],
      [
        "рыб",
        -10.040058701339097
      ],
      [
        "научны",
        -10.041168373521753
      ],
      [
        "сте",
        -10.041899227177247
      ],
      [
        "China",
        -10.042084155070668
      ],
      [
        "iz",
        -10.042891324740971
      ],
      [
        "But",
        -10.04312884948313
      ],
      [
        "Би",
        -10.043532083591998
      ],
      [
        "полу",
        -10.043819921884097
      ],
      [
        "крестьян",
        -10.045651879311102
      ],
      [
        "target",
        -10.045705580831346
      ],
      [
        "бал",
        -10.045984348426924
      ],
      [
        "след",
        -10.046379122247096
      ],
      [
        "app",
        -10.046615951205471
      ],
      [
        "северо",
        -10.046708834757146
      ],
      [
        "performance",
        -10.046814971179383
      ],
      [
        "Mor",
        -10.047480798412973
      ],
      [
        "micro",
        -10.047868174432038
      ],
      [
        "экономическо",
        -10.048497016931874
      ],
      [
        "songwriter",
        -10.048551586009504
      ],
      [
        "находил",
        -10.048739379707804
      ],
      [
        "Inter",
        -10.04910354092235
      ],
      [
        "Party",
        -10.049123423868483
      ],
      [
        "1953",
        -10.049491733196508
      ],
      [
        "ask",
        -10.049694201755525
      ],
      [
        "_",
        -10.050369690175476
      ],
      [
        "ключая",
        -10.050415162260562
      ],
      [
        "нин",
        -10.050448728818106
      ],
      [
        "Русско",
        -10.050662269392781
      ],
      [
        "вступил",
        -10.051424976669395
      ],
      [
        "нут",
        -10.051803622236253
      ],
      [
        "Жан",
        -10.05180631068427
      ],
      [
        "ize",
        -10.05256202322038
      ],
      [
        "кров",
        -10.052618776725495
      ],
      [
        "1910",
        -10.053082288054993
      ],
      [
        "High",
        -10.053137365014972
      ],
      [
        "growth",
        -10.053162166684832
      ],
      [
        "лог",
        -10.053417805411296
      ],
      [
        "propos",
        -10.053931839438567
      ],
      [
        "films",
        -10.054049973169587
      ],
      [
        "song",
        -10.054144240982776
      ],
      [
        "российско",
        -10.054769791840782
      ],
      [
        "Academ",
        -10.055113730988316
      ],
      [
        "brough",
        -10.055935550752734
      ],
      [
        "health",
        -10.056088868386144
      ],
      [
        "Cr",
        -10.056150620384464
      ],
      [
        "ила",
        -10.05655441867355
      ],
      [
        "device",
        -10.057382547147867
      ],
      [
        "стат",
        -10.05775411073105
      ],
      [
        "female",
        -10.058929428355345
      ],
      [
        "carbon",
        -10.058947948285399
      ],
      [
        "гре",
        -10.05895567655335
      ],
      [
        "каждо",
        -10.059219898140029
      ],
      [
        "театр",
        -10.059836775572268
      ],
      [
        "самолёт",
        -10.059899350795973
      ],
      [
        "района",
        -10.059995683932097
      ],
      [
        "sch",
        -10.061269389358628
      ],
      [
        "ура",
        -10.061520106944329
      ],
      [
        "бывши",
        -10.062189634475924
      ],
      [
        "prevent",
        -10.062251588322454
      ],
      [
        "объект",
        -10.062764755287429
      ],
      [
        "бир",
        -10.06329845145753
      ],
      [
        "фф",
        -10.06347033245084
      ],
      [
        "league",
        -10.06368600858837
      ],
      [
        "ация",
        -10.064143828481864
      ],
      [
        "РФ",
        -10.064247720992809
      ],
      [
        "инженер",
        -10.064669403781167
      ],
      [
        "Eastern",
        -10.064674018682371
      ],
      [
        "98",
        -10.06467637412183
      ],
      [
        "скому",
        -10.065082564882246
      ],
      [
        "кри",
        -10.06533452353891
      ],
      [
        "академик",
        -10.065415683041191
      ],
      [
        "84",
        -10.065626629296904
      ],
      [
        "physical",
        -10.066211666430679
      ],
      [
        "wi",
        -10.06641076074992
      ],
      [
        "Польш",
        -10.066979974479839
      ],
      [
        "lan",
        -10.067011460377753
      ],
      [
        "Ник",
        -10.069037794847716
      ],
      [
        "Юри",
        -10.069174691416087
      ],
      [
        "lit",
        -10.06925655652132
      ],
      [
        "child",
        -10.069267112433897
      ],
      [
        "kh",
        -10.069515713586387
      ],
      [
        "names",
        -10.069518973435368
      ],
      [
        "сети",
        -10.07025905751886
      ],
      [
        "advance",
        -10.070446986487402
      ],
      [
        "голов",
        -10.072049147424472
      ],
      [
        "Красно",
        -10.072339325223922
      ],
      [
        "Fe",
        -10.072783439014977
      ],
      [
        "1912",
        -10.073354030018283
      ],
      [
        "тели",
        -10.073626491096416
      ],
      [
        "organization",
        -10.073677791897484
      ],
      [
        "университета",
        -10.073725225346696
      ],
      [
        "reading",
        -10.073789778750534
      ],
      [
        "Republic",
        -10.073963453639244
      ],
      [
        "ept",
        -10.074092055272978
      ],
      [
        "армия",
        -10.074129430935717
      ],
      [
        "destroy",
        -10.074318250417255
      ],
      [
        "торговл",
        -10.074504121295579
      ],
      [
        "added",
        -10.074569633008196
      ],
      [
        "Count",
        -10.074877576398098
      ],
      [
        "Paris",
        -10.074950199491006
      ],
      [
        "уча",
        -10.074956154987053
      ],
      [
        "increasing",
        -10.07528712753026
      ],
      [
        "чел",
        -10.07568651228075
      ],
      [
        "министра",
        -10.075828874432833
      ],
      [
        "recorded",
        -10.075839322170964
      ],
      [
        "outside",
        -10.076021032965407
      ],
      [
        "политическо",
        -10.076062613433542
      ],
      [
        "нул",
        -10.076295272340403
      ],
      [
        "мастер",
        -10.076376340753203
      ],
      [
        "нос",
        -10.07642919155329
      ],
      [
        "бел",
        -10.07655524116445
      ],
      [
        "ера",
        -10.076867243763218
      ],
      [
        "ants",
        -10.077248957799291
      ],
      [
        "Мин",
        -10.078115188822393
      ],
      [
        "subsequent",
        -10.078202578727259
      ],
      [
        "Умерши",
        -10.07820277160517
      ],
      [
        "Henry",
        -10.07820951565787
      ],
      [
        "combin",
        -10.078760230246097
      ],
      [
        "val",
        -10.079211797242156
      ],
      [
        "ica",
        -10.079586046548554
      ],
      [
        "cal",
        -10.080596212155989
      ],
      [
        "vol",
        -10.080664886212087
      ],
      [
        "UK",
        -10.081104765086415
      ],
      [
        "1913",
        -10.081191898333373
      ],
      [
        "bal",
        -10.081722090725327
      ],
      [
        "Russia",
        -10.081957959084871
      ],
      [
        "living",
        -10.082120945081785
      ],
      [
        "night",
        -10.082866830635375
      ],
      [
        "Земли",
        -10.084100924992185
      ],
      [
        "normal",
        -10.08419882978064
      ],
      [
        "access",
        -10.084297473775239
      ],
      [
        "прошл",
        -10.084954154924354
      ],
      [
        "Saint",
        -10.0860931926285
      ],
      [
        "1901",
        -10.08706699083116
      ],
      [
        "парк",
        -10.087256456526017
      ],
      [
        "льного",
        -10.088048424742912
      ],
      [
        "rights",
        -10.088133828493932
      ],
      [
        "pent",
        -10.088417898815052
      ],
      [
        "southern",
        -10.088970236435287
      ],
      [
        "Albert",
        -10.089816298035675
      ],
      [
        "брат",
        -10.091258784699226
      ],
      [
        "angle",
        -10.091342533291353
      ],
      [
        "деятельность",
        -10.091480001860706
      ],
      [
        "Кур",
        -10.091692214195527
      ],
      [
        "<",
        -10.09192155810478
      ],
      [
        "difference",
        -10.09195989897744
      ],
      [
        "affect",
        -10.092103504898716
      ],
      [
        "card",
        -10.092160432976552
      ],
      [
        "морско",
        -10.092959290234202
      ],
      [
        "Sp",
        -10.09329580707032
      ],
      [
        "speed",
        -10.093409590931264
      ],
      [
        "Мон",
        -10.093494037617162
      ],
      [
        "nation",
        -10.093786607931325
      ],
      [
        "назван",
        -10.093834827192062
      ],
      [
        "печат",
        -10.093861919209647
      ],
      [
        "советск",
        -10.093899845468902
      ],
      [
        "1906",
        -10.094206419250748
      ],
      [
        "енны",
        -10.09427908835304
      ],
      [
        "Si",
        -10.094408011822773
      ],
      [
        "архитектор",
        -10.094885987340552
      ],
      [
        "measure",
        -10.095372780463132
      ],
      [
        "lie",
        -10.095662527580743
      ],
      [
        "978",
        -10.095883281798214
      ],
      [
        "display",
        -10.096132921280192
      ],
      [
        "ируют",
        -10.09630466250212
      ],
      [
        "Nor",
        -10.096432942239655
      ],
      [
        "Лондон",
        -10.0968685259643
      ],
      [
        "Сам",
        -10.097090610849218
      ],
      [
        "billion",
        -10.097152104884852
      ],
      [
        "участие",
        -10.097734507520578
      ],
      [
        "канал",
        -10.098072621661867
      ],
      [
        "погиб",
        -10.098776907405401
      ],
      [
        "Швеци",
        -10.098853858187994
      ],
      [
        "pop",
        -10.098859855611826
      ],
      [
        "relationship",
        -10.098943654302746
      ],
      [
        "tend",
        -10.099161444255607
      ],
      [
        "Early",
        -10.099393230682093
      ],
      [
        "nes",
        -10.099608379378626
      ],
      [
        "People",
        -10.099846417082283
      ],
      [
        "double",
        -10.099846783769749
      ],
      [
        "жени",
        -10.100579121984197
      ],
      [
        "Court",
        -10.100913969093764
      ],
      [
        "Bi",
        -10.101637144353269
      ],
      [
        "мые",
        -10.101796223423658
      ],
      [
        "Mac",
        -10.10191338576474
      ],
      [
        "mes",
        -10.102780345387401
      ],
      [
        "capture",
        -10.102923573817113
      ],
      [
        "observ",
        -10.102999648950766
      ],
      [
        "земли",
        -10.104169700340004
      ],
      [
        "западно",
        -10.10456045751252
      ],
      [
        "ich",
        -10.10466516497863
      ],
      [
        "Эл",
        -10.104733234865193
      ],
      [
        "занял",
        -10.105485070859539
      ],
      [
        "круг",
        -10.105520189947761
      ],
      [
        "дней",
        -10.105795563227534
      ],
      [
        "происходит",
        -10.105835414668729
      ],
      [
        "географ",
        -10.106183589352092
      ],
      [
        "места",
        -10.106566193730679
      ],
      [
        "Эн",
        -10.106752264456016
      ],
      [
        "wave",
        -10.10678574483611
      ],
      [
        "комплекс",
        -10.106832460960824
      ],
      [
        "agree",
        -10.106853394796625
      ],
      [
        "Ber",
        -10.106921112278958
      ],
      [
        "course",
        -10.106932726133685
      ],
      [
        "Dis",
        -10.107090384276965
      ],
      [
        "Je",
        -10.107113599131946
      ],
      [
        "travel",
        -10.107449012761082
      ],
      [
        "declar",
        -10.107879806471402
      ],
      [
        "companie",
        -10.107881275498924
      ],
      [
        "себе",
        -10.107973510749776
      ],
      [
        "1000",
        -10.108189709128986
      ],
      [
        "именно",
        -10.108462968574466
      ],
      [
        "collection",
        -10.108710171862137
      ],
      [
        "border",
        -10.108741176376235
      ],
      [
        "vehicle",
        -10.108837448531396
      ],
      [
        "effort",
        -10.108837859388125
      ],
      [
        "burg",
        -10.108927340481445
      ],
      [
        "ывает",
        -10.108987500403646
      ],
      [
        "династи",
        -10.10899754987471
      ],
      [
        "чер",
        -10.10935943610642
      ],
      [
        "Red",
        -10.110038449917681
      ],
      [
        "возможность",
        -10.110920362307315
      ],
      [
        "множество",
        -10.111225483402443
      ],
      [
        "composer",
        -10.111482742821902
      ],
      [
        "типа",
        -10.111619254883783
      ],
      [
        "щен",
        -10.112185058072344
      ],
      [
        "ek",
        -10.1126656909016
      ],
      [
        "sexual",
        -10.11286233015991
      ],
      [
        "gr",
        -10.113946447762412
      ],
      [
        "deal",
        -10.114058456436586
      ],
      [
        "prove",
        -10.114651111758926
      ],
      [
        "действи",
        -10.115092156447698
      ],
      [
        "одна",
        -10.115169961310214
      ],
      [
        "Никола",
        -10.115362809362928
      ],
      [
        "rum",
        -10.115697485505923
      ],
      [
        "bishop",
        -10.115831988334103
      ],
      [
        "Science",
        -10.115886873252247
      ],
      [
        "привел",
        -10.115889849019696
      ],
      [
        "probabl",
        -10.115937705320631
      ],
      [
        "Среди",
        -10.115963609123753
      ],
      [
        "Sun",
        -10.116167094012955
      ],
      [
        "Un",
        -10.11647087456045
      ],
      [
        "сан",
        -10.116600938334429
      ],
      [
        "career",
        -10.11661291801162
      ],
      [
        "ски",
        -10.116648734918687
      ],
      [
        "класс",
        -10.116842190462215
      ],
      [
        "blood",
        -10.116897880627018
      ],
      [
        "долго",
        -10.117727946871575
      ],
      [
        "approximate",
        -10.117910028448485
      ],
      [
        "конституци",
        -10.118080561311874
      ],
      [
        "speak",
        -10.11817138015229
      ],
      [
        "благо",
        -10.118280869085549
      ],
      [
        "ero",
        -10.118660282819244
      ],
      [
        "cast",
        -10.119124502814309
      ],
      [
        "Council",
        -10.119937396621363
      ],
      [
        "potential",
        -10.119937439414354
      ],
      [
        "look",
        -10.119946963224983
      ],
      [
        "Mil",
        -10.12061521028875
      ],
      [
        "Родивши",
        -10.120992209099372
      ],
      [
        "вариант",
        -10.121020835991125
      ],
      [
        "водо",
        -10.121320236378804
      ],
      [
        "primar",
        -10.121441302449394
      ],
      [
        "тогда",
        -10.12171767921319
      ],
      [
        "рик",
        -10.121813981467092
      ],
      [
        "92",
        -10.122173528515301
      ],
      [
        "Московско",
        -10.122312027767869
      ],
      [
        "сильно",
        -10.122354303193742
      ],
      [
        "независимост",
        -10.122548278163066
      ],
      [
        "группа",
        -10.122655505158637
      ],
      [
        "Александра",
        -10.122877130994851
      ],
      [
        "ida",
        -10.123165310764085
      ],
      [
        "tz",
        -10.12425070717116
      ],
      [
        "ram",
        -10.124408884074995
      ],
      [
        "практически",
        -10.125023930948576
      ],
      [
        "matter",
        -10.125260726427165
      ],
      [
        "71",
        -10.125758656122404
      ],
      [
        "Buddha",
        -10.126044346889223
      ],
      [
        "авто",
        -10.126526381140746
      ],
      [
        "положение",
        -10.12660791868543
      ],
      [
        "seem",
        -10.127340425857504
      ],
      [
        "dom",
        -10.127495764529325
      ],
      [
        "software",
        -10.1274990140762
      ],
      [
        "ST",
        -10.127918840331795
      ],
      [
        "wall",
        -10.127946987301659
      ],
      [
        "соответстви",
        -10.12808822916487
      ],
      [
        "песн",
        -10.12878764573268
      ],
      [
        "Верховно",
        -10.129116594645126
      ],
      [
        "срок",
        -10.13007841807528
      ],
      [
        "annual",
        -10.130137152066958
      ],
      [
        "bert",
        -10.130239351088042
      ],
      [
        "явля",
        -10.130616457996549
      ],
      [
        "энерги",
        -10.131096256681786
      ],
      [
        "пункт",
        -10.131163244705249
      ],
      [
        "analysi",
        -10.131213379491838
      ],
      [
        "имел",
        -10.131318829209409
      ],
      [
        "station",
        -10.131347705533997
      ],
      [
        "матери",
        -10.131841186523772
      ],
      [
        "rich",
        -10.132153816704957
      ],
      [
        "beginning",
        -10.13219651504145
      ],
      [
        "compos",
        -10.132248153463541
      ],
      [
        "готов",
        -10.132399181949777
      ],
      [
        "ированны",
        -10.132438904448481
      ],
      [
        "radio",
        -10.132936726902447
      ],
      [
        "longer",
        -10.133115719890277
      ],
      [
        "cultural",
        -10.133228506815854
      ],
      [
        "describ",
        -10.133262110535332
      ],
      [
        "исследования",
        -10.133463470477345
      ],
      [
        "vote",
        -10.134120435892392
      ],
      [
        "province",
        -10.134245296636681
      ],
      [
        "Thomas",
        -10.134247194777341
      ],
      [
        "1951",
        -10.134308923740011
      ],
      [
        "leader",
        -10.135679773190095
      ],
      [
        "опер",
        -10.136666611856477
      ],
      [
        "экономически",
        -10.137027388305384
      ],
      [
        "пра",
        -10.137180174916974
      ],
      [
        "ьер",
        -10.138160715787931
      ],
      [
        "аппарат",
        -10.138376731366673
      ],
      [
        "лад",
        -10.13862617798086
      ],
      [
        "memor",
        -10.13960481508812
      ],
      [
        "ивает",
        -10.139906309591606
      ],
      [
        "fail",
        -10.139923442858526
      ],
      [
        "Америк",
        -10.140228434630096
      ],
      [
        "жителе",
        -10.140559512149865
      ],
      [
        "Pri",
        -10.140600063855814
      ],
      [
        "actual",
        -10.14077950333703
      ],
      [
        "метр",
        -10.14147888232621
      ],
      [
        "econom",
        -10.141825598079844
      ],
      [
        "express",
        -10.14222922473844
      ],
      [
        "latter",
        -10.142499014169179
      ],
      [
        "лав",
        -10.142759208554306
      ],
      [
        "Наук",
        -10.143033696258122
      ],
      [
        "тех",
        -10.143051097519116
      ],
      [
        "Бог",
        -10.143171669053977
      ],
      [
        "disease",
        -10.143566146984368
      ],
      [
        "purpose",
        -10.143571580076891
      ],
      [
        "Кам",
        -10.143572959512838
      ],
      [
        "честь",
        -10.143597123749796
      ],
      [
        "row",
        -10.143866450544849
      ],
      [
        "представляет",
        -10.143878032023983
      ],
      [
        "архитектур",
        -10.144059558157116
      ],
      [
        "para",
        -10.144126478736332
      ],
      [
        "промышленност",
        -10.144218846688458
      ],
      [
        "дипломатически",
        -10.144832139825098
      ],
      [
        "degree",
        -10.144991985368035
      ],
      [
        "try",
        -10.145042779324523
      ],
      [
        "give",
        -10.145375680764184
      ],
      [
        "Ti",
        -10.145502517085875
      ],
      [
        "bor",
        -10.14612284021908
      ],
      [
        "провод",
        -10.146161422739887
      ],
      [
        "волн",
        -10.146450916705582
      ],
      [
        "Ян",
        -10.146715979673989
      ],
      [
        "испански",
        -10.147695719038232
      ],
      [
        "всем",
        -10.147759170799672
      ],
      [
        "territory",
        -10.148760801477161
      ],
      [
        "Societ",
        -10.148760878949211
      ],
      [
        "управления",
        -10.149079316956712
      ],
      [
        "дела",
        -10.149666326123196
      ],
      [
        "относительно",
        -10.149709573626449
      ],
      [
        "объявлен",
        -10.149831535621278
      ],
      [
        "question",
        -10.150180005046414
      ],
      [
        "пут",
        -10.150306862169822
      ],
      [
        "manager",
        -10.150363761150626
      ],
      [
        "Ital",
        -10.150424325324945
      ],
      [
        "восточно",
        -10.150502524266393
      ],
      [
        "игр",
        -10.150700432728641
      ],
      [
        "themsel",
        -10.151058169768731
      ],
      [
        "particle",
        -10.151696491777066
      ],
      [
        "76",
        -10.152802411020364
      ],
      [
        "Стар",
        -10.152804658660198
      ],
      [
        "formal",
        -10.152844616219774
      ],
      [
        "formation",
        -10.15297798986289
      ],
      [
        "знач",
        -10.153777239984464
      ],
      [
        "полёт",
        -10.15570723300368
      ],
      [
        "князь",
        -10.156141887104269
      ],
      [
        "лег",
        -10.1562848486501
      ],
      [
        "курс",
        -10.1568099566813
      ],
      [
        "*",
        -10.157150988091853
      ],
      [
        "Central",
        -10.157151004923016
      ],
      [
        "Middle",
        -10.157152226090945
      ],
      [
        "mu",
        -10.157500699890765
      ],
      [
        "мета",
        -10.157725035450698
      ],
      [
        "лож",
        -10.158426058830116
      ],
      [
        "эт",
        -10.158868367151708
      ],
      [
        "centre",
        -10.158928815284925
      ],
      [
        "носит",
        -10.159616198544558
      ],
      [
        "атом",
        -10.160196226389369
      ],
      [
        "phone",
        -10.16121364858454
      ],
      [
        "compound",
        -10.161390448627863
      ],
      [
        "числ",
        -10.161519808273386
      ],
      [
        "лев",
        -10.161596550557443
      ],
      [
        "Gi",
        -10.161748424277489
      ],
      [
        "Hall",
        -10.162105579805738
      ],
      [
        "paper",
        -10.16247185226923
      ],
      [
        "ложен",
        -10.162488722324678
      ],
      [
        "White",
        -10.163102360104107
      ],
      [
        "становит",
        -10.16327654451769
      ],
      [
        "гра",
        -10.163890426403208
      ],
      [
        "az",
        -10.16412616982537
      ],
      [
        "Wi",
        -10.164392981476464
      ],
      [
        "risk",
        -10.165019903374487
      ],
      [
        "marrie",
        -10.165197906008704
      ],
      [
        "mann",
        -10.16569991749416
      ],
      [
        "направлени",
        -10.165771899012007
      ],
      [
        "беж",
        -10.16590713257542
      ],
      [
        "mal",
        -10.166198017235105
      ],
      [
        "контрол",
        -10.166318458169602
      ],
      [
        "социально",
        -10.166390043570113
      ],
      [
        "вшей",
        -10.166614684015588
      ],
      [
        "distance",
        -10.16675683466158
      ],
      [
        "signal",
        -10.166835456554141
      ],
      [
        "посколь",
        -10.166882315633629
      ],
      [
        "serve",
        -10.167038317910773
      ],
      [
        "попытк",
        -10.16710585738074
      ],
      [
        "назначен",
        -10.167713204155403
      ],
      [
        "wife",
        -10.16777000056931
      ],
      [
        "Дан",
        -10.167989824824453
      ],
      [
        "зависимост",
        -10.16867205146708
      ],
      [
        "application",
        -10.168803666095021
      ],
      [
        "foreign",
        -10.168809843760535
      ],
      [
        "troops",
        -10.168810309008983
      ],
      [
        "составлял",
        -10.168963143009494
      ],
      [
        "letter",
        -10.169694628046052
      ],
      [
        "Du",
        -10.169791676993139
      ],
      [
        "воздух",
        -10.16998933291871
      ],
      [
        "rat",
        -10.170012761197658
      ],
      [
        "французско",
        -10.170119936908023
      ],
      [
        "стан",
        -10.170342161949414
      ],
      [
        "drive",
        -10.170387550787556
      ],
      [
        "Солнц",
        -10.171376647658224
      ],
      [
        "нефт",
        -10.172153358579642
      ],
      [
        "глав",
        -10.172387538379711
      ],
      [
        "Национальны",
        -10.172666467376754
      ],
      [
        "tes",
        -10.172954867920128
      ],
      [
        "общественно",
        -10.173290189512695
      ],
      [
        "aid",
        -10.173491270182325
      ],
      [
        "ющее",
        -10.17361729891934
      ],
      [
        "запис",
        -10.173856303063097
      ],
      [
        "истов",
        -10.174152310225123
      ],
      [
        "scale",
        -10.174274133304207
      ],
      [
        "keep",
        -10.174369870806268
      ],
      [
        "bel",
        -10.174751803615479
      ],
      [
        "использовани",
        -10.174946723369182
      ],
      [
        "Bor",
        -10.176078130253039
      ],
      [
        "конфликт",
        -10.176290327626063
      ],
      [
        "секретар",
        -10.176290342984615
      ],
      [
        "ует",
        -10.17661067591957
      ],
      [
        "ray",
        -10.177084602416745
      ],
      [
        "любо",
        -10.177123748181634
      ],
      [
        "Te",
        -10.177882677901543
      ],
      [
        "seat",
        -10.178048880357512
      ],
      [
        "Андре",
        -10.178179025092314
      ],
      [
        "местны",
        -10.178502284699832
      ],
      [
        "shape",
        -10.178540302809619
      ],
      [
        "Гол",
        -10.17864925969068
      ],
      [
        "cap",
        -10.179147705735343
      ],
      [
        "you",
        -10.179376898694676
      ],
      [
        "нием",
        -10.179650902170502
      ],
      [
        "contract",
        -10.17965691513764
      ],
      [
        "истин",
        -10.180219435661838
      ],
      [
        "ныне",
        -10.180250311029361
      ],
      [
        "Ша",
        -10.180317066353869
      ],
      [
        "arian",
        -10.180624359625828
      ],
      [
        "Star",
        -10.1810007402974
      ],
      [
        "жизнь",
        -10.181375971951425
      ],
      [
        "ä",
        -10.181672470295675
      ],
      [
        "плав",
        -10.181843078165457
      ],
      [
        "примерно",
        -10.181955471426853
      ],
      [
        "Май",
        -10.182804915847974
      ],
      [
        "τ",
        -10.183048132154003
      ],
      [
        "поэтом",
        -10.183441281469598
      ],
      [
        "slave",
        -10.183554630255534
      ],
      [
        "украински",
        -10.183833583497194
      ],
      [
        "Ver",
        -10.183853430921832
      ],
      [
        "kin",
        -10.184072556678437
      ],
      [
        "reaction",
        -10.1842481913556
      ],
      [
        "ели",
        -10.184347206512566
      ],
      [
        "reduce",
        -10.184480049116818
      ],
      [
        "draw",
        -10.184542989879608
      ],
      [
        "таким",
        -10.184596493978178
      ],
      [
        "реж",
        -10.184722550262077
      ],
      [
        "борьб",
        -10.185643233437496
      ],
      [
        "verse",
        -10.185975632093964
      ],
      [
        "whom",
        -10.18615701050812
      ],
      [
        "еся",
        -10.186928436989557
      ],
      [
        "depend",
        -10.187106441991316
      ],
      [
        "Мир",
        -10.187151376465174
      ],
      [
        "океан",
        -10.187367704507057
      ],
      [
        "евро",
        -10.187697999574128
      ],
      [
        "здес",
        -10.187754245155507
      ],
      [
        "electron",
        -10.188048505189688
      ],
      [
        "зин",
        -10.188088385060727
      ],
      [
        "System",
        -10.18817291860722
      ],
      [
        "последне",
        -10.188883961322752
      ],
      [
        "document",
        -10.189147797539079
      ],
      [
        "Казахстан",
        -10.189256473758896
      ],
      [
        "текст",
        -10.189422725530665
      ],
      [
        "Wa",
        -10.190000033870783
      ],
      [
        "замен",
        -10.190140074747177
      ],
      [
        "рид",
        -10.190785886756649
      ],
      [
        "alway",
        -10.190807881083249
      ],
      [
        "conduct",
        -10.190836762686693
      ],
      [
        "rough",
        -10.191250752225333
      ],
      [
        "Bill",
        -10.191881587404692
      ],
      [
        "event",
        -10.192360156067643
      ],
      [
        "1903",
        -10.19250596291577
      ],
      [
        "величин",
        -10.192604304794358
      ],
      [
        "Запад",
        -10.193536080342184
      ],
      [
        "appearance",
        -10.1949513209394
      ],
      [
        "град",
        -10.196310118377035
      ],
      [
        "plan",
        -10.196751135994525
      ],
      [
        "Кра",
        -10.196844694923985
      ],
      [
        "называет",
        -10.197146045034401
      ],
      [
        "journalist",
        -10.197240698337467
      ],
      [
        "bad",
        -10.197588159323029
      ],
      [
        "религиозны",
        -10.197728149467569
      ],
      [
        "coach",
        -10.197738071705118
      ],
      [
        "поздне",
        -10.197815684783695
      ],
      [
        "Par",
        -10.1978493962873
      ],
      [
        "шен",
        -10.197970665232987
      ],
      [
        "future",
        -10.197995736616573
      ],
      [
        "Spa",
        -10.19829546895502
      ],
      [
        "legal",
        -10.200224116346284
      ],
      [
        "block",
        -10.20022773186052
      ],
      [
        "working",
        -10.201056274105138
      ],
      [
        "metal",
        -10.201264609656414
      ],
      [
        "ili",
        -10.201302554190226
      ],
      [
        "вывод",
        -10.20202631482165
      ],
      [
        "Music",
        -10.20208880208864
      ],
      [
        "храм",
        -10.202768181409432
      ],
      [
        "занимает",
        -10.203495569533601
      ],
      [
        "explain",
        -10.203563287494237
      ],
      [
        "собственно",
        -10.20495268538566
      ],
      [
        "дз",
        -10.205608428819875
      ],
      [
        "berg",
        -10.205622935536748
      ],
      [
        "факт",
        -10.205692128624268
      ],
      [
        "cus",
        -10.205958883955507
      ],
      [
        "Международны",
        -10.206518062035986
      ],
      [
        "professional",
        -10.206810403486926
      ],
      [
        "губернатор",
        -10.206810404877611
      ],
      [
        "Michael",
        -10.206810423388042
      ],
      [
        "слово",
        -10.207087287244352
      ],
      [
        "искусства",
[...]
