{
  "version": "1.0",
  "truncation": null,
  "padding": null,
  "added_tokens": [
    {
      "id": 0,
      "content": "[UNK]",
      "single_word": false,
      "lstrip": false,
      "rstrip": false,
      "normalized": false,
      "special": true
    },
    {
      "id": 1,
      "content": "[EOS]",
      "single_word": false,
      "lstrip": false,
      "rstrip": false,
      "normalized": false,
      "special": true
    }
  ],
  "normalizer": {
    "type": "Sequence",
    "normalizers": [
      {
        "type": "NFKC"
      }
    ]
  },
  "pre_tokenizer": {
    "type": "BertPreTokenizer"
  },
  "post_processor": null,
  "decoder": null,
  "model": {
    "type": "WordPiece",
    "unk_token": "[UNK]",
    "continuing_subword_prefix": "##",
    "max_input_chars_per_word": 100,
    "vocab": {
      "[UNK]": 0,
      "[EOS]": 1,
      "!": 2,
      "\"": 3,
      "#": 4,
      "$": 5,
      "%": 6,
      "&": 7,
      "'": 8,
      "(": 9,
      ")": 10,
      "*": 11,
      "+": 12,
      ",": 13,
      "-": 14,
      ".": 15,
      "/": 16,
      "0": 17,
      "1": 18,
      "2": 19,
      "3": 20,
      "4": 21,
      "5": 22,
      "6": 23,
      "7": 24,
      "8": 25,
      "9": 26,
      ":": 27,
      ";": 28,
      "<": 29,
      "=": 30,
      ">": 31,
      "?": 32,
      "@": 33,
      "A": 34,
      "B": 35,
      "C": 36,
      "D": 37,
      "E": 38,
      "F": 39,
      "G": 40,
      "H": 41,
      "I": 42,
      "J": 43,
      "K": 44,
      "L": 45,
      "M": 46,
      "N": 47,
      "O": 48,
      "P": 49,
      "Q": 50,
      "R": 51,
      "S": 52,
      "T": 53,
      "U": 54,
      "V": 55,
      "W": 56,
      "X": 57,
      "Y": 58,
      "Z": 59,
      "[": 60,
      "\\": 61,
      "]": 62,
      "^": 63,
      "_": 64,
      "`": 65,
      "a": 66,
      "b": 67,
      "c": 68,
      "d": 69,
      "e": 70,
      "f": 71,
      "g": 72,
      "h": 73,
      "i": 74,
      "j": 75,
      "k": 76,
      "l": 77,
      "m": 78,
      "n": 79,
      "o": 80,
      "p": 81,
      "q": 82,
      "r": 83,
      "s": 84,
      "t": 85,
      "u": 86,
      "v": 87,
      "w": 88,
      "x": 89,
      "y": 90,
      "z": 91,
      "{": 92,
      "|": 93,
      "}": 94,
      "~": 95,
      "¡": 96,
      "¢": 97,
      "£": 98,
      "¥": 99,
      "¦": 100,
      "§": 101,
      "©": 102,
      "«": 103,
      "¬": 104,
      "­": 105,
      "®": 106,
      "°": 107,
      "±": 108,
      "¶": 109,
      "·": 110,
      "»": 111,
      "¿": 112,
      "À": 113,
      "Á": 114,
      "Â": 115,
      "Ã": 116,
      "Ä": 117,
      "Å": 118,
      "Æ": 119,
      "Ç": 120,
      "È": 121,
      "É": 122,
      "Ê": 123,
      "Ì": 124,
      "Í": 125,
      "Î": 126,
      "Ï": 127,
      "Ð": 128,
      "Ñ": 129,
      "Ò": 130,
      "Ó": 131,
      "Õ": 132,
      "Ö": 133,
      "×": 134,
      "Ø": 135,
      "Ù": 136,
      "Ú": 137,
      "Û": 138,
      "Ü": 139,
      "Ý": 140,
      "Þ": 141,
      "ß": 142,
      "à": 143,
      "á": 144,
      "â": 145,
      "ã": 146,
      "ä": 147,
      "å": 148,
      "æ": 149,
      "ç": 150,
      "è": 151,
      "é": 152,
      "ê": 153,
      "ë": 154,
      "ì": 155,
      "í": 156,
      "î": 157,
      "ï": 158,
      "ð": 159,
      "ñ": 160,
      "ò": 161,
      "ó": 162,
      "ô": 163,
      "õ": 164,
      "ö": 165,
      "÷": 166,
      "ø": 167,
      "ù": 168,
      "ú": 169,
      "û": 170,
      "ü": 171,
      "ý": 172,
      "þ": 173,
      "ÿ": 174,
      "Ā": 175,
      "ā": 176,
      "Ă": 177,
      "ă": 178,
      "Ą": 179,
      "ą": 180,
      "Ć": 181,
      "ć": 182,
      "Ĉ": 183,
      "ĉ": 184,
      "Č": 185,
      "č": 186,
      "ď": 187,
      "Đ": 188,
      "đ": 189,
      "Ē": 190,
      "ē": 191,
      "Ĕ": 192,
      "ĕ": 193,
      "ė": 194,
      "Ę": 195,
      "ę": 196,
      "Ě": 197,
      "ě": 198,
      "Ĝ": 199,
      "ĝ": 200,
      "Ğ": 201,
      "ğ": 202,
      "ġ": 203,
      "Ģ": 204,
      "ģ": 205,
      "Ĥ": 206,
      "ĥ": 207,
      "Ħ": 208,
      "ħ": 209,
      "Ĩ": 210,
      "ĩ": 211,
      "Ī": 212,
      "ī": 213,
      "ĭ": 214,
      "Į": 215,
      "į": 216,
      "İ": 217,
      "ı": 218,
      "Ĵ": 219,
      "ĵ": 220,
      "Ķ": 221,
      "ķ": 222,
      "ļ": 223,
      "Ľ": 224,
      "Ł": 225,
      "ł": 226,
      "Ń": 227,
      "ń": 228,
      "ņ": 229,
      "ň": 230,
      "Ŋ": 231,
      "ŋ": 232,
      "Ō": 233,
      "ō": 234,
      "ŏ": 235,
      "Ő": 236,
      "ő": 237,
      "Œ": 238,
      "œ": 239,
      "ŕ": 240,
      "ŗ": 241,
      "ř": 242,
      "Ś": 243,
      "ś": 244,
      "Ŝ": 245,
      "ŝ": 246,
      "Ş": 247,
      "ş": 248,
      "Š": 249,
      "š": 250,
      "Ţ": 251,
      "ţ": 252,
      "ť": 253,
      "Ū": 254,
      "ū": 255,
      "Ŭ": 256,
      "ŭ": 257,
      "ů": 258,
      "ű": 259,
      "ų": 260,
      "ŵ": 261,
      "ŷ": 262,
      "Ź": 263,
      "ź": 264,
      "Ż": 265,
      "ż": 266,
      "Ž": 267,
      "ž": 268,
      "Ɓ": 269,
      "Ɔ": 270,
      "ƈ": 271,
      "Ɗ": 272,
      "Ɛ": 273,
      "ƒ": 274,
      "Ƙ": 275,
      "ƙ": 276,
      "Ɯ": 277,
      "Ɲ": 278,
      "ơ": 279,
      "ƥ": 280,
      "ư": 281,
      "Ƶ": 282,
      "ƶ": 283,
      "Ʒ": 284,
      "Ƹ": 285,
      "ǁ": 286,
      "Ǎ": 287,
      "ǎ": 288,
      "ǐ": 289,
      "ǒ": 290,
      "ǔ": 291,
      "ǝ": 292,
      "Ǟ": 293,
      "ǟ": 294,
      "Ǡ": 295,
      "ǡ": 296,
      "ǣ": 297,
      "ǧ": 298,
      "ǫ": 299,
      "ǯ": 300,
      "ǰ": 301,
      "ǵ": 302,
      "Ǻ": 303,
      "ǻ": 304,
      "Ȁ": 305,
      "ȁ": 306,
      "Ȃ": 307,
      "ȃ": 308,
      "ȅ": 309,
      "ȉ": 310,
      "ȗ": 311,
      "Ș": 312,
      "ș": 313,
      "Ț": 314,
      "ț": 315,
      "ȝ": 316,
      "ȡ": 317,
      "Ȣ": 318,
      "Ȧ": 319,
      "ȧ": 320,
      "ȩ": 321,
      "ȫ": 322,
      "ȷ": 323,
      "Ⱥ": 324,
      "ɐ": 325,
      "ɑ": 326,
      "ɒ": 327,
      "ɓ": 328,
      "ɔ": 329,
      "ɕ": 330,
      "ɗ": 331,
      "ɘ": 332,
      "ə": 333,
      "ɛ": 334,
      "ɟ": 335,
      "ɡ": 336,
      "ɣ": 337,
      "ɤ": 338,
      "ɦ": 339,
      "ɨ": 340,
      "ɪ": 341,
      "ɫ": 342,
      "ɭ": 343,
      "ɲ": 344,
      "ɳ": 345,
      "ɵ": 346,
      "ɸ": 347,
      "ɹ": 348,
      "ɾ": 349,
      "ʀ": 350,
      "ʂ": 351,
      "ʃ": 352,
      "ʈ": 353,
      "ʉ": 354,
      "ʊ": 355,
      "ʌ": 356,
      "ʎ": 357,
      "ʏ": 358,
      "ʑ": 359,
      "ʒ": 360,
      "ʔ": 361,
      "ʣ": 362,
      "ʤ": 363,
      "ʥ": 364,
      "ʦ": 365,
      "ʧ": 366,
      "ʨ": 367,
      "ʻ": 368,
      "ʼ": 369,
      "ʽ": 370,
      "ʾ": 371,
      "ʿ": 372,
      "ˀ": 373,
      "ˁ": 374,
      "ˈ": 375,
      "ˊ": 376,
      "ː": 377,
      "˭": 378,
      "˹": 379,
      "˺": 380,
      "̀": 381,
      "́": 382,
      "̂": 383,
      "̃": 384,
      "̄": 385,
      "̅": 386,
      "̆": 387,
      "̈": 388,
      "̊": 389,
      "̌": 390,
      "̑": 391,
      "̓": 392,
      "̔": 393,
      "̡": 394,
      "̥": 395,
      "̦": 396,
      "̨": 397,
      "̮": 398,
      "̯": 399,
      "̲": 400,
      "̵": 401,
      "̽": 402,
      "͟": 403,
      "͡": 404,
      "Ϳ": 405,
      "Ά": 406,
      "Έ": 407,
      "ΐ": 408,
      "Α": 409,
      "Β": 410,
      "Γ": 411,
      "Δ": 412,
      "Ε": 413,
      "Ζ": 414,
      "Η": 415,
      "Θ": 416,
      "Ι": 417,
      "Κ": 418,
      "Λ": 419,
      "Μ": 420,
      "Ν": 421,
      "Ξ": 422,
      "Ο": 423,
      "Π": 424,
      "Ρ": 425,
      "Σ": 426,
      "Τ": 427,
      "Υ": 428,
      "Φ": 429,
      "Χ": 430,
      "Ψ": 431,
      "Ω": 432,
      "Ϊ": 433,
      "ά": 434,
      "έ": 435,
      "ή": 436,
      "ί": 437,
      "α": 438,
      "β": 439,
      "γ": 440,
      "δ": 441,
      "ε": 442,
      "ζ": 443,
      "η": 444,
      "θ": 445,
      "ι": 446,
      "κ": 447,
      "λ": 448,
      "μ": 449,
      "ν": 450,
      "ξ": 451,
      "ο": 452,
      "π": 453,
      "ρ": 454,
      "ς": 455,
      "σ": 456,
      "τ": 457,
      "υ": 458,
      "φ": 459,
      "χ": 460,
      "ψ": 461,
      "ω": 462,
      "ϊ": 463,
      "ϋ": 464,
      "ό": 465,
      "ύ": 466,
      "ώ": 467,
      "Ϙ": 468,
      "ϝ": 469,
      "Ϫ": 470,
      "ϳ": 471,
      "Ё": 472,
      "Ђ": 473,
      "Ѓ": 474,
      "Є": 475,
      "Ѕ": 476,
      "І": 477,
      "Ї": 478,
      "Ј": 479,
      "Љ": 480,
      "Њ": 481,
      "Ћ": 482,
      "Ќ": 483,
      "Ў": 484,
      "Џ": 485,
      "А": 486,
      "Б": 487,
      "В": 488,
      "Г": 489,
      "Д": 490,
      "Е": 491,
      "Ж": 492,
      "З": 493,
      "И": 494,
      "Й": 495,
      "К": 496,
      "Л": 497,
      "М": 498,
      "Н": 499,
      "О": 500,
      "П": 501,
      "Р": 502,
      "С": 503,
      "Т": 504,
      "У": 505,
      "Ф": 506,
      "Х": 507,
      "Ц": 508,
      "Ч": 509,
      "Ш": 510,
      "Щ": 511,
      "Ъ": 512,
      "Ы": 513,
      "Ь": 514,
      "Э": 515,
      "Ю": 516,
      "Я": 517,
      "а": 518,
      "б": 519,
      "в": 520,
      "г": 521,
      "д": 522,
      "е": 523,
      "ж": 524,
      "з": 525,
      "и": 526,
      "й": 527,
      "к": 528,
      "л": 529,
      "м": 530,
      "н": 531,
      "о": 532,
      "п": 533,
      "р": 534,
      "с": 535,
      "т": 536,
      "у": 537,
      "ф": 538,
      "х": 539,
      "ц": 540,
      "ч": 541,
      "ш": 542,
      "щ": 543,
      "ъ": 544,
      "ы": 545,
      "ь": 546,
      "э": 547,
      "ю": 548,
      "я": 549,
      "ѐ": 550,
      "ё": 551,
      "ђ": 552,
      "є": 553,
      "ѕ": 554,
      "і": 555,
      "ї": 556,
      "ј": 557,
      "љ": 558,
      "њ": 559,
      "ћ": 560,
      "ѝ": 561,
      "ў": 562,
      "џ": 563,
      "Ѡ": 564,
      "ѡ": 565,
      "Ѣ": 566,
      "ѣ": 567,
      "Ѥ": 568,
      "ѥ": 569,
      "Ѧ": 570,
      "ѧ": 571,
      "Ѩ": 572,
      "ѩ": 573,
      "Ѫ": 574,
      "ѫ": 575,
      "Ѭ": 576,
      "Ѯ": 577,
      "Ѱ": 578,
      "Ѳ": 579,
      "ѳ": 580,
      "Ѵ": 581,
      "ѵ": 582,
      "ѻ": 583,
      "Ѿ": 584,
      "ѿ": 585,
      "҂": 586,
      "҃": 587,
      "҅": 588,
      "Ґ": 589,
      "ґ": 590,
      "Ғ": 591,
      "ғ": 592,
      "Қ": 593,
      "қ": 594,
      "ҝ": 595,
      "Ң": 596,
      "ң": 597,
      "Ү": 598,
      "ү": 599,
      "Ұ": 600,
      "ұ": 601,
      "ҳ": 602,
      "Ҷ": 603,
      "ҷ": 604,
      "Һ": 605,
      "һ": 606,
      "Ӏ": 607,
      "Ӄ": 608,
      "ӏ": 609,
      "ӓ": 610,
      "Ә": 611,
      "ә": 612,
      "Ӝ": 613,
      "Ӡ": 614,
      "ӡ": 615,
      "Ө": 616,
      "ө": 617,
      "Ӯ": 618,
      "ӱ": 619,
      "ӹ": 620,
      "Ա": 621,
      "Գ": 622,
      "Դ": 623,
      "Ե": 624,
      "Թ": 625,
      "Լ": 626,
      "Մ": 627,
      "Ն": 628,
      "Ո": 629,
      "Ջ": 630,
      "Ս": 631,
      "Վ": 632,
      "Տ": 633,
      "Ւ": 634,
      "Ք": 635,
      "ա": 636,
      "բ": 637,
      "գ": 638,
      "դ": 639,
      "ե": 640,
      "զ": 641,
      "է": 642,
      "թ": 643,
      "ի": 644,
      "լ": 645,
      "խ": 646,
      "ծ": 647,
      "կ": 648,
      "հ": 649,
      "ղ": 650,
      "մ": 651,
      "յ": 652,
      "ն": 653,
      "շ": 654,
      "ո": 655,
      "չ": 656,
      "պ": 657,
      "ջ": 658,
      "ռ": 659,
      "ս": 660,
      "վ": 661,
      "տ": 662,
      "ր": 663,
      "ց": 664,
      "ւ": 665,
      "ք": 666,
      "օ": 667,
      "ֆ": 668,
      "ְ": 669,
      "ֲ": 670,
      "ִ": 671,
      "ֵ": 672,
      "ֶ": 673,
      "ַ": 674,
      "ָ": 675,
      "ֹ": 676,
      "ֻ": 677,
      "ּ": 678,
      "־": 679,
      "ׁ": 680,
      "ׂ": 681,
      "א": 682,
      "ב": 683,
      "ג": 684,
      "ד": 685,
      "ה": 686,
      "ו": 687,
      "ז": 688,
      "ח": 689,
      "ט": 690,
      "י": 691,
      "ך": 692,
      "כ": 693,
      "ל": 694,
      "ם": 695,
      "מ": 696,
      "ן": 697,
      "נ": 698,
      "ס": 699,
      "ע": 700,
      "ף": 701,
      "פ": 702,
      "ץ": 703,
      "צ": 704,
      "ק": 705,
      "ר": 706,
      "ש": 707,
      "ת": 708,
      "׳": 709,
      "״": 710,
      "ء": 711,
      "آ": 712,
      "أ": 713,
      "ؤ": 714,
      "إ": 715,
      "ئ": 716,
      "ا": 717,
      "ب": 718,
      "ة": 719,
      "ت": 720,
      "ث": 721,
      "ج": 722,
      "ح": 723,
      "خ": 724,
      "د": 725,
      "ذ": 726,
      "ر": 727,
      "ز": 728,
      "س": 729,
      "ش": 730,
      "ص": 731,
      "ض": 732,
      "ط": 733,
      "ظ": 734,
      "ع": 735,
      "غ": 736,
      "ـ": 737,
      "ف": 738,
      "ق": 739,
      "ك": 740,
      "ل": 741,
      "م": 742,
      "ن": 743,
      "ه": 744,
      "و": 745,
      "ى": 746,
      "ي": 747,
      "ً": 748,
      "َ": 749,
      "ُ": 750,
      "ِ": 751,
      "ّ": 752,
      "ْ": 753,
      "٠": 754,
      "١": 755,
      "٢": 756,
      "٣": 757,
      "٤": 758,
      "٥": 759,
      "٦": 760,
      "٧": 761,
      "٨": 762,
      "٩": 763,
      "ٰ": 764,
      "ٱ": 765,
      "ٹ": 766,
      "پ": 767,
      "څ": 768,
      "چ": 769,
      "ڈ": 770,
      "ژ": 771,
      "ڤ": 772,
      "ڥ": 773,
      "ک": 774,
      "ڬ": 775,
      "ڭ": 776,
      "ڮ": 777,
      "گ": 778,
      "ی": 779,
      "ۖ": 780,
      "۝": 781,
      "۞": 782,
      "ܐ": 783,
      "ܒ": 784,
      "ܓ": 785,
      "ܕ": 786,
      "ܗ": 787,
      "ܙ": 788,
      "ܝ": 789,
      "ܠ": 790,
      "ܡ": 791,
      "ܢ": 792,
      "ܪ": 793,
      "ܬ": 794,
      "ܲ": 795,
      "ܵ": 796,
      "ܼ": 797,
      "݂": 798,
      "݇": 799,
      "ߊ": 800,
      "ߋ": 801,
      "ߌ": 802,
      "ߍ": 803,
      "ߎ": 804,
      "ߏ": 805,
      "ߐ": 806,
      "ߒ": 807,
      "ߓ": 808,
      "ߔ": 809,
      "ߕ": 810,
      "ߖ": 811,
      "ߗ": 812,
      "ߘ": 813,
      "ߙ": 814,
      "ߚ": 815,
      "ߛ": 816,
      "ߜ": 817,
      "ߝ": 818,
      "ߞ": 819,
      "ߟ": 820,
      "ߡ": 821,
      "ߢ": 822,
      "ߣ": 823,
      "ߤ": 824,
      "ߥ": 825,
      "ߦ": 826,
      "߫": 827,
      "߬": 828,
      "߯": 829,
      "߰": 830,
      "߲": 831,
      "ं": 832,
      "ः": 833,
      "अ": 834,
      "आ": 835,
      "ई": 836,
      "ऋ": 837,
      "क": 838,
      "ख": 839,
      "च": 840,
      "छ": 841,
      "ज": 842,
      "झ": 843,
      "ट": 844,
      "ड": 845,
      "त": 846,
      "थ": 847,
      "द": 848,
      "ध": 849,
      "न": 850,
      "प": 851,
      "ब": 852,
      "म": 853,
      "य": 854,
      "र": 855,
      "ल": 856,
      "व": 857,
      "श": 858,
      "ष": 859,
      "स": 860,
      "ा": 861,
      "ि": 862,
      "ी": 863,
      "ु": 864,
      "ृ": 865,
      "े": 866,
      "ो": 867,
      "्": 868,
      "।": 869,
      "আ": 870,
      "ক": 871,
      "গ": 872,
      "জ": 873,
      "ত": 874,
      "দ": 875,
      "ন": 876,
      "প": 877,
      "ব": 878,
      "ভ": 879,
      "য": 880,
      "র": 881,
      "ল": 882,
      "স": 883,
      "়": 884,
      "া": 885,
      "ি": 886,
      "ু": 887,
      "ূ": 888,
      "ে": 889,
      "ো": 890,
      "্": 891,
      "ક": 892,
      "ણ": 893,
      "દ": 894,
      "પ": 895,
      "લ": 896,
      "ષ": 897,
      "સ": 898,
      "ા": 899,
      "્": 900,
      "ஒ": 901,
      "ட": 902,
      "ன": 903,
      "ப": 904,
      "ம": 905,
      "ய": 906,
      "ர": 907,
      "வ": 908,
      "ி": 909,
      "ீ": 910,
      "ு": 911,
      "ை": 912,
      "ொ": 913,
      "்": 914,
      "അ": 915,
      "ഇ": 916,
      "ക": 917,
      "ച": 918,
      "ട": 919,
      "ണ": 920,
      "യ": 921,
      "ര": 922,
      "ല": 923,
      "ള": 924,
      "സ": 925,
      "ാ": 926,
      "ി": 927,
      "ു": 928,
      "ോ": 929,
      "്": 930,
      "ค": 931,
      "ง": 932,
      "ช": 933,
      "บ": 934,
      "ม": 935,
      "ย": 936,
      "ร": 937,
      "ส": 938,
      "ห": 939,
      "อ": 940,
      "ะ": 941,
      "า": 942,
      "ิ": 943,
      "ี": 944,
      "เ": 945,
      "์": 946,
      "་": 947,
      "།": 948,
      "ཁ": 949,
      "ག": 950,
      "ར": 951,
      "ོ": 952,
      "ྫ": 953,
      "Ⴀ": 954,
      "Ⴃ": 955,
      "Ⴇ": 956,
      "Ⴊ": 957,
      "Ⴋ": 958,
      "Ⴍ": 959,
      "Ⴐ": 960,
      "Ⴑ": 961,
      "Ⴕ": 962,
      "Ⴡ": 963,
      "Ⴤ": 964,
      "ა": 965,
      "გ": 966,
      "დ": 967,
      "ე": 968,
      "კ": 969,
      "ლ": 970,
      "ნ": 971,
      "რ": 972,
      "ს": 973,
      "ქ": 974,
      "წ": 975,
      "ჭ": 976,
      "ᅀ": 977,
      "ሀ": 978,
      "ሁ": 979,
      "ሂ": 980,
      "ህ": 981,
      "ር": 982,
      "ስ": 983,
      "ን": 984,
      "እ": 985,
      "ክ": 986,
      "ድ": 987,
      "ᐱ": 988,
      "ᐳ": 989,
      "ᐶ": 990,
      "ᐸ": 991,
      "ᑎ": 992,
      "ᑐ": 993,
      "ᑕ": 994,
      "ᕡ": 995,
      "ᗆ": 996,
      "ᗗ": 997,
      "ᗘ": 998,
      "ᗡ": 999,
      "ᚼ": 1000,
      "ᛁ": 1001,
      "ᛉ": 1002,
      "ᛐ": 1003,
      "ᛒ": 1004,
      "᛭": 1005,
      "ᛳ": 1006,
      "់": 1007,
      "ᴀ": 1008,
      "ᴥ": 1009,
      "ᶏ": 1010,
      "ᶐ": 1011,
      "Ḁ": 1012,
      "ḁ": 1013,
      "ḇ": 1014,
      "Ḍ": 1015,
      "ḍ": 1016,
      "ḏ": 1017,
      "ḑ": 1018,
      "ḗ": 1019,
      "ḙ": 1020,
      "ḡ": 1021,
      "Ḥ": 1022,
      "ḥ": 1023,
      "Ḫ": 1024,
      "ḫ": 1025,
      "ḯ": 1026,
      "ḱ": 1027,
      "Ḳ": 1028,
      "ḳ": 1029,
      "ḵ": 1030,
      "ḷ": 1031,
      "ṁ": 1032,
      "ṃ": 1033,
      "ṅ": 1034,
      "ṇ": 1035,
      "ṓ": 1036,
      "ṕ": 1037,
      "ṗ": 1038,
      "ṙ": 1039,
      "ṛ": 1040,
      "Ṟ": 1041,
      "Ṣ": 1042,
      "ṣ": 1043,
      "Ṫ": 1044,
      "Ṭ": 1045,
      "ṭ": 1046,
      "ṯ": 1047,
      "ṷ": 1048,
      "Ẃ": 1049,
      "Ẅ": 1050,
      "Ẇ": 1051,
      "Ẉ": 1052,
      "Ẓ": 1053,
      "ẓ": 1054,
      "ẖ": 1055,
      "Ạ": 1056,
      "ạ": 1057,
      "Ả": 1058,
      "ả": 1059,
      "Ấ": 1060,
      "ấ": 1061,
      "Ầ": 1062,
      "ầ": 1063,
      "Ẩ": 1064,
      "ẩ": 1065,
      "Ẫ": 1066,
      "ẫ": 1067,
      "Ậ": 1068,
      "ậ": 1069,
      "Ắ": 1070,
      "ắ": 1071,
      "Ằ": 1072,
      "ằ": 1073,
      "Ẳ": 1074,
      "ẳ": 1075,
      "Ẵ": 1076,
      "ẵ": 1077,
      "Ặ": 1078,
      "ặ": 1079,
      "Ẹ": 1080,
      "ẹ": 1081,
      "ẻ": 1082,
      "ẽ": 1083,
      "ế": 1084,
      "ể": 1085,
      "ễ": 1086,
      "ệ": 1087,
      "ỉ": 1088,
      "ị": 1089,
      "ọ": 1090,
      "ồ": 1091,
      "ỗ": 1092,
      "ộ": 1093,
      "ớ": 1094,
      "ờ": 1095,
      "ợ": 1096,
      "Ụ": 1097,
      "ữ": 1098,
      "ỳ": 1099,
      "ỷ": 1100,
      "ἀ": 1101,
      "ἁ": 1102,
      "ἂ": 1103,
      "ἃ": 1104,
      "ἄ": 1105,
      "ἅ": 1106,
      "Ἀ": 1107,
      "Ἁ": 1108,
      "Ἄ": 1109,
      "Ἅ": 1110,
      "ἐ": 1111,
      "ἑ": 1112,
      "ἒ": 1113,
      "ἔ": 1114,
      "ἕ": 1115,
      "Ἐ": 1116,
      "Ἑ": 1117,
      "Ἔ": 1118,
      "Ἕ": 1119,
      "ἠ": 1120,
      "ἡ": 1121,
      "ἢ": 1122,
      "ἤ": 1123,
      "ἥ": 1124,
      "ἦ": 1125,
      "Ἡ": 1126,
      "Ἥ": 1127,
      "Ἦ": 1128,
      "ἰ": 1129,
      "ἱ": 1130,
      "ἲ": 1131,
      "ἳ": 1132,
      "ἴ": 1133,
      "ἵ": 1134,
      "ἶ": 1135,
      "ἷ": 1136,
      "Ἰ": 1137,
      "Ἱ": 1138,
      "Ἵ": 1139,
      "ὀ": 1140,
      "ὁ": 1141,
      "ὄ": 1142,
      "ὅ": 1143,
      "Ὀ": 1144,
      "Ὁ": 1145,
      "Ὅ": 1146,
      "ὐ": 1147,
      "ὑ": 1148,
      "ὔ": 1149,
      "ὕ": 1150,
      "ὖ": 1151,
      "ὗ": 1152,
      "Ὑ": 1153,
      "ὡ": 1154,
      "ὢ": 1155,
      "ὤ": 1156,
      "ὥ": 1157,
      "ὦ": 1158,
      "Ὠ": 1159,
      "Ὢ": 1160,
      "Ὤ": 1161,
      "Ὧ": 1162,
      "ὰ": 1163,
      "ὲ": 1164,
      "ὴ": 1165,
      "ὶ": 1166,
      "ὸ": 1167,
      "ὺ": 1168,
      "ὼ": 1169,
      "ᾴ": 1170,
      "ᾶ": 1171,
      "ᾷ": 1172,
      "ῃ": 1173,
      "ῆ": 1174,
      "ῖ": 1175,
      "ῥ": 1176,
      "ῦ": 1177,
      "Ῥ": 1178,
      "ῶ": 1179,
      "ῷ": 1180,
      "​": 1181,
      "‌": 1182,
      "‍": 1183,
      "‎": 1184,
      "‐": 1185,
      "‒": 1186,
      "–": 1187,
      "—": 1188,
      "―": 1189,
      "‘": 1190,
      "’": 1191,
      "‚": 1192,
      "‛": 1193,
      "“": 1194,
      "”": 1195,
      "„": 1196,
      "†": 1197,
      "‡": 1198,
      "•": 1199,
      "‰": 1200,
      "′": 1201,
      "‹": 1202,
      "›": 1203,
      "‿": 1204,
      "⁂": 1205,
      "⁄": 1206,
      "⁠": 1207,
      "⁣": 1208,
      "₡": 1209,
      "₩": 1210,
      "₪": 1211,
      "€": 1212,
      "₮": 1213,
      "₲": 1214,
      "₳": 1215,
      "₸": 1216,
      "₹": 1217,
      "ↂ": 1218,
      "←": 1219,
      "↑": 1220,
      "→": 1221,
      "↓": 1222,
      "↔": 1223,
      "⇌": 1224,
      "∀": 1225,
      "∂": 1226,
      "∃": 1227,
      "∅": 1228,
      "∆": 1229,
      "∈": 1230,
      "∊": 1231,
      "∋": 1232,
      "−": 1233,
      "∗": 1234,
      "∘": 1235,
      "∙": 1236,
      "√": 1237,
      "∝": 1238,
      "∞": 1239,
      "∧": 1240,
      "∨": 1241,
      "∩": 1242,
      "∪": 1243,
      "∫": 1244,
      "∴": 1245,
      "∼": 1246,
      "≈": 1247,
      "≟": 1248,
      "≠": 1249,
      "≡": 1250,
      "≤": 1251,
      "≥": 1252,
      "≫": 1253,
      "≼": 1254,
      "≽": 1255,
      "⊂": 1256,
      "⊃": 1257,
      "⊆": 1258,
      "⊕": 1259,
      "⊖": 1260,
      "⊗": 1261,
      "⊤": 1262,
      "⊥": 1263,
      "⋅": 1264,
      "⋯": 1265,
      "⌈": 1266,
      "⌊": 1267,
      "⌋": 1268,
      "⌽": 1269,
      "⌿": 1270,
      "⍋": 1271,
      "⍨": 1272,
      "⍳": 1273,
      "⍴": 1274,
      "⍵": 1275,
      "⎧": 1276,
      "⎩": 1277,
      "⏨": 1278,
      "␣": 1279,
      "─": 1280,
      "┌": 1281,
      "┐": 1282,
      "╥": 1283,
      "╨": 1284,
      "▀": 1285,
      "▄": 1286,
      "█": 1287,
      "░": 1288,
      "▒": 1289,
      "▓": 1290,
      "□": 1291,
      "▼": 1292,
      "◊": 1293,
      "○": 1294,
      "◘": 1295,
      "☄": 1296,
      "☉": 1297,
      "☊": 1298,
      "☋": 1299,
      "☠": 1300,
      "☫": 1301,
      "☺": 1302,
      "♀": 1303,
      "♂": 1304,
      "♈": 1305,
      "♋": 1306,
      "♎": 1307,
      "♑": 1308,
      "♒": 1309,
      "♥": 1310,
      "♦": 1311,
      "♭": 1312,
      "♯": 1313,
      "♾": 1314,
      "⚇": 1315,
      "⚓": 1316,
      "⚗": 1317,
      "⚘": 1318,
      "⚥": 1319,
      "⚲": 1320,
      "⟨": 1321,
      "⟩": 1322,
      "⟳": 1323,
      "⟶": 1324,
      "⠀": 1325,
      "⠁": 1326,
      "⠋": 1327,
      "⠙": 1328,
      "⠟": 1329,
      "⠻": 1330,
      "⠿": 1331,
      "⡈": 1332,
      "⡟": 1333,
      "⡷": 1334,
      "⡿": 1335,
      "⢀": 1336,
      "⢁": 1337,
      "⢻": 1338,
      "⢿": 1339,
      "⣉": 1340,
      "⣌": 1341,
      "⣠": 1342,
      "⣦": 1343,
      "⣧": 1344,
      "⣴": 1345,
      "⣶": 1346,
      "⣷": 1347,
      "⣼": 1348,
      "⣾": 1349,
      "⣿": 1350,
      "⩽": 1351,
      "Ⰰ": 1352,
      "Ⰶ": 1353,
      "Ⱌ": 1354,
      "Ⱑ": 1355,
      "ⱑ": 1356,
      "ⱥ": 1357,
      "Ɑ": 1358,
      "Ɐ": 1359,
      "Ɒ": 1360,
      "ⱷ": 1361,
      "ⲃ": 1362,
      "ⲇ": 1363,
      "ⲉ": 1364,
      "ⲓ": 1365,
      "ⲡ": 1366,
      "ⲧ": 1367,
      "ⲱ": 1368,
      "。": 1369,
      "《": 1370,
      "》": 1371,
      "か": 1372,
      "き": 1373,
      "く": 1374,
      "け": 1375,
      "こ": 1376,
      "さ": 1377,
      "し": 1378,
      "と": 1379,
      "な": 1380,
      "の": 1381,
      "ら": 1382,
      "り": 1383,
      "る": 1384,
      "れ": 1385,
      "ろ": 1386,
      "わ": 1387,
      "ア": 1388,
      "イ": 1389,
      "ェ": 1390,
      "キ": 1391,
      "グ": 1392,
      "ケ": 1393,
      "サ": 1394,
      "ジ": 1395,
      "ス": 1396,
      "タ": 1397,
      "ダ": 1398,
      "ッ": 1399,
      "テ": 1400,
      "デ": 1401,
      "ト": 1402,
      "ド": 1403,
      "ナ": 1404,
      "ニ": 1405,
      "ハ": 1406,
      "バ": 1407,
      "ヒ": 1408,
      "ビ": 1409,
      "ピ": 1410,
      "フ": 1411,
      "メ": 1412,
      "リ": 1413,
      "ル": 1414,
      "レ": 1415,
      "ロ": 1416,
      "ワ": 1417,
      "ン": 1418,
      "・": 1419,
      "ー": 1420,
      "ㄌ": 1421,
      "ㄢ": 1422,
      "ㄨ": 1423,
      "一": 1424,
      "七": 1425,
      "三": 1426,
      "上": 1427,
      "下": 1428,
      "中": 1429,
      "主": 1430,
      "久": 1431,
      "之": 1432,
      "也": 1433,
      "事": 1434,
      "二": 1435,
      "五": 1436,
      "井": 1437,
      "亜": 1438,
      "亦": 1439,
      "京": 1440,
      "人": 1441,
      "仏": 1442,
      "以": 1443,
      "件": 1444,
      "伊": 1445,
      "传": 1446,
      "伽": 1447,
      "但": 1448,
      "佛": 1449,
      "作": 1450,
      "例": 1451,
      "侠": 1452,
      "俟": 1453,
      "候": 1454,
      "偿": 1455,
      "傳": 1456,
      "傷": 1457,
      "僕": 1458,
      "僧": 1459,
      "儀": 1460,
      "儒": 1461,
      "儿": 1462,
      "元": 1463,
      "入": 1464,
      "八": 1465,
      "公": 1466,
      "六": 1467,
      "内": 1468,
      "农": 1469,
      "刑": 1470,
      "利": 1471,
      "前": 1472,
      "功": 1473,
      "务": 1474,
      "務": 1475,
      "北": 1476,
      "十": 1477,
      "千": 1478,
      "南": 1479,
      "卷": 1480,
      "友": 1481,
      "可": 1482,
      "台": 1483,
      "史": 1484,
      "叶": 1485,
      "司": 1486,
      "合": 1487,
      "同": 1488,
      "后": 1489,
      "吐": 1490,
      "吗": 1491,
      "君": 1492,
      "员": 1493,
      "咄": 1494,
      "和": 1495,
      "品": 1496,
      "啞": 1497,
      "四": 1498,
      "回": 1499,
      "固": 1500,
      "国": 1501,
      "國": 1502,
      "土": 1503,
      "在": 1504,
      "坐": 1505,
      "垒": 1506,
      "垣": 1507,
      "堂": 1508,
      "堡": 1509,
      "壁": 1510,
      "士": 1511,
      "处": 1512,
      "复": 1513,
      "大": 1514,
      "天": 1515,
      "太": 1516,
      "夫": 1517,
      "女": 1518,
      "奴": 1519,
      "如": 1520,
      "始": 1521,
      "姦": 1522,
      "婁": 1523,
      "婆": 1524,
      "学": 1525,
      "安": 1526,
      "宗": 1527,
      "実": 1528,
      "家": 1529,
      "宿": 1530,
      "密": 1531,
      "寛": 1532,
      "實": 1533,
      "対": 1534,
      "將": 1535,
      "小": 1536,
      "山": 1537,
      "岁": 1538,
      "島": 1539,
      "崩": 1540,
      "州": 1541,
      "左": 1542,
      "币": 1543,
      "师": 1544,
      "帝": 1545,
      "師": 1546,
      "常": 1547,
      "幼": 1548,
      "府": 1549,
      "庫": 1550,
      "建": 1551,
      "強": 1552,
      "彌": 1553,
      "录": 1554,
      "往": 1555,
      "律": 1556,
      "得": 1557,
      "德": 1558,
      "徽": 1559,
      "心": 1560,
      "応": 1561,
      "思": 1562,
      "性": 1563,
      "悉": 1564,
      "悟": 1565,
      "情": 1566,
      "惡": 1567,
      "慶": 1568,
      "憲": 1569,
      "懸": 1570,
      "成": 1571,
      "戦": 1572,
      "才": 1573,
      "折": 1574,
      "拓": 1575,
      "拘": 1576,
      "提": 1577,
      "摩": 1578,
      "支": 1579,
      "改": 1580,
      "政": 1581,
      "故": 1582,
      "教": 1583,
      "文": 1584,
      "斤": 1585,
      "方": 1586,
      "族": 1587,
      "无": 1588,
      "日": 1589,
      "明": 1590,
      "時": 1591,
      "晏": 1592,
      "景": 1593,
      "暂": 1594,
      "曇": 1595,
      "更": 1596,
      "曹": 1597,
      "曼": 1598,
      "月": 1599,
      "有": 1600,
      "朋": 1601,
      "木": 1602,
      "未": 1603,
      "本": 1604,
      "朱": 1605,
      "机": 1606,
      "李": 1607,
      "杜": 1608,
      "条": 1609,
      "東": 1610,
      "杵": 1611,
      "极": 1612,
      "林": 1613,
      "查": 1614,
      "树": 1615,
      "校": 1616,
      "梅": 1617,
      "條": 1618,
      "检": 1619,
      "植": 1620,
      "楚": 1621,
      "楞": 1622,
      "極": 1623,
      "楽": 1624,
      "樂": 1625,
      "樸": 1626,
      "樹": 1627,
      "次": 1628,
      "欧": 1629,
      "欲": 1630,
      "歌": 1631,
      "正": 1632,
      "步": 1633,
      "歲": 1634,
      "歴": 1635,
      "殖": 1636,
      "母": 1637,
      "毛": 1638,
      "民": 1639,
      "氣": 1640,
      "水": 1641,
      "汗": 1642,
      "汝": 1643,
      "沐": 1644,
      "沙": 1645,
      "沢": 1646,
      "泉": 1647,
      "法": 1648,
      "泡": 1649,
      "波": 1650,
      "泰": 1651,
      "流": 1652,
      "测": 1653,
      "海": 1654,
      "淨": 1655,
      "清": 1656,
      "港": 1657,
      "漢": 1658,
      "漿": 1659,
      "濟": 1660,
      "灣": 1661,
      "灯": 1662,
      "災": 1663,
      "為": 1664,
      "無": 1665,
      "然": 1666,
      "熊": 1667,
      "燃": 1668,
      "燈": 1669,
      "燕": 1670,
      "爛": 1671,
      "爸": 1672,
      "犯": 1673,
      "猕": 1674,
      "猴": 1675,
      "獣": 1676,
      "獲": 1677,
      "玉": 1678,
      "珍": 1679,
      "珠": 1680,
      "瑾": 1681,
      "瓜": 1682,
      "用": 1683,
      "略": 1684,
      "白": 1685,
      "百": 1686,
      "皇": 1687,
      "盘": 1688,
      "盤": 1689,
      "盧": 1690,
      "目": 1691,
      "直": 1692,
      "相": 1693,
      "省": 1694,
      "眼": 1695,
      "督": 1696,
      "睦": 1697,
      "破": 1698,
      "社": 1699,
      "祖": 1700,
      "神": 1701,
      "福": 1702,
      "禪": 1703,
      "秋": 1704,
      "科": 1705,
      "秦": 1706,
      "種": 1707,
      "竜": 1708,
      "竞": 1709,
      "竺": 1710,
      "筒": 1711,
      "算": 1712,
      "節": 1713,
      "糖": 1714,
      "紅": 1715,
      "細": 1716,
      "絞": 1717,
      "絶": 1718,
      "絹": 1719,
      "經": 1720,
      "線": 1721,
      "續": 1722,
      "罗": 1723,
      "罚": 1724,
      "罪": 1725,
      "羅": 1726,
      "美": 1727,
      "羽": 1728,
      "者": 1729,
      "耳": 1730,
      "胃": 1731,
      "胡": 1732,
      "脈": 1733,
      "自": 1734,
      "至": 1735,
      "臺": 1736,
      "节": 1737,
      "芳": 1738,
      "茶": 1739,
      "荒": 1740,
      "荼": 1741,
      "菩": 1742,
      "营": 1743,
      "薩": 1744,
      "藻": 1745,
      "蘆": 1746,
      "虎": 1747,
      "蛇": 1748,
      "蠻": 1749,
      "血": 1750,
      "行": 1751,
      "街": 1752,
      "衣": 1753,
      "袈": 1754,
      "裏": 1755,
      "裟": 1756,
      "褥": 1757,
      "西": 1758,
      "見": 1759,
      "覧": 1760,
      "覺": 1761,
      "觀": 1762,
      "解": 1763,
      "記": 1764,
      "訟": 1765,
      "訴": 1766,
      "語": 1767,
      "論": 1768,
      "諸": 1769,
      "諾": 1770,
      "證": 1771,
      "议": 1772,
      "试": 1773,
      "貘": 1774,
      "資": 1775,
      "賢": 1776,
      "贊": 1777,
      "赔": 1778,
      "越": 1779,
      "趙": 1780,
      "跌": 1781,
      "軍": 1782,
      "轉": 1783,
      "辉": 1784,
      "辯": 1785,
      "辰": 1786,
      "農": 1787,
      "适": 1788,
      "通": 1789,
      "連": 1790,
      "道": 1791,
      "達": 1792,
      "遠": 1793,
      "那": 1794,
      "都": 1795,
      "配": 1796,
      "里": 1797,
      "重": 1798,
      "金": 1799,
      "錄": 1800,
      "鍛": 1801,
      "鏡": 1802,
      "鑒": 1803,
      "锻": 1804,
      "長": 1805,
      "长": 1806,
      "門": 1807,
      "開": 1808,
      "間": 1809,
      "関": 1810,
      "阳": 1811,
      "阵": 1812,
      "阿": 1813,
      "陀": 1814,
      "附": 1815,
      "陰": 1816,
      "陳": 1817,
      "陵": 1818,
      "陽": 1819,
      "際": 1820,
      "雄": 1821,
      "集": 1822,
      "雖": 1823,
      "離": 1824,
      "霸": 1825,
      "青": 1826,
      "面": 1827,
      "鞮": 1828,
      "韓": 1829,
      "順": 1830,
      "頭": 1831,
      "願": 1832,
      "類": 1833,
      "香": 1834,
      "馬": 1835,
      "马": 1836,
      "骨": 1837,
      "高": 1838,
      "魏": 1839,
      "魔": 1840,
      "魚": 1841,
      "鮑": 1842,
      "鯤": 1843,
      "鯷": 1844,
      "鴛": 1845,
      "鴦": 1846,
      "麻": 1847,
      "黄": 1848,
      "黑": 1849,
      "鼠": 1850,
      "齊": 1851,
      "龍": 1852,
      "龙": 1853,
      "龜": 1854,
      "ꙋ": 1855,
      "ꙑ": 1856,
      "Ꙗ": 1857,
      "ꙗ": 1858,
      "ꜣ": 1859,
      "Ꜧ": 1860,
      "ꜧ": 1861,
      "Ꜹ": 1862,
      "ꞌ": 1863,
      "ꞑ": 1864,
      "Ꞻ": 1865,
      "ꞻ": 1866,
      "ꬱ": 1867,
      "대": 1868,
      "더": 1869,
      "라": 1870,
      "렉": 1871,
      "르": 1872,
      "목": 1873,
      "바": 1874,
      "사": 1875,
      "산": 1876,
      "수": 1877,
      "식": 1878,
      "알": 1879,
      "용": 1880,
      "음": 1881,
      "의": 1882,
      "이": 1883,
      "일": 1884,
      "조": 1885,
      "주": 1886,
      "증": 1887,
      "충": 1888,
      "판": 1889,
      "홍": 1890,
      "︎": 1891,
      "𐀀": 1892,
      "𐀅": 1893,
      "𐀏": 1894,
      "𐀩": 1895,
      "𐀫": 1896,
      "𐀭": 1897,
      "𐌀": 1898,
      "𐤀": 1899,
      "𐤌": 1900,
      "𐤍": 1901,
      "𐤏": 1902,
      "𑀓": 1903,
      "𑀥": 1904,
      "𑀦": 1905,
      "𑀩": 1906,
      "𑀫": 1907,
      "𑀬": 1908,
      "𑀲": 1909,
      "𑀻": 1910,
      "𑀼": 1911,
      "𑁆": 1912,
      "𒀀": 1913,
      "𒂵": 1914,
      "𒆠": 1915,
      "𒉈": 1916,
      "𓅓": 1917,
      "𓆎": 1918,
      "𓊖": 1919,
      "𓏏": 1920,
      "🇦": 1921,
      "🇫": 1922,
      "🇮": 1923,
      "🇶": 1924,
      "🇷": 1925,
      "🇸": 1926,
      "🇺": 1927,
      "🇿": 1928,
      "🚲": 1929,
      "🛈": 1930,
      "𨁂": 1931,
      "##о": 1932,
      "##р": 1933,
      "##r": 1934,
      "##o": 1935,
      "##w": 1936,
      "##z": 1937,
      "##u": 1938,
      "##l": 1939,
      "##i": 1940,
      "##n": 1941,
      "##c": 1942,
      "##b": 1943,
      "##в": 1944,
      "##д": 1945,
      "##я": 1946,
      "##т": 1947,
      "##с": 1948,
      "##а": 1949,
      "##п": 1950,
      "##ж": 1951,
      "##е": 1952,
      "##н": 1953,
      "##ь": 1954,
      "##к": 1955,
      "##ф": 1956,
      "##г": 1957,
      "##л": 1958,
      "##у": 1959,
      "##ю": 1960,
      "##d": 1961,
      "##g": 1962,
      "##e": 1963,
      "##ы": 1964,
      "##ё": 1965,
      "##х": 1966,
      "##м": 1967,
      "##ч": 1968,
      "##й": 1969,
      "##p": 1970,
      "##a": 1971,
      "##t": 1972,
      "##з": 1973,
      "##и": 1974,
      "##ц": 1975,
      "##э": 1976,
      "##s": 1977,
      "##k": 1978,
      "##h": 1979,
      "##m": 1980,
      "##Р": 1981,
      "##С": 1982,
      "##Т": 1983,
      "##3": 1984,
      "##M": 1985,
      "##L": 1986,
      "##2": 1987,
      "##P": 1988,
      "##9": 1989,
      "##6": 1990,
      "##б": 1991,
      "##φ": 1992,
      "##α": 1993,
      "##σ": 1994,
      "##ί": 1995,
      "##x": 1996,
      "##0": 1997,
      "##5": 1998,
      "##7": 1999,
      "##1": 2000,
      "##O": 2001,
      "##y": 2002,
      "##f": 2003,
      "##ъ": 2004,
      "##י": 2005,
      "##כ": 2006,
      "##ה": 2007,
      "##ε": 2008,
      "##ρ": 2009,
      "##ι": 2010,
      "##ὰ": 2011,
      "##ш": 2012,
      "##δ": 2013,
      "##ῖ": 2014,
      "##ς": 2015,
      "##4": 2016,
      "##Г": 2017,
      "##М": 2018,
      "##Y": 2019,
      "##q": 2020,
      "##έ": 2021,
      "##μ": 2022,
      "##v": 2023,
      "##Э": 2024,
      "##C": 2025,
      "##S": 2026,
      "##E": 2027,
      "##щ": 2028,
      "##A": 2029,
      "##Z": 2030,
      "##R": 2031,
      "##F": 2032,
      "##I": 2033,
      "##ʉ": 2034,
      "##N": 2035,
      "##U": 2036,
      "##ő": 2037,
      "##é": 2038,
      "##θ": 2039,
      "##ό": 2040,
      "##8": 2041,
      "##ü": 2042,
      "##ṃ": 2043,
      "##ā": 2044,
      "##H": 2045,
      "##К": 2046,
      "##T": 2047,
      "##́": 2048,
      "##ú": 2049,
      "##ö": 2050,
      "##W": 2051,
      "##Л": 2052,
      "##П": 2053,
      "##ț": 2054,
      "##D": 2055,
      "##В": 2056,
      "##Ф": 2057,
      "##ū": 2058,
      "##j": 2059,
      "##°": 2060,
      "##í": 2061,
      "##á": 2062,
      "##О": 2063,
      "##ó": 2064,
      "##X": 2065,
      "##і": 2066,
      "##А": 2067,
      "##У": 2068,
      "##B": 2069,
      "##λ": 2070,
      "##υ": 2071,
      "##ᾶ": 2072,
      "##ñ": 2073,
      "##ī": 2074,
      "##ο": 2075,
      "##ä": 2076,
      "##â": 2077,
      "##ș": 2078,
      "##ë": 2079,
      "##Б": 2080,
      "##ṯ": 2081,
      "##V": 2082,
      "##è": 2083,
      "##ã": 2084,
      "##Д": 2085,
      "##И": 2086,
      "##З": 2087,
      "##ג": 2088,
      "##ד": 2089,
      "##ו": 2090,
      "##Е": 2091,
      "##Н": 2092,
      "##Ы": 2093,
      "##Й": 2094,
      "##♭": 2095,
      "##ć": 2096,
      "##ⲱ": 2097,
      "##ⲃ": 2098,
      "##ⲉ": 2099,
      "##G": 2100,
      "##ل": 2101,
      "##م": 2102,
      "##ع": 2103,
      "##ر": 2104,
      "##و": 2105,
      "##ف": 2106,
      "##π": 2107,
      "##χ": 2108,
      "##ή": 2109,
      "##ṛ": 2110,
      "##Ъ": 2111,
      "##ł": 2112,
      "##K": 2113,
      "##ž": 2114,
      "##ṣ": 2115,
      "##Ц": 2116,
      "##Х": 2117,
      "##ӏ": 2118,
      "##↑": 2119,
      "##ş": 2120,
      "##−": 2121,
      "##Ь": 2122,
      "##ê": 2123,
      "##𑀓": 2124,
      "##𑁆": 2125,
      "##𑀬": 2126,
      "##𑀫": 2127,
      "##𑀼": 2128,
      "##𑀦": 2129,
      "##𑀻": 2130,
      "##ν": 2131,
      "##ש": 2132,
      "##ל": 2133,
      "##č": 2134,
      "##J": 2135,
      "##家": 2136,
      "##赔": 2137,
      "##偿": 2138,
      "##法": 2139,
      "##Ω": 2140,
      "##ŋ": 2141,
      "##ɡ": 2142,
      "##ɔ": 2143,
      "##ă": 2144,
      "##ʾ": 2145,
      "##­": 2146,
      "##ξ": 2147,
      "##ا": 2148,
      "##د": 2149,
      "##ç": 2150,
      "##Ч": 2151,
      "##ı": 2152,
      "##ğ": 2153,
      "##ת": 2154,
      "##ń": 2155,
      "##ά": 2156,
      "##κ": 2157,
      "##τ": 2158,
      "##æ": 2159,
      "##ḥ": 2160,
      "##公": 2161,
      "##頭": 2162,
      "##ʼ": 2163,
      "##ύ": 2164,
      "##道": 2165,
      "##歌": 2166,
      "##à": 2167,
      "##ʿ": 2168,
      "##陰": 2169,
      "##ý": 2170,
      "##×": 2171,
      "##ζ": 2172,
      "##η": 2173,
      "##ւ": 2174,
      "##ك": 2175,
      "##ô": 2176,
      "##ṭ": 2177,
      "##š": 2178,
      "##£": 2179,
      "##γ": 2180,
      "##ę": 2181,
      "##ṇ": 2182,
      "##ب": 2183,
      "##ن": 2184,
      "##ج": 2185,
      "##ś": 2186,
      "##Χ": 2187,
      "##Ο": 2188,
      "##Λ": 2189,
      "##Η": 2190,
      "##ɒ": 2191,
      "##ō": 2192,
      "##ø": 2193,
      "##å": 2194,
      "##ə": 2195,
      "##û": 2196,
      "##ḇ": 2197,
      "##î": 2198,
      "##ѣ": 2199,
      "##ї": 2200,
      "##ὺ": 2201,
      "##🇶": 2202,
      "##Q": 2203,
      "##ò": 2204,
      "##β": 2205,
      "##ΐ": 2206,
      "##ў": 2207,
      "##ß": 2208,
      "##ῶ": 2209,
      "##Ж": 2210,
      "##ω": 2211,
      "##ʻ": 2212,
      "##ק": 2213,
      "##ם": 2214,
      "##ˀ": 2215,
      "##̨": 2216,
      "##固": 2217,
      "##פ": 2218,
      "##ז": 2219,
      "##ἰ": 2220,
      "##ῦ": 2221,
      "##õ": 2222,
      "##ą": 2223,
      "##→": 2224,
      "##Я": 2225,
      "##®": 2226,
      "##離": 2227,
      "##可": 2228,
      "##汗": 2229,
      "##ح": 2230,
      "##ة": 2231,
      "##ù": 2232,
      "##ē": 2233,
      "##ģ": 2234,
      "##ė": 2235,
      "##É": 2236,
      "##ғ": 2237,
      "##қ": 2238,
      "##ң": 2239,
      "##ï": 2240,
      "##ư": 2241,
      "##ἳ": 2242,
      "##燃": 2243,
      "##大": 2244,
      "##士": 2245,
      "##ḏ": 2246,
      "##्": 2247,
      "##伽": 2248,
      "##師": 2249,
      "##資": 2250,
      "##記": 2251,
      "##⁄": 2252,
      "##ῆ": 2253,
      "##ώ": 2254,
      "##五": 2255,
      "##百": 2256,
      "##里": 2257,
      "##ː": 2258,
      "##ȡ": 2259,
      "##ɛ": 2260,
      "##元": 2261,
      "##條": 2262,
      "##事": 2263,
      "##類": 2264,
      "##ב": 2265,
      "##נ": 2266,
      "##ð": 2267,
      "##⣿": 2268,
      "##⠁": 2269,
      "##⣴": 2270,
      "##⡿": 2271,
      "##⠋": 2272,
      "##⣠": 2273,
      "##⣾": 2274,
      "##⠟": 2275,
      "##⢁": 2276,
      "##ћ": 2277,
      "##ŕ": 2278,
      "##̂": 2279,
      "##ي": 2280,
      "##ء": 2281,
      "##س": 2282,
      "##‎": 2283,
      "##І": 2284,
      "##إ": 2285,
      "##ق": 2286,
      "##ὐ": 2287,
      "##ј": 2288,
      "##馬": 2289,
      "##獲": 2290,
      "##支": 2291,
      "##ց": 2292,
      "##ث": 2293,
      "##ט": 2294,
      "##ס": 2295,
      "##þ": 2296,
      "##⋅": 2297,
      "##ר": 2298,
      "##͡": 2299,
      "##ʃ": 2300,
      "##đ": 2301,
      "##ě": 2302,
      "##ř": 2303,
      "##ì": 2304,
      "##ҝ": 2305,
      "##ә": 2306,
      "##ִ": 2307,
      "##ְ": 2308,
      "##ׁ": 2309,
      "##ֶ": 2310,
      "##ּ": 2311,
      "##Ε": 2312,
      "##Ι": 2313,
      "##Ρ": 2314,
      "##Α": 2315,
      "##Τ": 2316,
      "##±": 2317,
      "##̯": 2318,
      "##安": 2319,
      "##ˈ": 2320,
      "##ɲ": 2321,
      "##ղ": 2322,
      "##ա": 2323,
      "##կ": 2324,
      "##ն": 2325,
      "##ŷ": 2326,
      "##西": 2327,
      "##ṅ": 2328,
      "##Ю": 2329,
      "##Ш": 2330,
      "##₩": 2331,
      "##​": 2332,
      "##ů": 2333,
      "##ḍ": 2334,
      "##ẓ": 2335,
      "##म": 2336,
      "##鴦": 2337,
      "##ὗ": 2338,
      "##ی": 2339,
      "##⠿": 2340,
      "##⢿": 2341,
      "##ɣ": 2342,
      "##̃": 2343,
      "##Ĩ": 2344,
      "##ŭ": 2345,
      "##ע": 2346,
      "##ḵ": 2347,
      "##歴": 2348,
      "##無": 2349,
      "##用": 2350,
      "##論": 2351,
      "##ŵ": 2352,
      "##̀": 2353,
      "##史": 2354,
      "##那": 2355,
      "##科": 2356,
      "##罗": 2357,
      "##산": 2358,
      "##ᾷ": 2359,
      "##ấ": 2360,
      "##樂": 2361,
      "##ף": 2362,
      "##े": 2363,
      "##ḫ": 2364,
      "##न": 2365,
      "##द": 2366,
      "##ض": 2367,
      "##性": 2368,
      "##行": 2369,
      "##Ú": 2370,
      "##ط": 2371,
      "##ὸ": 2372,
      "##͟": 2373,
      "##ὖ": 2374,
      "##竺": 2375,
      "##國": 2376,
      "##菩": 2377,
      "##提": 2378,
      "##達": 2379,
      "##摩": 2380,
      "##禪": 2381,
      "##ɕ": 2382,
      "##ὲ": 2383,
      "##ؤ": 2384,
      "##ҷ": 2385,
      "##脈": 2386,
      "##צ": 2387,
      "##Ś": 2388,
      "##ņ": 2389,
      "##试": 2390,
      "##泉": 2391,
      "##א": 2392,
      "##Ү": 2393,
      "##מ": 2394,
      "##ɐ": 2395,
      "##極": 2396,
      "##르": 2397,
      "##바": 2398,
      "##라": 2399,
      "##ҳ": 2400,
      "##ɪ": 2401,
      "##Δ": 2402,
      "##务": 2403,
      "##ّ": 2404,
      "##跌": 2405,
      "##思": 2406,
      "##泰": 2407,
      "##ż": 2408,
      "##ǔ": 2409,
      "##խ": 2410,
      "##ի": 2411,
      "##ջ": 2412,
      "##ե": 2413,
      "##Ἕ": 2414,
      "##ئ": 2415,
      "##ḗ": 2416,
      "##Ö": 2417,
      "##خ": 2418,
      "##ت": 2419,
      "##ơ": 2420,
      "##ψ": 2421,
      "##ǝ": 2422,
      "##ز": 2423,
      "##ỗ": 2424,
      "##耳": 2425,
      "##山": 2426,
      "##♯": 2427,
      "##ṁ": 2428,
      "##Ā": 2429,
      "##ĝ": 2430,
      "##ן": 2431,
      "##壁": 2432,
      "##阵": 2433,
      "##蛇": 2434,
      "##ỳ": 2435,
      "##ḱ": 2436,
      "##ĕ": 2437,
      "##Ξ": 2438,
      "##Ν": 2439,
      "##Σ": 2440,
      "##ḷ": 2441,
      "##ὴ": 2442,
      "##Ӏ": 2443,
      "##ْ": 2444,
      "##َ": 2445,
      "##ِ": 2446,
      "##ḳ": 2447,
      "##ր": 2448,
      "##բ": 2449,
      "##ռ": 2450,
      "##功": 2451,
      "##得": 2452,
      "##蠻": 2453,
      "##≡": 2454,
      "##ʌ": 2455,
      "##強": 2456,
      "##姦": 2457,
      "##者": 2458,
      "##ồ": 2459,
      "##漿": 2460,
      "##ি": 2461,
      "##ক": 2462,
      "##া": 2463,
      "##ন": 2464,
      "##্": 2465,
      "##দ": 2466,
      "##র": 2467,
      "##ϊ": 2468,
      "##أ": 2469,
      "##ű": 2470,
      "##ἷ": 2471,
      "##連": 2472,
      "##њ": 2473,
      "##𑀥": 2474,
      "##렉": 2475,
      "##더": 2476,
      "##Ў": 2477,
      "##≈": 2478,
      "##ὶ": 2479,
      "##บ": 2480,
      "##ี": 2481,
      "##ย": 2482,
      "##ร": 2483,
      "##์": 2484,
      "##ک": 2485,
      "##ه": 2486,
      "##際": 2487,
      "##合": 2488,
      "##ֵ": 2489,
      "##ɘ": 2490,
      "##љ": 2491,
      "##员": 2492,
      "##暂": 2493,
      "##条": 2494,
      "##例": 2495,
      "##月": 2496,
      "##र": 2497,
      "##ि": 2498,
      "##क": 2499,
      "##ट": 2500,
      "##ѧ": 2501,
      "##¢": 2502,
      "##̄": 2503,
      "##ұ": 2504,
      "##奴": 2505,
      "##ţ": 2506,
      "##غ": 2507,
      "##ų": 2508,
      "##ڈ": 2509,
      "##ս": 2510,
      "##տ": 2511,
      "##ĭ": 2512,
      "##ो": 2513,
      "##ष": 2514,
      "##Å": 2515,
      "##語": 2516,
      "##經": 2517,
      "##ा": 2518,
      "##ल": 2519,
      "##ǎ": 2520,
      "##ạ": 2521,
      "##ル": 2522,
      "##ジ": 2523,
      "##ェ": 2524,
      "##日": 2525,
      "##本": 2526,
      "##人": 2527,
      "##学": 2528,
      "##校": 2529,
      "##ǒ": 2530,
      "##實": 2531,
      "##相": 2532,
      "##ח": 2533,
      "##ἵ": 2534,
      "##ƙ": 2535,
      "##ỉ": 2536,
      "##ể": 2537,
      "##ɗ": 2538,
      "##ʔ": 2539,
      "##︎": 2540,
      "##ص": 2541,
      "##∗": 2542,
      "##ἴ": 2543,
      "##į": 2544,
      "##ṗ": 2545,
      "##ẻ": 2546,
      "##ḑ": 2547,
      "##ẵ": 2548,
      "##十": 2549,
      "##歲": 2550,
      "##以": 2551,
      "##下": 2552,
      "##雖": 2553,
      "##和": 2554,
      "##也": 2555,
      "##同": 2556,
      "##Κ": 2557,
      "##Ü": 2558,
      "##҃": 2559,
      "##ὔ": 2560,
      "##玉": 2561,
      "##ீ": 2562,
      "##ட": 2563,
      "##ு": 2564,
      "##宗": 2565,
      "##थ": 2566,
      "##व": 2567,
      "##є": 2568,
      "##ǫ": 2569,
      "##ַ": 2570,
      "##ť": 2571,
      "##往": 2572,
      "##鞮": 2573,
      "##ļ": 2574,
      "##≠": 2575,
      "##ớ": 2576,
      "##ژ": 2577,
      "##ʒ": 2578,
      "##ŏ": 2579,
      "##ġ": 2580,
      "##ÿ": 2581,
      "##식": 2582,
      "##ṓ": 2583,
      "##ى": 2584,
      "##Ғ": 2585,
      "##ґ": 2586,
      "##ु": 2587,
      "##賢": 2588,
      "##故": 2589,
      "##実": 2590,
      "##ָ": 2591,
      "##宿": 2592,
      "##二": 2593,
      "##ѥ": 2594,
      "##œ": 2595,
      "##ǵ": 2596,
      "##ी": 2597,
      "##प": 2598,
      "##ֹ": 2599,
      "##ħ": 2600,
      "##ˁ": 2601,
      "##ȩ": 2602,
      "##筒": 2603,
      "##樹": 2604,
      "##節": 2605,
      "##ђ": 2606,
      "##灣": 2607,
      "##省": 2608,
      "##һ": 2609,
      "##遠": 2610,
      "##惡": 2611,
      "##州": 2612,
      "##گ": 2613,
      "##Қ": 2614,
      "##鑒": 2615,
      "##堂": 2616,
      "##島": 2617,
      "##ք": 2618,
      "##ܵ": 2619,
      "##ܙ": 2620,
      "##ܲ": 2621,
      "##ܪ": 2622,
      "##ܬ": 2623,
      "##ܐ": 2624,
      "##ἱ": 2625,
      "##至": 2626,
      "##ে": 2627,
      "##জ": 2628,
      "##প": 2629,
      "##ত": 2630,
      "##井": 2631,
      "##寛": 2632,
      "##方": 2633,
      "##Ī": 2634,
      "##Ħ": 2635,
      "##入": 2636,
      "##四": 2637,
      "##Á": 2638,
      "##裟": 2639,
      "##懸": 2640,
      "##け": 2641,
      "##ך": 2642,
      "##ĩ": 2643,
      "##ϝ": 2644,
      "##ظ": 2645,
      "##ꞑ": 2646,
      "##薩": 2647,
      "##曼": 2648,
      "##荼": 2649,
      "##羅": 2650,
      "##ꙋ": 2651,
      "##𓅓": 2652,
      "##𓏏": 2653,
      "##𓊖": 2654,
      "##ख": 2655,
      "##छ": 2656,
      "##覺": 2657,
      "##य": 2658,
      "##ई": 2659,
      "##Ⴍ": 2660,
      "##Ⴤ": 2661,
      "##Ⴡ": 2662,
      "##Ұ": 2663,
      "##ɤ": 2664,
      "##ূ": 2665,
      "##গ": 2666,
      "##ো": 2667,
      "##ল": 2668,
      "##ല": 2669,
      "##ക": 2670,
      "##്": 2671,
      "##സ": 2672,
      "##ầ": 2673,
      "##ǧ": 2674,
      "##̊": 2675,
      "##為": 2676,
      "##ү": 2677,
      "##🇫": 2678,
      "##ش": 2679,
      "##ꙗ": 2680,
      "##自": 2681,
      "##在": 2682,
      "##天": 2683,
      "##伊": 2684,
      "##然": 2685,
      "##ῷ": 2686,
      "##ɾ": 2687,
      "##ɫ": 2688,
      "##明": 2689,
      "##律": 2690,
      "##մ": 2691,
      "##ᗡ": 2692,
      "##ᐳ": 2693,
      "##ᛳ": 2694,
      "##ག": 2695,
      "##の": 2696,
      "##テ": 2697,
      "##レ": 2698,
      "##ビ": 2699,
      "##ア": 2700,
      "##ニ": 2701,
      "##メ": 2702,
      "##作": 2703,
      "##品": 2704,
      "##一": 2705,
      "##覧": 2706,
      "##ἤ": 2707,
      "##見": 2708,
      "##利": 2709,
      "##Ĕ": 2710,
      "##ǣ": 2711,
      "##ɟ": 2712,
      "##阳": 2713,
      "##∨": 2714,
      "##殖": 2715,
      "##ἶ": 2716,
      "##Ç": 2717,
      "##Õ": 2718,
      "##ị": 2719,
      "##∊": 2720,
      "##∘": 2721,
      "##ө": 2722,
      "##ờ": 2723,
      "##Ä": 2724,
      "##⠀": 2725,
      "##त": 2726,
      "##イ": 2727,
      "##ナ": 2728,
      "##ト": 2729,
      "##Û": 2730,
      "##Ê": 2731,
      "##Ş": 2732,
      "##Π": 2733,
      "##Υ": 2734,
      "##ピ": 2735,
      "##る": 2736,
      "##Ṭ": 2737,
      "##목": 2738,
      "##일": 2739,
      "##ٹ": 2740,
      "##務": 2741,
      "##ُ": 2742,
      "##陀": 2743,
      "##京": 2744,
      "##次": 2745,
      "##ᛉ": 2746,
      "##政": 2747,
      "##处": 2748,
      "##罚": 2749,
      "##ѵ": 2750,
      "##ň": 2751,
      "##ɨ": 2752,
      "##ź": 2753,
      "##ṙ": 2754,
      "##ொ": 2755,
      "##ம": 2756,
      "##்": 2757,
      "##ை": 2758,
      "##ய": 2759,
      "##ி": 2760,
      "##ன": 2761,
      "##社": 2762,
      "##改": 2763,
      "##正": 2764,
      "##件": 2765,
      "##̌": 2766,
      "##爸": 2767,
      "##盤": 2768,
      "##ً": 2769,
      "##գ": 2770,
      "##ợ": 2771,
      "##ậ": 2772,
      "##但": 2773,
      "##ʂ": 2774,
      "##ɑ": 2775,
      "##ः": 2776,
      "##ȗ": 2777,
      "##Β": 2778,
      "##Θ": 2779,
      "##ệ": 2780,
      "##高": 2781,
      "##僧": 2782,
      "##傳": 2783,
      "##∞": 2784,
      "##悉": 2785,
      "##爛": 2786,
      "##猴": 2787,
      "##ٰ": 2788,
      "##ĥ": 2789,
      "##土": 2790,
      "##德": 2791,
      "##燈": 2792,
      "##錄": 2793,
      "##Γ": 2794,
      "##⣶": 2795,
      "##լ": 2796,
      "##դ": 2797,
      "##̲": 2798,
      "##ȝ": 2799,
      "##鯷": 2800,
      "##ʽ": 2801,
      "##ϋ": 2802,
      "##ѝ": 2803,
      "##林": 2804,
      "##君": 2805,
      "##ὼ": 2806,
      "##夫": 2807,
      "##ⱷ": 2808,
      "##҅": 2809,
      "##ᴥ": 2810,
      "##≼": 2811,
      "##虎": 2812,
      "##通": 2813,
      "##俟": 2814,
      "##斤": 2815,
      "##ܒ": 2816,
      "##ስ": 2817,
      "##ክ": 2818,
      "##ን": 2819,
      "##ድ": 2820,
      "##ር": 2821,
      "##Ž": 2822,
      "##🇷": 2823,
      "##÷": 2824,
      "##Ḥ": 2825,
      "##증": 2826,
      "##이": 2827,
      "##教": 2828,
      "##←": 2829,
      "##ྫ": 2830,
      "##ོ": 2831,
      "##ḡ": 2832,
      "##ꙑ": 2833,
      "##督": 2834,
      "##ễ": 2835,
      "##八": 2836,
      "##ŗ": 2837,
      "##ď": 2838,
      "##↓": 2839,
      "##才": 2840,
      "##џ": 2841,
      "##Ё": 2842,
      "##ܠ": 2843,
      "##ܗ": 2844,
      "##🇿": 2845,
      "##ׂ": 2846,
      "##ᗗ": 2847,
      "##ϳ": 2848,
      "##˭": 2849,
      "##⣷": 2850,
      "##芳": 2851,
      "##ʊ": 2852,
      "##成": 2853,
      "##树": 2854,
      "##节": 2855,
      "##̥": 2856,
      "##珠": 2857,
      "##ῃ": 2858,
      "##鼠": 2859,
      "##̈": 2860,
      "##盘": 2861,
      "##𐀩": 2862,
      "##𐀏": 2863,
      "##𐀭": 2864,
      "##𐀅": 2865,
      "##𐀫": 2866,
      "##师": 2867,
      "##始": 2868,
      "##皇": 2869,
      "##帝": 2870,
      "##Ḳ": 2871,
      "##七": 2872,
      "##水": 2873,
      "##災": 2874,
      "##Ó": 2875,
      "##श": 2876,
      "##ƥ": 2877,
      "##ḙ": 2878,
      "##ḯ": 2879,
      "##ả": 2880,
      "##Î": 2881,
      "##ѳ": 2882,
      "##់": 2883,
      "##骨": 2884,
      "##咄": 2885,
      "##ѕ": 2886,
      "##ѻ": 2887,
      "##⊖": 2888,
      "##판": 2889,
      "##ं": 2890,
      "##ड": 2891,
      "##İ": 2892,
      "##ذ": 2893,
      "##检": 2894,
      "##查": 2895,
      "##ĵ": 2896,
      "##˺": 2897,
      "##ế": 2898,
      "##グ": 2899,
      "##ダ": 2900,
      "##ッ": 2901,
      "##ド": 2902,
      "##ர": 2903,
      "##ո": 2904,
      "##≤": 2905,
      "##曹": 2906,
      "##ാ": 2907,
      "##ണ": 2908,
      "##ട": 2909,
      "##ി": 2910,
      "##ɵ": 2911,
      "##╥": 2912,
      "##─": 2913,
      "##╨": 2914,
      "##┐": 2915,
      "##♥": 2916,
      "##☺": 2917,
      "##Ƹ": 2918,
      "##̵": 2919,
      "##̡": 2920,
      "##Ӝ": 2921,
      "##Ʒ": 2922,
      "##ⱑ": 2923,
      "##胡": 2924,
      "##重": 2925,
      "##ン": 2926,
      "##リ": 2927,
      "##ヒ": 2928,
      "##中": 2929,
      "##∙": 2930,
      "##대": 2931,
      "##ọ": 2932,
      "##ծ": 2933,
      "##ര": 2934,
      "##‍": 2935,
      "##사": 2936,
      "##Μ": 2937,
      "##Φ": 2938,
      "##Щ": 2939,
      "##Ṟ": 2940,
      "##Ṣ": 2941,
      "##ӓ": 2942,
      "##南": 2943,
      "##ᾴ": 2944,
      "##庫": 2945,
      "##ᕡ": 2946,
      "##ᗆ": 2947,
      "##ữ": 2948,
      "##⣧": 2949,
      "##⡈": 2950,
      "##⠻": 2951,
      "##⡟": 2952,
      "##⡷": 2953,
      "##⢀": 2954,
      "##心": 2955,
      "##ു": 2956,
      "##ള": 2957,
      "##ἲ": 2958,
      "##ķ": 2959,
      "##ӹ": 2960,
      "##キ": 2961,
      "##サ": 2962,
      "##ー": 2963,
      "##ृ": 2964,
      "##≥": 2965,
      "##⣦": 2966,
      "##⣌": 2967,
      "##⠙": 2968,
      "##¥": 2969,
      "##ȉ": 2970,
      "##ṕ": 2971,
      "##¬": 2972,
      "##ɳ": 2973,
      "##ʈ": 2974,
      "##垣": 2975,
      "##Վ": 2976,
      "##久": 2977,
      "##諾": 2978,
      "##⣼": 2979,
      "##զ": 2980,
      "##辰": 2981,
      "##𐤌": 2982,
      "##𐤍": 2983,
      "##પ": 2984,
      "##ા": 2985,
      "##દ": 2986,
      "##લ": 2987,
      "##ક": 2988,
      "##્": 2989,
      "##ષ": 2990,
      "##ણ": 2991,
      "##ㄨ": 2992,
      "##ㄢ": 2993,
      "##ڬ": 2994,
      "##Ă": 2995,
      "##更": 2996,
      "##儒": 2997,
      "##訴": 2998,
      "##訟": 2999,
      "##⍳": 3000,
      "##門": 3001,
      "##軍": 3002,
      "##ิ": 3003,
      "##ง": 3004,
      "##ห": 3005,
      "##า": 3006,
      "##ค": 3007,
      "##ม": 3008,
      "##Ւ": 3009,
      "##թ": 3010,
      "##յ": 3011,
      "##վ": 3012,
      "##պ": 3013,
      "##線": 3014,
      "##沢": 3015,
      "##族": 3016,
      "##ӱ": 3017,
      "##目": 3018,
      "##շ": 3019,
      "##չ": 3020,
      "##ỷ": 3021,
      "##€": 3022,
      "##ะ": 3023,
      "##อ": 3024,
      "##韓": 3025,
      "##東": 3026,
      "##將": 3027,
      "##間": 3028,
      "##と": 3029,
      "##関": 3030,
      "##わ": 3031,
      "##り": 3032,
      "##է": 3033,
      "##汝": 3034,
      "##适": 3035,
      "##さ": 3036,
      "##な": 3037,
      "##バ": 3038,
      "##漢": 3039,
      "##ֻ": 3040,
      "##Ә": 3041,
      "##港": 3042,
      "##ẽ": 3043,
      "##𒂵": 3044,
      "##𒉈": 3045,
      "##𒆠": 3046,
      "##集": 3047,
      "##ⲡ": 3048,
      "##̅": 3049,
      "##ⲓ": 3050,
      "##傷": 3051,
      "##യ": 3052,
      "##ോ": 3053,
      "##ɹ": 3054,
      "##雄": 3055,
      "##女": 3056,
      "##侠": 3057,
      "##秋": 3058,
      "##瑾": 3059,
      "##ɭ": 3060,
      "##⍴": 3061,
      "##̑": 3062,
      "##ĉ": 3063,
      "##ƒ": 3064,
      "##細": 3065,
      "##亜": 3066,
      "##ȫ": 3067,
      "##Ⴑ": 3068,
      "##̮": 3069,
      "##⍵": 3070,
      "##ǻ": 3071,
      "##გ": 3072,
      "##传": 3073,
      "##灯": 3074,
      "##录": 3075,
      "##仏": 3076,
      "##開": 3077,
      "##眼": 3078,
      "##ṷ": 3079,
      "##ज": 3080,
      "##崩": 3081,
      "##し": 3082,
      "##主": 3083,
      "##复": 3084,
      "##议": 3085,
      "##ŝ": 3086,
      "##種": 3087,
      "##ὕ": 3088,
      "##√": 3089,
      "##珍": 3090,
      "##ध": 3091,
      "##魚": 3092,
      "##🇦": 3093,
      "##ץ": 3094,
      "##⣉": 3095,
      "##⢻": 3096,
      "##ᐱ": 3097,
      "##ᛁ": 3098,
      "##鯤": 3099,
      "##婆": 3100,
      "##友": 3101,
      "##ু": 3102,
      "##য": 3103,
      "##়": 3104,
      "##Ϊ": 3105,
      "##∴": 3106,
      "##ꞌ": 3107,
      "##幼": 3108,
      "##未": 3109,
      "##有": 3110,
      "##欲": 3111,
      "##亦": 3112,
      "##坐": 3113,
      "##絞": 3114,
      "##罪": 3115,
      "##杜": 3116,
      "##陵": 3117,
      "##Ț": 3118,
      "##ۖ": 3119,
      "##̽": 3120,
      "##時": 3121,
      "##ლ": 3122,
      "##ე": 3123,
      "##ქ": 3124,
      "##ს": 3125,
      "##ა": 3126,
      "##ნ": 3127,
      "##დ": 3128,
      "##რ": 3129,
      "##Ⴀ": 3130,
      "##Ⴇ": 3131,
      "##ộ": 3132,
      "##ワ": 3133,
      "##机": 3134,
      "##营": 3135,
      "##三": 3136,
      "##算": 3137,
      "##觀": 3138,
      "##ǐ": 3139,
      "##ȅ": 3140,
      "##Ć": 3141,
      "##千": 3142,
      "##⟳": 3143,
      "##ʎ": 3144,
      "##泡": 3145,
      "##茶": 3146,
      "##徽": 3147,
      "##対": 3148,
      "##魔": 3149,
      "##獣": 3150,
      "##戦": 3151,
      "##ロ": 3152,
      "##府": 3153,
      "##儀": 3154,
      "##司": 3155,
      "##ǰ": 3156,
      "##极": 3157,
      "##霸": 3158,
      "##̦": 3159,
      "##楽": 3160,
      "##直": 3161,
      "##裏": 3162,
      "##蘆": 3163,
      "##ֲ": 3164,
      "##小": 3165,
      "##福": 3166,
      "##之": 3167,
      "##情": 3168,
      "##岁": 3169,
      "##ケ": 3170,
      "##陳": 3171,
      "##ܕ": 3172,
      "##݂": 3173,
      "##ܝ": 3174,
      "##ܼ": 3175,
      "##ܢ": 3176,
      "##݇": 3177,
      "##解": 3178,
      "##附": 3179,
      "##卷": 3180,
      "##民": 3181,
      "##币": 3182,
      "##青": 3183,
      "##龍": 3184,
      "##he": 3185,
      "##er": 3186,
      "the": 3187,
      "##ст": 3188,
      "##ен": 3189,
      "##on": 3190,
      "##in": 3191,
      "##ов": 3192,
      "##an": 3193,
      "##ан": 3194,
      "##at": 3195,
      "##es": 3196,
      "##ed": 3197,
      "##ск": 3198,
      "##en": 3199,
      "##ер": 3200,
      "##or": 3201,
      "##но": 3202,
      "of": 3203,
      "##ar": 3204,
      "##al": 3205,
      "##nd": 3206,
      "##ор": 3207,
      "##it": 3208,
      "##is": 3209,
      "##од": 3210,
      "in": 3211,
      "##ль": 3212,
      "##ic": 3213,
      "##ли": 3214,
      "and": 3215,
      "##ра": 3216,
      "##ны": 3217,
      "##ing": 3218,
      "##ion": 3219,
      "##as": 3220,
      "##ет": 3221,
      "пр": 3222,
      "##re": 3223,
      "##ro": 3224,
      "##ат": 3225,
      "##го": 3226,
      "to": 3227,
      "##ий": 3228,
      "на": 3229,
      "19": 3230,
      "##ом": 3231,
      "##ия": 3232,
      "##ит": 3233,
      "##он": 3234,
      "##ол": 3235,
      "##ие": 3236,
      "##le": 3237,
      "##ар": 3238,
      "##ou": 3239,
      "##ла": 3240,
      "##ин": 3241,
      "##ent": 3242,
      "##ед": 3243,
      "##ем": 3244,
      "##ос": 3245,
      "##ии": 3246,
      "##el": 3247,
      "##ств": 3248,
      "##om": 3249,
      "##ик": 3250,
      "##ой": 3251,
      "##st": 3252,
      "##от": 3253,
      "##il": 3254,
      "##ct": 3255,
      "##ая": 3256,
      "##ol": 3257,
      "##ел": 3258,
      "##им": 3259,
      "th": 3260,
      "##ак": 3261,
      "по": 3262,
      "##ся": 3263,
      "##ur": 3264,
      "##ек": 3265,
      "##et": 3266,
      "##am": 3267,
      "##ей": 3268,
      "##ал": 3269,
      "##ам": 3270,
      "##ch": 3271,
      "##ев": 3272,
      "##ad": 3273,
      "##ly": 3274,
      "The": 3275,
      "##ель": 3276,
      "##ation": 3277,
      "20": 3278,
      "##iv": 3279,
      "##ич": 3280,
      "##ce": 3281,
      "##ский": 3282,
      "##ot": 3283,
      "##ис": 3284,
      "##id": 3285,
      "re": 3286,
      "##ir": 3287,
      "is": 3288,
      "##ig": 3289,
      "##их": 3290,
      "##ав": 3291,
      "##ut": 3292,
      "for": 3293,
      "as": 3294,
      "be": 3295,
      "##ого": 3296,
      "##ля": 3297,
      "##об": 3298,
      "##us": 3299,
      "ра": 3300,
      "##im": 3301,
      "##ter": 3302,
      "год": 3303,
      "on": 3304,
      "##ру": 3305,
      "об": 3306,
      "##ост": 3307,
      "##ив": 3308,
      "##ог": 3309,
      "ст": 3310,
      "##ul": 3311,
      "was": 3312,
      "##ist": 3313,
      "от": 3314,
      "##ith": 3315,
      "##ers": 3316,
      "##ow": 3317,
      "##ra": 3318,
      "##ил": 3319,
      "##ения": 3320,
      "##еск": 3321,
      "##ран": 3322,
      "st": 3323,
      "##em": 3324,
      "al": 3325,
      "an": 3326,
      "##ной": 3327,
      "##ных": 3328,
      "##ир": 3329,
      "##ист": 3330,
      "with": 3331,
      "##из": 3332,
      "##ay": 3333,
      "##os": 3334,
      "##аль": 3335,
      "con": 3336,
      "##ный": 3337,
      "из": 3338,
      "##ес": 3339,
      "##th": 3340,
      "by": 3341,
      "##her": 3342,
      "##оль": 3343,
      "##ка": 3344,
      "##оз": 3345,
      "##ение": 3346,
      "18": 3347,
      "##ож": 3348,
      "wh": 3349,
      "that": 3350,
      "##um": 3351,
      "##and": 3352,
      "##ts": 3353,
      "##ian": 3354,
      "##ент": 3355,
      "##ные": 3356,
      "не": 3357,
      "##op": 3358,
      "##ver": 3359,
      "pro": 3360,
      "##ного": 3361,
      "##ическ": 3362,
      "##od": 3363,
      "бы": 3364,
      "##али": 3365,
      "##ре": 3366,
      "##ок": 3367,
      "##ag": 3368,
      "##ид": 3369,
      "or": 3370,
      "пер": 3371,
      "##ност": 3372,
      "##av": 3373,
      "##ess": 3374,
      "##ac": 3375,
      "de": 3376,
      "##ri": 3377,
      "##оп": 3378,
      "##ци": 3379,
      "com": 3380,
      "##est": 3381,
      "##rom": 3382,
      "##ую": 3383,
      "##уд": 3384,
      "##ят": 3385,
      "##на": 3386,
      "##ain": 3387,
      "##ез": 3388,
      "##ab": 3389,
      "su": 3390,
      "at": 3391,
      "##сп": 3392,
      "##еств": 3393,
      "вы": 3394,
      "In": 3395,
      "##ован": 3396,
      "за": 3397,
      "##ур": 3398,
      "##ity": 3399,
      "are": 3400,
      "from": 3401,
      "##ест": 3402,
      "##ies": 3403,
      "##кт": 3404,
      "##un": 3405,
      "##pe": 3406,
      "##ным": 3407,
      "##то": 3408,
      "##if": 3409,
      "ex": 3410,
      "##ад": 3411,
      "##ской": 3412,
      "##рав": 3413,
      "##ate": 3414,
      "##ник": 3415,
      "##ud": 3416,
      "св": 3417,
      "##oc": 3418,
      "200": 3419,
      "##ус": 3420,
      "se": 3421,
      "##se": 3422,
      "##ich": 3423,
      "##ют": 3424,
      "##ции": 3425,
      "##ут": 3426,
      "##отор": 3427,
      "##ia": 3428,
      "##ном": 3429,
      "201": 3430,
      "##all": 3431,
      "раз": 3432,
      "##ах": 3433,
      "##ная": 3434,
      "##ского": 3435,
      "##аст": 3436,
      "##ld": 3437,
      "##ает": 3438,
      "##ical": 3439,
      "his": 3440,
      "##еж": 3441,
      "##ap": 3442,
      "##ели": 3443,
      "##ill": 3444,
      "##ort": 3445,
      "##ive": 3446,
      "##og": 3447,
      "##лен": 3448,
      "##igh": 3449,
      "##ial": 3450,
      "##итель": 3451,
      "под": 3452,
      "##ard": 3453,
      "##оч": 3454,
      "так": 3455,
      "##ish": 3456,
      "##ber": 3457,
      "##иц": 3458,
      "##пр": 3459,
      "##ated": 3460,
      "##ская": 3461,
      "##ment": 3462,
      "##ant": 3463,
      "года": 3464,
      "he": 3465,
      "##же": 3466,
      "котор": 3467,
      "##art": 3468,
      "##ew": 3469,
      "##ки": 3470,
      "про": 3471,
      "##ас": 3472,
      "##pp": 3473,
      "which": 3474,
      "##зы": 3475,
      "##mer": 3476,
      "##ое": 3477,
      "##ами": 3478,
      "##ak": 3479,
      "##сь": 3480,
      "##ere": 3481,
      "##nt": 3482,
      "##та": 3483,
      "ос": 3484,
      "##gh": 3485,
      "пол": 3486,
      "##уч": 3487,
      "##qu": 3488,
      "##еч": 3489,
      "им": 3490,
      "pl": 3491,
      "##ction": 3492,
      "##ее": 3493,
      "##00": 3494,
      "199": 3495,
      "##ther": 3496,
      "##ег": 3497,
      "году": 3498,
      "##ine": 3499,
      "ch": 3500,
      "##ost": 3501,
      "##ря": 3502,
      "##ать": 3503,
      "##осс": 3504,
      "##ip": 3505,
      "##или": 3506,
      "##ell": 3507,
      "##ро": 3508,
      "##да": 3509,
      "##ary": 3510,
      "##ge": 3511,
      "пред": 3512,
      "##ай": 3513,
      "were": 3514,
      "##мер": 3515,
      "##ное": 3516,
      "со": 3517,
      "##ход": 3518,
      "##ore": 3519,
      "it": 3520,
      "##рем": 3521,
      "##ых": 3522,
      "##our": 3523,
      "##ён": 3524,
      "##ло": 3525,
      "##уб": 3526,
      "##иб": 3527,
      "##ров": 3528,
      "##ov": 3529,
      "##нов": 3530,
      "##ear": 3531,
      "##rou": 3532,
      "##ые": 3533,
      "##ород": 3534,
      "##rit": 3535,
      "##ию": 3536,
      "##ave": 3537,
      "17": 3538,
      "##pt": 3539,
      "ar": 3540,
      "сов": 3541,
      "not": 3542,
      "##so": 3543,
      "##анд": 3544,
      "##атель": 3545,
      "##ко": 3546,
      "##ust": 3547,
      "##ran": 3548,
      "##ast": 3549,
      "comp": 3550,
      "##ure": 3551,
      "##cl": 3552,
      "##ong": 3553,
      "##ми": 3554,
      "##тор": 3555,
      "Al": 3556,
      "кон": 3557,
      "как": 3558,
      "##ян": 3559,
      "##ord": 3560,
      "pr": 3561,
      "##cc": 3562,
      "##ame": 3563,
      "St": 3564,
      "##mp": 3565,
      "##ous": 3566,
      "##ect": 3567,
      "##аз": 3568,
      "##ый": 3569,
      "во": 3570,
      "##раз": 3571,
      "##ican": 3572,
      "что": 3573,
      "##лав": 3574,
      "Ch": 3575,
      "##ков": 3576,
      "198": 3577,
      "##ности": 3578,
      "##ду": 3579,
      "us": 3580,
      "пос": 3581,
      "##end": 3582,
      "##лед": 3583,
      "##ле": 3584,
      "эт": 3585,
      "##пер": 3586,
      "##иг": 3587,
      "##ня": 3588,
      "##ала": 3589,
      "sh": 3590,
      "##оли": 3591,
      "##ition": 3592,
      "##ome": 3593,
      "##ствен": 3594,
      "ум": 3595,
      "le": 3596,
      "##рат": 3597,
      "also": 3598,
      "##ания": 3599,
      "ком": 3600,
      "##du": 3601,
      "##ность": 3602,
      "для": 3603,
      "197": 3604,
      "од": 3605,
      "##бря": 3606,
      "##iz": 3607,
      "##ng": 3608,
      "cont": 3609,
      "##ib": 3610,
      "##ff": 3611,
      "##ред": 3612,
      "##ub": 3613,
      "have": 3614,
      "##ence": 3615,
      "##ry": 3616,
      "##рит": 3617,
      "ав": 3618,
      "Amer": 3619,
      "##цион": 3620,
      "196": 3621,
      "##per": 3622,
      "##ass": 3623,
      "ad": 3624,
      "ин": 3625,
      "##ations": 3626,
      "##лов": 3627,
      "##ект": 3628,
      "res": 3629,
      "int": 3630,
      "##ks": 3631,
      "вс": 3632,
      "##ществ": 3633,
      "had": 3634,
      "##ства": 3635,
      "те": 3636,
      "##ign": 3637,
      "##ющ": 3638,
      "##ight": 3639,
      "##ue": 3640,
      "сост": 3641,
      "##ется": 3642,
      "ab": 3643,
      "Ar": 3644,
      "194": 3645,
      "##ека": 3646,
      "##ie": 3647,
      "##ство": 3648,
      "##erm": 3649,
      "На": 3650,
      "##ских": 3651,
      "##еля": 3652,
      "до": 3653,
      "has": 3654,
      "##ма": 3655,
      "##ва": 3656,
      "##age": 3657,
      "##его": 3658,
      "город": 3659,
      "##ание": 3660,
      "##ult": 3661,
      "15": 3662,
      "##ры": 3663,
      "##ual": 3664,
      "ар": 3665,
      "##ец": 3666,
      "its": 3667,
      "##уж": 3668,
      "##fer": 3669,
      "##иль": 3670,
      "Th": 3671,
      "также": 3672,
      "whe": 3673,
      "прав": 3674,
      "##ory": 3675,
      "cl": 3676,
      "16": 3677,
      "their": 3678,
      "##ire": 3679,
      "American": 3680,
      "but": 3681,
      "##сс": 3682,
      "un": 3683,
      "##irst": 3684,
      "##ёр": 3685,
      "##ун": 3686,
      "##ph": 3687,
      "##уп": 3688,
      "перв": 3689,
      "##tern": 3690,
      "при": 3691,
      "##ru": 3692,
      "де": 3693,
      "##ция": 3694,
      "wor": 3695,
      "##ater": 3696,
      "##ack": 3697,
      "##осуд": 3698,
      "##арт": 3699,
      "##уль": 3700,
      "##ольш": 3701,
      "##ould": 3702,
      "##ree": 3703,
      "all": 3704,
      "##осудар": 3705,
      "other": 3706,
      "##лю": 3707,
      "##ely": 3708,
      "##ide": 3709,
      "част": 3710,
      "##ang": 3711,
      "##анов": 3712,
      "уч": 3713,
      "dis": 3714,
      "сп": 3715,
      "##ates": 3716,
      "##руг": 3717,
      "##act": 3718,
      "Un": 3719,
      "193": 3720,
      "ок": 3721,
      "##ри": 3722,
      "##став": 3723,
      "##out": 3724,
      "##ces": 3725,
      "##ни": 3726,
      "192": 3727,
      "##ace": 3728,
      "first": 3729,
      "##oll": 3730,
      "##ound": 3731,
      "##еш": 3732,
      "вой": 3733,
      "man": 3734,
      "##ond": 3735,
      "воз": 3736,
      "##clud": 3737,
      "совет": 3738,
      "его": 3739,
      "sp": 3740,
      "исп": 3741,
      "this": 3742,
      "##икан": 3743,
      "врем": 3744,
      "дв": 3745,
      "нач": 3746,
      "акт": 3747,
      "##ach": 3748,
      "##ok": 3749,
      "##ень": 3750,
      "##ёт": 3751,
      "##ября": 3752,
      "part": 3753,
      "##ина": 3754,
      "##ант": 3755,
      "##ум": 3756,
      "one": 3757,
      "##нач": 3758,
      "cent": 3759,
      "195": 3760,
      "##ime": 3761,
      "191": 3762,
      "##ена": 3763,
      "##вля": 3764,
      "стран": 3765,
      "##ить": 3766,
      "##еп": 3767,
      "##оссий": 3768,
      "##ions": 3769,
      "##СР": 3770,
      "been": 3771,
      "en": 3772,
      "te": 3773,
      "##ens": 3774,
      "был": 3775,
      "##fter": 3776,
      "##orm": 3777,
      "##ается": 3778,
      "can": 3779,
      "##ласт": 3780,
      "bec": 3781,
      "includ": 3782,
      "##hed": 3783,
      "##over": 3784,
      "##ount": 3785,
      "##able": 3786,
      "##les": 3787,
      "##wo": 3788,
      "Re": 3789,
      "ан": 3790,
      "##ино": 3791,
      "##own": 3792,
      "##ип": 3793,
      "##ile": 3794,
      "##жд": 3795,
      "но": 3796,
      "##ила": 3797,
      "кор": 3798,
      "per": 3799,
      "##ik": 3800,
      "##уз": 3801,
      "##олог": 3802,
      "##ион": 3803,
      "##erv": 3804,
      "сам": 3805,
      "##бот": 3806,
      "It": 3807,
      "who": 3808,
      "He": 3809,
      "##ron": 3810,
      "государ": 3811,
      "10": 3812,
      "##ские": 3813,
      "##ара": 3814,
      "##te": 3815,
      "Ан": 3816,
      "##ную": 3817,
      "##орм": 3818,
      "##аг": 3819,
      "##ced": 3820,
      "comm": 3821,
      "##ными": 3822,
      "##II": 3823,
      "##руп": 3824,
      "##ются": 3825,
      "##ents": 3826,
      "des": 3827,
      "##olog": 3828,
      "или": 3829,
      "##ase": 3830,
      "##ана": 3831,
      "##ational": 3832,
      "##ough": 3833,
      "ист": 3834,
      "12": 3835,
      "##де": 3836,
      "##иров": 3837,
      "##ress": 3838,
      "year": 3839,
      "##екс": 3840,
      "ag": 3841,
      "##ric": 3842,
      "sc": 3843,
      "##ими": 3844,
      "spe": 3845,
      "##орт": 3846,
      "##ика": 3847,
      "##land": 3848,
      "##vel": 3849,
      "##мерикан": 3850,
      "##елов": 3851,
      "явля": 3852,
      "##ice": 3853,
      "sy": 3854,
      "##ance": 3855,
      "ne": 3856,
      "Se": 3857,
      "such": 3858,
      "##amp": 3859,
      "##ежду": 3860,
      "##uring": 3861,
      "##ism": 3862,
      "Пр": 3863,
      "##ском": 3864,
      "rec": 3865,
      "##ite": 3866,
      "used": 3867,
      "##лад": 3868,
      "американ": 3869,
      "##ера": 3870,
      "##ath": 3871,
      "##ors": 3872,
      "##ании": 3873,
      "##огра": 3874,
      "play": 3875,
      "14": 3876,
      "##есс": 3877,
      "##роп": 3878,
      "##ым": 3879,
      "##уст": 3880,
      "рус": 3881,
      "##ose": 3882,
      "##еб": 3883,
      "##pl": 3884,
      "##ении": 3885,
      "прин": 3886,
      "##we": 3887,
      "ию": 3888,
      "##ob": 3889,
      "As": 3890,
      "two": 3891,
      "##ited": 3892,
      "An": 3893,
      "сво": 3894,
      "соб": 3895,
      "состав": 3896,
      "##атор": 3897,
      "most": 3898,
      "##лит": 3899,
      "ор": 3900,
      "##ade": 3901,
      "form": 3902,
      "##ульт": 3903,
      "##ied": 3904,
      "more": 3905,
      "тер": 3906,
      "##ней": 3907,
      "##ке": 3908,
      "##каз": 3909,
      "##зв": 3910,
      "ev": 3911,
      "cons": 3912,
      "##ики": 3913,
      "##есп": 3914,
      "##ans": 3915,
      "##ирован": 3916,
      "##она": 3917,
      "основ": 3918,
      "##aw": 3919,
      "##уществ": 3920,
      "##ось": 3921,
      "they": 3922,
      "##аб": 3923,
      "нас": 3924,
      "rel": 3925,
      "##оф": 3926,
      "челов": 3927,
      "##ubl": 3928,
      "##убли": 3929,
      "imp": 3930,
      "##ех": 3931,
      "Ал": 3932,
      "##ne": 3933,
      "##ений": 3934,
      "##ерж": 3935,
      "##ury": 3936,
      "##ular": 3937,
      "pre": 3938,
      "прот": 3939,
      "produ": 3940,
      "into": 3941,
      "##ССР": 3942,
      "ind": 3943,
      "##ап": 3944,
      "язы": 3945,
      "me": 3946,
      "11": 3947,
      "Росс": 3948,
      "зак": 3949,
      "##ics": 3950,
      "##aus": 3951,
      "##ром": 3952,
      "##олее": 3953,
      "##ящ": 3954,
      "##род": 3955,
      "13": 3956,
      "сл": 3957,
      "##ons": 3958,
      "##ft": 3959,
      "##ail": 3960,
      "##reat": 3961,
      "ac": 3962,
      "Ст": 3963,
      "объ": 3964,
      "пис": 3965,
      "соз": 3966,
      "##ally": 3967,
      "##пис": 3968,
      "act": 3969,
      "over": 3970,
      "##ета": 3971,
      "190": 3972,
      "друг": 3973,
      "СССР": 3974,
      "Eng": 3975,
      "##вер": 3976,
      "after": 3977,
      "##ган": 3978,
      "комп": 3979,
      "De": 3980,
      "##rib": 3981,
      "ele": 3982,
      "пост": 3983,
      "##мен": 3984,
      "##ией": 3985,
      "##люч": 3986,
      "##иж": 3987,
      "##iss": 3988,
      "##ук": 3989,
      "bet": 3990,
      "##wn": 3991,
      "202": 3992,
      "образ": 3993,
      "than": 3994,
      "##ings": 3995,
      "##ark": 3996,
      "##ира": 3997,
      "##ления": 3998,
      "##oin": 3999,
      "att": 4000,
      "##ории": 4001,
      "##ted": 4002,
      "##ah": 4003,
      "reg": 4004,
      "##ожд": 4005,
      "россий": 4006,
      "##лич": 4007,
      "##one": 4008,
      "расп": 4009,
      "gen": 4010,
      "##nder": 4011,
      "##ood": 4012,
      "больш": 4013,
      "мест": 4014,
      "Пер": 4015,
      "между": 4016,
      "out": 4017,
      "kn": 4018,
      "ph": 4019,
      "##ious": 4020,
      "##rans": 4021,
      "##oy": 4022,
      "##олько": 4023,
      "произ": 4024,
      "##ren": 4025,
      "##are": 4026,
      "##вар": 4027,
      "##яз": 4028,
      "##не": 4029,
      "time": 4030,
      "##oth": 4031,
      "pol": 4032,
      "ост": 4033,
      "##old": 4034,
      "##ased": 4035,
      "##ind": 4036,
      "##прав": 4037,
      "##ём": 4038,
      "am": 4039,
      "##ление": 4040,
      "##ух": 4041,
      "##res": 4042,
      "##ку": 4043,
      "##rough": 4044,
      "##иф": 4045,
      "##ены": 4046,
      "были": 4047,
      "##ars": 4048,
      "##инист": 4049,
      "app": 4050,
      "кино": 4051,
      "##ольз": 4052,
      "some": 4053,
      "##ало": 4054,
      "This": 4055,
      "##за": 4056,
      "sub": 4057,
      "##ug": 4058,
      "##истем": 4059,
      "mod": 4060,
      "acc": 4061,
      "##ween": 4062,
      "num": 4063,
      "would": 4064,
      "At": 4065,
      "lar": 4066,
      "##идент": 4067,
      "Дж": 4068,
      "up": 4069,
      "время": 4070,
      "##ач": 4071,
      "only": 4072,
      "##lish": 4073,
      "##ыт": 4074,
      "ear": 4075,
      "##иса": 4076,
      "##als": 4077,
      "tr": 4078,
      "##ыш": 4079,
      "пров": 4080,
      "##вод": 4081,
      "##енно": 4082,
      "было": 4083,
      "Com": 4084,
      "ск": 4085,
      "##ivers": 4086,
      "##form": 4087,
      "##ующ": 4088,
      "##ral": 4089,
      "century": 4090,
      "##ative": 4091,
      "pe": 4092,
      "##stem": 4093,
      "##ild": 4094,
      "rep": 4095,
      "вер": 4096,
      "##ью": 4097,
      "##ific": 4098,
      "##ыс": 4099,
      "##ины": 4100,
      "##ейств": 4101,
      "использ": 4102,
      "чем": 4103,
      "between": 4104,
      "сред": 4105,
      "fl": 4106,
      "##ys": 4107,
      "пл": 4108,
      "her": 4109,
      "##асс": 4110,
      "##red": 4111,
      "то": 4112,
      "##hes": 4113,
      "##gan": 4114,
      "so": 4115,
      "##рет": 4116,
      "он": 4117,
      "under": 4118,
      "##ранц": 4119,
      "##ten": 4120,
      "##ому": 4121,
      "new": 4122,
      "inter": 4123,
      "чис": 4124,
      "Ар": 4125,
      "##олн": 4126,
      "систем": 4127,
      "##ических": 4128,
      "лет": 4129,
      "советский": 4130,
      "##oh": 4131,
      "мар": 4132,
      "off": 4133,
      "##ict": 4134,
      "##ической": 4135,
      "##hen": 4136,
      "##ern": 4137,
      "была": 4138,
      "##ди": 4139,
      "##евер": 4140,
      "##urn": 4141,
      "when": 4142,
      "##циаль": 4143,
      "##вед": 4144,
      "##ыв": 4145,
      "представ": 4146,
      "him": 4147,
      "нов": 4148,
      "189": 4149,
      "##ятель": 4150,
      "ass": 4151,
      "##ram": 4152,
      "По": 4153,
      "##io": 4154,
      "##att": 4155,
      "##ists": 4156,
      "##ший": 4157,
      "нем": 4158,
      "##еский": 4159,
      "##вет": 4160,
      "##ock": 4161,
      "##ул": 4162,
      "##eld": 4163,
      "##iet": 4164,
      "##ium": 4165,
      "прод": 4166,
      "bo": 4167,
      "полит": 4168,
      "отно": 4169,
      "зап": 4170,
      "##ince": 4171,
      "there": 4172,
      "def": 4173,
      "созд": 4174,
      "##ура": 4175,
      "##яв": 4176,
      "работ": 4177,
      "дол": 4178,
      "##ению": 4179,
      "##ское": 4180,
      "##исс": 4181,
      "век": 4182,
      "##ица": 4183,
      "##аж": 4184,
      "##овор": 4185,
      "Алекс": 4186,
      "получ": 4187,
      "##ities": 4188,
      "##ти": 4189,
      "##бор": 4190,
      "trans": 4191,
      "##ep": 4192,
      "##ования": 4193,
      "inc": 4194,
      "##гра": 4195,
      "##ория": 4196,
      "may": 4197,
      "col": 4198,
      "##елей": 4199,
      "Am": 4200,
      "##ающ": 4201,
      "##ward": 4202,
      "pres": 4203,
      "found": 4204,
      "является": 4205,
      "эк": 4206,
      "##ять": 4207,
      "Гер": 4208,
      "##ование": 4209,
      "we": 4210,
      "России": 4211,
      "##round": 4212,
      "эл": 4213,
      "them": 4214,
      "##нак": 4215,
      "##кры": 4216,
      "мет": 4217,
      "II": 4218,
      "call": 4219,
      "уст": 4220,
      "pop": 4221,
      "##orn": 4222,
      "##един": 4223,
      "##ject": 4224,
      "##ople": 4225,
      "spec": 4226,
      "many": 4227,
      "##елик": 4228,
      "bl": 4229,
      "террит": 4230,
      "##ические": 4231,
      "##erman": 4232,
      "##оск": 4233,
      "##oun": 4234,
      "народ": 4235,
      "Brit": 4236,
      "##енер": 4237,
      "##ущ": 4238,
      "Le": 4239,
      "мож": 4240,
      "ре": 4241,
      "мор": 4242,
      "##ласти": 4243,
      "##velop": 4244,
      "sec": 4245,
      "зав": 4246,
      "##ix": 4247,
      "known": 4248,
      "publ": 4249,
      "##ург": 4250,
      "##ient": 4251,
      "Ев": 4252,
      "##ower": 4253,
      "about": 4254,
      "насел": 4255,
      "English": 4256,
      "##ll": 4257,
      "use": 4258,
      "##ished": 4259,
      "##эт": 4260,
      "##ецк": 4261,
      "system": 4262,
      "выс": 4263,
      "их": 4264,
      "dif": 4265,
      "##ines": 4266,
      "##overn": 4267,
      "Сов": 4268,
      "rem": 4269,
      "през": 4270,
      "##ранцуз": 4271,
      "##ve": 4272,
      "Мар": 4273,
      "##циональ": 4274,
      "##ались": 4275,
      "##au": 4276,
      "##aj": 4277,
      "pos": 4278,
      "##ays": 4279,
      "##ША": 4280,
      "during": 4281,
      "США": 4282,
      "##ating": 4283,
      "##ени": 4284,
      "where": 4285,
      "New": 4286,
      "##риса": 4287,
      "var": 4288,
      "##мат": 4289,
      "##ever": 4290,
      "through": 4291,
      "work": 4292,
      "years": 4293,
      "##ают": 4294,
      "Sp": 4295,
      "президент": 4296,
      "##ake": 4297,
      "более": 4298,
      "##ть": 4299,
      "##тер": 4300,
      "##ников": 4301,
      "25": 4302,
      "##eral": 4303,
      "вид": 4304,
      "aut": 4305,
      "же": 4306,
      "##ollow": 4307,
      "##lex": 4308,
      "века": 4309,
      "supp": 4310,
      "род": 4311,
      "##илос": 4312,
      "после": 4313,
      "188": 4314,
      "име": 4315,
      "##нар": 4316,
      "импер": 4317,
      "##uro": 4318,
      "Mar": 4319,
      "met": 4320,
      "##ический": 4321,
      "ob": 4322,
      "##ins": 4323,
      "##ации": 4324,
      "Ad": 4325,
      "##ших": 4326,
      "writ": 4327,
      "вн": 4328,
      "co": 4329,
      "##ман": 4330,
      "##раж": 4331,
      "##еспубли": 4332,
      "Is": 4333,
      "##итер": 4334,
      "рез": 4335,
      "##ution": 4336,
      "do": 4337,
      "##рос": 4338,
      "орган": 4339,
      "Con": 4340,
      "inv": 4341,
      "##ery": 4342,
      "человек": 4343,
      "##илософ": 4344,
      "##hip": 4345,
      "разв": 4346,
      "оп": 4347,
      "##outh": 4348,
      "вод": 4349,
      "##густ": 4350,
      "##ерг": 4351,
      "##roup": 4352,
      "состо": 4353,
      "##енный": 4354,
      "Ap": 4355,
      "##ered": 4356,
      "##uss": 4357,
      "##гли": 4358,
      "##ости": 4359,
      "##ением": 4360,
      "##иш": 4361,
      "гра": 4362,
      "глав": 4363,
      "For": 4364,
      "ян": 4365,
      "##ова": 4366,
      "##дин": 4367,
      "##ily": 4368,
      "tra": 4369,
      "пов": 4370,
      "count": 4371,
      "##имер": 4372,
      "##шие": 4373,
      "##ilm": 4374,
      "##hem": 4375,
      "set": 4376,
      "вос": 4377,
      "##уш": 4378,
      "##ures": 4379,
      "##рупп": 4380,
      "##огла": 4381,
      "##ball": 4382,
      "##ограф": 4383,
      "ap": 4384,
      "##ится": 4385,
      "##вест": 4386,
      "prov": 4387,
      "##ического": 4388,
      "##ца": 4389,
      "##ступ": 4390,
      "сер": 4391,
      "##ещ": 4392,
      "##рон": 4393,
      "exp": 4394,
      "develop": 4395,
      "##ёл": 4396,
      "Aust": 4397,
      "##angu": 4398,
      "##oot": 4399,
      "Кон": 4400,
      "француз": 4401,
      "hist": 4402,
      "inf": 4403,
      "##аш": 4404,
      "##ause": 4405,
      "государствен": 4406,
      "мат": 4407,
      "##inal": 4408,
      "тел": 4409,
      "##dition": 4410,
      "См": 4411,
      "##ier": 4412,
      "##man": 4413,
      "United": 4414,
      "bu": 4415,
      "German": 4416,
      "##ife": 4417,
      "##cted": 4418,
      "пар": 4419,
      "деятель": 4420,
      "##сть": 4421,
      "inst": 4422,
      "no": 4423,
      "актриса": 4424,
      "Ind": 4425,
      "парт": 4426,
      "000": 4427,
      "против": 4428,
      "##ert": 4429,
      "##fore": 4430,
      "##ike": 4431,
      "##рист": 4432,
      "Sc": 4433,
      "Pro": 4434,
      "##ise": 4435,
      "##owever": 4436,
      "again": 4437,
      "##ians": 4438,
      "187": 4439,
      "sur": 4440,
      "##ался": 4441,
      "##чит": 4442,
      "On": 4443,
      "##ember": 4444,
      "later": 4445,
      "##0s": 4446,
      "##ья": 4447,
      "связ": 4448,
      "including": 4449,
      "##ским": 4450,
      "##ology": 4451,
      "существ": 4452,
      "откры": 4453,
      "these": 4454,
      "qu": 4455,
      "Be": 4456,
      "знач": 4457,
      "январ": 4458,
      "dec": 4459,
      "##ually": 4460,
      "Af": 4461,
      "Пет": 4462,
      "186": 4463,
      "char": 4464,
      "Ab": 4465,
      "##az": 4466,
      "called": 4467,
      "дост": 4468,
      "иск": 4469,
      "##цию": 4470,
      "art": 4471,
      "##ized": 4472,
      "прем": 4473,
      "##зыв": 4474,
      "serv": 4475,
      "Ин": 4476,
      "##ует": 4477,
      "##cess": 4478,
      "est": 4479,
      "dist": 4480,
      "##евра": 4481,
      "30": 4482,
      "города": 4483,
      "Bl": 4484,
      "made": 4485,
      "##мент": 4486,
      "##ено": 4487,
      "##изм": 4488,
      "##con": 4489,
      "##цев": 4490,
      "##ible": 4491,
      "Об": 4492,
      "par": 4493,
      "американский": 4494,
      "car": 4495,
      "follow": 4496,
      "общ": 4497,
      "##ically": 4498,
      "##овой": 4499,
      "это": 4500,
      "cap": 4501,
      "##рас": 4502,
      "групп": 4503,
      "##ton": 4504,
      "##цен": 4505,
      "##ather": 4506,
      "number": 4507,
      "end": 4508,
      "being": 4509,
      "кол": 4510,
      "Моск": 4511,
      "##cept": 4512,
      "##orth": 4513,
      "##ска": 4514,
      "писатель": 4515,
      "##иру": 4516,
      "российский": 4517,
      "eff": 4518,
      "##ros": 4519,
      "##ax": 4520,
      "ant": 4521,
      "страны": 4522,
      "##its": 4523,
      "##реб": 4524,
      "##уре": 4525,
      "##ног": 4526,
      "##oman": 4527,
      "sign": 4528,
      "лю": 4529,
      "назв": 4530,
      "##остран": 4531,
      "ret": 4532,
      "##ctions": 4533,
      "её": 4534,
      "##ерб": 4535,
      "##ош": 4536,
      "three": 4537,
      "##дел": 4538,
      "##ke": 4539,
      "##ters": 4540,
      "правитель": 4541,
      "well": 4542,
      "ext": 4543,
      "people": 4544,
      "Александ": 4545,
      "##ural": 4546,
      "govern": 4547,
      "##ork": 4548,
      "##итерат": 4549,
      "##пион": 4550,
      "рас": 4551,
      "both": 4552,
      "др": 4553,
      "fe": 4554,
      "##ох": 4555,
      "21": 4556,
      "##row": 4557,
      "##rist": 4558,
      "немецк": 4559,
      "дека": 4560,
      "философ": 4561,
      "then": 4562,
      "теат": 4563,
      "пам": 4564,
      "##raph": 4565,
      "##ments": 4566,
      "Ав": 4567,
      "##ole": 4568,
      "while": 4569,
      "War": 4570,
      "##ement": 4571,
      "##иан": 4572,
      "##тов": 4573,
      "мир": 4574,
      "loc": 4575,
      "polit": 4576,
      "Фран": 4577,
      "##оло": 4578,
      "##коном": 4579,
      "цент": 4580,
      "langu": 4581,
      "действ": 4582,
      "##ale": 4583,
      "только": 4584,
      "форм": 4585,
      "##ick": 4586,
      "пот": 4587,
      "Euro": 4588,
      "послед": 4589,
      "##оны": 4590,
      "##ues": 4591,
      "##иту": 4592,
      "##олож": 4593,
      "##emb": 4594,
      "city": 4595,
      "##кра": 4596,
      "арм": 4597,
      "Ос": 4598,
      "##ames": 4599,
      "апр": 4600,
      "Joh": 4601,
      "Sh": 4602,
      "окт": 4603,
      "##yp": 4604,
      "mon": 4605,
      "август": 4606,
      "group": 4607,
      "сент": 4608,
      "##ился": 4609,
      "Со": 4610,
      "air": 4611,
      "##ck": 4612,
      "##енной": 4613,
      "##яд": 4614,
      "differ": 4615,
      "high": 4616,
      "поэт": 4617,
      "main": 4618,
      "Ник": 4619,
      "##огда": 4620,
      "##ланд": 4621,
      "##цы": 4622,
      "film": 4623,
      "##алист": 4624,
      "см": 4625,
      "##other": 4626,
      "опр": 4627,
      "British": 4628,
      "sing": 4629,
      "became": 4630,
      "##els": 4631,
      "dire": 4632,
      "прив": 4633,
      "stud": 4634,
      "пом": 4635,
      "##лаг": 4636,
      "января": 4637,
      "Так": 4638,
      "том": 4639,
      "мира": 4640,
      "##ники": 4641,
      "мая": 4642,
      "чер": 4643,
      "##xt": 4644,
      "##ences": 4645,
      "дан": 4646,
      "Ph": 4647,
      "зан": 4648,
      "##ived": 4649,
      "any": 4650,
      "##ощ": 4651,
      "##imes": 4652,
      "тем": 4653,
      "тр": 4654,
      "##енных": 4655,
      "##стр": 4656,
      "##ision": 4657,
      "##ility": 4658,
      "sim": 4659,
      "##ость": 4660,
      "##ages": 4661,
      "##ческ": 4662,
      "##фер": 4663,
      "чемпион": 4664,
      "марта": 4665,
      "##der": 4666,
      "##ved": 4667,
      "Велик": 4668,
      "##том": 4669,
      "минист": 4670,
      "id": 4671,
      "Из": 4672,
      "##алось": 4673,
      "остров": 4674,
      "24": 4675,
      "без": 4676,
      "##air": 4677,
      "июля": 4678,
      "тра": 4679,
      "истор": 4680,
      "term": 4681,
      "early": 4682,
      "##ae": 4683,
      "зем": 4684,
      "##ились": 4685,
      "##олю": 4686,
      "dep": 4687,
      "##cy": 4688,
      "##ерс": 4689,
      "##ическая": 4690,
      "которые": 4691,
      "наход": 4692,
      "##ве": 4693,
      "cre": 4694,
      "##any": 4695,
      "orig": 4696,
      "Кар": 4697,
      "##ially": 4698,
      "##ество": 4699,
      "sm": 4700,
      "mov": 4701,
      "Fran": 4702,
      "desc": 4703,
      "##уры": 4704,
      "Europe": 4705,
      "world": 4706,
      "##ajor": 4707,
      "Wor": 4708,
      "##ature": 4709,
      "Cl": 4710,
      "bel": 4711,
      "mus": 4712,
      "февра": 4713,
      "##elf": 4714,
      "##ора": 4715,
      "##нако": 4716,
      "##уг": 4717,
      "##ann": 4718,
      "##исим": 4719,
      "перев": 4720,
      "ус": 4721,
      "##hor": 4722,
      "пог": 4723,
      "Christ": 4724,
      "Кат": 4725,
      "lead": 4726,
      "##ool": 4727,
      "##ному": 4728,
      "John": 4729,
      "##раль": 4730,
      "##инг": 4731,
      "##uch": 4732,
      "##ций": 4733,
      "##ращ": 4734,
      "приз": 4735,
      "##еты": 4736,
      "##und": 4737,
      "##ield": 4738,
      "##уют": 4739,
      "##ract": 4740,
      "second": 4741,
      "XI": 4742,
      "22": 4743,
      "##иод": 4744,
      "##иск": 4745,
      "июня": 4746,
      "сентября": 4747,
      "States": 4748,
      "декабря": 4749,
      "pers": 4750,
      "пор": 4751,
      "##руд": 4752,
      "long": 4753,
      "##са": 4754,
      "sever": 4755,
      "слов": 4756,
      "опред": 4757,
      "населения": 4758,
      "апреля": 4759,
      "ун": 4760,
      "##up": 4761,
      "min": 4762,
      "##rop": 4763,
      "##led": 4764,
      "##онч": 4765,
      "state": 4766,
      "partic": 4767,
      "рек": 4768,
      "##лин": 4769,
      "круп": 4770,
      "суд": 4771,
      "const": 4772,
      "##gy": 4773,
      "русский": 4774,
      "Од": 4775,
      "августа": 4776,
      "##орон": 4777,
      "23": 4778,
      "вк": 4779,
      "##оля": 4780,
      "##аты": 4781,
      "Пос": 4782,
      "##ina": 4783,
      "##rench": 4784,
      "oper": 4785,
      "##iversity": 4786,
      "Br": 4787,
      "##ained": 4788,
      "##ash": 4789,
      "который": 4790,
      "larg": 4791,
      "актёр": 4792,
      "октября": 4793,
      "втор": 4794,
      "##ful": 4795,
      "элект": 4796,
      "эконом": 4797,
      "##enn": 4798,
      "XX": 4799,
      "войны": 4800,
      "##ulation": 4801,
      "Ex": 4802,
      "нек": 4803,
      "##ene": 4804,
      "war": 4805,
      "##ange": 4806,
      "перед": 4807,
      "Bo": 4808,
      "##ius": 4809,
      "арх": 4810,
      "##ата": 4811,
      "French": 4812,
      "поп": 4813,
      "appe": 4814,
      "##узы": 4815,
      "And": 4816,
      "##iew": 4817,
      "##ank": 4818,
      "fam": 4819,
      "##bert": 4820,
      "обществ": 4821,
      "##ике": 4822,
      "##сслед": 4823,
      "##акт": 4824,
      "sch": 4825,
      "развит": 4826,
      "извест": 4827,
      "##ерш": 4828,
      "Кор": 4829,
      "design": 4830,
      "##вор": 4831,
      "contin": 4832,
      "Нов": 4833,
      "все": 4834,
      "##глий": 4835,
      "disc": 4836,
      "##ting": 4837,
      "World": 4838,
      "sl": 4839,
      "Alex": 4840,
      "##удож": 4841,
      "ser": 4842,
      "same": 4843,
      "often": 4844,
      "##aid": 4845,
      "зам": 4846,
      "рег": 4847,
      "name": 4848,
      "she": 4849,
      "##фи": 4850,
      "##ording": 4851,
      "could": 4852,
      "около": 4853,
      "февраля": 4854,
      "##iam": 4855,
      "against": 4856,
      "рай": 4857,
      "##ьер": 4858,
      "вып": 4859,
      "##знач": 4860,
      "examp": 4861,
      "##inn": 4862,
      "##мп": 4863,
      "мл": 4864,
      "буд": 4865,
      "##ently": 4866,
      "##ыч": 4867,
      "поб": 4868,
      "med": 4869,
      "own": 4870,
      "##ccess": 4871,
      "##ives": 4872,
      "four": 4873,
      "based": 4874,
      "ноября": 4875,
      "От": 4876,
      "один": 4877,
      "##орг": 4878,
      "Европ": 4879,
      "составля": 4880,
      "над": 4881,
      "##мож": 4882,
      "##ants": 4883,
      "##лот": 4884,
      "##форм": 4885,
      "im": 4886,
      "##ident": 4887,
      "##atic": 4888,
      "##omet": 4889,
      "##illion": 4890,
      "жиз": 4891,
      "##ине": 4892,
      "##urch": 4893,
      "##ional": 4894,
      "##аться": 4895,
      "common": 4896,
      "след": 4897,
      "occ": 4898,
      "before": 4899,
      "##зав": 4900,
      "##ined": 4901,
      "##ибли": 4902,
      "территории": 4903,
      "поз": 4904,
      "результ": 4905,
      "Or": 4906,
      "26": 4907,
      "bro": 4908,
      "участ": 4909,
      "##народ": 4910,
      "consid": 4911,
      "##yl": 4912,
      "##ital": 4913,
      "##osed": 4914,
      "период": 4915,
      "##ностью": 4916,
      "arm": 4917,
      "организ": 4918,
      "##ограм": 4919,
      "100": 4920,
      "Перв": 4921,
      "##енного": 4922,
      "##мест": 4923,
      "##имен": 4924,
      "##vent": 4925,
      "реш": 4926,
      "##оно": 4927,
      "##ble": 4928,
      "области": 4929,
      "##ograph": 4930,
      "##оглас": 4931,
      "##дж": 4932,
      "культ": 4933,
      "major": 4934,
      "##ерх": 4935,
      "##chn": 4936,
      "##уля": 4937,
      "##ains": 4938,
      "англий": 4939,
      "худож": 4940,
      "##ared": 4941,
      "производ": 4942,
      "##ком": 4943,
      "конц": 4944,
      "Wh": 4945,
      "##иков": 4946,
      "##енные": 4947,
      "##ird": 4948,
      "поль": 4949,
      "##ty": 4950,
      "es": 4951,
      "сил": 4952,
      "27": 4953,
      "счит": 4954,
      "конт": 4955,
      "since": 4956,
      "арт": 4957,
      "Can": 4958,
      "##держ": 4959,
      "##lu": 4960,
      "##гр": 4961,
      "опер": 4962,
      "##але": 4963,
      "##ласс": 4964,
      "##though": 4965,
      "##елиг": 4966,
      "##oph": 4967,
      "land": 4968,
      "mat": 4969,
      "will": 4970,
      "##кой": 4971,
      "##ием": 4972,
      "##алась": 4973,
      "if": 4974,
      "##ntil": 4975,
      "28": 4976,
      "##ерн": 4977,
      "стал": 4978,
      "автор": 4979,
      "small": 4980,
      "Arm": 4981,
      "вз": 4982,
      "может": 4983,
      "##ын": 4984,
      "##pen": 4985,
      "##inc": 4986,
      "##eg": 4987,
      "##онов": 4988,
      "тех": 4989,
      "##ерт": 4990,
      "ref": 4991,
      "##ством": 4992,
      "Gree": 4993,
      "##кол": 4994,
      "которых": 4995,
      "Совет": 4996,
      "##ника": 4997,
      "str": 4998,
      "because": 4999,
      "##ате": 5000,
      "185": 5001,
      "back": 5002,
      "этом": 5003,
      "Sch": 5004,
      "оч": 5005,
      "отнош": 5006,
      "##iod": 5007,
      "incre": 5008,
      "мог": 5009,
      "генер": 5010,
      "физ": 5011,
      "##ества": 5012,
      "several": 5013,
      "##ждан": 5014,
      "##way": 5015,
      "##аются": 5016,
      "наст": 5017,
      "184": 5018,
      "##oint": 5019,
      "##ilit": 5020,
      "##уков": 5021,
      "like": 5022,
      "##ute": 5023,
      "кре": 5024,
      "##иссёр": 5025,
      "No": 5026,
      "жив": 5027,
      "##ices": 5028,
      "##ides": 5029,
      "each": 5030,
      "Вс": 5031,
      "##ительно": 5032,
      "##aking": 5033,
      "##руж": 5034,
      "эксп": 5035,
      "того": 5036,
      "prog": 5037,
      "##ям": 5038,
      "исслед": 5039,
      "##ний": 5040,
      "##ged": 5041,
      "##юз": 5042,
      "Car": 5043,
      "183": 5044,
      "##por": 5045,
      "emp": 5046,
      "Pr": 5047,
      "##ica": 5048,
      "##ley": 5049,
      "##acter": 5050,
      "player": 5051,
      "Austral": 5052,
      "government": 5053,
      "ад": 5054,
      "##ively": 5055,
      "##пример": 5056,
      "км": 5057,
      "##му": 5058,
      "##ason": 5059,
      "author": 5060,
      "##ери": 5061,
      "support": 5062,
      "гор": 5063,
      "долж": 5064,
      "ins": 5065,
      "##ним": 5066,
      "поч": 5067,
      "пут": 5068,
      "изб": 5069,
      "##ised": 5070,
      "##ило": 5071,
      "##ализ": 5072,
      "##фор": 5073,
      "дом": 5074,
      "effect": 5075,
      "##ven": 5076,
      "##ctor": 5077,
      "trad": 5078,
      "Ив": 5079,
      "Ag": 5080,
      "law": 5081,
      "##iver": 5082,
      "mar": 5083,
      "until": 5084,
      "##лож": 5085,
      "первый": 5086,
      "член": 5087,
      "##работ": 5088,
      "There": 5089,
      "2010": 5090,
      "есть": 5091,
      "много": 5092,
      "кат": 5093,
      "##ternational": 5094,
      "success": 5095,
      "##ийский": 5096,
      "red": 5097,
      "contro": 5098,
      "##attle": 5099,
      "##кад": 5100,
      "соврем": 5101,
      "уд": 5102,
      "class": 5103,
      "However": 5104,
      "пев": 5105,
      "##ries": 5106,
      "север": 5107,
      "цер": 5108,
      "##ял": 5109,
      "ев": 5110,
      "prop": 5111,
      "других": 5112,
      "##осточ": 5113,
      "Te": 5114,
      "проис": 5115,
      "некотор": 5116,
      "##ицы": 5117,
      "включ": 5118,
      "##обод": 5119,
      "public": 5120,
      "ит": 5121,
      "gener": 5122,
      "тран": 5123,
      "различ": 5124,
      "hum": 5125,
      "уп": 5126,
      "large": 5127,
      "Alexand": 5128,
      "##оне": 5129,
      "Comm": 5130,
      "стро": 5131,
      "example": 5132,
      "Col": 5133,
      "University": 5134,
      "Bar": 5135,
      "Russ": 5136,
      "##общ": 5137,
      "##ритан": 5138,
      "где": 5139,
      "реж": 5140,
      "##пон": 5141,
      "##iqu": 5142,
      "програм": 5143,
      "death": 5144,
      "power": 5145,
      "Св": 5146,
      "неск": 5147,
      "2008": 5148,
      "life": 5149,
      "##скую": 5150,
      "##ически": 5151,
      "det": 5152,
      "##хран": 5153,
      "##ey": 5154,
      "##conom": 5155,
      "##gg": 5156,
      "фун": 5157,
      "##емат": 5158,
      "американская": 5159,
      "##ets": 5160,
      "##зыва": 5161,
      "different": 5162,
      "##ued": 5163,
      "##ouse": 5164,
      "##иверс": 5165,
      "часть": 5166,
      "##ows": 5167,
      "##ided": 5168,
      "соот": 5169,
      "##oci": 5170,
      "near": 5171,
      "##нее": 5172,
      "##ission": 5173,
      "Никол": 5174,
      "record": 5175,
      "Roman": 5176,
      "##мы": 5177,
      "Air": 5178,
      "музы": 5179,
      "##олич": 5180,
      "мон": 5181,
      "зд": 5182,
      "equ": 5183,
      "##cle": 5184,
      "выбор": 5185,
      "XV": 5186,
      "изд": 5187,
      "Республи": 5188,
      "##ull": 5189,
      "bas": 5190,
      "этого": 5191,
      "though": 5192,
      "движ": 5193,
      "##лом": 5194,
      "##ыми": 5195,
      "##шая": 5196,
      "##ired": 5197,
      "##ард": 5198,
      "po": 5199,
      "val": 5200,
      "##сли": 5201,
      "##образ": 5202,
      "пром": 5203,
      "##ox": 5204,
      "##ruct": 5205,
      "французский": 5206,
      "театра": 5207,
      "##еволю": 5208,
      "##ну": 5209,
      "##ator": 5210,
      "##стра": 5211,
      "##raft": 5212,
      "2007": 5213,
      "##ват": 5214,
      "2000": 5215,
      "Mus": 5216,
      "ут": 5217,
      "##par": 5218,
      "осн": 5219,
      "##min": 5220,
      "Pl": 5221,
      "##ье": 5222,
      "include": 5223,
      "##arm": 5224,
      "##яж": 5225,
      "##аны": 5226,
      "гол": 5227,
      "##стру": 5228,
      "литерат": 5229,
      "##ross": 5230,
      "##ody": 5231,
      "случ": 5232,
      "особ": 5233,
      "result": 5234,
      "Север": 5235,
      "##особ": 5236,
      "##ителей": 5237,
      "запад": 5238,
      "##orts": 5239,
      "##олот": 5240,
      "##ony": 5241,
      "##елез": 5242,
      "foot": 5243,
      "III": 5244,
      "##ках": 5245,
      "XIX": 5246,
      "##vers": 5247,
      "##рь": 5248,
      "##аракт": 5249,
      "##шего": 5250,
      "##олж": 5251,
      "estab": 5252,
      "##осто": 5253,
      "181": 5254,
      "класс": 5255,
      "##арь": 5256,
      "##шей": 5257,
      "##ократ": 5258,
      "2012": 5259,
      "уб": 5260,
      "29": 5261,
      "refer": 5262,
      "BC": 5263,
      "##щё": 5264,
      "fun": 5265,
      "2011": 5266,
      "2014": 5267,
      "##сяч": 5268,
      "##лив": 5269,
      "себ": 5270,
      "around": 5271,
      "артист": 5272,
      "##rab": 5273,
      "##ниг": 5274,
      "lit": 5275,
      "import": 5276,
      "##ified": 5277,
      "##ышлен": 5278,
      "##ner": 5279,
      "##son": 5280,
      "##стве": 5281,
      "незав": 5282,
      "King": 5283,
      "language": 5284,
      "Рус": 5285,
      "##те": 5286,
      "Влад": 5287,
      "##ience": 5288,
      "organ": 5289,
      "кня": 5290,
      "мод": 5291,
      "##них": 5292,
      "##ize": 5293,
      "2013": 5294,
      "br": 5295,
      "##eng": 5296,
      "period": 5297,
      "##ister": 5298,
      "Ge": 5299,
      "cor": 5300,
      "2009": 5301,
      "##сов": 5302,
      "##ician": 5303,
      "Aug": 5304,
      "независим": 5305,
      "rele": 5306,
      "##рен": 5307,
      "##yd": 5308,
      "точ": 5309,
      "ран": 5310,
      "182": 5311,
      "person": 5312,
      "масс": 5313,
      "##еф": 5314,
      "After": 5315,
      "##изма": 5316,
      "did": 5317,
      "##олев": 5318,
      "South": 5319,
      "##ско": 5320,
      "Hist": 5321,
      "requ": 5322,
      "##тоб": 5323,
      "через": 5324,
      "##ация": 5325,
      "run": 5326,
      "ты": 5327,
      "един": 5328,
      "##итет": 5329,
      "##iety": 5330,
      "leg": 5331,
      "пере": 5332,
      "ал": 5333,
      "дел": 5334,
      "##арх": 5335,
      "US": 5336,
      "##amed": 5337,
      "poss": 5338,
      "Герм": 5339,
      "country": 5340,
      "National": 5341,
      "cult": 5342,
      "Ant": 5343,
      "гер": 5344,
      "##ration": 5345,
      "2005": 5346,
      "##идер": 5347,
      "elect": 5348,
      "ever": 5349,
      "проц": 5350,
      "##итор": 5351,
      "They": 5352,
      "All": 5353,
      "возмож": 5354,
      "modern": 5355,
      "##ilar": 5356,
      "пон": 5357,
      "##ождения": 5358,
      "Ang": 5359,
      "##ret": 5360,
      "##лог": 5361,
      "##лимп": 5362,
      "August": 5363,
      "##ме": 5364,
      "2006": 5365,
      "those": 5366,
      "##eb": 5367,
      "commun": 5368,
      "ог": 5369,
      "vers": 5370,
      "##aim": 5371,
      "##аем": 5372,
      "##iven": 5373,
      "##rew": 5374,
      "##lect": 5375,
      "##лощ": 5376,
      "##ival": 5377,
      "##ше": 5378,
      "##iving": 5379,
      "##сы": 5380,
      "##альный": 5381,
      "Род": 5382,
      "describ": 5383,
      "всех": 5384,
      "интер": 5385,
      "appro": 5386,
      "By": 5387,
      "among": 5388,
      "##га": 5389,
      "##утб": 5390,
      "##ott": 5391,
      "кан": 5392,
      "##ищ": 5393,
      "##кадем": 5394,
      "немецкий": 5395,
      "##инский": 5396,
      "они": 5397,
      "conf": 5398,
      "Александр": 5399,
      "ent": 5400,
      "Россий": 5401,
      "сем": 5402,
      "team": 5403,
      "##естве": 5404,
      "##omen": 5405,
      "Ear": 5406,
      "##енд": 5407,
      "##arch": 5408,
      "##него": 5409,
      "##pect": 5410,
      "Укра": 5411,
      "##елич": 5412,
      "##арактер": 5413,
      "восст": 5414,
      "non": 5415,
      "##альных": 5416,
      "националь": 5417,
      "gr": 5418,
      "##ove": 5419,
      "религ": 5420,
      "##mb": 5421,
      "offic": 5422,
      "##omin": 5423,
      "открыт": 5424,
      "Во": 5425,
      "histor": 5426,
      "conc": 5427,
      "##rodu": 5428,
      "##лем": 5429,
      "##ended": 5430,
      "соответ": 5431,
      "##разд": 5432,
      "process": 5433,
      "ann": 5434,
      "быть": 5435,
      "##anc": 5436,
      "div": 5437,
      "##ried": 5438,
      "##яб": 5439,
      "add": 5440,
      "доб": 5441,
      "##ai": 5442,
      "Par": 5443,
      "program": 5444,
      "##let": 5445,
      "школ": 5446,
      "even": 5447,
      "word": 5448,
      "пре": 5449,
      "##ано": 5450,
      "##urr": 5451,
      "##une": 5452,
      "##илась": 5453,
      "##руз": 5454,
      "series": 5455,
      "la": 5456,
      "них": 5457,
      "##ink": 5458,
      "части": 5459,
      "##yn": 5460,
      "##кв": 5461,
      "##aced": 5462,
      "expl": 5463,
      "##рей": 5464,
      "tradition": 5465,
      "now": 5466,
      "area": 5467,
      "##ламент": 5468,
      "1990": 5469,
      "##ние": 5470,
      "композ": 5471,
      "день": 5472,
      "футб": 5473,
      "Сред": 5474,
      "искус": 5475,
      "##ague": 5476,
      "##ization": 5477,
      "##af": 5478,
      "направ": 5479,
      "present": 5480,
      "gu": 5481,
      "установ": 5482,
      "миров": 5483,
      "2017": 5484,
      "##дор": 5485,
      "##ec": 5486,
      "##aving": 5487,
      "fin": 5488,
      "прис": 5489,
      "##port": 5490,
      "##ris": 5491,
      "day": 5492,
      "Ком": 5493,
      "##ately": 5494,
      "##ину": 5495,
      "pass": 5496,
      "2004": 5497,
      "mark": 5498,
      "годах": 5499,
      "##ённых": 5500,
      "##ured": 5501,
      "универс": 5502,
      "water": 5503,
      "##нев": 5504,
      "##ектор": 5505,
      "##ilitary": 5506,
      "##ростран": 5507,
      "##ходит": 5508,
      "2018": 5509,
      "тысяч": 5510,
      "##альной": 5511,
      "2020": 5512,
      "##фициаль": 5513,
      "сод": 5514,
      "much": 5515,
      "древ": 5516,
      "##ститу": 5517,
      "##аря": 5518,
      "stand": 5519,
      "каз": 5520,
      "31": 5521,
      "высок": 5522,
      "50": 5523,
      "##ases": 5524,
      "кач": 5525,
      "eng": 5526,
      "времени": 5527,
      "При": 5528,
      "Аф": 5529,
      "##olution": 5530,
      "influ": 5531,
      "tem": 5532,
      "газ": 5533,
      "2015": 5534,
      "Прим": 5535,
      "##ическое": 5536,
      "began": 5537,
      "ка": 5538,
      "лиш": 5539,
      "##ternal": 5540,
      "million": 5541,
      "##ids": 5542,
      "perform": 5543,
      "##аго": 5544,
      "##арист": 5545,
      "стар": 5546,
      "револю": 5547,
      "##ари": 5548,
      "отд": 5549,
      "функ": 5550,
      "##ung": 5551,
      "dr": 5552,
      "граждан": 5553,
      "да": 5554,
      "##акс": 5555,
      "2016": 5556,
      "мног": 5557,
      "exper": 5558,
      "После": 5559,
      "techn": 5560,
      "##ological": 5561,
      "North": 5562,
      "поддерж": 5563,
      "using": 5564,
      "##tle": 5565,
      "##цип": 5566,
      "план": 5567,
      "воп": 5568,
      "##urther": 5569,
      "These": 5570,
      "##рой": 5571,
      "##ript": 5572,
      "old": 5573,
      "##oss": 5574,
      "например": 5575,
      "принят": 5576,
      "hand": 5577,
      "Acc": 5578,
      "##get": 5579,
      "##осм": 5580,
      "##apt": 5581,
      "soc": 5582,
      "##ster": 5583,
      "мед": 5584,
      "которой": 5585,
      "line": 5586,
      "arch": 5587,
      "due": 5588,
      "opp": 5589,
      "Ант": 5590,
      "##ристиан": 5591,
      "song": 5592,
      "Greek": 5593,
      "##ёх": 5594,
      "return": 5595,
      "econom": 5596,
      "##евич": 5597,
      "##сер": 5598,
      "population": 5599,
      "##ilos": 5600,
      "уров": 5601,
      "##ему": 5602,
      "##альные": 5603,
      "##олит": 5604,
      "##альян": 5605,
      "belie": 5606,
      "##уковод": 5607,
      "дор": 5608,
      "Pol": 5609,
      "дем": 5610,
      "typ": 5611,
      "британ": 5612,
      "##ды": 5613,
      "##эн": 5614,
      "##лер": 5615,
      "born": 5616,
      "Мих": 5617,
      "##оруж": 5618,
      "мире": 5619,
      "##пол": 5620,
      "Cent": 5621,
      "жен": 5622,
      "1991": 5623,
      "характер": 5624,
      "within": 5625,
      "very": 5626,
      "##луж": 5627,
      "##уск": 5628,
      "зв": 5629,
      "##ards": 5630,
      "base": 5631,
      "книг": 5632,
      "##craft": 5633,
      "##ласть": 5634,
      "##ane": 5635,
      "колич": 5636,
      "лин": 5637,
      "##ият": 5638,
      "##вы": 5639,
      "зат": 5640,
      "желез": 5641,
      "##ves": 5642,
      "##isc": 5643,
      "180": 5644,
      "основан": 5645,
      "football": 5646,
      "av": 5647,
      "рав": 5648,
      "науч": 5649,
      "2001": 5650,
      "following": 5651,
      "##embers": 5652,
      "##нож": 5653,
      "Ass": 5654,
      "##реч": 5655,
      "промышлен": 5656,
      "stat": 5657,
      "##resent": 5658,
      "результате": 5659,
      "##ode": 5660,
      "allow": 5661,
      "жизни": 5662,
      "можно": 5663,
      "распростран": 5664,
      "Ист": 5665,
      "adv": 5666,
      "заним": 5667,
      "ант": 5668,
      "республи": 5669,
      "##есь": 5670,
      "полож": 5671,
      "тип": 5672,
      "сохран": 5673,
      "##огласно": 5674,
      "Comp": 5675,
      "измен": 5676,
      "память": 5677,
      "расс": 5678,
      "группы": 5679,
      "истории": 5680,
      "##gen": 5681,
      "rest": 5682,
      "##оде": 5683,
      "His": 5684,
      "still": 5685,
      "rece": 5686,
      "history": 5687,
      "гран": 5688,
      "Emp": 5689,
      "##ница": 5690,
      "Аль": 5691,
      "Зап": 5692,
      "##дей": 5693,
      "##ба": 5694,
      "Arab": 5695,
      "когда": 5696,
      "##рид": 5697,
      "определ": 5698,
      "2019": 5699,
      "ди": 5700,
      "##атов": 5701,
      "##стро": 5702,
      "read": 5703,
      "Ital": 5704,
      "док": 5705,
      "Canad": 5706,
      "##мет": 5707,
      "помощ": 5708,
      "##сед": 5709,
      "##eter": 5710,
      "##егория": 5711,
      "располож": 5712,
      "##лей": 5713,
      "rev": 5714,
      "##read": 5715,
      "Аз": 5716,
      "император": 5717,
      "млн": 5718,
      "##ights": 5719,
      "##уляр": 5720,
      "40": 5721,
      "led": 5722,
      "##пп": 5723,
      "general": 5724,
      "##ness": 5725,
      "##III": 5726,
      "##оговор": 5727,
      "##ащ": 5728,
      "способ": 5729,
      "Apoll": 5730,
      "open": 5731,
      "стат": 5732,
      "##ита": 5733,
      "similar": 5734,
      "rad": 5735,
      "##erb": 5736,
      "##ze": 5737,
      "##бы": 5738,
      "Bra": 5739,
      "bi": 5740,
      "Пре": 5741,
      "##сят": 5742,
      "popular": 5743,
      "##ела": 5744,
      "##ука": 5745,
      "##лет": 5746,
      "Bel": 5747,
      "композитор": 5748,
      "##ense": 5749,
      "руковод": 5750,
      "##pec": 5751,
      "##лиз": 5752,
      "название": 5753,
      "place": 5754,
      "##цк": 5755,
      "##estern": 5756,
      "математ": 5757,
      "дет": 5758,
      "ещё": 5759,
      "##lic": 5760,
      "годы": 5761,
      "2003": 5762,
      "##оян": 5763,
      "спе": 5764,
      "##фа": 5765,
      "bus": 5766,
      "##ches": 5767,
      "along": 5768,
      "ter": 5769,
      "управ": 5770,
      "эн": 5771,
      "итальян": 5772,
      "люб": 5773,
      "мен": 5774,
      "##adem": 5775,
      "нед": 5776,
      "Прав": 5777,
      "##ужд": 5778,
      "Me": 5779,
      "last": 5780,
      "##dom": 5781,
      "##цией": 5782,
      "двух": 5783,
      "York": 5784,
      "День": 5785,
      "##орь": 5786,
      "comput": 5787,
      "шир": 5788,
      "##лощад": 5789,
      "##атив": 5790,
      "music": 5791,
      "Государ": 5792,
      "тыс": 5793,
      "179": 5794,
      "order": 5795,
      "##иболее": 5796,
      "home": 5797,
      "##ального": 5798,
      "head": 5799,
      "являются": 5800,
      "##ракт": 5801,
      "##alt": 5802,
      "##скими": 5803,
      "considered": 5804,
      "власти": 5805,
      "годов": 5806,
      "##ителя": 5807,
      "##aster": 5808,
      "всего": 5809,
      "Исп": 5810,
      "##илось": 5811,
      "Will": 5812,
      "содерж": 5813,
      "great": 5814,
      "##lin": 5815,
      "Some": 5816,
      "##aur": 5817,
      "##alth": 5818,
      "##ева": 5819,
      "school": 5820,
      "##урн": 5821,
      "##овых": 5822,
      "resp": 5823,
      "Категория": 5824,
      "место": 5825,
      "##нам": 5826,
      "build": 5827,
      "##ple": 5828,
      "cour": 5829,
      "либ": 5830,
      "##мот": 5831,
      "May": 5832,
      "уже": 5833,
      "##ior": 5834,
      "##енная": 5835,
      "которая": 5836,
      "fact": 5837,
      "character": 5838,
      "##руго": 5839,
      "системы": 5840,
      "##ese": 5841,
      "Анд": 5842,
      "2002": 5843,
      "##ода": 5844,
      "##езд": 5845,
      "hel": 5846,
      "dem": 5847,
      "прир": 5848,
      "##ально": 5849,
      "Сам": 5850,
      "show": 5851,
      "##udd": 5852,
      "left": 5853,
      "человека": 5854,
      "addition": 5855,
      "##ты": 5856,
      "##луб": 5857,
      "##алин": 5858,
      "два": 5859,
      "##reen": 5860,
      "##duc": 5861,
      "Лен": 5862,
      "изоб": 5863,
      "другие": 5864,
      "##омин": 5865,
      "##lands": 5866,
      "Сан": 5867,
      "##аров": 5868,
      "##екст": 5869,
      "1999": 5870,
      "##rian": 5871,
      "##idd": 5872,
      "Ск": 5873,
      "примен": 5874,
      "##ёв": 5875,
      "child": 5876,
      "пес": 5877,
      "God": 5878,
      "aff": 5879,
      "Инд": 5880,
      "##озя": 5881,
      "short": 5882,
      "вопрос": 5883,
      "##ales": 5884,
      "Бер": 5885,
      "##ателя": 5886,
      "Art": 5887,
      "числе": 5888,
      "процесс": 5889,
      "hig": 5890,
      "Apollo": 5891,
      "particular": 5892,
      "##ata": 5893,
      "crit": 5894,
      "Ор": 5895,
      "##ослав": 5896,
      "less": 5897,
      "important": 5898,
      "команд": 5899,
      "##ont": 5900,
      "несколько": 5901,
      "имеет": 5902,
      "телев": 5903,
      "трансп": 5904,
      "##ites": 5905,
      "хим": 5906,
      "##med": 5907,
      "##ане": 5908,
      "##аний": 5909,
      "family": 5910,
      "Бел": 5911,
      "##ats": 5912,
      "парламент": 5913,
      "##by": 5914,
      "##елем": 5915,
      "##реж": 5916,
      "подпис": 5917,
      "##wards": 5918,
      "vis": 5919,
      "Man": 5920,
      "national": 5921,
      "ув": 5922,
      "ис": 5923,
      "##илли": 5924,
      "##istic": 5925,
      "you": 5926,
      "##ban": 5927,
      "свобод": 5928,
      "генерал": 5929,
      "Gen": 5930,
      "Min": 5931,
      "состоян": 5932,
      "##скому": 5933,
      "##amb": 5934,
      "##cer": 5935,
      "##амб": 5936,
      "смер": 5937,
      "##онд": 5938,
      "внут": 5939,
      "prot": 5940,
      "phys": 5941,
      "##ument": 5942,
      "соответств": 5943,
      "войск": 5944,
      "Ro": 5945,
      "##ilt": 5946,
      "##ories": 5947,
      "Ac": 5948,
      "various": 5949,
      "Франции": 5950,
      "##ули": 5951,
      "##ологии": 5952,
      "которого": 5953,
      "учё": 5954,
      "members": 5955,
      "sour": 5956,
      "Однако": 5957,
      "продолж": 5958,
      "book": 5959,
      "Ed": 5960,
      "origin": 5961,
      "памят": 5962,
      "официаль": 5963,
      "##овед": 5964,
      "наб": 5965,
      "Лю": 5966,
      "##ователь": 5967,
      "kill": 5968,
      "Вен": 5969,
      "point": 5970,
      "##arian": 5971,
      "anal": 5972,
      "##лены": 5973,
      "what": 5974,
      "human": 5975,
      "служ": 5976,
      "comb": 5977,
      "##няя": 5978,
      "##олист": 5979,
      "1980": 5980,
      "##li": 5981,
      "##olic": 5982,
      "former": 5983,
      "1992": 5984,
      "##ечания": 5985,
      "fre": 5986,
      "said": 5987,
      "##рив": 5988,
      "##емент": 5989,
      "##ably": 5990,
      "##ея": 5991,
      "##50": 5992,
      "largest": 5993,
      "##анг": 5994,
      "объяв": 5995,
      "музык": 5996,
      "Char": 5997,
      "2021": 5998,
      "start": 5999,
      "##опис": 6000,
      "go": 6001,
      "somet": 6002,
      "Он": 6003,
      "##лась": 6004,
      "##ённые": 6005,
      "level": 6006,
      "##овал": 6007,
      "прич": 6008,
      "pat": 6009,
      "##уется": 6010,
      "Other": 6011,
      "##ested": 6012,
      "сцен": 6013,
      "иде": 6014,
      "собствен": 6015,
      "##раб": 6016,
      "##ранич": 6017,
      "anim": 6018,
      "another": 6019,
      "European": 6020,
      "sk": 6021,
      "##rem": 6022,
      "##тобы": 6023,
      "Sw": 6024,
      "##ule": 6025,
      "see": 6026,
      "##atter": 6027,
      "##urg": 6028,
      "##овать": 6029,
      "международ": 6030,
      "published": 6031,
      "game": 6032,
      "Это": 6033,
      "##iness": 6034,
      "App": 6035,
      "##вин": 6036,
      "ла": 6037,
      "##epend": 6038,
      "field": 6039,
      "Сп": 6040,
      "Christian": 6041,
      "##чис": 6042,
      "##urs": 6043,
      "##форма": 6044,
      "##cient": 6045,
      "gl": 6046,
      "эп": 6047,
      "заключ": 6048,
      "species": 6049,
      "military": 6050,
      "##ither": 6051,
      "##ытия": 6052,
      "represent": 6053,
      "given": 6054,
      "бел": 6055,
      "относ": 6056,
      "осв": 6057,
      "1996": 6058,
      "Примечания": 6059,
      "According": 6060,
      "ident": 6061,
      "Гр": 6062,
      "##oyal": 6063,
      "Российской": 6064,
      "Аб": 6065,
      "называ": 6066,
      "##роме": 6067,
      "##овский": 6068,
      "##ектив": 6069,
      "Church": 6070,
      "mag": 6071,
      "prof": 6072,
      "английский": 6073,
      "площад": 6074,
      "дра": 6075,
      "крит": 6076,
      "##руш": 6077,
      "##ald": 6078,
      "государства": 6079,
      "##eth": 6080,
      "Ber": 6081,
      "##line": 6082,
      "##uted": 6083,
      "Фед": 6084,
      "##oks": 6085,
      "##нь": 6086,
      "Dav": 6087,
      "свой": 6088,
      "##вержд": 6089,
      "Her": 6090,
      "##лон": 6091,
      "Sy": 6092,
      "Соб": 6093,
      "##ination": 6094,
      "without": 6095,
      "When": 6096,
      "king": 6097,
      "position": 6098,
      "178": 6099,
      "sol": 6100,
      "академ": 6101,
      "##кс": 6102,
      "премьер": 6103,
      "politician": 6104,
      "##прият": 6105,
      "##лись": 6106,
      "связи": 6107,
      "##rote": 6108,
      "косм": 6109,
      "быв": 6110,
      "Jan": 6111,
      "отлич": 6112,
      "1994": 6113,
      "direct": 6114,
      "##озяй": 6115,
      "ге": 6116,
      "##ден": 6117,
      "##яс": 6118,
      "##aul": 6119,
      "проб": 6120,
      "Юж": 6121,
      "##вые": 6122,
      "образом": 6123,
      "художник": 6124,
      "##ril": 6125,
      "##шим": 6126,
      "однако": 6127,
      "During": 6128,
      "мол": 6129,
      "Bro": 6130,
      "##ops": 6131,
      "##apan": 6132,
      "Ju": 6133,
      "beg": 6134,
      "##ook": 6135,
      "##утств": 6136,
      "repl": 6137,
      "single": 6138,
      "Nov": 6139,
      "development": 6140,
      "себя": 6141,
      "вли": 6142,
      "##итай": 6143,
      "obs": 6144,
      "##ones": 6145,
      "##ipp": 6146,
      "##ороны": 6147,
      "body": 6148,
      "make": 6149,
      "##aining": 6150,
      "##град": 6151,
      "торг": 6152,
      "introdu": 6153,
      "1945": 6154,
      "элемент": 6155,
      "РС": 6156,
      "relig": 6157,
      "mean": 6158,
      "claim": 6159,
      "##ring": 6160,
      "##уэ": 6161,
      "ed": 6162,
      "Великоб": 6163,
      "##ype": 6164,
      "struct": 6165,
      "##ув": 6166,
      "bre": 6167,
      "##елев": 6168,
      "услов": 6169,
      "##hel": 6170,
      "простран": 6171,
      "feat": 6172,
      "##het": 6173,
      "took": 6174,
      "prim": 6175,
      "##ятся": 6176,
      "become": 6177,
      "Japan": 6178,
      "men": 6179,
      "##рок": 6180,
      "появ": 6181,
      "раб": 6182,
      "developed": 6183,
      "camp": 6184,
      "Alexander": 6185,
      "##оящ": 6186,
      "##первые": 6187,
      "премии": 6188,
      "##иев": 6189,
      "Jew": 6190,
      "states": 6191,
      "ат": 6192,
      "Основ": 6193,
      "побед": 6194,
      "ast": 6195,
      "exist": 6196,
      "##минист": 6197,
      "##иоз": 6198,
      "##оды": 6199,
      "Пл": 6200,
      "##akes": 6201,
      "постро": 6202,
      "язык": 6203,
      "activ": 6204,
      "late": 6205,
      "named": 6206,
      "usually": 6207,
      "ни": 6208,
      "пс": 6209,
      "Ne": 6210,
      "vol": 6211,
      "бер": 6212,
      "государственный": 6213,
      "лишь": 6214,
      "sty": 6215,
      "представля": 6216,
      "прош": 6217,
      "война": 6218,
      "##yth": 6219,
      "##равн": 6220,
      "##ray": 6221,
      "pract": 6222,
      "##ателей": 6223,
      "##циалист": 6224,
      "real": 6225,
      "архит": 6226,
      "few": 6227,
      "report": 6228,
      "included": 6229,
      "Med": 6230,
      "product": 6231,
      "One": 6232,
      "alb": 6233,
      "неб": 6234,
      "##augh": 6235,
      "wrote": 6236,
      "она": 6237,
      "Больш": 6238,
      "##lished": 6239,
      "West": 6240,
      "caus": 6241,
      "Зем": 6242,
      "##иях": 6243,
      "1970": 6244,
      "##ербург": 6245,
      "lim": 6246,
      "##ots": 6247,
      "1998": 6248,
      "arg": 6249,
      "##ention": 6250,
      "ide": 6251,
      "pain": 6252,
      "space": 6253,
      "дорог": 6254,
      "империи": 6255,
      "##орта": 6256,
      "соверш": 6257,
      "кв": 6258,
      "low": 6259,
      "##earch": 6260,
      "##юза": 6261,
      "##astern": 6262,
      "Великобрит": 6263,
      "Gu": 6264,
      "##ham": 6265,
      "##имир": 6266,
      "although": 6267,
      "##ourn": 6268,
      "##ivil": 6269,
      "кра": 6270,
      "##осток": 6271,
      "associ": 6272,
      "##stit": 6273,
      "выступ": 6274,
      "##ison": 6275,
      "1989": 6276,
      "region": 6277,
      "Fl": 6278,
      "погиб": 6279,
      "##ware": 6280,
      "Запад": 6281,
      "Pe": 6282,
      "##гла": 6283,
      "Sept": 6284,
      "олимп": 6285,
      "##aut": 6286,
      "##ests": 6287,
      "177": 6288,
      "##ography": 6289,
      "Geor": 6290,
      "mult": 6291,
      "##пос": 6292,
      "##орв": 6293,
      "2022": 6294,
      "необ": 6295,
      "городе": 6296,
      "Australian": 6297,
      "армии": 6298,
      "##ana": 6299,
      "##рих": 6300,
      "held": 6301,
      "##ances": 6302,
      "своей": 6303,
      "right": 6304,
      "##онт": 6305,
      "tele": 6306,
      "##aces": 6307,
      "пок": 6308,
      "local": 6309,
      "качестве": 6310,
      "cr": 6311,
      "hal": 6312,
      "third": 6313,
      "treat": 6314,
      "ради": 6315,
      "need": 6316,
      "назыв": 6317,
      "five": 6318,
      "just": 6319,
      "регион": 6320,
      "##uary": 6321,
      "view": 6322,
      "этой": 6323,
      "назнач": 6324,
      "##овые": 6325,
      "##ificant": 6326,
      "##сон": 6327,
      "##blem": 6328,
      "##нут": 6329,
      "##rag": 6330,
      "cell": 6331,
      "1995": 6332,
      "Black": 6333,
      "Budd": 6334,
      "филь": 6335,
      "1997": 6336,
      "##ruction": 6337,
      "практ": 6338,
      "1993": 6339,
      "son": 6340,
      "бог": 6341,
      "indust": 6342,
      "down": 6343,
      "Кан": 6344,
      "чтобы": 6345,
      "init": 6346,
      "##перат": 6347,
      "договор": 6348,
      "##rain": 6349,
      "established": 6350,
      "der": 6351,
      "sold": 6352,
      "вед": 6353,
      "стан": 6354,
      "этот": 6355,
      "##енное": 6356,
      "могут": 6357,
      "##ибир": 6358,
      "строитель": 6359,
      "##ferences": 6360,
      "##олг": 6361,
      "Националь": 6362,
      "кажд": 6363,
      "Ит": 6364,
      "Каз": 6365,
      "##iber": 6366,
      "proper": 6367,
      "dev": 6368,
      "way": 6369,
      "Ад": 6370,
      "##еров": 6371,
      "colle": 6372,
      "William": 6373,
      "rul": 6374,
      "##ота": 6375,
      "times": 6376,
      "До": 6377,
      "##анию": 6378,
      "philos": 6379,
      "Для": 6380,
      "мер": 6381,
      "##умент": 6382,
      "Oct": 6383,
      "control": 6384,
      "христиан": 6385,
      "партии": 6386,
      "##writ": 6387,
      "sugg": 6388,
      "political": 6389,
      "составляет": 6390,
      "England": 6391,
      "##уреат": 6392,
      "port": 6393,
      "множ": 6394,
      "##ential": 6395,
      "собой": 6396,
      "prev": 6397,
      "За": 6398,
      "##ическим": 6399,
      "##оев": 6400,
      "event": 6401,
      "труд": 6402,
      "##rad": 6403,
      "##ental": 6404,
      "публи": 6405,
      "##ФСР": 6406,
      "meth": 6407,
      "три": 6408,
      "опис": 6409,
      "redu": 6410,
      "##учен": 6411,
      "iss": 6412,
      "comple": 6413,
      "ряд": 6414,
      "преп": 6415,
      "Германии": 6416,
      "##нем": 6417,
      "however": 6418,
      "позв": 6419,
      "##ends": 6420,
      "Том": 6421,
      "band": 6422,
      "##acks": 6423,
      "Rep": 6424,
      "княз": 6425,
      "порт": 6426,
      "let": 6427,
      "##ферен": 6428,
      "Под": 6429,
      "significant": 6430,
      "##ях": 6431,
      "written": 6432,
      "grow": 6433,
      "##лор": 6434,
      "##служ": 6435,
      "invol": 6436,
      "стране": 6437,
      "Нар": 6438,
      "##ored": 6439,
      "##atural": 6440,
      "##рест": 6441,
      "проф": 6442,
      "Верх": 6443,
      "##осп": 6444,
      "актив": 6445,
      "Петербург": 6446,
      "призн": 6447,
      "works": 6448,
      "языка": 6449,
      "Su": 6450,
      "сим": 6451,
      "##alk": 6452,
      "##фф": 6453,
      "РСФСР": 6454,
      "##iation": 6455,
      "1918": 6456,
      "обыч": 6457,
      "International": 6458,
      "production": 6459,
      "##ope": 6460,
      "attem": 6461,
      "produced": 6462,
      "tit": 6463,
      "вмест": 6464,
      "##бург": 6465,
      "разработ": 6466,
      "light": 6467,
      "function": 6468,
      "лауреат": 6469,
      "case": 6470,
      "##енко": 6471,
      "##ling": 6472,
      "фин": 6473,
      "объедин": 6474,
      "пара": 6475,
      "##ched": 6476,
      "син": 6477,
      "##rated": 6478,
      "##inks": 6479,
      "##omb": 6480,
      "tot": 6481,
      "народный": 6482,
      "History": 6483,
      "Рим": 6484,
      "##чик": 6485,
      "вст": 6486,
      "##чёт": 6487,
      "журн": 6488,
      "одно": 6489,
      "Cal": 6490,
      "chang": 6491,
      "сценарист": 6492,
      "mater": 6493,
      "##ае": 6494,
      "##ализа": 6495,
      "original": 6496,
      "мин": 6497,
      "кар": 6498,
      "инд": 6499,
      "друго": 6500,
      "##ym": 6501,
      "##idence": 6502,
      "1960": 6503,
      "Buddh": 6504,
      "##etic": 6505,
      "##oon": 6506,
      "##thern": 6507,
      "войска": 6508,
      "шт": 6509,
      "##ency": 6510,
      "##ude": 6511,
      "command": 6512,
      "##лении": 6513,
      "built": 6514,
      "##ka": 6515,
      "##шее": 6516,
      "top": 6517,
      "##ler": 6518,
      "либо": 6519,
      "Ле": 6520,
      "six": 6521,
      "Лу": 6522,
      "##еред": 6523,
      "manag": 6524,
      "educ": 6525,
      "September": 6526,
      "##мун": 6527,
      "##рий": 6528,
      "##ria": 6529,
      "##hern": 6530,
      "##ogn": 6531,
      "She": 6532,
      "би": 6533,
      "большин": 6534,
      "скор": 6535,
      "el": 6536,
      "доп": 6537,
      "##ead": 6538,
      "певица": 6539,
      "having": 6540,
      "выд": 6541,
      "##ama": 6542,
      "##ote": 6543,
      "##нолог": 6544,
      "60": 6545,
      "##инов": 6546,
      "##ику": 6547,
      "Union": 6548,
      "##ivid": 6549,
      "season": 6550,
      "правительство": 6551,
      "следующ": 6552,
      "every": 6553,
      "En": 6554,
      "turn": 6555,
      "если": 6556,
      "April": 6557,
      "separ": 6558,
      "##aken": 6559,
      "Втор": 6560,
      "дер": 6561,
      "Вас": 6562,
      "##hib": 6563,
      "Миха": 6564,
      "##ходим": 6565,
      "Atl": 6566,
      "Lond": 6567,
      "##acy": 6568,
      "Act": 6569,
      "ко": 6570,
      "##ких": 6571,
      "IV": 6572,
      "##отя": 6573,
      "##ология": 6574,
      "##ips": 6575,
      "##ari": 6576,
      "##ести": 6577,
      "del": 6578,
      "##cul": 6579,
      "трёх": 6580,
      "mass": 6581,
      "губ": 6582,
      "London": 6583,
      "object": 6584,
      "##inning": 6585,
      "north": 6586,
      "##ability": 6587,
      "does": 6588,
      "Пар": 6589,
      "##ino": 6590,
      "##cil": 6591,
      "prom": 6592,
      "##anish": 6593,
      "Цент": 6594,
      "##ways": 6595,
      "##formation": 6596,
      "широк": 6597,
      "sw": 6598,
      "##оре": 6599,
      "countries": 6600,
      "Между": 6601,
      "текст": 6602,
      "##vision": 6603,
      "важ": 6604,
      "##rid": 6605,
      "##астро": 6606,
      "теч": 6607,
      "##анский": 6608,
      "Har": 6609,
      "укра": 6610,
      "##лена": 6611,
      "##ges": 6612,
      "##que": 6613,
      "##mber": 6614,
      "##outhern": 6615,
      "##овали": 6616,
      "ры": 6617,
      "##irth": 6618,
      "сот": 6619,
      "##sequ": 6620,
      "территор": 6621,
      "##алии": 6622,
      "Sec": 6623,
      "##леж": 6624,
      "strong": 6625,
      "decl": 6626,
      "осуществ": 6627,
      "##ertain": 6628,
      "dest": 6629,
      "##ума": 6630,
      "##rap": 6631,
      "##orthern": 6632,
      "настоящ": 6633,
      "впервые": 6634,
      "##ublic": 6635,
      "вступ": 6636,
      "треб": 6637,
      "##це": 6638,
      "##альная": 6639,
      "польз": 6640,
      "##ропей": 6641,
      "##ио": 6642,
      "32": 6643,
      "возник": 6644,
      "##side": 6645,
      "Ге": 6646,
      "appear": 6647,
      "problem": 6648,
      "##лу": 6649,
      "America": 6650,
      "##люд": 6651,
      "groups": 6652,
      "Литерат": 6653,
      "##атр": 6654,
      "ord": 6655,
      "##еспеч": 6656,
      "свое": 6657,
      "Пол": 6658,
      "##еть": 6659,
      "температ": 6660,
      "##osition": 6661,
      "independ": 6662,
      "should": 6663,
      "указ": 6664,
      "##рукт": 6665,
      "released": 6666,
      "##bit": 6667,
      "##hers": 6668,
      "социаль": 6669,
      "##ger": 6670,
      "##rican": 6671,
      "деп": 6672,
      "June": 6673,
      "systems": 6674,
      "цел": 6675,
      "##чин": 6676,
      "January": 6677,
      "##рам": 6678,
      "##osp": 6679,
      "##overed": 6680,
      "##face": 6681,
      "##алог": 6682,
      "David": 6683,
      "тур": 6684,
      "стали": 6685,
      "Государствен": 6686,
      "##abor": 6687,
      "нес": 6688,
      "Серг": 6689,
      "help": 6690,
      "сторон": 6691,
      "observ": 6692,
      "##ober": 6693,
      "##ean": 6694,
      "1988": 6695,
      "автом": 6696,
      "ep": 6697,
      "References": 6698,
      "##заим": 6699,
      "перевод": 6700,
      "Gr": 6701,
      "##ani": 6702,
      "##ело": 6703,
      "ro": 6704,
      "##ning": 6705,
      "##ara": 6706,
      "##озгла": 6707,
      "свою": 6708,
      "маг": 6709,
      "сек": 6710,
      "##ями": 6711,
      "крупней": 6712,
      "material": 6713,
      "July": 6714,
      "range": 6715,
      "sent": 6716,
      "See": 6717,
      "##rael": 6718,
      "##hest": 6719,
      "среди": 6720,
      "study": 6721,
      "теор": 6722,
      "произвед": 6723,
      "came": 6724,
      "We": 6725,
      "отношения": 6726,
      "languages": 6727,
      "Крас": 6728,
      "##oms": 6729,
      "кур": 6730,
      "Кол": 6731,
      "##енс": 6732,
      "Pres": 6733,
      "take": 6734,
      "инт": 6735,
      "начале": 6736,
      "March": 6737,
      "футболист": 6738,
      "слож": 6739,
      "##алов": 6740,
      "African": 6741,
      "described": 6742,
      "##ividual": 6743,
      "Япон": 6744,
      "муз": 6745,
      "##лся": 6746,
      "##itive": 6747,
      "Чер": 6748,
      "Dece": 6749,
      "total": 6750,
      "##ape": 6751,
      "##шение": 6752,
      "others": 6753,
      "##iction": 6754,
      "Владимир": 6755,
      "October": 6756,
      "em": 6757,
      "1979": 6758,
      "Lat": 6759,
      "##мин": 6760,
      "December": 6761,
      "##cing": 6762,
      "##алы": 6763,
      "##кви": 6764,
      "влиян": 6765,
      "аб": 6766,
      "возду": 6767,
      "1986": 6768,
      "attack": 6769,
      "played": 6770,
      "Phil": 6771,
      "either": 6772,
      "##рев": 6773,
      "links": 6774,
      "##ерации": 6775,
      "##раст": 6776,
      "##итут": 6777,
      "##режд": 6778,
      "1920": 6779,
      "##ехан": 6780,
      "album": 6781,
      "юж": 6782,
      "##ейн": 6783,
      "##ыва": 6784,
      "##app": 6785,
      "1941": 6786,
      "достиг": 6787,
      "With": 6788,
      "Бор": 6789,
      "кам": 6790,
      "##итов": 6791,
      "beh": 6792,
      "Empire": 6793,
      "City": 6794,
      "одной": 6795,
      "матери": 6796,
      "theory": 6797,
      "обеспеч": 6798,
      "##остав": 6799,
      "women": 6800,
      "##анс": 6801,
      "##avy": 6802,
      "кинореж": 6803,
      "ред": 6804,
      "aircraft": 6805,
      "Russian": 6806,
      "Day": 6807,
      "south": 6808,
      "ави": 6809,
      "##ющих": 6810,
      "Пред": 6811,
      "сель": 6812,
      "наиболее": 6813,
      "##итета": 6814,
      "##матрив": 6815,
      "говор": 6816,
      "отс": 6817,
      "##шиеся": 6818,
      "пед": 6819,
      "##ститут": 6820,
      "##отив": 6821,
      "ней": 6822,
      "соп": 6823,
      "##гор": 6824,
      "1984": 6825,
      "король": 6826,
      "##ирования": 6827,
      "режиссёр": 6828,
      "столи": 6829,
      "##ected": 6830,
      "##rict": 6831,
      "post": 6832,
      "##лы": 6833,
      "пример": 6834,
      "##ification": 6835,
      "##дов": 6836,
      "##eum": 6837,
      "##ители": 6838,
      "изуч": 6839,
      "провод": 6840,
      "цар": 6841,
      "condition": 6842,
      "Ben": 6843,
      "enc": 6844,
      "areas": 6845,
      "version": 6846,
      "транспорт": 6847,
      "##нич": 6848,
      "##готов": 6849,
      "80": 6850,
      "died": 6851,
      "##ffic": 6852,
      "sometimes": 6853,
      "1972": 6854,
      "кинорежиссёр": 6855,
      "IS": 6856,
      "method": 6857,
      "relations": 6858,
      "Также": 6859,
      "style": 6860,
      "role": 6861,
      "оцен": 6862,
      "##ьют": 6863,
      "российская": 6864,
      "стала": 6865,
      "1969": 6866,
      "transl": 6867,
      "программ": 6868,
      "утвержд": 6869,
      "соч": 6870,
      "##ратив": 6871,
      "curr": 6872,
      "##ering": 6873,
      "Part": 6874,
      "##ереж": 6875,
      "town": 6876,
      "зар": 6877,
      "мн": 6878,
      "силь": 6879,
      "##most": 6880,
      "##орус": 6881,
      "приб": 6882,
      "ball": 6883,
      "East": 6884,
      "Пав": 6885,
      "Sov": 6886,
      "Европы": 6887,
      "происх": 6888,
      "type": 6889,
      "отдель": 6890,
      "##cent": 6891,
      "сообщ": 6892,
      "итальянский": 6893,
      "##imate": 6894,
      "необходим": 6895,
      "Эт": 6896,
      "##нд": 6897,
      "зах": 6898,
      "176": 6899,
      "Port": 6900,
      "##AS": 6901,
      "##сыл": 6902,
      "Soviet": 6903,
      "пись": 6904,
      "age": 6905,
      "значитель": 6906,
      "##ованием": 6907,
      "free": 6908,
      "1987": 6909,
      "королев": 6910,
      "свят": 6911,
      "произош": 6912,
      "side": 6913,
      "фот": 6914,
      "star": 6915,
      "##истов": 6916,
      "губерн": 6917,
      "дип": 6918,
      "cir": 6919,
      "wid": 6920,
      "##олёт": 6921,
      "##umb": 6922,
      "Николай": 6923,
      "1981": 6924,
      "источ": 6925,
      "Вик": 6926,
      "##int": 6927,
      "##ань": 6928,
      "##lam": 6929,
      "laun": 6930,
      "Des": 6931,
      "Республики": 6932,
      "Tur": 6933,
      "won": 6934,
      "##ству": 6935,
      "##казыв": 6936,
      "союз": 6937,
      "1975": 6938,
      "France": 6939,
      "##pecially": 6940,
      "##co": 6941,
      "company": 6942,
      "министр": 6943,
      "сы": 6944,
      "##eh": 6945,
      "правительства": 6946,
      "През": 6947,
      "##ek": 6948,
      "##енным": 6949,
      "service": 6950,
      "November": 6951,
      "Cath": 6952,
      "##ma": 6953,
      "individual": 6954,
      "проблем": 6955,
      "псих": 6956,
      "низ": 6957,
      "month": 6958,
      "админист": 6959,
      "business": 6960,
      "##ками": 6961,
      "1976": 6962,
      "text": 6963,
      "half": 6964,
      "Although": 6965,
      "##ending": 6966,
      "менее": 6967,
      "Мак": 6968,
      "1968": 6969,
      "1940": 6970,
      "торгов": 6971,
      "##инской": 6972,
      "##ида": 6973,
      "pred": 6974,
      "1917": 6975,
      "battle": 6976,
      "1944": 6977,
      "singer": 6978,
      "рабоч": 6979,
      "bar": 6980,
      "вол": 6981,
      "##авший": 6982,
      "этих": 6983,
      "работы": 6984,
      "Восточ": 6985,
      "##уки": 6986,
      "колон": 6987,
      "веке": 6988,
      "Cor": 6989,
      "##нос": 6990,
      "1985": 6991,
      "##gypt": 6992,
      "territ": 6993,
      "##uth": 6994,
      "##гип": 6995,
      "##ником": 6996,
      "games": 6997,
      "##BC": 6998,
      "##icro": 6999,
      "провозгла": 7000,
      "cal": 7001,
      "care": 7002,
      "взаим": 7003,
      "Egypt": 7004,
      "##енном": 7005,
      "##ностей": 7006,
      "##иться": 7007,
      "имя": 7008,
      "meas": 7009,
      "##ille": 7010,
      "especially": 7011,
      "объект": 7012,
      "##лам": 7013,
      "##агог": 7014,
      "Литература": 7015,
      "Soc": 7016,
      "##есть": 7017,
      "##iddle": 7018,
      "Arch": 7019,
      "даже": 7020,
      "лес": 7021,
      "двор": 7022,
      "Арм": 7023,
      "##ратный": 7024,
      "##ацион": 7025,
      "1967": 7026,
      "1930": 7027,
      "милли": 7028,
      "1973": 7029,
      "женщ": 7030,
      "Per": 7031,
      "ge": 7032,
      "##кан": 7033,
      "прест": 7034,
      "El": 7035,
      "восточ": 7036,
      "##прин": 7037,
      "Джон": 7038,
      "##ront": 7039,
      "##ада": 7040,
      "1974": 7041,
      "тради": 7042,
      "начала": 7043,
      "начало": 7044,
      "##ице": 7045,
      "##ющие": 7046,
      "##incip": 7047,
      "further": 7048,
      "mot": 7049,
      "must": 7050,
      "35": 7051,
      "##ades": 7052,
      "яв": 7053,
      "forces": 7054,
      "1982": 7055,
      "nov": 7056,
      "уг": 7057,
      "1983": 7058,
      "остав": 7059,
      "граф": 7060,
      "Indian": 7061,
      "capital": 7062,
      "внутрен": 7063,
      "##work": 7064,
      "##ournal": 7065,
      "tw": 7066,
      "##here": 7067,
      "виде": 7068,
      "sum": 7069,
      "##ps": 7070,
      "##ising": 7071,
      "диплом": 7072,
      "##writer": 7073,
      "##еся": 7074,
      "моря": 7075,
      "coun": 7076,
      "конф": 7077,
      "abs": 7078,
      "Раз": 7079,
      "Те": 7080,
      "##мит": 7081,
      "##инам": 7082,
      "##omp": 7083,
      "препод": 7084,
      "исполн": 7085,
      "напис": 7086,
      "actor": 7087,
      "##ergy": 7088,
      "котором": 7089,
      "хозяй": 7090,
      "##нес": 7091,
      "своего": 7092,
      "##uel": 7093,
      "1964": 7094,
      "official": 7095,
      "engine": 7096,
      "500": 7097,
      "70": 7098,
      "Co": 7099,
      "##ining": 7100,
      "##ическую": 7101,
      "находится": 7102,
      "pot": 7103,
      "прост": 7104,
      "##лаго": 7105,
      "External": 7106,
      "Hol": 7107,
      "округ": 7108,
      "##enced": 7109,
      "1971": 7110,
      "Az": 7111,
      "предлож": 7112,
      "Москве": 7113,
      "механ": 7114,
      "##рач": 7115,
      "ОО": 7116,
      "четы": 7117,
      "ke": 7118,
      "created": 7119,
      "##ydro": 7120,
      "педагог": 7121,
      "введ": 7122,
      "##itect": 7123,
      "father": 7124,
      "ancient": 7125,
      "##ached": 7126,
      "While": 7127,
      "станов": 7128,
      "Тур": 7129,
      "Ра": 7130,
      "et": 7131,
      "final": 7132,
      "making": 7133,
      "compet": 7134,
      "##стьян": 7135,
      "##ябрь": 7136,
      "list": 7137,
      "mer": 7138,
      "##реп": 7139,
      "оке": 7140,
      "президента": 7141,
      "Верхов": 7142,
      "защ": 7143,
      "проект": 7144,
      "least": 7145,
      "Atlant": 7146,
      "°C": 7147,
      "enter": 7148,
      "Pers": 7149,
      "оз": 7150,
      "##val": 7151,
      "arr": 7152,
      "Совета": 7153,
      "Earth": 7154,
      "1977": 7155,
      "языке": 7156,
      "Гор": 7157,
      "закон": 7158,
      "##ique": 7159,
      "Sm": 7160,
      "фон": 7161,
      "##омет": 7162,
      "оконч": 7163,
      "League": 7164,
      "движения": 7165,
      "верс": 7166,
      "social": 7167,
      "##asing": 7168,
      "##уса": 7169,
      "international": 7170,
      "##ounced": 7171,
      "Про": 7172,
      "Международ": 7173,
      "host": 7174,
      "миф": 7175,
      "##istan": 7176,
      "##ief": 7177,
      "black": 7178,
      "Pal": 7179,
      "##less": 7180,
      "##ович": 7181,
      "раст": 7182,
      "острова": 7183,
      "##used": 7184,
      "received": 7185,
      "ему": 7186,
      "##лением": 7187,
      "##пад": 7188,
      "##fic": 7189,
      "liter": 7190,
      "natural": 7191,
      "1978": 7192,
      "previous": 7193,
      "di": 7194,
      "Ген": 7195,
      "cle": 7196,
      "##иции": 7197,
      "##mon": 7198,
      "##iles": 7199,
      "показ": 7200,
      "степ": 7201,
      "related": 7202,
      "capt": 7203,
      "generally": 7204,
      "демократ": 7205,
      "pri": 7206,
      "##стан": 7207,
      "##oid": 7208,
      "соедин": 7209,
      "лег": 7210,
      "##bo": 7211,
      "##меч": 7212,
      "своих": 7213,
      "Польш": 7214,
      "##gar": 7215,
      "##шир": 7216,
      "исключ": 7217,
      "религиоз": 7218,
      "##омент": 7219,
      "метод": 7220,
      "дерев": 7221,
      "##ёз": 7222,
      "Res": 7223,
      "rather": 7224,
      "драмат": 7225,
      "data": 7226,
      "берег": 7227,
      "Germany": 7228,
      "Бог": 7229,
      "##ming": 7230,
      "##ibr": 7231,
      "Great": 7232,
      "##обелев": 7233,
      "##ённый": 7234,
      "##tt": 7235,
      "tri": 7236,
      "##ледств": 7237,
      "сто": 7238,
      "1939": 7239,
      "провед": 7240,
      "special": 7241,
      "второй": 7242,
      "зая": 7243,
      "ром": 7244,
      "трет": 7245,
      "possible": 7246,
      "##нок": 7247,
      "##bor": 7248,
      "##ню": 7249,
      "иност": 7250,
      "информа": 7251,
      "Бар": 7252,
      "полов": 7253,
      "##ators": 7254,
      "continued": 7255,
      "момент": 7256,
      "##rick": 7257,
      "церков": 7258,
      "##юр": 7259,
      "##self": 7260,
      "принцип": 7261,
      "##дач": 7262,
      "36": 7263,
      "##uf": 7264,
      "##город": 7265,
      "##otes": 7266,
      "1966": 7267,
      "ходе": 7268,
      "дух": 7269,
      "##ality": 7270,
      "Albert": 7271,
      "test": 7272,
      "оказ": 7273,
      "будет": 7274,
      "chem": 7275,
      "##алт": 7276,
      "pur": 7277,
      "##енг": 7278,
      "how": 7279,
      "атом": 7280,
      "конститу": 7281,
      "1962": 7282,
      "професс": 7283,
      "food": 7284,
      "net": 7285,
      "##ef": 7286,
      "Mc": 7287,
      "лич": 7288,
      "footballer": 7289,
      "борь": 7290,
      "велик": 7291,
      "имеют": 7292,
      "внеш": 7293,
      "маш": 7294,
      "пят": 7295,
      "Mon": 7296,
      "##loy": 7297,
      "##ux": 7298,
      "##уру": 7299,
      "ang": 7300,
      "##aves": 7301,
      "##bers": 7302,
      "##атели": 7303,
      "General": 7304,
      "Союза": 7305,
      "конце": 7306,
      "good": 7307,
      "Согласно": 7308,
      "attempt": 7309,
      "##яли": 7310,
      "##ивший": 7311,
      "Не": 7312,
      "вход": 7313,
      "temper": 7314,
      "встреч": 7315,
      "To": 7316,
      "нев": 7317,
      "сос": 7318,
      "умер": 7319,
      "золот": 7320,
      "priv": 7321,
      "##ney": 7322,
      "##iol": 7323,
      "1965": 7324,
      "next": 7325,
      "##ола": 7326,
      "defe": 7327,
      "hold": 7328,
      "Виль": 7329,
      "крас": 7330,
      "##кин": 7331,
      "project": 7332,
      "почти": 7333,
      "частности": 7334,
      "##арат": 7335,
      "которое": 7336,
      "schol": 7337,
      "огранич": 7338,
      "##icle": 7339,
      "##raw": 7340,
      "ox": 7341,
      "##ify": 7342,
      "контр": 7343,
      "пасс": 7344,
      "##ensive": 7345,
      "культур": 7346,
      "слав": 7347,
      "##ающих": 7348,
      "час": 7349,
      "Italian": 7350,
      "Paul": 7351,
      "голос": 7352,
      "children": 7353,
      "Press": 7354,
      "express": 7355,
      "дипломат": 7356,
      "##альное": 7357,
      "##ющий": 7358,
      "неф": 7359,
      "теории": 7360,
      "##ements": 7361,
      "##реческ": 7362,
      "выход": 7363,
      "##ption": 7364,
      "1942": 7365,
      "##рес": 7366,
      "система": 7367,
      "young": 7368,
      "1950": 7369,
      "Kingdom": 7370,
      "himself": 7371,
      "Украины": 7372,
      "район": 7373,
      "певец": 7374,
      "##лек": 7375,
      "начал": 7376,
      "##rica": 7377,
      "formed": 7378,
      "recogn": 7379,
      "историк": 7380,
      "##юсер": 7381,
      "plan": 7382,
      "1943": 7383,
      "avail": 7384,
      "##стант": 7385,
      "имени": 7386,
      "acid": 7387,
      "лидер": 7388,
      "увелич": 7389,
      "развития": 7390,
      "Вы": 7391,
      "мировой": 7392,
      "Canadian": 7393,
      "швед": 7394,
      "20th": 7395,
      "аль": 7396,
      "##ours": 7397,
      "всё": 7398,
      "##кий": 7399,
      "##ётся": 7400,
      "fail": 7401,
      "broad": 7402,
      "количество": 7403,
      "##vir": 7404,
      "1919": 7405,
      "forms": 7406,
      "aver": 7407,
      "##eration": 7408,
      "##utch": 7409,
      "prob": 7410,
      "свящ": 7411,
      "Latin": 7412,
      "##лан": 7413,
      "party": 7414,
      "обяз": 7415,
      "##day": 7416,
      "Mor": 7417,
      "кап": 7418,
      "суб": 7419,
      "never": 7420,
      "model": 7421,
      "литератур": 7422,
      "days": 7423,
      "прек": 7424,
      "постоян": 7425,
      "университет": 7426,
      "История": 7427,
      "Many": 7428,
      "Western": 7429,
      "Ка": 7430,
      "баз": 7431,
      "scient": 7432,
      "Им": 7433,
      "##нит": 7434,
      "##окс": 7435,
      "долл": 7436,
      "бит": 7437,
      "Apple": 7438,
      "Кир": 7439,
      "##zil": 7440,
      "структ": 7441,
      "army": 7442,
      "Most": 7443,
      "##utions": 7444,
      "1963": 7445,
      "первая": 7446,
      "##ford": 7447,
      "ill": 7448,
      "мал": 7449,
      "роль": 7450,
      "##mit": 7451,
      "1961": 7452,
      "очень": 7453,
      "европей": 7454,
      "parts": 7455,
      "электр": 7456,
      "Мор": 7457,
      "Army": 7458,
      "cy": 7459,
      "press": 7460,
      "##гент": 7461,
      "##ственно": 7462,
      "##шения": 7463,
      "##лено": 7464,
      "Sea": 7465,
      "Глав": 7466,
      "реч": 7467,
      "поли": 7468,
      "стороны": 7469,
      "церкви": 7470,
      "birth": 7471,
      "благ": 7472,
      "кис": 7473,
      "Africa": 7474,
      "##дорож": 7475,
      "lower": 7476,
      "дир": 7477,
      "прев": 7478,
      "События": 7479,
      "Дон": 7480,
      "##атер": 7481,
      "##олд": 7482,
      "##аксим": 7483,
      "150": 7484,
      "Tr": 7485,
      "фед": 7486,
      "хор": 7487,
      "##bs": 7488,
      "##aries": 7489,
      "партия": 7490,
      "Ла": 7491,
      "муж": 7492,
      "первой": 7493,
      "часто": 7494,
      "Book": 7495,
      "ce": 7496,
      "Эр": 7497,
      "##ивает": 7498,
      "1938": 7499,
      "возв": 7500,
      "##бе": 7501,
      "##inary": 7502,
      "##лений": 7503,
      "основном": 7504,
      "симв": 7505,
      "зн": 7506,
      "##овая": 7507,
      "##chan": 7508,
      "If": 7509,
      "house": 7510,
      "##imately": 7511,
      "собран": 7512,
      "главе": 7513,
      "33": 7514,
      "Ser": 7515,
      "данным": 7516,
      "Brazil": 7517,
      "наук": 7518,
      "prote": 7519,
      "Battle": 7520,
      "свет": 7521,
      "##нодорож": 7522,
      "##анием": 7523,
      "fig": 7524,
      "яд": 7525,
      "##ingu": 7526,
      "regard": 7527,
      "##minist": 7528,
      "##нер": 7529,
      "##уа": 7530,
      "стол": 7531,
      "seen": 7532,
      "##идерланд": 7533,
      "понят": 7534,
      "300": 7535,
      "Мон": 7536,
      "##цист": 7537,
      "##ounds": 7538,
      "Нобелев": 7539,
      "празд": 7540,
      "1947": 7541,
      "##орот": 7542,
      "academ": 7543,
      "Ам": 7544,
      "impro": 7545,
      "founded": 7546,
      "computer": 7547,
      "популяр": 7548,
      "certain": 7549,
      "mem": 7550,
      "проп": 7551,
      "market": 7552,
      "best": 7553,
      "##иля": 7554,
      "##анк": 7555,
      "Иванов": 7556,
      "Bu": 7557,
      "##ийского": 7558,
      "Catholic": 7559,
      "fire": 7560,
      "##omm": 7561,
      "переход": 7562,
      "затем": 7563,
      "princip": 7564,
      "fem": 7565,
      "god": 7566,
      "##писк": 7567,
      "случае": 7568,
      "consist": 7569,
      "Город": 7570,
      "1946": 7571,
      "standard": 7572,
      "рим": 7573,
      "story": 7574,
      "выш": 7575,
      "число": 7576,
      "President": 7577,
      "эта": 7578,
      "##ucle": 7579,
      "##pts": 7580,
      "offer": 7581,
      "##адлеж": 7582,
      "##berg": 7583,
      "начин": 7584,
      "accept": 7585,
      "меся": 7586,
      "##датель": 7587,
      "Scott": 7588,
      "хотя": 7589,
      "##ске": 7590,
      "den": 7591,
      "##иной": 7592,
      "##10": 7593,
      "стать": 7594,
      "него": 7595,
      "избран": 7596,
      "astron": 7597,
      "Feb": 7598,
      "дав": 7599,
      "##ге": 7600,
      "##put": 7601,
      "##sc": 7602,
      "##leg": 7603,
      "##ads": 7604,
      "Australia": 7605,
      "##изации": 7606,
      "subject": 7607,
      "super": 7608,
      "вооруж": 7609,
      "Count": 7610,
      "lik": 7611,
      "1900": 7612,
      "учрежд": 7613,
      "Rev": 7614,
      "Иван": 7615,
      "##pite": 7616,
      "##ush": 7617,
      "согла": 7618,
      "Israel": 7619,
      "India": 7620,
      "наблюд": 7621,
      "##тон": 7622,
      "##ceed": 7623,
      "almost": 7624,
      "дела": 7625,
      "followed": 7626,
      "thus": 7627,
      "Михаил": 7628,
      "AD": 7629,
      "175": 7630,
      "##виж": 7631,
      "##lement": 7632,
      "сбор": 7633,
      "##орд": 7634,
      "депут": 7635,
      "Амер": 7636,
      "170": 7637,
      "above": 7638,
      "win": 7639,
      "##олов": 7640,
      "##рд": 7641,
      "research": 7642,
      "indic": 7643,
      "прик": 7644,
      "отмеч": 7645,
      "sex": 7646,
      "##ume": 7647,
      "Bul": 7648,
      "ground": 7649,
      "1937": 7650,
      "frequ": 7651,
      "Великобритании": 7652,
      "власть": 7653,
      "##рыв": 7654,
      "##пископ": 7655,
      "Май": 7656,
      "##ическом": 7657,
      "profess": 7658,
      "Hen": 7659,
      "miss": 7660,
      "AC": 7661,
      "##sp": 7662,
      "##reg": 7663,
      "electron": 7664,
      "##ex": 7665,
      "##itch": 7666,
      "председ": 7667,
      "State": 7668,
      "Россия": 7669,
      "##оан": 7670,
      "прих": 7671,
      "means": 7672,
      "hard": 7673,
      "1922": 7674,
      "energy": 7675,
      "higher": 7676,
      "reported": 7677,
      "37": 7678,
      "dou": 7679,
      "принадлеж": 7680,
      "Athen": 7681,
      "List": 7682,
      "мыс": 7683,
      "##arily": 7684,
      "##арии": 7685,
      "Dutch": 7686,
      "обоз": 7687,
      "Карл": 7688,
      "eth": 7689,
      "##lo": 7690,
      "##ового": 7691,
      "deb": 7692,
      "numbers": 7693,
      "45": 7694,
      "Санкт": 7695,
      "meaning": 7696,
      "La": 7697,
      "Зак": 7698,
      "##опас": 7699,
      "людей": 7700,
      "##сылки": 7701,
      "hydro": 7702,
      "mathem": 7703,
      "taken": 7704,
      "##ults": 7705,
      "##ту": 7706,
      "##ечат": 7707,
      "заверш": 7708,
      "member": 7709,
      "восток": 7710,
      "дат": 7711,
      "##na": 7712,
      "одним": 7713,
      "according": 7714,
      "плат": 7715,
      "far": 7716,
      "##инского": 7717,
      "основе": 7718,
      "throughout": 7719,
      "##страли": 7720,
      "специаль": 7721,
      "Народ": 7722,
      "реки": 7723,
      "##ха": 7724,
      "##ington": 7725,
      "##ulf": 7726,
      "документ": 7727,
      "Febru": 7728,
      "Но": 7729,
      "##ste": 7730,
      "House": 7731,
      "across": 7732,
      "successful": 7733,
      "Централь": 7734,
      "complex": 7735,
      "силы": 7736,
      "позволя": 7737,
      "trib": 7738,
      "крестьян": 7739,
      "##viron": 7740,
      "February": 7741,
      "Афр": 7742,
      "##берг": 7743,
      "кли": 7744,
      "172": 7745,
      "34": 7746,
      "Bur": 7747,
      "Gl": 7748,
      "ник": 7749,
      "су": 7750,
      "##itude": 7751,
      "раздел": 7752,
      "##ады": 7753,
      "Kh": 7754,
      "##aign": 7755,
      "##ali": 7756,
      "государств": 7757,
      "креп": 7758,
      "называем": 7759,
      "##ych": 7760,
      "1958": 7761,
      "evidence": 7762,
      "Spanish": 7763,
      "##уются": 7764,
      "##icy": 7765,
      "full": 7766,
      "lo": 7767,
      "##ниц": 7768,
      "##сколь": 7769,
      "Cont": 7770,
      "available": 7771,
      "fac": 7772,
      "Пам": 7773,
      "усп": 7774,
      "конк": 7775,
      "terms": 7776,
      "Trans": 7777,
      "television": 7778,
      "##ophy": 7779,
      "олимпийский": 7780,
      "architect": 7781,
      "##of": 7782,
      "политик": 7783,
      "president": 7784,
      "vict": 7785,
      "приг": 7786,
      "1956": 7787,
      "##iers": 7788,
      "upon": 7789,
      "##строном": 7790,
      "Mod": 7791,
      "Since": 7792,
      "Свят": 7793,
      "иностран": 7794,
      "##ta": 7795,
      "##анные": 7796,
      "прям": 7797,
      "ответ": 7798,
      "##ивается": 7799,
      "force": 7800,
      "introduced": 7801,
      "From": 7802,
      "Гра": 7803,
      "##itz": 7804,
      "стр": 7805,
      "настоящее": 7806,
      "бук": 7807,
      "##шт": 7808,
      "Ленин": 7809,
      "key": 7810,
      "Вал": 7811,
      "близ": 7812,
      "agre": 7813,
      "neg": 7814,
      "multip": 7815,
      "##емир": 7816,
      "нет": 7817,
      "##icles": 7818,
      "##ems": 7819,
      "toget": 7820,
      "becom": 7821,
      "пассаж": 7822,
      "together": 7823,
      "tre": 7824,
      "##оров": 7825,
      "##иты": 7826,
      "непр": 7827,
      "Reg": 7828,
      "entire": 7829,
      "soft": 7830,
      "##asc": 7831,
      "некоторых": 7832,
      "Park": 7833,
      "море": 7834,
      "Констант": 7835,
      "лат": 7836,
      "##явля": 7837,
      "##уда": 7838,
      "thought": 7839,
      "журналист": 7840,
      "##uments": 7841,
      "1948": 7842,
      "size": 7843,
      "Воз": 7844,
      "##ateg": 7845,
      "##ought": 7846,
      "воды": 7847,
      "позд": 7848,
      "books": 7849,
      "join": 7850,
      "poin": 7851,
      "##ийская": 7852,
      "players": 7853,
      "языков": 7854,
      "19th": 7855,
      "Кроме": 7856,
      "white": 7857,
      "colon": 7858,
      "##наруж": 7859,
      "George": 7860,
      "occur": 7861,
      "сформ": 7862,
      "##вид": 7863,
      "##order": 7864,
      "ООН": 7865,
      "##аточ": 7866,
      "##еление": 7867,
      "Afgh": 7868,
      "court": 7869,
      "my": 7870,
      "Солн": 7871,
      "##ston": 7872,
      "##аков": 7873,
      "elements": 7874,
      "located": 7875,
      "ве": 7876,
      "conn": 7877,
      "##unic": 7878,
      "except": 7879,
      "кораб": 7880,
      "##bon": 7881,
      "Qu": 7882,
      "Rich": 7883,
      "Vol": 7884,
      "90": 7885,
      "луч": 7886,
      "поля": 7887,
      "change": 7888,
      "##виг": 7889,
      "##aint": 7890,
      "designed": 7891,
      "imm": 7892,
      "очеред": 7893,
      "value": 7894,
      "эти": 7895,
      "1925": 7896,
      "38": 7897,
      "James": 7898,
      "руб": 7899,
      "##оза": 7900,
      "174": 7901,
      "constit": 7902,
      "culture": 7903,
      "япон": 7904,
      "##иблиот": 7905,
      "живопис": 7906,
      "энерг": 7907,
      "вет": 7908,
      "central": 7909,
      "tar": 7910,
      "##вей": 7911,
      "##ившиеся": 7912,
      "1929": 7913,
      "employ": 7914,
      "mid": 7915,
      "##roy": 7916,
      "отказ": 7917,
      "1957": 7918,
      "economic": 7919,
      "lost": 7920,
      "констру": 7921,
      "эпох": 7922,
      "драматург": 7923,
      "размер": 7924,
      "contrib": 7925,
      "displ": 7926,
      "fri": 7927,
      "##лоп": 7928,
      "##цами": 7929,
      "военный": 7930,
      "##яется": 7931,
      "##лекс": 7932,
      "продюсер": 7933,
      "даль": 7934,
      "##овый": 7935,
      "cop": 7936,
      "civil": 7937,
      "ид": 7938,
      "instead": 7939,
      "Japanese": 7940,
      "##оволь": 7941,
      "mother": 7942,
      "рост": 7943,
      "##цик": 7944,
      "Англи": 7945,
      "adop": 7946,
      "##ография": 7947,
      "religious": 7948,
      "аэ": 7949,
      "##atively": 7950,
      "average": 7951,
      "Вол": 7952,
      "уз": 7953,
      "восстанов": 7954,
      "заяв": 7955,
      "##скольку": 7956,
      "Dem": 7957,
      "Ste": 7958,
      "институт": 7959,
      "mount": 7960,
      "univers": 7961,
      "##оса": 7962,
      "determ": 7963,
      "Lou": 7964,
      "##овского": 7965,
      "Sl": 7966,
      "tro": 7967,
      "altern": 7968,
      "##ishop": 7969,
      "##ённой": 7970,
      "crew": 7971,
      "whose": 7972,
      "1949": 7973,
      "Нач": 7974,
      "1914": 7975,
      "coll": 7976,
      "Куб": 7977,
      "##ideo": 7978,
      "associated": 7979,
      "Ян": 7980,
      "глуб": 7981,
      "##укт": 7982,
      "##ици": 7983,
      "##рак": 7984,
      "таких": 7985,
      "Pat": 7986,
      "смерти": 7987,
      "##оедин": 7988,
      "##еев": 7989,
      "отправ": 7990,
      "поряд": 7991,
      "Armen": 7992,
      "find": 7993,
      "##езда": 7994,
      "compan": 7995,
      "1928": 7996,
      "веществ": 7997,
      "fav": 7998,
      "Фили": 7999,
      "##cial": 8000,
      "велич": 8001,
      "##лект": 8002,
      "музыкант": 8003,
      "##голь": 8004,
      "itself": 8005,
      "Frank": 8006,
      "Федерации": 8007,
      "слова": 8008,
      "Royal": 8009,
      "выраж": 8010,
      "Lu": 8011,
      "##rown": 8012,
      "Bas": 8013,
      "##yr": 8014,
      "##стон": 8015,
      "tour": 8016,
      "words": 8017,
      "##рения": 8018,
      "160": 8019,
      "метал": 8020,
      "течение": 8021,
      "Кам": 8022,
      "surface": 8023,
      "Ир": 8024,
      "карт": 8025,
      "##жи": 8026,
      "предприят": 8027,
      "Islam": 8028,
      "физик": 8029,
      "##ейм": 8030,
      "brother": 8031,
      "fund": 8032,
      "##нет": 8033,
      "##eror": 8034,
      "respect": 8035,
      "1921": 8036,
      "##ождение": 8037,
      "нос": 8038,
      "##uation": 8039,
      "##ving": 8040,
      "1933": 8041,
      "обознач": 8042,
      "Тер": 8043,
      "##BN": 8044,
      "Конститу": 8045,
      "##анных": 8046,
      "##chie": 8047,
      "clos": 8048,
      "Эн": 8049,
      "##ене": 8050,
      "River": 8051,
      "club": 8052,
      "1924": 8053,
      "AS": 8054,
      "information": 8055,
      "облад": 8056,
      "##ength": 8057,
      "1926": 8058,
      "получил": 8059,
      "млрд": 8060,
      "отсутств": 8061,
      "Mich": 8062,
      "ули": 8063,
      "##ithm": 8064,
      "многие": 8065,
      "##action": 8066,
      "##ula": 8067,
      "перес": 8068,
      "провин": 8069,
      "gre": 8070,
      "##bra": 8071,
      "##aper": 8072,
      "больше": 8073,
      "##оном": 8074,
      "##cript": 8075,
      "обнаруж": 8076,
      "surv": 8077,
      "Govern": 8078,
      "образован": 8079,
      "культуры": 8080,
      "Как": 8081,
      "##erous": 8082,
      "област": 8083,
      "##aps": 8084,
      "Ост": 8085,
      "ste": 8086,
      "1936": 8087,
      "##ysis": 8088,
      "мень": 8089,
      "сравн": 8090,
      "запис": 8091,
      "particularly": 8092,
      "academic": 8093,
      "fall": 8094,
      "##лат": 8095,
      "##aff": 8096,
      "doc": 8097,
      "movement": 8098,
      "Pri": 8099,
      "Роб": 8100,
      "фрон": 8101,
      "##leb": 8102,
      "организации": 8103,
      "##atory": 8104,
      "access": 8105,
      "попыт": 8106,
      "многих": 8107,
      "building": 8108,
      "structure": 8109,
      "poet": 8110,
      "Мин": 8111,
      "философии": 8112,
      "San": 8113,
      "реформ": 8114,
      "director": 8115,
      "magn": 8116,
      "вместе": 8117,
      "Мат": 8118,
      "Red": 8119,
      "account": 8120,
      "approx": 8121,
      "Robert": 8122,
      "Порт": 8123,
      "##ёта": 8124,
      "Ек": 8125,
      "cost": 8126,
      "##вёр": 8127,
      "##ixed": 8128,
      "First": 8129,
      "ЦК": 8130,
      "##бер": 8131,
      "##никами": 8132,
      "окруж": 8133,
      "некоторые": 8134,
      "компьют": 8135,
      "Charles": 8136,
      "Ze": 8137,
      "знак": 8138,
      "##кон": 8139,
      "commer": 8140,
      "Alf": 8141,
      "1932": 8142,
      "##литель": 8143,
      "центр": 8144,
      "различных": 8145,
      "75": 8146,
      "факт": 8147,
      "##кого": 8148,
      "##ael": 8149,
      "island": 8150,
      "##inct": 8151,
      "стало": 8152,
      "такие": 8153,
      "1905": 8154,
      "вок": 8155,
      "##onst": 8156,
      "center": 8157,
      "##астрофа": 8158,
      "norm": 8159,
      "1959": 8160,
      "марш": 8161,
      "circ": 8162,
      "97": 8163,
      "Ссылки": 8164,
      "##лянд": 8165,
      "##олическ": 8166,
      "приним": 8167,
      "Нобелевской": 8168,
      "##ols": 8169,
      "определя": 8170,
      "##еле": 8171,
      "наслед": 8172,
      "2023": 8173,
      "рассматрив": 8174,
      "Afghan": 8175,
      "once": 8176,
      "hit": 8177,
      "Фин": 8178,
      "##аск": 8179,
      "##ани": 8180,
      "##раг": 8181,
      "events": 8182,
      "domin": 8183,
      "##рал": 8184,
      "##екта": 8185,
      "referred": 8186,
      "флот": 8187,
      "##rought": 8188,
      "Mart": 8189,
      "##lim": 8190,
      "##sel": 8191,
      "происхождения": 8192,
      "campaign": 8193,
      "42": 8194,
      "Если": 8195,
      "гр": 8196,
      "compos": 8197,
      "государство": 8198,
      "свои": 8199,
      "##off": 8200,
      "##фиц": 8201,
      "173": 8202,
      "specific": 8203,
      "школы": 8204,
      "nucle": 8205,
      "опубли": 8206,
      "Дмит": 8207,
      "integ": 8208,
      "приш": 8209,
      "анг": 8210,
      "anti": 8211,
      "ISBN": 8212,
      "Cong": 8213,
      "##elling": 8214,
      "screen": 8215,
      "invest": 8216,
      "Colle": 8217,
      "осуществля": 8218,
      "mission": 8219,
      "Тро": 8220,
      "##sh": 8221,
      "##ествен": 8222,
      "используется": 8223,
      "президентом": 8224,
      "increased": 8225,
      "baseball": 8226,
      "помощью": 8227,
      "фильм": 8228,
      "novel": 8229,
      "привод": 8230,
      "site": 8231,
      "Ис": 8232,
      "астроном": 8233,
      "##оят": 8234,
      "##ениях": 8235,
      "Георг": 8236,
      "names": 8237,
      "reb": 8238,
      "полностью": 8239,
      "лиц": 8240,
      "##de": 8241,
      "##oses": 8242,
      "десят": 8243,
      "##ующих": 8244,
      "числа": 8245,
      "influence": 8246,
      "##ениями": 8247,
      "producer": 8248,
      "##iter": 8249,
      "##ическими": 8250,
      "побереж": 8251,
      "gave": 8252,
      "sit": 8253,
      "resist": 8254,
      "1934": 8255,
      "actress": 8256,
      "Президент": 8257,
      "##ios": 8258,
      "##ties": 8259,
      "##ream": 8260,
      "##айдж": 8261,
      "able": 8262,
      "allowed": 8263,
      "сотруд": 8264,
      "##цог": 8265,
      "remained": 8266,
      "революцион": 8267,
      "##чив": 8268,
      "exec": 8269,
      "source": 8270,
      "тру": 8271,
      "поверх": 8272,
      "изображ": 8273,
      "##for": 8274,
      "##ись": 8275,
      "traditional": 8276,
      "топ": 8277,
      "##iting": 8278,
      "1935": 8279,
      "живот": 8280,
      "XVIII": 8281,
      "announced": 8282,
      "короля": 8283,
      "52": 8284,
      "Лит": 8285,
      "##uries": 8286,
      "suff": 8287,
      "Sam": 8288,
      "Bah": 8289,
      "High": 8290,
      "Март": 8291,
      "##овав": 8292,
      "приход": 8293,
      "груз": 8294,
      "##12": 8295,
      "uses": 8296,
      "1923": 8297,
      "percent": 8298,
      "foc": 8299,
      "##мо": 8300,
      "alc": 8301,
      "переп": 8302,
      "твор": 8303,
      "человеч": 8304,
      "past": 8305,
      "includes": 8306,
      "School": 8307,
      "британский": 8308,
      "##medi": 8309,
      "##ficult": 8310,
      "##vironment": 8311,
      "films": 8312,
      "39": 8313,
      "вес": 8314,
      "##ары": 8315,
      "##ябре": 8316,
      "Further": 8317,
      "east": 8318,
      "log": 8319,
      "rate": 8320,
      "преж": 8321,
      "одного": 8322,
      "согласно": 8323,
      "фак": 8324,
      "##ki": 8325,
      "community": 8326,
      "китай": 8327,
      "##цов": 8328,
      "##stand": 8329,
      "##utes": 8330,
      "разд": 8331,
      "symb": 8332,
      "critic": 8333,
      "Du": 8334,
      "journal": 8335,
      "1954": 8336,
      "автомоб": 8337,
      "Екатер": 8338,
      "##до": 8339,
      "Coun": 8340,
      "gun": 8341,
      "тон": 8342,
      "##ulture": 8343,
      "##ербайдж": 8344,
      "Museum": 8345,
      "ten": 8346,
      "Егип": 8347,
      "первым": 8348,
      "features": 8349,
      "##олня": 8350,
      "заб": 8351,
      "##ифика": 8352,
      "Thom": 8353,
      "establish": 8354,
      "##одаря": 8355,
      "condu": 8356,
      "##ocr": 8357,
      "##андарт": 8358,
      "##ibility": 8359,
      "1955": 8360,
      "Britain": 8361,
      "difficult": 8362,
      "бал": 8363,
      "Jewish": 8364,
      "48": 8365,
      "Его": 8366,
      "##OS": 8367,
      "##clus": 8368,
      "cross": 8369,
      "там": 8370,
      "##одейств": 8371,
      "##anted": 8372,
      "instr": 8373,
      "killed": 8374,
      "Лат": 8375,
      "##ky": 8376,
      "##има": 8377,
      "Asia": 8378,
      "Умер": 8379,
      "disp": 8380,
      "1927": 8381,
      "советская": 8382,
      "обычно": 8383,
      "title": 8384,
      "west": 8385,
      "сет": 8386,
      "##луч": 8387,
      "XXI": 8388,
      "away": 8389,
      "душ": 8390,
      "Arabic": 8391,
      "небольш": 8392,
      "achie": 8393,
      "тот": 8394,
      "задач": 8395,
      "##rug": 8396,
      "образования": 8397,
      "estim": 8398,
      "43": 8399,
      "know": 8400,
      "viol": 8401,
      "имен": 8402,
      "первого": 8403,
      "##ётр": 8404,
      "services": 8405,
      "Berlin": 8406,
      "Mu": 8407,
      "Sim": 8408,
      "Лив": 8409,
      "44": 8410,
      "Hung": 8411,
      "cat": 8412,
      "Сибир": 8413,
      "##оя": 8414,
      "##iot": 8415,
      "Калин": 8416,
      "##inese": 8417,
      "experim": 8418,
      "industry": 8419,
      "##11": 8420,
      "deg": 8421,
      "область": 8422,
      "создан": 8423,
      "##atives": 8424,
      "##сказ": 8425,
      "освоб": 8426,
      "##oe": 8427,
      "election": 8428,
      "sources": 8429,
      "believed": 8430,
      "action": 8431,
      "Пётр": 8432,
      "##аф": 8433,
      "##асты": 8434,
      "Сконч": 8435,
      "47": 8436,
      "Jer": 8437,
      "##rast": 8438,
      "став": 8439,
      "##ентов": 8440,
      "##ufact": 8441,
      "ax": 8442,
      "соглас": 8443,
      "##ands": 8444,
      "мощ": 8445,
      "##lier": 8446,
      "##oted": 8447,
      "##rial": 8448,
      "разб": 8449,
      "coast": 8450,
      "put": 8451,
      "съ": 8452,
      "stri": 8453,
      "завод": 8454,
      "чемпионка": 8455,
      "1952": 8456,
      "песен": 8457,
      "право": 8458,
      "##ировать": 8459,
      "northern": 8460,
      "##istry": 8461,
      "trade": 8462,
      "effects": 8463,
      "##ират": 8464,
      "##ающие": 8465,
      "mach": 8466,
      "##stant": 8467,
      "Герой": 8468,
      "телевид": 8469,
      "went": 8470,
      "ак": 8471,
      "##иями": 8472,
      "##ента": 8473,
      "Instit": 8474,
      "##onds": 8475,
      "числен": 8476,
      "Иоан": 8477,
      "##eign": 8478,
      "##ийских": 8479,
      "##oul": 8480,
      "Виктор": 8481,
      "архитект": 8482,
      "ест": 8483,
      "сн": 8484,
      "##альным": 8485,
      "теп": 8486,
      "close": 8487,
      "Австр": 8488,
      "Изра": 8489,
      "larger": 8490,
      "##онодатель": 8491,
      "секрет": 8492,
      "##ibrary": 8493,
      "Rad": 8494,
      "рам": 8495,
      "##ополож": 8496,
      "moved": 8497,
      "Canada": 8498,
      "Net": 8499,
      "ess": 8500,
      "изобрет": 8501,
      "eventually": 8502,
      "bit": 8503,
      "единствен": 8504,
      "Ir": 8505,
      "##to": 8506,
      "ря": 8507,
      "church": 8508,
      "leading": 8509,
      "rock": 8510,
      "##илет": 8511,
      "served": 8512,
      "might": 8513,
      "##щик": 8514,
      "районе": 8515,
      "Old": 8516,
      "гг": 8517,
      "##ror": 8518,
      "##oice": 8519,
      "деятельности": 8520,
      "typically": 8521,
      "##gin": 8522,
      "православ": 8523,
      "развитие": 8524,
      "commonly": 8525,
      "ren": 8526,
      "##еры": 8527,
      "верх": 8528,
      "maint": 8529,
      "Сергей": 8530,
      "oil": 8531,
      "##рах": 8532,
      "##ament": 8533,
      "##исты": 8534,
      "##мар": 8535,
      "##anced": 8536,
      "##orph": 8537,
      "Советского": 8538,
      "##liam": 8539,
      "##енности": 8540,
      "##irit": 8541,
      "concern": 8542,
      "Васили": 8543,
      "федер": 8544,
      "##oney": 8545,
      "65": 8546,
      "библиот": 8547,
      "##енз": 8548,
      "Казах": 8549,
      "Ман": 8550,
      "##оты": 8551,
      "перем": 8552,
      "централь": 8553,
      "Portug": 8554,
      "##ulated": 8555,
      "политический": 8556,
      "ris": 8557,
      "##burg": 8558,
      "##pir": 8559,
      "rights": 8560,
      "иг": 8561,
      "##енский": 8562,
      "##ателем": 8563,
      "основатель": 8564,
      "##hips": 8565,
      "Петра": 8566,
      "влад": 8567,
      "##ij": 8568,
      "##яг": 8569,
      "administ": 8570,
      "started": 8571,
      "##ola": 8572,
      "##имо": 8573,
      "потреб": 8574,
      "независимость": 8575,
      "##ilities": 8576,
      "Histor": 8577,
      "гид": 8578,
      "##nel": 8579,
      "прос": 8580,
      "##aching": 8581,
      "meet": 8582,
      "Союз": 8583,
      "вел": 8584,
      "##аном": 8585,
      "##ографии": 8586,
      "счёт": 8587,
      "##cher": 8588,
      "##лег": 8589,
      "##шем": 8590,
      "##ishing": 8591,
      "returned": 8592,
      "##мотря": 8593,
      "сочин": 8594,
      "current": 8595,
      "Bab": 8596,
      "кр": 8597,
      "##ований": 8598,
      "##гля": 8599,
      "##олод": 8600,
      "##ульп": 8601,
      "чего": 8602,
      "##istics": 8603,
      "самолёт": 8604,
      "Европе": 8605,
      "цель": 8606,
      "права": 8607,
      "squ": 8608,
      "##sen": 8609,
      "Party": 8610,
      "saw": 8611,
      "само": 8612,
      "interp": 8613,
      "революции": 8614,
      "Кур": 8615,
      "##mar": 8616,
      "1953": 8617,
      "cases": 8618,
      "lack": 8619,
      "sal": 8620,
      "China": 8621,
      "provide": 8622,
      "64": 8623,
      "##атом": 8624,
      "Скончались": 8625,
      "cur": 8626,
      "rail": 8627,
      "Уч": 8628,
      "##vert": 8629,
      "инж": 8630,
      "1931": 8631,
      "little": 8632,
      "учёный": 8633,
      "административ": 8634,
      "lay": 8635,
      "self": 8636,
      "vir": 8637,
      "сфер": 8638,
      "##go": 8639,
      "соци": 8640,
      "городов": 8641,
      "Арист": 8642,
      "respons": 8643,
      "rule": 8644,
      "КП": 8645,
      "коммун": 8646,
      "##верг": 8647,
      "особенно": 8648,
      "Academ": 8649,
      "преподоб": 8650,
      "##ini": 8651,
      "заг": 8652,
      "mostly": 8653,
      "значение": 8654,
      "ur": 8655,
      "1912": 8656,
      "length": 8657,
      "юго": 8658,
      "##дам": 8659,
      "##oles": 8660,
      "вош": 8661,
      "компании": 8662,
      "likely": 8663,
      "But": 8664,
      "Ott": 8665,
      "amp": 8666,
      "daugh": 8667,
      "##инаст": 8668,
      "1910": 8669,
      "##онач": 8670,
      "выборы": 8671,
      "Spe": 8672,
      "##oz": 8673,
      "решение": 8674,
      "включая": 8675,
      "required": 8676,
      "кислот": 8677,
      "nature": 8678,
      "##now": 8679,
      "##ёс": 8680,
      "постав": 8681,
      "Rec": 8682,
      "provided": 8683,
      "##ьи": 8684,
      "##ьет": 8685,
      "##ourt": 8686,
      "brought": 8687,
      "##тоном": 8688,
      "##айт": 8689,
      "##liament": 8690,
      "Del": 8691,
      "Eastern": 8692,
      "##гель": 8693,
      "##ывает": 8694,
      "##рации": 8695,
      "##omy": 8696,
      "разг": 8697,
      "аз": 8698,
      "возраст": 8699,
      "ам": 8700,
      "Родились": 8701,
      "интерес": 8702,
      "площади": 8703,
      "fle": 8704,
      "фор": 8705,
      "##uture": 8706,
      "transport": 8707,
      "sea": 8708,
      "Alban": 8709,
      "recorded": 8710,
      "highest": 8711,
      "tax": 8712,
      "distrib": 8713,
      "leaders": 8714,
      "Swed": 8715,
      "cities": 8716,
      "1913": 8717,
      "видов": 8718,
      "qual": 8719,
      "##лев": 8720,
      "##rol": 8721,
      "##reme": 8722,
      "health": 8723,
      "самых": 8724,
      "устрой": 8725,
      "Aut": 8726,
      "дал": 8727,
      "##ённого": 8728,
      "manufact": 8729,
      "subsequ": 8730,
      "cause": 8731,
      "##ned": 8732,
      "increasing": 8733,
      "dial": 8734,
      "Chinese": 8735,
      "increase": 8736,
      "княж": 8737,
      "Испании": 8738,
      "захват": 8739,
      "widely": 8740,
      "hon": 8741,
      "added": 8742,
      "железнодорож": 8743,
      "clear": 8744,
      "##itor": 8745,
      "первых": 8746,
      "составе": 8747,
      "flight": 8748,
      "types": 8749,
      "Henry": 8750,
      "400": 8751,
      "1908": 8752,
      "партий": 8753,
      "Александра": 8754,
      "расшир": 8755,
      "армия": 8756,
      "Земли": 8757,
      "##мон": 8758,
      "growth": 8759,
      "pen": 8760,
      "Фрид": 8761,
      "##яла": 8762,
      "##ederal": 8763,
      "##ейт": 8764,
      "молод": 8765,
      "Умершие": 8766,
      "тан": 8767,
      "##che": 8768,
      "обращ": 8769,
      "alg": 8770,
      "природ": 8771,
      "науки": 8772,
      "поэ": 8773,
      "подоб": 8774,
      "interest": 8775,
      "caused": 8776,
      "living": 8777,
      "ВВ": 8778,
      "Рост": 8779,
      "две": 8780,
      "модель": 8781,
      "всей": 8782,
      "science": 8783,
      "край": 8784,
      "##lied": 8785,
      "Mal": 8786,
      "hom": 8787,
      "##aval": 8788,
      "Louis": 8789,
      "Филипп": 8790,
      "маст": 8791,
      "##стер": 8792,
      "##unar": 8793,
      "##ирование": 8794,
      "Russia": 8795,
      "My": 8796,
      "eight": 8797,
      "southern": 8798,
      "##озд": 8799,
      "fight": 8800,
      "jud": 8801,
      "прож": 8802,
      "1901": 8803,
      "мнению": 8804,
      "Bat": 8805,
      "Bos": 8806,
      "Тем": 8807,
      "mechan": 8808,
      "defin": 8809,
      "remains": 8810,
      "Bor": 8811,
      "UK": 8812,
      "##илищ": 8813,
      "1906": 8814,
      "##последств": 8815,
      "Пру": 8816,
      "ох": 8817,
      "##ественной": 8818,
      "испан": 8819,
      "##последствии": 8820,
      "Лонд": 8821,
      "го": 8822,
      "своё": 8823,
      "writing": 8824,
      "потер": 8825,
      "архитектор": 8826,
      "male": 8827,
      "##икс": 8828,
      "outside": 8829,
      "applic": 8830,
      "conditions": 8831,
      "традицион": 8832,
      "Richard": 8833,
      "Bell": 8834,
      "Peter": 8835,
      "live": 8836,
      "ra": 8837,
      "##ills": 8838,
      "протест": 8839,
      "education": 8840,
      "veh": 8841,
      "##ras": 8842,
      "##lt": 8843,
      "Early": 8844,
      "songwriter": 8845,
      "sound": 8846,
      "погибли": 8847,
      "##jan": 8848,
      "киноакт": 8849,
      "dig": 8850,
      "мучен": 8851,
      "1916": 8852,
      "пап": 8853,
      "предостав": 8854,
      "aud": 8855,
      "##rate": 8856,
      "раств": 8857,
      "посв": 8858,
      "1911": 8859,
      "regular": 8860,
      "instit": 8861,
      "Republic": 8862,
      "VI": 8863,
      "sat": 8864,
      "Int": 8865,
      "##ающий": 8866,
      "##ногда": 8867,
      "солн": 8868,
      "##ores": 8869,
      "прес": 8870,
      "##elled": 8871,
      "164": 8872,
      "phot": 8873,
      "несколь": 8874,
      "months": 8875,
      "##ликт": 8876,
      "##анией": 8877,
      "использов": 8878,
      "технолог": 8879,
      "Леон": 8880,
      "##ump": 8881,
      "плем": 8882,
      "Minister": 8883,
      "Inter": 8884,
      "49": 8885,
      "Its": 8886,
      "виз": 8887,
      "##лас": 8888,
      "поним": 8889,
      "private": 8890,
      "quest": 8891,
      "передач": 8892,
      "Vir": 8893,
      "Гре": 8894,
      "##axim": 8895,
      "gra": 8896,
      "Ат": 8897,
      "РФ": 8898,
      "##ee": 8899,
      "##ference": 8900,
      "Paris": 8901,
      "companies": 8902,
      "Bay": 8903,
      "династ": 8904,
      "##аев": 8905,
      "consider": 8906,
      "Италии": 8907,
      "##ires": 8908,
      "Sal": 8909,
      "##лаб": 8910,
      "Арх": 8911,
      "fa": 8912,
      "speed": 8913,
      "независимости": 8914,
      "жителей": 8915,
      "тогда": 8916,
      "##енн": 8917,
      "produce": 8918,
      "Борис": 8919,
      "Pre": 8920,
      "асс": 8921,
      "##iding": 8922,
      "cann": 8923,
      "historical": 8924,
      "products": 8925,
      "destroy": 8926,
      "creat": 8927,
      "сказ": 8928,
      "##олаг": 8929,
      "##omer": 8930,
      "первые": 8931,
      "speak": 8932,
      "blood": 8933,
      "occup": 8934,
      "исследования": 8935,
      "другой": 8936,
      "Калинин": 8937,
      "бар": 8938,
      "брат": 8939,
      "##рад": 8940,
      "vari": 8941,
      "particip": 8942,
      "46": 8943,
      "##анный": 8944,
      "отмен": 8945,
      "существует": 8946,
      "выполн": 8947,
      "Belg": 8948,
      "software": 8949,
      "AM": 8950,
      "dom": 8951,
      "##рю": 8952,
      "##itar": 8953,
      "##throp": 8954,
      "скульп": 8955,
      "##гресс": 8956,
      "video": 8957,
      "##hing": 8958,
      "##ector": 8959,
      "necess": 8960,
      "Родившиеся": 8961,
      "radio": 8962,
      "Mag": 8963,
      "lines": 8964,
      "##год": 8965,
      "earlier": 8966,
      "che": 8967,
      "греческ": 8968,
      "##зем": 8969,
      "##ительные": 8970,
      "проход": 8971,
      "##ункт": 8972,
      "себе": 8973,
      "пат": 8974,
      "##ya": 8975,
      "concept": 8976,
      "спорт": 8977,
      "##намен": 8978,
      "primary": 8979,
      "##ett": 8980,
      "население": 8981,
      "travel": 8982,
      "выборах": 8983,
      "университета": 8984,
      "##опасности": 8985,
      "Council": 8986,
      "Лев": 8987,
      "##овской": 8988,
      "Ann": 8989,
      "longer": 8990,
      "concent": 8991,
      "##ampions": 8992,
      "##ующие": 8993,
      "bur": 8994,
      "проч": 8995,
      "##лению": 8996,
      "одна": 8997,
      "1951": 8998,
      "комплекс": 8999,
      "земли": 9000,
      "billion": 9001,
      "##idge": 9002,
      "##озн": 9003,
      "##wood": 9004,
      "убит": 9005,
      "##ection": 9006,
      "##anks": 9007,
      "1904": 9008,
      "era": 9009,
      "нап": 9010,
      "1000": 9011,
      "Гол": 9012,
      "##уан": 9013,
      "##адж": 9014,
      "##ательно": 9015,
      "element": 9016,
      "доступ": 9017,
      "статус": 9018,
      "theor": 9019,
      "whether": 9020,
      "##ниж": 9021,
      "##resp": 9022,
      "mention": 9023,
      "##za": 9024,
      "канад": 9025,
      "гл": 9026,
      "##риц": 9027,
      "always": 9028,
      "seven": 9029,
      "defined": 9030,
      "Thomas": 9031,
      "rout": 9032,
      "##ien": 9033,
      "alk": 9034,
      "Stud": 9035,
      "dise": 9036,
      "Italy": 9037,
      "cover": 9038,
      "opt": 9039,
      "##uous": 9040,
      "##ression": 9041,
      "постанов": 9042,
      "##airs": 9043,
      "##ona": 9044,
      "towards": 9045,
      "##емых": 9046,
      "влияние": 9047,
      "Award": 9048,
      "##тож": 9049,
      "совмест": 9050,
      "герцог": 9051,
      "replaced": 9052,
      "emer": 9053,
      "пал": 9054,
      "##ico": 9055,
      "prevent": 9056,
      "##ландии": 9057,
      "construction": 9058,
      "монасты": 9059,
      "##selves": 9060,
      "Sun": 9061,
      "batt": 9062,
      "мик": 9063,
      "##ряд": 9064,
      "results": 9065,
      "majority": 9066,
      "celeb": 9067,
      "ман": 9068,
      "territory": 9069,
      "##лось": 9070,
      "##ranch": 9071,
      "##рослав": 9072,
      "Ок": 9073,
      "игра": 9074,
      "##ула": 9075,
      "##ago": 9076,
      "вызв": 9077,
      "большинство": 9078,
      "Azerb": 9079,
      "Ль": 9080,
      "##ыл": 9081,
      "##лист": 9082,
      "##отов": 9083,
      "##ельг": 9084,
      "##овании": 9085,
      "русской": 9086,
      "themselves": 9087,
      "reading": 9088,
      "Мен": 9089,
      "##рата": 9090,
      "1907": 9091,
      "Второй": 9092,
      "Azerbai": 9093,
      "You": 9094,
      "##фав": 9095,
      "##ero": 9096,
      "корп": 9097,
      "промышленности": 9098,
      "purp": 9099,
      "##ivity": 9100,
      "##abit": 9101,
      "##кова": 9102,
      "будущ": 9103,
      "северо": 9104,
      "und": 9105,
      "Жан": 9106,
      "##очь": 9107,
      "именно": 9108,
      "discovered": 9109,
      "People": 9110,
      "Big": 9111,
      "Олимп": 9112,
      "##едущ": 9113,
      "##ывается": 9114,
      "зависим": 9115,
      "дополн": 9116,
      "Val": 9117,
      "##рещ": 9118,
      "variety": 9119,
      "appeared": 9120,
      "Central": 9121,
      "Nor": 9122,
      "Древ": 9123,
      "Зел": 9124,
      "бан": 9125,
      "##куп": 9126,
      "##yer": 9127,
      "##ована": 9128,
      "##ords": 9129,
      "41": 9130,
      "eas": 9131,
      "##isl": 9132,
      "##urity": 9133,
      "##ительный": 9134,
      "Conf": 9135,
      "присоедин": 9136,
      "Associ": 9137,
      "управления": 9138,
      "инженер": 9139,
      "ап": 9140,
      "пункт": 9141,
      "##ыне": 9142,
      "##инская": 9143,
      "##umn": 9144,
      "office": 9145,
      "gas": 9146,
      "##си": 9147,
      "##obal": 9148,
      "prec": 9149,
      "bor": 9150,
      "front": 9151,
      "бесп": 9152,
      "тяж": 9153,
      "##odes": 9154,
      "##осфер": 9155,
      "##isms": 9156,
      "quant": 9157,
      "##числен": 9158,
      "changes": 9159,
      "Mass": 9160,
      "Балт": 9161,
      "##цар": 9162,
      "##ака": 9163,
      "##евой": 9164,
      "##porary": 9165,
      "рок": 9166,
      "##sych": 9167,
      "Выс": 9168,
      "Шт": 9169,
      "Эй": 9170,
      "##20": 9171,
      "выше": 9172,
      "Нью": 9173,
      "поскольку": 9174,
      "reason": 9175,
      "foreign": 9176,
      "вывод": 9177,
      "австр": 9178,
      "поэтому": 9179,
      "славян": 9180,
      "##ania": 9181,
      "##ерим": 9182,
      "166": 9183,
      "Another": 9184,
      "вероят": 9185,
      "##цкий": 9186,
      "Middle": 9187,
      "rap": 9188,
      "say": 9189,
      "##och": 9190,
      "запр": 9191,
      "troops": 9192,
      "вещ": 9193,
      "сок": 9194,
      "today": 9195,
      "spok": 9196,
      "происходит": 9197,
      "преобраз": 9198,
      "Фё": 9199,
      "##80": 9200,
      "come": 9201,
      "норм": 9202,
      "stated": 9203,
      "трам": 9204,
      "Среди": 9205,
      "loss": 9206,
      "##ере": 9207,
      "##ивал": 9208,
      "духов": 9209,
      "лог": 9210,
      "atom": 9211,
      "теорет": 9212,
      "дек": 9213,
      "ук": 9214,
      "##аств": 9215,
      "##глав": 9216,
      "##бу": 9217,
      "##ющая": 9218,
      "personal": 9219,
      "республики": 9220,
      "sil": 9221,
      "##алия": 9222,
      "Hall": 9223,
      "тов": 9224,
      "##ико": 9225,
      "whom": 9226,
      "русского": 9227,
      "beginning": 9228,
      "взаимодейств": 9229,
      "Mac": 9230,
      "Ром": 9231,
      "##эй": 9232,
      "##ena": 9233,
      "##aring": 9234,
      "##aged": 9235,
      "remov": 9236,
      "##uk": 9237,
      "наступ": 9238,
      "limited": 9239,
      "конфликт": 9240,
      "55": 9241,
      "award": 9242,
      "Нас": 9243,
      "too": 9244,
      "##ийской": 9245,
      "артистка": 9246,
      "76": 9247,
      "Wall": 9248,
      "Китай": 9249,
      "апп": 9250,
      "##asion": 9251,
      "sequ": 9252,
      "##artment": 9253,
      "antib": 9254,
      "общества": 9255,
      "career": 9256,
      "54": 9257,
      "Сем": 9258,
      "##еки": 9259,
      "commercial": 9260,
      "##mir": 9261,
      "##yt": 9262,
      "##ili": 9263,
      "165": 9264,
      "below": 9265,
      "критик": 9266,
      "примерно": 9267,
      "scholars": 9268,
      "##lor": 9269,
      "##stein": 9270,
      "points": 9271,
      "Court": 9272,
      "wife": 9273,
      "код": 9274,
      "сум": 9275,
      "##iences": 9276,
      "протяж": 9277,
      "министра": 9278,
      "Северной": 9279,
      "##приним": 9280,
      "флаг": 9281,
      "заслуж": 9282,
      "этим": 9283,
      "здесь": 9284,
      "Японии": 9285,
      "##pper": 9286,
      "##дела": 9287,
      "1903": 9288,
      "animals": 9289,
      "Society": 9290,
      "Дем": 9291,
      "heav": 9292,
      "Aber": 9293,
      "объяс": 9294,
      "lear": 9295,
      "зас": 9296,
      "техн": 9297,
      "problems": 9298,
      "dam": 9299,
      "##rative": 9300,
      "##рана": 9301,
      "##umin": 9302,
      "assist": 9303,
      "emb": 9304,
      "##iforn": 9305,
      "первое": 9306,
      "##ипед": 9307,
      "regions": 9308,
      "линии": 9309,
      "становится": 9310,
      "##lines": 9311,
      "полу": 9312,
      "analysis": 9313,
      "treatment": 9314,
      "Cons": 9315,
      "Тих": 9316,
      "разре": 9317,
      "1915": 9318,
      "тракт": 9319,
      "Smith": 9320,
      "##во": 9321,
      "##NA": 9322,
      "прим": 9323,
      "System": 9324,
      "cut": 9325,
      "мус": 9326,
      "##овало": 9327,
      "##ичтож": 9328,
      "alge": 9329,
      "##pected": 9330,
      "independent": 9331,
      "объём": 9332,
      "originally": 9333,
      "академик": 9334,
      "latter": 9335,
      "##iance": 9336,
      "подготов": 9337,
      "bod": 9338,
      "alph": 9339,
      "acqu": 9340,
      "##оры": 9341,
      "Def": 9342,
      "via": 9343,
      "Ры": 9344,
      "зал": 9345,
      "##рополит": 9346,
      "электрон": 9347,
      "Англии": 9348,
      "99": 9349,
      "Кит": 9350,
      "арест": 9351,
      "##слов": 9352,
      "##ати": 9353,
      "епископ": 9354,
      "##ground": 9355,
      "##шими": 9356,
      "##овым": 9357,
      "##acters": 9358,
      "Muslim": 9359,
      "губернатор": 9360,
      "степени": 9361,
      "future": 9362,
      "Вар": 9363,
      "Золот": 9364,
      "##ацию": 9365,
      "##аций": 9366,
      "reached": 9367,
      "Наука": 9368,
      "данных": 9369,
      "нём": 9370,
      "##кам": 9371,
      "complete": 9372,
      "Ev": 9373,
      "##ителем": 9374,
      "##лл": 9375,
      "##onic": 9376,
      "обвин": 9377,
      "перен": 9378,
      "##ects": 9379,
      "##ующий": 9380,
      "медиц": 9381,
      "00": 9382,
      "отстав": 9383,
      "sett": 9384,
      "supported": 9385,
      "пож": 9386,
      "обрат": 9387,
      "directly": 9388,
      "честь": 9389,
      "эфф": 9390,
      "##луг": 9391,
      "##шую": 9392,
      "##рова": 9393,
      "Americans": 9394,
      "Ярослав": 9395,
      "##сид": 9396,
      "plant": 9397,
      "156": 9398,
      "участв": 9399,
      "Август": 9400,
      "ранее": 9401,
      "performed": 9402,
      "Григ": 9403,
      "Финлянд": 9404,
      "##цу": 9405,
      "##охран": 9406,
      "Фридрих": 9407,
      "Кли": 9408,
      "араб": 9409,
      "Michael": 9410,
      "бого": 9411,
      "врач": 9412,
      "мост": 9413,
      "##field": 9414,
      "##енную": 9415,
      "##onse": 9416,
      "вычис": 9417,
      "physical": 9418,
      "##zz": 9419,
      "##imal": 9420,
      "##иция": 9421,
      "##ировал": 9422,
      "принял": 9423,
      "letter": 9424,
      "Congress": 9425,
      "Ah": 9426,
      "Bak": 9427,
      "оно": 9428,
      "сила": 9429,
      "##amm": 9430,
      "171": 9431,
      "действия": 9432,
      "schools": 9433,
      "Sol": 9434,
      "дня": 9435,
      "комисс": 9436,
      "Jud": 9437,
      "Kar": 9438,
      "##ift": 9439,
      "##новрем": 9440,
      "Православ": 9441,
      "temperature": 9442,
      "probably": 9443,
      "Мед": 9444,
      "##ledge": 9445,
      "алфав": 9446,
      "Андре": 9447,
      "Нидерланд": 9448,
      "сраж": 9449,
      "##рия": 9450,
      "##лина": 9451,
      "осад": 9452,
      "##шихся": 9453,
      "Венгр": 9454,
      "##ьетнам": 9455,
      "nar": 9456,
      "##ender": 9457,
      "Все": 9458,
      "очередь": 9459,
      "smaller": 9460,
      "corresp": 9461,
      "##вай": 9462,
      "proposed": 9463,
      "Jews": 9464,
      "Met": 9465,
      "##ока": 9466,
      "##кие": 9467,
      "##лок": 9468,
      "группа": 9469,
      "типа": 9470,
      "centuries": 9471,
      "##oys": 9472,
      "зали": 9473,
      "##ьев": 9474,
      "##олы": 9475,
      "##ично": 9476,
      "разруш": 9477,
      "##олгар": 9478,
      "Scottish": 9479,
      "##30": 9480,
      "##raction": 9481,
      "economy": 9482,
      "Institute": 9483,
      "give": 9484,
      "hous": 9485,
      "rank": 9486,
      "чет": 9487,
      "##сол": 9488,
      "##elt": 9489,
      "##itions": 9490,
      "Ash": 9491,
      "провозглаш": 9492,
      "Av": 9493,
      "вд": 9494,
      "##СС": 9495,
      "##етель": 9496,
      "представляет": 9497,
      "Californ": 9498,
      "cit": 9499,
      "срок": 9500,
      "##cel": 9501,
      "##елю": 9502,
      "месте": 9503,
      "working": 9504,
      "движение": 9505,
      "посвящ": 9506,
      "Mer": 9507,
      "предп": 9508,
      "реак": 9509,
      "Island": 9510,
      "##ech": 9511,
      "располаг": 9512,
      "leader": 9513,
      "герман": 9514,
      "границ": 9515,
      "greater": 9516,
      "dim": 9517,
      "нер": 9518,
      "##igned": 9519,
      "##уни": 9520,
      "математик": 9521,
      "живописец": 9522,
      "AT": 9523,
      "wind": 9524,
      "туре": 9525,
      "##irm": 9526,
      "Class": 9527,
      "Jose": 9528,
      "gold": 9529,
      "Сим": 9530,
      "ним": 9531,
      "##овала": 9532,
      "167": 9533,
      "environment": 9534,
      "river": 9535,
      "ССР": 9536,
      "каб": 9537,
      "##uit": 9538,
      "прид": 9539,
      "##отвор": 9540,
      "units": 9541,
      "учеб": 9542,
      "remain": 9543,
      "cells": 9544,
      "Que": 9545,
      "##osaur": 9546,
      "инду": 9547,
      "##верд": 9548,
      "better": 9549,
      "смыс": 9550,
      "##солют": 9551,
      "военно": 9552,
      "commit": 9553,
      "guitar": 9554,
      "involved": 9555,
      "vill": 9556,
      "##ительных": 9557,
      "деятельность": 9558,
      "##ирует": 9559,
      "famous": 9560,
      "code": 9561,
      "рак": 9562,
      "сх": 9563,
      "##men": 9564,
      "synt": 9565,
      "manager": 9566,
      "музей": 9567,
      "дальней": 9568,
      "##яет": 9569,
      "переш": 9570,
      "новый": 9571,
      "вним": 9572,
      "состоит": 9573,
      "возможность": 9574,
      "Buddha": 9575,
      "Киев": 9576,
      "Уиль": 9577,
      "##ори": 9578,
      "##имуществ": 9579,
      "##opp": 9580,
      "154": 9581,
      "Dep": 9582,
      "Импер": 9583,
      "California": 9584,
      "bene": 9585,
      "Ди": 9586,
      "stage": 9587,
      "##уть": 9588,
      "км2": 9589,
      "require": 9590,
      "Азербайдж": 9591,
      "Плат": 9592,
      "practice": 9593,
      "approximately": 9594,
      "lab": 9595,
      "##rot": 9596,
      "##лада": 9597,
      "##ources": 9598,
      "##ером": 9599,
      "157": 9600,
      "жизнь": 9601,
      "controll": 9602,
      "network": 9603,
      "Португ": 9604,
      "##cast": 9605,
      "writers": 9606,
      "married": 9607,
      "Республика": 9608,
      "##полаг": 9609,
      "цвет": 9610,
      "##аре": 9611,
      "##oud": 9612,
      "состоял": 9613,
      "уничтож": 9614,
      "искусства": 9615,
      "AI": 9616,
      "Po": 9617,
      "сын": 9618,
      "##utive": 9619,
      "technology": 9620,
      "daughter": 9621,
      "##onn": 9622,
      "возглав": 9623,
      "Объ": 9624,
      "книги": 9625,
      "##ready": 9626,
      "публицист": 9627,
      "пользов": 9628,
      "##лопед": 9629,
      "рамках": 9630,
      "Wash": 9631,
      "##aling": 9632,
      "стандарт": 9633,
      "characters": 9634,
      "medic": 9635,
      "laws": 9636,
      "separate": 9637,
      "ships": 9638,
      "весь": 9639,
      "##ologist": 9640,
      "recent": 9641,
      "##anned": 9642,
      "nearly": 9643,
      "TV": 9644,
      "вал": 9645,
      "Общ": 9646,
      "состоянию": 9647,
      "множество": 9648,
      "Минист": 9649,
      "дней": 9650,
      "##ha": 9651,
      "##isation": 9652,
      "обуч": 9653,
      "продукт": 9654,
      "distinct": 9655,
      "studies": 9656,
      "точки": 9657,
      "телеведущ": 9658,
      "##циклопед": 9659,
      "Academy": 9660,
      "Dis": 9661,
      "##ДР": 9662,
      "philosop": 9663,
      "wall": 9664,
      "Полит": 9665,
      "аф": 9666,
      "##reet": 9667,
      "station": 9668,
      "силу": 9669,
      "Пал": 9670,
      "##альд": 9671,
      "Интер": 9672,
      "grad": 9673,
      "функции": 9674,
      "Граждан": 9675,
      "Ter": 9676,
      "spect": 9677,
      "##ridge": 9678,
      "fell": 9679,
      "Га": 9680,
      "вари": 9681,
      "##isions": 9682,
      "##owers": 9683,
      "##ables": 9684,
      "169": 9685,
      "Second": 9686,
      "Верховного": 9687,
      "sac": 9688,
      "##gn": 9689,
      "placed": 9690,
      "discuss": 9691,
      "относительно": 9692,
      "##ву": 9693,
      "разных": 9694,
      "White": 9695,
      "mole": 9696,
      "rac": 9697,
      "Поб": 9698,
      "событ": 9699,
      "земель": 9700,
      "cultural": 9701,
      "помощи": 9702,
      "телевидения": 9703,
      "Aj": 9704,
      "wide": 9705,
      "wood": 9706,
      "##war": 9707,
      "##nam": 9708,
      "##iant": 9709,
      "metal": 9710,
      "address": 9711,
      "тай": 9712,
      "##умын": 9713,
      "120": 9714,
      "relatively": 9715,
      "1909": 9716,
      "Mex": 9717,
      "lived": 9718,
      "sem": 9719,
      "пад": 9720,
      "##aver": 9721,
      "##рыт": 9722,
      "рыб": 9723,
      "56": 9724,
      "##айлов": 9725,
      "168": 9726,
      "Abb": 9727,
      "operations": 9728,
      "современной": 9729,
      "уровня": 9730,
      "Mont": 9731,
      "Вой": 9732,
      "КН": 9733,
      "Поч": 9734,
      "Цер": 9735,
      "дев": 9736,
      "##яч": 9737,
      "##се": 9738,
      "##ственных": 9739,
      "относят": 9740,
      "composer": 9741,
      "farm": 9742,
      "клуб": 9743,
      "conqu": 9744,
      "media": 9745,
      "художеств": 9746,
      "кроме": 9747,
      "properties": 9748,
      "Bill": 9749,
      "Wil": 9750,
      "pay": 9751,
      "Юго": 9752,
      "##эр": 9753,
      "студ": 9754,
      "##ительной": 9755,
      "highly": 9756,
      "исследователь": 9757,
      "XVI": 9758,
      "target": 9759,
      "estimated": 9760,
      "Слов": 9761,
      "##истан": 9762,
      "display": 9763,
      "document": 9764,
      "More": 9765,
      "гар": 9766,
      "лев": 9767,
      "threat": 9768,
      "стих": 9769,
      "159": 9770,
      "войне": 9771,
      "algebra": 9772,
      "bound": 9773,
      "власт": 9774,
      "elected": 9775,
      "расст": 9776,
      "эксперим": 9777,
      "практически": 9778,
      "##anded": 9779,
      "##епт": 9780,
      "получила": 9781,
      "mainly": 9782,
      "князь": 9783,
      "Moon": 9784,
      "Rom": 9785,
      "Груз": 9786,
      "##erson": 9787,
      "already": 9788,
      "##ительного": 9789,
      "152": 9790,
      "adopted": 9791,
      "Base": 9792,
      "детей": 9793,
      "Cap": 9794,
      "##ias": 9795,
      "##ket": 9796,
      "##ises": 9797,
      "разм": 9798,
      "достаточ": 9799,
      "положение": 9800,
      "derived": 9801,
      "Washington": 9802,
      "path": 9803,
      "##егда": 9804,
      "##унд": 9805,
      "Pet": 9806,
      "##erial": 9807,
      "##отреб": 9808,
      "##riage": 9809,
      "##ension": 9810,
      "Антон": 9811,
      "College": 9812,
      "##orithm": 9813,
      "всем": 9814,
      "##рип": 9815,
      "agric": 9816,
      "Австрали": 9817,
      "alcoh": 9818,
      "целью": 9819,
      "хок": 9820,
      "##бек": 9821,
      "##егод": 9822,
      "значения": 9823,
      "carbon": 9824,
      "министром": 9825,
      "долларов": 9826,
      "законодатель": 9827,
      "numerous": 9828,
      "league": 9829,
      "##izing": 9830,
      "автоном": 9831,
      "инф": 9832,
      "первую": 9833,
      "review": 9834,
      "Balt": 9835,
      "Go": 9836,
      "Мет": 9837,
      "гим": 9838,
      "##рик": 9839,
      "островов": 9840,
      "пораж": 9841,
      "get": 9842,
      "Вер": 9843,
      "благо": 9844,
      "prin": 9845,
      "obt": 9846,
      "пути": 9847,
      "Grand": 9848,
      "четыр": 9849,
      "multiple": 9850,
      "Irish": 9851,
      "Христ": 9852,
      "##unt": 9853,
      "therefore": 9854,
      "color": 9855,
      "географ": 9856,
      "Гар": 9857,
      "зим": 9858,
      "##ares": 9859,
      "inj": 9860,
      "неиз": 9861,
      "neigh": 9862,
      "##hesis": 9863,
      "largely": 9864,
      "членов": 9865,
      "financ": 9866,
      "официально": 9867,
      "Фёдор": 9868,
      "bird": 9869,
      "drug": 9870,
      "hor": 9871,
      "western": 9872,
      "##част": 9873,
      "поход": 9874,
      "surround": 9875,
      "sens": 9876,
      "Нев": 9877,
      "вп": 9878,
      "круг": 9879,
      "означ": 9880,
      "эв": 9881,
      "императора": 9882,
      "благодаря": 9883,
      "mathemat": 9884,
      "Southern": 9885,
      "Рад": 9886,
      "Эд": 9887,
      "##ients": 9888,
      "Белорус": 9889,
      "Нек": 9890,
      "##asons": 9891,
      "##olk": 9892,
      "которому": 9893,
      "contem": 9894,
      "155": 9895,
      "performance": 9896,
      "свид": 9897,
      "ship": 9898,
      "unit": 9899,
      "ethn": 9900,
      "Law": 9901,
      "Сен": 9902,
      "ном": 9903,
      "чув": 9904,
      "exc": 9905,
      "Например": 9906,
      "государственного": 9907,
      "##ализации": 9908,
      "Норв": 9909,
      "##ённым": 9910,
      "упомин": 9911,
      "Civil": 9912,
      "Празд": 9913,
      "##lected": 9914,
      "пох": 9915,
      "подав": 9916,
      "implement": 9917,
      "Сталин": 9918,
      "##улт": 9919,
      "Amaz": 9920,
      "Scot": 9921,
      "участник": 9922,
      "release": 9923,
      "Мир": 9924,
      "##ider": 9925,
      "социалист": 9926,
      "работу": 9927,
      "minor": 9928,
      "appears": 9929,
      "Rome": 9930,
      "er": 9931,
      "тому": 9932,
      "##estival": 9933,
      "##таб": 9934,
      "contains": 9935,
      "новых": 9936,
      "prior": 9937,
      "дипломатические": 9938,
      "Ast": 9939,
      "Gra": 9940,
      "##уя": 9941,
      "производства": 9942,
      "пассажир": 9943,
      "мастер": 9944,
      "Bi": 9945,
      "Saint": 9946,
      "Лей": 9947,
      "##опр": 9948,
      "Вильгель": 9949,
      "иностранных": 9950,
      "Mark": 9951,
      "cou": 9952,
      "dyn": 9953,
      "вся": 9954,
      "##ённая": 9955,
      "##уман": 9956,
      "XVII": 9957,
      "corre": 9958,
      "еди": 9959,
      "##осе": 9960,
      "1902": 9961,
      "большой": 9962,
      "##board": 9963,
      "##rd": 9964,
      "Стар": 9965,
      "journalist": 9966,
      "боев": 9967,
      "ныне": 9968,
      "##ёг": 9969,
      "##hood": 9970,
      "##ображ": 9971,
      "##остью": 9972,
      "##osis": 9973,
      "##озы": 9974,
      "compared": 9975,
      "капит": 9976,
      "аэроп": 9977,
      "Cat": 9978,
      "Ox": 9979,
      "Сер": 9980,
      "##ev": 9981,
      "##aled": 9982,
      "##cles": 9983,
      "двук": 9984,
      "убий": 9985,
      "нескольких": 9986,
      "##eder": 9987,
      "отк": 9988,
      "diss": 9989,
      "break": 9990,
      "воздуш": 9991,
      "Turk": 9992,
      "Fin": 9993,
      "##уна": 9994,
      "##BS": 9995,
      "##rying": 9996,
      "центра": 9997,
      "Cr": 9998,
      "сдел": 9999,
      "отдел": 10000,
      "##алит": 10001,
      "двиг": 10002,
      "представитель": 10003,
      "Правитель": 10004,
[...]
